{
  "eos": 0, 
  "UNK": 1, 
  ",": 2, 
  "die": 3, 
  ".": 4, 
  "der": 5, 
  "und": 6, 
  "in": 7, 
  "zu": 8, 
  "den": 9, 
  "von": 10, 
  "das": 11, 
  "ist": 12, 
  "eine": 13, 
  "&quot;": 14, 
  "sich": 15, 
  "dass": 16, 
  "für": 17, 
  "auf": 18, 
  "nicht": 19, 
  "des": 20, 
  "es": 21, 
  "-": 22, 
  "@-@": 23, 
  "als": 24, 
  "im": 25, 
  "ein": 26, 
  "mit": 27, 
  "sie": 28, 
  "dem": 29, 
  "werden": 30, 
  "um": 31, 
  "wie": 32, 
  "sind": 33, 
  "einer": 34, 
  "auch": 35, 
  "an": 36, 
  "wird": 37, 
  "hat": 38, 
  "haben": 39, 
  "oder": 40, 
  "diese": 41, 
  "aus": 42, 
  "wenn": 43, 
  "aber": 44, 
  "einen": 45, 
  "über": 46, 
  "bei": 47, 
  ":": 48, 
  "so": 49, 
  "durch": 50, 
  "ihre": 51, 
  "wir": 52, 
  "einem": 53, 
  "zur": 54, 
  "vor": 55, 
  "man": 56, 
  "nach": 57, 
  "nur": 58, 
  "er": 59, 
  "sein": 60, 
  "noch": 61, 
  ")": 62, 
  "(": 63, 
  "war": 64, 
  "USA": 65, 
  "mehr": 66, 
  "dieser": 67, 
  "was": 68, 
  "kann": 69, 
  "Welt": 70, 
  "doch": 71, 
  "können": 72, 
  "wurde": 73, 
  "zum": 74, 
  "seine": 75, 
  "dies": 76, 
  "eines": 77, 
  ";": 78, 
  "?": 79, 
  "%": 80, 
  "Länder": 81, 
  "Menschen": 82, 
  "zwischen": 83, 
  "Regierung": 84, 
  "würde": 85, 
  "unter": 86, 
  "gegen": 87, 
  "China": 88, 
  "Jahren": 89, 
  "könnte": 90, 
  "am": 91, 
  "müssen": 92, 
  "keine": 93, 
  "während": 94, 
  "ihrer": 95, 
  "andere": 96, 
  "EU": 97, 
  "immer": 98, 
  "Jahr": 99, 
  "anderen": 100, 
  "selbst": 101, 
  "Europa": 102, 
  "viele": 103, 
  "gibt": 104, 
  "Land": 105, 
  "bis": 106, 
  "US": 107, 
  "wurden": 108, 
  "sollte": 109, 
  "muss": 110, 
  "Ländern": 111, 
  "seiner": 112, 
  "ich": 113, 
  "Jahre": 114, 
  "da": 115, 
  "alle": 116, 
  "waren": 117, 
  "dazu": 118, 
  "Zeit": 119, 
  "politischen": 120, 
  "ihren": 121, 
  "sondern": 122, 
  "Politik": 123, 
  "wäre": 124, 
  "damit": 125, 
  "weil": 126, 
  "ohne": 127, 
  "jedoch": 128, 
  "heute": 129, 
  "uns": 130, 
  "politische": 131, 
  "allerdings": 132, 
  "dieses": 133, 
  "Staaten": 134, 
  "sollten": 135, 
  "vom": 136, 
  "tatsächlich": 137, 
  "letzten": 138, 
  "neue": 139, 
  "seit": 140, 
  "Dollar": 141, 
  "viel": 142, 
  "weniger": 143, 
  "diesem": 144, 
  "wieder": 145, 
  "ihr": 146, 
  "Russland": 147, 
  "Wirtschaft": 148, 
  "zwei": 149, 
  "nun": 150, 
  "Präsident": 151, 
  "denen": 152, 
  "diesen": 153, 
  "neuen": 154, 
  "sogar": 155, 
  "Macht": 156, 
  "darauf": 157, 
  "&amp;": 158, 
  "würden": 159, 
  "könnten": 160, 
  "dann": 161, 
  "also": 162, 
  "obwohl": 163, 
  "sehr": 164, 
  "dabei": 165, 
  "machen": 166, 
  "meisten": 167, 
  "gegenüber": 168, 
  "Krise": 169, 
  "Entwicklung": 170, 
  "ob": 171, 
  "etwa": 172, 
  "hatte": 173, 
  "aufgrund": 174, 
  "jetzt": 175, 
  "Regierungen": 176, 
  "weiter": 177, 
  "dafür": 178, 
  "ihnen": 179, 
  "Wachstum": 180, 
  "einige": 181, 
  "wo": 182, 
  "seinen": 183, 
  "davon": 184, 
  "Frage": 185, 
  "Demokratie": 186, 
  "Unternehmen": 187, 
  "vielleicht": 188, 
  "lassen": 189, 
  "sowie": 190, 
  "indem": 191, 
  "Irak": 192, 
  "kein": 193, 
  "führen": 194, 
  "daher": 195, 
  "Landes": 196, 
  "Ende": 197, 
  "großen": 198, 
  "amerikanischen": 199, 
  "Unterstützung": 200, 
  "Banken": 201, 
  "Problem": 202, 
  "europäischen": 203, 
  "schon": 204, 
  "Millionen": 205, 
  "ebenso": 206, 
  "Chinas": 207, 
  "Krieg": 208, 
  "bereits": 209, 
  "zwar": 210, 
  "Milliarden": 211, 
  "Amerika": 212, 
  "denn": 213, 
  "globalen": 214, 
  "große": 215, 
  "Rolle": 216, 
  "drei": 217, 
  "Teil": 218, 
  "tun": 219, 
  "innerhalb": 220, 
  "internationalen": 221, 
  "allem": 222, 
  "wirtschaftlichen": 223, 
  "deren": 224, 
  "Fall": 225, 
  "besteht": 226, 
  "etwas": 227, 
  "Maßnahmen": 228, 
  "Japan": 229, 
  "angesichts": 230, 
  "Iran": 231, 
  "hätte": 232, 
  "beiden": 233, 
  "Probleme": 234, 
  "geht": 235, 
  "eigenen": 236, 
  "Art": 237, 
  "darüber": 238, 
  "Weise": 239, 
  "Region": 240, 
  "Bush": 241, 
  "Indien": 242, 
  "unsere": 243, 
  "Israel": 244, 
  "natürlich": 245, 
  "steht": 246, 
  "Deutschland": 247, 
  "Kosten": 248, 
  "Grund": 249, 
  "scheint": 250, 
  "gut": 251, 
  "Geld": 252, 
  "Leben": 253, 
  "warum": 254, 
  "sei": 255, 
  "sowohl": 256, 
  "einfach": 257, 
  "Geschichte": 258, 
  "Zukunft": 259, 
  "wenig": 260, 
  "liegt": 261, 
  "BIP": 262, 
  "wirtschaftliche": 263, 
  "internationale": 264, 
  "einmal": 265, 
  "Vereinigten": 266, 
  "Sicherheit": 267, 
  "Staat": 268, 
  "weit": 269, 
  "bringen": 270, 
  "Weg": 271, 
  "ab": 272, 
  "stehen": 273, 
  "Investitionen": 274, 
  "amerikanische": 275, 
  "Euro": 276, 
  "vielen": 277, 
  "Lage": 278, 
  "stellen": 279, 
  "ganz": 280, 
  "Politiker": 281, 
  "Union": 282, 
  "Frankreich": 283, 
  "hatten": 284, 
  "nbsp": 285, 
  "ersten": 286, 
  "wahrscheinlich": 287, 
  "Auswirkungen": 288, 
  "Obama": 289, 
  "trotz": 290, 
  "geben": 291, 
  "Amerikas": 292, 
  "Partei": 293, 
  "nichts": 294, 
  "bleiben": 295, 
  "globale": 296, 
  "Präsidenten": 297, 
  "halten": 298, 
  "IWF": 299, 
  "Europas": 300, 
  "Institutionen": 301, 
  "lange": 302, 
  "System": 303, 
  "Frauen": 304, 
  "genau": 305, 
  "aller": 306, 
  "hin": 307, 
  "Beziehungen": 308, 
  "weitere": 309, 
  "Reformen": 310, 
  "öffentlichen": 311, 
  "weiterhin": 312, 
  "bleibt": 313, 
  "Eurozone": 314, 
  "beim": 315, 
  "insbesondere": 316, 
  "wollen": 317, 
  "seinem": 318, 
  "allen": 319, 
  "außerdem": 320, 
  "Bedeutung": 321, 
  "Prozent": 322, 
  "beispielsweise": 323, 
  "Bevölkerung": 324, 
  "kommen": 325, 
  "schließlich": 326, 
  "Führung": 327, 
  "chinesischen": 328, 
  "Ziel": 329, 
  "Westen": 330, 
  "fast": 331, 
  "darin": 332, 
  "alles": 333, 
  "un@@": 334, 
  "besser": 335, 
  "dessen": 336, 
  "Gesellschaft": 337, 
  "ihm": 338, 
  "Europäischen": 339, 
  "ins": 340, 
  "Interessen": 341, 
  "Beispiel": 342, 
  "solche": 343, 
  "ihrem": 344, 
  "Türkei": 345, 
  "ihn": 346, 
  "soll": 347, 
  "bedeutet": 348, 
  "nachdem": 349, 
  "nie": 350, 
  "finden": 351, 
  "gab": 352, 
  "keinen": 353, 
  "Lösung": 354, 
  "nehmen": 355, 
  "erreichen": 356, 
  "nationalen": 357, 
  "Amerikaner": 358, 
  "eher": 359, 
  "Wahlen": 360, 
  "hinaus": 361, 
  "erst": 362, 
  "Recht": 363, 
  "kommt": 364, 
  "wären": 365, 
  "lediglich": 366, 
  "stark": 367, 
  "gehen": 368, 
  "möglicherweise": 369, 
  "20": 370, 
  "Gewalt": 371, 
  "europäische": 372, 
  "Mitglieder": 373, 
  "jeder": 374, 
  "derartige": 375, 
  "dort": 376, 
  "erhalten": 377, 
  "worden": 378, 
  "hoch": 379, 
  "Osten": 380, 
  "nächsten": 381, 
  "Bereich": 382, 
  "daran": 383, 
  "kaum": 384, 
  "Tatsache": 385, 
  "wirklich": 386, 
  "Großbritannien": 387, 
  "pro": 388, 
  "Strategie": 389, 
  "Einfluss": 390, 
  "klar": 391, 
  "Wert": 392, 
  "hätten": 393, 
  "Inflation": 394, 
  "besonders": 395, 
  "zudem": 396, 
  "Schulden": 397, 
  "160": 398, 
  "schaffen": 399, 
  "unserer": 400, 
  "chinesische": 401, 
  "allein": 402, 
  "konnte": 403, 
  "möglich": 404, 
  "Fragen": 405, 
  "beide": 406, 
  "#": 407, 
  "sehen": 408, 
  "Erfolg": 409, 
  "Bürger": 410, 
  "New": 411, 
  "deutlich": 412, 
  "öffentliche": 413, 
  "Richtung": 414, 
  "Kontrolle": 415, 
  "verhindern": 416, 
  "Rezession": 417, 
  "Druck": 418, 
  "lässt": 419, 
  "bereit": 420, 
  "Stabilität": 421, 
  "welche": 422, 
  "bisher": 423, 
  "jene": 424, 
  "Ausgaben": 425, 
  "macht": 426, 
  "zumindest": 427, 
  "Armut": 428, 
  "wissen": 429, 
  "hier": 430, 
  "dennoch": 431, 
  "Möglichkeit": 432, 
  "statt": 433, 
  "Vergangenheit": 434, 
  "ihres": 435, 
  "Form": 436, 
  "zunehmend": 437, 
  "stellt": 438, 
  "oft": 439, 
  "führt": 440, 
  "Parteien": 441, 
  "Mittel": 442, 
  "wohl": 443, 
  "gemacht": 444, 
  "erste": 445, 
  "deshalb": 446, 
  "ver@@": 447, 
  "derzeit": 448, 
  "Kampf": 449, 
  "Wahl": 450, 
  "hinsichtlich": 451, 
  "Hilfe": 452, 
  "unterstützen": 453, 
  "häufig": 454, 
  "Putin": 455, 
  "Märkte": 456, 
  "weltweit": 457, 
  "Ergebnis": 458, 
  "einzige": 459, 
  "Risiken": 460, 
  "Sie": 461, 
  "NATO": 462, 
  "Markt": 463, 
  "Europäische": 464, 
  "Russlands": 465, 
  "Ressourcen": 466, 
  "glauben": 467, 
  "anderer": 468, 
  "Bemühungen": 469, 
  "2008": 470, 
  "Situation": 471, 
  "Seite": 472, 
  "politischer": 473, 
  "nämlich": 474, 
  "größten": 475, 
  "Gefahr": 476, 
  "Afghanistan": 477, 
  "seines": 478, 
  "Weltwirtschaft": 479, 
  "Gemeinschaft": 480, 
  "UNO": 481, 
  "hohen": 482, 
  "Entscheidung": 483, 
  "anders": 484, 
  "leben": 485, 
  "zehn": 486, 
  "dadurch": 487, 
  "Nationen": 488, 
  "Entscheidungen": 489, 
  "Kinder": 490, 
  "je": 491, 
  "Finanzkrise": 492, 
  "gerade": 493, 
  "Grenzen": 494, 
  "Asien": 495, 
  "Prozess": 496, 
  "all": 497, 
  "später": 498, 
  "Einkommen": 499, 
  "Afrika": 500, 
  "sagen": 501, 
  "Arbeitslosigkeit": 502, 
  "Jahrhundert": 503, 
  "geführt": 504, 
  "ab@@": 505, 
  "helfen": 506, 
  "genug": 507, 
  "Ziele": 508, 
  "gleichzeitig": 509, 
  "Führer": 510, 
  "Nahen": 511, 
  "Arbeit": 512, 
  "ebenfalls": 513, 
  "Jahrhunderts": 514, 
  "EZB": 515, 
  "Mal": 516, 
  "Risiko": 517, 
  "erreicht": 518, 
  "Öffentlichkeit": 519, 
  "vergangenen": 520, 
  "einigen": 521, 
  "neu": 522, 
  "sollen": 523, 
  "zurück": 524, 
  "schnell": 525, 
  "bevor": 526, 
  "Revolution": 527, 
  "geworden": 528, 
  "Zahl": 529, 
  "arabischen": 530, 
  "Freiheit": 531, 
  "habe": 532, 
  "jede": 533, 
  "Wirtschaftswachstum": 534, 
  "Veränderungen": 535, 
  "Mehrheit": 536, 
  "reichen": 537, 
  "Regime": 538, 
  "Globalisierung": 539, 
  "diejenigen": 540, 
  "Folgen": 541, 
  "Jahres": 542, 
  "hohe": 543, 
  "stärker": 544, 
  "kam": 545, 
  "russischen": 546, 
  "privaten": 547, 
  "ziehen": 548, 
  "Vertrauen": 549, 
  "Frieden": 550, 
  "manche": 551, 
  "Grundlage": 552, 
  "zeigen": 553, 
  "vier": 554, 
  "gilt": 555, 
  "Interesse": 556, 
  "zusammen": 557, 
  "Europäer": 558, 
  "schwer": 559, 
  "erkennen": 560, 
  "fünf": 561, 
  "Handel": 562, 
  "trotzdem": 563, 
  "ein@@": 564, 
  "führte": 565, 
  "hinter": 566, 
  "Gegensatz": 567, 
  "wer": 568, 
  "nationale": 569, 
  "Zusammenarbeit": 570, 
  "Anteil": 571, 
  "Hamas": 572, 
  "liegen": 573, 
  "einschließlich": 574, 
  "sicher": 575, 
  "überhaupt": 576, 
  "handelt": 577, 
  "Bezug": 578, 
  "relativ": 579, 
  "jüngsten": 580, 
  "Bedrohung": 581, 
  "Ukraine": 582, 
  "er@@": 583, 
  "falls": 584, 
  "wichtige": 585, 
  "weiteren": 586, 
  "demokratischen": 587, 
  "gute": 588, 
  "wichtig": 589, 
  "Herausforderung": 590, 
  "Preis": 591, 
  "Korruption": 592, 
  "Gruppen": 593, 
  "bekommen": 594, 
  "Terrorismus": 595, 
  "Bank": 596, 
  "10": 597, 
  "Investoren": 598, 
  "Angst": 599, 
  "Schritt": 600, 
  "gar": 601, 
  "spielen": 602, 
  "ten": 603, 
  "Nachfrage": 604, 
  "betrachtet": 605, 
  "an@@": 606, 
  "dar": 607, 
  "Gruppe": 608, 
  "Volkswirtschaften": 609, 
  "staatlichen": 610, 
  "Kommission": 611, 
  "größere": 612, 
  "Verantwortung": 613, 
  "Bedingungen": 614, 
  "Höhe": 615, 
  "Firmen": 616, 
  "konnten": 617, 
  "erhöhen": 618, 
  "Reaktion": 619, 
  "Ansicht": 620, 
  "will": 621, 
  "weltweiten": 622, 
  "größte": 623, 
  "Pakistan": 624, 
  "weder": 625, 
  "Anfang": 626, 
  "Fähigkeit": 627, 
  "fördern": 628, 
  "paar": 629, 
  "Werte": 630, 
  "setzen": 631, 
  "-@@": 632, 
  "Antwort": 633, 
  "Entwicklungsländer": 634, 
  "Verhandlungen": 635, 
  "Ansatz": 636, 
  "überall": 637, 
  "aktuellen": 638, 
  "50": 639, 
  "mag": 640, 
  "Folge": 641, 
  "entwickeln": 642, 
  "letztlich": 643, 
  "auf@@": 644, 
  "jedes": 645, 
  "zeigt": 646, 
  "eigene": 647, 
  "Hoffnung": 648, 
  "gewesen": 649, 
  "Griechenland": 650, 
  "politisch": 651, 
  "gemeinsame": 652, 
  "höhere": 653, 
  "Tag": 654, 
  "Integration": 655, 
  "leisten": 656, 
  "gebracht": 657, 
  "Verfassung": 658, 
  "Bildung": 659, 
  "notwendig": 660, 
  "scheinen": 661, 
  "gemeinsamen": 662, 
  "versuchen": 663, 
  "staatliche": 664, 
  "2009": 665, 
  "Entwicklungsländern": 666, 
  "Preise": 667, 
  "momentan": 668, 
  "brauchen": 669, 
  "Herausforderungen": 670, 
  "s": 671, 
  "Schaffung": 672, 
  "Aufgabe": 673, 
  "Jahrzehnten": 674, 
  "inzwischen": 675, 
  "besten": 676, 
  "Hälfte": 677, 
  "Rahmen": 678, 
  "Seiten": 679, 
  "te": 680, 
  "damals": 681, 
  "Zinssätze": 682, 
  "30": 683, 
  "wichtigsten": 684, 
  "alten": 685, 
  "sorgen": 686, 
  "Erholung": 687, 
  "Hinblick": 688, 
  "Debatte": 689, 
  "Fehler": 690, 
  "Klimawandel": 691, 
  "Ebene": 692, 
  "Anstieg": 693, 
  "Italien": 694, 
  "zunächst": 695, 
  "militärische": 696, 
  "wodurch": 697, 
  "Verfügung": 698, 
  "Steuern": 699, 
  "versucht": 700, 
  "wobei": 701, 
  "Meinung": 702, 
  "Vorteile": 703, 
  "niemand": 704, 
  "lang": 705, 
  "wesentlich": 706, 
  "ganzen": 707, 
  "Währung": 708, 
  "Zentralbank": 709, 
  "Anzahl": 710, 
  "sozialen": 711, 
  "schwierig": 712, 
  "Spanien": 713, 
  "&apos;": 714, 
  "UN": 715, 
  "neuer": 716, 
  "September": 717, 
  "Reihe": 718, 
  "entwickelt": 719, 
  "stattdessen": 720, 
  "de": 721, 
  "braucht": 722, 
  "Konflikt": 723, 
  "Opfer": 724, 
  "verstehen": 725, 
  "Ausmaß": 726, 
  "soziale": 727, 
  "höher": 728, 
  "Ausland": 729, 
  "/": 730, 
  "teilweise": 731, 
  "Schutz": 732, 
  "Medien": 733, 
  "gewinnen": 734, 
  "Chance": 735, 
  "aus@@": 736, 
  "Kapital": 737, 
  "westlichen": 738, 
  "großer": 739, 
  "verloren": 740, 
  "Zinsen": 741, 
  "gesamten": 742, 
  "bestehen": 743, 
  "2010": 744, 
  "Produktion": 745, 
  "verringern": 746, 
  "unser": 747, 
  "Idee": 748, 
  "insgesamt": 749, 
  "Zusammenbruch": 750, 
  "Zugang": 751, 
  "bieten": 752, 
  "beinahe": 753, 
  "Kredite": 754, 
  "Zusammenhang": 755, 
  "wichtiger": 756, 
  "Bereichen": 757, 
  "über@@": 758, 
  "of": 759, 
  "leicht": 760, 
  "starken": 761, 
  "ging": 762, 
  "demokratische": 763, 
  "verfügen": 764, 
  "entwickelten": 765, 
  "wegen": 766, 
  "Die": 767, 
  "Palästinenser": 768, 
  "laut": 769, 
  "Außenpolitik": 770, 
  "Staates": 771, 
  "Schwierigkeiten": 772, 
  "Forschung": 773, 
  "Zeiten": 774, 
  "Versuch": 775, 
  "jedem": 776, 
  "verantwortlich": 777, 
  "durchaus": 778, 
  "arbeiten": 779, 
  "verschiedenen": 780, 
  "Regeln": 781, 
  "vielmehr": 782, 
  "Einsatz": 783, 
  "gestellt": 784, 
  "manchmal": 785, 
  "unterstützt": 786, 
  "Wähler": 787, 
  "ge@@": 788, 
  "Thema": 789, 
  "Ökonomen": 790, 
  "schützen": 791, 
  "solchen": 792, 
  "betrachten": 793, 
  "erforderlich": 794, 
  "Kultur": 795, 
  "ändern": 796, 
  "Brasilien": 797, 
  "Unabhängigkeit": 798, 
  "Krieges": 799, 
  "mir": 800, 
  "Aufmerksamkeit": 801, 
  "starke": 802, 
  "bekannt": 803, 
  "Wohlstand": 804, 
  "Finanz@@": 805, 
  "Rechte": 806, 
  "Ägypten": 807, 
  "sieht": 808, 
  "ja": 809, 
  "Möglichkeiten": 810, 
  "Fällen": 811, 
  "palästinensischen": 812, 
  "größeren": 813, 
  "Öl": 814, 
  "russische": 815, 
  "verfügt": 816, 
  "Nutzen": 817, 
  "2007": 818, 
  "zugleich": 819, 
  "somit": 820, 
  "langfristigen": 821, 
  "Menschenrechte": 822, 
  "zweite": 823, 
  "steigen": 824, 
  "Hand": 825, 
  "ausländische": 826, 
  "Strategien": 827, 
  "2001": 828, 
  "darum": 829, 
  "heutigen": 830, 
  "Haushalte": 831, 
  "französischen": 832, 
  "Gesellschaften": 833, 
  "Arbeitsplätze": 834, 
  "mich": 835, 
  "finanzielle": 836, 
  "heißt": 837, 
  "Ergebnisse": 838, 
  "verbessern": 839, 
  "lösen": 840, 
  "bedarf": 841, 
  "Notwendigkeit": 842, 
  "ungefähr": 843, 
  "Armee": 844, 
  "Dinge": 845, 
  "Zeitpunkt": 846, 
  "2000": 847, 
  "George": 848, 
  "al": 849, 
  "Informationen": 850, 
  "Parlament": 851, 
  "Mitte": 852, 
  "fallen": 853, 
  "erstens": 854, 
  "jeden": 855, 
  "gemeinsam": 856, 
  "Monaten": 857, 
  "bietet": 858, 
  "wenige": 859, 
  "Abkommen": 860, 
  "militärischen": 861, 
  "Status": 862, 
  "Infrastruktur": 863, 
  "dürfte": 864, 
  "Gefühl": 865, 
  "Jahrzehnt": 866, 
  "Rest": 867, 
  "freien": 868, 
  "Punkt": 869, 
  "übernehmen": 870, 
  "Mitgliedsstaaten": 871, 
  "CO2": 872, 
  "Wahrheit": 873, 
  "erfolgreich": 874, 
  "wirtschaftlicher": 875, 
  "anstatt": 876, 
  "Israels": 877, 
  "dagegen": 878, 
  "Ver@@": 879, 
  "länger": 880, 
  "groß": 881, 
  "40": 882, 
  "Wandel": 883, 
  "Weltbank": 884, 
  "Förderung": 885, 
  "mehrere": 886, 
  "beitragen": 887, 
  "Al": 888, 
  "zweitens": 889, 
  "Regionen": 890, 
  "Fortschritte": 891, 
  "langfristige": 892, 
  "Kraft": 893, 
  "Verhalten": 894, 
  "bald": 895, 
  "Energie": 896, 
  "Finanzmärkte": 897, 
  "eindeutig": 898, 
  "außerhalb": 899, 
  "Spiel": 900, 
  "zweiten": 901, 
  "Mexiko": 902, 
  "ehemaligen": 903, 
  "völlig": 904, 
  "Chinesen": 905, 
  "Haltung": 906, 
  "entweder": 907, 
  "leider": 908, 
  "Position": 909, 
  "Behörden": 910, 
  "Gesetz": 911, 
  "Modell": 912, 
  "Ordnung": 913, 
  "armen": 914, 
  "bewusst": 915, 
  "enden": 916, 
  "tragen": 917, 
  "daraus": 918, 
  "G": 919, 
  "verlieren": 920, 
  "Plan": 921, 
  "Truppen": 922, 
  "Premierminister": 923, 
  "vermeiden": 924, 
  "seien": 925, 
  "Vergleich": 926, 
  "aktuelle": 927, 
  "ermöglichen": 928, 
  "Opposition": 929, 
  "private": 930, 
  "Wirtschafts@@": 931, 
  "Platz": 932, 
  "2004": 933, 
  "erwarten": 934, 
  "Armen": 935, 
  "en": 936, 
  "selbstverständlich": 937, 
  "ter": 938, 
  "Lateinamerika": 939, 
  "Kopf": 940, 
  "kürzlich": 941, 
  "bringt": 942, 
  "nutzen": 943, 
  "Polen": 944, 
  "Beginn": 945, 
  "kurzem": 946, 
  "gegenwärtigen": 947, 
  "Vereinten": 948, 
  "15": 949, 
  "fest": 950, 
  "Washington": 951, 
  "eigentlich": 952, 
  "Realität": 953, 
  "zu@@": 954, 
  "kurz": 955, 
  "Administration": 956, 
  "Bewegung": 957, 
  "2005": 958, 
  "erklären": 959, 
  "Nachbarn": 960, 
  "konzentrieren": 961, 
  "Amt": 962, 
  "Teilen": 963, 
  "Ab@@": 964, 
  "1990er": 965, 
  "gleichen": 966, 
  "Jahrzehnte": 967, 
  "derart": 968, 
  "e": 969, 
  "gegeben": 970, 
  "grundlegende": 971, 
  "Islam": 972, 
  "zuvor": 973, 
  "höheren": 974, 
  "erklärt": 975, 
  "jener": 976, 
  "Technologien": 977, 
  "Gründe": 978, 
  "Organisation": 979, 
  "entscheiden": 980, 
  "unmöglich": 981, 
  "behaupten": 982, 
  "gezeigt": 983, 
  "ent@@": 984, 
  "vor@@": 985, 
  "Hinsicht": 986, 
  "Gesundheit": 987, 
  "Emissionen": 988, 
  "weiß": 989, 
  "Faktoren": 990, 
  "Demokratien": 991, 
  "Syrien": 992, 
  "enorme": 993, 
  "getan": 994, 
  "Reform": 995, 
  "Generation": 996, 
  "israelischen": 997, 
  "Kräfte": 998, 
  "profitieren": 999, 
  "bessere": 1000, 
  "kleinen": 1001, 
  "Vorstellung": 1002, 
  "begann": 1003, 
  "bin": 1004, 
  "verlassen": 1005, 
  "Waffen": 1006, 
  "Großteil": 1007, 
  "falsch": 1008, 
  "offensichtlich": 1009, 
  "London": 1010, 
  "wiederum": 1011, 
  "Barack": 1012, 
  "um@@": 1013, 
  "be@@": 1014, 
  "Volkswirtschaft": 1015, 
  "erhöht": 1016, 
  "Japans": 1017, 
  "treffen": 1018, 
  "verbunden": 1019, 
  "meine": 1020, 
  "verfolgen": 1021, 
  "früher": 1022, 
  "Wettbewerb": 1023, 
  "geschaffen": 1024, 
  "offen": 1025, 
  "folgen": 1026, 
  "außer": 1027, 
  "Verbesserung": 1028, 
  "Verbrechen": 1029, 
  "Angriff": 1030, 
  "direkt": 1031, 
  "2": 1032, 
  "nahe": 1033, 
  "Sektor": 1034, 
  "Anreize": 1035, 
  "Vertrag": 1036, 
  "französische": 1037, 
  "Sowjetunion": 1038, 
  "erneut": 1039, 
  "Falle": 1040, 
  "$": 1041, 
  "sprechen": 1042, 
  "Unterschiede": 1043, 
  "Geldpolitik": 1044, 
  "erster": 1045, 
  "Kosovo": 1046, 
  "gesagt": 1047, 
  "schlecht": 1048, 
  "Dienstleistungen": 1049, 
  "Bericht": 1050, 
  "wichtigen": 1051, 
  "1": 1052, 
  "Personen": 1053, 
  "Gegenteil": 1054, 
  "rasch": 1055, 
  "Sache": 1056, 
  "neues": 1057, 
  "darunter": 1058, 
  "Zentralbanken": 1059, 
  "Niveau": 1060, 
  "Wachstums": 1061, 
  "sechs": 1062, 
  "gesamte": 1063, 
  "25": 1064, 
  "Organisationen": 1065, 
  "Kandidaten": 1066, 
  "Sieg": 1067, 
  "nimmt": 1068, 
  "Einführung": 1069, 
  "kommenden": 1070, 
  "Programm": 1071, 
  "Augen": 1072, 
  "Regimes": 1073, 
  "gewährleisten": 1074, 
  "Männer": 1075, 
  "Leute": 1076, 
  "stärken": 1077, 
  "2006": 1078, 
  "solange": 1079, 
  "Depression": 1080, 
  "legen": 1081, 
  "Mann": 1082, 
  "enormen": 1083, 
  "Behandlung": 1084, 
  "Erklärung": 1085, 
  "sch@@": 1086, 
  "befinden": 1087, 
  "akzeptieren": 1088, 
  "finanziellen": 1089, 
  "senken": 1090, 
  "Finanzierung": 1091, 
  "!": 1092, 
  "tief": 1093, 
  "Konflikte": 1094, 
  "nötig": 1095, 
  "praktisch": 1096, 
  "ganze": 1097, 
  "Wissenschaft": 1098, 
  "Umständen": 1099, 
  "Fortschritt": 1100, 
  "An@@": 1101, 
  "Tage": 1102, 
  "gezwungen": 1103, 
  "B.": 1104, 
  "en@@": 1105, 
  "Alternative": 1106, 
  "Krankheiten": 1107, 
  "3": 1108, 
  "Ideen": 1109, 
  "genauso": 1110, 
  "internationaler": 1111, 
  "Kapitalismus": 1112, 
  "modernen": 1113, 
  "Aktivitäten": 1114, 
  "unseren": 1115, 
  "Weltkrieg": 1116, 
  "Widerstand": 1117, 
  "wachsende": 1118, 
  "reagieren": 1119, 
  "k@@": 1120, 
  "Gesetze": 1121, 
  "Wahrscheinlichkeit": 1122, 
  "100": 1123, 
  "kleine": 1124, 
  "ern": 1125, 
  "Gipfel": 1126, 
  "Tat": 1127, 
  "beginnen": 1128, 
  "wichtigste": 1129, 
  "abhängig": 1130, 
  "Verhältnis": 1131, 
  "Mitgliedschaft": 1132, 
  "Internet": 1133, 
  "Verbindung": 1134, 
  "bedeuten": 1135, 
  "normalerweise": 1136, 
  "Konsens": 1137, 
  "Dollars": 1138, 
  "Nordkorea": 1139, 
  "Patienten": 1140, 
  "zahlen": 1141, 
  "Kalten": 1142, 
  "Rückgang": 1143, 
  "Erhöhung": 1144, 
  "deutschen": 1145, 
  "Beziehung": 1146, 
  "alte": 1147, 
  "Ungleichheit": 1148, 
  "gekommen": 1149, 
  "Libanon": 1150, 
  "Billionen": 1151, 
  "Erfahrung": 1152, 
  "kaufen": 1153, 
  "Putins": 1154, 
  "investieren": 1155, 
  "YORK": 1156, 
  "handeln": 1157, 
  "früheren": 1158, 
  "Wettbewerbsfähigkeit": 1159, 
  "Namen": 1160, 
  "bewegen": 1161, 
  "wachsenden": 1162, 
  "Terroristen": 1163, 
  "ähnliche": 1164, 
  "erscheinen": 1165, 
  "Ausdruck": 1166, 
  "Atomwaffen": 1167, 
  "genannten": 1168, 
  "funktionieren": 1169, 
  "Natur": 1170, 
  "Monat": 1171, 
  "freilich": 1172, 
  "z.": 1173, 
  "Ministerpräsident": 1174, 
  "Sicht": 1175, 
  "Ereignisse": 1176, 
  "britischen": 1177, 
  "gesehen": 1178, 
  "erklärte": 1179, 
  "erfordert": 1180, 
  "hält": 1181, 
  "Stimmen": 1182, 
  "ähnlich": 1183, 
  "Forderungen": 1184, 
  "ausländischen": 1185, 
  "Sanktionen": 1186, 
  "möchte": 1187, 
  "vermutlich": 1188, 
  "freie": 1189, 
  "Spannungen": 1190, 
  "Umfang": 1191, 
  "Exporte": 1192, 
  "Soldaten": 1193, 
  "darf": 1194, 
  "Gelegenheit": 1195, 
  "Technologie": 1196, 
  "60": 1197, 
  "angeht": 1198, 
  "Kongress": 1199, 
  "Chancen": 1200, 
  "Internationalen": 1201, 
  "jüngste": 1202, 
  "überdies": 1203, 
  "Republik": 1204, 
  "einst": 1205, 
  "japanischen": 1206, 
  "Schritte": 1207, 
  "einzelnen": 1208, 
  "Argentinien": 1209, 
  "Themen": 1210, 
  "a": 1211, 
  "erscheint": 1212, 
  "britische": 1213, 
  "Gründen": 1214, 
  "bestimmt": 1215, 
  "retten": 1216, 
  "guten": 1217, 
  "stand": 1218, 
  "Anleihen": 1219, 
  "letzte": 1220, 
  "derartigen": 1221, 
  "recht": 1222, 
  "Zweiten": 1223, 
  "Obamas": 1224, 
  "größer": 1225, 
  "Volk": 1226, 
  "regionale": 1227, 
  "vieler": 1228, 
  "Sarkozy": 1229, 
  "anderes": 1230, 
  "Bekämpfung": 1231, 
  "weiterer": 1232, 
  "Herrschaft": 1233, 
  "Rückkehr": 1234, 
  "tes": 1235, 
  "Fed": 1236, 
  "Vertreter": 1237, 
  "reduzieren": 1238, 
  "bilden": 1239, 
  "konfrontiert": 1240, 
  "leiden": 1241, 
  "Initiative": 1242, 
  "Legitimität": 1243, 
  "5": 1244, 
  "miteinander": 1245, 
  "t": 1246, 
  "sagte": 1247, 
  "Un@@": 1248, 
  "Basis": 1249, 
  "Indiens": 1250, 
  "beste": 1251, 
  "Amtszeit": 1252, 
  "Zweifel": 1253, 
  "beruht": 1254, 
  "jährlich": 1255, 
  "ende": 1256, 
  "wonach": 1257, 
  "Tod": 1258, 
  "hauptsächlich": 1259, 
  "Monate": 1260, 
  "gehören": 1261, 
  "neben": 1262, 
  "erwartet": 1263, 
  "nahezu": 1264, 
  "Stelle": 1265, 
  "langfristig": 1266, 
  "Umsetzung": 1267, 
  "Fonds": 1268, 
  "Südkorea": 1269, 
  "W.": 1270, 
  "Teile": 1271, 
  "2003": 1272, 
  "junge": 1273, 
  "Währungen": 1274, 
  "November": 1275, 
  "Prinzipien": 1276, 
  "untergraben": 1277, 
  "befindet": 1278, 
  "genommen": 1279, 
  "Bauern": 1280, 
  "Kommunismus": 1281, 
  "Dezember": 1282, 
  "Linie": 1283, 
  "musste": 1284, 
  "Ein@@": 1285, 
  "Ära": 1286, 
  "unwahrscheinlich": 1287, 
  "stellte": 1288, 
  "grundlegenden": 1289, 
  "ungen": 1290, 
  "Menge": 1291, 
  "gehört": 1292, 
  "Botschaft": 1293, 
  "regionalen": 1294, 
  "anderswo": 1295, 
  "Wasser": 1296, 
  "Verluste": 1297, 
  "zukünftige": 1298, 
  "asiatischen": 1299, 
  "sten": 1300, 
  "erweisen": 1301, 
  "Entwicklungen": 1302, 
  "Systems": 1303, 
  "Clinton": 1304, 
  "Daten": 1305, 
  "Aufstieg": 1306, 
  "Verlust": 1307, 
  "rund": 1308, 
  "Experten": 1309, 
  "danach": 1310, 
  "Engagement": 1311, 
  "8": 1312, 
  "weltweite": 1313, 
  "denken": 1314, 
  "frühen": 1315, 
  "gegenwärtig": 1316, 
  "niemals": 1317, 
  "Nation": 1318, 
  "Krisen": 1319, 
  "führenden": 1320, 
  "westliche": 1321, 
  "frei": 1322, 
  "verfolgt": 1323, 
  "Saudi": 1324, 
  "fragen": 1325, 
  "eingesetzt": 1326, 
  "Israelis": 1327, 
  "unternehmen": 1328, 
  "Familie": 1329, 
  "Studien": 1330, 
  "Versprechen": 1331, 
  "jungen": 1332, 
  "Militär": 1333, 
  "religiösen": 1334, 
  "Wissenschaftler": 1335, 
  "Vision": 1336, 
  "politisches": 1337, 
  "Mangel": 1338, 
  "Defizite": 1339, 
  "nächste": 1340, 
  "Leistungen": 1341, 
  "menschlichen": 1342, 
  "darstellt": 1343, 
  "machte": 1344, 
  "wider": 1345, 
  "Vorteil": 1346, 
  "bezeichnet": 1347, 
  "dienen": 1348, 
  "Drittel": 1349, 
  "angeblich": 1350, 
  "Anstrengungen": 1351, 
  "dringend": 1352, 
  "gleich": 1353, 
  "wollte": 1354, 
  "unabhängig": 1355, 
  "islamischen": 1356, 
  "Katastrophe": 1357, 
  "Programme": 1358, 
  "lag": 1359, 
  "Staatsanleihen": 1360, 
  "strategische": 1361, 
  "setzt": 1362, 
  "zufolge": 1363, 
  "echte": 1364, 
  "eren": 1365, 
  "schlimmer": 1366, 
  "Verringerung": 1367, 
  "geraten": 1368, 
  "Verbündeten": 1369, 
  "Universitäten": 1370, 
  "verstärkt": 1371, 
  "Identität": 1372, 
  "Lösungen": 1373, 
  "Stadt": 1374, 
  "globaler": 1375, 
  "Märkten": 1376, 
  "Frau": 1377, 
  "Industrieländern": 1378, 
  "lernen": 1379, 
  "brachte": 1380, 
  "Krankheit": 1381, 
  "Bushs": 1382, 
  "meinen": 1383, 
  "dürfen": 1384, 
  "Regulierung": 1385, 
  "Aussichten": 1386, 
  "argumentieren": 1387, 
  "Wochen": 1388, 
  "jenen": 1389, 
  "funktioniert": 1390, 
  "Annahme": 1391, 
  "hoffen": 1392, 
  "gestiegen": 1393, 
  "Georgien": 1394, 
  "andererseits": 1395, 
  "meiner": 1396, 
  "Hisbollah": 1397, 
  "Worten": 1398, 
  "schien": 1399, 
  "äußerst": 1400, 
  "daß": 1401, 
  "Maß": 1402, 
  "zentrale": 1403, 
  "Veränderung": 1404, 
  "deutsche": 1405, 
  "Phase": 1406, 
  "Russen": 1407, 
  "Arbeiter": 1408, 
  "Theorie": 1409, 
  "verschiedene": 1410, 
  "strategischen": 1411, 
  "Unterschied": 1412, 
  "finanzieren": 1413, 
  "ließ": 1414, 
  "traditionellen": 1415, 
  "realen": 1416, 
  "Kritik": 1417, 
  "allgemein": 1418, 
  "gegenwärtige": 1419, 
  "iranischen": 1420, 
  "ausgesetzt": 1421, 
  "Instabilität": 1422, 
  "Anleger": 1423, 
  "Verständnis": 1424, 
  "Aus@@": 1425, 
  "Produktivität": 1426, 
  "darstellen": 1427, 
  "Moment": 1428, 
  "Muslime": 1429, 
  "Religion": 1430, 
  "ermöglicht": 1431, 
  "keiner": 1432, 
  "gen": 1433, 
  "Erwärmung": 1434, 
  "Kreml": 1435, 
  "Prinzip": 1436, 
  "bezahlen": 1437, 
  "2011": 1438, 
  "wirtschaftlich": 1439, 
  "Anerkennung": 1440, 
  "entscheidende": 1441, 
  "kamen": 1442, 
  "Einheit": 1443, 
  "20.": 1444, 
  "Gespräche": 1445, 
  "findet": 1446, 
  "bestimmte": 1447, 
  "größtenteils": 1448, 
  "kämpfen": 1449, 
  "schneller": 1450, 
  "beschränkt": 1451, 
  "Diskussion": 1452, 
  "amp": 1453, 
  "langsam": 1454, 
  "1980er": 1455, 
  "2002": 1456, 
  "führende": 1457, 
  "Schaden": 1458, 
  "Erweiterung": 1459, 
  "ehemalige": 1460, 
  "Buch": 1461, 
  "Gerechtigkeit": 1462, 
  "Einnahmen": 1463, 
  "mindestens": 1464, 
  "geschehen": 1465, 
  "Wissen": 1466, 
  "ausreichend": 1467, 
  "Anzeichen": 1468, 
  "Schicksal": 1469, 
  "Währungsfonds": 1470, 
  "Arten": 1471, 
  "Erfahrungen": 1472, 
  "verursacht": 1473, 
  "Taliban": 1474, 
  "Grenze": 1475, 
  "richtig": 1476, 
  "t@@": 1477, 
  "politik": 1478, 
  "öffentlich": 1479, 
  "Vorschlag": 1480, 
  "entstehen": 1481, 
  "mögen": 1482, 
  "fordern": 1483, 
  "Schwellenländer": 1484, 
  "Ausnahme": 1485, 
  "einzigen": 1486, 
  "Fähigkeiten": 1487, 
  "Haupt@@": 1488, 
  "Treffen": 1489, 
  "beigetragen": 1490, 
  "Intervention": 1491, 
  "Mai": 1492, 
  "Ort": 1493, 
  "schließen": 1494, 
  "Problemen": 1495, 
  "israelische": 1496, 
  "März": 1497, 
  "unterschiedlichen": 1498, 
  "Ansichten": 1499, 
  "amerikanischer": 1500, 
  "entfernt": 1501, 
  "Beschäftigung": 1502, 
  "erzielen": 1503, 
  "Gaza": 1504, 
  "Power": 1505, 
  "Argument": 1506, 
  "unterschiedliche": 1507, 
  "Verbreitung": 1508, 
  "Gericht": 1509, 
  "Diplomatie": 1510, 
  "Präsidentschaft": 1511, 
  "Januar": 1512, 
  "Mitgliedern": 1513, 
  "Beitrag": 1514, 
  "Produkte": 1515, 
  "Gegner": 1516, 
  "Verbraucher": 1517, 
  "Sinn": 1518, 
  "jemals": 1519, 
  "Taiwan": 1520, 
  "Glaubwürdigkeit": 1521, 
  "einiger": 1522, 
  "Wege": 1523, 
  "nationaler": 1524, 
  "japanische": 1525, 
  "Familien": 1526, 
  "Person": 1527, 
  "mussten": 1528, 
  "Maße": 1529, 
  "Partner": 1530, 
  "Scheitern": 1531, 
  "Regierungschefs": 1532, 
  "allzu": 1533, 
  "lichen": 1534, 
  "fällt": 1535, 
  "Unsicherheit": 1536, 
  "muslimischen": 1537, 
  "moderne": 1538, 
  "Landwirtschaft": 1539, 
  "allgemeinen": 1540, 
  "müssten": 1541, 
  "infolgedessen": 1542, 
  "·": 1543, 
  "Juni": 1544, 
  "s@@": 1545, 
  "Konsequenzen": 1546, 
  "Verpflichtungen": 1547, 
  "Faktor": 1548, 
  "historischen": 1549, 
  "Kurs": 1550, 
  "Woche": 1551, 
  "egal": 1552, 
  "heutzutage": 1553, 
  "Sprache": 1554, 
  "John": 1555, 
  "Cambridge": 1556, 
  "Verteidigung": 1557, 
  "Raum": 1558, 
  "bewältigen": 1559, 
  "suchen": 1560, 
  "Vermögenswerte": 1561, 
  "the": 1562, 
  "and": 1563, 
  "zusätzliche": 1564, 
  "müsste": 1565, 
  "Erwartungen": 1566, 
  "entschieden": 1567, 
  "beenden": 1568, 
  "möglichen": 1569, 
  "Abhängigkeit": 1570, 
  "Agenda": 1571, 
  "lautet": 1572, 
  "Schuld": 1573, 
  "11.": 1574, 
  "Sicherheits@@": 1575, 
  "Regierungs@@": 1576, 
  "Politikern": 1577, 
  "Ausbildung": 1578, 
  "AIDS": 1579, 
  "Stärkung": 1580, 
  "Westens": 1581, 
  "herrscht": 1582, 
  "Irland": 1583, 
  "kosten": 1584, 
  "Waren": 1585, 
  "Stärke": 1586, 
  "wissenschaftlichen": 1587, 
  "Großen": 1588, 
  "heraus": 1589, 
  "S@@": 1590, 
  "Souveränität": 1591, 
  "hängt": 1592, 
  "niedrig": 1593, 
  "kurzfristig": 1594, 
  "Mitglied": 1595, 
  "Leistung": 1596, 
  "Arbeitskräfte": 1597, 
  "entscheidend": 1598, 
  "Marktes": 1599, 
  "Vor@@": 1600, 
  "P@@": 1601, 
  "1989": 1602, 
  "Blair": 1603, 
  "ert": 1604, 
  "Sorgen": 1605, 
  "Saddam": 1606, 
  "endlich": 1607, 
  "Proteste": 1608, 
  "verringert": 1609, 
  "Koalition": 1610, 
  "oben": 1611, 
  "erwiesen": 1612, 
  "Handels@@": 1613, 
  "hervor": 1614, 
  "gehalten": 1615, 
  "Anhänger": 1616, 
  "Verbindungen": 1617, 
  "zweifellos": 1618, 
  "hoher": 1619, 
  "arabische": 1620, 
  "dasselbe": 1621, 
  "Bereitschaft": 1622, 
  "Industrieländer": 1623, 
  "angesehen": 1624, 
  "acht": 1625, 
  "führten": 1626, 
  "Rat": 1627, 
  "fühlen": 1628, 
  "begonnen": 1629, 
  "überzeugt": 1630, 
  "York": 1631, 
  "solcher": 1632, 
  "Asiens": 1633, 
  "unter@@": 1634, 
  "weisen": 1635, 
  "Sinne": 1636, 
  "Entscheidungsträger": 1637, 
  "vertreten": 1638, 
  "Haushalts@@": 1639, 
  "Wirkung": 1640, 
  "Gleichgewicht": 1641, 
  "offizielle": 1642, 
  "indischen": 1643, 
  "1999": 1644, 
  "Priorität": 1645, 
  "Sorge": 1646, 
  "Ökonomie": 1647, 
  "ung": 1648, 
  "Bedenken": 1649, 
  "zukünftigen": 1650, 
  "richtige": 1651, 
  "allgemeine": 1652, 
  "gewissen": 1653, 
  "Ausweitung": 1654, 
  "werde": 1655, 
  "Indonesien": 1656, 
  "zunehmende": 1657, 
  "nahm": 1658, 
  "schen": 1659, 
  "Änderungen": 1660, 
  "legt": 1661, 
  "Nationalismus": 1662, 
  "steigende": 1663, 
  "gewählt": 1664, 
  "schlechte": 1665, 
  "bestimmen": 1666, 
  "Umfeld": 1667, 
  "Liberalisierung": 1668, 
  "sobald": 1669, 
  "Moskau": 1670, 
  "Arabien": 1671, 
  "Wechselkurs": 1672, 
  "desto": 1673, 
  "Juli": 1674, 
  "sagt": 1675, 
  "schwieriger": 1676, 
  "Sicherheitsrat": 1677, 
  "Wirklichkeit": 1678, 
  "afrikanischen": 1679, 
  "Libyen": 1680, 
  "Anspruch": 1681, 
  "Umwelt": 1682, 
  "Größe": 1683, 
  "liche": 1684, 
  "zugrunde": 1685, 
  "Beobachter": 1686, 
  "Frankreichs": 1687, 
  "Grad": 1688, 
  "menschliche": 1689, 
  "moralische": 1690, 
  "spielt": 1691, 
  "ere": 1692, 
  "ähnlicher": 1693, 
  "Güter": 1694, 
  "zwangsläufig": 1695, 
  "verkaufen": 1696, 
  "jeweiligen": 1697, 
  "entspricht": 1698, 
  "überzeugen": 1699, 
  "bestand": 1700, 
  "Sch@@": 1701, 
  "Gewinne": 1702, 
  "steigern": 1703, 
  "stimmt": 1704, 
  "beeinflussen": 1705, 
  "könne": 1706, 
  "fehlt": 1707, 
  "offiziellen": 1708, 
  "B@@": 1709, 
  "Lebens": 1710, 
  "Trend": 1711, 
  "Verfahren": 1712, 
  "massiven": 1713, 
  "zurück@@": 1714, 
  "Runde": 1715, 
  "Gebiet": 1716, 
  "Transparenz": 1717, 
  "sche": 1718, 
  "Wahl@@": 1719, 
  "zahlreiche": 1720, 
  "Industrie": 1721, 
  "her": 1722, 
  "HIV": 1723, 
  "massive": 1724, 
  "wachsen": 1725, 
  "in@@": 1726, 
  "sichern": 1727, 
  "Federal": 1728, 
  "Studie": 1729, 
  "Kriege": 1730, 
  "Konzept": 1731, 
  "Polizei": 1732, 
  "passiert": 1733, 
  "Glauben": 1734, 
  "gesetzt": 1735, 
  "Dialog": 1736, 
  "Universität": 1737, 
  "Finanzsystem": 1738, 
  "Beitritt": 1739, 
  "vollständig": 1740, 
  "abgesehen": 1741, 
  "Elite": 1742, 
  "Ungleichgewichte": 1743, 
  "f@@": 1744, 
  "erleben": 1745, 
  "Chaos": 1746, 
  "Bild": 1747, 
  "gefallen": 1748, 
  "bestimmten": 1749, 
  "Oktober": 1750, 
  "gezogen": 1751, 
  "Solidarität": 1752, 
  "langen": 1753, 
  "bekämpfen": 1754, 
  "verurteilt": 1755, 
  "Kindern": 1756, 
  "eingeführt": 1757, 
  "Regel": 1758, 
  "Terror": 1759, 
  "behauptet": 1760, 
  "aufrecht": 1761, 
  "Konferenz": 1762, 
  "fiel": 1763, 
  "Dynamik": 1764, 
  "verpflichtet": 1765, 
  "entscheidender": 1766, 
  "überwiegend": 1767, 
  "gleiche": 1768, 
  "beträgt": 1769, 
  "tut": 1770, 
  "ungs@@": 1771, 
  "wiederholt": 1772, 
  "weiteres": 1773, 
  "unabhängige": 1774, 
  "aufzubauen": 1775, 
  "enorm": 1776, 
  "Senkung": 1777, 
  "wissenschaftliche": 1778, 
  "geringer": 1779, 
  "Praxis": 1780, 
  "möchten": 1781, 
  "unbedingt": 1782, 
  "jemand": 1783, 
  "selten": 1784, 
  "verändert": 1785, 
  "betrifft": 1786, 
  "manchen": 1787, 
  "as": 1788, 
  "Willen": 1789, 
  "religiöse": 1790, 
  "erheblich": 1791, 
  "zusätzlich": 1792, 
  "voll": 1793, 
  "K@@": 1794, 
  "steigt": 1795, 
  "offenen": 1796, 
  "bestehenden": 1797, 
  "Potenzial": 1798, 
  "ergeben": 1799, 
  "Markt@@": 1800, 
  "Überwachung": 1801, 
  "erinnern": 1802, 
  "Aufbau": 1803, 
  "1998": 1804, 
  "Paris": 1805, 
  "Einigung": 1806, 
  "niedriger": 1807, 
  "Aussicht": 1808, 
  "Zeitraum": 1809, 
  "ungeachtet": 1810, 
  "verstärken": 1811, 
  "Zahlen": 1812, 
  "6": 1813, 
  "Haushalt": 1814, 
  "D@@": 1815, 
  "mögliche": 1816, 
  "verhindert": 1817, 
  "treten": 1818, 
  "angewiesen": 1819, 
  "Bürgern": 1820, 
  "Republikaner": 1821, 
  "angenommen": 1822, 
  "vorbei": 1823, 
  "entwickelte": 1824, 
  "ausschließlich": 1825, 
  "Tradition": 1826, 
  "Über@@": 1827, 
  "Konsum": 1828, 
  "Wunsch": 1829, 
  "vergessen": 1830, 
  "Deutschlands": 1831, 
  "Kooperation": 1832, 
  "80": 1833, 
  "gefährlich": 1834, 
  "denke": 1835, 
  "zählen": 1836, 
  "Subventionen": 1837, 
  "sch": 1838, 
  "Reserve": 1839, 
  "z@@": 1840, 
  "trägt": 1841, 
  "Peking": 1842, 
  "Streitkräfte": 1843, 
  "Löhne": 1844, 
  "Juden": 1845, 
  "Angelegenheiten": 1846, 
  "konzentriert": 1847, 
  "palästinensische": 1848, 
  "eben": 1849, 
  "Zunahme": 1850, 
  "verändern": 1851, 
  "19.": 1852, 
  "gelten": 1853, 
  "arme": 1854, 
  "4": 1855, 
  "Stimme": 1856, 
  "wächst": 1857, 
  "mein": 1858, 
  "staatlicher": 1859, 
  "einander": 1860, 
  "erlebt": 1861, 
  "1997": 1862, 
  "ärmsten": 1863, 
  "erfüllen": 1864, 
  "unserem": 1865, 
  "Autorität": 1866, 
  "Fälle": 1867, 
  "steigenden": 1868, 
  "derer": 1869, 
  "oftmals": 1870, 
  "Zivilgesellschaft": 1871, 
  "reale": 1872, 
  "getroffen": 1873, 
  "Franzosen": 1874, 
  "irakischen": 1875, 
  "ergreifen": 1876, 
  "erten": 1877, 
  "Projekt": 1878, 
  "Wirtschaftspolitik": 1879, 
  "lokalen": 1880, 
  "Ökonomien": 1881, 
  "kommunistischen": 1882, 
  "Rede": 1883, 
  "niedrigen": 1884, 
  "Übergang": 1885, 
  "Chef": 1886, 
  "unmittelbar": 1887, 
  "lokale": 1888, 
  "Osteuropa": 1889, 
  "Systeme": 1890, 
  "Haus": 1891, 
  "Städten": 1892, 
  "Finanzminister": 1893, 
  "ernsthafte": 1894, 
  "größerer": 1895, 
  "Kopenhagen": 1896, 
  "behandelt": 1897, 
  "benötigt": 1898, 
  "Artikel": 1899, 
  "Wechselkurse": 1900, 
  "Ersparnisse": 1901, 
  "gingen": 1902, 
  "offenbar": 1903, 
  "erte": 1904, 
  "gelang": 1905, 
  "wenigen": 1906, 
  "Steuer@@": 1907, 
  "Kritiker": 1908, 
  "einsetzen": 1909, 
  "Straßen": 1910, 
  "system": 1911, 
  "Nutzung": 1912, 
  "blieb": 1913, 
  "Kollegen": 1914, 
  "sterben": 1915, 
  "gewisse": 1916, 
  "Malaria": 1917, 
  "ökonomischen": 1918, 
  "Rhetorik": 1919, 
  "verwendet": 1920, 
  "Menschheit": 1921, 
  "Qualität": 1922, 
  "Aktien": 1923, 
  "Journalisten": 1924, 
  "Wirtschaftskrise": 1925, 
  "Süden": 1926, 
  "teilen": 1927, 
  "Defizit": 1928, 
  "April": 1929, 
  "Boden": 1930, 
  "Forderung": 1931, 
  "Demokraten": 1932, 
  "umfassende": 1933, 
  "Anpassung": 1934, 
  "sicherzustellen": 1935, 
  "Allgemeinen": 1936, 
  "Abbas": 1937, 
  "Methode": 1938, 
  "außen": 1939, 
  "wert": 1940, 
  "Richter": 1941, 
  "umgesetzt": 1942, 
  "Pläne": 1943, 
  "Suche": 1944, 
  "...": 1945, 
  "Studenten": 1946, 
  "gering": 1947, 
  "zwingen": 1948, 
  "Kluft": 1949, 
  "unseres": 1950, 
  "davor": 1951, 
  "wahren": 1952, 
  "mehreren": 1953, 
  "plötzlich": 1954, 
  "überwinden": 1955, 
  "umzusetzen": 1956, 
  "vollkommen": 1957, 
  "bedroht": 1958, 
  "schlechter": 1959, 
  "Lehre": 1960, 
  "ernst": 1961, 
  "Rechtsstaatlichkeit": 1962, 
  "Arbeitsplätzen": 1963, 
  "Generationen": 1964, 
  "Blick": 1965, 
  "Gebieten": 1966, 
  "Städte": 1967, 
  "gefunden": 1968, 
  "normalen": 1969, 
  "Kombination": 1970, 
  "beteiligt": 1971, 
  "Reserven": 1972, 
  "Bestimmungen": 1973, 
  "spiegelt": 1974, 
  "Methoden": 1975, 
  "ste": 1976, 
  "ge": 1977, 
  "letzter": 1978, 
  "Wort": 1979, 
  "Schulen": 1980, 
  "setzte": 1981, 
  "Zweck": 1982, 
  "Beschränkungen": 1983, 
  "Klimawandels": 1984, 
  "Zeichen": 1985, 
  "Laufe": 1986, 
  "klare": 1987, 
  "Hause": 1988, 
  "Arbeitnehmer": 1989, 
  "August": 1990, 
  "Gewerkschaften": 1991, 
  "70": 1992, 
  "st@@": 1993, 
  "Liquidität": 1994, 
  "genannte": 1995, 
  "Wesentlichen": 1996, 
  "Währungsunion": 1997, 
  "Medikamente": 1998, 
  "historische": 1999, 
  "Kontinent": 2000, 
  "General": 2001, 
  "indische": 2002, 
  "Reichen": 2003, 
  "sieben": 2004, 
  "verlangen": 2005, 
  "Angriffe": 2006, 
  "Mitarbeiter": 2007, 
  "d@@": 2008, 
  "g@@": 2009, 
  "direkte": 2010, 
  "Reduzierung": 2011, 
  "öffentlicher": 2012, 
  "sofort": 2013, 
  "Umgang": 2014, 
  "Mitteln": 2015, 
  "moralischen": 2016, 
  "iranische": 2017, 
  "Initiativen": 2018, 
  "harte": 2019, 
  "7": 2020, 
  "Zentrum": 2021, 
  "traditionelle": 2022, 
  "2012": 2023, 
  "Besuch": 2024, 
  "Kreditvergabe": 2025, 
  "Struktur": 2026, 
  "durch@@": 2027, 
  "Ideologie": 2028, 
  "ernsthaft": 2029, 
  "Staats-": 2030, 
  "wählen": 2031, 
  "verdienen": 2032, 
  "Problems": 2033, 
  "bislang": 2034, 
  "Steuerzahler": 2035, 
  "Schwäche": 2036, 
  "Minderheiten": 2037, 
  "höchst": 2038, 
  "gleichermaßen": 2039, 
  "Eliten": 2040, 
  "zusammen@@": 2041, 
  "Machthaber": 2042, 
  "G@@": 2043, 
  "Niedergang": 2044, 
  "erfordern": 2045, 
  "Militär@@": 2046, 
  "Argumente": 2047, 
  "Haushaltsdefizite": 2048, 
  "derartiger": 2049, 
  "Er@@": 2050, 
  "Anreiz": 2051, 
  "verlangt": 2052, 
  "Schluss": 2053, 
  "Staatsschulden": 2054, 
  "zurückzuführen": 2055, 
  "Diskussionen": 2056, 
  "überraschend": 2057, 
  "Partnerschaft": 2058, 
  "Steuersenkungen": 2059, 
  "gewonnen": 2060, 
  "schafft": 2061, 
  "warten": 2062, 
  "Ölpreise": 2063, 
  "jährlichen": 2064, 
  "Ursache": 2065, 
  "Unruhen": 2066, 
  "sonst": 2067, 
  "jeweils": 2068, 
  "Gefahren": 2069, 
  "richtigen": 2070, 
  "durchgeführt": 2071, 
  "Chávez": 2072, 
  "Norden": 2073, 
  "F@@": 2074, 
  "keinerlei": 2075, 
  "A@@": 2076, 
  "Beweise": 2077, 
  "erfolgreiche": 2078, 
  "kurzfristigen": 2079, 
  "Reaktionen": 2080, 
  "echten": 2081, 
  "glaubt": 2082, 
  "dürften": 2083, 
  "wann": 2084, 
  "ausgelöst": 2085, 
  "Bedrohungen": 2086, 
  "Öl@@": 2087, 
  "Zustimmung": 2088, 
  "dritte": 2089, 
  "Invasion": 2090, 
  "anderem": 2091, 
  "ergibt": 2092, 
  "Liste": 2093, 
  "Kredit@@": 2094, 
  "bezahlt": 2095, 
  "hoch@@": 2096, 
  "begrenzt": 2097, 
  "einzusetzen": 2098, 
  "unternommen": 2099, 
  "o": 2100, 
  "finanziert": 2101, 
  "extrem": 2102, 
  "bzw.": 2103, 
  "liches": 2104, 
  "mittlerweile": 2105, 
  "Gang": 2106, 
  "schwachen": 2107, 
  "hören": 2108, 
  "Auf@@": 2109, 
  "Rechten": 2110, 
  "treiben": 2111, 
  "Paul": 2112, 
  "Hongkong": 2113, 
  "besseren": 2114, 
  "übertragen": 2115, 
  "Palästina": 2116, 
  "ähnlichen": 2117, 
  "R@@": 2118, 
  "Kim": 2119, 
  "sowjetischen": 2120, 
  "wollten": 2121, 
  "türkischen": 2122, 
  "Staats@@": 2123, 
  "ohnehin": 2124, 
  "21.": 2125, 
  "Formen": 2126, 
  "Ablehnung": 2127, 
  "Serbien": 2128, 
  "gern": 2129, 
  "1970er": 2130, 
  "Zerstörung": 2131, 
  "natürlichen": 2132, 
  "Logik": 2133, 
  "Tagen": 2134, 
  "übrigen": 2135, 
  "Institution": 2136, 
  "Innovation": 2137, 
  "Vermögen": 2138, 
  "on": 2139, 
  "gelingt": 2140, 
  "Szenario": 2141, 
  "Bereiche": 2142, 
  "Muster": 2143, 
  "aktiv": 2144, 
  "Ursachen": 2145, 
  "Hypotheken": 2146, 
  "demokratischer": 2147, 
  "Anwendung": 2148, 
  "1990": 2149, 
  "hart": 2150, 
  "Marktwirtschaft": 2151, 
  "ts": 2152, 
  "betroffen": 2153, 
  "einfache": 2154, 
  "1991": 2155, 
  "schwache": 2156, 
  "Unterdrückung": 2157, 
  "geschieht": 2158, 
  "sah": 2159, 
  "verbessert": 2160, 
  "Verpflichtung": 2161, 
  "mal": 2162, 
  "potenziell": 2163, 
  "positive": 2164, 
  "Aktionen": 2165, 
  "standen": 2166, 
  "Interventionen": 2167, 
  "Steigerung": 2168, 
  "hielt": 2169, 
  "Änderung": 2170, 
  "Glück": 2171, 
  "Standards": 2172, 
  "europäischer": 2173, 
  "Aufwertung": 2174, 
  "Respekt": 2175, 
  "Modernisierung": 2176, 
  "Soft": 2177, 
  "aufgenommen": 2178, 
  "wahre": 2179, 
  "Finanzsektor": 2180, 
  "Vorschläge": 2181, 
  "schlagen": 2182, 
  "Brüssel": 2183, 
  "Be@@": 2184, 
  "entsprechend": 2185, 
  "licher": 2186, 
  "Erderwärmung": 2187, 
  "Staatsverschuldung": 2188, 
  "Nachricht": 2189, 
  "zunehmenden": 2190, 
  "Angebot": 2191, 
  "sozialer": 2192, 
  "nennen": 2193, 
  "Der": 2194, 
  "sämtliche": 2195, 
  "späten": 2196, 
  "gelangen": 2197, 
  "Notenbank": 2198, 
  "bezeichnen": 2199, 
  "frühere": 2200, 
  "ständig": 2201, 
  "12": 2202, 
  "schrieb": 2203, 
  "reicht": 2204, 
  "hin@@": 2205, 
  "Arbeits@@": 2206, 
  "Versuche": 2207, 
  "zeigte": 2208, 
  "scher": 2209, 
  "liberalen": 2210, 
  "Wiederherstellung": 2211, 
  "Quelle": 2212, 
  "Lehren": 2213, 
  "überlassen": 2214, 
  "Beweis": 2215, 
  "Schwellenländern": 2216, 
  "Niederlage": 2217, 
  "negativen": 2218, 
  "Kapital@@": 2219, 
  "Außenminister": 2220, 
  "Minderheit": 2221, 
  "Spitze": 2222, 
  "erkannt": 2223, 
  "zugunsten": 2224, 
  "akzeptiert": 2225, 
  "mit@@": 2226, 
  "Steuer": 2227, 
  "Öffnung": 2228, 
  "jüngst": 2229, 
  "Zivilisten": 2230, 
  "ers": 2231, 
  "Wladimir": 2232, 
  "sofern": 2233, 
  "schwach": 2234, 
  "Februar": 2235, 
  "b@@": 2236, 
  "L@@": 2237, 
  "H@@": 2238, 
  "Gesamt@@": 2239, 
  "Nähe": 2240, 
  "ger": 2241, 
  "großes": 2242, 
  "gestalten": 2243, 
  "Behauptung": 2244, 
  "Renminbi": 2245, 
  "Hintergrund": 2246, 
  "zentralen": 2247, 
  "erzielt": 2248, 
  "nach@@": 2249, 
  "Keynes": 2250, 
  "denjenigen": 2251, 
  "Abwertung": 2252, 
  "Einklang": 2253, 
  "stärksten": 2254, 
  "Street": 2255, 
  "Analyse": 2256, 
  "institutionelle": 2257, 
  "T@@": 2258, 
  "Straße": 2259, 
  "Verträge": 2260, 
  "umfassenden": 2261, 
  "seitdem": 2262, 
  "Besorgnis": 2263, 
  "E@@": 2264, 
  "geändert": 2265, 
  "behalten": 2266, 
  "ausgeschlossen": 2267, 
  "anschließend": 2268, 
  "Überleben": 2269, 
  "seitens": 2270, 
  "dank": 2271, 
  "reduziert": 2272, 
  "kulturelle": 2273, 
  "Gründung": 2274, 
  "verschärft": 2275, 
  "Unter@@": 2276, 
  "bedeutende": 2277, 
  "Fatah": 2278, 
  "anerkannt": 2279, 
  "Jobs": 2280, 
  "Pro": 2281, 
  "Jahrzehnts": 2282, 
  "Lockerung": 2283, 
  "Akteure": 2284, 
  "ersetzen": 2285, 
  "Strukturen": 2286, 
  "unterscheiden": 2287, 
  "Palästinensern": 2288, 
  "einfachen": 2289, 
  "folgenden": 2290, 
  "heutige": 2291, 
  "anhaltenden": 2292, 
  "Zustand": 2293, 
  "Eltern": 2294, 
  "international": 2295, 
  "Handeln": 2296, 
  "los": 2297, 
  "unterdessen": 2298, 
  "end": 2299, 
  "offene": 2300, 
  "Gedanken": 2301, 
  "Eindruck": 2302, 
  "anhaltende": 2303, 
  "Planeten": 2304, 
  "entstanden": 2305, 
  "Groß@@": 2306, 
  "gerecht": 2307, 
  "Importe": 2308, 
  "geprägt": 2309, 
  "Perspektive": 2310, 
  "sches": 2311, 
  "Haushaltsdefizit": 2312, 
  "Schweden": 2313, 
  "hierfür": 2314, 
  "Boom": 2315, 
  "Einstellung": 2316, 
  "ignorieren": 2317, 
  "Ministerpräsidenten": 2318, 
  "Rettung": 2319, 
  "wirkliche": 2320, 
  "Alternativen": 2321, 
  "Portugal": 2322, 
  "18": 2323, 
  "ließen": 2324, 
  "entgegen": 2325, 
  "Afrikas": 2326, 
  "ausgehen": 2327, 
  "ausgedrückt": 2328, 
  "reiche": 2329, 
  "Aspekt": 2330, 
  "unabhängigen": 2331, 
  "drängen": 2332, 
  "Kyoto": 2333, 
  "verleihen": 2334, 
  "fand": 2335, 
  "Finanzmärkten": 2336, 
  "Arbeitsmarkt": 2337, 
  "Aufgaben": 2338, 
  "bestätigt": 2339, 
  "Einwanderer": 2340, 
  "Bündnis": 2341, 
  "schlechten": 2342, 
  "Gläubiger": 2343, 
  "kleiner": 2344, 
  "Internationale": 2345, 
  "nachhaltige": 2346, 
  "jährliche": 2347, 
  "kulturellen": 2348, 
  "ender": 2349, 
  "gefährdet": 2350, 
  "griechischen": 2351, 
  "guter": 2352, 
  "ale": 2353, 
  "Freunde": 2354, 
  "nahmen": 2355, 
  "vorher": 2356, 
  "e@@": 2357, 
  "o@@": 2358, 
  "entscheidenden": 2359, 
  "herbeizuführen": 2360, 
  "versuchte": 2361, 
  "200": 2362, 
  "verteidigen": 2363, 
  "stärkere": 2364, 
  "kurzfristige": 2365, 
  "gelernt": 2366, 
  "beschränken": 2367, 
  "drittens": 2368, 
  "Deflation": 2369, 
  "riesigen": 2370, 
  "wirksam": 2371, 
  "Verbrauch": 2372, 
  "m@@": 2373, 
  "eng": 2374, 
  "irgendwann": 2375, 
  "spricht": 2376, 
  "Werten": 2377, 
  "persönlichen": 2378, 
  "Diktatur": 2379, 
  "beschäftigt": 2380, 
  "verhalten": 2381, 
  "Entwicklungs@@": 2382, 
  "Vietnam": 2383, 
  "überrascht": 2384, 
  "el@@": 2385, 
  "militärischer": 2386, 
  "trifft": 2387, 
  "erinnert": 2388, 
  "Kampagne": 2389, 
  "Beispiele": 2390, 
  "n@@": 2391, 
  "weitgehend": 2392, 
  "Prioritäten": 2393, 
  "Nachfolger": 2394, 
  "dramatisch": 2395, 
  "Wachstums@@": 2396, 
  "höchsten": 2397, 
  "leichter": 2398, 
  "weist": 2399, 
  "Um@@": 2400, 
  "schlimmsten": 2401, 
  "Rechts@@": 2402, 
  "neigen": 2403, 
  "stieg": 2404, 
  "umgehen": 2405, 
  "islamische": 2406, 
  "benötigen": 2407, 
  "Manager": 2408, 
  "Präsidentschaftswahlen": 2409, 
  "Verwaltung": 2410, 
  "Schiiten": 2411, 
  "k": 2412, 
  "Handels": 2413, 
  "Anlagen": 2414, 
  "Befürworter": 2415, 
  "gelöst": 2416, 
  "Geld@@": 2417, 
  "verglichen": 2418, 
  "Bestandteil": 2419, 
  "Erde": 2420, 
  "diesmal": 2421, 
  "90": 2422, 
  "stellten": 2423, 
  "ens": 2424, 
  "werfen": 2425, 
  "Atmosphäre": 2426, 
  "Wahlkampf": 2427, 
  "vorhanden": 2428, 
  "ökonomische": 2429, 
  "vorgeschlagen": 2430, 
  "Sommer": 2431, 
  "notwendigen": 2432, 
  "langem": 2433, 
  "profitiert": 2434, 
  "Anlass": 2435, 
  "Gefängnis": 2436, 
  "Bewegungen": 2437, 
  "Wiederaufbau": 2438, 
  "ziemlich": 2439, 
  "Extremisten": 2440, 
  "unten": 2441, 
  "verstanden": 2442, 
  "Projekte": 2443, 
  "Debatten": 2444, 
  "institutionellen": 2445, 
  "gemessen": 2446, 
  "N@@": 2447, 
  "Konflikts": 2448, 
  "ethnischen": 2449, 
  "Endes": 2450, 
  "zusätzlichen": 2451, 
  "Yen": 2452, 
  "dauern": 2453, 
  "läuft": 2454, 
  "ausgegeben": 2455, 
  "geringe": 2456, 
  "gewiss": 2457, 
  "machten": 2458, 
  "Schule": 2459, 
  "zuerst": 2460, 
  "sinken": 2461, 
  "Überzeugung": 2462, 
  "Kreditgeber": 2463, 
  "Klima": 2464, 
  "Hände": 2465, 
  "einfacher": 2466, 
  "überleben": 2467, 
  "effektiv": 2468, 
  "al@@": 2469, 
  "entschlossen": 2470, 
  "500": 2471, 
  "lich": 2472, 
  "Macht@@": 2473, 
  "Instrument": 2474, 
  "WTO": 2475, 
  "Zuge": 2476, 
  "bare": 2477, 
  "baren": 2478, 
  "Sektoren": 2479, 
  "Erkenntnis": 2480, 
  "to": 2481, 
  "bauen": 2482, 
  "ausgeben": 2483, 
  "beruhen": 2484, 
  "natürliche": 2485, 
  "Hu": 2486, 
  "Pakistans": 2487, 
  "Effekt": 2488, 
  "1930er": 2489, 
  "eigenes": 2490, 
  "Licht": 2491, 
  "Wall": 2492, 
  "anti@@": 2493, 
  "andernfalls": 2494, 
  "abzu@@": 2495, 
  "ländlichen": 2496, 
  "Ruf": 2497, 
  "deuten": 2498, 
  "aufzunehmen": 2499, 
  "Rückzug": 2500, 
  "verdient": 2501, 
  "Bau": 2502, 
  "auslösen": 2503, 
  "Westjordanland": 2504, 
  "em": 2505, 
  "verwenden": 2506, 
  "nuklearen": 2507, 
  "weithin": 2508, 
  "glaube": 2509, 
  "Front": 2510, 
  "Deutschen": 2511, 
  "Ausbruch": 2512, 
  "Abschwung": 2513, 
  "Angelegenheit": 2514, 
  "Welt@@": 2515, 
  "erzeugen": 2516, 
  "womöglich": 2517, 
  "zerstört": 2518, 
  "Absicht": 2519, 
  "Wasser@@": 2520, 
  "Protektionismus": 2521, 
  "Aufnahme": 2522, 
  "Wesen": 2523, 
  "Besitz": 2524, 
  "re@@": 2525, 
  "Denken": 2526, 
  "argumentiert": 2527, 
  "stattfinden": 2528, 
  "Chile": 2529, 
  "leidet": 2530, 
  "hilft": 2531, 
  "gestärkt": 2532, 
  "begannen": 2533, 
  "übernommen": 2534, 
  "stützen": 2535, 
  "definiert": 2536, 
  "diplomatischen": 2537, 
  "durchzusetzen": 2538, 
  "Verteilung": 2539, 
  "anhand": 2540, 
  "näher": 2541, 
  "Robert": 2542, 
  "Kaida": 2543, 
  "Beteiligung": 2544, 
  "Gazastreifen": 2545, 
  "ausge@@": 2546, 
  "verbreitet": 2547, 
  "bereich": 2548, 
  "systeme": 2549, 
  "folgt": 2550, 
  "Spielraum": 2551, 
  "gelungen": 2552, 
  "niedrige": 2553, 
  "voraus": 2554, 
  "sparen": 2555, 
  "Allianz": 2556, 
  "Normen": 2557, 
  "Aspekte": 2558, 
  "Bewusstsein": 2559, 
  "Schulden@@": 2560, 
  "E": 2561, 
  "Versagen": 2562, 
  "Südafrika": 2563, 
  "regelmäßig": 2564, 
  "lose": 2565, 
  "diplomatische": 2566, 
  "Hunger": 2567, 
  "kontrollieren": 2568, 
  "In": 2569, 
  "schweren": 2570, 
  "Militärs": 2571, 
  "Stellung": 2572, 
  "beeinflusst": 2573, 
  "Amerikanern": 2574, 
  "weg": 2575, 
  "ch@@": 2576, 
  "investiert": 2577, 
  "erfüllt": 2578, 
  "zieht": 2579, 
  "schwere": 2580, 
  "weitem": 2581, 
  "Westeuropa": 2582, 
  "gesellschaftlichen": 2583, 
  "aufrechtzuerhalten": 2584, 
  "umfasst": 2585, 
  "Mittelschicht": 2586, 
  "g": 2587, 
  "riesige": 2588, 
  "Feind": 2589, 
  "fürchten": 2590, 
  "Nachrichten": 2591, 
  "scheinbar": 2592, 
  "erreichte": 2593, 
  "Kern": 2594, 
  "el": 2595, 
  "Kulturen": 2596, 
  "per": 2597, 
  "Viertel": 2598, 
  "Voraussetzung": 2599, 
  "sprach": 2600, 
  "l@@": 2601, 
  "verursachen": 2602, 
  "dieselbe": 2603, 
  "umso": 2604, 
  "begegnen": 2605, 
  "England": 2606, 
  "Positionen": 2607, 
  "Stagnation": 2608, 
  "Tages": 2609, 
  "falsche": 2610, 
  "programm": 2611, 
  "rechtfertigen": 2612, 
  "Bestrebungen": 2613, 
  "Luft": 2614, 
  "Währungs@@": 2615, 
  "ersetzt": 2616, 
  "Finanzsystems": 2617, 
  "liberale": 2618, 
  "ges": 2619, 
  "Sturz": 2620, 
  "geblieben": 2621, 
  "Teilnahme": 2622, 
  "Reichtum": 2623, 
  "radikale": 2624, 
  "schwächen": 2625, 
  "Instrumente": 2626, 
  "Auge": 2627, 
  "Schätzungen": 2628, 
  "infolge": 2629, 
  "ar@@": 2630, 
  "ursprünglich": 2631, 
  "scheitern": 2632, 
  "Anti": 2633, 
  "droht": 2634, 
  "Ungarn": 2635, 
  "Stil": 2636, 
  "fielen": 2637, 
  "Mauer": 2638, 
  "blieben": 2639, 
  "eintreten": 2640, 
  "alen": 2641, 
  "volle": 2642, 
  "maßnahmen": 2643, 
  "M@@": 2644, 
  "Kunden": 2645, 
  "Kuba": 2646, 
  "C@@": 2647, 
  "Linke": 2648, 
  "zuletzt": 2649, 
  "erlaubt": 2650, 
  "voller": 2651, 
  "Alter": 2652, 
  "Vater": 2653, 
  "Wunder": 2654, 
  "Kanada": 2655, 
  "medizinische": 2656, 
  "hinweg": 2657, 
  "gefährden": 2658, 
  "getötet": 2659, 
  "bar": 2660, 
  "beginnt": 2661, 
  "Vielfalt": 2662, 
  "steckt": 2663, 
  "gemäß": 2664, 
  "Australien": 2665, 
  "Minister": 2666, 
  "Unternehmens@@": 2667, 
  "welcher": 2668, 
  "anscheinend": 2669, 
  "The": 2670, 
  "Nigeria": 2671, 
  "Demonstranten": 2672, 
  "Effizienz": 2673, 
  "Re@@": 2674, 
  "Presse": 2675, 
  "Verschuldung": 2676, 
  "bewahren": 2677, 
  "9": 2678, 
  "tritt": 2679, 
  "Stabilisierung": 2680, 
  "Kind": 2681, 
  "wiederherzustellen": 2682, 
  "Ge@@": 2683, 
  "Unfähigkeit": 2684, 
  "Tagesordnung": 2685, 
  "aufnehmen": 2686, 
  "Sektors": 2687, 
  "persönliche": 2688, 
  "innen": 2689, 
  "Innovationen": 2690, 
  "hilfreich": 2691, 
  "sodass": 2692, 
  "durchschnittlich": 2693, 
  "Gebiete": 2694, 
  "Tempo": 2695, 
  "Export@@": 2696, 
  "passieren": 2697, 
  "Kapazitäten": 2698, 
  "d": 2699, 
  "reich": 2700, 
  "Singapur": 2701, 
  "Medwedew": 2702, 
  "kennen": 2703, 
  "stimmen": 2704, 
  "Gewicht": 2705, 
  "Zeitalter": 2706, 
  "lieber": 2707, 
  "Mittelpunkt": 2708, 
  "Preis@@": 2709, 
  "Islamisten": 2710, 
  "Schwerpunkt": 2711, 
  "Musharraf": 2712, 
  "Mitgliedsländer": 2713, 
  "genutzt": 2714, 
  "positiv": 2715, 
  "Chirac": 2716, 
  "potenziellen": 2717, 
  "wenden": 2718, 
  "gesenkt": 2719, 
  "zerstören": 2720, 
  "Erfolge": 2721, 
  "gaben": 2722, 
  "Mittleren": 2723, 
  "d.h.": 2724, 
  "Management": 2725, 
  "Höhepunkt": 2726, 
  "Hoffnungen": 2727, 
  "Kauf": 2728, 
  "Mubarak": 2729, 
  "Bürgerkrieg": 2730, 
  "Begriff": 2731, 
  "Merkel": 2732, 
  "16": 2733, 
  "Venezuela": 2734, 
  "Volkes": 2735, 
  "Milliarde": 2736, 
  "Wertpapiere": 2737, 
  "Übereinkunft": 2738, 
  "Produktions@@": 2739, 
  "schwierige": 2740, 
  "Einrichtungen": 2741, 
  "sicherlich": 2742, 
  "Preisen": 2743, 
  "Mission": 2744, 
  "berücksichtigen": 2745, 
  "Beamten": 2746, 
  "J@@": 2747, 
  "erhebliche": 2748, 
  "drastisch": 2749, 
  "Krediten": 2750, 
  "verbundenen": 2751, 
  "Regierungsführung": 2752, 
  "einzelne": 2753, 
  "Existenz": 2754, 
  "annehmen": 2755, 
  "Mächte": 2756, 
  "besitzen": 2757, 
  "Wachstumsrate": 2758, 
  "Verbesserungen": 2759, 
  "fördert": 2760, 
  "Kompromiss": 2761, 
  "Mädchen": 2762, 
  "produzieren": 2763, 
  "Bilanzen": 2764, 
  "meinem": 2765, 
  "OECD": 2766, 
  "gäbe": 2767, 
  "verkauft": 2768, 
  "lagen": 2769, 
  "Strukturreformen": 2770, 
  "liefern": 2771, 
  "Linken": 2772, 
  "St@@": 2773, 
  "potenzielle": 2774, 
  "teuer": 2775, 
  "Feinde": 2776, 
  "Geschwindigkeit": 2777, 
  "aufstrebenden": 2778, 
  "Kommunisten": 2779, 
  "3@@": 2780, 
  "Vorstellungen": 2781, 
  "gefördert": 2782, 
  "direkten": 2783, 
  "Energie@@": 2784, 
  "Export": 2785, 
  "h@@": 2786, 
  "umgekehrt": 2787, 
  "Männern": 2788, 
  "welchen": 2789, 
  "Erklärungen": 2790, 
  "Richtlinien": 2791, 
  "st": 2792, 
  "besondere": 2793, 
  "herzustellen": 2794, 
  "gesellschaftliche": 2795, 
  "jedenfalls": 2796, 
  "auszu@@": 2797, 
  "Gerichtshof": 2798, 
  "Briten": 2799, 
  "verschaffen": 2800, 
  "Erinnerung": 2801, 
  "reagiert": 2802, 
  "Prognosen": 2803, 
  "ethnische": 2804, 
  "veröffentlicht": 2805, 
  "ti@@": 2806, 
  "Energien": 2807, 
  "Peripherie": 2808, 
  "Verwendung": 2809, 
  "Gas": 2810, 
  "Gene": 2811, 
  "derzeitigen": 2812, 
  "bedingt": 2813, 
  "11": 2814, 
  "Befürchtungen": 2815, 
  "irakische": 2816, 
  "Roma": 2817, 
  "Bewältigung": 2818, 
  "bestehende": 2819, 
  "demokratisch": 2820, 
  "Korea": 2821, 
  "Konfrontation": 2822, 
  "Maßnahme": 2823, 
  "Untersuchung": 2824, 
  "zwanzig": 2825, 
  "dritten": 2826, 
  "ASEAN": 2827, 
  "unweigerlich": 2828, 
  "ignoriert": 2829, 
  "schwierigen": 2830, 
  "Sparmaßnahmen": 2831, 
  "Untersuchungen": 2832, 
  "Schwächen": 2833, 
  "Kohle": 2834, 
  "Umwelt@@": 2835, 
  "reicher": 2836, 
  "solches": 2837, 
  "es@@": 2838, 
  "fordert": 2839, 
  "Partei@@": 2840, 
  "Mechanismen": 2841, 
  "chen": 2842, 
  "schnelle": 2843, 
  "enthalten": 2844, 
  "gutes": 2845, 
  "13": 2846, 
  "Durchschnitt": 2847, 
  "traditionell": 2848, 
  "glücklicherweise": 2849, 
  "müsse": 2850, 
  "arbeitet": 2851, 
  "entsprechende": 2852, 
  "Modelle": 2853, 
  "knapp": 2854, 
  "Widerspruch": 2855, 
  "berücksichtigt": 2856, 
  "wünschen": 2857, 
  "rechnen": 2858, 
  "Aktivisten": 2859, 
  "hielten": 2860, 
  "Kirche": 2861, 
  "Parlamentswahlen": 2862, 
  "Verbot": 2863, 
  "erlangen": 2864, 
  "gewählten": 2865, 
  "tat": 2866, 
  "Entschlossenheit": 2867, 
  "Geschäfte": 2868, 
  "ans": 2869, 
  "bloß": 2870, 
  "Mischung": 2871, 
  "schweigen": 2872, 
  "höherer": 2873, 
  "Charakter": 2874, 
  "effektive": 2875, 
  "beseitigen": 2876, 
  "her@@": 2877, 
  "notwendige": 2878, 
  "gesunken": 2879, 
  "Traum": 2880, 
  "Friedens": 2881, 
  "Privatisierung": 2882, 
  "Grunde": 2883, 
  "Information": 2884, 
  "mittels": 2885, 
  "folgte": 2886, 
  "schlicht": 2887, 
  "starker": 2888, 
  "anzunehmen": 2889, 
  "Diskriminierung": 2890, 
  "Wandels": 2891, 
  "erfolgreichen": 2892, 
  "Mensch": 2893, 
  "begrenzen": 2894, 
  "positiven": 2895, 
  "programme": 2896, 
  "anfällig": 2897, 
  "Raketen": 2898, 
  "Selbst@@": 2899, 
  "Tunesien": 2900, 
  "verwandeln": 2901, 
  "Ängste": 2902, 
  "Anführer": 2903, 
  "der@@": 2904, 
  "Nein": 2905, 
  "Schocks": 2906, 
  "irgendwie": 2907, 
  "laufen": 2908, 
  "Sichtweise": 2909, 
  "reden": 2910, 
  "sahen": 2911, 
  "negative": 2912, 
  "deutet": 2913, 
  "systems": 2914, 
  "stärkeren": 2915, 
  "Meer": 2916, 
  "gedrängt": 2917, 
  "erfahren": 2918, 
  "Geschäfts@@": 2919, 
  "Erbe": 2920, 
  "Autos": 2921, 
  "türkische": 2922, 
  "Völker": 2923, 
  "besitzt": 2924, 
  "1980": 2925, 
  "Million": 2926, 
  "Mechanismus": 2927, 
  "Schlüssel": 2928, 
  "technischen": 2929, 
  "14": 2930, 
  "Bedürfnisse": 2931, 
  "Reform@@": 2932, 
  "Resolution": 2933, 
  "Konzentration": 2934, 
  "sinnvoll": 2935, 
  "offiziell": 2936, 
  "agieren": 2937, 
  "Reagan": 2938, 
  "interessiert": 2939, 
  "Geist": 2940, 
  "ernsthaften": 2941, 
  "David": 2942, 
  "rein": 2943, 
  "gelegt": 2944, 
  "Voraussetzungen": 2945, 
  "Doha": 2946, 
  "Erträge": 2947, 
  "pakistanischen": 2948, 
  "höchste": 2949, 
  "ums": 2950, 
  "Wirtschaftswachstums": 2951, 
  "bedeutenden": 2952, 
  "Generalsekretär": 2953, 
  "anerkennen": 2954, 
  "Dauer": 2955, 
  "gegründet": 2956, 
  "beobachten": 2957, 
  "ter@@": 2958, 
  "Phänomen": 2959, 
  "unterstützte": 2960, 
  "&#93;": 2961, 
  "&#91;": 2962, 
  "derjenigen": 2963, 
  "lichkeit": 2964, 
  "Ahmadinedschad": 2965, 
  "entsprechenden": 2966, 
  "Präsenz": 2967, 
  "Ärzte": 2968, 
  "Optionen": 2969, 
  "75": 2970, 
  "stets": 2971, 
  "stürzen": 2972, 
  "Freiheiten": 2973, 
  "gesch@@": 2974, 
  "p@@": 2975, 
  "Trends": 2976, 
  "Berichte": 2977, 
  "is": 2978, 
  "In@@": 2979, 
  "schem": 2980, 
  "ca.": 2981, 
  "geschafft": 2982, 
  "beschlossen": 2983, 
  "vielfach": 2984, 
  "Bundesstaaten": 2985, 
  "erung": 2986, 
  "Führungsrolle": 2987, 
  "Einwohner": 2988, 
  "extreme": 2989, 
  "geschwächt": 2990, 
  "Stillstand": 2991, 
  "fanden": 2992, 
  "2@@": 2993, 
  "spät": 2994, 
  "Mandat": 2995, 
  "komplexen": 2996, 
  "Antworten": 2997, 
  "1995": 2998, 
  "wirken": 2999, 
  "absolut": 3000, 
  "Konflikten": 3001, 
  "beider": 3002, 
  "Sparquote": 3003, 
  "tern": 3004, 
  "hingegen": 3005, 
  "Geschäft": 3006, 
  "Grenz@@": 3007, 
  "gewählte": 3008, 
  "Stimmung": 3009, 
  "ansteigen": 3010, 
  "Ambitionen": 3011, 
  "ausfallen": 3012, 
  "Großbritanniens": 3013, 
  "forderte": 3014, 
  "Demokratisierung": 3015, 
  "letztendlich": 3016, 
  "lateinamerikanischen": 3017, 
  "Bedarf": 3018, 
  "Titel": 3019, 
  "betrug": 3020, 
  "behandeln": 3021, 
  "hohem": 3022, 
  "angemessene": 3023, 
  "W@@": 3024, 
  "G20": 3025, 
  "unglücklicherweise": 3026, 
  "kommunistische": 3027, 
  "Araber": 3028, 
  "welchem": 3029, 
  "Inland": 3030, 
  "Händen": 3031, 
  "friedlichen": 3032, 
  "tiefer": 3033, 
  "gegangen": 3034, 
  "Sicherheitsrates": 3035, 
  "Tony": 3036, 
  "Berlusconi": 3037, 
  "bemüht": 3038, 
  "Entwicklungshilfe": 3039, 
  "trat": 3040, 
  "Unternehmer": 3041, 
  "Herrscher": 3042, 
  "Lebensstandard": 3043, 
  "harten": 3044, 
  "wirksame": 3045, 
  "Kriegs@@": 3046, 
  "se": 3047, 
  "Einkommens": 3048, 
  "Gemeinschaften": 3049, 
  "Gewinn": 3050, 
  "öffnen": 3051, 
  "..": 3052, 
  "Grund@@": 3053, 
  "Ostasien": 3054, 
  "z.B.": 3055, 
  "Aktionäre": 3056, 
  "17": 3057, 
  "Welle": 3058, 
  "Dilemma": 3059, 
  "rechte": 3060, 
  "ausländischer": 3061, 
  "wirft": 3062, 
  "langer": 3063, 
  "voran": 3064, 
  "diskutieren": 3065, 
  "Wachstumsraten": 3066, 
  "wenigsten": 3067, 
  "Sudan": 3068, 
  "Justiz": 3069, 
  "steuern": 3070, 
  "Einwanderung": 3071, 
  "gewinnt": 3072, 
  "Darfur": 3073, 
  "sen": 3074, 
  "durchschnittliche": 3075, 
  "geschlossen": 3076, 
  "Einschränkungen": 3077, 
  "geringen": 3078, 
  "gefährliche": 3079, 
  "verliert": 3080, 
  "staatlich": 3081, 
  "1994": 3082, 
  "vergeben": 3083, 
  "verursachten": 3084, 
  "Moral": 3085, 
  "anzukurbeln": 3086, 
  "Strom": 3087, 
  "1960er": 3088, 
  "muslimische": 3089, 
  "historisch": 3090, 
  "etablieren": 3091, 
  "erforderlichen": 3092, 
  "Lissabon": 3093, 
  "ung@@": 3094, 
  "regiert": 3095, 
  "Verlauf": 3096, 
  "zunehmen": 3097, 
  "Aufschwung": 3098, 
  "geholfen": 3099, 
  "300": 3100, 
  "2015": 3101, 
  "O@@": 3102, 
  "Mao": 3103, 
  "Taten": 3104, 
  "einig": 3105, 
  "w@@": 3106, 
  "Option": 3107, 
  "erhielt": 3108, 
  "genügend": 3109, 
  "Herzen": 3110, 
  "Stunden": 3111, 
  "35": 3112, 
  "Bill": 3113, 
  "zahlreichen": 3114, 
  "ständigen": 3115, 
  "Vorgänger": 3116, 
  "normale": 3117, 
  "schnellen": 3118, 
  "beträchtliche": 3119, 
  "Banker": 3120, 
  "allmählich": 3121, 
  "Hauptstadt": 3122, 
  "Verkauf": 3123, 
  "Sunniten": 3124, 
  "on@@": 3125, 
  "aufweisen": 3126, 
  "m": 3127, 
  "Dänemark": 3128, 
  "Gesundheitswesen": 3129, 
  "Institute": 3130, 
  "israelisch": 3131, 
  "aussehen": 3132, 
  "Vorgehensweise": 3133, 
  "Immobilien": 3134, 
  "nukleare": 3135, 
  "or@@": 3136, 
  "Hoch@@": 3137, 
  "tiefe": 3138, 
  "Finanzinstitutionen": 3139, 
  "University": 3140, 
  "Massenvernichtungswaffen": 3141, 
  "diskutiert": 3142, 
  "Drogen": 3143, 
  "einge@@": 3144, 
  "gegenseitig": 3145, 
  "befreien": 3146, 
  "Nach@@": 3147, 
  "Protokoll": 3148, 
  "gefordert": 3149, 
  "afrikanische": 3150, 
  "USD": 3151, 
  "Quartal": 3152, 
  "stecken": 3153, 
  "Bereitstellung": 3154, 
  "Versorgung": 3155, 
  "aufzu@@": 3156, 
  "Definition": 3157, 
  "Investition": 3158, 
  "solle": 3159, 
  "Aufrechterhaltung": 3160, 
  "Kontext": 3161, 
  "erheblichen": 3162, 
  "Bau@@": 3163, 
  "ermutigen": 3164, 
  "Lektion": 3165, 
  "liegenden": 3166, 
  "aufgebaut": 3167, 
  "Zeitungen": 3168, 
  "erwies": 3169, 
  "betreiben": 3170, 
  "Konjunktur": 3171, 
  "27": 3172, 
  "Konkurrenz": 3173, 
  "angemessen": 3174, 
  "sitzen": 3175, 
  "Gesundheits@@": 3176, 
  "König": 3177, 
  "Kern@@": 3178, 
  "neun": 3179, 
  "Version": 3180, 
  "anfangen": 3181, 
  "radikalen": 3182, 
  "friedliche": 3183, 
  "finanzieller": 3184, 
  "aufgeben": 3185, 
  "Umstände": 3186, 
  ".@@": 3187, 
  "Abzug": 3188, 
  "rasche": 3189, 
  "breite": 3190, 
  "Urteil": 3191, 
  "tiefen": 3192, 
  "verboten": 3193, 
  "Bankensystem": 3194, 
  "auszugleichen": 3195, 
  "ansehen": 3196, 
  "Furcht": 3197, 
  "Ereignis": 3198, 
  "Firma": 3199, 
  "Lateinamerikas": 3200, 
  "meinte": 3201, 
  "gespielt": 3202, 
  "bilateralen": 3203, 
  "Offenheit": 3204, 
  "internen": 3205, 
  "brachten": 3206, 
  "Wirtschaftsleistung": 3207, 
  "Körper": 3208, 
  "Inseln": 3209, 
  "losen": 3210, 
  "land": 3211, 
  "genannt": 3212, 
  "besorgt": 3213, 
  "Flüchtlinge": 3214, 
  "nachhaltigen": 3215, 
  "autoritären": 3216, 
  "Fernsehen": 3217, 
  "Computer": 3218, 
  "ster": 3219, 
  "zurückkehren": 3220, 
  "Ostens": 3221, 
  "Nicolas": 3222, 
  "Steuereinnahmen": 3223, 
  "bewegt": 3224, 
  "Vereinbarung": 3225, 
  "jüdischen": 3226, 
  "Tragödie": 3227, 
  "1992": 3228, 
  "aktive": 3229, 
  "i@@": 3230, 
  "Jordanien": 3231, 
  "makroökonomische": 3232, 
  "Lande": 3233, 
  "hinzu": 3234, 
  "fließen": 3235, 
  "Worte": 3236, 
  "u@@": 3237, 
  "aufzugeben": 3238, 
  "wirtschaftliches": 3239, 
  "Forschungs@@": 3240, 
  "Fakten": 3241, 
  "erzeugt": 3242, 
  "Gegenzug": 3243, 
  "sicheren": 3244, 
  "stoppen": 3245, 
  "niedrigeren": 3246, 
  "starkes": 3247, 
  "Elemente": 3248, 
  "beschleunigen": 3249, 
  "einzig": 3250, 
  "bemühen": 3251, 
  "ermöglichte": 3252, 
  "Japaner": 3253, 
  "Wirtschafts-": 3254, 
  "Atom@@": 3255, 
  "Verteidigungs@@": 3256, 
  "aufbauen": 3257, 
  "falschen": 3258, 
  "multilateralen": 3259, 
  "entsteht": 3260, 
  "Finanzkrisen": 3261, 
  "eln": 3262, 
  "global": 3263, 
  "Gegen@@": 3264, 
  "gewaltigen": 3265, 
  "folgende": 3266, 
  "Tiere": 3267, 
  "ausüben": 3268, 
  "Ausgang": 3269, 
  "inneren": 3270, 
  "Vielzahl": 3271, 
  "technische": 3272, 
  "vernünftige": 3273, 
  "betroffenen": 3274, 
  "Übernahme": 3275, 
  "abzielen": 3276, 
  "Argumentation": 3277, 
  "Sozial@@": 3278, 
  "praktische": 3279, 
  "Finanzinstitute": 3280, 
  "n": 3281, 
  "einzugehen": 3282, 
  "Berater": 3283, 
  "definieren": 3284, 
  "Extremismus": 3285, 
  "Summe": 3286, 
  "problem": 3287, 
  "Kolumbien": 3288, 
  "streben": 3289, 
  "bestätigen": 3290, 
  "wahr": 3291, 
  "erlauben": 3292, 
  "garantiert": 3293, 
  "ange@@": 3294, 
  "Kandidat": 3295, 
  "Ent@@": 3296, 
  "hunderte": 3297, 
  "erhält": 3298, 
  "stehenden": 3299, 
  "Prozesses": 3300, 
  "barer": 3301, 
  "erter": 3302, 
  "griechische": 3303, 
  "Sohn": 3304, 
  "töten": 3305, 
  "bewirken": 3306, 
  "brechen": 3307, 
  "Weltbevölkerung": 3308, 
  "verbesserte": 3309, 
  "Tibet": 3310, 
  "erkennbar": 3311, 
  "auszugeben": 3312, 
  "Kriterien": 3313, 
  "Häuser": 3314, 
  "Diplomaten": 3315, 
  "le": 3316, 
  "Direktinvestitionen": 3317, 
  "bot": 3318, 
  "doppelt": 3319, 
  "Regelungen": 3320, 
  "Streben": 3321, 
  "Bosnien": 3322, 
  "mächtigen": 3323, 
  "Team": 3324, 
  "begründet": 3325, 
  "Gold": 3326, 
  "Beamte": 3327, 
  "immerhin": 3328, 
  "Last": 3329, 
  "zer@@": 3330, 
  "Bürokratie": 3331, 
  "Grundlagen": 3332, 
  "gen@@": 3333, 
  "at": 3334, 
  "Friedensprozess": 3335, 
  "quo": 3336, 
  "zeigten": 3337, 
  "durchsetzen": 3338, 
  "ausgerichtet": 3339, 
  "Weigerung": 3340, 
  "Haiti": 3341, 
  "Romney": 3342, 
  "unklar": 3343, 
  "richten": 3344, 
  "bewaffneten": 3345, 
  "ö@@": 3346, 
  "Anschein": 3347, 
  "men": 3348, 
  "Rück@@": 3349, 
  "steil": 3350, 
  "freier": 3351, 
  "Thailand": 3352, 
  "sichere": 3353, 
  "Misstrauen": 3354, 
  "Rechnung": 3355, 
  "mangelnde": 3356, 
  "kleineren": 3357, 
  "gewachsen": 3358, 
  "Flexibilität": 3359, 
  "zivilen": 3360, 
  "Missbrauch": 3361, 
  "Prozesse": 3362, 
  "tet": 3363, 
  "religiöser": 3364, 
  "Blase": 3365, 
  "schaden": 3366, 
  "verschärfen": 3367, 
  "Arbeitskräften": 3368, 
  "Rand": 3369, 
  "dargestellt": 3370, 
  "derartiges": 3371, 
  "Zu@@": 3372, 
  "entschied": 3373, 
  "gel@@": 3374, 
  "keineswegs": 3375, 
  "Bank@@": 3376, 
  "automatisch": 3377, 
  "verbreitete": 3378, 
  "Malaysia": 3379, 
  "technologischen": 3380, 
  "Darlehen": 3381, 
  "interne": 3382, 
  "erhöhte": 3383, 
  "veröffentlichten": 3384, 
  "Mit@@": 3385, 
  "internationales": 3386, 
  "Not": 3387, 
  "handelte": 3388, 
  "Vorherrschaft": 3389, 
  "einzu@@": 3390, 
  "gefangen": 3391, 
  "zufrieden": 3392, 
  "Das": 3393, 
  "Durchsetzung": 3394, 
  "Gleichheit": 3395, 
  "Besetzung": 3396, 
  "Absichten": 3397, 
  "medizinischen": 3398, 
  "Garantie": 3399, 
  "Assad": 3400, 
  "regionaler": 3401, 
  "chinesischer": 3402, 
  "Griff": 3403, 
  "at@@": 3404, 
  "sorgt": 3405, 
  "betragen": 3406, 
  "ken": 3407, 
  "deutliche": 3408, 
  "gerechtfertigt": 3409, 
  "verteilt": 3410, 
  "Optimismus": 3411, 
  "Panik": 3412, 
  "rechts": 3413, 
  "Einzelnen": 3414, 
  "trug": 3415, 
  "Hindernisse": 3416, 
  "rechten": 3417, 
  "prozess": 3418, 
  "Z@@": 3419, 
  "herrschenden": 3420, 
  "Klasse": 3421, 
  "90er": 3422, 
  "tigen": 3423, 
  "einerseits": 3424, 
  "anzu@@": 3425, 
  "Nordkoreas": 3426, 
  "ägyptischen": 3427, 
  "bezeichnete": 3428, 
  "Milosevic": 3429, 
  "angefangen": 3430, 
  "Neu@@": 3431, 
  "Provinz": 3432, 
  "Mut": 3433, 
  "Wurzeln": 3434, 
  "unterstützten": 3435, 
  "asiatische": 3436, 
  "abge@@": 3437, 
  "entlang": 3438, 
  "konservativen": 3439, 
  "Beseitigung": 3440, 
  "se@@": 3441, 
  "Aufsicht": 3442, 
  "geringere": 3443, 
  "Hindernis": 3444, 
  "greifen": 3445, 
  "Arbeitsplatz": 3446, 
  "Führungs@@": 3447, 
  "Gas@@": 3448, 
  "Lebens@@": 3449, 
  "Bürokraten": 3450, 
  "einzuführen": 3451, 
  "stabil": 3452, 
  "übermäßige": 3453, 
  "dieselben": 3454, 
  "niedrigere": 3455, 
  "unterschiedlich": 3456, 
  "anzuerkennen": 3457, 
  "Griechenlands": 3458, 
  "Erdbeben": 3459, 
  "sicherer": 3460, 
  "aufrechterhalten": 3461, 
  "di@@": 3462, 
  "unmittelbare": 3463, 
  "Traditionen": 3464, 
  "welches": 3465, 
  "be": 3466, 
  "Medizin": 3467, 
  "wieder@@": 3468, 
  "wirkt": 3469, 
  "Kommunikation": 3470, 
  "arm": 3471, 
  "erenden": 3472, 
  "Hussein": 3473, 
  "oberste": 3474, 
  "gestattet": 3475, 
  "vermitteln": 3476, 
  "Schweiz": 3477, 
  "weiten": 3478, 
  "islamistischen": 3479, 
  "ehemaliger": 3480, 
  "festgelegt": 3481, 
  "kontrolliert": 3482, 
  "dient": 3483, 
  "Tests": 3484, 
  "Zwischenzeit": 3485, 
  "abgelehnt": 3486, 
  "rechtlichen": 3487, 
  "übrig": 3488, 
  "finanziell": 3489, 
  "bewerten": 3490, 
  "spezielle": 3491, 
  "gescheitert": 3492, 
  "Isolation": 3493, 
  "Schäden": 3494, 
  "si@@": 3495, 
  "Zielen": 3496, 
  "alt": 3497, 
  "Referendum": 3498, 
  "Todesfälle": 3499, 
  "Austausch": 3500, 
  "zumal": 3501, 
  "bekannten": 3502, 
  "erkennt": 3503, 
  "geschützt": 3504, 
  "zentraler": 3505, 
  "verschwinden": 3506, 
  "Insel": 3507, 
  "sicherstellen": 3508, 
  "erheben": 3509, 
  "Anliegen": 3510, 
  "durchzuführen": 3511, 
  "150": 3512, 
  "legte": 3513, 
  "Demonstrationen": 3514, 
  "privater": 3515, 
  "Jacques": 3516, 
  "fahren": 3517, 
  "konservative": 3518, 
  "geschah": 3519, 
  "Vorschriften": 3520, 
  "Quellen": 3521, 
  "Standpunkt": 3522, 
  "usw.": 3523, 
  "hohes": 3524, 
  "Österreich": 3525, 
  "spüren": 3526, 
  "Mutter": 3527, 
  "ten@@": 3528, 
  "ergriffen": 3529, 
  "Herbst": 3530, 
  "Kräften": 3531, 
  "stiegen": 3532, 
  "DNA": 3533, 
  "au@@": 3534, 
  "Geschichten": 3535, 
  "Gefühle": 3536, 
  "erhielten": 3537, 
  "anbieten": 3538, 
  "Wählern": 3539, 
  "unterscheidet": 3540, 
  "Party": 3541, 
  "wuchs": 3542, 
  "nötigen": 3543, 
  "komplexe": 3544, 
  "Land@@": 3545, 
  "ä@@": 3546, 
  "Finanzen": 3547, 
  "2020": 3548, 
  "zählt": 3549, 
  "stoßen": 3550, 
  "et@@": 3551, 
  "1967": 3552, 
  "begleitet": 3553, 
  "Niederlanden": 3554, 
  "Simbabwe": 3555, 
  "tendenziell": 3556, 
  "Popularität": 3557, 
  "produziert": 3558, 
  "selbst@@": 3559, 
  "Finanzministerium": 3560, 
  "Tsunami": 3561, 
  "Nicht": 3562, 
  "Entscheidungsfindung": 3563, 
  "vorbereitet": 3564, 
  "Einrichtung": 3565, 
  "Finanz-": 3566, 
  "italienischen": 3567, 
  "wirklichen": 3568, 
  "Staatsausgaben": 3569, 
  "Bühne": 3570, 
  "Investitions@@": 3571, 
  "de@@": 3572, 
  "alter": 3573, 
  "2013": 3574, 
  "weiter@@": 3575, 
  "angeführt": 3576, 
  "besseres": 3577, 
  "Anforderungen": 3578, 
  "Integrität": 3579, 
  "abhängen": 3580, 
  "Jahrhunderte": 3581, 
  "Vereinbarungen": 3582, 
  "Harvard": 3583, 
  "formen": 3584, 
  "feststellen": 3585, 
  "Folter": 3586, 
  "bevorstehenden": 3587, 
  "klaren": 3588, 
  "versuchten": 3589, 
  "relativen": 3590, 
  "Siedlungen": 3591, 
  "Rumänien": 3592, 
  "bloße": 3593, 
  "gebraucht": 3594, 
  "Belastung": 3595, 
  "am@@": 3596, 
  "y@@": 3597, 
  "effektiver": 3598, 
  "Gemeinden": 3599, 
  "verständlich": 3600, 
  "24": 3601, 
  "voneinander": 3602, 
  "Arbeitslosenquote": 3603, 
  "Besatzung": 3604, 
  "Leiden": 3605, 
  "facto": 3606, 
  "jenes": 3607, 
  "Finanzpolitik": 3608, 
  "ausreichen": 3609, 
  "beurteilen": 3610, 
  "Ökonom": 3611, 
  "genießen": 3612, 
  "rechtliche": 3613, 
  "begreifen": 3614, 
  "1945": 3615, 
  "Nacht": 3616, 
  "Rechts": 3617, 
  "derzeitige": 3618, 
  "Erkenntnisse": 3619, 
  "wesentlichen": 3620, 
  "globales": 3621, 
  "jährigen": 3622, 
  "behindert": 3623, 
  "ausgeht": 3624, 
  "voranzutreiben": 3625, 
  "Deregulierung": 3626, 
  "fen": 3627, 
  "Brennstoffe": 3628, 
  "widmen": 3629, 
  "Wut": 3630, 
  "Verfolgung": 3631, 
  "I@@": 3632, 
  "verhandeln": 3633, 
  "Medikamenten": 3634, 
  "lebt": 3635, 
  "multilaterale": 3636, 
  "ernste": 3637, 
  "geringeren": 3638, 
  "Überlegungen": 3639, 
  "hundert": 3640, 
  "moralisch": 3641, 
  "hierzu": 3642, 
  "schlägt": 3643, 
  "schwerer": 3644, 
  "Burma": 3645, 
  "zulassen": 3646, 
  "vorstellen": 3647, 
  "Schul@@": 3648, 
  "glaubten": 3649, 
  "Beschäftigungs@@": 3650, 
  "Qaida": 3651, 
  "ni@@": 3652, 
  "erstmals": 3653, 
  "Greenspan": 3654, 
  "beteiligen": 3655, 
  "Einschätzung": 3656, 
  "Erhaltung": 3657, 
  "zurzeit": 3658, 
  "behauptete": 3659, 
  "Äußerungen": 3660, 
  "täglich": 3661, 
  "Versuchung": 3662, 
  "National": 3663, 
  "existiert": 3664, 
  "Prüfung": 3665, 
  "Revolutionen": 3666, 
  "gerettet": 3667, 
  "Tendenz": 3668, 
  "beides": 3669, 
  "stelle": 3670, 
  "Umverteilung": 3671, 
  "vollen": 3672, 
  "ellen": 3673, 
  "Würde": 3674, 
  "AKP": 3675, 
  "Praktiken": 3676, 
  "Berlin": 3677, 
  "Intelligenz": 3678, 
  "aufgegeben": 3679, 
  "umsetzen": 3680, 
  "geboren": 3681, 
  "bei@@": 3682, 
  "erfolgen": 3683, 
  "bekam": 3684, 
  "gefragt": 3685, 
  "alternative": 3686, 
  "meint": 3687, 
  "ene": 3688, 
  "gefolgt": 3689, 
  "untergräbt": 3690, 
  "Katastrophen": 3691, 
  "auftreten": 3692, 
  "ideologische": 3693, 
  "früh": 3694, 
  "organisiert": 3695, 
  "versprach": 3696, 
  "Supermacht": 3697, 
  "Angela": 3698, 
  "verfahren": 3699, 
  "formulierte": 3700, 
  "getragen": 3701, 
  "wies": 3702, 
  "Ergebnissen": 3703, 
  "bereiten": 3704, 
  "Bewertung": 3705, 
  "strukturellen": 3706, 
  "zeit": 3707, 
  "großem": 3708, 
  "Stand": 3709, 
  "Stellen": 3710, 
  "raten": 3711, 
  "veröffentlichte": 3712, 
  "nen": 3713, 
  "Bildungs@@": 3714, 
  "verbinden": 3715, 
  "strategie": 3716, 
  "Vorbild": 3717, 
  "Reformer": 3718, 
  "Eigentum": 3719, 
  "Öl-": 3720, 
  "Princeton": 3721, 
  "jenem": 3722, 
  "Gutes": 3723, 
  "verzichten": 3724, 
  "le@@": 3725, 
  "vergleichbar": 3726, 
  "ak@@": 3727, 
  "Sozialleistungen": 3728, 
  "gehandelt": 3729, 
  "untersucht": 3730, 
  "bilaterale": 3731, 
  "r@@": 3732, 
  "tem": 3733, 
  "gewaltige": 3734, 
  "Wirtschaftswissenschaftler": 3735, 
  "Jean": 3736, 
  "aler": 3737, 
  "Deng": 3738, 
  "verzeichnen": 3739, 
  "Iraker": 3740, 
  "Jong": 3741, 
  "sieren": 3742, 
  "Arafat": 3743, 
  "verabschiedet": 3744, 
  "1996": 3745, 
  "Privat@@": 3746, 
  "A": 3747, 
  "inmitten": 3748, 
  "übernimmt": 3749, 
  "solch": 3750, 
  "beendet": 3751, 
  "syrischen": 3752, 
  "Wirksamkeit": 3753, 
  "gewährleistet": 3754, 
  "dahin": 3755, 
  "Reise": 3756, 
  "durchschnittlichen": 3757, 
  "Fehlen": 3758, 
  "Abschaffung": 3759, 
  "real": 3760, 
  "entsprechen": 3761, 
  "ändert": 3762, 
  "enger": 3763, 
  "Aussage": 3764, 
  "Liga": 3765, 
  "belegen": 3766, 
  "Reich": 3767, 
  "gefährlichen": 3768, 
  "Schatten": 3769, 
  "existieren": 3770, 
  "Durchbruch": 3771, 
  "grundlegend": 3772, 
  "gebunden": 3773, 
  "Tausende": 3774, 
  "entlassen": 3775, 
  "rufen": 3776, 
  "Test": 3777, 
  "schicken": 3778, 
  "l": 3779, 
  "übertrieben": 3780, 
  "ironischerweise": 3781, 
  "Gesicht": 3782, 
  "ger@@": 3783, 
  "verhaftet": 3784, 
  "bekommt": 3785, 
  "Zellen": 3786, 
  "Drogen@@": 3787, 
  "offenkundig": 3788, 
  "Bolivien": 3789, 
  "Geldes": 3790, 
  "kleinere": 3791, 
  "Leid": 3792, 
  "Obersten": 3793, 
  "Gegenden": 3794, 
  "Schweigen": 3795, 
  "schlug": 3796, 
  "gehabt": 3797, 
  "einiges": 3798, 
  "Konservativen": 3799, 
  "Abrüstung": 3800, 
  "Anpassungen": 3801, 
  "bildet": 3802, 
  "Jugoslawien": 3803, 
  "Arbeitgeber": 3804, 
  "gleich@@": 3805, 
  "Schröder": 3806, 
  "Milizen": 3807, 
  "bemerkenswert": 3808, 
  "benutzt": 3809, 
  "Lager": 3810, 
  "keinem": 3811, 
  "gründen": 3812, 
  "Überprüfung": 3813, 
  "len": 3814, 
  "Job": 3815, 
  "Schlüssel@@": 3816, 
  "verschiedener": 3817, 
  "Sitz": 3818, 
  "Punkte": 3819, 
  "nationalistischen": 3820, 
  "anzupassen": 3821, 
  "heißen": 3822, 
  "versprechen": 3823, 
  "örtlichen": 3824, 
  "staaten": 3825, 
  "Nachhaltigkeit": 3826, 
  "Große": 3827, 
  "versprochen": 3828, 
  "rate": 3829, 
  "stabilen": 3830, 
  "ei@@": 3831, 
  "taten": 3832, 
  "Haushaltspolitik": 3833, 
  "gelassen": 3834, 
  "Pflicht": 3835, 
  "os": 3836, 
  "Bekenntnis": 3837, 
  "konkrete": 3838, 
  "reichsten": 3839, 
  "Steuererhöhungen": 3840, 
  "Brasiliens": 3841, 
  "abzielt": 3842, 
  "derselben": 3843, 
  "Meinungsumfragen": 3844, 
  "rapide": 3845, 
  "teten": 3846, 
  "zutiefst": 3847, 
  "errichten": 3848, 
  "kollektive": 3849, 
  "verwandelt": 3850, 
  "unterschiedlicher": 3851, 
  "erhöhten": 3852, 
  "klein": 3853, 
  "gten": 3854, 
  "anstreben": 3855, 
  "verpflichten": 3856, 
  "Bernanke": 3857, 
  "Umstrukturierung": 3858, 
  "Orten": 3859, 
  "Sarkozys": 3860, 
  "Frühling": 3861, 
  "Gesetzes": 3862, 
  "wenigstens": 3863, 
  "Lauf": 3864, 
  "Autonomie": 3865, 
  "kritisiert": 3866, 
  "Balkan": 3867, 
  "lesen": 3868, 
  "Gaddafi": 3869, 
  "Fernseh@@": 3870, 
  "überaus": 3871, 
  "Brown": 3872, 
  "endes": 3873, 
  "Welthandelsorganisation": 3874, 
  "argumentierte": 3875, 
  "erholt": 3876, 
  "wahrgenommen": 3877, 
  "Inflationsrate": 3878, 
  "käme": 3879, 
  "Rohstoffpreise": 3880, 
  "1,5": 3881, 
  "bestenfalls": 3882, 
  "Mengen": 3883, 
  "enen": 3884, 
  "45": 3885, 
  "Abschreckung": 3886, 
  "Regulierungsbehörden": 3887, 
  "Jemen": 3888, 
  "regieren": 3889, 
  "Gelder": 3890, 
  "1.": 3891, 
  "übersehen": 3892, 
  "Nuklear@@": 3893, 
  "Ansehen": 3894, 
  "Doktrin": 3895, 
  "Jerusalem": 3896, 
  "Expansion": 3897, 
  "üblichen": 3898, 
  "Sonder@@": 3899, 
  "Klima@@": 3900, 
  "ertes": 3901, 
  "schiitischen": 3902, 
  "drohen": 3903, 
  "werte": 3904, 
  "Spiele": 3905, 
  "unmittelbaren": 3906, 
  "Technik": 3907, 
  "tige": 3908, 
  "Ali": 3909, 
  "stabile": 3910, 
  "Gefolge": 3911, 
  "betreffen": 3912, 
  "setzten": 3913, 
  "Abschluss": 3914, 
  "Renditen": 3915, 
  "spielte": 3916, 
  "Unternehmens": 3917, 
  "herum": 3918, 
  "gebieten": 3919, 
  "Behauptungen": 3920, 
  "junger": 3921, 
  "Krisen@@": 3922, 
  "Annäherung": 3923, 
  "lenken": 3924, 
  "Betracht": 3925, 
  "abhalten": 3926, 
  "Arabischen": 3927, 
  "Beurteilung": 3928, 
  "Migration": 3929, 
  "Ausschuss": 3930, 
  "ausmachen": 3931, 
  "technologische": 3932, 
  "ermutigt": 3933, 
  "verlor": 3934, 
  "z": 3935, 
  "makroökonomischen": 3936, 
  "sin@@": 3937, 
  "Ansätze": 3938, 
  "4@@": 3939, 
  "vorsichtig": 3940, 
  "bezüglich": 3941, 
  "zukommen": 3942, 
  "traf": 3943, 
  "ischen": 3944, 
  "galt": 3945, 
  "Verteidigungsminister": 3946, 
  "2050": 3947, 
  "vollständige": 3948, 
  "Prozentpunkte": 3949, 
  "fortsetzen": 3950, 
  "Toleranz": 3951, 
  "zweiter": 3952, 
  "Königreich": 3953, 
  "erlassen": 3954, 
  "Umfragen": 3955, 
  "Rücktritt": 3956, 
  "ler": 3957, 
  "Veröffentlichung": 3958, 
  "irgendeine": 3959, 
  "Wahrnehmung": 3960, 
  "extremen": 3961, 
  "länder": 3962, 
  "Preisstabilität": 3963, 
  "leiten": 3964, 
  "National@@": 3965, 
  "breiten": 3966, 
  "steigender": 3967, 
  "abgehalten": 3968, 
  "ließe": 3969, 
  "üblicherweise": 3970, 
  "eingestellt": 3971, 
  "Mittel-": 3972, 
  "tischen": 3973, 
  "Heimat": 3974, 
  "Philippinen": 3975, 
  "vermieden": 3976, 
  "attraktiv": 3977, 
  "betont": 3978, 
  "gt": 3979, 
  "zi@@": 3980, 
  "Abbau": 3981, 
  "Wiederwahl": 3982, 
  "formuliert": 3983, 
  "äußern": 3984, 
  "strukturelle": 3985, 
  "Zwecke": 3986, 
  "Vermächtnis": 3987, 
  "zog": 3988, 
  "Disziplin": 3989, 
  "gewisser": 3990, 
  "Kenntnis": 3991, 
  "Komplexität": 3992, 
  "Bevölkerungen": 3993, 
  "Netto@@": 3994, 
  "Inder": 3995, 
  "unvermeidlich": 3996, 
  "Aufstand": 3997, 
  "geschickt": 3998, 
  "garantieren": 3999, 
  "betrieben": 4000, 
  "Subprime": 4001, 
  "Schlussfolgerung": 4002, 
  "Leistungsbilanzdefizit": 4003, 
  "schienen": 4004, 
  "Sozialismus": 4005, 
  "Immobilienpreise": 4006, 
  "abgeschlossen": 4007, 
  "gewähren": 4008, 
  "irgendeiner": 4009, 
  "Nahrungsmittel": 4010, 
  "Krebs": 4011, 
  "risiko": 4012, 
  "wahrscheinlicher": 4013, 
  "Operationen": 4014, 
  "null": 4015, 
  "Pakt": 4016, 
  "Anklage": 4017, 
  "Leuten": 4018, 
  "Rebellen": 4019, 
  "halben": 4020, 
  "Argentiniens": 4021, 
  "Vorgehen": 4022, 
  "ur@@": 4023, 
  "bekannte": 4024, 
  "Diagnose": 4025, 
  "Laden": 4026, 
  "nationalistische": 4027, 
  "Belastungen": 4028, 
  "wesentliche": 4029, 
  "elle": 4030, 
  "eingeschränkt": 4031, 
  "Auffassung": 4032, 
  "Zentralasien": 4033, 
  "Finanzsektors": 4034, 
  "Energiequellen": 4035, 
  "hierbei": 4036, 
  "Ägyptens": 4037, 
  "Ursprung": 4038, 
  "zweier": 4039, 
  "afghanischen": 4040, 
  "achten": 4041, 
  "Symbol": 4042, 
  "ben": 4043, 
  "zugute": 4044, 
  "Kommunistischen": 4045, 
  "Jahrestag": 4046, 
  "enthält": 4047, 
  "22": 4048, 
  "Gerichte": 4049, 
  "Propaganda": 4050, 
  "verursachte": 4051, 
  "International": 4052, 
  "einstellen": 4053, 
  "Trennung": 4054, 
  "gerne": 4055, 
  "Lohn@@": 4056, 
  "Devisenreserven": 4057, 
  "untersuchen": 4058, 
  "sozialistischen": 4059, 
  "drücken": 4060, 
  "kümmern": 4061, 
  "nachhaltig": 4062, 
  "solide": 4063, 
  "zusammenarbeiten": 4064, 
  "Jelzin": 4065, 
  "a@@": 4066, 
  "1979": 4067, 
  "Eindämmung": 4068, 
  "eingeleitet": 4069, 
  "befürchten": 4070, 
  "markt": 4071, 
  "Italiens": 4072, 
  "Produzenten": 4073, 
  "Ersten": 4074, 
  "Hilfs@@": 4075, 
  "mächtige": 4076, 
  "hängen": 4077, 
  "geltend": 4078, 
  "Fiskalpolitik": 4079, 
  "Gott": 4080, 
  "aufge@@": 4081, 
  "ch": 4082, 
  "Gesamtnachfrage": 4083, 
  "Banken@@": 4084, 
  "Verfechter": 4085, 
  "Produkt": 4086, 
  "Zinssatz": 4087, 
  "Holocaust": 4088, 
  "Pfund": 4089, 
  "glaubte": 4090, 
  "for": 4091, 
  "elt": 4092, 
  "mittel": 4093, 
  "Turbulenzen": 4094, 
  "Branchen": 4095, 
  "1993": 4096, 
  "behindern": 4097, 
  "gefasst": 4098, 
  "besetzten": 4099, 
  "Überschuss": 4100, 
  "Gleiche": 4101, 
  "sh@@": 4102, 
  "Einmischung": 4103, 
  "Merkmale": 4104, 
  "versch@@": 4105, 
  "billiger": 4106, 
  "Waffen@@": 4107, 
  "KGB": 4108, 
  "produktion": 4109, 
  "Vorfeld": 4110, 
  "weg@@": 4111, 
  "aufs": 4112, 
  "südlichen": 4113, 
  "erschwert": 4114, 
  "Kriegs": 4115, 
  "auswirken": 4116, 
  "dauerhaft": 4117, 
  "Kompromisse": 4118, 
  "Unrecht": 4119, 
  "unfähig": 4120, 
  "Netzwerk": 4121, 
  "erleichtern": 4122, 
  "tieren": 4123, 
  "Bemühen": 4124, 
  "V@@": 4125, 
  "frage": 4126, 
  "womit": 4127, 
  "hört": 4128, 
  "stabilisieren": 4129, 
  "Dienste": 4130, 
  "Opfern": 4131, 
  "schreiben": 4132, 
  "Hass": 4133, 
  "industriellen": 4134, 
  "widerspiegelt": 4135, 
  "Medien@@": 4136, 
  "übernahm": 4137, 
  "möglichkeiten": 4138, 
  "ri@@": 4139, 
  "stehende": 4140, 
  "Film": 4141, 
  "Aktivität": 4142, 
  "Regelung": 4143, 
  "betonen": 4144, 
  "Schuldenkrise": 4145, 
  "atomaren": 4146, 
  "Niederlande": 4147, 
  "G8": 4148, 
  "Zentralregierung": 4149, 
  "zwei@@": 4150, 
  "Dienst": 4151, 
  "höchstwahrscheinlich": 4152, 
  "ausgesprochen": 4153, 
  "geleistet": 4154, 
  "ursprünglichen": 4155, 
  "Reduktion": 4156, 
  "mangelt": 4157, 
  "Hinweis": 4158, 
  "Charles": 4159, 
  "umfassen": 4160, 
  "Glaube": 4161, 
  "Eigentumsrechte": 4162, 
  "bereitet": 4163, 
  "Gesundheitsfürsorge": 4164, 
  "festgestellt": 4165, 
  "geleitet": 4166, 
  "Parlaments": 4167, 
  "verspricht": 4168, 
  "Forum": 4169, 
  "begrenzte": 4170, 
  "sichtbar": 4171, 
  "wusste": 4172, 
  "verfügbar": 4173, 
  "Auseinandersetzungen": 4174, 
  "Gesundheitsversorgung": 4175, 
  "Industrie@@": 4176, 
  "Wiederbelebung": 4177, 
  "Intellektuelle": 4178, 
  "Irans": 4179, 
  "begrüßen": 4180, 
  "errichtet": 4181, 
  "Rezessionen": 4182, 
  "italienische": 4183, 
  "Gates": 4184, 
  "Menschenrechten": 4185, 
  "grundsätzlich": 4186, 
  "Schlag": 4187, 
  "tiger": 4188, 
  "Kurden": 4189, 
  "Vorsitzenden": 4190, 
  "Entstehung": 4191, 
  "festzustellen": 4192, 
  "Auseinandersetzung": 4193, 
  "befand": 4194, 
  "sucht": 4195, 
  "Vordergrund": 4196, 
  "erhoben": 4197, 
  "Senat": 4198, 
  "Generäle": 4199, 
  "Individuen": 4200, 
  "Berichterstattung": 4201, 
  "begrenzten": 4202, 
  "kurze": 4203, 
  "testen": 4204, 
  "Rating": 4205, 
  "Verhältnisse": 4206, 
  "probleme": 4207, 
  "effizient": 4208, 
  "Reichweite": 4209, 
  "vergleichen": 4210, 
  "sen@@": 4211, 
  "grüne": 4212, 
  "Image": 4213, 
  "Netanjahu": 4214, 
  "genetische": 4215, 
  "Nato": 4216, 
  "Bilder": 4217, 
  "Myanmar": 4218, 
  "landwirtschaftliche": 4219, 
  "Befreiung": 4220, 
  "siert": 4221, 
  "Kämpfe": 4222, 
  "verstärkte": 4223, 
  "Bilanz": 4224, 
  "Börse": 4225, 
  "reformieren": 4226, 
  "Behörde": 4227, 
  "nachzudenken": 4228, 
  "soweit": 4229, 
  "den@@": 4230, 
  "aten": 4231, 
  "Augenblick": 4232, 
  "Hauptgrund": 4233, 
  "fort": 4234, 
  "gelingen": 4235, 
  "Eigenschaften": 4236, 
  "erfolgte": 4237, 
  "betreffenden": 4238, 
  "begangen": 4239, 
  "Ermordung": 4240, 
  "u.a.": 4241, 
  "moderner": 4242, 
  "gemeinsamer": 4243, 
  "grundlegender": 4244, 
  "impliziert": 4245, 
  "obersten": 4246, 
  "friedlich": 4247, 
  "ablehnen": 4248, 
  "werten": 4249, 
  "fiskalische": 4250, 
  "benutzen": 4251, 
  "Tatsachen": 4252, 
  "Wählerschaft": 4253, 
  "negativ": 4254, 
  "ausgestattet": 4255, 
  "erholen": 4256, 
  "Afghanistans": 4257, 
  "Völkermord": 4258, 
  "Informations@@": 4259, 
  "versäumt": 4260, 
  "geplant": 4261, 
  "Errungenschaften": 4262, 
  "sp@@": 4263, 
  "anti": 4264, 
  "Serben": 4265, 
  "gewann": 4266, 
  "auszuüben": 4267, 
  "1@@": 4268, 
  "dauerhafte": 4269, 
  "Governance": 4270, 
  "li@@": 4271, 
  "Zahlungen": 4272, 
  "Abstimmung": 4273, 
  "erkannte": 4274, 
  "Spitzen@@": 4275, 
  "anzugehen": 4276, 
  "j@@": 4277, 
  "Situationen": 4278, 
  "erweist": 4279, 
  "Zeitung": 4280, 
  "Umfrage": 4281, 
  "übermäßig": 4282, 
  "Weltkriegs": 4283, 
  "teil": 4284, 
  "gedacht": 4285, 
  "kon@@": 4286, 
  "Massen": 4287, 
  "Budget": 4288, 
  "Kredit": 4289, 
  "krise": 4290, 
  "breiter": 4291, 
  "all@@": 4292, 
  "zivile": 4293, 
  "raschen": 4294, 
  "DPJ": 4295, 
  "geeignet": 4296, 
  "zunehmender": 4297, 
  "verschwunden": 4298, 
  "enge": 4299, 
  "geführten": 4300, 
  "jegliche": 4301, 
  "Resultat": 4302, 
  "Global": 4303, 
  "Massaker": 4304, 
  "и": 4305, 
  "humanitäre": 4306, 
  "ation": 4307, 
  "gestatten": 4308, 
  "umzugehen": 4309, 
  "McCain": 4310, 
  "Sozialisten": 4311, 
  "bestrebt": 4312, 
  "verbieten": 4313, 
  "Epidemie": 4314, 
  "Kernwaffen": 4315, 
  "sk@@": 4316, 
  "fällen": 4317, 
  "Ihnen": 4318, 
  "geistigen": 4319, 
  "Meinungen": 4320, 
  "wichtiges": 4321, 
  "getrieben": 4322, 
  "beschrieben": 4323, 
  "th@@": 4324, 
  "aufhören": 4325, 
  "beschäftigen": 4326, 
  "bares": 4327, 
  "beweisen": 4328, 
  "Kapitalflüsse": 4329, 
  "bisherigen": 4330, 
  "faire": 4331, 
  "loser": 4332, 
  "Verbündete": 4333, 
  "che": 4334, 
  "einführen": 4335, 
  "Gefangenen": 4336, 
  "Verlierer": 4337, 
  "herbeiführen": 4338, 
  "Abu": 4339, 
  "Leiter": 4340, 
  "Stalin": 4341, 
  "tische": 4342, 
  "tatsächlichen": 4343, 
  "Außenministerin": 4344, 
  "Wissenschaftlern": 4345, 
  "russischer": 4346, 
  "beibehalten": 4347, 
  "Gesetzen": 4348, 
  "Überraschung": 4349, 
  "massiv": 4350, 
  "Mitgliedsländern": 4351, 
  "berichten": 4352, 
  "Schock": 4353, 
  "Tschetschenien": 4354, 
  "fertig": 4355, 
  "Instanz": 4356, 
  "Gipfeltreffen": 4357, 
  "Rechtfertigung": 4358, 
  "Terroranschläge": 4359, 
  "Abgeordneten": 4360, 
  "externen": 4361, 
  "entwicklung": 4362, 
  "eingehen": 4363, 
  "lokaler": 4364, 
  "Gehälter": 4365, 
  "Massen@@": 4366, 
  "geschrieben": 4367, 
  "wissenschaftlicher": 4368, 
  "Lula": 4369, 
  "republikanischen": 4370, 
  "Herstellung": 4371, 
  "bedrohen": 4372, 
  "Kairo": 4373, 
  "Kalifornien": 4374, 
  "Ansprüche": 4375, 
  "beherrscht": 4376, 
  "lichem": 4377, 
  "folgten": 4378, 
  "einzelner": 4379, 
  "morgen": 4380, 
  "Michail": 4381, 
  "damaligen": 4382, 
  "Verantwortlichkeit": 4383, 
  "besuchen": 4384, 
  "eintritt": 4385, 
  "Ausbreitung": 4386, 
  "auszuweiten": 4387, 
  "fassen": 4388, 
  "Mobilität": 4389, 
  "Ben": 4390, 
  "sinkt": 4391, 
  "größeres": 4392, 
  "militärisch": 4393, 
  "Störungen": 4394, 
  "Teilung": 4395, 
  "Gegebenheiten": 4396, 
  "angeboten": 4397, 
  "Aufsichtsbehörden": 4398, 
  "nachhaltiges": 4399, 
  "menschlicher": 4400, 
  "Konsumenten": 4401, 
  "Friedens@@": 4402, 
  "erer": 4403, 
  "Verfassungs@@": 4404, 
  "preise": 4405, 
  "Nationalisten": 4406, 
  "Kunst": 4407, 
  "verbreiteten": 4408, 
  "Kontinents": 4409, 
  "brach": 4410, 
  "verankert": 4411, 
  "ro@@": 4412, 
  "Gazprom": 4413, 
  "Kreditaufnahme": 4414, 
  "orientierten": 4415, 
  "Gesetzgebung": 4416, 
  "Spitzenpolitiker": 4417, 
  "Menschenleben": 4418, 
  "Verhaftung": 4419, 
  "geäußert": 4420, 
  "Territorium": 4421, 
  "Christen": 4422, 
  "Weißen": 4423, 
  "jüngeren": 4424, 
  "unterliegen": 4425, 
  "liegende": 4426, 
  "Belege": 4427, 
  "polnischen": 4428, 
  "eins": 4429, 
  "Vorsitzende": 4430, 
  "vorhandenen": 4431, 
  "Notenbanken": 4432, 
  "gesunde": 4433, 
  "Euros": 4434, 
  "stolz": 4435, 
  "Warnung": 4436, 
  "Kämpfer": 4437, 
  "breit": 4438, 
  "WHO": 4439, 
  "jenseits": 4440, 
  "Währungspolitik": 4441, 
  "Billion": 4442, 
  "Zinssätzen": 4443, 
  "Werk": 4444, 
  "Tür": 4445, 
  "Auftrag": 4446, 
  "gegenseitigen": 4447, 
  "du": 4448, 
  "tatsächliche": 4449, 
  "ar": 4450, 
  "Direktor": 4451, 
  "einzudämmen": 4452, 
  "wachsender": 4453, 
  "Kurzem": 4454, 
  "ser@@": 4455, 
  "dramatische": 4456, 
  "nachdenken": 4457, 
  "Vermögenswerten": 4458, 
  "Eigenkapital": 4459, 
  "Index": 4460, 
  "Funktion": 4461, 
  "NGOs": 4462, 
  "ihrerseits": 4463, 
  "Agenturen": 4464, 
  "leihen": 4465, 
  "unzureichend": 4466, 
  "Ronald": 4467, 
  "durchgesetzt": 4468, 
  "Dritten": 4469, 
  "Theorien": 4470, 
  "World": 4471, 
  "markt@@": 4472, 
  "erschien": 4473, 
  "Zivilisation": 4474, 
  "verweisen": 4475, 
  "landwirtschaftlichen": 4476, 
  "sierten": 4477, 
  "gruppe": 4478, 
  "Forscher": 4479, 
  "Verbindlichkeiten": 4480, 
  "fest@@": 4481, 
  "Aktien@@": 4482, 
  "beeinträchtigen": 4483, 
  "Koordination": 4484, 
  "selben": 4485, 
  "West@@": 4486, 
  "exportieren": 4487, 
  "bedienen": 4488, 
  "persönlich": 4489, 
  "tete": 4490, 
  "fragte": 4491, 
  "Standard": 4492, 
  "mittleren": 4493, 
  "aufkommen": 4494, 
  "ales": 4495, 
  "widerspiegeln": 4496, 
  "bewegungen": 4497, 
  "aktuell": 4498, 
  "einnehmen": 4499, 
  "Durchführung": 4500, 
  "Gipfels": 4501, 
  "Spaltung": 4502, 
  "Richard": 4503, 
  "Störung": 4504, 
  "Lehman": 4505, 
  "": 4506, 
  "beträchtlichen": 4507, 
  "Einhaltung": 4508, 
  "schrittweise": 4509, 
  "2,5": 4510, 
  "Haushalten": 4511, 
  "Hitler": 4512, 
  "sowjetische": 4513, 
  "arabisch": 4514, 
  "dern": 4515, 
  "vergrößern": 4516, 
  "Annan": 4517, 
  "gesunden": 4518, 
  "Bagdad": 4519, 
  "messen": 4520, 
  "verschlimmern": 4521, 
  "gi@@": 4522, 
  "verfügbaren": 4523, 
  "überdenken": 4524, 
  "Lebensmittel": 4525, 
  "Dimension": 4526, 
  "spiegeln": 4527, 
  "Ereignissen": 4528, 
  "Einkommens@@": 4529, 
  "andernorts": 4530, 
  "gruppen": 4531, 
  "Phasen": 4532, 
  "hinterlassen": 4533, 
  "Tokio": 4534, 
  "Binnennachfrage": 4535, 
  "Summen": 4536, 
  "begriffen": 4537, 
  "anpassen": 4538, 
  "bestraft": 4539, 
  "unterzeichnet": 4540, 
  "riskieren": 4541, 
  "ü@@": 4542, 
  "Einigkeit": 4543, 
  "18@@": 4544, 
  "Versicherung": 4545, 
  "präsentiert": 4546, 
  "mechanismen": 4547, 
  "bedeutete": 4548, 
  "namens": 4549, 
  "vorstellbar": 4550, 
  "Sitze": 4551, 
  "externe": 4552, 
  "heraus@@": 4553, 
  "dachten": 4554, 
  "Übereinkommen": 4555, 
  "ations@@": 4556, 
  "Beendigung": 4557, 
  "ber@@": 4558, 
  "i": 4559, 
  "Nahrung": 4560, 
  "High": 4561, 
  "beträchtlich": 4562, 
  "Sahara": 4563, 
  "auseinander": 4564, 
  "Sp@@": 4565, 
  "entstand": 4566, 
  "zwölf": 4567, 
  "ts@@": 4568, 
  "vorübergehend": 4569, 
  "hergestellt": 4570, 
  "Bankrott": 4571, 
  "tung": 4572, 
  "Zugriff": 4573, 
  "genauer": 4574, 
  "Friedman": 4575, 
  "Ex": 4576, 
  "zwanzigsten": 4577, 
  "gte": 4578, 
  "bewegung": 4579, 
  "schwächer": 4580, 
  "Drohungen": 4581, 
  "genden": 4582, 
  "Madrid": 4583, 
  "Nationalen": 4584, 
  "jüngster": 4585, 
  "Gouverneur": 4586, 
  "Empfehlungen": 4587, 
  "Volks@@": 4588, 
  "erende": 4589, 
  "Charta": 4590, 
  "beruhte": 4591, 
  "Erinnerungen": 4592, 
  "sektor": 4593, 
  "lebenden": 4594, 
  "Abdullah": 4595, 
  "ationen": 4596, 
  "streng": 4597, 
  "denselben": 4598, 
  "IPCC": 4599, 
  "Übereinstimmung": 4600, 
  "Beachtung": 4601, 
  "UdSSR": 4602, 
  "entkommen": 4603, 
  "barkeit": 4604, 
  "Botschafter": 4605, 
  "Mitgliedstaaten": 4606, 
  "keines": 4607, 
  "befassen": 4608, 
  "Illusion": 4609, 
  "außergewöhnlich": 4610, 
  "Frustration": 4611, 
  "Rande": 4612, 
  "gemeinsames": 4613, 
  "Energieversorgung": 4614, 
  "westlicher": 4615, 
  "geschlagen": 4616, 
  "gung": 4617, 
  "beschleunigt": 4618, 
  "Erreichung": 4619, 
  "Schuldenlast": 4620, 
  "allgemeiner": 4621, 
  "abzuhalten": 4622, 
  "deutlicher": 4623, 
  "Professor": 4624, 
  "Wen": 4625, 
  "fähig": 4626, 
  "Anschläge": 4627, 
  "besuchte": 4628, 
  "Gesprächen": 4629, 
  "echter": 4630, 
  "Teilnehmer": 4631, 
  "Attraktivität": 4632, 
  "Merkmal": 4633, 
  "effizienter": 4634, 
  "verdoppelt": 4635, 
  "Vorsicht": 4636, 
  "belaufen": 4637, 
  "stammen": 4638, 
  "Rivalen": 4639, 
  "verbreiten": 4640, 
  "senden": 4641, 
  "enormer": 4642, 
  "Ziel@@": 4643, 
  "stammt": 4644, 
  "Anti@@": 4645, 
  "ek@@": 4646, 
  "Brothers": 4647, 
  "Interpretation": 4648, 
  "Analysten": 4649, 
  "Syriens": 4650, 
  "Küste": 4651, 
  "Kommentatoren": 4652, 
  "Rom": 4653, 
  "führender": 4654, 
  "ähnelt": 4655, 
  "it@@": 4656, 
  "Hilfsleistungen": 4657, 
  "Handels-": 4658, 
  "wussten": 4659, 
  "ungewöhnlich": 4660, 
  "Tisch": 4661, 
  "ens@@": 4662, 
  "400": 4663, 
  "besonderen": 4664, 
  "individuelle": 4665, 
  "Differenzen": 4666, 
  "weite": 4667, 
  "strukturen": 4668, 
  "vorigen": 4669, 
  "Konsolidierung": 4670, 
  "Kreditnehmer": 4671, 
  "untereinander": 4672, 
  "nützlich": 4673, 
  "dramatischen": 4674, 
  "eigener": 4675, 
  "Sackgasse": 4676, 
  "anzubieten": 4677, 
  "spanischen": 4678, 
  "Netzwerke": 4679, 
  "regeln": 4680, 
  "hervorgebracht": 4681, 
  "verschlimmert": 4682, 
  "Sicherheitskräfte": 4683, 
  "Übertragung": 4684, 
  "unver@@": 4685, 
  "erreichten": 4686, 
  "Lebenserwartung": 4687, 
  "hinnehmen": 4688, 
  "geb@@": 4689, 
  "ker": 4690, 
  "Partnerschaften": 4691, 
  "Beiträge": 4692, 
  "willkommen": 4693, 
  "1973": 4694, 
  "ausgehenden": 4695, 
  "Hinweise": 4696, 
  "6@@": 4697, 
  "Anstrengung": 4698, 
  "Nobelpreisträger": 4699, 
  "berichtet": 4700, 
  "birgt": 4701, 
  "bedingte": 4702, 
  "genetischen": 4703, 
  "bedingten": 4704, 
  "relative": 4705, 
  "ideologischen": 4706, 
  "erfolgt": 4707, 
  "Muslimen": 4708, 
  "kostet": 4709, 
  "Zins@@": 4710, 
  "Golf": 4711, 
  "EFSF": 4712, 
  "gesprochen": 4713, 
  "längst": 4714, 
  "Jungen": 4715, 
  "decken": 4716, 
  "Skepsis": 4717, 
  "Unzufriedenheit": 4718, 
  "Fundament": 4719, 
  "Effektivität": 4720, 
  "Bundes@@": 4721, 
  "bestanden": 4722, 
  "Wiedervereinigung": 4723, 
  "Gestaltung": 4724, 
  "alleine": 4725, 
  "tiert": 4726, 
  "Tuberkulose": 4727, 
  "Regierungsvertreter": 4728, 
  "Kenia": 4729, 
  "autoritäre": 4730, 
  "überwachen": 4731, 
  "Vermeidung": 4732, 
  "Regulierungs@@": 4733, 
  "Schwellenmärkte": 4734, 
  "systemen": 4735, 
  "wünschenswert": 4736, 
  "bewiesen": 4737, 
  "Erkrankungen": 4738, 
  "Financial": 4739, 
  "Mahmud": 4740, 
  "ausdrücklich": 4741, 
  "Fehl@@": 4742, 
  "angegriffen": 4743, 
  "einschränken": 4744, 
  "Köpfe": 4745, 
  "Ausgleich": 4746, 
  "angekündigt": 4747, 
  "beraten": 4748, 
  "stetig": 4749, 
  "us": 4750, 
  "5@@": 4751, 
  "entfallen": 4752, 
  "unterstreicht": 4753, 
  "Streit": 4754, 
  "nicht@@": 4755, 
  "Times": 4756, 
  "weigern": 4757, 
  "wohl@@": 4758, 
  "alismus": 4759, 
  "op@@": 4760, 
  "vertrauen": 4761, 
  "Iraner": 4762, 
  "ausgeweitet": 4763, 
  "mexikanischen": 4764, 
  "Handlungen": 4765, 
  "umfangreiche": 4766, 
  "mi@@": 4767, 
  "außenpolitischen": 4768, 
  "Familien@@": 4769, 
  "Belgien": 4770, 
  "Philosophie": 4771, 
  "Erneuerung": 4772, 
  "ägyptische": 4773, 
  "vertraut": 4774, 
  "vernünftigen": 4775, 
  "Bar@@": 4776, 
  "Chicago": 4777, 
  "Nahrungsmittel@@": 4778, 
  "Oligarchen": 4779, 
  "Ausnahmen": 4780, 
  "Vollbeschäftigung": 4781, 
  "hindern": 4782, 
  "unverzichtbar": 4783, 
  "ra@@": 4784, 
  "Partnern": 4785, 
  "engagieren": 4786, 
  "gestaltet": 4787, 
  "Operation": 4788, 
  "ss@@": 4789, 
  "entziehen": 4790, 
  "organisierten": 4791, 
  "Formulierung": 4792, 
  "durchführen": 4793, 
  "wider@@": 4794, 
  "Spieler": 4795, 
  "beeinträchtigt": 4796, 
  "Zugeständnisse": 4797, 
  "versteht": 4798, 
  "Anbetracht": 4799, 
  "Aktion": 4800, 
  "Vorsitzender": 4801, 
  "Bücher": 4802, 
  "fehlen": 4803, 
  "Aussagen": 4804, 
  "Weißrussland": 4805, 
  "strategischer": 4806, 
  "versetzen": 4807, 
  "в": 4808, 
  "anhalten": 4809, 
  "zen": 4810, 
  "vermögen": 4811, 
  "beherrschen": 4812, 
  "verbesserten": 4813, 
  "größter": 4814, 
  "Rates": 4815, 
  "Dissidenten": 4816, 
  "Mikro@@": 4817, 
  "Gewinner": 4818, 
  "Staatsführung": 4819, 
  "dauerhaften": 4820, 
  "fossilen": 4821, 
  "realistische": 4822, 
  "christlichen": 4823, 
  "ismus": 4824, 
  "Feuer": 4825, 
  "verlagert": 4826, 
  "herstellen": 4827, 
  "Wendepunkt": 4828, 
  "Rohstoff@@": 4829, 
  "gewöhnlich": 4830, 
  "Kapitalmärkte": 4831, 
  "strenge": 4832, 
  "Immobilien@@": 4833, 
  "unbe@@": 4834, 
  "säkularen": 4835, 
  "löste": 4836, 
  "zugenommen": 4837, 
  "verletzt": 4838, 
  "Not@@": 4839, 
  "beschreiben": 4840, 
  "letztes": 4841, 
  "gerufen": 4842, 
  "mithilfe": 4843, 
  "Führern": 4844, 
  "benötigten": 4845, 
  "sunnitischen": 4846, 
  "2.": 4847, 
  "annähernd": 4848, 
  "Saudis": 4849, 
  "us@@": 4850, 
  "mancher": 4851, 
  "Annahmen": 4852, 
  "ur": 4853, 
  "Befugnisse": 4854, 
  "Google": 4855, 
  "Vereinigung": 4856, 
  "Gegenwart": 4857, 
  "Ausländer": 4858, 
  "Spar@@": 4859, 
  "as@@": 4860, 
  "mobilisieren": 4861, 
  "Vertrauens": 4862, 
  "Berkeley": 4863, 
  "Konzerne": 4864, 
  "PLO": 4865, 
  "Industrien": 4866, 
  "willens": 4867, 
  "gewisses": 4868, 
  "vorherrschende": 4869, 
  "Aussöhnung": 4870, 
  "kritischen": 4871, 
  "kollektiven": 4872, 
  "Abkommens": 4873, 
  "engen": 4874, 
  "Verhinderung": 4875, 
  "Absicherung": 4876, 
  "etabliert": 4877, 
  "gleicher": 4878, 
  "bel@@": 4879, 
  "innenpolitischen": 4880, 
  "Gehirn": 4881, 
  "Koordinierung": 4882, 
  "Stück": 4883, 
  "einheitlichen": 4884, 
  "Aktienmarkt": 4885, 
  "blockieren": 4886, 
  "Häfen": 4887, 
  "Akteur": 4888, 
  "cht": 4889, 
  "65": 4890, 
  "Computer@@": 4891, 
  "erfasst": 4892, 
  "schätzt": 4893, 
  "respektieren": 4894, 
  "motiviert": 4895, 
  "Wechselkurses": 4896, 
  "Qu@@": 4897, 
  "Kriegen": 4898, 
  "empfinden": 4899, 
  "legten": 4900, 
  "verurteilen": 4901, 
  "basiert": 4902, 
  "Es": 4903, 
  "drängt": 4904, 
  "San": 4905, 
  "tausende": 4906, 
  "Herkunft": 4907, 
  "Informationstechnologie": 4908, 
  "zahlungen": 4909, 
  "Produktivitätswachstum": 4910, 
  "Bevölkerungs@@": 4911, 
  "Wohlergehen": 4912, 
  "Ein": 4913, 
  "LDP": 4914, 
  "Element": 4915, 
  "sorgfältig": 4916, 
  "Triumph": 4917, 
  "U": 4918, 
  "aufgefordert": 4919, 
  "verabschieden": 4920, 
  "Ruanda": 4921, 
  "Taktik": 4922, 
  "Zufall": 4923, 
  "Ebenen": 4924, 
  "gestürzt": 4925, 
  "pakistanische": 4926, 
  "Sharon": 4927, 
  "Beteiligten": 4928, 
  "forderten": 4929, 
  "Zusammenhalt": 4930, 
  "Mexikos": 4931, 
  "weiche": 4932, 
  "komplexer": 4933, 
  "hervorrufen": 4934, 
  "steuer": 4935, 
  "Angriffen": 4936, 
  "terroristische": 4937, 
  "Gore": 4938, 
  "Fuß": 4939, 
  "Masse": 4940, 
  "nächstes": 4941, 
  "Garantien": 4942, 
  "gewährt": 4943, 
  "ärmeren": 4944, 
  "integrieren": 4945, 
  "Kongo": 4946, 
  "besagt": 4947, 
  "äußerte": 4948, 
  "bemerkenswerte": 4949, 
  "Nachbarschaft": 4950, 
  "inter@@": 4951, 
  "Streitigkeiten": 4952, 
  "erklärten": 4953, 
  "1950er": 4954, 
  "Programmen": 4955, 
  "Planung": 4956, 
  "abhängt": 4957, 
  "organisieren": 4958, 
  "konkurrieren": 4959, 
  "bedeutsam": 4960, 
  "schuldig": 4961, 
  "verlangsamt": 4962, 
  "Posten": 4963, 
  "teilnehmen": 4964, 
  "Plans": 4965, 
  "erwarteten": 4966, 
  "eingerichtet": 4967, 
  "Ankurbelung": 4968, 
  "eingetreten": 4969, 
  "Waffenstillstand": 4970, 
  "Microsoft": 4971, 
  "zustimmen": 4972, 
  "Ganzen": 4973, 
  "orientierte": 4974, 
  "häufiger": 4975, 
  "Konsum@@": 4976, 
  "hochgradig": 4977, 
  "Physik": 4978, 
  "intellektuellen": 4979, 
  "irgendetwas": 4980, 
  "losigkeit": 4981, 
  "Transaktionen": 4982, 
  "Einzel@@": 4983, 
  "19": 4984, 
  "23": 4985, 
  "sierung": 4986, 
  "Freund": 4987, 
  "polnische": 4988, 
  "Alan": 4989, 
  "angehören": 4990, 
  "Vertretern": 4991, 
  "Fußball": 4992, 
  "dreißig": 4993, 
  "strategisch": 4994, 
  "Material": 4995, 
  "reagierte": 4996, 
  "Im": 4997, 
  "syrische": 4998, 
  "Menschenrechts@@": 4999, 
  "dachte": 5000, 
  "Verfall": 5001, 
  "Intellektuellen": 5002, 
  "drei@@": 5003, 
  "radikal": 5004, 
  "Zusammenbruchs": 5005, 
  "plant": 5006, 
  "organisierte": 5007, 
  "Schwankungen": 5008, 
  "te@@": 5009, 
  "Funktionäre": 5010, 
  "belastet": 5011, 
  "Gesetzes@@": 5012, 
  "finanzierten": 5013, 
  "Stunde": 5014, 
  "skeptisch": 5015, 
  "me": 5016, 
  "Augenmerk": 5017, 
  "offensichtliche": 5018, 
  "Labour": 5019, 
  "Steuerung": 5020, 
  "indirekt": 5021, 
  "Ersatz": 5022, 
  "schenken": 5023, 
  "ko@@": 5024, 
  "schätzen": 5025, 
  "kontrollierten": 5026, 
  "Konvention": 5027, 
  "Polizei@@": 5028, 
  "Besteuerung": 5029, 
  "benötigte": 5030, 
  "Versicherungen": 5031, 
  "zogen": 5032, 
  "verfolgte": 5033, 
  "Berliner": 5034, 
  "links": 5035, 
  "tig": 5036, 
  "Provinzen": 5037, 
  "7@@": 5038, 
  "Neigung": 5039, 
  "speziellen": 5040, 
  "modell": 5041, 
  "Ganze": 5042, 
  "Begeisterung": 5043, 
  "Führungskräfte": 5044, 
  "Auswahl": 5045, 
  "Beschäftigten": 5046, 
  "ankurbeln": 5047, 
  "verlangsamen": 5048, 
  "wiederholen": 5049, 
  "erwerben": 5050, 
  "Nachrichten@@": 5051, 
  "östlichen": 5052, 
  "Haushaltskonsolidierung": 5053, 
  "Hillary": 5054, 
  "Leitung": 5055, 
  "einheitliche": 5056, 
  "schließt": 5057, 
  "Atomprogramm": 5058, 
  "revolutionären": 5059, 
  "II": 5060, 
  "Diktator": 5061, 
  "Ölpreis": 5062, 
  "erstaunlich": 5063, 
  "effiziente": 5064, 
  "Inflations@@": 5065, 
  "angepasst": 5066, 
  "DC": 5067, 
  "globalisierten": 5068, 
  "angewandt": 5069, 
  "gekennzeichnet": 5070, 
  "erfolgreicher": 5071, 
  "Pflanzen": 5072, 
  "verschieben": 5073, 
  "konventionellen": 5074, 
  "ges@@": 5075, 
  "trugen": 5076, 
  "Menschenrechtsverletzungen": 5077, 
  "Serbiens": 5078, 
  "sogenannten": 5079, 
  "überlegen": 5080, 
  "Gruppierungen": 5081, 
  "chten": 5082, 
  "populistischen": 5083, 
  "Angaben": 5084, 
  "widerstehen": 5085, 
  "Betrag": 5086, 
  "Wille": 5087, 
  "James": 5088, 
  "korrupten": 5089, 
  "Lehrer": 5090, 
  "struktur": 5091, 
  "Olympischen": 5092, 
  "südlich": 5093, 
  "Effekte": 5094, 
  "Vertrages": 5095, 
  "bewaffnete": 5096, 
  "bi@@": 5097, 
  "Zypern": 5098, 
  "Einzelpersonen": 5099, 
  "verheerenden": 5100, 
  "ot@@": 5101, 
  "erungen": 5102, 
  "Legitimation": 5103, 
  "El": 5104, 
  "Finanzstabilität": 5105, 
  "80er": 5106, 
  "integriert": 5107, 
  "hofft": 5108, 
  "Premierministers": 5109, 
  "insofern": 5110, 
  "Auslandsschulden": 5111, 
  "Ironie": 5112, 
  "ster@@": 5113, 
  "ische": 5114, 
  "Renten@@": 5115, 
  "Präsidentschaftswahl": 5116, 
  "wohin": 5117, 
  "Ghana": 5118, 
  "Schlagzeilen": 5119, 
  "Betrug": 5120, 
  "ne": 5121, 
  "damalige": 5122, 
  "beziehen": 5123, 
  "Kriegsverbrechen": 5124, 
  "komplex": 5125, 
  "momentanen": 5126, 
  "verknüpft": 5127, 
  "Gremium": 5128, 
  "mitten": 5129, 
  "überwacht": 5130, 
  "schieben": 5131, 
  "drastische": 5132, 
  "ständige": 5133, 
  "verkörpert": 5134, 
  "meines": 5135, 
  "Hersteller": 5136, 
  "erweiterten": 5137, 
  "gelangt": 5138, 
  "Geberländer": 5139, 
  "Erdgas": 5140, 
  "Aufklärung": 5141, 
  "Frei@@": 5142, 
  "U@@": 5143, 
  "Anschluss": 5144, 
  "Ersparnissen": 5145, 
  "Handelsdefizit": 5146, 
  "beschädigt": 5147, 
  "unlängst": 5148, 
  "fehlende": 5149, 
  "b": 5150, 
  "fall": 5151, 
  "gende": 5152, 
  "gefällt": 5153, 
  "überraschen": 5154, 
  "Georgiens": 5155, 
  "Einbeziehung": 5156, 
  "politischem": 5157, 
  "Blasen": 5158, 
  "postkommunistischen": 5159, 
  "bekämpft": 5160, 
  "wei@@": 5161, 
  "korrupte": 5162, 
  "Gelegenheiten": 5163, 
  "gemäßigten": 5164, 
  "Agrar@@": 5165, 
  "Auflösung": 5166, 
  "Verlagerung": 5167, 
  "Populismus": 5168, 
  "aufstrebende": 5169, 
  "100.000": 5170, 
  "tätigen": 5171, 
  "überein": 5172, 
  "Evolution": 5173, 
  "Untätigkeit": 5174, 
  "kurzen": 5175, 
  "erneuerbare": 5176, 
  "Kon@@": 5177, 
  "Moslems": 5178, 
  "Maos": 5179, 
  "Zeit@@": 5180, 
  "Hunderte": 5181, 
  "einsetzt": 5182, 
  "rücken": 5183, 
  "Umgebung": 5184, 
  "Janukowitsch": 5185, 
  "verleiht": 5186, 
  "effektiven": 5187, 
  "spanische": 5188, 
  "gerät": 5189, 
  "führer": 5190, 
  "Abwesenheit": 5191, 
  "Ungleichheiten": 5192, 
  "erschüttert": 5193, 
  "Friedensabkommen": 5194, 
  "Risiko@@": 5195, 
  "vermittelt": 5196, 
  "erstes": 5197, 
  "Versammlung": 5198, 
  "tions@@": 5199, 
  "Dutzend": 5200, 
  "Überschüsse": 5201, 
  "Verletzung": 5202, 
  "Hypotheken@@": 5203, 
  "beschränkungen": 5204, 
  "Terror@@": 5205, 
  "Straf@@": 5206, 
  "bedürfen": 5207, 
  "Stammes@@": 5208, 
  "Polizisten": 5209, 
  "berühmten": 5210, 
  "Renten": 5211, 
  "erschienen": 5212, 
  "Maßstab": 5213, 
  "gerichtet": 5214, 
  "mitteln": 5215, 
  "fair": 5216, 
  "innere": 5217, 
  "fonds": 5218, 
  "Einbruch": 5219, 
  "einhergehen": 5220, 
  "zunichte": 5221, 
  "offener": 5222, 
  "weise": 5223, 
  "klarer": 5224, 
  "längere": 5225, 
  "stattgefunden": 5226, 
  "eh@@": 5227, 
  "ethischen": 5228, 
  "programmen": 5229, 
  "geopolitischen": 5230, 
  "ländern": 5231, 
  "tenden": 5232, 
  "bestimmter": 5233, 
  "festzulegen": 5234, 
  "Wirtschaftsentwicklung": 5235, 
  "rat": 5236, 
  "klingt": 5237, 
  "zurückzukehren": 5238, 
  "langsamer": 5239, 
  "Abkehr": 5240, 
  "Vertrags@@": 5241, 
  "Freihandelsabkommen": 5242, 
  "Versprechungen": 5243, 
  "Ankündigung": 5244, 
  "Bewohner": 5245, 
  "lei@@": 5246, 
  "Kategorie": 5247, 
  "Europäern": 5248, 
  "Papst": 5249, 
  "Zone": 5250, 
  "vereint": 5251, 
  "Verwaltungs@@": 5252, 
  "Weltordnung": 5253, 
  "Diktatoren": 5254, 
  "gs": 5255, 
  "offensichtlichen": 5256, 
  "stischen": 5257, 
  "Waffe": 5258, 
  "Zahlungsunfähigkeit": 5259, 
  "tionen": 5260, 
  "Botschaften": 5261, 
  "unterdrücken": 5262, 
  "klingen": 5263, 
  "gewöhnlichen": 5264, 
  "gegenseitige": 5265, 
  "Betonung": 5266, 
  "Chamenei": 5267, 
  "Husseins": 5268, 
  "ausgeglichen": 5269, 
  "Gorbatschow": 5270, 
  "erforderliche": 5271, 
  "transatlantischen": 5272, 
  "Teufelskreis": 5273, 
  "niemanden": 5274, 
  "Kreis": 5275, 
  "Energiesicherheit": 5276, 
  "reisen": 5277, 
  "Präsidentenwahlen": 5278, 
  "islamistische": 5279, 
  "Terroranschlägen": 5280, 
  "u": 5281, 
  "eigentliche": 5282, 
  "Fußball@@": 5283, 
  "or": 5284, 
  "konzipiert": 5285, 
  "bewertet": 5286, 
  "grünen": 5287, 
  "Di@@": 5288, 
  "lage": 5289, 
  "Geburt": 5290, 
  "tausend": 5291, 
  "elte": 5292, 
  "gescheiterten": 5293, 
  "Rücken": 5294, 
  "Gen@@": 5295, 
  "Verhaltens": 5296, 
  "allesamt": 5297, 
  "isoliert": 5298, 
  "Somalia": 5299, 
  "illegale": 5300, 
  "о@@": 5301, 
  "Statistiken": 5302, 
  "älteren": 5303, 
  "Reden": 5304, 
  "Gleichberechtigung": 5305, 
  "jährige": 5306, 
  "verliehen": 5307, 
  "festen": 5308, 
  "Karriere": 5309, 
  "Aufsichts@@": 5310, 
  "humanitären": 5311, 
  "Staatsfonds": 5312, 
  "richtet": 5313, 
  "hei@@": 5314, 
  "Berücksichtigung": 5315, 
  "Exporten": 5316, 
  "vorgeschlagenen": 5317, 
  "alität": 5318, 
  "Rendite": 5319, 
  "vieles": 5320, 
  "Algerien": 5321, 
  "ag@@": 5322, 
  "Rechenschaft": 5323, 
  "у@@": 5324, 
  "Null": 5325, 
  "laufenden": 5326, 
  "gestützt": 5327, 
  "aufeinander": 5328, 
  "Einheiten": 5329, 
  "Vermögens@@": 5330, 
  "höheres": 5331, 
  "Arbeiten": 5332, 
  "essen": 5333, 
  "gänzlich": 5334, 
  "märkte": 5335, 
  "Osama": 5336, 
  "Marokko": 5337, 
  "meist": 5338, 
  "Überzeugungen": 5339, 
  "unsicher": 5340, 
  "Militärausgaben": 5341, 
  "städtischen": 5342, 
  "Zensur": 5343, 
  "tierte": 5344, 
  "vereinen": 5345, 
  "weitaus": 5346, 
  "Gleichgültigkeit": 5347, 
  "Zwang": 5348, 
  "sprachen": 5349, 
  "befürworten": 5350, 
  "tiges": 5351, 
  "Prognose": 5352, 
  "Todesstrafe": 5353, 
  "kontraproduktiv": 5354, 
  "Flucht": 5355, 
  "Saddams": 5356, 
  "Produkten": 5357, 
  "kl@@": 5358, 
  "Volatilität": 5359, 
  "Schwellenmärkten": 5360, 
  "Rechenschaftspflicht": 5361, 
  "Loyalität": 5362, 
  "Mythos": 5363, 
  "Cent": 5364, 
  "Lektionen": 5365, 
  "organisationen": 5366, 
  "Dominanz": 5367, 
  "ökologischen": 5368, 
  "Rei@@": 5369, 
  "Erwartung": 5370, 
  "Halbinsel": 5371, 
  "schauen": 5372, 
  "Personal": 5373, 
  "aggressive": 5374, 
  "Monopol": 5375, 
  "frei@@": 5376, 
  "Norwegen": 5377, 
  "strebt": 5378, 
  "theit": 5379, 
  "Kürzungen": 5380, 
  "ze": 5381, 
  "zugegeben": 5382, 
  "geln": 5383, 
  "jemanden": 5384, 
  "Süd@@": 5385, 
  "Schach": 5386, 
  "eindeutige": 5387, 
  "ds": 5388, 
  "Rahmenwerk": 5389, 
  "Pleite": 5390, 
  "FARC": 5391, 
  "Feindseligkeit": 5392, 
  "Religionen": 5393, 
  "paradoxerweise": 5394, 
  "Maastricht": 5395, 
  "exportiert": 5396, 
  "abgeben": 5397, 
  "Krieg@@": 5398, 
  "liefert": 5399, 
  "niveau": 5400, 
  "überwunden": 5401, 
  "schief": 5402, 
  "ethnischer": 5403, 
  "schrumpfen": 5404, 
  "Prozentsatz": 5405, 
  "Signal": 5406, 
  "Bestimmung": 5407, 
  "irgendwo": 5408, 
  "е": 5409, 
  "ferner": 5410, 
  "verdoppeln": 5411, 
  "Sieger": 5412, 
  "erlebte": 5413, 
  "unge@@": 5414, 
  "täglichen": 5415, 
  "Verhandlungs@@": 5416, 
  "Fortschritts": 5417, 
  "lebten": 5418, 
  "verlagern": 5419, 
  "Verschiebung": 5420, 
  "Nordamerika": 5421, 
  "tion": 5422, 
  "Kreditkosten": 5423, 
  "beschreibt": 5424, 
  "Chen": 5425, 
  "endete": 5426, 
  "City": 5427, 
  "gefährlicher": 5428, 
  "sagten": 5429, 
  "übrige": 5430, 
  "Kohlendioxid": 5431, 
  "ben@@": 5432, 
  "Ihre": 5433, 
  "einzustellen": 5434, 
  "Thatcher": 5435, 
  "praktischen": 5436, 
  "zustande": 5437, 
  "fragt": 5438, 
  "verteilen": 5439, 
  "fünfzig": 5440, 
  "angetrieben": 5441, 
  "Thaksin": 5442, 
  "ausgleichen": 5443, 
  "Nixon": 5444, 
  "zahlt": 5445, 
  "Verschlechterung": 5446, 
  "Oberhand": 5447, 
  "arbeit": 5448, 
  "Vorsitz": 5449, 
  "Erreichen": 5450, 
  "fiskalischen": 5451, 
  "übersteigen": 5452, 
  "nützen": 5453, 
  "kritische": 5454, 
  "Rohstoffe": 5455, 
  "daraufhin": 5456, 
  "belegt": 5457, 
  "Papiere": 5458, 
  "heit": 5459, 
  "gewalttätigen": 5460, 
  "Krankenhäuser": 5461, 
  "muß": 5462, 
  "Kremls": 5463, 
  "gesorgt": 5464, 
  "Vizepräsident": 5465, 
  "ausgeübt": 5466, 
  "verbindet": 5467, 
  "Einsicht": 5468, 
  "Mark@@": 5469, 
  "fälle": 5470, 
  "Polens": 5471, 
  "Büro": 5472, 
  "angestiegen": 5473, 
  "C": 5474, 
  "außergewöhnliche": 5475, 
  "Käufer": 5476, 
  "Persönlichkeiten": 5477, 
  "Kapazität": 5478, 
  "verb@@": 5479, 
  "Börsen@@": 5480, 
  "herrschen": 5481, 
  "einflussreiche": 5482, 
  "offizieller": 5483, 
  "ausreichende": 5484, 
  "Fluss": 5485, 
  "prozesses": 5486, 
  "erleiden": 5487, 
  "Wohlstands": 5488, 
  "kompliziert": 5489, 
  "Gaulle": 5490, 
  "Nazis": 5491, 
  "leistungen": 5492, 
  "Exil": 5493, 
  "starben": 5494, 
  "Akt": 5495, 
  "Jahrhunderten": 5496, 
  "herrschende": 5497, 
  "Afrikaner": 5498, 
  "sti@@": 5499, 
  "Sicherung": 5500, 
  "nde": 5501, 
  "außenpolitische": 5502, 
  "meistens": 5503, 
  "besch@@": 5504, 
  "Akzeptanz": 5505, 
  "Verlangsamung": 5506, 
  "Hongkongs": 5507, 
  "preisen": 5508, 
  "zwingt": 5509, 
  "theoretisch": 5510, 
  "gem": 5511, 
  "Roten": 5512, 
  "Historiker": 5513, 
  "basis": 5514, 
  "Center": 5515, 
  "künftige": 5516, 
  "onen": 5517, 
  "21": 5518, 
  "geringem": 5519, 
  "Aufständischen": 5520, 
  "Sturm": 5521, 
  "grenzen": 5522, 
  "absolute": 5523, 
  "linken": 5524, 
  "Ch@@": 5525, 
  "Analysen": 5526, 
  "blicken": 5527, 
  "Nicht@@": 5528, 
  "ons": 5529, 
  "herum@@": 5530, 
  "innovative": 5531, 
  "Anwälte": 5532, 
  "treibt": 5533, 
  "istischen": 5534, 
  "zufällig": 5535, 
  "billigen": 5536, 
  "Experiment": 5537, 
  "wendet": 5538, 
  "Bundesregierung": 5539, 
  "Straßen@@": 5540, 
  "Fokus": 5541, 
  "plus": 5542, 
  "Errichtung": 5543, 
  "möglichst": 5544, 
  "wesen": 5545, 
  "Kaufkraft": 5546, 
  "aktiven": 5547, 
  "außerordentlich": 5548, 
  "ukrainischen": 5549, 
  "verbundene": 5550, 
  "veranlasst": 5551, 
  "hervorbringen": 5552, 
  "Freunden": 5553, 
  "Teil@@": 5554, 
  "Einhalt": 5555, 
  "Mubaraks": 5556, 
  "reine": 5557, 
  "Szenarien": 5558, 
  "behörde": 5559, 
  "präsentieren": 5560, 
  "Präsidentschaftskandidaten": 5561, 
  "1982": 5562, 
  "Fach@@": 5563, 
  "vertritt": 5564, 
  "geldpolitischen": 5565, 
  "lehnen": 5566, 
  "systematisch": 5567, 
  "Ausgabe": 5568, 
  "28": 5569, 
  "geführte": 5570, 
  "dete": 5571, 
  "Reservewährung": 5572, 
  "tungen": 5573, 
  "löst": 5574, 
  "els": 5575, 
  "Chefs": 5576, 
  "Überlegenheit": 5577, 
  "Versäumnis": 5578, 
  "planen": 5579, 
  "Il": 5580, 
  "Kaukasus": 5581, 
  "extremer": 5582, 
  "Lücke": 5583, 
  "Umweltschutz": 5584, 
  "Visionen": 5585, 
  "welt@@": 5586, 
  "Ärmsten": 5587, 
  "regierenden": 5588, 
  "Emotionen": 5589, 
  "Nahost": 5590, 
  "Frühjahr": 5591, 
  "Kontakt": 5592, 
  "kürzen": 5593, 
  "holen": 5594, 
  "Kapitalzuflüsse": 5595, 
  "angemessenen": 5596, 
  "Stolz": 5597, 
  "vertiefen": 5598, 
  "Fortsetzung": 5599, 
  "einheimischen": 5600, 
  "Akteuren": 5601, 
  "schwarzen": 5602, 
  "ermordet": 5603, 
  "Kontroll@@": 5604, 
  "Acht": 5605, 
  "gerechnet": 5606, 
  "wirksamer": 5607, 
  "Ost": 5608, 
  "besetzt": 5609, 
  "Vertrags": 5610, 
  "Zurückhaltung": 5611, 
  "mechanismus": 5612, 
  "Cameron": 5613, 
  "�": 5614, 
  "Begründung": 5615, 
  "gewarnt": 5616, 
  "punkt": 5617, 
  "rei@@": 5618, 
  "brutalen": 5619, 
  "Bruch": 5620, 
  "Auftrieb": 5621, 
  "Klein@@": 5622, 
  "Vorwürfe": 5623, 
  "fern": 5624, 
  "Bürgermeister": 5625, 
  "vereinbar": 5626, 
  "Weltwirtschaftskrise": 5627, 
  "Gandhi": 5628, 
  "prä@@": 5629, 
  "beschloss": 5630, 
  "umgehend": 5631, 
  "resultierende": 5632, 
  "Kapitals": 5633, 
  "perfekt": 5634, 
  "beseitigt": 5635, 
  "teurer": 5636, 
  "Mängel": 5637, 
  "Kinder@@": 5638, 
  "nieder@@": 5639, 
  "qualifizierte": 5640, 
  "Auslandshilfe": 5641, 
  "Schüler": 5642, 
  "herauszufinden": 5643, 
  "einziges": 5644, 
  "Ausmaßes": 5645, 
  "hervorgerufen": 5646, 
  "bedeutender": 5647, 
  "Ban": 5648, 
  "kennt": 5649, 
  "vorübergehende": 5650, 
  "Virus": 5651, 
  "Unterstützer": 5652, 
  "Strafe": 5653, 
  "schießen": 5654, 
  "tisch": 5655, 
  "Äthiopien": 5656, 
  "Wirtschaftsnationen": 5657, 
  "stärkste": 5658, 
  "identifizieren": 5659, 
  "wer@@": 5660, 
  "vorgesehen": 5661, 
  "form": 5662, 
  "überprüfen": 5663, 
  "tischer": 5664, 
  "geschäft": 5665, 
  "Bevölkerungswachstum": 5666, 
  "Stress": 5667, 
  "legitime": 5668, 
  "aufzuhalten": 5669, 
  "bescheidene": 5670, 
  "niedrigem": 5671, 
  "EWU": 5672, 
  "parlamentarische": 5673, 
  "versagt": 5674, 
  "Entwurf": 5675, 
  "überlebt": 5676, 
  "S": 5677, 
  "erleichtert": 5678, 
  "Wert@@": 5679, 
  "Hedgefonds": 5680, 
  "Auto": 5681, 
  "trafen": 5682, 
  "Grundsätze": 5683, 
  "Fabriken": 5684, 
  "Abstand": 5685, 
  "eres": 5686, 
  "4.": 5687, 
  "funktionierenden": 5688, 
  "Spiel@@": 5689, 
  "Multilateralismus": 5690, 
  "fließt": 5691, 
  "1981": 5692, 
  "nötige": 5693, 
  "voll@@": 5694, 
  "Schwierigkeit": 5695, 
  "weigerte": 5696, 
  "entdeckt": 5697, 
  "erkannten": 5698, 
  "Eigentümer": 5699, 
  "billig": 5700, 
  "rascher": 5701, 
  "tot": 5702, 
  "überzeugend": 5703, 
  "moralischer": 5704, 
  "v@@": 5705, 
  "sierte": 5706, 
  "Menschlichkeit": 5707, 
  "rechts@@": 5708, 
  "funktionierende": 5709, 
  "wiesen": 5710, 
  "Kontakte": 5711, 
  "De@@": 5712, 
  "Impulse": 5713, 
  "ewig": 5714, 
  "Ansatzes": 5715, 
  "Fundamentalismus": 5716, 
  "Wälder": 5717, 
  "Probe": 5718, 
  "Geschäftsleute": 5719, 
  "bevorzugen": 5720, 
  "Außen-": 5721, 
  "Immigranten": 5722, 
  "ed@@": 5723, 
  "Gordon": 5724, 
  "Verfügbarkeit": 5725, 
  "half": 5726, 
  "Verzweiflung": 5727, 
  "außergewöhnlichen": 5728, 
  "gesetzlichen": 5729, 
  "Versicherungs@@": 5730, 
  "verwickelt": 5731, 
  "armer": 5732, 
  "infrage": 5733, 
  "Nationalstaaten": 5734, 
  "teure": 5735, 
  "Fox": 5736, 
  "abkommen": 5737, 
  "Realitäten": 5738, 
  "Einlagen": 5739, 
  "anzustreben": 5740, 
  "Kreativität": 5741, 
  "Fukushima": 5742, 
  "aufgehoben": 5743, 
  "abzuwenden": 5744, 
  "stärkt": 5745, 
  "zwang": 5746, 
  "verschlechtert": 5747, 
  "Anziehungskraft": 5748, 
  "Programms": 5749, 
  "strengere": 5750, 
  "wofür": 5751, 
  "genießt": 5752, 
  "Bo@@": 5753, 
  "Kosten@@": 5754, 
  "erweitern": 5755, 
  "Establishment": 5756, 
  "vorn": 5757, 
  "Ernährung": 5758, 
  "mann": 5759, 
  "Bestand": 5760, 
  "inländischen": 5761, 
  "Desaster": 5762, 
  "unabhängiger": 5763, 
  "äre": 5764, 
  "Publikum": 5765, 
  "Ressentiments": 5766, 
  "rück@@": 5767, 
  "öffentliches": 5768, 
  "Symptome": 5769, 
  "Außen@@": 5770, 
  "Erwägung": 5771, 
  "zukünftiger": 5772, 
  "Wohn@@": 5773, 
  "gebildet": 5774, 
  "Aktienkurse": 5775, 
  "Handelspartner": 5776, 
  "ausschließen": 5777, 
  "Wettbewerbs": 5778, 
  "eröffnet": 5779, 
  "basierte": 5780, 
  "warnte": 5781, 
  "Persönlichkeit": 5782, 
  "unterdrückt": 5783, 
  "Woods": 5784, 
  "jahrelang": 5785, 
  "vorausgesetzt": 5786, 
  "Ã": 5787, 
  "populistische": 5788, 
  "Ehre": 5789, 
  "Bürger@@": 5790, 
  "Vor": 5791, 
  "tende": 5792, 
  "Shanghai": 5793, 
  "Mohammed": 5794, 
  "langfristiger": 5795, 
  "stellung": 5796, 
  "ähnliches": 5797, 
  "Ost@@": 5798, 
  "druck": 5799, 
  "18.": 5800, 
  "Wirtschaftsreformen": 5801, 
  "Gewinn@@": 5802, 
  "Royal": 5803, 
  "ah@@": 5804, 
  "Elend": 5805, 
  "gebiet": 5806, 
  "Kampfes": 5807, 
  "geteilt": 5808, 
  "Protest": 5809, 
  "Eine": 5810, 
  "Entdeckung": 5811, 
  "verbringen": 5812, 
  "Finanzmittel": 5813, 
  "Nord@@": 5814, 
  "Protesten": 5815, 
  "Vorwurf": 5816, 
  "Islamischen": 5817, 
  "Ungleichgewicht": 5818, 
  "verlust": 5819, 
  "Diktaturen": 5820, 
  "Schweizer": 5821, 
  "Staatsbürgerschaft": 5822, 
  "tigkeit": 5823, 
  "imstande": 5824, 
  "Trichet": 5825, 
  "gebaut": 5826, 
  "ener": 5827, 
  "ziele": 5828, 
  "pro@@": 5829, 
  "weichen": 5830, 
  "1,@@": 5831, 
  "IMF": 5832, 
  "alisierung": 5833, 
  "Uneinigkeit": 5834, 
  "haften": 5835, 
  "verfolgten": 5836, 
  "entgegen@@": 5837, 
  "rückgängig": 5838, 
  "Brennstoffen": 5839, 
  "Kontrollen": 5840, 
  "blockiert": 5841, 
  "elten": 5842, 
  "Liu": 5843, 
  "spielten": 5844, 
  "Papier": 5845, 
  "Liberalen": 5846, 
  "glaubwürdige": 5847, 
  "Kongresses": 5848, 
  "fe": 5849, 
  "Unsicherheiten": 5850, 
  "ankommt": 5851, 
  "Dollar@@": 5852, 
  "Motive": 5853, 
  "zunimmt": 5854, 
  "Mugabe": 5855, 
  "Häufigkeit": 5856, 
  "Ernennung": 5857, 
  "Berichten": 5858, 
  "Profite": 5859, 
  "Sport": 5860, 
  "Vorteilen": 5861, 
  "Signale": 5862, 
  "verkündete": 5863, 
  "Hugo": 5864, 
  "geplanten": 5865, 
  "Wahlsieg": 5866, 
  "Ägypter": 5867, 
  "anerkennt": 5868, 
  "Finanzunternehmen": 5869, 
  "schuf": 5870, 
  "lich@@": 5871, 
  "ul@@": 5872, 
  "versorgen": 5873, 
  "Maynard": 5874, 
  "änderte": 5875, 
  "Los": 5876, 
  "schaft": 5877, 
  "Migranten": 5878, 
  "hochrangige": 5879, 
  "mehrerer": 5880, 
  "aufgestellt": 5881, 
  "Explosion": 5882, 
  "Tonnen": 5883, 
  "obgleich": 5884, 
  "gehörten": 5885, 
  "Booms": 5886, 
  "kultureller": 5887, 
  "Ukrainer": 5888, 
  "langfristiges": 5889, 
  "Roosevelt": 5890, 
  "Firmen@@": 5891, 
  "Oberfläche": 5892, 
  "Tötung": 5893, 
  "Finanzierungs@@": 5894, 
  "Ungerechtigkeit": 5895, 
  "Wechselkurs@@": 5896, 
  "akademischen": 5897, 
  "Organismen": 5898, 
  "vermehrt": 5899, 
  "jüdische": 5900, 
  "la": 5901, 
  "kritisieren": 5902, 
  "Schwächung": 5903, 
  "Löhnen": 5904, 
  "aufweist": 5905, 
  "Betrieb": 5906, 
  "bremsen": 5907, 
  "finanzierung": 5908, 
  "quantitative": 5909, 
  "Ausrichtung": 5910, 
  "kontrolle": 5911, 
  "nunmehr": 5912, 
  "Beschränkung": 5913, 
  "verwurzelt": 5914, 
  "geopolitische": 5915, 
  "Budgets": 5916, 
  "Leistungs@@": 5917, 
  "Ungewissheit": 5918, 
  "beruhigen": 5919, 
  "anische": 5920, 
  "Kasachstan": 5921, 
  "Lähmung": 5922, 
  "Generalversammlung": 5923, 
  "geldpolitische": 5924, 
  "vorgeworfen": 5925, 
  "entstehenden": 5926, 
  "beobachtet": 5927, 
  "produkte": 5928, 
  "gesetz": 5929, 
  "getrennt": 5930, 
  "terroristischen": 5931, 
  "alternativen": 5932, 
  "Pro@@": 5933, 
  "2030": 5934, 
  "industrielle": 5935, 
  "Komponente": 5936, 
  "Ausweg": 5937, 
  "geöffnet": 5938, 
  "Wohnungen": 5939, 
  "erwähnt": 5940, 
  "Jintao": 5941, 
  "Warnungen": 5942, 
  "sorgte": 5943, 
  "Konvergenz": 5944, 
  "Emissions@@": 5945, 
  "Erforschung": 5946, 
  "künftigen": 5947, 
  "üben": 5948, 
  "Bestrafung": 5949, 
  "Führungspersönlichkeiten": 5950, 
  "konzentrierte": 5951, 
  "gender": 5952, 
  "gesetze": 5953, 
  "Gebäude": 5954, 
  "B": 5955, 
  "Tech": 5956, 
  "nte": 5957, 
  "Einflusses": 5958, 
  "wohlhabenden": 5959, 
  "Ausbau": 5960, 
  "Branche": 5961, 
  "26": 5962, 
  "dominiert": 5963, 
  "Zusagen": 5964, 
  "manipulieren": 5965, 
  "wettbewerbsfähig": 5966, 
  "fallenden": 5967, 
  "beiträgt": 5968, 
  "wechseln": 5969, 
  "verlängern": 5970, 
  "verhält": 5971, 
  "ökonomischer": 5972, 
  "Drohung": 5973, 
  "Blut": 5974, 
  "Demokratischen": 5975, 
  "la@@": 5976, 
  "geschätzt": 5977, 
  "Beine": 5978, 
  "Neues": 5979, 
  "Steuerpolitik": 5980, 
  "traten": 5981, 
  "regierung": 5982, 
  "erschweren": 5983, 
  "Juschtschenko": 5984, 
  "sicherheit": 5985, 
  "schwächeren": 5986, 
  "Selbstverteidigung": 5987, 
  "zurückgegangen": 5988, 
  "beizutragen": 5989, 
  "vierten": 5990, 
  "Zusammensetzung": 5991, 
  "Einheitswährung": 5992, 
  "Konsequenz": 5993, 
  "rief": 5994, 
  "Mark": 5995, 
  "isch": 5996, 
  "Deal": 5997, 
  "FSB": 5998, 
  "israelischer": 5999, 
  "Früchte": 6000, 
  "с@@": 6001, 
  "lichere": 6002, 
  "folglich": 6003, 
  "vorherrschenden": 6004, 
  "Vernunft": 6005, 
  "Kultur@@": 6006, 
  "kern": 6007, 
  "dortigen": 6008, 
  "resultierenden": 6009, 
  "beteiligten": 6010, 
  "Systemen": 6011, 
  "wagen": 6012, 
  "steuer@@": 6013, 
  "Super@@": 6014, 
  "Innenpolitik": 6015, 
  "dauerte": 6016, 
  "Hegemonie": 6017, 
  "erzählt": 6018, 
  "bestrafen": 6019, 
  "Bündnisses": 6020, 
  "Engagements": 6021, 
  "boten": 6022, 
  "Guantánamo": 6023, 
  "Präsidentenamt": 6024, 
  "halb": 6025, 
  "ne@@": 6026, 
  "0,5": 6027, 
  "Größenordnung": 6028, 
  "formulieren": 6029, 
  "Transport": 6030, 
  "Mittel@@": 6031, 
  "Asiaten": 6032, 
  "Temperaturen": 6033, 
  "800": 6034, 
  "Manipulation": 6035, 
  "Al@@": 6036, 
  "denkt": 6037, 
  "füllen": 6038, 
  "weißen": 6039, 
  "Wohlfahrtsstaat": 6040, 
  "Rezept": 6041, 
  "benachbarten": 6042, 
  "beinhalten": 6043, 
  "haft": 6044, 
  "angeführten": 6045, 
  "Tendenzen": 6046, 
  "reform": 6047, 
  "ethische": 6048, 
  "vorantreiben": 6049, 
  "gutem": 6050, 
  "Begrenzung": 6051, 
  "zeit@@": 6052, 
  "Konzepte": 6053, 
  "rechtlich": 6054, 
  "übermäßigen": 6055, 
  "langsamen": 6056, 
  "Osteuropas": 6057, 
  "600": 6058, 
  "berühmte": 6059, 
  "gelitten": 6060, 
  "eller": 6061, 
  "Vorbereitung": 6062, 
  "nordkoreanischen": 6063, 
  "Bretton": 6064, 
  "vertrag": 6065, 
  "Bedingung": 6066, 
  "kämpft": 6067, 
  "erzielten": 6068, 
  "religiös": 6069, 
  "ernannt": 6070, 
  "unnötig": 6071, 
  "endgültig": 6072, 
  "schlag": 6073, 
  "Boris": 6074, 
  "ernsten": 6075, 
  "Föderation": 6076, 
  "sinkenden": 6077, 
  "Leistungsbilanzüberschuss": 6078, 
  "feiern": 6079, 
  "gespalten": 6080, 
  "schädlich": 6081, 
  "Industriepolitik": 6082, 
  "Einbindung": 6083, 
  "erungs@@": 6084, 
  "verbleibenden": 6085, 
  "innenpolitische": 6086, 
  "Aufhebung": 6087, 
  "ff@@": 6088, 
  "Depressionen": 6089, 
  "wirksamen": 6090, 
  "Her@@": 6091, 
  "vorzugehen": 6092, 
  "Motor": 6093, 
  "annimmt": 6094, 
  "ausgebildet": 6095, 
  "palästinensischer": 6096, 
  "Funktionen": 6097, 
  "projekte": 6098, 
  "Sachs": 6099, 
  "eröffnen": 6100, 
  "schiitische": 6101, 
  "Verzerrungen": 6102, 
  "Anhebung": 6103, 
  "notwendigerweise": 6104, 
  "sammeln": 6105, 
  "befreit": 6106, 
  "ft": 6107, 
  "Ganzes": 6108, 
  "Gold@@": 6109, 
  "Anhäufung": 6110, 
  "einher": 6111, 
  "Alexander": 6112, 
  "Privatsektor": 6113, 
  "Helden": 6114, 
  "Veto": 6115, 
  "Artenvielfalt": 6116, 
  "Arabern": 6117, 
  "demselben": 6118, 
  "anzuheben": 6119, 
  "etablierten": 6120, 
  "1,3": 6121, 
  "wolle": 6122, 
  "Präzedenzfall": 6123, 
  "Details": 6124, 
  "Handelsabkommen": 6125, 
  "Einschränkung": 6126, 
  "Gegenstand": 6127, 
  "Arbeitnehmern": 6128, 
  "einzuleiten": 6129, 
  "anstelle": 6130, 
  "widersetzen": 6131, 
  "Euroländer": 6132, 
  "vergrößert": 6133, 
  "teren": 6134, 
  "festlegen": 6135, 
  "ma@@": 6136, 
  "ation@@": 6137, 
  "ei": 6138, 
  "bekamen": 6139, 
  "Jahres@@": 6140, 
  "Schriftsteller": 6141, 
  "Viktor": 6142, 
  "lautete": 6143, 
  "vielerlei": 6144, 
  "Biologie": 6145, 
  "Meinungsfreiheit": 6146, 
  "Den": 6147, 
  "heuer": 6148, 
  "hoffe": 6149, 
  "späteren": 6150, 
  "Ausgaben@@": 6151, 
  "Stabilitätspakt": 6152, 
  "Nord": 6153, 
  "1988": 6154, 
  "räumen": 6155, 
  "Software": 6156, 
  "schulden": 6157, 
  "anlässlich": 6158, 
  "Pipeline": 6159, 
  "lichste": 6160, 
  "Teheran": 6161, 
  "Selbstvertrauen": 6162, 
  "em@@": 6163, 
  "unterworfen": 6164, 
  "Blut@@": 6165, 
  "Londoner": 6166, 
  "hinterher": 6167, 
  "entscheidet": 6168, 
  "interpretiert": 6169, 
  "ften": 6170, 
  "natürlicher": 6171, 
  "Senator": 6172, 
  "Autoren": 6173, 
  "betrachteten": 6174, 
  "Handel@@": 6175, 
  "Wichtigkeit": 6176, 
  "Experimente": 6177, 
  "Kampf@@": 6178, 
  "ausgeprägt": 6179, 
  "Mannes": 6180, 
  "schwacher": 6181, 
  "schw@@": 6182, 
  "Ertrag": 6183, 
  "Zölle": 6184, 
  "Taiwans": 6185, 
  "undenkbar": 6186, 
  "gerechte": 6187, 
  "Mütter": 6188, 
  "anhält": 6189, 
  "wirtschaft": 6190, 
  "genaue": 6191, 
  "bezahlten": 6192, 
  "begünstigen": 6193, 
  "Luft@@": 6194, 
  "Landung": 6195, 
  "Achse": 6196, 
  "Palästinensischen": 6197, 
  "Resultate": 6198, 
  "Einkünfte": 6199, 
  "Bruchteil": 6200, 
  "lohnt": 6201, 
  "istische": 6202, 
  "Strafen": 6203, 
  "0,@@": 6204, 
  "Prag": 6205, 
  "Uhr": 6206, 
  "Anhängern": 6207, 
  "akzeptabel": 6208, 
  "erneuten": 6209, 
  "Händler": 6210, 
  "Einwohnern": 6211, 
  "Griechen": 6212, 
  "Führungen": 6213, 
  "ol@@": 6214, 
  "schützt": 6215, 
  "Gütern": 6216, 
  "700": 6217, 
  "geriet": 6218, 
  "Liquiditäts@@": 6219, 
  "Siedler": 6220, 
  "Inhaftierung": 6221, 
  "sexuelle": 6222, 
  "Binnenmarkt": 6223, 
  "Bezahlung": 6224, 
  "republikanische": 6225, 
  "Ausgabenkürzungen": 6226, 
  "Zusammen@@": 6227, 
  "ausgebildete": 6228, 
  "1987": 6229, 
  "zurückzu@@": 6230, 
  "Bundesstaat": 6231, 
  "intellektuelle": 6232, 
  "Beste": 6233, 
  "irgendein": 6234, 
  "Wiederholung": 6235, 
  "Peru": 6236, 
  "reichlich": 6237, 
  "aggressiv": 6238, 
  "Auftreten": 6239, 
  "Technokraten": 6240, 
  "gest@@": 6241, 
  "gerückt": 6242, 
  "gesund": 6243, 
  "greift": 6244, 
  "Spielregeln": 6245, 
  "Berechnungen": 6246, 
  "quantitativen": 6247, 
  "Rumsfeld": 6248, 
  "deten": 6249, 
  "Gut": 6250, 
  "Glaubens": 6251, 
  "verzweifelt": 6252, 
  "ad@@": 6253, 
  "blutigen": 6254, 
  "Rußland": 6255, 
  "Liebe": 6256, 
  "eh": 6257, 
  "Amtsantritt": 6258, 
  "Lettland": 6259, 
  "Autonomiebehörde": 6260, 
  "standards": 6261, 
  "individuellen": 6262, 
  "Wachstum@@": 6263, 
  "dung": 6264, 
  "andauernden": 6265, 
  "durchgeführten": 6266, 
  "Mächten": 6267, 
  "Südostasien": 6268, 
  "dynamische": 6269, 
  "Kapitalflucht": 6270, 
  "serbischen": 6271, 
  "abzubauen": 6272, 
  "Skeptiker": 6273, 
  "bezieht": 6274, 
  "ologen": 6275, 
  "gsten": 6276, 
  "erweitert": 6277, 
  "veränderte": 6278, 
  "kurzer": 6279, 
  "zeichnet": 6280, 
  "quote": 6281, 
  "anzusehen": 6282, 
  "Wohl": 6283, 
  "forschung": 6284, 
  "tätig": 6285, 
  "demokratisches": 6286, 
  "Netz": 6287, 
  "1,4": 6288, 
  "verlaufen": 6289, 
  "abzugeben": 6290, 
  "Vorrang": 6291, 
  "neunzehnten": 6292, 
  "klassischen": 6293, 
  "tisches": 6294, 
  "bildung": 6295, 
  "wohnen": 6296, 
  "ausweiten": 6297, 
  "Act": 6298, 
  "smus": 6299, 
  "vollständigen": 6300, 
  "Führerschaft": 6301, 
  "Atlantiks": 6302, 
  "nden": 6303, 
  "worauf": 6304, 
  "Dutzende": 6305, 
  "Fertigkeiten": 6306, 
  "stes": 6307, 
  "gelegentlich": 6308, 
  "einziger": 6309, 
  "punkte": 6310, 
  "Rahmenbedingungen": 6311, 
  "diesjährigen": 6312, 
  "stabiler": 6313, 
  "Wende": 6314, 
  "ausgaben": 6315, 
  "anstrebt": 6316, 
  "fortgesetzte": 6317, 
  "kostspielig": 6318, 
  "einzigartige": 6319, 
  "Lebensqualität": 6320, 
  "Untergang": 6321, 
  "erneute": 6322, 
  "Bahrain": 6323, 
  "oren": 6324, 
  "fairen": 6325, 
  "ad": 6326, 
  "belasten": 6327, 
  "Mord": 6328, 
  "u.": 6329, 
  "1929": 6330, 
  "Barrel": 6331, 
  "bewältigt": 6332, 
  "Stufe": 6333, 
  "Raketen@@": 6334, 
  "Barrieren": 6335, 
  "3,5": 6336, 
  "lichsten": 6337, 
  "Havel": 6338, 
  "spürbar": 6339, 
  "Angehörigen": 6340, 
  "gesetzlich": 6341, 
  "Gedanke": 6342, 
  "reichende": 6343, 
  "schreibt": 6344, 
  "Überwachungs@@": 6345, 
  "baltischen": 6346, 
  "Sachen": 6347, 
  "gearbeitet": 6348, 
  "überholt": 6349, 
  "Verdacht": 6350, 
  "aller@@": 6351, 
  "anlagen": 6352, 
  "einräumen": 6353, 
  "überschritten": 6354, 
  "sitzt": 6355, 
  "Herz": 6356, 
  "Einwanderungs@@": 6357, 
  "Entwicklungsziele": 6358, 
  "entgehen": 6359, 
  "Berlusconis": 6360, 
  "Hard": 6361, 
  "versetzt": 6362, 
  "är@@": 6363, 
  "Konjunkturerholung": 6364, 
  "tigte": 6365, 
  "Donald": 6366, 
  "Ingenieure": 6367, 
  "irischen": 6368, 
  "Energiepolitik": 6369, 
  "säkulare": 6370, 
  "Ruhe": 6371, 
  "Gründer": 6372, 
  "Fünftel": 6373, 
  "Maschinen": 6374, 
  "besserer": 6375, 
  "eingeräumt": 6376, 
  "Bankensystems": 6377, 
  "verheerende": 6378, 
  "zielen": 6379, 
  "dahinter": 6380, 
  "absoluten": 6381, 
  "Schmerzen": 6382, 
  "tz@@": 6383, 
  "Nazi": 6384, 
  "ergab": 6385, 
  "Konjunkturpaket": 6386, 
  "Treibhausgasemissionen": 6387, 
  "alisieren": 6388, 
  "is@@": 6389, 
  "verträge": 6390, 
  "abzuwarten": 6391, 
  "endgültigen": 6392, 
  "Peter": 6393, 
  "II.": 6394, 
  "weigert": 6395, 
  "Inter@@": 6396, 
  "Schlussfolgerungen": 6397, 
  "Gange": 6398, 
  "Olmert": 6399, 
  "Mode": 6400, 
  "voraus@@": 6401, 
  "langjährigen": 6402, 
  "zurückziehen": 6403, 
  "umgeben": 6404, 
  "beschließen": 6405, 
  "12.": 6406, 
  "ck@@": 6407, 
  "Castro": 6408, 
  "regulieren": 6409, 
  "1.000": 6410, 
  "Rio": 6411, 
  "ginge": 6412, 
  "Wieder@@": 6413, 
  "Auswirkung": 6414, 
  "ir@@": 6415, 
  "finanzierte": 6416, 
  "Schwer@@": 6417, 
  "ologie": 6418, 
  "Ar@@": 6419, 
  "übersteigt": 6420, 
  "Kanzlerin": 6421, 
  "anwenden": 6422, 
  "mittelfristig": 6423, 
  "entwickelnden": 6424, 
  "beinhaltet": 6425, 
  "enttäuscht": 6426, 
  "vorschriften": 6427, 
  "gesetzliche": 6428, 
  "Lebensstandards": 6429, 
  "eingegangen": 6430, 
  "Umschuldung": 6431, 
  "bereitstellen": 6432, 
  "sinkende": 6433, 
  "American": 6434, 
  "Le": 6435, 
  "Johannes": 6436, 
  "schufen": 6437, 
  "Zahlungs@@": 6438, 
  "engere": 6439, 
  "Flut": 6440, 
  "Schuld@@": 6441, 
  "Projekts": 6442, 
  "Marine": 6443, 
  "auferlegt": 6444, 
  "angeklagt": 6445, 
  "neunziger": 6446, 
  "hinausgehen": 6447, 
  "zurecht": 6448, 
  "angeblichen": 6449, 
  "Ausstoß": 6450, 
  "beantworten": 6451, 
  "saudischen": 6452, 
  "zweimal": 6453, 
  "Schuldenquote": 6454, 
  "erwartete": 6455, 
  "Erfüllung": 6456, 
  "Marx": 6457, 
  "Täter": 6458, 
  "Privilegien": 6459, 
  "Verwirrung": 6460, 
  "Sozialdemokraten": 6461, 
  "Beratung": 6462, 
  "ß@@": 6463, 
  "Meeresspiegel": 6464, 
  "Naturwissenschaften": 6465, 
  "erlitten": 6466, 
  "reagierten": 6467, 
  "tödliche": 6468, 
  "vernünftig": 6469, 
  "primär": 6470, 
  "Internet@@": 6471, 
  "Indikatoren": 6472, 
  "are": 6473, 
  "wertvolle": 6474, 
  "loses": 6475, 
  "japanischer": 6476, 
  "passt": 6477, 
  "Stärken": 6478, 
  "beheben": 6479, 
  "Kanzler": 6480, 
  "Kandidatur": 6481, 
  "Sicherheitspolitik": 6482, 
  "vierte": 6483, 
  "Segen": 6484, 
  "Gegnern": 6485, 
  "Schranken": 6486, 
  "korrigieren": 6487, 
  "Produktivitäts@@": 6488, 
  "kommende": 6489, 
  "höchster": 6490, 
  "bedauerlicherweise": 6491, 
  "Modells": 6492, 
  "RMB": 6493, 
  "F": 6494, 
  "spar@@": 6495, 
  "zugeben": 6496, 
  "1970": 6497, 
  "dar@@": 6498, 
  "Ehud": 6499, 
  "libanesischen": 6500, 
  "Arbeitern": 6501, 
  "Verschwendung": 6502, 
  "Wiederaufnahme": 6503, 
  "digen": 6504, 
  "Vorhersagen": 6505, 
  "beschrieb": 6506, 
  "Schutz@@": 6507, 
  "Henry": 6508, 
  "Chruschtschow": 6509, 
  "vorangetrieben": 6510, 
  "jetzigen": 6511, 
  "institutioneller": 6512, 
  "dran": 6513, 
  "Sri": 6514, 
  "Schwelle": 6515, 
  "Goldman": 6516, 
  "Gunsten": 6517, 
  "Rechtssystem": 6518, 
  "Kar@@": 6519, 
  "Diskurs": 6520, 
  "Entstehen": 6521, 
  "Geldmenge": 6522, 
  "Seoul": 6523, 
  "Arm": 6524, 
  "überschreiten": 6525, 
  "seinerseits": 6526, 
  "MASS": 6527, 
  "glaubwürdig": 6528, 
  "Immobilienblase": 6529, 
  "veränderten": 6530, 
  "Säulen": 6531, 
  "beklagen": 6532, 
  "entgegenzuwirken": 6533, 
  "Mehrheits@@": 6534, 
  "Verabschiedung": 6535, 
  "steilen": 6536, 
  "Koizumi": 6537, 
  "Pluralismus": 6538, 
  "1968": 6539, 
  "Lehr@@": 6540, 
  "anzugreifen": 6541, 
  "typischerweise": 6542, 
  "Eigen": 6543, 
  "Fisch@@": 6544, 
  "Kampagnen": 6545, 
  "historischer": 6546, 
  "Pragmatismus": 6547, 
  "Kurzum": 6548, 
  "Interessengruppen": 6549, 
  "verstärkten": 6550, 
  "len@@": 6551, 
  "Vorhaben": 6552, 
  "nannte": 6553, 
  "Yuan": 6554, 
  "schwächt": 6555, 
  "Dschihad": 6556, 
  "soliden": 6557, 
  "Weltpolitik": 6558, 
  "Tieren": 6559, 
  "Schuldenerlass": 6560, 
  "Mangels": 6561, 
  "weitergehen": 6562, 
  "Finnland": 6563, 
  "produzierenden": 6564, 
  "bezeichneten": 6565, 
  "geistige": 6566, 
  "belohnt": 6567, 
  "freiwillig": 6568, 
  "tere": 6569, 
  "arbeitete": 6570, 
  "neu@@": 6571, 
  "einbezogen": 6572, 
  "Deutsche": 6573, 
  "verlorenen": 6574, 
  "Verbrauchern": 6575, 
  "demonstrieren": 6576, 
  "Arbeitslosenrate": 6577, 
  "koreanischen": 6578, 
  "nachhaltiger": 6579, 
  "fossile": 6580, 
  "Haus@@": 6581, 
  "Kompetenz": 6582, 
  "drängte": 6583, 
  "abgeschafft": 6584, 
  "Risikos": 6585, 
  "unzählige": 6586, 
  "ie": 6587, 
  "lau@@": 6588, 
  "Sozialversicherung": 6589, 
  "und@@": 6590, 
  "Hilfen": 6591, 
  "projekt": 6592, 
  "Tschernobyl": 6593, 
  "м": 6594, 
  "protektionistische": 6595, 
  "Aufstände": 6596, 
  "gesellschaft": 6597, 
  "gewaltig": 6598, 
  "Energieeffizienz": 6599, 
  "Mobilisierung": 6600, 
  "afghanische": 6601, 
  "jahrzehntelang": 6602, 
  "Wahlbeteiligung": 6603, 
  "Hurrikan": 6604, 
  "ruft": 6605, 
  "einheimische": 6606, 
  "französischer": 6607, 
  "Nachteile": 6608, 
  "teilt": 6609, 
  "begehen": 6610, 
  "Blairs": 6611, 
  "ehrlich": 6612, 
  "greifende": 6613, 
  "Verachtung": 6614, 
  "drastischen": 6615, 
  "osteuropäischen": 6616, 
  "zei@@": 6617, 
  "Ansteckung": 6618, 
  "Mon@@": 6619, 
  "Spektrum": 6620, 
  "europäisches": 6621, 
  "Spaniens": 6622, 
  "8@@": 6623, 
  "om@@": 6624, 
  "nördlichen": 6625, 
  "Tea": 6626, 
  "af@@": 6627, 
  "Industrialisierung": 6628, 
  "strategien": 6629, 
  "spenden": 6630, 
  "Mühe": 6631, 
  "ob@@": 6632, 
  "sehe": 6633, 
  "Morales": 6634, 
  "Bestätigung": 6635, 
  "licheren": 6636, 
  "Humankapital": 6637, 
  "ären": 6638, 
  "Irakkrieg": 6639, 
  "bemühungen": 6640, 
  "ausmacht": 6641, 
  "organisation": 6642, 
  "arabischer": 6643, 
  "gerechten": 6644, 
  "Strom@@": 6645, 
  "geprägten": 6646, 
  "D.C.": 6647, 
  "respektiert": 6648, 
  "Krankenhaus": 6649, 
  "Zerfall": 6650, 
  "möglicher": 6651, 
  "Mitarbeitern": 6652, 
  "Indikator": 6653, 
  "Wirtschaft@@": 6654, 
  "Ja": 6655, 
  "geschlossenen": 6656, 
  "schüren": 6657, 
  "fort@@": 6658, 
  "Einwanderern": 6659, 
  "Arbeitsmärkte": 6660, 
  "heiten": 6661, 
  "schuld": 6662, 
  "Ozean": 6663, 
  "verdammt": 6664, 
  "Dringlichkeit": 6665, 
  "aussieht": 6666, 
  "Sinai": 6667, 
  "Häuserpreise": 6668, 
  "Umweltverschmutzung": 6669, 
  "Freihandel": 6670, 
  "wohingegen": 6671, 
  "Unterfangen": 6672, 
  "bisschen": 6673, 
  "gegenüberstehen": 6674, 
  "Wir": 6675, 
  "Dmitri": 6676, 
  "typisch": 6677, 
  "entscheidungen": 6678, 
  "zuzulassen": 6679, 
  "Skandal": 6680, 
  "Hardliner": 6681, 
  "Rettungspaket": 6682, 
  "Bösen": 6683, 
  "Verlusten": 6684, 
  "Vorwand": 6685, 
  "Haag": 6686, 
  "durchgeführte": 6687, 
  "−": 6688, 
  "illegalen": 6689, 
  "Bedürfnissen": 6690, 
  "Staatschefs": 6691, 
  "Trade": 6692, 
  "erischen": 6693, 
  "Leistungsbilanzdefizite": 6694, 
  "Benjamin": 6695, 
  "Fahr@@": 6696, 
  "Jugend": 6697, 
  "bedeutsame": 6698, 
  "Mathematik": 6699, 
  "Eigenheimpreise": 6700, 
  "Nationale": 6701, 
  "betrachtete": 6702, 
  "beitreten": 6703, 
  "Hand@@": 6704, 
  "nachkommen": 6705, 
  "Meinungsäußerung": 6706, 
  "gemäßigte": 6707, 
  "zutage": 6708, 
  "mo@@": 6709, 
  "irgendwelche": 6710, 
  "verständlicherweise": 6711, 
  "Weisheit": 6712, 
  "Durch@@": 6713, 
  "P": 6714, 
  "Mar@@": 6715, 
  "Eingreifen": 6716, 
  "Verurteilung": 6717, 
  "Unilateralismus": 6718, 
  "hieraus": 6719, 
  "populär": 6720, 
  "verstoßen": 6721, 
  "sf@@": 6722, 
  "unausweichlich": 6723, 
  "Konkurs": 6724, 
  "persönlicher": 6725, 
  "Staatsfinanzen": 6726, 
  "beabsichtigt": 6727, 
  "Geld-": 6728, 
  "ke": 6729, 
  "abgelöst": 6730, 
  "örtliche": 6731, 
  "entdecken": 6732, 
  "Atomenergie": 6733, 
  "Industrienationen": 6734, 
  "kehren": 6735, 
  "Gastgeber": 6736, 
  "Zaum": 6737, 
  "lateinamerikanische": 6738, 
  "traditioneller": 6739, 
  "Meinungsverschiedenheiten": 6740, 
  "bereiche": 6741, 
  "Übel": 6742, 
  "rates": 6743, 
  "argentinischen": 6744, 
  "Hut": 6745, 
  "stützt": 6746, 
  "umfassender": 6747, 
  "stimmten": 6748, 
  "Wünsche": 6749, 
  "Duma": 6750, 
  "Lasten": 6751, 
  "stünde": 6752, 
  "einzigartigen": 6753, 
  "Wähler@@": 6754, 
  "Stabilitäts-": 6755, 
  "François": 6756, 
  "f": 6757, 
  "OSZE": 6758, 
  "verbot": 6759, 
  "1,2": 6760, 
  "ing": 6761, 
  "halbes": 6762, 
  "künstlich": 6763, 
  "brasilianischen": 6764, 
  "Wissens": 6765, 
  "Forschungsergebnisse": 6766, 
  "men@@": 6767, 
  "17.": 6768, 
  "Bindungen": 6769, 
  "Frauen@@": 6770, 
  "kosten@@": 6771, 
  "Schulbildung": 6772, 
  "Präsidentin": 6773, 
  "Lebensmittel@@": 6774, 
  "management": 6775, 
  "dominieren": 6776, 
  "vorgehen": 6777, 
  "schaften": 6778, 
  "Natur@@": 6779, 
  "gewöhnt": 6780, 
  "Freilassung": 6781, 
  "kultur": 6782, 
  "cken": 6783, 
  "Trinkwasser": 6784, 
  "endgültige": 6785, 
  "absehbarer": 6786, 
  "Kapitalkontrollen": 6787, 
  "85": 6788, 
  "Schätzung": 6789, 
  "Anfälligkeit": 6790, 
  "zeiten": 6791, 
  "experten": 6792, 
  "Neubewertung": 6793, 
  "Muslimbruderschaft": 6794, 
  "ältere": 6795, 
  "engagiert": 6796, 
  "Berufs@@": 6797, 
  "Sparen": 6798, 
  "Drucks": 6799, 
  "teuren": 6800, 
  "Politik@@": 6801, 
  "festgelegten": 6802, 
  "betonte": 6803, 
  "Wunden": 6804, 
  "Elektrizität": 6805, 
  "mancherorts": 6806, 
  "umwelt@@": 6807, 
  "Unterschieden": 6808, 
  "erlebten": 6809, 
  "Grundsatz": 6810, 
  "SZR": 6811, 
  "Energiepreise": 6812, 
  "verabschiedete": 6813, 
  "Türken": 6814, 
  "ausgelegt": 6815, 
  "begrüßt": 6816, 
  "+": 6817, 
  "Cheney": 6818, 
  "branche": 6819, 
  "Arabiens": 6820, 
  "esen": 6821, 
  "Gesellschafts@@": 6822, 
  "Erdogan": 6823, 
  "erfinden": 6824, 
  "Aufruf": 6825, 
  "West": 6826, 
  "Smith": 6827, 
  "Wissens@@": 6828, 
  "на@@": 6829, 
  "Autor": 6830, 
  "Transformation": 6831, 
  "Haushaltsdefiziten": 6832, 
  "Ecuador": 6833, 
  "spiel": 6834, 
  "Englisch": 6835, 
  "nachzukommen": 6836, 
  "SARS": 6837, 
  "produktive": 6838, 
  "fühlt": 6839, 
  "Estland": 6840, 
  "Fehlern": 6841, 
  "dauert": 6842, 
  "inländische": 6843, 
  "verbergen": 6844, 
  "Bulgarien": 6845, 
  "weitreichende": 6846, 
  "Lebensstil": 6847, 
  "tigten": 6848, 
  "Mäßigung": 6849, 
  "abgegeben": 6850, 
  "Joseph": 6851, 
  "erin": 6852, 
  "ank@@": 6853, 
  "welle": 6854, 
  "Sonne": 6855, 
  "quelle": 6856, 
  "deutsch": 6857, 
  "anstieg": 6858, 
  "drohte": 6859, 
  "begünstigt": 6860, 
  "Slowakei": 6861, 
  "vergleichbare": 6862, 
  "ters": 6863, 
  "wartet": 6864, 
  "Nachteil": 6865, 
  "Krankheits@@": 6866, 
  "einzuschränken": 6867, 
  "Differenz": 6868, 
  "verfügte": 6869, 
  "Korrektur": 6870, 
  "früherer": 6871, 
  "ansonsten": 6872, 
  "ys": 6873, 
  "anrichten": 6874, 
  "Militärmacht": 6875, 
  "Spekulanten": 6876, 
  "rührt": 6877, 
  "antwortete": 6878, 
  "Missachtung": 6879, 
  "vorsieht": 6880, 
  "zurückgehen": 6881, 
  "Symbole": 6882, 
  "generell": 6883, 
  "Nordafrika": 6884, 
  "Beschwerden": 6885, 
  "fl@@": 6886, 
  "Landwirte": 6887, 
  "Bei@@": 6888, 
  "Gremien": 6889, 
  "и@@": 6890, 
  "Bedürfnis": 6891, 
  "Konjunkturprogramme": 6892, 
  "Einzelne": 6893, 
  "Verantwortlichen": 6894, 
  "anz@@": 6895, 
  "Uran": 6896, 
  "Angehörige": 6897, 
  "Zorn": 6898, 
  "gesichert": 6899, 
  "ischer": 6900, 
  "verschrieben": 6901, 
  "Gaddafis": 6902, 
  "befanden": 6903, 
  "Vorfall": 6904, 
  "Durchschnitts@@": 6905, 
  "Stile": 6906, 
  "unteren": 6907, 
  "anischen": 6908, 
  "beunruhigend": 6909, 
  "Ideologien": 6910, 
  "gewalttätige": 6911, 
  "Antrag": 6912, 
  "schloss": 6913, 
  "hinzukommt": 6914, 
  "Davos": 6915, 
  "nutzt": 6916, 
  "Wettstreit": 6917, 
  "dominierten": 6918, 
  "realistisch": 6919, 
  "auseinandersetzen": 6920, 
  "senkt": 6921, 
  "herrschte": 6922, 
  "Calderón": 6923, 
  "interpretieren": 6924, 
  "Klarheit": 6925, 
  "Realwirtschaft": 6926, 
  "inakzeptabel": 6927, 
  "Rate": 6928, 
  "Sprachen": 6929, 
  "glücklich": 6930, 
  "bevorzugt": 6931, 
  "verhelfen": 6932, 
  "r": 6933, 
  "massiver": 6934, 
  "bevorstehende": 6935, 
  "sank": 6936, 
  "studieren": 6937, 
  "eingeladen": 6938, 
  "Verzögerung": 6939, 
  "Imperialismus": 6940, 
  "bedeutend": 6941, 
  "Südasien": 6942, 
  "ratifiziert": 6943, 
  "Aktienmärkte": 6944, 
  "Repression": 6945, 
  "Bonds": 6946, 
  "Heimatland": 6947, 
  "tödlichen": 6948, 
  "Gier": 6949, 
  "Kernschmelze": 6950, 
  "zugelassen": 6951, 
  "Gräueltaten": 6952, 
  "15.": 6953, 
  "parallel": 6954, 
  "Währungsreserven": 6955, 
  "relevant": 6956, 
  "Pflege": 6957, 
  "Nachkriegszeit": 6958, 
  "festzuhalten": 6959, 
  "vereinbarten": 6960, 
  "Pazifik": 6961, 
  "eri@@": 6962, 
  "Lee": 6963, 
  "ausgehende": 6964, 
  "En@@": 6965, 
  "zunehmendem": 6966, 
  "gehörte": 6967, 
  "umfassendere": 6968, 
  "Kasten": 6969, 
  "verschoben": 6970, 
  "lauten": 6971, 
  "Abschwächung": 6972, 
  "Parlamente": 6973, 
  "ökonomisch": 6974, 
  "Arbeitslosen": 6975, 
  "angelegte": 6976, 
  "stimmte": 6977, 
  "schlimmste": 6978, 
  "spezifische": 6979, 
  "Jiang": 6980, 
  "est@@": 6981, 
  "Zugehörigkeit": 6982, 
  "risiken": 6983, 
  "zusammenzuarbeiten": 6984, 
  "Geschäftsbanken": 6985, 
  "restlichen": 6986, 
  "identifiziert": 6987, 
  "по@@": 6988, 
  "See": 6989, 
  "Euroraum": 6990, 
  "zurückgreifen": 6991, 
  "zurückgekehrt": 6992, 
  "geworfen": 6993, 
  "nennt": 6994, 
  "Vernichtung": 6995, 
  "berechtigt": 6996, 
  "sinnvolle": 6997, 
  "unrealistisch": 6998, 
  "gendes": 6999, 
  "baut": 7000, 
  "Anteile": 7001, 
  "dorthin": 7002, 
  "kar@@": 7003, 
  "einseitig": 7004, 
  "zumeist": 7005, 
  "basieren": 7006, 
  "Fest@@": 7007, 
  "fortgesetzt": 7008, 
  "nähert": 7009, 
  "Dingen": 7010, 
  "bedacht": 7011, 
  "Hollande": 7012, 
  "kluge": 7013, 
  "Geduld": 7014, 
  "Regulierer": 7015, 
  "klug": 7016, 
  "gens": 7017, 
  "vorherigen": 7018, 
  "Bomben": 7019, 
  "träumen": 7020, 
  "16.": 7021, 
  "ärmer": 7022, 
  "verkündet": 7023, 
  "vorgenommen": 7024, 
  "tierten": 7025, 
  "korrupt": 7026, 
  "End@@": 7027, 
  "Antisemitismus": 7028, 
  "exzessive": 7029, 
  "Board": 7030, 
  "problematisch": 7031, 
  "brutal": 7032, 
  "Per@@": 7033, 
  "führung": 7034, 
  "schlimm": 7035, 
  "Bestände": 7036, 
  "Seele": 7037, 
  "Norm": 7038, 
  "stische": 7039, 
  "prüfen": 7040, 
  "Gen": 7041, 
  "Variante": 7042, 
  "strengen": 7043, 
  "Verträgen": 7044, 
  "enst@@": 7045, 
  "Anwesenheit": 7046, 
  "Angestellten": 7047, 
  "gesellschaften": 7048, 
  "langjährige": 7049, 
  "Verlängerung": 7050, 
  "stoff@@": 7051, 
  "Strich": 7052, 
  "viertens": 7053, 
  "Feld": 7054, 
  "y": 7055, 
  "bedingungen": 7056, 
  "katastrophalen": 7057, 
  "unterstreichen": 7058, 
  "schön": 7059, 
  "Hürden": 7060, 
  "Twitter": 7061, 
  "prognostiziert": 7062, 
  "Finanzsysteme": 7063, 
  "Li@@": 7064, 
  "Formel": 7065, 
  "Mi@@": 7066, 
  "überwältigende": 7067, 
  "untermauern": 7068, 
  "gescheiterte": 7069, 
  "territoriale": 7070, 
  "Entfernung": 7071, 
  "Bündnisse": 7072, 
  "biologischen": 7073, 
  "Iraks": 7074, 
  "dynamischen": 7075, 
  "än@@": 7076, 
  "bewirkt": 7077, 
  "Nigerias": 7078, 
  "Außenwelt": 7079, 
  "vorhersagen": 7080, 
  "Fairness": 7081, 
  "ungewiss": 7082, 
  "Arme": 7083, 
  "gebiete": 7084, 
  "Tode": 7085, 
  "unterziehen": 7086, 
  "10.000": 7087, 
  "Armenien": 7088, 
  "agiert": 7089, 
  "zielt": 7090, 
  "Erste": 7091, 
  "vorzubereiten": 7092, 
  "1960": 7093, 
  "Oberste": 7094, 
  "stattfindenden": 7095, 
  "fossiler": 7096, 
  "Wind": 7097, 
  "Türen": 7098, 
  "getreten": 7099, 
  "los@@": 7100, 
  "ap@@": 7101, 
  "Arzt": 7102, 
  "warnen": 7103, 
  "Jiabao": 7104, 
  "Ru@@": 7105, 
  "Weile": 7106, 
  "Südossetien": 7107, 
  "Abchasien": 7108, 
  "Unterscheidung": 7109, 
  "Schmerz": 7110, 
  "Bi@@": 7111, 
  "aufhalten": 7112, 
  "Stadt@@": 7113, 
  "vornehmen": 7114, 
  "wehren": 7115, 
  "berufen": 7116, 
  "Versöhnung": 7117, 
  "ns": 7118, 
  "Landschaft": 7119, 
  "ber": 7120, 
  "freiwillige": 7121, 
  "Y@@": 7122, 
  "ativen": 7123, 
  "1985": 7124, 
  "tigem": 7125, 
  "parlamentarischen": 7126, 
  "geschichte": 7127, 
  "auszuschließen": 7128, 
  "Tschechoslowakei": 7129, 
  "fin@@": 7130, 
  "zweites": 7131, 
  "lieben": 7132, 
  "Vormarsch": 7133, 
  "signalisieren": 7134, 
  "Ak@@": 7135, 
  "unterhalb": 7136, 
  "gewissem": 7137, 
  "diente": 7138, 
  "gene": 7139, 
  "Start": 7140, 
  "steigert": 7141, 
  "vernichten": 7142, 
  "kurzfristiger": 7143, 
  "instabil": 7144, 
  "reißen": 7145, 
  "vi@@": 7146, 
  "alistische": 7147, 
  "hochrangigen": 7148, 
  "Rettungs@@": 7149, 
  "brauchte": 7150, 
  "fallende": 7151, 
  "freundlichen": 7152, 
  "schadet": 7153, 
  "hieß": 7154, 
  "bereitzustellen": 7155, 
  "schätzungsweise": 7156, 
  "IT": 7157, 
  "ehrgeizige": 7158, 
  "Michael": 7159, 
  "koordinieren": 7160, 
  "Ethik": 7161, 
  "School": 7162, 
  "Misere": 7163, 
  "soziales": 7164, 
  "verschlechtern": 7165, 
  "geboten": 7166, 
  "Jugendlichen": 7167, 
  "Motto": 7168, 
  "Zelle": 7169, 
  "ergänzen": 7170, 
  "ökologische": 7171, 
  "Komponenten": 7172, 
  "eng@@": 7173, 
  "bau": 7174, 
  "Monarchie": 7175, 
  "Unruhe": 7176, 
  "arten": 7177, 
  "naiv": 7178, 
  "Zentralbanker": 7179, 
  "befürwortet": 7180, 
  "physische": 7181, 
  "Ratifizierung": 7182, 
  "31": 7183, 
  "illegal": 7184, 
  "revolutionäre": 7185, 
  "wachstum": 7186, 
  "Kuwait": 7187, 
  "Rice": 7188, 
  "kraft": 7189, 
  "c@@": 7190, 
  "fungieren": 7191, 
  "ermöglichten": 7192, 
  "Istanbul": 7193, 
  "Neuausrichtung": 7194, 
  "Kur@@": 7195, 
  "Liberalismus": 7196, 
  "nationales": 7197, 
  "Minimum": 7198, 
  "wahrnehmen": 7199, 
  "angelegt": 7200, 
  "Oxford": 7201, 
  "Haft": 7202, 
  "Nahe": 7203, 
  "Ausübung": 7204, 
  "Vorfahren": 7205, 
  "schrecklichen": 7206, 
  "geeignete": 7207, 
  "hochentwickelten": 7208, 
  "Tätigkeit": 7209, 
  "Auslandsinvestitionen": 7210, 
  "Rassismus": 7211, 
  "Verschwörung": 7212, 
  "Defizit@@": 7213, 
  "bitten": 7214, 
  "äu@@": 7215, 
  "Brücke": 7216, 
  "Beobachtung": 7217, 
  "Moskauer": 7218, 
  "Investmentbanken": 7219, 
  "vollem": 7220, 
  "p": 7221, 
  "lindern": 7222, 
  "genetisch": 7223, 
  "britischer": 7224, 
  "Defizits": 7225, 
  "Enron": 7226, 
  "h": 7227, 
  "Le@@": 7228, 
  "Erschütterungen": 7229, 
  "iert": 7230, 
  "rä@@": 7231, 
  "Offiziere": 7232, 
  "Kreisen": 7233, 
  "konventionelle": 7234, 
  "machbar": 7235, 
  "einzurichten": 7236, 
  "Verbraucher@@": 7237, 
  "anten": 7238, 
  "Einkommensverteilung": 7239, 
  "dementsprechend": 7240, 
  "vorgeschlagene": 7241, 
  "ausgegangen": 7242, 
  "Zyklus": 7243, 
  "Parallelen": 7244, 
  "Faschismus": 7245, 
  "Führers": 7246, 
  "Rennen": 7247, 
  "regierende": 7248, 
  "Großunternehmen": 7249, 
  "Rückzahlung": 7250, 
  "problemen": 7251, 
  "beleben": 7252, 
  "Gleichgewichts": 7253, 
  "Verteidigungspolitik": 7254, 
  "ernsthafter": 7255, 
  "endet": 7256, 
  "€": 7257, 
  "HAVEN": 7258, 
  "Regulierungen": 7259, 
  "einzuräumen": 7260, 
  "Monats": 7261, 
  "Identitäten": 7262, 
  "Finanzwelt": 7263, 
  "harter": 7264, 
  "Schließung": 7265, 
  "vorherzusagen": 7266, 
  "einseitige": 7267, 
  "Ruder": 7268, 
  "rechnet": 7269, 
  "vorhersehbar": 7270, 
  "teile": 7271, 
  "Werbung": 7272, 
  "zeitlich": 7273, 
  "einleiten": 7274, 
  "Betrachtung": 7275, 
  "Redefreiheit": 7276, 
  "zentrum": 7277, 
  "wozu": 7278, 
  "etablierte": 7279, 
  "ansieht": 7280, 
  "Sex": 7281, 
  "integrierten": 7282, 
  "Schwung": 7283, 
  "Konjunktur@@": 7284, 
  "Handelsliberalisierung": 7285, 
  "Projekten": 7286, 
  "neuem": 7287, 
  "Franklin": 7288, 
  "menschliches": 7289, 
  "Übergangsphase": 7290, 
  "Verrat": 7291, 
  "Wolfowitz": 7292, 
  "dreimal": 7293, 
  "gend": 7294, 
  "Atomkraft": 7295, 
  "Kroatien": 7296, 
  "Po@@": 7297, 
  "D": 7298, 
  "Vertrauens@@": 7299, 
  "Versorgungs@@": 7300, 
  "minimieren": 7301, 
  "Freude": 7302, 
  "Vorgaben": 7303, 
  "koordinierte": 7304, 
  "Haushaltsdisziplin": 7305, 
  "umzu@@": 7306, 
  "wem": 7307, 
  "Urbanisierung": 7308, 
  "unzähligen": 7309, 
  "Spekulationen": 7310, 
  "nirgends": 7311, 
  "Unterernährung": 7312, 
  "38": 7313, 
  "andauernde": 7314, 
  "1950": 7315, 
  "großzügig": 7316, 
  "gemeint": 7317, 
  "aggressiven": 7318, 
  "Ober@@": 7319, 
  "neueren": 7320, 
  "Tier@@": 7321, 
  "optimistisch": 7322, 
  "georgischen": 7323, 
  "Haushalts": 7324, 
  "Bestreben": 7325, 
  "ach@@": 7326, 
  "Ayatollah": 7327, 
  "et": 7328, 
  "Gemeinwesen": 7329, 
  "Stalins": 7330, 
  "per@@": 7331, 
  "hervor@@": 7332, 
  "acht@@": 7333, 
  "Haushaltsdefizits": 7334, 
  "haushaltspolitische": 7335, 
  "klares": 7336, 
  "greifenden": 7337, 
  "erweiterte": 7338, 
  "я": 7339, 
  "Kulturrevolution": 7340, 
  "gestorben": 7341, 
  "Umstand": 7342, 
  "normal": 7343, 
  "seither": 7344, 
  "arbeiteten": 7345, 
  "denden": 7346, 
  "Lügen": 7347, 
  "inhaftiert": 7348, 
  "Vakuum": 7349, 
  "serbische": 7350, 
  "russisch": 7351, 
  "Tschechischen": 7352, 
  "Obasanjo": 7353, 
  "längeren": 7354, 
  "Feinden": 7355, 
  "tigsten": 7356, 
  "Nachdruck": 7357, 
  "stößt": 7358, 
  "veröffentlichen": 7359, 
  "il@@": 7360, 
  "transparent": 7361, 
  "Yorker": 7362, 
  "Mannschaft": 7363, 
  "Wetter@@": 7364, 
  "zeichnen": 7365, 
  "kontrollierte": 7366, 
  "konstruktive": 7367, 
  "modernisieren": 7368, 
  "Zwei@@": 7369, 
  "amerikanisch": 7370, 
  "lebens@@": 7371, 
  "fähigkeit": 7372, 
  "Todes@@": 7373, 
  "Beleg": 7374, 
  "Enttäuschung": 7375, 
  "herbeigeführt": 7376, 
  "märkten": 7377, 
  "beeindruckende": 7378, 
  "Höhen": 7379, 
  "unterliegt": 7380, 
  "bestätigte": 7381, 
  "exzessiven": 7382, 
  "günstig": 7383, 
  "leistungs@@": 7384, 
  "Rohstoffen": 7385, 
  "Gegengewicht": 7386, 
  "hinaus@@": 7387, 
  "Gerichtsverfahren": 7388, 
  "Sparpolitik": 7389, 
  "absichtlich": 7390, 
  "Kohlenstoffemissionen": 7391, 
  "trennen": 7392, 
  "Hatoyama": 7393, 
  "Bahn": 7394, 
  "Verteidigungsausgaben": 7395, 
  "fangen": 7396, 
  "Zivilbevölkerung": 7397, 
  "erstellen": 7398, 
  "preis": 7399, 
  "Einsatz@@": 7400, 
  "Teams": 7401, 
  "Euro@@": 7402, 
  "Kontroversen": 7403, 
  "Stiftung": 7404, 
  "Kreditwürdigkeit": 7405, 
  "Vertretung": 7406, 
  "Diversifizierung": 7407, 
  "Kürze": 7408, 
  "Konkurrenten": 7409, 
  "ani@@": 7410, 
  "Schuldner": 7411, 
  "tert": 7412, 
  "gehende": 7413, 
  "Yukos": 7414, 
  "ieren": 7415, 
  "Entscheidungs@@": 7416, 
  "fer": 7417, 
  "abnehmen": 7418, 
  "wesentlicher": 7419, 
  "erfunden": 7420, 
  "ell": 7421, 
  "vorne": 7422, 
  "umfassend": 7423, 
  "gesteigert": 7424, 
  "ren@@": 7425, 
  "kehrte": 7426, 
  "verarmten": 7427, 
  "Zentral@@": 7428, 
  "multinationale": 7429, 
  "typischen": 7430, 
  "passen": 7431, 
  "Dörfer": 7432, 
  "Verantwortlichkeiten": 7433, 
  "aufbringen": 7434, 
  "bemerkte": 7435, 
  "beharren": 7436, 
  "präzise": 7437, 
  "Gestalt": 7438, 
  "hi@@": 7439, 
  "Kompetenzen": 7440, 
  "Verbündeter": 7441, 
  "Genuss": 7442, 
  "Leistungsfähigkeit": 7443, 
  "Business": 7444, 
  "Spenden": 7445, 
  "Impuls": 7446, 
  "argentinische": 7447, 
  "Import@@": 7448, 
  "Kleinbauern": 7449, 
  "gungen": 7450, 
  "Weltgesundheitsorganisation": 7451, 
  "importieren": 7452, 
  "eter": 7453, 
  "Beschreibung": 7454, 
  "Handelsbilanz": 7455, 
  "Wertschöpfung": 7456, 
  "grundsätzliche": 7457, 
  "angebracht": 7458, 
  "ehemals": 7459, 
  "erische": 7460, 
  "legitimen": 7461, 
  "einrichtungen": 7462, 
  "ersch@@": 7463, 
  "hervorzubringen": 7464, 
  "Kommunen": 7465, 
  "intensiven": 7466, 
  "ep@@": 7467, 
  "Analogie": 7468, 
  "vorzustellen": 7469, 
  "jüngere": 7470, 
  "beizubehalten": 7471, 
  "NAFTA": 7472, 
  "kleines": 7473, 
  "speziell": 7474, 
  "auszubauen": 7475, 
  "reformiert": 7476, 
  "mächtig": 7477, 
  "ampnbsp": 7478, 
  "beiseite": 7479, 
  "unbekannt": 7480, 
  "Rekord@@": 7481, 
  "Radikalismus": 7482, 
  "Überschwemmungen": 7483, 
  "Sicherheitsfragen": 7484, 
  "mehr@@": 7485, 
  "bericht": 7486, 
  "42": 7487, 
  "Ausbeutung": 7488, 
  "Atomwaffensperrvertrag": 7489, 
  "isolieren": 7490, 
  "verweigern": 7491, 
  "Inflationserwartungen": 7492, 
  "erschaffen": 7493, 
  "momentane": 7494, 
  "kritisch": 7495, 
  "uner@@": 7496, 
  "Erfindung": 7497, 
  "mark@@": 7498, 
  "welt": 7499, 
  "schmerzhafte": 7500, 
  "ähneln": 7501, 
  "Kofi": 7502, 
  "vier@@": 7503, 
  "hörte": 7504, 
  "saudische": 7505, 
  "teilte": 7506, 
  "technischer": 7507, 
  "Gegenreaktion": 7508, 
  "FDI": 7509, 
  "Genfer": 7510, 
  "Therapie": 7511, 
  "vertieft": 7512, 
  "wachstums@@": 7513, 
  "vage": 7514, 
  "ungs": 7515, 
  "1986": 7516, 
  "Wenn": 7517, 
  "gkeit": 7518, 
  "tungs@@": 7519, 
  "Unterzeichnung": 7520, 
  "Dorf": 7521, 
  "250": 7522, 
  "Aufruhr": 7523, 
  "orthodoxen": 7524, 
  "Hilfsmittel": 7525, 
  "geschäfte": 7526, 
  "Beliebtheit": 7527, 
  "Darstellung": 7528, 
  "Goldstandard": 7529, 
  "Organe": 7530, 
  "Nizza": 7531, 
  "37": 7532, 
  "Tourismus": 7533, 
  "Zell@@": 7534, 
  "Sparer": 7535, 
  "Wohlstandes": 7536, 
  "Paket": 7537, 
  "Ton": 7538, 
  "Dokumente": 7539, 
  "Einladung": 7540, 
  "gesundheitlichen": 7541, 
  "Wertes": 7542, 
  "mexikanische": 7543, 
  "36": 7544, 
  "geringerem": 7545, 
  "muslimischer": 7546, 
  "Geber": 7547, 
  "Golfstaaten": 7548, 
  "verhandlungen": 7549, 
  "Staatsbürger": 7550, 
  "sinnlos": 7551, 
  "Kategorien": 7552, 
  "betrieb": 7553, 
  "Science": 7554, 
  "Tiefe": 7555, 
  "griff": 7556, 
  "Inhaber": 7557, 
  "Schw@@": 7558, 
  "intensive": 7559, 
  "Materialien": 7560, 
  "Treibhausgasen": 7561, 
  "unterhalten": 7562, 
  "wirtschafts@@": 7563, 
  "bestimmungen": 7564, 
  "Forschungen": 7565, 
  "bedenkt": 7566, 
  "I": 7567, 
  "Kor@@": 7568, 
  "destabilisieren": 7569, 
  "т@@": 7570, 
  "plötzliche": 7571, 
  "Hei@@": 7572, 
  "tsch@@": 7573, 
  "Nichtverbreitung": 7574, 
  "dige": 7575, 
  "ursprüngliche": 7576, 
  "Finanzwesen": 7577, 
  "post": 7578, 
  "Struktur@@": 7579, 
  "rechtzeitig": 7580, 
  "einigermaßen": 7581, 
  "Weltgemeinschaft": 7582, 
  "vorkommen": 7583, 
  "Belohnung": 7584, 
  "Premier": 7585, 
  "verteidigt": 7586, 
  "repräsentiert": 7587, 
  "Musik": 7588, 
  "Kilometer": 7589, 
  "Thomas": 7590, 
  "3.": 7591, 
  "deutlichen": 7592, 
  "....": 7593, 
  "Yale": 7594, 
  "zusehen": 7595, 
  "teilzunehmen": 7596, 
  "riskant": 7597, 
  "funktionierte": 7598, 
  "komplizierte": 7599, 
  "steuerliche": 7600, 
  "beurteilt": 7601, 
  "70er": 7602, 
  "Outsourcing": 7603, 
  "Kapitel": 7604, 
  "istischer": 7605, 
  "News": 7606, 
  "Philosophen": 7607, 
  "fte": 7608, 
  "stattfindet": 7609, 
  "großteils": 7610, 
  "Denkweise": 7611, 
  "veranlassen": 7612, 
  "ven": 7613, 
  "Autoritarismus": 7614, 
  "bürokratische": 7615, 
  "Gerhard": 7616, 
  "Dis@@": 7617, 
  "Umwandlung": 7618, 
  "Con@@": 7619, 
  "attraktiver": 7620, 
  "Machtübernahme": 7621, 
  "staat": 7622, 
  "tolerieren": 7623, 
  "Gleich@@": 7624, 
  "Bindung": 7625, 
  "bezahlte": 7626, 
  "geeinigt": 7627, 
  "längerfristigen": 7628, 
  "sozial": 7629, 
  "verdrängen": 7630, 
  "Amts@@": 7631, 
  "Naturkatastrophen": 7632, 
  "Welthandel": 7633, 
  "Labor": 7634, 
  "anzuwenden": 7635, 
  "Genen": 7636, 
  "befriedigen": 7637, 
  "Ärger": 7638, 
  "wertes": 7639, 
  "Motivation": 7640, 
  "teilten": 7641, 
  "Quo": 7642, 
  "Folgendes": 7643, 
  "Verschwinden": 7644, 
  "irreführend": 7645, 
  "ern@@": 7646, 
  "binden": 7647, 
  "mu@@": 7648, 
  "Katrina": 7649, 
  "mer": 7650, 
  "Infektionen": 7651, 
  "Gesundheitswesens": 7652, 
  "Horizont": 7653, 
  "vorgelegt": 7654, 
  "8.": 7655, 
  "Erleichterung": 7656, 
  "Musharrafs": 7657, 
  "Stammzellen": 7658, 
  "einmalige": 7659, 
  "Verletzungen": 7660, 
  "partei@@": 7661, 
  "Island": 7662, 
  "Winter": 7663, 
  "Lei@@": 7664, 
  "gewöhnliche": 7665, 
  "Ausrüstung": 7666, 
  "leistet": 7667, 
  "Gottes": 7668, 
  "Großmacht": 7669, 
  "willen": 7670, 
  "informiert": 7671, 
  "Wettbewerbs@@": 7672, 
  "freundliche": 7673, 
  "entwerfen": 7674, 
  "systemische": 7675, 
  "vorwiegend": 7676, 
  "Tribunal": 7677, 
  "heftig": 7678, 
  "südkoreanischen": 7679, 
  "Ro@@": 7680, 
  "Sport@@": 7681, 
  "Blockade": 7682, 
  "prinzipiell": 7683, 
  "Sowjets": 7684, 
  "Affäre": 7685, 
  "französisch": 7686, 
  "ru@@": 7687, 
  "komplizierter": 7688, 
  "Himmel": 7689, 
  "Landes@@": 7690, 
  "Viren": 7691, 
  "Werkzeug": 7692, 
  "Corporation": 7693, 
  "herausstellen": 7694, 
  "Devisen@@": 7695, 
  "nützliche": 7696, 
  "Legislative": 7697, 
  "eingestuft": 7698, 
  "biologische": 7699, 
  "Erdoğan": 7700, 
  "Mahmoud": 7701, 
  "instabilen": 7702, 
  "Wahlkampf@@": 7703, 
  "Geltung": 7704, 
  "leitete": 7705, 
  "qualifizierten": 7706, 
  "einhalten": 7707, 
  "Bankenaufsicht": 7708, 
  "tre@@": 7709, 
  "intervenieren": 7710, 
  "Gefangene": 7711, 
  "reformen": 7712, 
  "transatlantische": 7713, 
  "wandte": 7714, 
  "Kommunistische": 7715, 
  "kostspielige": 7716, 
  "Rettungsaktionen": 7717, 
  "Qaeda": 7718, 
  "Fehlschlag": 7719, 
  "veranlasste": 7720, 
  "feste": 7721, 
  "Verkehr": 7722, 
  "Ideal": 7723, 
  "oni@@": 7724, 
  "det": 7725, 
  "ente": 7726, 
  "gelebt": 7727, 
  "mangel": 7728, 
  "quellen": 7729, 
  "leichte": 7730, 
  "Quoten": 7731, 
  "finanzpolitischen": 7732, 
  "Kolonialismus": 7733, 
  "ate": 7734, 
  "Trennlinien": 7735, 
  "kreative": 7736, 
  "post@@": 7737, 
  "Selbstmord": 7738, 
  "Zivil@@": 7739, 
  "bestünde": 7740, 
  "einzuhalten": 7741, 
  "unzureichende": 7742, 
  "meinten": 7743, 
  "Herr": 7744, 
  "20@@": 7745, 
  "Entwicklungsland": 7746, 
  "flexibler": 7747, 
  "etliche": 7748, 
  "Satz": 7749, 
  "sse": 7750, 
  "ssen": 7751, 
  "Online": 7752, 
  "hafte": 7753, 
  "schwedische": 7754, 
  "irrelevant": 7755, 
  "mutige": 7756, 
  "wirtschaftlichem": 7757, 
  "chen@@": 7758, 
  "Buch@@": 7759, 
  "Guatemala": 7760, 
  "Rekapitalisierung": 7761, 
  "klinischen": 7762, 
  "beendete": 7763, 
  "prozesse": 7764, 
  "Bevölkerungsgruppen": 7765, 
  "mittel-": 7766, 
  "Protokolls": 7767, 
  "5.000": 7768, 
  "abnimmt": 7769, 
  "wiederherstellen": 7770, 
  "vertrieben": 7771, 
  "är": 7772, 
  "schwedischen": 7773, 
  "programms": 7774, 
  "Großmächte": 7775, 
  "Boden@@": 7776, 
  "Mario": 7777, 
  "ell@@": 7778, 
  "Denkens": 7779, 
  "stärkerer": 7780, 
  "groß@@": 7781, 
  "wachstums": 7782, 
  "ler@@": 7783, 
  "Festlegung": 7784, 
  "Abgeordnete": 7785, 
  "Wirtschaftslage": 7786, 
  "Selbstbestimmung": 7787, 
  "passierte": 7788, 
  "hinein": 7789, 
  "diplomatischer": 7790, 
  "rasant": 7791, 
  "leistung": 7792, 
  "Börsen": 7793, 
  "unerlässlich": 7794, 
  "Budget@@": 7795, 
  "treibende": 7796, 
  "unverändert": 7797, 
  "Zuversicht": 7798, 
  "zug": 7799, 
  "Wortes": 7800, 
  "zentren": 7801, 
  "verdanken": 7802, 
  "Immobilienmarkt": 7803, 
  "Orientierung": 7804, 
  "Ausbildungs@@": 7805, 
  "Kabinett": 7806, 
  "reflektiert": 7807, 
  "zuständig": 7808, 
  "Fantasie": 7809, 
  "san@@": 7810, 
  "Eurobonds": 7811, 
  "Schande": 7812, 
  "Nationalstaat": 7813, 
  "Gebrauch": 7814, 
  "Substanz": 7815, 
  "Filme": 7816, 
  "angehäuft": 7817, 
  "vermuten": 7818, 
  "1948": 7819, 
  "Wahlrecht": 7820, 
  "beschert": 7821, 
  "Abe": 7822, 
  "mäßig": 7823, 
  "Bestandteile": 7824, 
  "Periode": 7825, 
  "fer@@": 7826, 
  "meiste": 7827, 
  "kapitalistische": 7828, 
  "heftigen": 7829, 
  "angelegten": 7830, 
  "legitim": 7831, 
  "Mehr@@": 7832, 
  "Prestige": 7833, 
  "kräfte": 7834, 
  "katastrophale": 7835, 
  "konsumieren": 7836, 
  "würdigen": 7837, 
  "katholischen": 7838, 
  "stabiles": 7839, 
  "Patente": 7840, 
  "Uribe": 7841, 
  "dargelegt": 7842, 
  "gestern": 7843, 
  "55": 7844, 
  "nten": 7845, 
  "inn@@": 7846, 
  "basierend": 7847, 
  "Volksrepublik": 7848, 
  "kapitalistischen": 7849, 
  "atomare": 7850, 
  "chte": 7851, 
  "Sal@@": 7852, 
  "Geheimdienste": 7853, 
  "Eingriffe": 7854, 
  "erzählen": 7855, 
  "zusätzlicher": 7856, 
  "erwirtschaften": 7857, 
  "beliebt": 7858, 
  "Zustände": 7859, 
  "Staat@@": 7860, 
  "Ausmaße": 7861, 
  "verdrängt": 7862, 
  "verweigert": 7863, 
  "lichkeiten": 7864, 
  "überzeugende": 7865, 
  "ordnung": 7866, 
  "förderte": 7867, 
  "argumentierten": 7868, 
  "jahr": 7869, 
  "Sicherheitsnetz": 7870, 
  "Erliegen": 7871, 
  "plausibel": 7872, 
  "verlängert": 7873, 
  "Tyrannei": 7874, 
  "Vorzüge": 7875, 
  "inspiriert": 7876, 
  "enormes": 7877, 
  "methoden": 7878, 
  "wiederholten": 7879, 
  "Interview": 7880, 
  "düster": 7881, 
  "irgendeinen": 7882, 
  "sunnitische": 7883, 
  "Nachfolge": 7884, 
  "Repräsentanten": 7885, 
  "einbeziehen": 7886, 
  "liberaler": 7887, 
  "Förder@@": 7888, 
  "Einzelheiten": 7889, 
  "wahrhaft": 7890, 
  "tr@@": 7891, 
  "billige": 7892, 
  "bedient": 7893, 
  "umfangreichen": 7894, 
  "klassische": 7895, 
  "Kalte": 7896, 
  "rasches": 7897, 
  "Ich": 7898, 
  "effizienten": 7899, 
  "gefährdeten": 7900, 
  "stra@@": 7901, 
  "33": 7902, 
  "Kriminalität": 7903, 
  "verschafft": 7904, 
  "starb": 7905, 
  "Risikomanagement": 7906, 
  "theorie": 7907, 
  "Sitzung": 7908, 
  "Kommunikations@@": 7909, 
  "Ausgangspunkt": 7910, 
  "komplett": 7911, 
  "Dialogs": 7912, 
  "westeuropäischen": 7913, 
  "verluste": 7914, 
  "Ortega": 7915, 
  "Medikament": 7916, 
  "verzerrt": 7917, 
  "erstreckt": 7918, 
  "niedrigsten": 7919, 
  "zone": 7920, 
  "die@@": 7921, 
  "Bankenkrise": 7922, 
  "Chemie": 7923, 
  "gefühl": 7924, 
  "Etablierung": 7925, 
  "geh@@": 7926, 
  "Präsidentenwahl": 7927, 
  "ner": 7928, 
  "drohenden": 7929, 
  "verzögern": 7930, 
  "bildete": 7931, 
  "Großbanken": 7932, 
  "Beschäftigungszahlen": 7933, 
  "OPEC": 7934, 
  "zurückgezogen": 7935, 
  "riskante": 7936, 
  "he@@": 7937, 
  "kan@@": 7938, 
  "bürgerlichen": 7939, 
  "fehlte": 7940, 
  "demnach": 7941, 
  "einschlagen": 7942, 
  "Luxus": 7943, 
  "beständig": 7944, 
  "bezogen": 7945, 
  "José": 7946, 
  "multinationalen": 7947, 
  "schmerzhaft": 7948, 
  "Schrecken": 7949, 
  "Block": 7950, 
  "Missionen": 7951, 
  "eindeutigen": 7952, 
  "englischen": 7953, 
  "Nahrungsmitteln": 7954, 
  "vorbereiten": 7955, 
  "nissen": 7956, 
  "neigt": 7957, 
  "mächtiger": 7958, 
  "wahl@@": 7959, 
  "Gesetzgeber": 7960, 
  "ha@@": 7961, 
  "Silvio": 7962, 
  "besucht": 7963, 
  "zurückzahlen": 7964, 
  "weltweiter": 7965, 
  "Nebenwirkungen": 7966, 
  "aufzubringen": 7967, 
  "Gerichtshofes": 7968, 
  "Churchill": 7969, 
  "Oppositionsparteien": 7970, 
  "geknüpft": 7971, 
  "dringende": 7972, 
  "verwaltet": 7973, 
  "Eigen@@": 7974, 
  "Kanäle": 7975, 
  "Ausschluss": 7976, 
  "jüngerer": 7977, 
  "fri@@": 7978, 
  "ausgewählt": 7979, 
  "Übergangs@@": 7980, 
  "Führungsköpfe": 7981, 
  "enz": 7982, 
  "irische": 7983, 
  "frühe": 7984, 
  "Während": 7985, 
  "mer@@": 7986, 
  "herkömmlichen": 7987, 
  "schere": 7988, 
  "Südkoreas": 7989, 
  "qualitativ": 7990, 
  "Punkten": 7991, 
  "afrikanischer": 7992, 
  "simple": 7993, 
  "brutale": 7994, 
  "mittel@@": 7995, 
  "erzählte": 7996, 
  "ow": 7997, 
  "plötzlichen": 7998, 
  "bescheidenen": 7999, 
  "sexuellen": 8000, 
  "kulturell": 8001, 
  "verbrauchen": 8002, 
  "sozialistische": 8003, 
  "gründlich": 8004, 
  "verband": 8005, 
  "Post": 8006, 
  "explizit": 8007, 
  "Patent@@": 8008, 
  "anerkannte": 8009, 
  "Herz@@": 8010, 
  "Vernachlässigung": 8011, 
  "Verhaltens@@": 8012, 
  "Exzesse": 8013, 
  "beschuldigt": 8014, 
  "Bhutto": 8015, 
  "Intifada": 8016, 
  "einzigartig": 8017, 
  "Uruguay": 8018, 
  "DELHI": 8019, 
  "jederzeit": 8020, 
  "Konjunkturimpulse": 8021, 
  "gebildete": 8022, 
  "Kaiser": 8023, 
  "Brustkrebs": 8024, 
  "ausgeglichenen": 8025, 
  "aufzulösen": 8026, 
  "Ri@@": 8027, 
  "Sehnsucht": 8028, 
  "ethnisch": 8029, 
  "Heimat@@": 8030, 
  "Bombe": 8031, 
  "ergänzt": 8032, 
  "Transferleistungen": 8033, 
  "Palästinas": 8034, 
  "Realismus": 8035, 
  "halbe": 8036, 
  "deswegen": 8037, 
  "Sowjet@@": 8038, 
  "chinesisch": 8039, 
  "kombiniert": 8040, 
  "kauft": 8041, 
  "universellen": 8042, 
  "Werke": 8043, 
  "Säule": 8044, 
  "katholische": 8045, 
  "р@@": 8046, 
  "ran@@": 8047, 
  "0,7": 8048, 
  "120": 8049, 
  "einkommen": 8050, 
  "Petersburg": 8051, 
  "kapazitäten": 8052, 
  "Arbeitsgruppe": 8053, 
  "Kambodscha": 8054, 
  "erlangt": 8055, 
  "minister": 8056, 
  "gebildeten": 8057, 
  "Sierra": 8058, 
  "bestände": 8059, 
  "voraussichtlich": 8060, 
  "Name": 8061, 
  "1975": 8062, 
  "CDS": 8063, 
  "O": 8064, 
  "Lebensmittelpreise": 8065, 
  "quasi": 8066, 
  "gebrochen": 8067, 
  "brasilianische": 8068, 
  "bestreiten": 8069, 
  "potenzieller": 8070, 
  "Anstiegs": 8071, 
  "Versuchen": 8072, 
  "Unstimmigkeiten": 8073, 
  "Ermangelung": 8074, 
  "Populisten": 8075, 
  "ent": 8076, 
  "industrie": 8077, 
  "scheiterte": 8078, 
  "Ideale": 8079, 
  "Wurzel": 8080, 
  "Afghanen": 8081, 
  "schsten": 8082, 
  "Rollen": 8083, 
  "rückt": 8084, 
  "oberflächlich": 8085, 
  "ukrainische": 8086, 
  "Visier": 8087, 
  "Ärzten": 8088, 
  "halfen": 8089, 
  "behörden": 8090, 
  "mte": 8091, 
  "erend": 8092, 
  "sofortige": 8093, 
  "verwandelte": 8094, 
  "Überarbeitung": 8095, 
  "signifikant": 8096, 
  "plan": 8097, 
  "Selektion": 8098, 
  "Künstler": 8099, 
  "Tochter": 8100, 
  "reguliert": 8101, 
  "Holland": 8102, 
  "1978": 8103, 
  "Abgrund": 8104, 
  "heimgesucht": 8105, 
  "angehen": 8106, 
  "Defiziten": 8107, 
  "unterzeichnen": 8108, 
  "großzügige": 8109, 
  "angebliche": 8110, 
  "emotionale": 8111, 
  "ver": 8112, 
  "westlich": 8113, 
  "drosseln": 8114, 
  "All@@": 8115, 
  "Empfänger": 8116, 
  "Insolvenz": 8117, 
  "wissenschaftlich": 8118, 
  "signalisiert": 8119, 
  "dreht": 8120, 
  "Absturz": 8121, 
  "Distanz": 8122, 
  "Thaksins": 8123, 
  "Eis": 8124, 
  "Gesundheits-": 8125, 
  "gegen@@": 8126, 
  "Peso": 8127, 
  "stoffen": 8128, 
  "lehnt": 8129, 
  "islamischer": 8130, 
  "Werkzeuge": 8131, 
  "Truppe": 8132, 
  "Exporteure": 8133, 
  "anschließende": 8134, 
  "Valley": 8135, 
  "umfassendes": 8136, 
  "Rasse": 8137, 
  "festigen": 8138, 
  "Par@@": 8139, 
  "fürchtet": 8140, 
  "Clintons": 8141, 
  "Entfremdung": 8142, 
  "üblich": 8143, 
  "gehenden": 8144, 
  "Volksabstimmung": 8145, 
  "ante": 8146, 
  "Stanford": 8147, 
  "Bruttoinlandsprodukt": 8148, 
  "krank": 8149, 
  "Dokument": 8150, 
  "Arafats": 8151, 
  "Roadmap": 8152, 
  "Bord": 8153, 
  "Verstand": 8154, 
  "Koalitionen": 8155, 
  "potenzial": 8156, 
  "verhandelt": 8157, 
  "gleichgültig": 8158, 
  "Bewertungen": 8159, 
  "Ma@@": 8160, 
  "schte": 8161, 
  "Vergleiche": 8162, 
  "Vergabe": 8163, 
  "individueller": 8164, 
  "Kohlendioxidemissionen": 8165, 
  "derartig": 8166, 
  "drohende": 8167, 
  "9.": 8168, 
  "cht@@": 8169, 
  "unterschätzt": 8170, 
  "bemerkenswerter": 8171, 
  "Rücksicht": 8172, 
  "einflussreichen": 8173, 
  "Anlage@@": 8174, 
  "immensen": 8175, 
  "Universitäts@@": 8176, 
  "Development": 8177, 
  "Einstellungen": 8178, 
  "Sicherheits-": 8179, 
  "unhaltbar": 8180, 
  "einzuschätzen": 8181, 
  "vergleichsweise": 8182, 
  "zahllose": 8183, 
  "hingewiesen": 8184, 
  "Normalität": 8185, 
  "bo@@": 8186, 
  "eventuell": 8187, 
  "lautstark": 8188, 
  "Flügel": 8189, 
  "werk": 8190, 
  "begegnet": 8191, 
  "Eurokrise": 8192, 
  "Ju@@": 8193, 
  "Warschau": 8194, 
  "Fundamentalisten": 8195, 
  "Tibeter": 8196, 
  "befürchtet": 8197, 
  "nahme": 8198, 
  "ausschuss": 8199, 
  "enz@@": 8200, 
  "überprüft": 8201, 
  "Mehrwertsteuer": 8202, 
  "Beirut": 8203, 
  "Einschnitte": 8204, 
  "tender": 8205, 
  "zusammenbrechen": 8206, 
  "nervös": 8207, 
  "darstellte": 8208, 
  "jeglicher": 8209, 
  "Verbrauchs": 8210, 
  "Sprecher": 8211, 
  "Muammar": 8212, 
  "Flüchtlingen": 8213, 
  "Bürgerrechte": 8214, 
  "irgendeinem": 8215, 
  "boom": 8216, 
  "Ausstieg": 8217, 
  "angemessener": 8218, 
  "Wel@@": 8219, 
  "Bandbreite": 8220, 
  "strömen": 8221, 
  "begründete": 8222, 
  "christliche": 8223, 
  "korrekt": 8224, 
  "chronische": 8225, 
  "nt": 8226, 
  "Marktteilnehmer": 8227, 
  "Betriebe": 8228, 
  "College": 8229, 
  "Kontroverse": 8230, 
  "Libyens": 8231, 
  "vorzunehmen": 8232, 
  "bevorzugte": 8233, 
  "Plänen": 8234, 
  "enten": 8235, 
  "Tiananmen": 8236, 
  "versuche": 8237, 
  "ing@@": 8238, 
  "umkehren": 8239, 
  "Anschlägen": 8240, 
  "в@@": 8241, 
  "Regierungspolitik": 8242, 
  "empfunden": 8243, 
  "eingreifen": 8244, 
  "Plattform": 8245, 
  "fähigen": 8246, 
  "stürzte": 8247, 
  "Gerichts@@": 8248, 
  "zerschlagen": 8249, 
  "Unternehmertum": 8250, 
  "größerem": 8251, 
  "Burmas": 8252, 
  "ernähren": 8253, 
  "Mitleidenschaft": 8254, 
  "verwehrt": 8255, 
  "Gehirns": 8256, 
  "Wachstumsaussichten": 8257, 
  "gebeten": 8258, 
  "L": 8259, 
  "erschöpft": 8260, 
  "orientiert": 8261, 
  "Marktkräfte": 8262, 
  "alternden": 8263, 
  "technisch": 8264, 
  "Schiffe": 8265, 
  "Ressourcen@@": 8266, 
  "Wirtschaftswissenschaften": 8267, 
  "Fronten": 8268, 
  "wohlhabende": 8269, 
  "1956": 8270, 
  "niederländischen": 8271, 
  "einnahmen": 8272, 
  "aktionen": 8273, 
  "angriff": 8274, 
  "Crash": 8275, 
  "Wei@@": 8276, 
  "zuzu@@": 8277, 
  "Leone": 8278, 
  "Toten": 8279, 
  "regionen": 8280, 
  "produkten": 8281, 
  "Zoll@@": 8282, 
  "investitionen": 8283, 
  "letztere": 8284, 
  "Steuer-": 8285, 
  "ali@@": 8286, 
  "1000": 8287, 
  "Tel": 8288, 
  "x@@": 8289, 
  "des@@": 8290, 
  "Modellen": 8291, 
  "Manuel": 8292, 
  "territorialen": 8293, 
  "umfassenderen": 8294, 
  "elles": 8295, 
  "Schach@@": 8296, 
  "Wechsel": 8297, 
  "Im@@": 8298, 
  "Spender": 8299, 
  "Economic": 8300, 
  "freuen": 8301, 
  "ostasiatischen": 8302, 
  "Enthüllungen": 8303, 
  "bewahrt": 8304, 
  "Stationierung": 8305, 
  "zusammengebrochen": 8306, 
  "St.": 8307, 
  "www.@@": 8308, 
  "ebnen": 8309, 
  "Bio@@": 8310, 
  "arbeits@@": 8311, 
  "dunklen": 8312, 
  "schul@@": 8313, 
  "Energie-": 8314, 
  "Zwei": 8315, 
  "Handelsüberschuss": 8316, 
  "auszudrücken": 8317, 
  "Se@@": 8318, 
  "Nobelpreis": 8319, 
  "Funktionieren": 8320, 
  "einheiten": 8321, 
  "Xiaoping": 8322, 
  "erfuhr": 8323, 
  "konkreten": 8324, 
  "fluss": 8325, 
  "Betreuung": 8326, 
  "Büchern": 8327, 
  "ehr@@": 8328, 
  "Resolutionen": 8329, 
  "ort": 8330, 
  "Teilchen": 8331, 
  "tri@@": 8332, 
  "denkbar": 8333, 
  "drückt": 8334, 
  "Herangehensweise": 8335, 
  "durchbrechen": 8336, 
  "logische": 8337, 
  "geschürt": 8338, 
  "Verwandten": 8339, 
  "Thailands": 8340, 
  "dungen": 8341, 
  "tel@@": 8342, 
  "Staatsstreich": 8343, 
  "beantwortet": 8344, 
  "Zug": 8345, 
  "zuwenden": 8346, 
  "Gespräch": 8347, 
  "Zuflucht": 8348, 
  "Berechnung": 8349, 
  "Wachstumspakt": 8350, 
  "günstigen": 8351, 
  "einbringen": 8352, 
  "mäßigen": 8353, 
  "wovon": 8354, 
  "gerichtete": 8355, 
  "bekräftigen": 8356, 
  "Binnen@@": 8357, 
  "Prägung": 8358, 
  "eigenem": 8359, 
  "regelmäßigen": 8360, 
  "erheblicher": 8361, 
  "Hauses": 8362, 
  "lehnte": 8363, 
  "reinen": 8364, 
  "Einmarsch": 8365, 
  "Ko@@": 8366, 
  "rechtfertigt": 8367, 
  "w": 8368, 
  "stellungen": 8369, 
  "defizit": 8370, 
  "bittere": 8371, 
  "direkter": 8372, 
  "Vergeltung": 8373, 
  "Kapitalmärkten": 8374, 
  "fehlenden": 8375, 
  "ses": 8376, 
  "1974": 8377, 
  "erstaunliche": 8378, 
  "Gefängnissen": 8379, 
  "Bankensektor": 8380, 
  "km": 8381, 
  "Schau": 8382, 
  "mt": 8383, 
  "verlangte": 8384, 
  "Verbund": 8385, 
  "44": 8386, 
  "Medicare": 8387, 
  "weibliche": 8388, 
  "expansive": 8389, 
  "Gehalt": 8390, 
  "Palästinenserbehörde": 8391, 
  "Vermögenspreise": 8392, 
  "Konsums": 8393, 
  "min@@": 8394, 
  "gesucht": 8395, 
  "Gewohnheiten": 8396, 
  "markiert": 8397, 
  "mischen": 8398, 
  "Zuwendungen": 8399, 
  "umstrittenen": 8400, 
  "mon@@": 8401, 
  "Tahrir": 8402, 
  "fortgesetzten": 8403, 
  "Wahlgang": 8404, 
  "Kontinuität": 8405, 
  "rückgang": 8406, 
  "Friedensprozesses": 8407, 
  "Kongresspartei": 8408, 
  "asiatischer": 8409, 
  "Zahlungsausfall": 8410, 
  "inen": 8411, 
  "Exekutive": 8412, 
  "Entschuldigung": 8413, 
  "Kurs@@": 8414, 
  "Gläubigern": 8415, 
  "Psychologie": 8416, 
  "Überwindung": 8417, 
  "nordkoreanische": 8418, 
  "schi@@": 8419, 
  "Mailand": 8420, 
  "schlossen": 8421, 
  "Finanzdienstleistungen": 8422, 
  "bereitgestellt": 8423, 
  "haltung": 8424, 
  "wirkung": 8425, 
  "Irlands": 8426, 
  "möge": 8427, 
  "günstige": 8428, 
  "Dörfern": 8429, 
  "5.": 8430, 
  "Widerstands": 8431, 
  "Südeuropa": 8432, 
  "95": 8433, 
  "zahl": 8434, 
  "Abnahme": 8435, 
  "Mittelmeer": 8436, 
  "Einsparungen": 8437, 
  "vernachlässigt": 8438, 
  "Anlage": 8439, 
  "ganzes": 8440, 
  "Mittelklasse": 8441, 
  "achtziger": 8442, 
  "quoten": 8443, 
  "verhängt": 8444, 
  "Gedächtnis": 8445, 
  "militanten": 8446, 
  "Strafgerichtshof": 8447, 
  "größe": 8448, 
  "ität": 8449, 
  "liquide": 8450, 
  "Essen": 8451, 
  "Fische": 8452, 
  "Arbeitsmarktes": 8453, 
  "täuschen": 8454, 
  "wasser@@": 8455, 
  "stehe": 8456, 
  "satz": 8457, 
  "Ahmadinedschads": 8458, 
  "Ziels": 8459, 
  "Zwischen@@": 8460, 
  "anhaltender": 8461, 
  "Verfassungsvertrag": 8462, 
  "do@@": 8463, 
  "beispiellosen": 8464, 
  "düsteren": 8465, 
  "Wirtschaftsmacht": 8466, 
  "1933": 8467, 
  "Anreizen": 8468, 
  "au": 8469, 
  "Präsidentschaftswahlkampf": 8470, 
  "Ger@@": 8471, 
  "implizit": 8472, 
  "Milton": 8473, 
  "Teils": 8474, 
  "gekauft": 8475, 
  "Ähnlichkeiten": 8476, 
  "Afrikanischen": 8477, 
  "Vorgänge": 8478, 
  "fundamentalen": 8479, 
  "Auslands@@": 8480, 
  "Grundlagenforschung": 8481, 
  "Raketenabwehr": 8482, 
  "kapital@@": 8483, 
  "Richtungen": 8484, 
  "For@@": 8485, 
  "gewidmet": 8486, 
  "gekürzt": 8487, 
  "Gehalts@@": 8488, 
  "Regimewechsel": 8489, 
  "systematische": 8490, 
  "Feindschaft": 8491, 
  "erworben": 8492, 
  "darzustellen": 8493, 
  "Hinter@@": 8494, 
  "gesamtwirtschaftliche": 8495, 
  "Vereinigte": 8496, 
  "Wechselkursen": 8497, 
  "Kaschmir": 8498, 
  "nis": 8499, 
  "zwingend": 8500, 
  "prominente": 8501, 
  "Pessimismus": 8502, 
  "regierungen": 8503, 
  "Anschuldigungen": 8504, 
  "spezifischen": 8505, 
  "з@@": 8506, 
  "Sicherheiten": 8507, 
  "sprache": 8508, 
  "Füßen": 8509, 
  "Guten": 8510, 
  "Platzen": 8511, 
  "Weltmeisterschaft": 8512, 
  "Steuerhinterziehung": 8513, 
  "lan@@": 8514, 
  "Weltmacht": 8515, 
  "Pause": 8516, 
  "д@@": 8517, 
  "währenden": 8518, 
  "modelle": 8519, 
  "künstliche": 8520, 
  "Rückhalt": 8521, 
  "Was": 8522, 
  "bank": 8523, 
  "präsentierte": 8524, 
  "libyschen": 8525, 
  "Flugzeuge": 8526, 
  "one": 8527, 
  "Kürzung": 8528, 
  "Republikanern": 8529, 
  "Armutsbekämpfung": 8530, 
  "Telefon@@": 8531, 
  "cher": 8532, 
  "Neuseeland": 8533, 
  "Dubai": 8534, 
  "beruhenden": 8535, 
  "schwerwiegende": 8536, 
  "Kennedy": 8537, 
  "zusammenzu@@": 8538, 
  "unterminiert": 8539, 
  "unfair": 8540, 
  "Saatgut": 8541, 
  "chronischen": 8542, 
  "gängige": 8543, 
  "Kollaps": 8544, 
  "Einwände": 8545, 
  "lieferte": 8546, 
  "mächtigsten": 8547, 
  "ineffiziente": 8548, 
  "produzierten": 8549, 
  "Stahl": 8550, 
  "anschließen": 8551, 
  "Senkungen": 8552, 
  "Völkerrecht": 8553, 
  "Anpassungs@@": 8554, 
  "Lukaschenko": 8555, 
  "Empörung": 8556, 
  "ausbreiten": 8557, 
  "Wertpapieren": 8558, 
  "erender": 8559, 
  "dokumentiert": 8560, 
  "Beweisen": 8561, 
  "gegenüber@@": 8562, 
  "verschuldeten": 8563, 
  "abzuschließen": 8564, 
  "moralisches": 8565, 
  "manipuliert": 8566, 
  "Abneigung": 8567, 
  "leugnen": 8568, 
  "Radikalen": 8569, 
  "Bangladesh": 8570, 
  "Rahmens": 8571, 
  "vielerorts": 8572, 
  "eu@@": 8573, 
  "umzukehren": 8574, 
  "konsequent": 8575, 
  "Aktionsplan": 8576, 
  "Charisma": 8577, 
  "geringerer": 8578, 
  "erneuerbaren": 8579, 
  "bereichen": 8580, 
  "finanzpolitische": 8581, 
  "Mainstream": 8582, 
  "Ratschläge": 8583, 
  "й": 8584, 
  "winzigen": 8585, 
  "Unsinn": 8586, 
  "Infektionskrankheiten": 8587, 
  "ungerecht": 8588, 
  "arbeiter": 8589, 
  "universelle": 8590, 
  "to@@": 8591, 
  "Fortschritten": 8592, 
  "kommerzielle": 8593, 
  "geplante": 8594, 
  "düstere": 8595, 
  "Faktum": 8596, 
  "abzuschaffen": 8597, 
  "besetzen": 8598, 
  "Reihen": 8599, 
  "Steuersätze": 8600, 
  "Anwar": 8601, 
  "griffen": 8602, 
  "Häftlinge": 8603, 
  "Auslöser": 8604, 
  "warf": 8605, 
  "schten": 8606, 
  "richtete": 8607, 
  "stoffe": 8608, 
  "schutz": 8609, 
  "importiert": 8610, 
  "Außenministerium": 8611, 
  "unvermeidlichen": 8612, 
  "Krisenzeiten": 8613, 
  "mp@@": 8614, 
  "reichte": 8615, 
  "da@@": 8616, 
  "verlässt": 8617, 
  "beschränkten": 8618, 
  "Schichten": 8619, 
  "vorgestellt": 8620, 
  "Bombardierung": 8621, 
  "grad": 8622, 
  "Frühlings": 8623, 
  "lo@@": 8624, 
  "alisiert": 8625, 
  "Konjunkturrückgang": 8626, 
  "Hektar": 8627, 
  "Gründungs@@": 8628, 
  "versprachen": 8629, 
  "reichenden": 8630, 
  "verläuft": 8631, 
  "allmähliche": 8632, 
  "bereitwillig": 8633, 
  "Adam": 8634, 
  "Che": 8635, 
  "langsame": 8636, 
  "amerikanisches": 8637, 
  "läge": 8638, 
  "positiver": 8639, 
  "schafts@@": 8640, 
  "zugänglich": 8641, 
  "lige": 8642, 
  "gedient": 8643, 
  "Freundschaft": 8644, 
  "Wer@@": 8645, 
  "Patriotismus": 8646, 
  "berüchtigten": 8647, 
  "Ölreserven": 8648, 
  "bu@@": 8649, 
  "Geheimnis": 8650, 
  "gravierende": 8651, 
  "gerieten": 8652, 
  "aufgebracht": 8653, 
  "repräsentieren": 8654, 
  "Industrie-": 8655, 
  "jemandem": 8656, 
  "ck": 8657, 
  "feindlichen": 8658, 
  "nuklearer": 8659, 
  "verst@@": 8660, 
  "Drei": 8661, 
  "Fülle": 8662, 
  "pazifischen": 8663, 
  "ständen": 8664, 
  "versteckt": 8665, 
  "1947": 8666, 
  "Brüder": 8667, 
  "Nahrungs@@": 8668, 
  "Kom@@": 8669, 
  "Eintritt": 8670, 
  "klären": 8671, 
  "Steuerzahlern": 8672, 
  "Todesopfer": 8673, 
  "Intensität": 8674, 
  "ablehnt": 8675, 
  "hartnäckig": 8676, 
  "lin@@": 8677, 
  "durchsetzt": 8678, 
  "gel": 8679, 
  "schlugen": 8680, 
  "leere": 8681, 
  "euch": 8682, 
  "oberen": 8683, 
  "Standard@@": 8684, 
  "heimlich": 8685, 
  "Margaret": 8686, 
  "geld": 8687, 
  "Ehe": 8688, 
  "Moderne": 8689, 
  "uneingeschränkte": 8690, 
  "gere": 8691, 
  "Mörder": 8692, 
  "breiteren": 8693, 
  "Tätigkeiten": 8694, 
  "Pattsituation": 8695, 
  "art": 8696, 
  "gang": 8697, 
  "Sonnen@@": 8698, 
  "IAEA": 8699, 
  "Konferenzen": 8700, 
  "Jugend@@": 8701, 
  "bar@@": 8702, 
  "verschwendet": 8703, 
  "vornherein": 8704, 
  "Schatzanleihen": 8705, 
  "Kenntnisse": 8706, 
  "entfernen": 8707, 
  "beizutreten": 8708, 
  "schwersten": 8709, 
  "berichtete": 8710, 
  "Abstammung": 8711, 
  "Wertpapier@@": 8712, 
  "bitteren": 8713, 
  "strikte": 8714, 
  "zugegebenermaßen": 8715, 
  "beläuft": 8716, 
  "psychologische": 8717, 
  "unklug": 8718, 
  "kurdischen": 8719, 
  "beanspruchen": 8720, 
  "erfassen": 8721, 
  "abhängige": 8722, 
  "Verteidiger": 8723, 
  "IStGH": 8724, 
  "kommission": 8725, 
  "angeschlossen": 8726, 
  "Gehör": 8727, 
  "Senatoren": 8728, 
  "woher": 8729, 
  "Timoschenko": 8730, 
  "Journal": 8731, 
  "Schnitt": 8732, 
  "gegeneinander": 8733, 
  "Salvador": 8734, 
  "Geräte": 8735, 
  "Leistungsbilanz": 8736, 
  "demonstriert": 8737, 
  "mutig": 8738, 
  "entgegenzutreten": 8739, 
  "nah": 8740, 
  "mes": 8741, 
  "Benzin": 8742, 
  "Ur@@": 8743, 
  "x": 8744, 
  "vorlegen": 8745, 
  "Martin": 8746, 
  "1971": 8747, 
  "gew@@": 8748, 
  "Sanierung": 8749, 
  "Strahlung": 8750, 
  "Rückschlag": 8751, 
  "Mitt": 8752, 
  "befasst": 8753, 
  "sofortigen": 8754, 
  "Fluch": 8755, 
  "Sharons": 8756, 
  "Offensive": 8757, 
  "Eigenheim@@": 8758, 
  "ms": 8759, 
  "ineffizient": 8760, 
  "Suu": 8761, 
  "zentrales": 8762, 
  "absurd": 8763, 
  "vorübergehenden": 8764, 
  "informieren": 8765, 
  "par@@": 8766, 
  "attraktive": 8767, 
  "herauszu@@": 8768, 
  "Florida": 8769, 
  "Vermögens": 8770, 
  "Hosni": 8771, 
  "ßen": 8772, 
  "aufzuheben": 8773, 
  "teil@@": 8774, 
  "Zhao": 8775, 
  "anschließenden": 8776, 
  "wirtschaftspolitischen": 8777, 
  "Pentagon": 8778, 
  "anhaltend": 8779, 
  "Konjunkturmaßnahmen": 8780, 
  "werdenden": 8781, 
  "demzufolge": 8782, 
  "Mor@@": 8783, 
  "volles": 8784, 
  "Gesam@@": 8785, 
  "kommunizieren": 8786, 
  "Beschaffenheit": 8787, 
  "ро@@": 8788, 
  "aufgeworfen": 8789, 
  "angekommen": 8790, 
  "Wunschdenken": 8791, 
  "Nutz@@": 8792, 
  "Büros": 8793, 
  "sum@@": 8794, 
  "Zukunfts@@": 8795, 
  "ren": 8796, 
  "Literatur": 8797, 
  "internationalem": 8798, 
  "best@@": 8799, 
  "во@@": 8800, 
  "Diabetes": 8801, 
  "Übereinkünfte": 8802, 
  "region": 8803, 
  "angegangen": 8804, 
  "Freihandelszone": 8805, 
  "versichert": 8806, 
  "abgeschnitten": 8807, 
  "akzeptierte": 8808, 
  "Hauptproblem": 8809, 
  "ener@@": 8810, 
  "Ihr": 8811, 
  "grenze": 8812, 
  "Rebellion": 8813, 
  "ausrichten": 8814, 
  "Venezuelas": 8815, 
  "Nuklearwaffen": 8816, 
  "T": 8817, 
  "Geschäftswelt": 8818, 
  "befindlichen": 8819, 
  "sogenannte": 8820, 
  "Nachkriegs@@": 8821, 
  "protektionistischen": 8822, 
  "antizyklische": 8823, 
  "geschweige": 8824, 
  "Betriebs@@": 8825, 
  "unterschätzen": 8826, 
  "Brutalität": 8827, 
  "vergangen": 8828, 
  "saubere": 8829, 
  "tion@@": 8830, 
  "orthodoxe": 8831, 
  "Ausländern": 8832, 
  "jahre": 8833, 
  "wiederholte": 8834, 
  "bau@@": 8835, 
  "Gehirn@@": 8836, 
  "ehrgeizigen": 8837, 
  "städtische": 8838, 
  "Temperatur": 8839, 
  "im@@": 8840, 
  "form@@": 8841, 
  "ärer": 8842, 
  "Erwachsenen": 8843, 
  "Importen": 8844, 
  "Friedensverhandlungen": 8845, 
  "Bargeld": 8846, 
  "ausnutzen": 8847, 
  "Arabische": 8848, 
  "begründen": 8849, 
  "Euroraums": 8850, 
  "Pflichten": 8851, 
  "2014": 8852, 
  "Vorsprung": 8853, 
  "Vorschlägen": 8854, 
  "entfernten": 8855, 
  "fünfzehn": 8856, 
  "aktueller": 8857, 
  "Damaskus": 8858, 
  "Energieverbrauch": 8859, 
  "auszusetzen": 8860, 
  "einstimmig": 8861, 
  "angewendet": 8862, 
  "großartige": 8863, 
  "Nahrungsmittelproduktion": 8864, 
  "ks": 8865, 
  "Entscheidungsträgern": 8866, 
  "Entlassung": 8867, 
  "beispiellose": 8868, 
  "CIA": 8869, 
  "geschrumpft": 8870, 
  "bes@@": 8871, 
  "dicht": 8872, 
  "nutzte": 8873, 
  "scheren": 8874, 
  "ari@@": 8875, 
  "Kutschma": 8876, 
  "Investitionstätigkeit": 8877, 
  "verfügten": 8878, 
  "gewählter": 8879, 
  "heimischen": 8880, 
  "Normalisierung": 8881, 
  "Rettungspakete": 8882, 
  "verhängen": 8883, 
  "Bailout": 8884, 
  "Aspekten": 8885, 
  "gestimmt": 8886, 
  "Kauf@@": 8887, 
  "Zahlungsbilanz@@": 8888, 
  "skandinavischen": 8889, 
  "aufmerksam": 8890, 
  "Tra@@": 8891, 
  "überstehen": 8892, 
  "Feminismus": 8893, 
  "2,3": 8894, 
  "Saakaschwili": 8895, 
  "32": 8896, 
  "deutscher": 8897, 
  "heftige": 8898, 
  "sonstigen": 8899, 
  "gers": 8900, 
  "Erscheinung": 8901, 
  "konsolidieren": 8902, 
  "ligen": 8903, 
  "lä@@": 8904, 
  "fragwürdig": 8905, 
  "Konflikt@@": 8906, 
  "untragbar": 8907, 
  "strenger": 8908, 
  "Garde": 8909, 
  "übertreffen": 8910, 
  "tier@@": 8911, 
  "handel": 8912, 
  "haushaltspolitischen": 8913, 
  "gelegen": 8914, 
  "Schritten": 8915, 
  "anteil": 8916, 
  "Misswirtschaft": 8917, 
  "ansteigt": 8918, 
  "Übernahmen": 8919, 
  "Nase": 8920, 
  "anerkannten": 8921, 
  "problemlos": 8922, 
  "unschuldige": 8923, 
  "einzutreten": 8924, 
  "Ungleichgewichten": 8925, 
  "Blutvergießen": 8926, 
  "Atomwaffen@@": 8927, 
  "Bangladesch": 8928, 
  "reif": 8929, 
  "Öls": 8930, 
  "firmen": 8931, 
  "Armeen": 8932, 
  "hal@@": 8933, 
  "verbietet": 8934, 
  "heim@@": 8935, 
  "Ladens": 8936, 
  "Arroganz": 8937, 
  "anzuschließen": 8938, 
  "aussprechen": 8939, 
  "Tri@@": 8940, 
  "formell": 8941, 
  "Boni": 8942, 
  "Zufriedenheit": 8943, 
  "verkehr": 8944, 
  "ertragen": 8945, 
  "29": 8946, 
  "Reis": 8947, 
  "Handelsgespräche": 8948, 
  "stand@@": 8949, 
  "Schlüsselrolle": 8950, 
  "einzunehmen": 8951, 
  "Gewissheit": 8952, 
  "lief": 8953, 
  "Neben@@": 8954, 
  "Ber@@": 8955, 
  "Geheim@@": 8956, 
  "Si@@": 8957, 
  "unvorstellbar": 8958, 
  "wi@@": 8959, 
  "47": 8960, 
  "istisch": 8961, 
  "Kolonien": 8962, 
  "permanenten": 8963, 
  "abel": 8964, 
  "Internets": 8965, 
  "systemischen": 8966, 
  "Karl": 8967, 
  "verschuldet": 8968, 
  "Universum": 8969, 
  "beschaffen": 8970, 
  "Taktiken": 8971, 
  "Hunde": 8972, 
  "alisierten": 8973, 
  "ungsp@@": 8974, 
  "stören": 8975, 
  "entschlossene": 8976, 
  "dende": 8977, 
  "aufgelöst": 8978, 
  "Ex@@": 8979, 
  "Bankenunion": 8980, 
  "bricht": 8981, 
  "punkten": 8982, 
  "mitglieder": 8983, 
  "tlich": 8984, 
  "Gesundheitssystem": 8985, 
  "Staatsschuldenkrise": 8986, 
  "Dienstleistungs@@": 8987, 
  "Bro@@": 8988, 
  "Wissenschafts@@": 8989, 
  "vorteilhaft": 8990, 
  "Zentren": 8991, 
  "steile": 8992, 
  "Albanien": 8993, 
  "Festland": 8994, 
  "Ankunft": 8995, 
  "wechsel": 8996, 
  "suchte": 8997, 
  "anfälliger": 8998, 
  "halte": 8999, 
  "Verzicht": 9000, 
  "tens": 9001, 
  "heben": 9002, 
  "Vergewaltigung": 9003, 
  "ösen": 9004, 
  "schnelles": 9005, 
  "spiel@@": 9006, 
  "Demonstration": 9007, 
  "Ausschreitungen": 9008, 
  "Economy": 9009, 
  "Währungsaufwertung": 9010, 
  "Silicon": 9011, 
  "rational": 9012, 
  "schwächere": 9013, 
  "verwendeten": 9014, 
  "Inspektoren": 9015, 
  "geratenen": 9016, 
  "konzentrierten": 9017, 
  "einnimmt": 9018, 
  "ungs-": 9019, 
  "bevorsteht": 9020, 
  "geschlossene": 9021, 
  "hierauf": 9022, 
  "14.": 9023, 
  "erarbeiten": 9024, 
  "Demokratische": 9025, 
  "Liberia": 9026, 
  "ma": 9027, 
  "Armuts@@": 9028, 
  "ре@@": 9029, 
  "Finanzwirtschaft": 9030, 
  "auszulösen": 9031, 
  "änderungen": 9032, 
  "Zinszahlungen": 9033, 
  "Einkommensunterschiede": 9034, 
  "genen": 9035, 
  "aufgezeigt": 9036, 
  "Panzer": 9037, 
  "mor@@": 9038, 
  "kredite": 9039, 
  "ken@@": 9040, 
  "Zeugen": 9041, 
  "sektoren": 9042, 
  "Orthodoxie": 9043, 
  "Rumäniens": 9044, 
  "provozieren": 9045, 
  "riskanten": 9046, 
  "1914": 9047, 
  "zweifeln": 9048, 
  "Metapher": 9049, 
  "е@@": 9050, 
  "Solidarnosc": 9051, 
  "abweichen": 9052, 
  "leidenden": 9053, 
  "vorzuziehen": 9054, 
  "Nichtregierungsorganisationen": 9055, 
  "Hinwendung": 9056, 
  "brauchten": 9057, 
  "erzwingen": 9058, 
  "Träume": 9059, 
  "ländliche": 9060, 
  "zuge@@": 9061, 
  "ggf.": 9062, 
  "Mitgefühl": 9063, 
  "Umweltschäden": 9064, 
  "1949": 9065, 
  "Gültigkeit": 9066, 
  "Blatt": 9067, 
  "Sozialstaat": 9068, 
  "daneben": 9069, 
  "ton": 9070, 
  "Mrd.": 9071, 
  "Krankenversicherung": 9072, 
  "Aggression": 9073, 
  "ose": 9074, 
  "Nicaragua": 9075, 
  "eingehalten": 9076, 
  "Finanzministeriums": 9077, 
  "ziel": 9078, 
  "ausgearbeitet": 9079, 
  "Abtreibung": 9080, 
  "satzes": 9081, 
  "Verstöße": 9082, 
  "Befragten": 9083, 
  "definierte": 9084, 
  "Nachkommen": 9085, 
  "gründet": 9086, 
  "gebe": 9087, 
  "Flug@@": 9088, 
  "9@@": 9089, 
  "blase": 9090, 
  "vermindern": 9091, 
  "liberal": 9092, 
  "Zentralbank@@": 9093, 
  "ierten": 9094, 
  "Finanzregulierung": 9095, 
  "positives": 9096, 
  "Angeles": 9097, 
  "tin": 9098, 
  "besteuern": 9099, 
  "Berufung": 9100, 
  "unterzogen": 9101, 
  "Welthandels": 9102, 
  "opfern": 9103, 
  "verabschiedeten": 9104, 
  "kontinuierlich": 9105, 
  "Wohnungs@@": 9106, 
  "angelangt": 9107, 
  "Neue": 9108, 
  "Gewissen": 9109, 
  "lungen": 9110, 
  "feindliche": 9111, 
  "entzogen": 9112, 
  "diger": 9113, 
  "asiatisch": 9114, 
  "Karibik": 9115, 
  "30er": 9116, 
  "Qualifikationen": 9117, 
  "kündigte": 9118, 
  "ordnungsgemäß": 9119, 
  "verließ": 9120, 
  "Aufstiegs": 9121, 
  "Krebs@@": 9122, 
  "Foundation": 9123, 
  "Transfer": 9124, 
  "ine": 9125, 
  "chs": 9126, 
  "Holländer": 9127, 
  "Religions@@": 9128, 
  "multi@@": 9129, 
  "beschweren": 9130, 
  "umgewandelt": 9131, 
  "rationalen": 9132, 
  "Einzelstaaten": 9133, 
  "Medwedews": 9134, 
  "ws": 9135, 
  "Machthabern": 9136, 
  "Geschäften": 9137, 
  "Obergrenze": 9138, 
  "konstant": 9139, 
  "Vorfälle": 9140, 
  "Geschehnisse": 9141, 
  "minimal": 9142, 
  "SOZ": 9143, 
  "geschenkt": 9144, 
  "beschränkte": 9145, 
  "starkem": 9146, 
  "emotionalen": 9147, 
  "riskiert": 9148, 
  "drängten": 9149, 
  "wünscht": 9150, 
  "bildeten": 9151, 
  "Ähnlichkeit": 9152, 
  "Erfolgs": 9153, 
  "kor@@": 9154, 
  "reich@@": 9155, 
  "Reinhart": 9156, 
  "bat": 9157, 
  "Anlegern": 9158, 
  "kurs": 9159, 
  "zulässt": 9160, 
  "schädliche": 9161, 
  "Reichtums": 9162, 
  "Entwicklungsbank": 9163, 
  "Kämpfen": 9164, 
  "Strauss": 9165, 
  "and@@": 9166, 
  "6.": 9167, 
  "Hitlers": 9168, 
  "Reporter": 9169, 
  "Finger": 9170, 
  "nächster": 9171, 
  "Ahnung": 9172, 
  "10.": 9173, 
  "verteilung": 9174, 
  "dungs@@": 9175, 
  "Kostunica": 9176, 
  "feindlich": 9177, 
  "Aktionären": 9178, 
  "sorgten": 9179, 
  "Behandlungs@@": 9180, 
  "Parasiten": 9181, 
  "Islams": 9182, 
  "Bin": 9183, 
  "Gerüchte": 9184, 
  "WikiLeaks": 9185, 
  "Schuldverschreibungen": 9186, 
  "beachten": 9187, 
  "nigerianischen": 9188, 
  "flexibel": 9189, 
  "Studierenden": 9190, 
  "Wien": 9191, 
  "Mehrheiten": 9192, 
  "Erkrankung": 9193, 
  "Anreicherung": 9194, 
  "Massenmedien": 9195, 
  "Fleisch": 9196, 
  "strategisches": 9197, 
  "sexueller": 9198, 
  "Meeres@@": 9199, 
  "europäisch": 9200, 
  "moderaten": 9201, 
  "Anlageinvestitionen": 9202, 
  "technologischer": 9203, 
  "debatte": 9204, 
  "Dimensionen": 9205, 
  "mindern": 9206, 
  "tigere": 9207, 
  "ausgebildeten": 9208, 
  "national": 9209, 
  "Group": 9210, 
  "Eigentums": 9211, 
  "festgehalten": 9212, 
  "mittelfristige": 9213, 
  "kooperieren": 9214, 
  "Gefüge": 9215, 
  "hinten": 9216, 
  "zuversichtlich": 9217, 
  "besessen": 9218, 
  "Dividenden": 9219, 
  "unterschieden": 9220, 
  "Indischen": 9221, 
  "fünf@@": 9222, 
  "39": 9223, 
  "Haushalts-": 9224, 
  "gehaltenen": 9225, 
  "Falken": 9226, 
  "wesens": 9227, 
  "verlangten": 9228, 
  "schafften": 9229, 
  "gesellschaftlicher": 9230, 
  "gründete": 9231, 
  "Konsumausgaben": 9232, 
  "Betroffenen": 9233, 
  "gungs@@": 9234, 
  "Chodorkowski": 9235, 
  "erst@@": 9236, 
  "Ö@@": 9237, 
  "for@@": 9238, 
  "Claude": 9239, 
  "betrachte": 9240, 
  "unterzeichneten": 9241, 
  "mten": 9242, 
  "Kontrast": 9243, 
  "Dominique": 9244, 
  "lauter": 9245, 
  "Augen@@": 9246, 
  "gedeihen": 9247, 
  "verstorbenen": 9248, 
  "Handelsschranken": 9249, 
  "1,6": 9250, 
  "militante": 9251, 
  "Vermittlung": 9252, 
  "neuesten": 9253, 
  "erteilen": 9254, 
  "dringender": 9255, 
  "Wohlfahrts@@": 9256, 
  "Aktivismus": 9257, 
  "beitrug": 9258, 
  "verlieh": 9259, 
  "einzuschlagen": 9260, 
  "geschätzte": 9261, 
  "maßgeblich": 9262, 
  "Einzug": 9263, 
  "zurückzuziehen": 9264, 
  "Zeitraums": 9265, 
  "ökonomie": 9266, 
  "Beilegung": 9267, 
  "fahr@@": 9268, 
  "schaffte": 9269, 
  "Geburtenraten": 9270, 
  "Nachbarstaaten": 9271, 
  "unk@@": 9272, 
  "aufgedeckt": 9273, 
  "vorzu@@": 9274, 
  "Rentner": 9275, 
  "inner@@": 9276, 
  "William": 9277, 
  "Streifen": 9278, 
  "herkömmliche": 9279, 
  "60er": 9280, 
  "Infrastruktur@@": 9281, 
  "Sender": 9282, 
  "Kyi": 9283, 
  "Ki": 9284, 
  "Planwirtschaft": 9285, 
  "Überhitzung": 9286, 
  "bestärkt": 9287, 
  "Fans": 9288, 
  "sicherte": 9289, 
  "irgendjemand": 9290, 
  "Einsätze": 9291, 
  "gezahlt": 9292, 
  "Niedergangs": 9293, 
  "versagen": 9294, 
  "unternimmt": 9295, 
  "Debakel": 9296, 
  "konservativer": 9297, 
  "zig": 9298, 
  "Mindest@@": 9299, 
  "Uganda": 9300, 
  "Chavez": 9301, 
  "Hunderttausende": 9302, 
  "land@@": 9303, 
  "ehrliche": 9304, 
  "Talente": 9305, 
  "н@@": 9306, 
  "verlässliche": 9307, 
  "pumpen": 9308, 
  "Rang": 9309, 
  "Mikroben": 9310, 
  "Abwärtsspirale": 9311, 
  "G7": 9312, 
  "Nachhinein": 9313, 
  "Destabilisierung": 9314, 
  "Wirtschaftstheorie": 9315, 
  "Serie": 9316, 
  "Verkehrs@@": 9317, 
  "erfolglos": 9318, 
  "Alten": 9319, 
  "Review": 9320, 
  "ausdrückte": 9321, 
  "erei": 9322, 
  "aktivitäten": 9323, 
  "gegenseitiger": 9324, 
  "eingenommen": 9325, 
  "Sprung": 9326, 
  "30.000": 9327, 
  "Gel@@": 9328, 
  "zt": 9329, 
  "Kontraktion": 9330, 
  "ef@@": 9331, 
  "schulen": 9332, 
  "ernennen": 9333, 
  "Aktienpreise": 9334, 
  "position": 9335, 
  "ka": 9336, 
  "abgenommen": 9337, 
  "ings": 9338, 
  "Likud": 9339, 
  "1984": 9340, 
  "ernannte": 9341, 
  "Kriterium": 9342, 
  "erwähnten": 9343, 
  "gelenkt": 9344, 
  "Heuchelei": 9345, 
  "pp@@": 9346, 
  "eindämmen": 9347, 
  "aufgeteilt": 9348, 
  "Vorreiter": 9349, 
  "gewaltsame": 9350, 
  "Orte": 9351, 
  "Verschärfung": 9352, 
  "Katar": 9353, 
  "Delhi": 9354, 
  "Ämter": 9355, 
  "warnt": 9356, 
  "Ausarbeitung": 9357, 
  "Zugangs": 9358, 
  "d.": 9359, 
  "Dienstleistungssektor": 9360, 
  "dahingehend": 9361, 
  "Weiße": 9362, 
  "Ökosysteme": 9363, 
  "Episoden": 9364, 
  "woanders": 9365, 
  "andauern": 9366, 
  "Antiamerikanismus": 9367, 
  "Gerede": 9368, 
  "ermitteln": 9369, 
  "Präsidentschaftskandidat": 9370, 
  "Berichts": 9371, 
  "Gemeinde": 9372, 
  "Inhalt": 9373, 
  "Herausforderer": 9374, 
  "Palette": 9375, 
  "beunruhigt": 9376, 
  "Slobodan": 9377, 
  "produktiver": 9378, 
  "ah": 9379, 
  "protestieren": 9380, 
  "Kohle@@": 9381, 
  "wen": 9382, 
  "ator": 9383, 
  "Quote": 9384, 
  "kommerziellen": 9385, 
  "Gemeinschafts@@": 9386, 
  "Litauen": 9387, 
  "wandern": 9388, 
  "grund@@": 9389, 
  "Weltkrieges": 9390, 
  "Verhandlungstisch": 9391, 
  "grenzüberschreitenden": 9392, 
  "Luftverschmutzung": 9393, 
  "geschätzten": 9394, 
  "Gruppierung": 9395, 
  "Gute": 9396, 
  "Wissenschaften": 9397, 
  "ner@@": 9398, 
  "immens": 9399, 
  "START": 9400, 
  "engsten": 9401, 
  "zugestimmt": 9402, 
  "gewannen": 9403, 
  "Gast@@": 9404, 
  "umstritten": 9405, 
  "begeistert": 9406, 
  "Vizepräsidenten": 9407, 
  "к@@": 9408, 
  "vereinbart": 9409, 
  "Hafen": 9410, 
  "Lo@@": 9411, 
  "Dr.": 9412, 
  "Spiegel": 9413, 
  "vernünftiger": 9414, 
  "Handelns": 9415, 
  "verfallen": 9416, 
  "Wachstums-": 9417, 
  "vergangene": 9418, 
  "ders": 9419, 
  "flexible": 9420, 
  "Man@@": 9421, 
  "Gewalttaten": 9422, 
  "Boot": 9423, 
  "Spielen": 9424, 
  "pan@@": 9425, 
  "Lanka": 9426, 
  "sektors": 9427, 
  "abzusichern": 9428, 
  "Rache": 9429, 
  "positionen": 9430, 
  "verantwortlichen": 9431, 
  "Ineffizienz": 9432, 
  "Abholzung": 9433, 
  "unterm": 9434, 
  "einsetzte": 9435, 
  "Jahresende": 9436, 
  "männlichen": 9437, 
  "Philosoph": 9438, 
  "gekostet": 9439, 
  "gter": 9440, 
  "re": 9441, 
  "Privathaushalte": 9442, 
  "Inlands@@": 9443, 
  "operieren": 9444, 
  "angebot": 9445, 
  "Beträge": 9446, 
  "gestoppt": 9447, 
  "Mo@@": 9448, 
  "Strafverfolgung": 9449, 
  "Abschwungs": 9450, 
  "automatischen": 9451, 
  "Finanzhilfe": 9452, 
  "typische": 9453, 
  "licht": 9454, 
  "pflegen": 9455, 
  "gewinne": 9456, 
  "unilaterale": 9457, 
  "winzige": 9458, 
  "AAA": 9459, 
  "Tor": 9460, 
  "stagniert": 9461, 
  "Schreckgespenst": 9462, 
  "Wahlkampfs": 9463, 
  "Regierungsform": 9464, 
  "Bewunderung": 9465, 
[...]
