{
  "eos": 0, 
  "UNK": 1, 
  "(NP": 2, 
  ")NP": 3, 
  "(VP": 4, 
  ")VP": 5, 
  "(PP": 6, 
  ")PP": 7, 
  ")S": 8, 
  "(S": 9, 
  "the": 10, 
  ",": 11, 
  "(TOP": 12, 
  ")TOP": 13, 
  ".": 14, 
  "(SBAR": 15, 
  ")SBAR": 16, 
  "of": 17, 
  "and": 18, 
  "to": 19, 
  ")ADVP": 20, 
  "(ADVP": 21, 
  "in": 22, 
  "a": 23, 
  ")ADJP": 24, 
  "(ADJP": 25, 
  "is": 26, 
  "that": 27, 
  "for": 28, 
  "(WHNP": 29, 
  ")WHNP": 30, 
  "on": 31, 
  "this": 32, 
  "with": 33, 
  "we": 34, 
  "it": 35, 
  "are": 36, 
  "be": 37, 
  "as": 38, 
  "I": 39, 
  "not": 40, 
  "you": 41, 
  "have": 42, 
  "by": 43, 
  "will": 44, 
  "which": 45, 
  ")PRN": 46, 
  "(PRN": 47, 
  "from": 48, 
  "at": 49, 
  "an": 50, 
  "has": 51, 
  "or": 52, 
  "&apos;s": 53, 
  "can": 54, 
  "-LRB-": 55, 
  "-RRB-": 56, 
  "our": 57, 
  "-": 58, 
  "all": 59, 
  ")WHADVP": 60, 
  "(WHADVP": 61, 
  ")PRT": 62, 
  "(PRT": 63, 
  "European": 64, 
  "was": 65, 
  "also": 66, 
  "but": 67, 
  "your": 68, 
  ":": 69, 
  "its": 70, 
  ")QP": 71, 
  "(QP": 72, 
  "would": 73, 
  "there": 74, 
  "more": 75, 
  "their": 76, 
  "``": 77, 
  "one": 78, 
  "been": 79, 
  "if": 80, 
  "&apos;&apos;": 81, 
  "should": 82, 
  "they": 83, 
  "Mr": 84, 
  "Commission": 85, 
  "do": 86, 
  "must": 87, 
  "these": 88, 
  "new": 89, 
  "only": 90, 
  "other": 91, 
  "very": 92, 
  "like": 93, 
  "about": 94, 
  "so": 95, 
  "President": 96, 
  "time": 97, 
  "what": 98, 
  "?": 99, 
  "when": 100, 
  "who": 101, 
  "us": 102, 
  "Union": 103, 
  "no": 104, 
  "any": 105, 
  "up": 106, 
  "(SQ": 107, 
  ")SQ": 108, 
  "Parliament": 109, 
  "people": 110, 
  "Europe": 111, 
  ")FRAG": 112, 
  "(FRAG": 113, 
  "such": 114, 
  "into": 115, 
  "my": 116, 
  "States": 117, 
  "out": 118, 
  "report": 119, 
  "some": 120, 
  "Member": 121, 
  "now": 122, 
  "countries": 123, 
  "were": 124, 
  "many": 125, 
  "need": 126, 
  "first": 127, 
  "than": 128, 
  "most": 129, 
  "his": 130, 
  "&apos;": 131, 
  "use": 132, 
  "@/@": 133, 
  ")CONJP": 134, 
  "(CONJP": 135, 
  "Council": 136, 
  "important": 137, 
  "he": 138, 
  "make": 139, 
  "because": 140, 
  "well": 141, 
  "them": 142, 
  "between": 143, 
  "EU": 144, 
  "work": 145, 
  "take": 146, 
  ";": 147, 
  "(WHPP": 148, 
  ")WHPP": 149, 
  "!": 150, 
  "those": 151, 
  "information": 152, 
  "support": 153, 
  "just": 154, 
  "years": 155, 
  "way": 156, 
  "made": 157, 
  "after": 158, 
  "two": 159, 
  "even": 160, 
  "however": 161, 
  "where": 162, 
  "policy": 163, 
  "over": 164, 
  "here": 165, 
  "world": 166, 
  "hotel": 167, 
  "being": 168, 
  "had": 169, 
  "may": 170, 
  "am": 171, 
  "therefore": 172, 
  "system": 173, 
  "how": 174, 
  "(NX": 175, 
  ")NX": 176, 
  "right": 177, 
  "order": 178, 
  "year": 179, 
  "through": 180, 
  "area": 181, 
  "market": 182, 
  "see": 183, 
  "political": 184, 
  "possible": 185, 
  "does": 186, 
  "good": 187, 
  "then": 188, 
  "part": 189, 
  ")SBARQ": 190, 
  "(SBARQ": 191, 
  "both": 192, 
  "same": 193, 
  "within": 194, 
  "place": 195, 
  "economic": 196, 
  "development": 197, 
  "could": 198, 
  "want": 199, 
  "against": 200, 
  "rights": 201, 
  "%": 202, 
  "today": 203, 
  "under": 204, 
  "able": 205, 
  "own": 206, 
  "used": 207, 
  ")UCP": 208, 
  "(UCP": 209, 
  "without": 210, 
  "much": 211, 
  "`": 212, 
  "country": 213, 
  "public": 214, 
  "find": 215, 
  "since": 216, 
  "international": 217, 
  "point": 218, 
  "number": 219, 
  "still": 220, 
  "services": 221, 
  "social": 222, 
  "fact": 223, 
  "before": 224, 
  "during": 225, 
  "say": 226, 
  "already": 227, 
  "different": 228, 
  "available": 229, 
  "believe": 230, 
  "future": 231, 
  "great": 232, 
  "last": 233, 
  "view": 234, 
  "course": 235, 
  "know": 236, 
  "me": 237, 
  "too": 238, 
  "products": 239, 
  "process": 240, 
  "think": 241, 
  "each": 242, 
  "s": 243, 
  "every": 244, 
  "free": 245, 
  "data": 246, 
  "Commissioner": 247, 
  "get": 248, 
  "human": 249, 
  "case": 250, 
  "set": 251, 
  "question": 252, 
  "level": 253, 
  "financial": 254, 
  "debate": 255, 
  "national": 256, 
  "issue": 257, 
  "service": 258, 
  "proposal": 259, 
  "(INTJ": 260, 
  ")INTJ": 261, 
  "end": 262, 
  "example": 263, 
  "said": 264, 
  "means": 265, 
  "offers": 266, 
  "why": 267, 
  "high": 268, 
  "while": 269, 
  "situation": 270, 
  "quality": 271, 
  "day": 272, 
  "best": 273, 
  "help": 274, 
  "2": 275, 
  "particular": 276, 
  "including": 277, 
  "clear": 278, 
  "measures": 279, 
  "The": 280, 
  "1": 281, 
  "business": 282, 
  "small": 283, 
  "citizens": 284, 
  "access": 285, 
  "common": 286, 
  "Committee": 287, 
  "further": 288, 
  "next": 289, 
  "areas": 290, 
  "long": 291, 
  "energy": 292, 
  "given": 293, 
  "agreement": 294, 
  "give": 295, 
  "city": 296, 
  "offer": 297, 
  "taken": 298, 
  "Hotel": 299, 
  "provide": 300, 
  "-LSB-": 301, 
  "ensure": 302, 
  "few": 303, 
  "problem": 304, 
  "put": 305, 
  "-RSB-": 306, 
  "again": 307, 
  "three": 308, 
  "room": 309, 
  "based": 310, 
  "problems": 311, 
  "come": 312, 
  "cooperation": 313, 
  "necessary": 314, 
  "security": 315, 
  "change": 316, 
  "large": 317, 
  "another": 318, 
  "rooms": 319, 
  "company": 320, 
  "far": 321, 
  "shall": 322, 
  "vote": 323, 
  "whether": 324, 
  "using": 325, 
  "her": 326, 
  "needs": 327, 
  "hope": 328, 
  "located": 329, 
  "go": 330, 
  "please": 331, 
  "position": 332, 
  "always": 333, 
  "group": 334, 
  "action": 335, 
  "back": 336, 
  "de": 337, 
  "did": 338, 
  "law": 339, 
  "form": 340, 
  "together": 341, 
  "protection": 342, 
  "better": 343, 
  "life": 344, 
  "working": 345, 
  "United": 346, 
  "thank": 347, 
  "special": 348, 
  "particularly": 349, 
  "current": 350, 
  "production": 351, 
  "stay": 352, 
  "3": 353, 
  "become": 354, 
  "Mrs": 355, 
  "present": 356, 
  "let": 357, 
  "legal": 358, 
  "power": 359, 
  "terms": 360, 
  "trade": 361, 
  "around": 362, 
  "main": 363, 
  "-@@": 364, 
  "Community": 365, 
  "children": 366, 
  "result": 367, 
  "once": 368, 
  "issues": 369, 
  "House": 370, 
  "Group": 371, 
  "women": 372, 
  "n&apos;t": 373, 
  "second": 374, 
  "name": 375, 
  "systems": 376, 
  "": 377, 
  "open": 378, 
  "full": 379, 
  "certain": 380, 
  "conditions": 381, 
  "companies": 382, 
  "down": 383, 
  "experience": 384, 
  "real": 385, 
  "various": 386, 
  ")SINV": 387, 
  "(SINV": 388, 
  "especially": 389, 
  "role": 390, 
  "basis": 391, 
  "industry": 392, 
  "&amp;": 393, 
  "matter": 394, 
  "health": 395, 
  "control": 396, 
  "less": 397, 
  "whole": 398, 
  "sector": 399, 
  "respect": 400, 
  "state": 401, 
  "done": 402, 
  "research": 403, 
  "budget": 404, 
  "government": 405, 
  "specific": 406, 
  "several": 407, 
  "welcome": 408, 
  "following": 409, 
  "yet": 410, 
  "10": 411, 
  "account": 412, 
  "local": 413, 
  "rapporteur": 414, 
  "look": 415, 
  "subject": 416, 
  "un@@": 417, 
  "making": 418, 
  "per": 419, 
  "region": 420, 
  "continue": 421, 
  "million": 422, 
  "something": 423, 
  "resolution": 424, 
  "global": 425, 
  "centre": 426, 
  "gentlemen": 427, 
  "project": 428, 
  "major": 429, 
  "really": 430, 
  "ladies": 431, 
  "often": 432, 
  "programme": 433, 
  "itself": 434, 
  "crisis": 435, 
  "directive": 436, 
  "management": 437, 
  "Germany": 438, 
  "regard": 439, 
  "rules": 440, 
  "wish": 441, 
  "general": 442, 
  "create": 443, 
  "water": 444, 
  "5": 445, 
  "going": 446, 
  "third": 447, 
  "until": 448, 
  "site": 449, 
  "ask": 450, 
  "German": 451, 
  "close": 452, 
  "Madam": 453, 
  "4": 454, 
  "towards": 455, 
  "growth": 456, 
  "customers": 457, 
  "least": 458, 
  "institutions": 459, 
  "start": 460, 
  "rather": 461, 
  "she": 462, 
  "modern": 463, 
  "environment": 464, 
  "transport": 465, 
  "having": 466, 
  "line": 467, 
  "range": 468, 
  "increase": 469, 
  "among": 470, 
  "single": 471, 
  "Treaty": 472, 
  "old": 473, 
  "individual": 474, 
  "things": 475, 
  "software": 476, 
  "US": 477, 
  "product": 478, 
  "enjoy": 479, 
  "away": 480, 
  "money": 481, 
  "opportunity": 482, 
  "aid": 483, 
  "hand": 484, 
  "approach": 485, 
  "resources": 486, 
  "amendments": 487, 
  "days": 488, 
  "re@@": 489, 
  "quite": 490, 
  "private": 491, 
  "fully": 492, 
  "Members": 493, 
  "found": 494, 
  "although": 495, 
  "due": 496, 
  "price": 497, 
  "forward": 498, 
  "activities": 499, 
  "agree": 500, 
  "personal": 501, 
  "food": 502, 
  "excellent": 503, 
  "little": 504, 
  "call": 505, 
  "allow": 506, 
  "finally": 507, 
  "proposals": 508, 
  "taking": 509, 
  "field": 510, 
  "economy": 511, 
  "technology": 512, 
  "interest": 513, 
  "provided": 514, 
  "him": 515, 
  "decision": 516, 
  "period": 517, 
  "framework": 518, 
  "safety": 519, 
  "progress": 520, 
  "costs": 521, 
  "might": 522, 
  "solution": 523, 
  "family": 524, 
  "according": 525, 
  "adopted": 526, 
  "members": 527, 
  "above": 528, 
  "China": 529, 
  "legislation": 530, 
  "simply": 531, 
  "thus": 532, 
  "favour": 533, 
  "include": 534, 
  "reason": 535, 
  "off": 536, 
  "points": 537, 
  "opinion": 538, 
  "key": 539, 
  "others": 540, 
  "State": 541, 
  "indeed": 542, 
  "projects": 543, 
  "responsibility": 544, 
  "value": 545, 
  "concerned": 546, 
  "behalf": 547, 
  "clearly": 548, 
  "play": 549, 
  "attention": 550, 
  "policies": 551, 
  "makes": 552, 
  "difficult": 553, 
  "page": 554, 
  "home": 555, 
  "results": 556, 
  "contact": 557, 
  "times": 558, 
  "questions": 559, 
  "effective": 560, 
  "ed": 561, 
  "o": 562, 
  "20": 563, 
  "provides": 564, 
  "greater": 565, 
  "importance": 566, 
  "groups": 567, 
  "location": 568, 
  "application": 569, 
  "environmental": 570, 
  "building": 571, 
  "called": 572, 
  "design": 573, 
  "addition": 574, 
  "strategy": 575, 
  "society": 576, 
  "website": 577, 
  "left": 578, 
  "2009": 579, 
  "text": 580, 
  "principle": 581, 
  "currently": 582, 
  "recent": 583, 
  "30": 584, 
  "list": 585, 
  "standards": 586, 
  "along": 587, 
  "show": 588, 
  "complete": 589, 
  "version": 590, 
  "known": 591, 
  "authorities": 592, 
  "town": 593, 
  "technical": 594, 
  "training": 595, 
  "short": 596, 
  "required": 597, 
  "achieve": 598, 
  ")X": 599, 
  "(X": 600, 
  "words": 601, 
  "meeting": 602, 
  "deal": 603, 
  "natural": 604, 
  "essential": 605, 
  "easy": 606, 
  "serious": 607, 
  "ing": 608, 
  "solutions": 609, 
  "proposed": 610, 
  "employment": 611, 
  "democracy": 612, 
  "minutes": 613, 
  "step": 614, 
  "staff": 615, 
  "address": 616, 
  "guests": 617, 
  "responsible": 618, 
  "internal": 619, 
  "interests": 620, 
  "bring": 621, 
  "past": 622, 
  "i": 623, 
  "kind": 624, 
  "directly": 625, 
  "in@@": 626, 
  "voted": 627, 
  "months": 628, 
  "air": 629, 
  "cultural": 630, 
  "upon": 631, 
  "requirements": 632, 
  "efforts": 633, 
  "risk": 634, 
  "implementation": 635, 
  "beautiful": 636, 
  "competition": 637, 
  "freedom": 638, 
  "side": 639, 
  "regions": 640, 
  "feel": 641, 
  "longer": 642, 
  "es": 643, 
  "parties": 644, 
  "involved": 645, 
  "S@@": 646, 
  "visit": 647, 
  "content": 648, 
  "Internet": 649, 
  "ago": 650, 
  "changes": 651, 
  "themselves": 652, 
  "World": 653, 
  "light": 654, 
  "young": 655, 
  "history": 656, 
  "regulation": 657, 
  "developed": 658, 
  "Russia": 659, 
  "nature": 660, 
  "sure": 661, 
  "events": 662, 
  "enough": 663, 
  "needed": 664, 
  "negotiations": 665, 
  "EUR": 666, 
  "positive": 667, 
  "15": 668, 
  "keep": 669, 
  "markets": 670, 
  "though": 671, 
  "situated": 672, 
  "cases": 673, 
  "four": 674, 
  "developing": 675, 
  "force": 676, 
  "peace": 677, 
  "via": 678, 
  "extremely": 679, 
  "additional": 680, 
  "6": 681, 
  "never": 682, 
  "either": 683, 
  "network": 684, 
  "strong": 685, 
  "education": 686, 
  "democratic": 687, 
  "prices": 688, 
  "sea": 689, 
  "consider": 690, 
  "heart": 691, 
  "comes": 692, 
  "person": 693, 
  "fundamental": 694, 
  "almost": 695, 
  "regional": 696, 
  "online": 697, 
  "central": 698, 
  "true": 699, 
  "improve": 700, 
  "language": 701, 
  "Presidency": 702, 
  "event": 703, 
  "success": 704, 
  "climate": 705, 
  "century": 706, 
  "everything": 707, 
  "request": 708, 
  "later": 709, 
  "share": 710, 
  "created": 711, 
  "states": 712, 
  "foreign": 713, 
  "actually": 714, 
  "thanks": 715, 
  "soon": 716, 
  "12": 717, 
  "total": 718, 
  "effect": 719, 
  "certainly": 720, 
  "rate": 721, 
  "funds": 722, 
  "2010": 723, 
  "meet": 724, 
  "seen": 725, 
  "workers": 726, 
  "user": 727, 
  "appropriate": 728, 
  "2008": 729, 
  "accept": 730, 
  "understand": 731, 
  "T@@": 732, 
  "perhaps": 733, 
  "receive": 734, 
  "pay": 735, 
  "procedure": 736, 
  "throughout": 737, 
  "live": 738, 
  "restaurant": 739, 
  "held": 740, 
  "type": 741, 
  "team": 742, 
  "idea": 743, 
  "unique": 744, 
  "thing": 745, 
  "users": 746, 
  "facilities": 747, 
  "investment": 748, 
  "lead": 749, 
  "majority": 750, 
  "house": 751, 
  "designed": 752, 
  "note": 753, 
  "click": 754, 
  "lot": 755, 
  "doing": 756, 
  "c@@": 757, 
  "standard": 758, 
  "try": 759, 
  "included": 760, 
  "near": 761, 
  "war": 762, 
  "communication": 763, 
  "looking": 764, 
  "car": 765, 
  "guarantee": 766, 
  "existing": 767, 
  "reform": 768, 
  "wide": 769, 
  "concerning": 770, 
  "relations": 771, 
  "concerns": 772, 
  "B@@": 773, 
  "7": 774, 
  "capital": 775, 
  "A@@": 776, 
  "context": 777, 
  "cost": 778, 
  "C@@": 779, 
  "file": 780, 
  "living": 781, 
  "y": 782, 
  "reach": 783, 
  "book": 784, 
  "music": 785, 
  "France": 786, 
  "P@@": 787, 
  "date": 788, 
  "turn": 789, 
  "outside": 790, 
  "plan": 791, 
  "care": 792, 
  "nothing": 793, 
  "regarding": 794, 
  "parts": 795, 
  "50": 796, 
  "significant": 797, 
  "decisions": 798, 
  "Turkey": 799, 
  "French": 800, 
  "takes": 801, 
  "programmes": 802, 
  "tax": 803, 
  "road": 804, 
  "instead": 805, 
  "direct": 806, 
  "across": 807, 
  "apply": 808, 
  "final": 809, 
  "top": 810, 
  "works": 811, 
  "impact": 812, 
  "mentioned": 813, 
  "8": 814, 
  "customer": 815, 
  "views": 816, 
  "related": 817, 
  "features": 818, 
  "er": 819, 
  "International": 820, 
  "writing": 821, 
  "aware": 822, 
  "knowledge": 823, 
  "traditional": 824, 
  "committee": 825, 
  "program": 826, 
  "space": 827, 
  "leading": 828, 
  "military": 829, 
  "early": 830, 
  "reasons": 831, 
  "week": 832, 
  "ideal": 833, 
  "2000": 834, 
  "s@@": 835, 
  "agreements": 836, 
  "five": 837, 
  "member": 838, 
  "population": 839, 
  "completely": 840, 
  "art": 841, 
  "remain": 842, 
  "connection": 843, 
  "D@@": 844, 
  "Government": 845, 
  "established": 846, 
  "/": 847, 
  "jobs": 848, 
  "took": 849, 
  "everyone": 850, 
  "hours": 851, 
  "objectives": 852, 
  "professional": 853, 
  "run": 854, 
  "send": 855, 
  "values": 856, 
  "practice": 857, 
  "amendment": 858, 
  "community": 859, 
  "basic": 860, 
  "partners": 861, 
  "ever": 862, 
  "amount": 863, 
  "moment": 864, 
  "America": 865, 
  "media": 866, 
  "allows": 867, 
  "American": 868, 
  "beach": 869, 
  "agricultural": 870, 
  "G@@": 871, 
  "develop": 872, 
  "2007": 873, 
  "culture": 874, 
  "big": 875, 
  "famous": 876, 
  "concern": 877, 
  "A": 878, 
  "model": 879, 
  "K@@": 880, 
  "breakfast": 881, 
  "age": 882, 
  "recently": 883, 
  "Lisbon": 884, 
  "objective": 885, 
  "applications": 886, 
  "ate": 887, 
  "check": 888, 
  "100": 889, 
  "m": 890, 
  "term": 891, 
  "benefit": 892, 
  "demand": 893, 
  "aim": 894, 
  "reports": 895, 
  "fight": 896, 
  "package": 897, 
  "original": 898, 
  "built": 899, 
  "choose": 900, 
  "move": 901, 
  "land": 902, 
  "governments": 903, 
  "km": 904, 
  "includes": 905, 
  "received": 906, 
  "non-@@": 907, 
  "entire": 908, 
  "consumers": 909, 
  "quickly": 910, 
  "focus": 911, 
  "body": 912, 
  "performance": 913, 
  "treatment": 914, 
  "Court": 915, 
  "L@@": 916, 
  "read": 917, 
  "hard": 918, 
  "achieved": 919, 
  "goods": 920, 
  "...": 921, 
  "station": 922, 
  "initiative": 923, 
  "despite": 924, 
  "sense": 925, 
  "party": 926, 
  "increased": 927, 
  "M@@": 928, 
  "perfect": 929, 
  "comfortable": 930, 
  "euro": 931, 
  "contains": 932, 
  "holiday": 933, 
  "dialogue": 934, 
  "act": 935, 
  "prevent": 936, 
  "potential": 937, 
  "N@@": 938, 
  "choice": 939, 
  "seems": 940, 
  "man": 941, 
  "integration": 942, 
  "bar": 943, 
  "y@@": 944, 
  "successful": 945, 
  "night": 946, 
  "al": 947, 
  "image": 948, 
  "material": 949, 
  "answer": 950, 
  "card": 951, 
  "simple": 952, 
  "Affairs": 953, 
  "active": 954, 
  "ers": 955, 
  "return": 956, 
  "e": 957, 
  "stage": 958, 
  "mean": 959, 
  "beginning": 960, 
  "lack": 961, 
  "agreed": 962, 
  "No": 963, 
  "levels": 964, 
  "equipment": 965, 
  "low": 966, 
  "unfortunately": 967, 
  "add": 968, 
  "face": 969, 
  "rates": 970, 
  "nuclear": 971, 
  "2006": 972, 
  "files": 973, 
  "25": 974, 
  "mind": 975, 
  "presented": 976, 
  "11": 977, 
  "carried": 978, 
  "game": 979, 
  "commitment": 980, 
  "principles": 981, 
  "d@@": 982, 
  "R@@": 983, 
  "highly": 984, 
  "job": 985, 
  "men": 986, 
  "matters": 987, 
  "guest": 988, 
  "higher": 989, 
  "E@@": 990, 
  "der": 991, 
  "web": 992, 
  "stop": 993, 
  "submitted": 994, 
  "shown": 995, 
  "e@@": 996, 
  "t@@": 997, 
  "enable": 998, 
  "V@@": 999, 
  "sustainable": 1000, 
  "led": 1001, 
  "whose": 1002, 
  "enlargement": 1003, 
  "shows": 1004, 
  "joint": 1005, 
  "promote": 1006, 
  "June": 1007, 
  "effects": 1008, 
  "etc": 1009, 
  "nor": 1010, 
  "added": 1011, 
  "direction": 1012, 
  "series": 1013, 
  "opportunities": 1014, 
  "previous": 1015, 
  "reduce": 1016, 
  "Article": 1017, 
  "behind": 1018, 
  "aspects": 1019, 
  "O@@": 1020, 
  "office": 1021, 
  "pressure": 1022, 
  "complex": 1023, 
  "i@@": 1024, 
  "equipped": 1025, 
  "external": 1026, 
  "response": 1027, 
  "H@@": 1028, 
  "increasing": 1029, 
  "asked": 1030, 
  "ways": 1031, 
  "providing": 1032, 
  "creation": 1033, 
  "reviews": 1034, 
  "F@@": 1035, 
  "New": 1036, 
  "priority": 1037, 
  "East": 1038, 
  "coming": 1039, 
  "funding": 1040, 
  "walk": 1041, 
  "reached": 1042, 
  "travel": 1043, 
  "South": 1044, 
  "considered": 1045, 
  "table": 1046, 
  "possibility": 1047, 
  "latest": 1048, 
  "prepared": 1049, 
  "setting": 1050, 
  "capacity": 1051, 
  "remains": 1052, 
  "written": 1053, 
  "actions": 1054, 
  "industrial": 1055, 
  "speak": 1056, 
  "9": 1057, 
  "p@@": 1058, 
  "protect": 1059, 
  "pool": 1060, 
  "balance": 1061, 
  "supported": 1062, 
  "billion": 1063, 
  "search": 1064, 
  "materials": 1065, 
  "follow": 1066, 
  "hotels": 1067, 
  "consumer": 1068, 
  "®": 1069, 
  "civil": 1070, 
  "v@@": 1071, 
  "supply": 1072, 
  "TV": 1073, 
  "half": 1074, 
  "oil": 1075, 
  ".@@": 1076, 
  "easily": 1077, 
  "exchange": 1078, 
  "fair": 1079, 
  "computer": 1080, 
  "independent": 1081, 
  "below": 1082, 
  "came": 1083, 
  "style": 1084, 
  "decided": 1085, 
  "creating": 1086, 
  "details": 1087, 
  "assistance": 1088, 
  "cause": 1089, 
  "similar": 1090, 
  "furthermore": 1091, 
  "internet": 1092, 
  "former": 1093, 
  "gives": 1094, 
  "regulations": 1095, 
  "Berlin": 1096, 
  "closed": 1097, 
  "ability": 1098, 
  "pages": 1099, 
  "ated": 1100, 
  "2005": 1101, 
  "Africa": 1102, 
  "rest": 1103, 
  "rule": 1104, 
  "leave": 1105, 
  "Spain": 1106, 
  "movement": 1107, 
  "moreover": 1108, 
  "Convention": 1109, 
  "center": 1110, 
  "press": 1111, 
  "limited": 1112, 
  "summer": 1113, 
  "ation": 1114, 
  "forms": 1115, 
  "stability": 1116, 
  "test": 1117, 
  "en@@": 1118, 
  "pleased": 1119, 
  "relevant": 1120, 
  "accommodation": 1121, 
  "December": 1122, 
  "size": 1123, 
  "discussion": 1124, 
  "commercial": 1125, 
  "sound": 1126, 
  "produced": 1127, 
  "brought": 1128, 
  "secondly": 1129, 
  "friendly": 1130, 
  "la": 1131, 
  "W@@": 1132, 
  "compromise": 1133, 
  "property": 1134, 
  "popular": 1135, 
  "places": 1136, 
  "sites": 1137, 
  "message": 1138, 
  "violence": 1139, 
  "o@@": 1140, 
  "Italy": 1141, 
  "regards": 1142, 
  "construction": 1143, 
  "n@@": 1144, 
  "enter": 1145, 
  "function": 1146, 
  "Bank": 1147, 
  "floor": 1148, 
  "conference": 1149, 
  "document": 1150, 
  "2004": 1151, 
  "procedures": 1152, 
  "fishing": 1153, 
  "C": 1154, 
  "May": 1155, 
  "statement": 1156, 
  "contribution": 1157, 
  "island": 1158, 
  "September": 1159, 
  "purpose": 1160, 
  "activity": 1161, 
  "giving": 1162, 
  "firstly": 1163, 
  "$": 1164, 
  "largest": 1165, 
  "produce": 1166, 
  "al@@": 1167, 
  "atmosphere": 1168, 
  "agenda": 1169, 
  "source": 1170, 
  "credit": 1171, 
  "transparency": 1172, 
  "sometimes": 1173, 
  "allowed": 1174, 
  "provisions": 1175, 
  "documents": 1176, 
  "tell": 1177, 
  "English": 1178, 
  "charge": 1179, 
  "damage": 1180, 
  "instruments": 1181, 
  "item": 1182, 
  "download": 1183, 
  "Minister": 1184, 
  "status": 1185, 
  "draft": 1186, 
  "concept": 1187, 
  "criteria": 1188, 
  "January": 1189, 
  "benefits": 1190, 
  "Central": 1191, 
  "steps": 1192, 
  "effort": 1193, 
  "interesting": 1194, 
  "started": 1195, 
  "m@@": 1196, 
  "ourselves": 1197, 
  "relation": 1198, 
  "British": 1199, 
  "partner": 1200, 
  "six": 1201, 
  "efficient": 1202, 
  "e-@@": 1203, 
  "integrated": 1204, 
  "Republic": 1205, 
  "24": 1206, 
  "b@@": 1207, 
  "variety": 1208, 
  "link": 1209, 
  "express": 1210, 
  "became": 1211, 
  "huge": 1212, 
  "beyond": 1213, 
  "study": 1214, 
  "board": 1215, 
  "task": 1216, 
  "numerous": 1217, 
  "safe": 1218, 
  "und": 1219, 
  "structure": 1220, 
  "March": 1221, 
  "solidarity": 1222, 
  "front": 1223, 
  "require": 1224, 
  "poverty": 1225, 
  "challenges": 1226, 
  "payment": 1227, 
  "immediately": 1228, 
  "employees": 1229, 
  "elections": 1230, 
  "colleagues": 1231, 
  "ten": 1232, 
  "distribution": 1233, 
  "legislative": 1234, 
  "option": 1235, 
  "code": 1236, 
  "avoid": 1237, 
  "40": 1238, 
  "labour": 1239, 
  "2003": 1240, 
  "bus": 1241, 
  "g@@": 1242, 
  "October": 1243, 
  "tomorrow": 1244, 
  "video": 1245, 
  "section": 1246, 
  "consequences": 1247, 
  "k@@": 1248, 
  "applied": 1249, 
  "review": 1250, 
  "elements": 1251, 
  "operation": 1252, 
  "starting": 1253, 
  "processes": 1254, 
  "goes": 1255, 
  "UN": 1256, 
  "reality": 1257, 
  "conflict": 1258, 
  "double": 1259, 
  "analysis": 1260, 
  "drive": 1261, 
  "highest": 1262, 
  "Rights": 1263, 
  "Italian": 1264, 
  "types": 1265, 
  "reading": 1266, 
  "de@@": 1267, 
  "an@@": 1268, 
  "I@@": 1269, 
  "j@@": 1270, 
  "Service": 1271, 
  "congratulate": 1272, 
  "requires": 1273, 
  "18": 1274, 
  "b": 1275, 
  "saying": 1276, 
  "lines": 1277, 
  "equal": 1278, 
  "ar@@": 1279, 
  "talk": 1280, 
  "tool": 1281, 
  "growing": 1282, 
  "implemented": 1283, 
  "practical": 1284, 
  "historical": 1285, 
  "forces": 1286, 
  "Spanish": 1287, 
  "draw": 1288, 
  "crucial": 1289, 
  "tools": 1290, 
  "paid": 1291, 
  "school": 1292, 
  "f@@": 1293, 
  "daily": 1294, 
  "digital": 1295, 
  "efficiency": 1296, 
  "base": 1297, 
  "organisations": 1298, 
  "voting": 1299, 
  "die": 1300, 
  "z@@": 1301, 
  "official": 1302, 
  "offering": 1303, 
  "death": 1304, 
  "monitoring": 1305, 
  "learn": 1306, 
  "2001": 1307, 
  "comprehensive": 1308, 
  "bed": 1309, 
  "apartment": 1310, 
  "terrorism": 1311, 
  "minimum": 1312, 
  "gas": 1313, 
  "links": 1314, 
  "July": 1315, 
  "farmers": 1316, 
  "word": 1317, 
  "persons": 1318, 
  "operating": 1319, 
  "ground": 1320, 
  "ideas": 1321, 
  "&apos;ll": 1322, 
  "expect": 1323, 
  "00": 1324, 
  "reduction": 1325, 
  "carry": 1326, 
  "14": 1327, 
  "otherwise": 1328, 
  "4@@": 1329, 
  "reference": 1330, 
  "instrument": 1331, 
  "stand": 1332, 
  "November": 1333, 
  "players": 1334, 
  "maximum": 1335, 
  "mobile": 1336, 
  "J@@": 1337, 
  "useful": 1338, 
  "a@@": 1339, 
  "establish": 1340, 
  "waste": 1341, 
  "begin": 1342, 
  "restaurants": 1343, 
  "di": 1344, 
  "happy": 1345, 
  "nevertheless": 1346, 
  "Mediterranean": 1347, 
  "lives": 1348, 
  "clients": 1349, 
  "16": 1350, 
  "probably": 1351, 
  "Party": 1352, 
  "relating": 1353, 
  "ones": 1354, 
  "en": 1355, 
  "apartments": 1356, 
  "North": 1357, 
  "weeks": 1358, 
  "long-term": 1359, 
  "technologies": 1360, 
  "challenge": 1361, 
  "server": 1362, 
  "businesses": 1363, 
  "scientific": 1364, 
  "Israel": 1365, 
  "caused": 1366, 
  "sales": 1367, 
  "speed": 1368, 
  "worldwide": 1369, 
  "offered": 1370, 
  "village": 1371, 
  "overall": 1372, 
  "ch@@": 1373, 
  "innovative": 1374, 
  "transfer": 1375, 
  "published": 1376, 
  "build": 1377, 
  "friends": 1378, 
  "rich": 1379, 
  "extent": 1380, 
  "distance": 1381, 
  "D": 1382, 
  "join": 1383, 
  "interested": 1384, 
  "sectors": 1385, 
  "anything": 1386, 
  "accordance": 1387, 
  "mention": 1388, 
  "poor": 1389, 
  "leaders": 1390, 
  "€": 1391, 
  "powers": 1392, 
  "airport": 1393, 
  "visitors": 1394, 
  "innovation": 1395, 
  "Directive": 1396, 
  "methods": 1397, 
  "options": 1398, 
  "t": 1399, 
  "ar": 1400, 
  "secure": 1401, 
  "2002": 1402, 
  "raised": 1403, 
  "13": 1404, 
  "Western": 1405, 
  "method": 1406, 
  "nice": 1407, 
  "Windows": 1408, 
  "wine": 1409, 
  "historic": 1410, 
  "April": 1411, 
  "sent": 1412, 
  "dis@@": 1413, 
  "machine": 1414, 
  "news": 1415, 
  "Development": 1416, 
  "u@@": 1417, 
  "lower": 1418, 
  "implement": 1419, 
  "strategic": 1420, 
  "banks": 1421, 
  "park": 1422, 
  "doubt": 1423, 
  "child": 1424, 
  "late": 1425, 
  "influence": 1426, 
  "fields": 1427, 
  "accepted": 1428, 
  "demands": 1429, 
  "absolutely": 1430, 
  "National": 1431, 
  "train": 1432, 
  "3@@": 1433, 
  "chance": 1434, 
  "languages": 1435, 
  "advantage": 1436, 
  "ready": 1437, 
  "borders": 1438, 
  "annual": 1439, 
  "Ireland": 1440, 
  "namely": 1441, 
  "adopt": 1442, 
  "accession": 1443, 
  "B": 1444, 
  "ro@@": 1445, 
  "ates": 1446, 
  "processing": 1447, 
  "initiatives": 1448, 
  "President-in-Office": 1449, 
  "representatives": 1450, 
  "Austria": 1451, 
  "Chinese": 1452, 
  "target": 1453, 
  "Fund": 1454, 
  "trying": 1455, 
  "hold": 1456, 
  "lost": 1457, 
  "mountain": 1458, 
  "round": 1459, 
  "reforms": 1460, 
  "ating": 1461, 
  "illegal": 1462, 
  "images": 1463, 
  "extra": 1464, 
  "di@@": 1465, 
  "k": 1466, 
  "000": 1467, 
  "alternative": 1468, 
  "cohesion": 1469, 
  "expressed": 1470, 
  "release": 1471, 
  "unemployment": 1472, 
  "committed": 1473, 
  "calls": 1474, 
  "improved": 1475, 
  "selection": 1476, 
  "IT": 1477, 
  "film": 1478, 
  "parking": 1479, 
  "l@@": 1480, 
  "thought": 1481, 
  "increasingly": 1482, 
  "vital": 1483, 
  "changed": 1484, 
  "Z@@": 1485, 
  "talking": 1486, 
  "-LCB-": 1487, 
  "contract": 1488, 
  "month": 1489, 
  "intended": 1490, 
  "green": 1491, 
  "plans": 1492, 
  "maintain": 1493, 
  "cut": 1494, 
  "proper": 1495, 
  "approved": 1496, 
  "mainly": 1497, 
  "alone": 1498, 
  "scope": 1499, 
  "wanted": 1500, 
  "opening": 1501, 
  "x": 1502, 
  "pass": 1503, 
  "heard": 1504, 
  "structural": 1505, 
  "relationship": 1506, 
  "(WHADJP": 1507, 
  ")WHADJP": 1508, 
  "rise": 1509, 
  "ts": 1510, 
  "worked": 1511, 
  "comments": 1512, 
  "affected": 1513, 
  "usually": 1514, 
  "clean": 1515, 
  "sports": 1516, 
  "got": 1517, 
  "currency": 1518, 
  "uses": 1519, 
  "regime": 1520, 
  "running": 1521, 
  "emissions": 1522, 
  "5@@": 1523, 
  "justice": 1524, 
  "email": 1525, 
  "priorities": 1526, 
  "Amendment": 1527, 
  "reduced": 1528, 
  "morning": 1529, 
  "conclusion": 1530, 
  "placed": 1531, 
  "es@@": 1532, 
  "planning": 1533, 
  "lies": 1534, 
  "decide": 1535, 
  "Iraq": 1536, 
  "stress": 1537, 
  "circumstances": 1538, 
  "(NAC": 1539, 
  "delivery": 1540, 
  ")NAC": 1541, 
  "automatically": 1542, 
  "Conference": 1543, 
  "ensuring": 1544, 
  "specifically": 1545, 
  "infrastructure": 1546, 
  "confidence": 1547, 
  "select": 1548, 
  "quiet": 1549, 
  "agriculture": 1550, 
  "correct": 1551, 
  "cities": 1552, 
  "goal": 1553, 
  "1999": 1554, 
  "U@@": 1555, 
  "el": 1556, 
  "families": 1557, 
  "administration": 1558, 
  "suitable": 1559, 
  "ic": 1560, 
  "traffic": 1561, 
  "victims": 1562, 
  "-RCB-": 1563, 
  "contribute": 1564, 
  "border": 1565, 
  "crime": 1566, 
  "supports": 1567, 
  "player": 1568, 
  "tabled": 1569, 
  "effectively": 1570, 
  "Russian": 1571, 
  "cover": 1572, 
  "yourself": 1573, 
  "detailed": 1574, 
  "encourage": 1575, 
  "head": 1576, 
  "class": 1577, 
  "participation": 1578, 
  "fish": 1579, 
  "fall": 1580, 
  "competitive": 1581, 
  "ations": 1582, 
  "introduced": 1583, 
  "shopping": 1584, 
  "extensive": 1585, 
  "ti@@": 1586, 
  "students": 1587, 
  "el@@": 1588, 
  "sources": 1589, 
  "precisely": 1590, 
  "GmbH": 1591, 
  "critical": 1592, 
  "electronic": 1593, 
  "fine": 1594, 
  "motion": 1595, 
  "risks": 1596, 
  "installation": 1597, 
  "remember": 1598, 
  "Nations": 1599, 
  "Japan": 1600, 
  "li@@": 1601, 
  "laws": 1602, 
  "whom": 1603, 
  "games": 1604, 
  "powerful": 1605, 
  "fast": 1606, 
  "feature": 1607, 
  "discussions": 1608, 
  "partnership": 1609, 
  "discuss": 1610, 
  "des": 1611, 
  "separate": 1612, 
  "e-mail": 1613, 
  "ist": 1614, 
  "aimed": 1615, 
  "larger": 1616, 
  "developments": 1617, 
  "thousands": 1618, 
  "functions": 1619, 
  "West": 1620, 
  "animals": 1621, 
  "discussed": 1622, 
  "garden": 1623, 
  "budgetary": 1624, 
  "h@@": 1625, 
  "comfort": 1626, 
  "protected": 1627, 
  "founded": 1628, 
  "met": 1629, 
  "on@@": 1630, 
  "d": 1631, 
  "manner": 1632, 
  "assessment": 1633, 
  "menu": 1634, 
  "measure": 1635, 
  "rural": 1636, 
  "phone": 1637, 
  "Park": 1638, 
  "exist": 1639, 
  "exactly": 1640, 
  "likely": 1641, 
  "referred": 1642, 
  "bank": 1643, 
  "stated": 1644, 
  "con@@": 1645, 
  "earlier": 1646, 
  "II": 1647, 
  "began": 1648, 
  "fellow": 1649, 
  "born": 1650, 
  "sitting": 1651, 
  "appear": 1652, 
  "managed": 1653, 
  "becoming": 1654, 
  "evening": 1655, 
  "wrong": 1656, 
  "represents": 1657, 
  "introduction": 1658, 
  "r@@": 1659, 
  "over@@": 1660, 
  "collection": 1661, 
  "getting": 1662, 
  "purposes": 1663, 
  "covered": 1664, 
  "bit": 1665, 
  "police": 1666, 
  "else": 1667, 
  "India": 1668, 
  "speaking": 1669, 
  "obviously": 1670, 
  "University": 1671, 
  "says": 1672, 
  "white": 1673, 
  "generally": 1674, 
  "&apos;re": 1675, 
  "wants": 1676, 
  "serve": 1677, 
  "selected": 1678, 
  "London": 1679, 
  "closely": 1680, 
  "Centre": 1681, 
  "street": 1682, 
  "Y@@": 1683, 
  "UK": 1684, 
  "improving": 1685, 
  "San": 1686, 
  "administrative": 1687, 
  "strengthen": 1688, 
  "considerable": 1689, 
  "le": 1690, 
  "l": 1691, 
  "AG": 1692, 
  "supporting": 1693, 
  "enterprises": 1694, 
  "immigration": 1695, 
  "er@@": 1696, 
  "et": 1697, 
  "60": 1698, 
  "linked": 1699, 
  "tourist": 1700, 
  "medical": 1701, 
  "guidelines": 1702, 
  "17": 1703, 
  "co@@": 1704, 
  "swimming": 1705, 
  "limit": 1706, 
  "entry": 1707, 
  "T": 1708, 
  "anyone": 1709, 
  "save": 1710, 
  "represent": 1711, 
  "_@@": 1712, 
  "or@@": 1713, 
  "played": 1714, 
  "c": 1715, 
  "experts": 1716, 
  "debt": 1717, 
  ".com": 1718, 
  "photo": 1719, 
  "walking": 1720, 
  "spend": 1721, 
  "programs": 1722, 
  "operations": 1723, 
  "camera": 1724, 
  "sufficient": 1725, 
  "inside": 1726, 
  "so-called": 1727, 
  "followed": 1728, 
  "unless": 1729, 
  "happen": 1730, 
  "competitiveness": 1731, 
  "red": 1732, 
  "opened": 1733, 
  "port": 1734, 
  "sign": 1735, 
  "ski": 1736, 
  "networks": 1737, 
  "income": 1738, 
  "coordination": 1739, 
  "worth": 1740, 
  "understanding": 1741, 
  "facing": 1742, 
  "broad": 1743, 
  "terrace": 1744, 
  "S": 1745, 
  "Greece": 1746, 
  "Iran": 1747, 
  "provision": 1748, 
  "loss": 1749, 
  "tourism": 1750, 
  "Security": 1751, 
  "plant": 1752, 
  "degree": 1753, 
  "record": 1754, 
  "prior": 1755, 
  "speech": 1756, 
  "presidency": 1757, 
  "Paris": 1758, 
  "O": 1759, 
  "love": 1760, 
  "bad": 1761, 
  "Middle": 1762, 
  "ac@@": 1763, 
  "components": 1764, 
  "General": 1765, 
  "Asia": 1766, 
  "refer": 1767, 
  "thinking": 1768, 
  "regular": 1769, 
  "DE": 1770, 
  "exclusive": 1771, 
  "fisheries": 1772, 
  "Agreement": 1773, 
  "served": 1774, 
  "dealing": 1775, 
  "properly": 1776, 
  "institutional": 1777, 
  "summit": 1778, 
  "purchase": 1779, 
  "6@@": 1780, 
  "re-@@": 1781, 
  "expected": 1782, 
  "path": 1783, 
  "trust": 1784, 
  "map": 1785, 
  "ting": 1786, 
  "positions": 1787, 
  "entirely": 1788, 
  "City": 1789, 
  "consideration": 1790, 
  "200": 1791, 
  "difficulties": 1792, 
  "presence": 1793, 
  "yes": 1794, 
  "bathroom": 1795, 
  "client": 1796, 
  "buildings": 1797, 
  "marketing": 1798, 
  "spirit": 1799, 
  "average": 1800, 
  "authority": 1801, 
  "flexibility": 1802, 
  "neither": 1803, 
  "politics": 1804, 
  "playing": 1805, 
  "Switzerland": 1806, 
  "animal": 1807, 
  "plants": 1808, 
  "financing": 1809, 
  "typical": 1810, 
  "Web": 1811, 
  "applies": 1812, 
  "Brussels": 1813, 
  "ant": 1814, 
  "February": 1815, 
  "parliamentary": 1816, 
  "Poland": 1817, 
  "fixed": 1818, 
  "actual": 1819, 
  "domestic": 1820, 
  "organisation": 1821, 
  "failure": 1822, 
  "seem": 1823, 
  "n": 1824, 
  "os": 1825, 
  "defined": 1826, 
  "hear": 1827, 
  "buy": 1828, 
  "metres": 1829, 
  "fresh": 1830, 
  "flexible": 1831, 
  "items": 1832, 
  "vehicles": 1833, 
  "advanced": 1834, 
  "is@@": 1835, 
  "21": 1836, 
  "reducing": 1837, 
  "combat": 1838, 
  "da": 1839, 
  "promoting": 1840, 
  "bodies": 1841, 
  "et@@": 1842, 
  "self-@@": 1843, 
  "Czech": 1844, 
  "winter": 1845, 
  "track": 1846, 
  "p": 1847, 
  "signed": 1848, 
  "meetings": 1849, 
  "monetary": 1850, 
  "informed": 1851, 
  "Policy": 1852, 
  "aims": 1853, 
  "at@@": 1854, 
  "seriously": 1855, 
  "aspect": 1856, 
  "implementing": 1857, 
  "X@@": 1858, 
  "numbers": 1859, 
  "box": 1860, 
  "(LST": 1861, 
  ")LST": 1862, 
  "threat": 1863, 
  "machines": 1864, 
  "humanitarian": 1865, 
  "display": 1866, 
  "paper": 1867, 
  "differences": 1868, 
  "sub@@": 1869, 
  "hour": 1870, 
  "forget": 1871, 
  "becomes": 1872, 
  "easier": 1873, 
  "structures": 1874, 
  "wonderful": 1875, 
  "practices": 1876, 
  "500": 1877, 
  "telephone": 1878, 
  "th": 1879, 
  "establishment": 1880, 
  "defence": 1881, 
  "origin": 1882, 
  "am@@": 1883, 
  "tour": 1884, 
  "80": 1885, 
  "membership": 1886, 
  "experienced": 1887, 
  "--": 1888, 
  "connected": 1889, 
  "gave": 1890, 
  "attempt": 1891, 
  "producers": 1892, 
  "statements": 1893, 
  "opposition": 1894, 
  "19": 1895, 
  "relax": 1896, 
  "sport": 1897, 
  "yesterday": 1898, 
  "�": 1899, 
  "economies": 1900, 
  "concrete": 1901, 
  "warm": 1902, 
  "Sea": 1903, 
  "criminal": 1904, 
  "as@@": 1905, 
  "generation": 1906, 
  "27": 1907, 
  "picture": 1908, 
  "season": 1909, 
  "del": 1910, 
  "it@@": 1911, 
  "Last": 1912, 
  "ri@@": 1913, 
  "7@@": 1914, 
  "consumption": 1915, 
  "August": 1916, 
  "w@@": 1917, 
  "myself": 1918, 
  "appears": 1919, 
  "studies": 1920, 
  "ca": 1921, 
  "22": 1922, 
  "character": 1923, 
  "fund": 1924, 
  "adoption": 1925, 
  "discrimination": 1926, 
  "associated": 1927, 
  "evidence": 1928, 
  "discover": 1929, 
  "carefully": 1930, 
  "translation": 1931, 
  "houses": 1932, 
  "dangerous": 1933, 
  "respond": 1934, 
  "recognition": 1935, 
  "Debian": 1936, 
  "went": 1937, 
  "normal": 1938, 
  "stable": 1939, 
  "models": 1940, 
  "availability": 1941, 
  "detail": 1942, 
  "difference": 1943, 
  "happened": 1944, 
  "agencies": 1945, 
  "trading": 1946, 
  "unacceptable": 1947, 
  "Europeans": 1948, 
  "Barcelona": 1949, 
  "calling": 1950, 
  "tradition": 1951, 
  "genuine": 1952, 
  "guarantees": 1953, 
  "Amsterdam": 1954, 
  "peaceful": 1955, 
  "improvement": 1956, 
  "inform": 1957, 
  "leader": 1958, 
  "instance": 1959, 
  "combination": 1960, 
  "immediate": 1961, 
  "negative": 1962, 
  "War": 1963, 
  "God": 1964, 
  "contrary": 1965, 
  "La": 1966, 
  "USA": 1967, 
  "2@@": 1968, 
  "st@@": 1969, 
  "impossible": 1970, 
  "raise": 1971, 
  "naturally": 1972, 
  "spent": 1973, 
  "ly": 1974, 
  "duty": 1975, 
  "screen": 1976, 
  "compared": 1977, 
  "th@@": 1978, 
  "propose": 1979, 
  "fun": 1980, 
  "himself": 1981, 
  "ahead": 1982, 
  "shared": 1983, 
  "attractive": 1984, 
  "Ukraine": 1985, 
  "ted": 1986, 
  "Public": 1987, 
  "Swiss": 1988, 
  "element": 1989, 
  "told": 1990, 
  "announced": 1991, 
  "wishes": 1992, 
  "combined": 1993, 
  "Phone": 1994, 
  "hands": 1995, 
  "figures": 1996, 
  "possibilities": 1997, 
  "spending": 1998, 
  "truly": 1999, 
  "exhibition": 2000, 
  "8@@": 2001, 
  "si@@": 2002, 
  "closer": 2003, 
  "X": 2004, 
  "continued": 2005, 
  "religious": 2006, 
  "scale": 2007, 
  "format": 2008, 
  "u": 2009, 
  "seek": 2010, 
  "allowing": 2011, 
  "beds": 2012, 
  "described": 2013, 
  "continues": 2014, 
  "strongly": 2015, 
  "finance": 2016, 
  "introduce": 2017, 
  "participate": 2018, 
  "fear": 2019, 
  "advance": 2020, 
  "shops": 2021, 
  "x@@": 2022, 
  "insurance": 2023, 
  "tasks": 2024, 
  "voice": 2025, 
  "Social": 2026, 
  "im@@": 2027, 
  "cards": 2028, 
  "enables": 2029, 
  "kitchen": 2030, 
  "cars": 2031, 
  "core": 2032, 
  "bear": 2033, 
  "courses": 2034, 
  "obtain": 2035, 
  "Kingdom": 2036, 
  "23": 2037, 
  "sides": 2038, 
  "ab@@": 2039, 
  "district": 2040, 
  "pleasant": 2041, 
  "campaign": 2042, 
  "registered": 2043, 
  "packages": 2044, 
  "urgent": 2045, 
  "ancient": 2046, 
  "paragraph": 2047, 
  "moving": 2048, 
  "reservation": 2049, 
  "database": 2050, 
  "Irish": 2051, 
  "ship": 2052, 
  "territory": 2053, 
  "greatest": 2054, 
  "Christian": 2055, 
  "shop": 2056, 
  "enormous": 2057, 
  "firm": 2058, 
  "charged": 2059, 
  "honourable": 2060, 
  "released": 2061, 
  "als": 2062, 
  "Al@@": 2063, 
  "reliable": 2064, 
  "completed": 2065, 
  "establishing": 2066, 
  "Linux": 2067, 
  "fiscal": 2068, 
  "WTO": 2069, 
  "claims": 2070, 
  "installed": 2071, 
  "Justice": 2072, 
  "desire": 2073, 
  "pictures": 2074, 
  "devices": 2075, 
  "manage": 2076, 
  "Democrats": 2077, 
  "sensitive": 2078, 
  "Kosovo": 2079, 
  "convinced": 2080, 
  "perspective": 2081, 
  "Economic": 2082, 
  "ban": 2083, 
  "transparent": 2084, 
  "permanent": 2085, 
  "architecture": 2086, 
  "reasonable": 2087, 
  "election": 2088, 
  "le@@": 2089, 
  "payments": 2090, 
  "button": 2091, 
  "gain": 2092, 
  "corporate": 2093, 
  "elected": 2094, 
  "south": 2095, 
  "g": 2096, 
  "nearby": 2097, 
  "individuals": 2098, 
  "exercise": 2099, 
  "contain": 2100, 
  "names": 2101, 
  "skills": 2102, 
  "African": 2103, 
  "comment": 2104, 
  "stock": 2105, 
  "conclusions": 2106, 
  "black": 2107, 
  "E": 2108, 
  "cuisine": 2109, 
  "learning": 2110, 
  "rightly": 2111, 
  "entitled": 2112, 
  "spacious": 2113, 
  "sort": 2114, 
  "And": 2115, 
  "Prime": 2116, 
  "achieving": 2117, 
  "platform": 2118, 
  "forced": 2119, 
  "union": 2120, 
  "failed": 2121, 
  "controls": 2122, 
  "initial": 2123, 
  "In@@": 2124, 
  "den": 2125, 
  "keyword": 2126, 
  "Turkish": 2127, 
  "apart": 2128, 
  "organised": 2129, 
  "extended": 2130, 
  "stands": 2131, 
  "outcome": 2132, 
  "asylum": 2133, 
  "advertising": 2134, 
  "resort": 2135, 
  "article": 2136, 
  "drawn": 2137, 
  "factors": 2138, 
  "granted": 2139, 
  "definition": 2140, 
  "Airport": 2141, 
  "commitments": 2142, 
  "session": 2143, 
  "totally": 2144, 
  "ambitious": 2145, 
  "continuing": 2146, 
  "surface": 2147, 
  "ad@@": 2148, 
  "po@@": 2149, 
  "se": 2150, 
  "sets": 2151, 
  "elegant": 2152, 
  "color": 2153, 
  "Board": 2154, 
  "unable": 2155, 
  "mission": 2156, 
  "export": 2157, 
  "to@@": 2158, 
  "weapons": 2159, 
  "storage": 2160, 
  "surrounding": 2161, 
  "300": 2162, 
  "balanced": 2163, 
  "acts": 2164, 
  "approximately": 2165, 
  "whilst": 2166, 
  "remind": 2167, 
  "dedicated": 2168, 
  "net": 2169, 
  "candidate": 2170, 
  "In": 2171, 
  "y-@@": 2172, 
  "brand": 2173, 
  "Eastern": 2174, 
  "disease": 2175, 
  "passed": 2176, 
  "equality": 2177, 
  "colleague": 2178, 
  "ra@@": 2179, 
  "PC": 2180, 
  "em@@": 2181, 
  "booking": 2182, 
  "changing": 2183, 
  "institution": 2184, 
  "beaches": 2185, 
  "television": 2186, 
  "memory": 2187, 
  "court": 2188, 
  "examples": 2189, 
  "R": 2190, 
  "whatever": 2191, 
  "mo@@": 2192, 
  "estate": 2193, 
  "sale": 2194, 
  "valid": 2195, 
  "z": 2196, 
  "1998": 2197, 
  "advice": 2198, 
  "limits": 2199, 
  "Constitution": 2200, 
  "independence": 2201, 
  "ous": 2202, 
  "arrival": 2203, 
  "biggest": 2204, 
  "successfully": 2205, 
  "science": 2206, 
  "device": 2207, 
  "prevention": 2208, 
  "unto": 2209, 
  "expenditure": 2210, 
  "targets": 2211, 
  "surrounded": 2212, 
  "Netherlands": 2213, 
  "condition": 2214, 
  "Human": 2215, 
  "kept": 2216, 
  "obligations": 2217, 
  "vision": 2218, 
  "participants": 2219, 
  "minute": 2220, 
  "We": 2221, 
  "chosen": 2222, 
  "hot": 2223, 
  "nearly": 2224, 
  "perfectly": 2225, 
  "ec@@": 2226, 
  "update": 2227, 
  "9@@": 2228, 
  "constantly": 2229, 
  "zone": 2230, 
  "attack": 2231, 
  "asking": 2232, 
  "bringing": 2233, 
  "expression": 2234, 
  "agency": 2235, 
  "recommendations": 2236, 
  "background": 2237, 
  "goals": 2238, 
  "deep": 2239, 
  "beauty": 2240, 
  "medium-sized": 2241, 
  "laid": 2242, 
  "putting": 2243, 
  "deliver": 2244, 
  "promotion": 2245, 
  "signal": 2246, 
  "ings": 2247, 
  "merely": 2248, 
  "coast": 2249, 
  "contents": 2250, 
  "helpful": 2251, 
  "*": 2252, 
  "intervention": 2253, 
  "claim": 2254, 
  "situations": 2255, 
  "interface": 2256, 
  "railway": 2257, 
  "Palestinian": 2258, 
  "Greek": 2259, 
  "aircraft": 2260, 
  "maintenance": 2261, 
  "registration": 2262, 
  "install": 2263, 
  "monitor": 2264, 
  "strengthening": 2265, 
  "trip": 2266, 
  "vehicle": 2267, 
  "substantial": 2268, 
  "anti-@@": 2269, 
  "Green": 2270, 
  "York": 2271, 
  "mechanism": 2272, 
  "sun": 2273, 
  "weight": 2274, 
  "pointed": 2275, 
  "recommend": 2276, 
  "obvious": 2277, 
  "holidays": 2278, 
  "meters": 2279, 
  "previously": 2280, 
  "op@@": 2281, 
  "physical": 2282, 
  "engine": 2283, 
  "approval": 2284, 
  "tried": 2285, 
  "communities": 2286, 
  "planned": 2287, 
  "patients": 2288, 
  "unit": 2289, 
  "governance": 2290, 
  "capable": 2291, 
  "rapid": 2292, 
  "Vienna": 2293, 
  "artists": 2294, 
  "post": 2295, 
  "factor": 2296, 
  "Museum": 2297, 
  "middle": 2298, 
  "pre@@": 2299, 
  "dynamic": 2300, 
  "Regulation": 2301, 
  "organization": 2302, 
  "conclude": 2303, 
  "star": 2304, 
  "someone": 2305, 
  "extend": 2306, 
  "amongst": 2307, 
  "thereby": 2308, 
  "decades": 2309, 
  "personally": 2310, 
  "seeking": 2311, 
  "90": 2312, 
  "acceptable": 2313, 
  "accessible": 2314, 
  "responsibilities": 2315, 
  "liability": 2316, 
  "ol@@": 2317, 
  "Austrian": 2318, 
  "wood": 2319, 
  "saw": 2320, 
  "outstanding": 2321, 
  "coffee": 2322, 
  "manufacturing": 2323, 
  "causes": 2324, 
  "grounds": 2325, 
  "guaranteed": 2326, 
  "sh@@": 2327, 
  "river": 2328, 
  "seven": 2329, 
  "orders": 2330, 
  "Summit": 2331, 
  "mass": 2332, 
  "70": 2333, 
  "operate": 2334, 
  "flight": 2335, 
  "reception": 2336, 
  "mountains": 2337, 
  "qualified": 2338, 
  "church": 2339, 
  "St.": 2340, 
  "Rooms": 2341, 
  "recovery": 2342, 
  "relaxing": 2343, 
  "leads": 2344, 
  "driving": 2345, 
  "addressed": 2346, 
  "inter@@": 2347, 
  "depending": 2348, 
  "guide": 2349, 
  "species": 2350, 
  "son": 2351, 
  "Services": 2352, 
  "contained": 2353, 
  "Portugal": 2354, 
  "consensus": 2355, 
  "resulting": 2356, 
  "nations": 2357, 
  "se@@": 2358, 
  "window": 2359, 
  "smaller": 2360, 
  "phase": 2361, 
  "disposal": 2362, 
  "story": 2363, 
  "discussing": 2364, 
  "keeping": 2365, 
  "um": 2366, 
  "remove": 2367, 
  "pre-@@": 2368, 
  "ans": 2369, 
  "faced": 2370, 
  "Association": 2371, 
  "attacks": 2372, 
  "ons": 2373, 
  "evaluation": 2374, 
  "route": 2375, 
  "category": 2376, 
  "piece": 2377, 
  "square": 2378, 
  "Trade": 2379, 
  "Management": 2380, 
  "&#124;": 2381, 
  "Rules": 2382, 
  "explain": 2383, 
  "register": 2384, 
  "door": 2385, 
  "investments": 2386, 
  "Agency": 2387, 
  "waiting": 2388, 
  "consists": 2389, 
  "Foreign": 2390, 
  "industries": 2391, 
  "brings": 2392, 
  "primarily": 2393, 
  "M": 2394, 
  "talks": 2395, 
  "luxury": 2396, 
  "attractions": 2397, 
  "Sweden": 2398, 
  "Ar@@": 2399, 
  "Federal": 2400, 
  "delay": 2401, 
  "spread": 2402, 
  "landscape": 2403, 
  "testing": 2404, 
  "dimension": 2405, 
  "adequate": 2406, 
  "treated": 2407, 
  "notice": 2408, 
  "object": 2409, 
  "technological": 2410, 
  "primary": 2411, 
  "listed": 2412, 
  "&apos;@@": 2413, 
  "steel": 2414, 
  "photos": 2415, 
  "identity": 2416, 
  "urge": 2417, 
  "est": 2418, 
  "race": 2419, 
  "Romania": 2420, 
  "EC": 2421, 
  "manufacturers": 2422, 
  "break": 2423, 
  "binding": 2424, 
  "par@@": 2425, 
  "Health": 2426, 
  "title": 2427, 
  "sanctions": 2428, 
  "Minutes": 2429, 
  "lake": 2430, 
  "ia": 2431, 
  "equally": 2432, 
  "determined": 2433, 
  "dealt": 2434, 
  "mutual": 2435, 
  "diversity": 2436, 
  "fire": 2437, 
  "Research": 2438, 
  "spaces": 2439, 
  "shower": 2440, 
  "association": 2441, 
  "car@@": 2442, 
  "leadership": 2443, 
  "compliance": 2444, 
  "representative": 2445, 
  "north": 2446, 
  "write": 2447, 
  "speakers": 2448, 
  "sp@@": 2449, 
  "consultation": 2450, 
  "Office": 2451, 
  "significantly": 2452, 
  "ine": 2453, 
  "les": 2454, 
  "multiple": 2455, 
  "om@@": 2456, 
  "improvements": 2457, 
  "mechanisms": 2458, 
  "26": 2459, 
  "affect": 2460, 
  "28": 2461, 
  "www.@@": 2462, 
  "accounts": 2463, 
  "1997": 2464, 
  "prepare": 2465, 
  "named": 2466, 
  "touch": 2467, 
  "rail": 2468, 
  "meaning": 2469, 
  "represented": 2470, 
  "delivered": 2471, 
  "versions": 2472, 
  "copy": 2473, 
  "ana": 2474, 
  "politicians": 2475, 
  "&gt;": 2476, 
  "schools": 2477, 
  "mm": 2478, 
  "bars": 2479, 
  "furnished": 2480, 
  "competence": 2481, 
  "Latin": 2482, 
  "Environment": 2483, 
  "People": 2484, 
  "fuel": 2485, 
  "Club": 2486, 
  "skin": 2487, 
  "Con@@": 2488, 
  "contemporary": 2489, 
  "&apos;ve": 2490, 
  "glass": 2491, 
  "Center": 2492, 
  "southern": 2493, 
  "highlight": 2494, 
  "requested": 2495, 
  "books": 2496, 
  "von": 2497, 
  "te": 2498, 
  "kinds": 2499, 
  "ad": 2500, 
  "consistent": 2501, 
  "except": 2502, 
  "host": 2503, 
  "reply": 2504, 
  "description": 2505, 
  "F": 2506, 
  "older": 2507, 
  "helping": 2508, 
  "regret": 2509, 
  "emphasise": 2510, 
  "compensation": 2511, 
  "cross-border": 2512, 
  "conduct": 2513, 
  "mark": 2514, 
  "letter": 2515, 
  "35": 2516, 
  "System": 2517, 
  "recognise": 2518, 
  "era": 2519, 
  "foot": 2520, 
  "ch": 2521, 
  "pleasure": 2522, 
  "expertise": 2523, 
  "opposite": 2524, 
  "ur@@": 2525, 
  "rejected": 2526, 
  "votes": 2527, 
  "ent": 2528, 
  "won": 2529, 
  "turned": 2530, 
  "obligation": 2531, 
  "store": 2532, 
  "launched": 2533, 
  "drugs": 2534, 
  "shape": 2535, 
  "strength": 2536, 
  "attitude": 2537, 
  "GDP": 2538, 
  "Mar@@": 2539, 
  "default": 2540, 
  "author": 2541, 
  "Dutch": 2542, 
  "mode": 2543, 
  "existence": 2544, 
  "refugees": 2545, 
  "renewable": 2546, 
  "besides": 2547, 
  "1@@": 2548, 
  "This": 2549, 
  "tic": 2550, 
  "satellite": 2551, 
  "requests": 2552, 
  "consequently": 2553, 
  "emphasis": 2554, 
  "presentation": 2555, 
  "ic@@": 2556, 
  "knows": 2557, 
  "17@@": 2558, 
  "combating": 2559, 
  "taxes": 2560, 
  "expectations": 2561, 
  "CD": 2562, 
  "fighting": 2563, 
  "appeal": 2564, 
  "Business": 2565, 
  "operators": 2566, 
  "golf": 2567, 
  "resolve": 2568, 
  "runs": 2569, 
  "onto": 2570, 
  "millions": 2571, 
  "length": 2572, 
  "substances": 2573, 
  "constant": 2574, 
  "mobility": 2575, 
  "experiences": 2576, 
  "31": 2577, 
  "ultimately": 2578, 
  "intention": 2579, 
  "plus": 2580, 
  "delegation": 2581, 
  "urban": 2582, 
  "comply": 2583, 
  "buffet": 2584, 
  "arms": 2585, 
  "relatively": 2586, 
  "ag@@": 2587, 
  "suffering": 2588, 
  "club": 2589, 
  "websites": 2590, 
  "marked": 2591, 
  "affairs": 2592, 
  "Chamber": 2593, 
  "exists": 2594, 
  "feeling": 2595, 
  "win": 2596, 
  "tests": 2597, 
  "helps": 2598, 
  "All": 2599, 
  "ap@@": 2600, 
  "recommended": 2601, 
  "engineering": 2602, 
  "privacy": 2603, 
  "eight": 2604, 
  "lose": 2605, 
  "moved": 2606, 
  "finding": 2607, 
  "protecting": 2608, 
  "advantages": 2609, 
  "recognised": 2610, 
  "passengers": 2611, 
  "constructive": 2612, 
  "ci@@": 2613, 
  "hostels": 2614, 
  "reflect": 2615, 
  "Guest": 2616, 
  "disaster": 2617, 
  "units": 2618, 
  "sold": 2619, 
  "ator": 2620, 
  "applicable": 2621, 
  "texts": 2622, 
  "bi@@": 2623, 
  "opposed": 2624, 
  "G": 2625, 
  "danger": 2626, 
  "print": 2627, 
  "radio": 2628, 
  "P": 2629, 
  "forest": 2630, 
  "V": 2631, 
  "do@@": 2632, 
  "truth": 2633, 
  "respective": 2634, 
  "fraud": 2635, 
  "extension": 2636, 
  "stone": 2637, 
  "diseases": 2638, 
  "valuable": 2639, 
  "45": 2640, 
  "discovered": 2641, 
  "arrangements": 2642, 
  "entered": 2643, 
  "involving": 2644, 
  "directives": 2645, 
  "L": 2646, 
  "appreciate": 2647, 
  "qu@@": 2648, 
  "Rome": 2649, 
  "officials": 2650, 
  "latter": 2651, 
  "burden": 2652, 
  "browser": 2653, 
  "increases": 2654, 
  "mis@@": 2655, 
  "Microsoft": 2656, 
  "criticism": 2657, 
  "exclusively": 2658, 
  "automatic": 2659, 
  "fill": 2660, 
  "articles": 2661, 
  "confirmed": 2662, 
  "bath": 2663, 
  "solve": 2664, 
  "involvement": 2665, 
  "centres": 2666, 
  "Programme": 2667, 
  "largely": 2668, 
  "figure": 2669, 
  "flow": 2670, 
  "Afghanistan": 2671, 
  "debates": 2672, 
  "destination": 2673, 
  "ism": 2674, 
  "0@@": 2675, 
  "determine": 2676, 
  "FR": 2677, 
  "happens": 2678, 
  "pro@@": 2679, 
  "fail": 2680, 
  "ina": 2681, 
  "temporary": 2682, 
  "watch": 2683, 
  "vi@@": 2684, 
  "suggest": 2685, 
  "discharge": 2686, 
  "ships": 2687, 
  "producing": 2688, 
  "creative": 2689, 
  "e.g.": 2690, 
  "peoples": 2691, 
  "ally": 2692, 
  "covers": 2693, 
  "rapporteurs": 2694, 
  "quick": 2695, 
  "An@@": 2696, 
  "1996": 2697, 
  "Ministers": 2698, 
  "treaty": 2699, 
  "amounts": 2700, 
  "contributions": 2701, 
  "error": 2702, 
  "mandate": 2703, 
  "ma@@": 2704, 
  "liberalisation": 2705, 
  "well-@@": 2706, 
  "serves": 2707, 
  "Swedish": 2708, 
  "repeat": 2709, 
  "You": 2710, 
  "dishes": 2711, 
  "lo@@": 2712, 
  "volume": 2713, 
  "happening": 2714, 
  "+": 2715, 
  "controlled": 2716, 
  "worse": 2717, 
  "temperature": 2718, 
  "output": 2719, 
  "fruit": 2720, 
  "heavy": 2721, 
  "handling": 2722, 
  "29": 2723, 
  "Lake": 2724, 
  "h": 2725, 
  "leaving": 2726, 
  "spa": 2727, 
  "trees": 2728, 
  "objects": 2729, 
  "Rule": 2730, 
  "waters": 2731, 
  "cheap": 2732, 
  "Strategy": 2733, 
  "opinions": 2734, 
  "Britain": 2735, 
  "reserve": 2736, 
  "1.@@": 2737, 
  "taste": 2738, 
  "proof": 2739, 
  "sell": 2740, 
  "under@@": 2741, 
  "boat": 2742, 
  "healthy": 2743, 
  "strategies": 2744, 
  "res@@": 2745, 
  "resolutions": 2746, 
  "restrictions": 2747, 
  "obtained": 2748, 
  "thirdly": 2749, 
  "helped": 2750, 
  "hundreds": 2751, 
  "stations": 2752, 
  "Paper": 2753, 
  "wealth": 2754, 
  "preparation": 2755, 
  "removed": 2756, 
  "gets": 2757, 
  "nation": 2758, 
  "collective": 2759, 
  "massive": 2760, 
  "@": 2761, 
  "depends": 2762, 
  "chain": 2763, 
  "contracts": 2764, 
  "remaining": 2765, 
  "offices": 2766, 
  "command": 2767, 
  "Charter": 2768, 
  "ought": 2769, 
  "prove": 2770, 
  "ice": 2771, 
  "r": 2772, 
  "regulatory": 2773, 
  "+@@": 2774, 
  "MEPs": 2775, 
  "communications": 2776, 
  "precise": 2777, 
  "launch": 2778, 
  "tri@@": 2779, 
  "™": 2780, 
  "Munich": 2781, 
  "defend": 2782, 
  "streets": 2783, 
  "é@@": 2784, 
  "creates": 2785, 
  "Booking.com": 2786, 
  "Grand": 2787, 
  "requirement": 2788, 
  "fit": 2789, 
  "NATO": 2790, 
  "investors": 2791, 
  "i.e.": 2792, 
  "organizations": 2793, 
  "perform": 2794, 
  "High": 2795, 
  "intend": 2796, 
  "wait": 2797, 
  "conflicts": 2798, 
  "0": 2799, 
  "soft": 2800, 
  "expensive": 2801, 
  "assist": 2802, 
  "impressive": 2803, 
  "gone": 2804, 
  "involve": 2805, 
  "tours": 2806, 
  "us@@": 2807, 
  "charges": 2808, 
  "identify": 2809, 
  "exceptional": 2810, 
  "operational": 2811, 
  "issued": 2812, 
  "oral": 2813, 
  "mail": 2814, 
  "looks": 2815, 
  "meat": 2816, 
  "be@@": 2817, 
  "journey": 2818, 
  "Procedure": 2819, 
  "president": 2820, 
  "holding": 2821, 
  "abroad": 2822, 
  "furniture": 2823, 
  "reserves": 2824, 
  "per@@": 2825, 
  "regularly": 2826, 
  "Foundation": 2827, 
  "decision-making": 2828, 
  "Software": 2829, 
  "rent": 2830, 
  "confirm": 2831, 
  "felt": 2832, 
  "parliaments": 2833, 
  "convenient": 2834, 
  "drawing": 2835, 
  "Market": 2836, 
  "Google": 2837, 
  "awareness": 2838, 
  "customs": 2839, 
  "willing": 2840, 
  "password": 2841, 
  "facilitate": 2842, 
  "SMEs": 2843, 
  "t-@@": 2844, 
  "Croatia": 2845, 
  "focused": 2846, 
  "continent": 2847, 
  "museum": 2848, 
  "minority": 2849, 
  "hence": 2850, 
  "maintained": 2851, 
  "Institute": 2852, 
  "ot@@": 2853, 
  "ka": 2854, 
  "glad": 2855, 
  "parents": 2856, 
  "co-@@": 2857, 
  "Company": 2858, 
  "hit": 2859, 
  "charming": 2860, 
  "recommendation": 2861, 
  "wind": 2862, 
  "subsidies": 2863, 
  "statistics": 2864, 
  "occasion": 2865, 
  "entertainment": 2866, 
  "define": 2867, 
  "conducted": 2868, 
  "frequently": 2869, 
  "vast": 2870, 
  "characteristics": 2871, 
  "electricity": 2872, 
  "spring": 2873, 
  "block": 2874, 
  "extreme": 2875, 
  "dinner": 2876, 
  "emergency": 2877, 
  "Bulgaria": 2878, 
  "é": 2879, 
  "migration": 2880, 
  "eye": 2881, 
  "demanding": 2882, 
  "Japanese": 2883, 
  "al-@@": 2884, 
  "messages": 2885, 
  "eyes": 2886, 
  "noise": 2887, 
  "10@@": 2888, 
  "corruption": 2889, 
  "grateful": 2890, 
  "submit": 2891, 
  "ary": 2892, 
  "welfare": 2893, 
  "outdoor": 2894, 
  "ors": 2895, 
  "Bar": 2896, 
  "deals": 2897, 
  "king": 2898, 
  "divided": 2899, 
  "displayed": 2900, 
  "answers": 2901, 
  "band": 2902, 
  "a-@@": 2903, 
  "impression": 2904, 
  "Ro@@": 2905, 
  "ha@@": 2906, 
  "audio": 2907, 
  "residence": 2908, 
  "organized": 2909, 
  "maintaining": 2910, 
  "faster": 2911, 
  "absolute": 2912, 
  "surely": 2913, 
  "Frankfurt": 2914, 
  "modified": 2915, 
  "blue": 2916, 
  "copyright": 2917, 
  "Polish": 2918, 
  "Safety": 2919, 
  "2020": 2920, 
  "Alliance": 2921, 
  "trafficking": 2922, 
  "universal": 2923, 
  "weather": 2924, 
  "dates": 2925, 
  "out@@": 2926, 
  "topic": 2927, 
  "so@@": 2928, 
  "printing": 2929, 
  "hardware": 2930, 
  "somewhat": 2931, 
  "pl@@": 2932, 
  "Free": 2933, 
  "proud": 2934, 
  "no@@": 2935, 
  "ie": 2936, 
  "Cyprus": 2937, 
  "noted": 2938, 
  "colour": 2939, 
  "ding": 2940, 
  "connections": 2941, 
  "pollution": 2942, 
  "It": 2943, 
  "settings": 2944, 
  "grow": 2945, 
  "gender": 2946, 
  "Lord": 2947, 
  "delighted": 2948, 
  "effectiveness": 2949, 
  "Korea": 2950, 
  "compatible": 2951, 
  "visible": 2952, 
  "mon@@": 2953, 
  "returned": 2954, 
  "Co@@": 2955, 
  "seat": 2956, 
  "Star": 2957, 
  "blood": 2958, 
  "explore": 2959, 
  "seeing": 2960, 
  "Car@@": 2961, 
  "declaration": 2962, 
  "Energy": 2963, 
  "ethnic": 2964, 
  "d&apos;@@": 2965, 
  "Control": 2966, 
  "mostly": 2967, 
  "license": 2968, 
  "leisure": 2969, 
  "imposed": 2970, 
  "owners": 2971, 
  "contacts": 2972, 
  "classic": 2973, 
  "performed": 2974, 
  "ed@@": 2975, 
  "tickets": 2976, 
  "strict": 2977, 
  "van": 2978, 
  "chemical": 2979, 
  "properties": 2980, 
  "ticket": 2981, 
  "northern": 2982, 
  "bilateral": 2983, 
  "ke": 2984, 
  "indicated": 2985, 
  "reject": 2986, 
  "involves": 2987, 
  "proved": 2988, 
  "joined": 2989, 
  "°": 2990, 
  "ists": 2991, 
  "careful": 2992, 
  "committees": 2993, 
  "follows": 2994, 
  "Monetary": 2995, 
  "updated": 2996, 
  "pension": 2997, 
  "demonstrated": 2998, 
  "couple": 2999, 
  "ge@@": 3000, 
  "cycle": 3001, 
  "fee": 3002, 
  "Roma": 3003, 
  "ongoing": 3004, 
  "demonstrate": 3005, 
  "cold": 3006, 
  "wall": 3007, 
  "medium": 3008, 
  "sexual": 3009, 
  "intellectual": 3010, 
  "16@@": 3011, 
  "contrast": 3012, 
  "transportation": 3013, 
  "firms": 3014, 
  "drivers": 3015, 
  "ds": 3016, 
  "surroundings": 3017, 
  "judicial": 3018, 
  "speaker": 3019, 
  "visa": 3020, 
  "transition": 3021, 
  "finished": 3022, 
  "Applause": 3023, 
  "Luxembourg": 3024, 
  "dining": 3025, 
  "formed": 3026, 
  "terrorist": 3027, 
  "sauna": 3028, 
  "ve": 3029, 
  "ye": 3030, 
  "provider": 3031, 
  "none": 3032, 
  "high-quality": 3033, 
  "Copenhagen": 3034, 
  "meant": 3035, 
  "techniques": 3036, 
  "collaboration": 3037, 
  "considering": 3038, 
  "prefer": 3039, 
  "passenger": 3040, 
  "stored": 3041, 
  "father": 3042, 
  "invite": 3043, 
  "occur": 3044, 
  "minorities": 3045, 
  "concluded": 3046, 
  "showing": 3047, 
  "percent": 3048, 
  "expert": 3049, 
  "subsidiarity": 3050, 
  "wines": 3051, 
  "library": 3052, 
  "possibly": 3053, 
  "understood": 3054, 
  "settlement": 3055, 
  "signs": 3056, 
  "bo@@": 3057, 
  "DVD": 3058, 
  "globalisation": 3059, 
  "Schengen": 3060, 
  "credibility": 3061, 
  "tourists": 3062, 
  "turning": 3063, 
  "driver": 3064, 
  "tackle": 3065, 
  "accompanied": 3066, 
  "ce": 3067, 
  "flights": 3068, 
  "actively": 3069, 
  "ne@@": 3070, 
  "multi-@@": 3071, 
  "immigrants": 3072, 
  "Pact": 3073, 
  "inhabitants": 3074, 
  "locations": 3075, 
  "documentation": 3076, 
  "im": 3077, 
  "cutting": 3078, 
  "listen": 3079, 
  "widely": 3080, 
  "configuration": 3081, 
  "crimes": 3082, 
  "respected": 3083, 
  "partly": 3084, 
  "assets": 3085, 
  "Costa": 3086, 
  "resistance": 3087, 
  "ES": 3088, 
  "profit": 3089, 
  "phrase": 3090, 
  "functioning": 3091, 
  "rapidly": 3092, 
  "feed": 3093, 
  "Brazil": 3094, 
  "walls": 3095, 
  "400": 3096, 
  "bedroom": 3097, 
  "drink": 3098, 
  "fantastic": 3099, 
  "heritage": 3100, 
  "earth": 3101, 
  "islands": 3102, 
  "Villa": 3103, 
  "stronger": 3104, 
  "#": 3105, 
  "constitutional": 3106, 
  "expansion": 3107, 
  "western": 3108, 
  "owner": 3109, 
  "carbon": 3110, 
  "assume": 3111, 
  "Arab": 3112, 
  "inflation": 3113, 
  "Baltic": 3114, 
  "educational": 3115, 
  "overcome": 3116, 
  "starts": 3117, 
  "taxation": 3118, 
  "categories": 3119, 
  "acting": 3120, 
  "Canada": 3121, 
  "career": 3122, 
  "Art": 3123, 
  "afternoon": 3124, 
  "raw": 3125, 
  "Portuguese": 3126, 
  "valley": 3127, 
  "spoken": 3128, 
  "transactions": 3129, 
  "remote": 3130, 
  "Belarus": 3131, 
  "1995": 3132, 
  "presents": 3133, 
  "eventually": 3134, 
  "competent": 3135, 
  "Great": 3136, 
  "scheme": 3137, 
  "facts": 3138, 
  "relaxation": 3139, 
  "exciting": 3140, 
  "PL": 3141, 
  "reported": 3142, 
  "arrive": 3143, 
  "ies": 3144, 
  "nonetheless": 3145, 
  "recorded": 3146, 
  "desired": 3147, 
  "castle": 3148, 
  "Y": 3149, 
  "generated": 3150, 
  "Bo@@": 3151, 
  "reservations": 3152, 
  "emerging": 3153, 
  "15@@": 3154, 
  "bedrooms": 3155, 
  "occasions": 3156, 
  "ity": 3157, 
  "newly": 3158, 
  "que": 3159, 
  "brief": 3160, 
  "John": 3161, 
  "foundation": 3162, 
  "metal": 3163, 
  "woman": 3164, 
  "satisfied": 3165, 
  "adopting": 3166, 
  "encouraging": 3167, 
  "containing": 3168, 
  "replace": 3169, 
  "correctly": 3170, 
  "friend": 3171, 
  "da@@": 3172, 
  "visited": 3173, 
  "hall": 3174, 
  "ment": 3175, 
  "professionals": 3176, 
  "ex@@": 3177, 
  "fashion": 3178, 
  "Financial": 3179, 
  "awarded": 3180, 
  "sending": 3181, 
  "suppliers": 3182, 
  "En@@": 3183, 
  "heating": 3184, 
  "Funds": 3185, 
  "exit": 3186, 
  "youth": 3187, 
  "profile": 3188, 
  "whereas": 3189, 
  "forum": 3190, 
  "destruction": 3191, 
  "constitution": 3192, 
  "channels": 3193, 
  "corresponding": 3194, 
  "farm": 3195, 
  "familiar": 3196, 
  "Israeli": 3197, 
  "ter@@": 3198, 
  "decisive": 3199, 
  "wireless": 3200, 
  "elsewhere": 3201, 
  "replaced": 3202, 
  "ti": 3203, 
  "resolved": 3204, 
  "plenary": 3205, 
  "visiting": 3206, 
  "ets": 3207, 
  "shares": 3208, 
  "declared": 3209, 
  "behaviour": 3210, 
  "channel": 3211, 
  "bound": 3212, 
  "solid": 3213, 
  "preparing": 3214, 
  "citizen": 3215, 
  "identified": 3216, 
  "heat": 3217, 
  "eastern": 3218, 
  "match": 3219, 
  "department": 3220, 
  "150": 3221, 
  "manufacturer": 3222, 
  "renovated": 3223, 
  "roads": 3224, 
  "ports": 3225, 
  "bottom": 3226, 
  "Hungary": 3227, 
  "entrance": 3228, 
  "regardless": 3229, 
  "Soviet": 3230, 
  "component": 3231, 
  "providers": 3232, 
  "gold": 3233, 
  "voluntary": 3234, 
  "applying": 3235, 
  "grant": 3236, 
  "ing@@": 3237, 
  "Dr.": 3238, 
  "high-@@": 3239, 
  "ensures": 3240, 
  "vacation": 3241, 
  "il@@": 3242, 
  "exports": 3243, 
  "inclusion": 3244, 
  "suites": 3245, 
  "distributed": 3246, 
  "routes": 3247, 
  "rising": 3248, 
  "vulnerable": 3249, 
  "Euro": 3250, 
  "Pakistan": 3251, 
  "K": 3252, 
  "deficit": 3253, 
  "appointed": 3254, 
  "spot": 3255, 
  "proposes": 3256, 
  "proceed": 3257, 
  "Belgium": 3258, 
  "dependent": 3259, 
  "excessive": 3260, 
  "32": 3261, 
  "Mo@@": 3262, 
  "addresses": 3263, 
  "balcony": 3264, 
  "towns": 3265, 
  "proposing": 3266, 
  "enhance": 3267, 
  "ance": 3268, 
  "ology": 3269, 
  "Prague": 3270, 
  "died": 3271, 
  "originally": 3272, 
  "ties": 3273, 
  "argument": 3274, 
  "com@@": 3275, 
  "banking": 3276, 
  "artist": 3277, 
  "sugar": 3278, 
  "shipping": 3279, 
  "ters": 3280, 
  "interior": 3281, 
  "lists": 3282, 
  "interpretation": 3283, 
  "Enterprise": 3284, 
  "impose": 3285, 
  "Le": 3286, 
  "everybody": 3287, 
  "Friday": 3288, 
  "facility": 3289, 
  "f": 3290, 
  "assure": 3291, 
  "ze": 3292, 
  "updates": 3293, 
  "River": 3294, 
  "ite": 3295, 
  "saving": 3296, 
  "division": 3297, 
  "Hungarian": 3298, 
  "maritime": 3299, 
  "packaging": 3300, 
  "plays": 3301, 
  "exception": 3302, 
  "proven": 3303, 
  "theme": 3304, 
  "extraordinary": 3305, 
  "army": 3306, 
  "imagine": 3307, 
  "substance": 3308, 
  "tobacco": 3309, 
  "suffer": 3310, 
  "usual": 3311, 
  "Structural": 3312, 
  "Square": 3313, 
  "milk": 3314, 
  "legitimate": 3315, 
  "battle": 3316, 
  "slightly": 3317, 
  "decorated": 3318, 
  "fitness": 3319, 
  "cash": 3320, 
  "attempts": 3321, 
  "ou@@": 3322, 
  "savings": 3323, 
  "invest": 3324, 
  "carrying": 3325, 
  "plenty": 3326, 
  "VAT": 3327, 
  "planet": 3328, 
  "politically": 3329, 
  "standing": 3330, 
  "abuse": 3331, 
  "s-@@": 3332, 
  "cosy": 3333, 
  "lessons": 3334, 
  "Information": 3335, 
  "duties": 3336, 
  "courts": 3337, 
  "cable": 3338, 
  "absence": 3339, 
  "for@@": 3340, 
  "Roman": 3341, 
  "secret": 3342, 
  "Street": 3343, 
  "corner": 3344, 
  "definitely": 3345, 
  "housing": 3346, 
  "White": 3347, 
  "formal": 3348, 
  "solely": 3349, 
  "der@@": 3350, 
  "forests": 3351, 
  "ul@@": 3352, 
  "bridge": 3353, 
  "ages": 3354, 
  "pieces": 3355, 
  "treat": 3356, 
  "representation": 3357, 
  "patent": 3358, 
  "quarter": 3359, 
  "greatly": 3360, 
  "hostel": 3361, 
  "supplier": 3362, 
  "ma": 3363, 
  "supplies": 3364, 
  "concepts": 3365, 
  "subjects": 3366, 
  "drug": 3367, 
  "w": 3368, 
  "Bush": 3369, 
  "Assembly": 3370, 
  "stylish": 3371, 
  "diverse": 3372, 
  "pursue": 3373, 
  "sum": 3374, 
  "regarded": 3375, 
  "rental": 3376, 
  "trial": 3377, 
  "suggestions": 3378, 
  "album": 3379, 
  "lie": 3380, 
  "Ch@@": 3381, 
  "realistic": 3382, 
  "harmonisation": 3383, 
  "imports": 3384, 
  "moral": 3385, 
  "farming": 3386, 
  "wonder": 3387, 
  "east": 3388, 
  "2011": 3389, 
  "straight": 3390, 
  "topics": 3391, 
  "Palace": 3392, 
  "west": 3393, 
  "everyday": 3394, 
  "arguments": 3395, 
  "ended": 3396, 
  "consent": 3397, 
  "virtual": 3398, 
  "adults": 3399, 
  "EADS": 3400, 
  "enabled": 3401, 
  "eg@@": 3402, 
  "specified": 3403, 
  "Framework": 3404, 
  "Thursday": 3405, 
  "gained": 3406, 
  "spectacular": 3407, 
  "sharing": 3408, 
  "suite": 3409, 
  "receiving": 3410, 
  "ter": 3411, 
  "input": 3412, 
  "ho@@": 3413, 
  "difficulty": 3414, 
  "flat": 3415, 
  "Di@@": 3416, 
  "personnel": 3417, 
  "Mexico": 3418, 
  "master": 3419, 
  "prosperity": 3420, 
  "rock": 3421, 
  "Protection": 3422, 
  "introducing": 3423, 
  "fourth": 3424, 
  "depend": 3425, 
  "examine": 3426, 
  "ality": 3427, 
  "comparison": 3428, 
  "satisfaction": 3429, 
  "domain": 3430, 
  "continuous": 3431, 
  "departure": 3432, 
  "0.@@": 3433, 
  "magnificent": 3434, 
  "ISO": 3435, 
  "traditions": 3436, 
  "cooperate": 3437, 
  "Nos": 3438, 
  "cuts": 3439, 
  "paying": 3440, 
  "university": 3441, 
  "suggested": 3442, 
  "accordingly": 3443, 
  "disabled": 3444, 
  "Northern": 3445, 
  "films": 3446, 
  "enabling": 3447, 
  "75": 3448, 
  "Bar@@": 3449, 
  "referendum": 3450, 
  "labelling": 3451, 
  "directory": 3452, 
  "teams": 3453, 
  "N": 3454, 
  "gardens": 3455, 
  "hundred": 3456, 
  "trend": 3457, 
  "man@@": 3458, 
  "electric": 3459, 
  "Station": 3460, 
  "preventing": 3461, 
  "significance": 3462, 
  "intensive": 3463, 
  "module": 3464, 
  "mother": 3465, 
  "thousand": 3466, 
  "obliged": 3467, 
  "constitute": 3468, 
  "Desk": 3469, 
  "justified": 3470, 
  "disk": 3471, 
  "filled": 3472, 
  "artistic": 3473, 
  "allocated": 3474, 
  "succeed": 3475, 
  "permitted": 3476, 
  "negotiating": 3477, 
  "sc@@": 3478, 
  "well-known": 3479, 
  "overview": 3480, 
  "invited": 3481, 
  "ness": 3482, 
  "du@@": 3483, 
  "label": 3484, 
  "societies": 3485, 
  "religion": 3486, 
  "philosophy": 3487, 
  "/@@": 3488, 
  "finish": 3489, 
  "au": 3490, 
  "ical": 3491, 
  "freedoms": 3492, 
  "lounge": 3493, 
  "patient": 3494, 
  "centuries": 3495, 
  "Church": 3496, 
  "CO2": 3497, 
  "theory": 3498, 
  "mix": 3499, 
  "li": 3500, 
  "supervision": 3501, 
  "count": 3502, 
  "H": 3503, 
  "log": 3504, 
  "Barroso": 3505, 
  "ordinary": 3506, 
  "Day": 3507, 
  "fulfil": 3508, 
  "lots": 3509, 
  "à": 3510, 
  "miles": 3511, 
  "lastly": 3512, 
  "Pro@@": 3513, 
  "normally": 3514, 
  "undoubtedly": 3515, 
  "spoke": 3516, 
  "anti@@": 3517, 
  "ators": 3518, 
  "Auditors": 3519, 
  "legally": 3520, 
  "confirmation": 3521, 
  "slow": 3522, 
  "weak": 3523, 
  "lovely": 3524, 
  "organic": 3525, 
  "hair": 3526, 
  "periods": 3527, 
  "forthcoming": 3528, 
  "hardly": 3529, 
  "specialist": 3530, 
  "import": 3531, 
  "Americans": 3532, 
  "sustainability": 3533, 
  "re": 3534, 
  "tested": 3535, 
  "productivity": 3536, 
  "edge": 3537, 
  "skiing": 3538, 
  "complicated": 3539, 
  "Egypt": 3540, 
  "refers": 3541, 
  "wrote": 3542, 
  "programming": 3543, 
  "publication": 3544, 
  "firmly": 3545, 
  "reaching": 3546, 
  "doors": 3547, 
  "Cor@@": 3548, 
  "lift": 3549, 
  "functionality": 3550, 
  "colours": 3551, 
  "Islamic": 3552, 
  "proceedings": 3553, 
  "du": 3554, 
  "welcomed": 3555, 
  "instructions": 3556, 
  "remarks": 3557, 
  "contributed": 3558, 
  "enhanced": 3559, 
  "leaves": 3560, 
  "barriers": 3561, 
  "directed": 3562, 
  "su@@": 3563, 
  "Room": 3564, 
  "W": 3565, 
  "den@@": 3566, 
  "berg": 3567, 
  "ess": 3568, 
  "ry": 3569, 
  "ob@@": 3570, 
  "unlike": 3571, 
  "St@@": 3572, 
  "1990": 3573, 
  "deposit": 3574, 
  "realise": 3575, 
  "Strasbourg": 3576, 
  "destroyed": 3577, 
  "safeguard": 3578, 
  "Madrid": 3579, 
  "obstacles": 3580, 
  "appeared": 3581, 
  "Atlantic": 3582, 
  "Best": 3583, 
  "Socialist": 3584, 
  "indicate": 3585, 
  "coordinated": 3586, 
  "revision": 3587, 
  "beings": 3588, 
  "ins": 3589, 
  "villages": 3590, 
  "combine": 3591, 
  "suffered": 3592, 
  "frame": 3593, 
  "renowned": 3594, 
  "cor@@": 3595, 
  "acceptance": 3596, 
  "endorse": 3597, 
  "Finland": 3598, 
  "ministers": 3599, 
  "modules": 3600, 
  "IP": 3601, 
  "maybe": 3602, 
  "stocks": 3603, 
  "recognized": 3604, 
  "killed": 3605, 
  "handle": 3606, 
  "ver@@": 3607, 
  "lay": 3608, 
  "ian": 3609, 
  "windows": 3610, 
  "ra": 3611, 
  "ten@@": 3612, 
  "drinks": 3613, 
  "covering": 3614, 
  "ECB": 3615, 
  "tions": 3616, 
  "Serbia": 3617, 
  "post-@@": 3618, 
  "ak": 3619, 
  "na": 3620, 
  "ders": 3621, 
  "layer": 3622, 
  "ino": 3623, 
  "Ma@@": 3624, 
  "eb@@": 3625, 
  "Spa": 3626, 
  "disasters": 3627, 
  "tennis": 3628, 
  "connect": 3629, 
  "parameters": 3630, 
  "scene": 3631, 
  "tables": 3632, 
  "ep@@": 3633, 
  "wider": 3634, 
  "weekend": 3635, 
  "upper": 3636, 
  "managing": 3637, 
  "accurate": 3638, 
  "Congress": 3639, 
  "sections": 3640, 
  "alongside": 3641, 
  "ber@@": 3642, 
  "award": 3643, 
  "generate": 3644, 
  "supposed": 3645, 
  "Home": 3646, 
  "exploitation": 3647, 
  "selling": 3648, 
  "conditioning": 3649, 
  "PT": 3650, 
  "remained": 3651, 
  "vessels": 3652, 
  "movements": 3653, 
  "blog": 3654, 
  "functional": 3655, 
  "ard": 3656, 
  "ends": 3657, 
  "Old": 3658, 
  "violations": 3659, 
  "considerably": 3660, 
  "missing": 3661, 
  "Q@@": 3662, 
  "cells": 3663, 
  "gap": 3664, 
  "U": 3665, 
  "errors": 3666, 
  "investigation": 3667, 
  "explained": 3668, 
  "Technology": 3669, 
  "faith": 3670, 
  "hearing": 3671, 
  "reflected": 3672, 
  "parliament": 3673, 
  "exclusion": 3674, 
  "homes": 3675, 
  "adapt": 3676, 
  "Action": 3677, 
  "tive": 3678, 
  "d-@@": 3679, 
  "driven": 3680, 
  "adapted": 3681, 
  "rare": 3682, 
  "countryside": 3683, 
  "gallery": 3684, 
  "united": 3685, 
  "ut@@": 3686, 
  "reflects": 3687, 
  "Agriculture": 3688, 
  "universities": 3689, 
  "Act": 3690, 
  "travelling": 3691, 
  "cancer": 3692, 
  "ence": 3693, 
  "Mon@@": 3694, 
  "saved": 3695, 
  "determination": 3696, 
  "bar@@": 3697, 
  "Stability": 3698, 
  "das": 3699, 
  "bike": 3700, 
  "Private": 3701, 
  "internationally": 3702, 
  "dream": 3703, 
  "motor": 3704, 
  "fees": 3705, 
  "lunch": 3706, 
  "rec@@": 3707, 
  "notes": 3708, 
  "enterprise": 3709, 
  "18@@": 3710, 
  "excluded": 3711, 
  "subsequent": 3712, 
  "cross": 3713, 
  "classes": 3714, 
  "transmission": 3715, 
  "ent@@": 3716, 
  "trips": 3717, 
  "micro@@": 3718, 
  "IN@@": 3719, 
  "generations": 3720, 
  "losses": 3721, 
  "ACP": 3722, 
  "Commissioners": 3723, 
  "dignity": 3724, 
  "whenever": 3725, 
  "pure": 3726, 
  "ano": 3727, 
  "luxurious": 3728, 
  "restructuring": 3729, 
  "delicious": 3730, 
  "compact": 3731, 
  "clubs": 3732, 
  "ative": 3733, 
  "ECU": 3734, 
  "collected": 3735, 
  "consulting": 3736, 
  "reliability": 3737, 
  "football": 3738, 
  "El": 3739, 
  "arise": 3740, 
  "Balkans": 3741, 
  "characters": 3742, 
  "ale": 3743, 
  "cleaning": 3744, 
  "ded": 3745, 
  "Monday": 3746, 
  "protocol": 3747, 
  "checks": 3748, 
  "Santa": 3749, 
  "appearance": 3750, 
  "ised": 3751, 
  "unforgettable": 3752, 
  "sk@@": 3753, 
  "welcomes": 3754, 
  "sought": 3755, 
  "fishermen": 3756, 
  "concentrate": 3757, 
  "fleet": 3758, 
  "courage": 3759, 
  "approve": 3760, 
  "parallel": 3761, 
  "resource": 3762, 
  "sovereignty": 3763, 
  "armed": 3764, 
  "warning": 3765, 
  "penalty": 3766, 
  "Asian": 3767, 
  "targeted": 3768, 
  "clause": 3769, 
  "Amendments": 3770, 
  "Code": 3771, 
  "ring": 3772, 
  "assess": 3773, 
  "believes": 3774, 
  "wellness": 3775, 
  "essentially": 3776, 
  "undertaken": 3777, 
  "briefly": 3778, 
  "showed": 3779, 
  "strengthened": 3780, 
  "Hamburg": 3781, 
  "severe": 3782, 
  "Earth": 3783, 
  "-S@@": 3784, 
  "reaction": 3785, 
  "ta": 3786, 
  "12@@": 3787, 
  "av@@": 3788, 
  "sounds": 3789, 
  "festival": 3790, 
  "restore": 3791, 
  "sensible": 3792, 
  "fans": 3793, 
  "ta@@": 3794, 
  "arrived": 3795, 
  "&#124;@@": 3796, 
  "up@@": 3797, 
  "female": 3798, 
  "reconstruction": 3799, 
  "Obama": 3800, 
  "non-smoking": 3801, 
  "trends": 3802, 
  "sky": 3803, 
  "nine": 3804, 
  "shortly": 3805, 
  "U.S.": 3806, 
  "decade": 3807, 
  "initially": 3808, 
  "EL": 3809, 
  "King": 3810, 
  "Legal": 3811, 
  "3D": 3812, 
  "scientists": 3813, 
  "gi@@": 3814, 
  "nobody": 3815, 
  "ir@@": 3816, 
  "ish": 3817, 
  "ling": 3818, 
  "1994": 3819, 
  "transferred": 3820, 
  "manager": 3821, 
  "stages": 3822, 
  "Sunday": 3823, 
  "printed": 3824, 
  "la@@": 3825, 
  "computers": 3826, 
  "ecological": 3827, 
  "decline": 3828, 
  "processed": 3829, 
  "musical": 3830, 
  "entering": 3831, 
  "in-@@": 3832, 
  "sphere": 3833, 
  "deeply": 3834, 
  "accident": 3835, 
  "Re@@": 3836, 
  "drop": 3837, 
  "cultures": 3838, 
  "supplied": 3839, 
  "load": 3840, 
  "mar@@": 3841, 
  "ms": 3842, 
  "director": 3843, 
  "assembly": 3844, 
  "ru@@": 3845, 
  "für": 3846, 
  "bearing": 3847, 
  "95": 3848, 
  "toward": 3849, 
  "Geneva": 3850, 
  "cast": 3851, 
  "Time": 3852, 
  "lasting": 3853, 
  "Georgia": 3854, 
  "symbol": 3855, 
  "á@@": 3856, 
  "adding": 3857, 
  "ne": 3858, 
  "tree": 3859, 
  "neighbouring": 3860, 
  "profits": 3861, 
  "Data": 3862, 
  "PHP": 3863, 
  "learned": 3864, 
  "Federation": 3865, 
  "hi@@": 3866, 
  "prospects": 3867, 
  "&apos;m": 3868, 
  "thermal": 3869, 
  "looked": 3870, 
  "threats": 3871, 
  "raising": 3872, 
  "NGOs": 3873, 
  "manufacture": 3874, 
  "aside": 3875, 
  "freely": 3876, 
  "14@@": 3877, 
  "Restaurant": 3878, 
  "necessarily": 3879, 
  "Year": 3880, 
  "prime": 3881, 
  "CAP": 3882, 
  "equivalent": 3883, 
  "presenting": 3884, 
  "studio": 3885, 
  "Town": 3886, 
  "flows": 3887, 
  "Organisation": 3888, 
  "ja": 3889, 
  "budgets": 3890, 
  "adds": 3891, 
  "01": 3892, 
  "collect": 3893, 
  "appropriations": 3894, 
  "satisfy": 3895, 
  "dry": 3896, 
  "hospitality": 3897, 
  "acknowledge": 3898, 
  "Transport": 3899, 
  "pe@@": 3900, 
  "portfolio": 3901, 
  "pillar": 3902, 
  "Air": 3903, 
  "highlights": 3904, 
  "2.@@": 3905, 
  "Royal": 3906, 
  "wo": 3907, 
  "owned": 3908, 
  "ordered": 3909, 
  "produces": 3910, 
  "relates": 3911, 
  "England": 3912, 
  "everywhere": 3913, 
  "massage": 3914, 
  "worst": 3915, 
  "urgently": 3916, 
  "designs": 3917, 
  "belong": 3918, 
  "proportion": 3919, 
  "dead": 3920, 
  "hiking": 3921, 
  "virtually": 3922, 
  "mit": 3923, 
  "Island": 3924, 
  "600": 3925, 
  "Ombudsman": 3926, 
  "shadow": 3927, 
  "enjoyed": 3928, 
  "holds": 3929, 
  "referring": 3930, 
  "Facilities": 3931, 
  "factory": 3932, 
  "mann": 3933, 
  "heading": 3934, 
  "Law": 3935, 
  "attached": 3936, 
  "va": 3937, 
  "ak@@": 3938, 
  "wi@@": 3939, 
  "diplomatic": 3940, 
  "intends": 3941, 
  "efficiently": 3942, 
  "Site": 3943, 
  "13@@": 3944, 
  "territorial": 3945, 
  "conventional": 3946, 
  "ride": 3947, 
  "belief": 3948, 
  "Festival": 3949, 
  "minister": 3950, 
  "coherent": 3951, 
  "geographical": 3952, 
  "counter": 3953, 
  "birth": 3954, 
  "individually": 3955, 
  "gradually": 3956, 
  "bu@@": 3957, 
  "engaged": 3958, 
  "restored": 3959, 
  "eat": 3960, 
  "Denmark": 3961, 
  "School": 3962, 
  "Li@@": 3963, 
  "promise": 3964, 
  "anywhere": 3965, 
  "anniversary": 3966, 
  "root": 3967, 
  "executive": 3968, 
  "Nice": 3969, 
  "shift": 3970, 
  "Po@@": 3971, 
  "museums": 3972, 
  "strictly": 3973, 
  "1st": 3974, 
  "ks": 3975, 
  "arising": 3976, 
  "promised": 3977, 
  "struggle": 3978, 
  "Th@@": 3979, 
  "phenomenon": 3980, 
  "plastic": 3981, 
  "specialists": 3982, 
  "highlighted": 3983, 
  "De": 3984, 
  "ck@@": 3985, 
  "98": 3986, 
  "switch": 3987, 
  "romantic": 3988, 
  "ing-@@": 3989, 
  "treatments": 3990, 
  "falls": 3991, 
  "sole": 3992, 
  "candidates": 3993, 
  "usage": 3994, 
  "execution": 3995, 
  "sight": 3996, 
  "un": 3997, 
  "48": 3998, 
  "http": 3999, 
  "mistake": 4000, 
  "tor@@": 4001, 
  "succeeded": 4002, 
  "honour": 4003, 
  "occurred": 4004, 
  "lived": 4005, 
  "ty": 4006, 
  "ously": 4007, 
  "aviation": 4008, 
  "consequence": 4009, 
  "Budgets": 4010, 
  "dark": 4011, 
  "affects": 4012, 
  "ber": 4013, 
  "fi@@": 4014, 
  "reserved": 4015, 
  "nights": 4016, 
  "800": 4017, 
  "ge": 4018, 
  "ur": 4019, 
  "inspired": 4020, 
  "PDF": 4021, 
  "uniform": 4022, 
  "welcoming": 4023, 
  "ler": 4024, 
  "damages": 4025, 
  "Valley": 4026, 
  "widespread": 4027, 
  "go@@": 4028, 
  "engines": 4029, 
  "il": 4030, 
  "relative": 4031, 
  "-based": 4032, 
  "99": 4033, 
  "tu@@": 4034, 
  "OS": 4035, 
  "clicking": 4036, 
  "reputation": 4037, 
  "estimated": 4038, 
  "incorporated": 4039, 
  "marks": 4040, 
  "ev@@": 4041, 
  "rely": 4042, 
  "tracks": 4043, 
  "guided": 4044, 
  "JavaScript": 4045, 
  "composition": 4046, 
  "similarly": 4047, 
  "push": 4048, 
  "liable": 4049, 
  "teaching": 4050, 
  "Wi-Fi": 4051, 
  "underground": 4052, 
  "Australia": 4053, 
  "Express": 4054, 
  "Vice-President": 4055, 
  "engage": 4056, 
  "meets": 4057, 
  "reporting": 4058, 
  "Christmas": 4059, 
  "integrate": 4060, 
  "Per@@": 4061, 
  "prisoners": 4062, 
  "causing": 4063, 
  "min@@": 4064, 
  "zu": 4065, 
  "alcohol": 4066, 
  "resulted": 4067, 
  "Media": 4068, 
  "Black": 4069, 
  "encouraged": 4070, 
  "quotas": 4071, 
  "considers": 4072, 
  "acquired": 4073, 
  "therapy": 4074, 
  "solar": 4075, 
  "participating": 4076, 
  "servers": 4077, 
  "Inn": 4078, 
  "fairly": 4079, 
  "panel": 4080, 
  "passing": 4081, 
  "edition": 4082, 
  "sorry": 4083, 
  "Belgian": 4084, 
  "basically": 4085, 
  "accidents": 4086, 
  "sophisticated": 4087, 
  "cell": 4088, 
  "varied": 4089, 
  "euros": 4090, 
  "province": 4091, 
  "grown": 4092, 
  "revenue": 4093, 
  "explanation": 4094, 
  "convergence": 4095, 
  "oc@@": 4096, 
  "clarify": 4097, 
  "restricted": 4098, 
  "stars": 4099, 
  "For": 4100, 
  "movie": 4101, 
  "producer": 4102, 
  "Indian": 4103, 
  "boost": 4104, 
  "achievement": 4105, 
  "ingly": 4106, 
  "=": 4107, 
  "insist": 4108, 
  "heads": 4109, 
  "kernel": 4110, 
  "songs": 4111, 
  "seeks": 4112, 
  "subsequently": 4113, 
  "begins": 4114, 
  "Constitutional": 4115, 
  "serving": 4116, 
  "v": 4117, 
  "airports": 4118, 
  "medicine": 4119, 
  "operator": 4120, 
  "manual": 4121, 
  "suit": 4122, 
  "recognize": 4123, 
  "des@@": 4124, 
  "Rotary": 4125, 
  "IMF": 4126, 
  "recording": 4127, 
  "st": 4128, 
  "Mor@@": 4129, 
  "ants": 4130, 
  "Red": 4131, 
  "hidden": 4132, 
  "Deutsche": 4133, 
  "seats": 4134, 
  "two-@@": 4135, 
  "sights": 4136, 
  "puts": 4137, 
  "troops": 4138, 
  "utmost": 4139, 
  "graphics": 4140, 
  "Protocol": 4141, 
  "..": 4142, 
  "Treaties": 4143, 
  "airlines": 4144, 
  "meaningfully": 4145, 
  "twice": 4146, 
  "Man@@": 4147, 
  "teachers": 4148, 
  "1992": 4149, 
  "harmful": 4150, 
  "filter": 4151, 
  "sand": 4152, 
  "id": 4153, 
  "picturesque": 4154, 
  "alization": 4155, 
  "student": 4156, 
  "wear": 4157, 
  "Saturday": 4158, 
  "dollar": 4159, 
  "exact": 4160, 
  "panoramic": 4161, 
  "observed": 4162, 
  "agents": 4163, 
  "sur@@": 4164, 
  "purely": 4165, 
  "sit": 4166, 
  "soil": 4167, 
  "preserve": 4168, 
  "tea": 4169, 
  "Venice": 4170, 
  "wild": 4171, 
  "crises": 4172, 
  "combines": 4173, 
  "radical": 4174, 
  "amenities": 4175, 
  "know-how": 4176, 
  "addressing": 4177, 
  "Systems": 4178, 
  "videos": 4179, 
  "extending": 4180, 
  "one-@@": 4181, 
  "Agenda": 4182, 
  "kilometres": 4183, 
  "developers": 4184, 
  "sub-categories": 4185, 
  "Danish": 4186, 
  "song": 4187, 
  "unfair": 4188, 
  "opens": 4189, 
  "choices": 4190, 
  "associations": 4191, 
  "logical": 4192, 
  "ens": 4193, 
  "overlooking": 4194, 
  "implications": 4195, 
  "ig@@": 4196, 
  "promises": 4197, 
  "governing": 4198, 
  "oldest": 4199, 
  "contextually": 4200, 
  "capabilities": 4201, 
  "33": 4202, 
  "surprise": 4203, 
  "specialized": 4204, 
  "sufficiently": 4205, 
  "intelligent": 4206, 
  "ck": 4207, 
  "grammatically": 4208, 
  "chairman": 4209, 
  "records": 4210, 
  "Gu@@": 4211, 
  "blocks": 4212, 
  "hopes": 4213, 
  "additionally": 4214, 
  "pretty": 4215, 
  "vo@@": 4216, 
  "USB": 4217, 
  "Prodi": 4218, 
  "55": 4219, 
  "edited": 4220, 
  "stake": 4221, 
  "ini": 4222, 
  "dispute": 4223, 
  "Bay": 4224, 
  "ideally": 4225, 
  "percentage": 4226, 
  "conferences": 4227, 
  "spite": 4228, 
  "attend": 4229, 
  "nowadays": 4230, 
  "Islands": 4231, 
  "meal": 4232, 
  "enforcement": 4233, 
  "est@@": 4234, 
  "floors": 4235, 
  "prison": 4236, 
  "Peter": 4237, 
  "Regional": 4238, 
  "Front": 4239, 
  "ses": 4240, 
  "20@@": 4241, 
  "wa@@": 4242, 
  "script": 4243, 
  "amended": 4244, 
  "snow": 4245, 
  "Hall": 4246, 
  "boats": 4247, 
  "negotiation": 4248, 
  "medicines": 4249, 
  "desk": 4250, 
  "magazine": 4251, 
  "operates": 4252, 
  "convention": 4253, 
  "permit": 4254, 
  "relationships": 4255, 
  "on-@@": 4256, 
  "ratification": 4257, 
  "upgrade": 4258, 
  "chapter": 4259, 
  "cookies": 4260, 
  "victory": 4261, 
  "scheduled": 4262, 
  "Su@@": 4263, 
  "Beach": 4264, 
  "34": 4265, 
  "Tour": 4266, 
  "36": 4267, 
  "mere": 4268, 
  "eurozone": 4269, 
  "Plan": 4270, 
  "superior": 4271, 
  "constitutes": 4272, 
  "unity": 4273, 
  "olive": 4274, 
  "Castle": 4275, 
  "concert": 4276, 
  "expense": 4277, 
  "schemes": 4278, 
  "retain": 4279, 
  "communicate": 4280, 
  "surprised": 4281, 
  "Executive": 4282, 
  "multilateral": 4283, 
  "expand": 4284, 
  "colors": 4285, 
  "till": 4286, 
  "pick": 4287, 
  "poorest": 4288, 
  "ying": 4289, 
  "compulsory": 4290, 
  "actors": 4291, 
  "joining": 4292, 
  "narrow": 4293, 
  "Sch@@": 4294, 
  "incentives": 4295, 
  "mouse": 4296, 
  "urgency": 4297, 
  "Un@@": 4298, 
  "sa@@": 4299, 
  "Card": 4300, 
  "Design": 4301, 
  "air@@": 4302, 
  "journalists": 4303, 
  "organise": 4304, 
  "IT@@": 4305, 
  "ise": 4306, 
  "legitimacy": 4307, 
  "fewer": 4308, 
  "eliminate": 4309, 
  "pm": 4310, 
  "approaches": 4311, 
  "liberal": 4312, 
  "sheet": 4313, 
  "3.@@": 4314, 
  "financed": 4315, 
  "19th": 4316, 
  "permission": 4317, 
  "conciliation": 4318, 
  "satisfactory": 4319, 
  "Kyoto": 4320, 
  "repeated": 4321, 
  "concentration": 4322, 
  "quote": 4323, 
  "III": 4324, 
  "CO@@": 4325, 
  "neighbours": 4326, 
  "ger": 4327, 
  "camp": 4328, 
  "Paul": 4329, 
  "repair": 4330, 
  "ars": 4331, 
  "For@@": 4332, 
  "formats": 4333, 
  "Box": 4334, 
  "Tourism": 4335, 
  "za": 4336, 
  "campaigns": 4337, 
  "Server": 4338, 
  "Culture": 4339, 
  "ably": 4340, 
  "winning": 4341, 
  "whereby": 4342, 
  "openness": 4343, 
  "thumbnail": 4344, 
  "smooth": 4345, 
  "employed": 4346, 
  "•": 4347, 
  "oriented": 4348, 
  "ownership": 4349, 
  "economically": 4350, 
  "Food": 4351, 
  "remarkable": 4352, 
  "ultimate": 4353, 
  "stunning": 4354, 
  "classical": 4355, 
  "Mr.": 4356, 
  "appointment": 4357, 
  "COM": 4358, 
  "references": 4359, 
  "inadequate": 4360, 
  "Inter@@": 4361, 
  "ac": 4362, 
  "underlying": 4363, 
  "3-@@": 4364, 
  "wooden": 4365, 
  "operated": 4366, 
  "feet": 4367, 
  "Intergovernmental": 4368, 
  "accounting": 4369, 
  "certified": 4370, 
  "bright": 4371, 
  "amazing": 4372, 
  "e.g": 4373, 
  "Ab@@": 4374, 
  "native": 4375, 
  "studied": 4376, 
  "war@@": 4377, 
  "completion": 4378, 
  "seconds": 4379, 
  "1,@@": 4380, 
  "liked": 4381, 
  "meals": 4382, 
  "federal": 4383, 
  "pressing": 4384, 
  "me@@": 4385, 
  "Breakfast": 4386, 
  "Manager": 4387, 
  "Exchange": 4388, 
  "violation": 4389, 
  "debating": 4390, 
  "considerations": 4391, 
  "ingredients": 4392, 
  "back@@": 4393, 
  "Fundamental": 4394, 
  "Michael": 4395, 
  "non@@": 4396, 
  "unnecessary": 4397, 
  "exposed": 4398, 
  "ys": 4399, 
  "believed": 4400, 
  "catch": 4401, 
  "Martin": 4402, 
  "alism": 4403, 
  "deserves": 4404, 
  "to-@@": 4405, 
  "describe": 4406, 
  "er-@@": 4407, 
  "codecision": 4408, 
  "stores": 4409, 
  "p.m.": 4410, 
  "assigned": 4411, 
  "Bi@@": 4412, 
  "si": 4413, 
  "ble": 4414, 
  "Report": 4415, 
  "cm": 4416, 
  "productive": 4417, 
  "ents": 4418, 
  "Par@@": 4419, 
  "foundations": 4420, 
  "translated": 4421, 
  "timetable": 4422, 
  "pilot": 4423, 
  "First": 4424, 
  "1993": 4425, 
  "casino": 4426, 
  "comm@@": 4427, 
  "ves": 4428, 
  "repeatedly": 4429, 
  "Authority": 4430, 
  "Global": 4431, 
  "te@@": 4432, 
  "NL": 4433, 
  "navigation": 4434, 
  "newsletter": 4435, 
  "cur@@": 4436, 
  "labor": 4437, 
  "stories": 4438, 
  "Consumer": 4439, 
  "lets": 4440, 
  "representing": 4441, 
  "sen@@": 4442, 
  "Resort": 4443, 
  "Sp@@": 4444, 
  "enjoying": 4445, 
  "instantly": 4446, 
  "Cuba": 4447, 
  "speeches": 4448, 
  "favourable": 4449, 
  "thorough": 4450, 
  "observe": 4451, 
  "minor": 4452, 
  "indoor": 4453, 
  "ball": 4454, 
  "boot": 4455, 
  "examination": 4456, 
  "optimal": 4457, 
  "foremost": 4458, 
  "discount": 4459, 
  "examined": 4460, 
  "Dublin": 4461, 
  "asset": 4462, 
  "IS@@": 4463, 
  "genuinely": 4464, 
  "featuring": 4465, 
  "wing": 4466, 
  "Slovakia": 4467, 
  "frequency": 4468, 
  "AT@@": 4469, 
  "j": 4470, 
  "simultaneously": 4471, 
  "ey": 4472, 
  "guaranteeing": 4473, 
  "beer": 4474, 
  "begun": 4475, 
  "compete": 4476, 
  "dance": 4477, 
  "Muslim": 4478, 
  "Putin": 4479, 
  "User": 4480, 
  "info": 4481, 
  "cre@@": 4482, 
  "Fisheries": 4483, 
  "gh@@": 4484, 
  "visual": 4485, 
  "mor@@": 4486, 
  "occupation": 4487, 
  "fax": 4488, 
  "willingness": 4489, 
  "withdraw": 4490, 
  "suggests": 4491, 
  "Open": 4492, 
  "Hotels": 4493, 
  "prize": 4494, 
  "4-star": 4495, 
  "Terms": 4496, 
  "complaints": 4497, 
  "ethical": 4498, 
  "AL@@": 4499, 
  "Forum": 4500, 
  "cancellation": 4501, 
  "intentions": 4502, 
  "hills": 4503, 
  "ner": 4504, 
  "THE": 4505, 
  "inc@@": 4506, 
  "revolution": 4507, 
  "pi@@": 4508, 
  "AR@@": 4509, 
  "37": 4510, 
  "sizes": 4511, 
  "technique": 4512, 
  "ati@@": 4513, 
  "buses": 4514, 
  "USD": 4515, 
  "ek": 4516, 
  "clarity": 4517, 
  "dramatic": 4518, 
  "marine": 4519, 
  "importantly": 4520, 
  "bonus": 4521, 
  "secondary": 4522, 
  "folder": 4523, 
  "condemn": 4524, 
  "audience": 4525, 
  "informal": 4526, 
  "1-@@": 4527, 
  "commit": 4528, 
  "tion": 4529, 
  "funded": 4530, 
  "mixed": 4531, 
  "electrical": 4532, 
  "lobby": 4533, 
  "faces": 4534, 
  "managers": 4535, 
  "Education": 4536, 
  "enjoys": 4537, 
  "collapse": 4538, 
  "97": 4539, 
  "destroy": 4540, 
  "mental": 4541, 
  "Ex@@": 4542, 
  "RE@@": 4543, 
  "expanded": 4544, 
  "preferred": 4545, 
  "250": 4546, 
  "broken": 4547, 
  "multi@@": 4548, 
  "í@@": 4549, 
  "height": 4550, 
  "ease": 4551, 
  "empty": 4552, 
  "chair": 4553, 
  "tra@@": 4554, 
  "respects": 4555, 
  "listening": 4556, 
  "che": 4557, 
  "transfers": 4558, 
  "vocational": 4559, 
  "20th": 4560, 
  "pensions": 4561, 
  "miss": 4562, 
  "crew": 4563, 
  "jointly": 4564, 
  "del@@": 4565, 
  "Civil": 4566, 
  "sing": 4567, 
  "Java": 4568, 
  "Palestinians": 4569, 
  "portal": 4570, 
  "stuff": 4571, 
  "Industry": 4572, 
  "mine": 4573, 
  "Moscow": 4574, 
  "cool": 4575, 
  "meanwhile": 4576, 
  "dialog": 4577, 
  "sample": 4578, 
  "tragic": 4579, 
  "um@@": 4580, 
  "Syria": 4581, 
  "Pro": 4582, 
  "autumn": 4583, 
  "inspection": 4584, 
  "wave": 4585, 
  "adventure": 4586, 
  "over-@@": 4587, 
  "returns": 4588, 
  "apparent": 4589, 
  "Or@@": 4590, 
  "Women": 4591, 
  "doubts": 4592, 
  "oppose": 4593, 
  "escape": 4594, 
  "forth": 4595, 
  "AS@@": 4596, 
  "Jewish": 4597, 
  "regulated": 4598, 
  "wherever": 4599, 
  "continuously": 4600, 
  "fifth": 4601, 
  "coastal": 4602, 
  "Customer": 4603, 
  "spectrum": 4604, 
  "kg": 4605, 
  "Am@@": 4606, 
  "tragedy": 4607, 
  "accuracy": 4608, 
  "Airbus": 4609, 
  "revised": 4610, 
  "characteristic": 4611, 
  "bought": 4612, 
  "focusing": 4613, 
  "manufactured": 4614, 
  "arranged": 4615, 
  "transitional": 4616, 
  "textile": 4617, 
  "logic": 4618, 
  "vary": 4619, 
  "sex": 4620, 
  "medieval": 4621, 
  "layout": 4622, 
  "em": 4623, 
  "ID": 4624, 
  "electoral": 4625, 
  "afford": 4626, 
  "cent": 4627, 
  "Ver@@": 4628, 
  "deadline": 4629, 
  "researchers": 4630, 
  "girls": 4631, 
  "IS": 4632, 
  "Morocco": 4633, 
  "typically": 4634, 
  "mechanical": 4635, 
  "mu@@": 4636, 
  "je": 4637, 
  "Skype": 4638, 
  "recall": 4639, 
  "index": 4640, 
  "o-@@": 4641, 
  "adult": 4642, 
  "65": 4643, 
  "suited": 4644, 
  "losing": 4645, 
  "riding": 4646, 
  "expenses": 4647, 
  "sake": 4648, 
  "measurement": 4649, 
  "checked": 4650, 
  "Ri@@": 4651, 
  "One": 4652, 
  "Greens": 4653, 
  "certification": 4654, 
  "fascinating": 4655, 
  "au@@": 4656, 
  "strike": 4657, 
  "2-@@": 4658, 
  "and@@": 4659, 
  "falling": 4660, 
  "ou": 4661, 
  "Gaza": 4662, 
  "mer@@": 4663, 
  "transaction": 4664, 
  "graphic": 4665, 
  "ure": 4666, 
  "affecting": 4667, 
  "ER@@": 4668, 
  "trans@@": 4669, 
  "Wednesday": 4670, 
  "42": 4671, 
  "jurisdiction": 4672, 
  "roof": 4673, 
  "formation": 4674, 
  "specially": 4675, 
  "ser@@": 4676, 
  "apparently": 4677, 
  "broader": 4678, 
  "row": 4679, 
  "MySQL": 4680, 
  "afraid": 4681, 
  "theatre": 4682, 
  "super@@": 4683, 
  "Casino": 4684, 
  ",000": 4685, 
  "pri@@": 4686, 
  "ore": 4687, 
  "Employment": 4688, 
  "96": 4689, 
  "splendid": 4690, 
  "loans": 4691, 
  "branch": 4692, 
  "granting": 4693, 
  "delays": 4694, 
  "environmentally": 4695, 
  "Hong": 4696, 
  "ST@@": 4697, 
  "preparations": 4698, 
  "tics": 4699, 
  "forgotten": 4700, 
  "Com@@": 4701, 
  "Music": 4702, 
  "mid-@@": 4703, 
  "excursions": 4704, 
  "Golf": 4705, 
  "publish": 4706, 
  "integrity": 4707, 
  "removal": 4708, 
  "El@@": 4709, 
  "employers": 4710, 
  "Mal@@": 4711, 
  "judge": 4712, 
  "ley": 4713, 
  "bathrooms": 4714, 
  "buying": 4715, 
  "wage": 4716, 
  "Award": 4717, 
  "stressed": 4718, 
  "short-term": 4719, 
  "ches": 4720, 
  "promoted": 4721, 
  "horse": 4722, 
  "Washington": 4723, 
  "pools": 4724, 
  "devoted": 4725, 
  "Heads": 4726, 
  "purchased": 4727, 
  "trained": 4728, 
  "healthcare": 4729, 
  "calm": 4730, 
  "bigger": 4731, 
  "fl@@": 4732, 
  "ER": 4733, 
  "whatsoever": 4734, 
  "Chairman": 4735, 
  "terrible": 4736, 
  "declare": 4737, 
  "Kong": 4738, 
  "prospect": 4739, 
  "uncertainty": 4740, 
  "travellers": 4741, 
  "authors": 4742, 
  "ex": 4743, 
  "alternatives": 4744, 
  "Sh@@": 4745, 
  "Z": 4746, 
  "ines": 4747, 
  "string": 4748, 
  "Bu@@": 4749, 
  "boards": 4750, 
  "refused": 4751, 
  "arrangement": 4752, 
  "array": 4753, 
  "If": 4754, 
  "expressly": 4755, 
  "Ministry": 4756, 
  "Director": 4757, 
  "Finnish": 4758, 
  "lu@@": 4759, 
  "boasts": 4760, 
  "gu@@": 4761, 
  "refuse": 4762, 
  "Be@@": 4763, 
  "Sal@@": 4764, 
  "00@@": 4765, 
  "keys": 4766, 
  "Garden": 4767, 
  "calendar": 4768, 
  "cu@@": 4769, 
  "taxpayers": 4770, 
  "principal": 4771, 
  "turns": 4772, 
  "closing": 4773, 
  "diving": 4774, 
  "residents": 4775, 
  "letters": 4776, 
  "phones": 4777, 
  "inner": 4778, 
  "up-to-date": 4779, 
  "custom": 4780, 
  "pace": 4781, 
  "duration": 4782, 
  "lively": 4783, 
  "renewed": 4784, 
  "officially": 4785, 
  "preserved": 4786, 
  "Her@@": 4787, 
  "ell@@": 4788, 
  "38": 4789, 
  "noon": 4790, 
  "Lu@@": 4791, 
  "focuses": 4792, 
  "moments": 4793, 
  "observation": 4794, 
  "GNU": 4795, 
  "EN@@": 4796, 
  "seemed": 4797, 
  "freight": 4798, 
  "wife": 4799, 
  "pursuant": 4800, 
  "Vi@@": 4801, 
  "ads": 4802, 
  "Alps": 4803, 
  "installations": 4804, 
  "Cup": 4805, 
  "George": 4806, 
  "postal": 4807, 
  "1991": 4808, 
  "beneficial": 4809, 
  "surveillance": 4810, 
  "ignore": 4811, 
  "slopes": 4812, 
  "accessories": 4813, 
  "Le@@": 4814, 
  "Network": 4815, 
  "Gentoo": 4816, 
  "motorway": 4817, 
  "Hostelsclub": 4818, 
  "tend": 4819, 
  "automotive": 4820, 
  "debated": 4821, 
  "belongs": 4822, 
  "op": 4823, 
  "deserve": 4824, 
  "-L@@": 4825, 
  "RO@@": 4826, 
  "presidential": 4827, 
  "quantity": 4828, 
  "isation": 4829, 
  "tur@@": 4830, 
  "dimensions": 4831, 
  "depth": 4832, 
  "sleep": 4833, 
  "insufficient": 4834, 
  "finds": 4835, 
  "adjustment": 4836, 
  "honest": 4837, 
  "Games": 4838, 
  "120": 4839, 
  "residential": 4840, 
  "Van": 4841, 
  "destinations": 4842, 
  "hand@@": 4843, 
  "stopped": 4844, 
  "staying": 4845, 
  "sovereign": 4846, 
  "Ber@@": 4847, 
  "low-@@": 4848, 
  "survey": 4849, 
  "brands": 4850, 
  "thanking": 4851, 
  "false": 4852, 
  "suspended": 4853, 
  "ending": 4854, 
  "ion": 4855, 
  "publishing": 4856, 
  "ee": 4857, 
  "cameras": 4858, 
  "beef": 4859, 
  "composed": 4860, 
  "ges": 4861, 
  "Family": 4862, 
  "populations": 4863, 
  "worthy": 4864, 
  "catalogue": 4865, 
  "Internal": 4866, 
  "Presidents": 4867, 
  "achievements": 4868, 
  "arrange": 4869, 
  "indicators": 4870, 
  "min": 4871, 
  "deficits": 4872, 
  "explicitly": 4873, 
  "soldiers": 4874, 
  "charm": 4875, 
  "undertake": 4876, 
  "Representative": 4877, 
  "modify": 4878, 
  "paths": 4879, 
  "4-@@": 4880, 
  "constructed": 4881, 
  "metro": 4882, 
  "Storage": 4883, 
  "Academy": 4884, 
  "negotiated": 4885, 
  "identification": 4886, 
  "RO": 4887, 
  "zero": 4888, 
  "1989": 4889, 
  "IC@@": 4890, 
  "bureaucracy": 4891, 
  "superb": 4892, 
  "ster": 4893, 
  "greenhouse": 4894, 
  "advise": 4895, 
  "ruling": 4896, 
  "ef@@": 4897, 
  "signals": 4898, 
  "distinction": 4899, 
  "argue": 4900, 
  "soul": 4901, 
  "conversion": 4902, 
  "convenience": 4903, 
  "bl@@": 4904, 
  "chemicals": 4905, 
  "certificate": 4906, 
  "supplementary": 4907, 
  "ton": 4908, 
  "we@@": 4909, 
  "2012": 4910, 
  "reflection": 4911, 
  "behavior": 4912, 
  "ov": 4913, 
  "ps": 4914, 
  "ica": 4915, 
  "trains": 4916, 
  "sl@@": 4917, 
  "exhibitions": 4918, 
  "Florence": 4919, 
  "Trek": 4920, 
  "territories": 4921, 
  "posts": 4922, 
  "wh@@": 4923, 
  "cross-@@": 4924, 
  "AN@@": 4925, 
  "Saint": 4926, 
  "Meeting": 4927, 
  "credible": 4928, 
  "ratified": 4929, 
  "lin@@": 4930, 
  "4.@@": 4931, 
  "signing": 4932, 
  "ger@@": 4933, 
  "visits": 4934, 
  "certainty": 4935, 
  "ics": 4936, 
  "admit": 4937, 
  "consistently": 4938, 
  "09": 4939, 
  "logistics": 4940, 
  "purchasing": 4941, 
  "relief": 4942, 
  "necessity": 4943, 
  "prevented": 4944, 
  "ara": 4945, 
  "ceiling": 4946, 
  "NI": 4947, 
  "External": 4948, 
  "patents": 4949, 
  "delete": 4950, 
  "Project": 4951, 
  "civilian": 4952, 
  "premium": 4953, 
  "p.m": 4954, 
  "af@@": 4955, 
  "likewise": 4956, 
  "emerged": 4957, 
  "parks": 4958, 
  "desktop": 4959, 
  "attended": 4960, 
  "evident": 4961, 
  "telecommunications": 4962, 
  "ah": 4963, 
  "smoking": 4964, 
  "gross": 4965, 
  "imported": 4966, 
  "threatened": 4967, 
  "ological": 4968, 
  "alisation": 4969, 
  "precious": 4970, 
  "negotiate": 4971, 
  "variable": 4972, 
  "fer@@": 4973, 
  "innovations": 4974, 
  "worrying": 4975, 
  "fell": 4976, 
  "violent": 4977, 
  "ES@@": 4978, 
  "Player": 4979, 
  "ai": 4980, 
  "Non-Smoking": 4981, 
  "organize": 4982, 
  "ranging": 4983, 
  "frequent": 4984, 
  "affordable": 4985, 
  "700": 4986, 
  "ats": 4987, 
  "schedule": 4988, 
  "07": 4989, 
  "mandatory": 4990, 
  "Plaza": 4991, 
  "retail": 4992, 
  "citizenship": 4993, 
  "neighbourhood": 4994, 
  "ella": 4995, 
  "ov@@": 4996, 
  "wheel": 4997, 
  "gift": 4998, 
  "ant@@": 4999, 
  ".de": 5000, 
  "Val@@": 5001, 
  "demonstrates": 5002, 
  "m²": 5003, 
  "recession": 5004, 
  "winner": 5005, 
  "deaths": 5006, 
  "all@@": 5007, 
  "mistakes": 5008, 
  "sunny": 5009, 
  "flying": 5010, 
  "Maastricht": 5011, 
  "nationals": 5012, 
  "indicates": 5013, 
  "ments": 5014, 
  "timely": 5015, 
  "bet": 5016, 
  "co": 5017, 
  "hill": 5018, 
  "stick": 5019, 
  "rating": 5020, 
  "machinery": 5021, 
  "gen@@": 5022, 
  "privileged": 5023, 
  "iron": 5024, 
  "orientation": 5025, 
  "Du@@": 5026, 
  "Maria": 5027, 
  "sees": 5028, 
  "roots": 5029, 
  "drives": 5030, 
  "specify": 5031, 
  "Cooperation": 5032, 
  "pain": 5033, 
  "justify": 5034, 
  "relate": 5035, 
  "evaluate": 5036, 
  "academic": 5037, 
  "pattern": 5038, 
  "notified": 5039, 
  "Department": 5040, 
  "fails": 5041, 
  "releases": 5042, 
  "sailing": 5043, 
  "allocation": 5044, 
  "Europol": 5045, 
  "assurance": 5046, 
  "defining": 5047, 
  "Mac": 5048, 
  "lands": 5049, 
  "David": 5050, 
  "Cal@@": 5051, 
  "earn": 5052, 
  "interactive": 5053, 
  "ver": 5054, 
  "terrorists": 5055, 
  "measuring": 5056, 
  "ya": 5057, 
  "publications": 5058, 
  "conservation": 5059, 
  "shuttle": 5060, 
  "tower": 5061, 
  "taxi": 5062, 
  "painting": 5063, 
  "farms": 5064, 
  "agrees": 5065, 
  "replacement": 5066, 
  "fly": 5067, 
  "busy": 5068, 
  "col@@": 5069, 
  "voters": 5070, 
  "generous": 5071, 
  "moves": 5072, 
  "acquisition": 5073, 
  "So@@": 5074, 
  "unanimously": 5075, 
  "stance": 5076, 
  "contractual": 5077, 
  "humanity": 5078, 
  "revealed": 5079, 
  "placing": 5080, 
  "Common": 5081, 
  "creature": 5082, 
  "5-@@": 5083, 
  "applicant": 5084, 
  "protest": 5085, 
  "systematic": 5086, 
  "Pal@@": 5087, 
  "EN": 5088, 
  "UN@@": 5089, 
  "cal@@": 5090, 
  "afterwards": 5091, 
  "tor": 5092, 
  "notably": 5093, 
  "tr@@": 5094, 
  "feedback": 5095, 
  "pers": 5096, 
  "gra@@": 5097, 
  "tro@@": 5098, 
  "occurs": 5099, 
  "displays": 5100, 
  "airline": 5101, 
  "withdrawal": 5102, 
  "intervene": 5103, 
  "initiated": 5104, 
  "coal": 5105, 
  "tonnes": 5106, 
  "viewed": 5107, 
  "solved": 5108, 
  "congratulations": 5109, 
  "sal@@": 5110, 
  "coordinate": 5111, 
  "Bal@@": 5112, 
  "Area": 5113, 
  "fitted": 5114, 
  "villa": 5115, 
  "viable": 5116, 
  "m2": 5117, 
  "logo": 5118, 
  "knew": 5119, 
  "08": 5120, 
  "slowly": 5121, 
  "qualifications": 5122, 
  "harm": 5123, 
  "procurement": 5124, 
  "EU-@@": 5125, 
  "contributing": 5126, 
  "imposing": 5127, 
  "ata": 5128, 
  "unusual": 5129, 
  "transit": 5130, 
  "newspaper": 5131, 
  "As": 5132, 
  "1000": 5133, 
  "realize": 5134, 
  "Partnership": 5135, 
  "arbitrary": 5136, 
  "5.@@": 5137, 
  "alike": 5138, 
  "unknown": 5139, 
  "centers": 5140, 
  "photographs": 5141, 
  "Flash": 5142, 
  "mal@@": 5143, 
  "ically": 5144, 
  "react": 5145, 
  "Burma": 5146, 
  "ay": 5147, 
  "fo@@": 5148, 
  "ratio": 5149, 
  "l&apos;@@": 5150, 
  "consult": 5151, 
  "steam": 5152, 
  "BSE": 5153, 
  "structured": 5154, 
  "unions": 5155, 
  "dy": 5156, 
  "sa": 5157, 
  "Online": 5158, 
  "competences": 5159, 
  "experiencing": 5160, 
  "archive": 5161, 
  "potentially": 5162, 
  "ese": 5163, 
  "No@@": 5164, 
  "44": 5165, 
  "biodiversity": 5166, 
  "he@@": 5167, 
  "sed": 5168, 
  "Q": 5169, 
  "cancelled": 5170, 
  "gr@@": 5171, 
  "adjust": 5172, 
  "heavily": 5173, 
  "Taiwan": 5174, 
  "zones": 5175, 
  "hesitate": 5176, 
  "wars": 5177, 
  "shot": 5178, 
  "Growth": 5179, 
  "disputes": 5180, 
  "smart": 5181, 
  "AIDS": 5182, 
  "intelligence": 5183, 
  "creativity": 5184, 
  "senior": 5185, 
  "ek@@": 5186, 
  "concerts": 5187, 
  "conventions": 5188, 
  "fan": 5189, 
  "Olympic": 5190, 
  "patterns": 5191, 
  "stops": 5192, 
  "tim@@": 5193, 
  "expanding": 5194, 
  "findings": 5195, 
  "fix": 5196, 
  "arrest": 5197, 
  "bur@@": 5198, 
  "Team": 5199, 
  "zed": 5200, 
  "precision": 5201, 
  "Cologne": 5202, 
  "dec@@": 5203, 
  "Pi@@": 5204, 
  "Lithuania": 5205, 
  "ki": 5206, 
  "twenty": 5207, 
  "har@@": 5208, 
  "Suite": 5209, 
  "passion": 5210, 
  "43": 5211, 
  "bug": 5212, 
  "state-of-the-art": 5213, 
  "biological": 5214, 
  "baby": 5215, 
  "premises": 5216, 
  "amending": 5217, 
  "Prize": 5218, 
  "Iranian": 5219, 
  "Yugoslavia": 5220, 
  "pursued": 5221, 
  "breach": 5222, 
  "elderly": 5223, 
  "performing": 5224, 
  "Go@@": 5225, 
  "ven@@": 5226, 
  "monuments": 5227, 
  "blame": 5228, 
  "downloaded": 5229, 
  "sessions": 5230, 
  "icon": 5231, 
  "lovers": 5232, 
  "EC@@": 5233, 
  "relaxed": 5234, 
  "spare": 5235, 
  "undermine": 5236, 
  "land@@": 5237, 
  "ambition": 5238, 
  "2013": 5239, 
  "Salzburg": 5240, 
  "ging": 5241, 
  "Zurich": 5242, 
  "warmly": 5243, 
  "ph@@": 5244, 
  "ir": 5245, 
  "lights": 5246, 
  "85": 5247, 
  "split": 5248, 
  "Budapest": 5249, 
  "intense": 5250, 
  "threshold": 5251, 
  "perspectives": 5252, 
  "judgment": 5253, 
  "announce": 5254, 
  "tough": 5255, 
  "convince": 5256, 
  "Lo@@": 5257, 
  "Bureau": 5258, 
  "ni@@": 5259, 
  "answered": 5260, 
  "bureaucratic": 5261, 
  "tors": 5262, 
  "Life": 5263, 
  "emphasised": 5264, 
  "virus": 5265, 
  "practically": 5266, 
  "ren@@": 5267, 
  "architectural": 5268, 
  "drinking": 5269, 
  "Poker": 5270, 
  "occupied": 5271, 
  "arts": 5272, 
  "water@@": 5273, 
  "choosing": 5274, 
  "ING": 5275, 
  "Robert": 5276, 
  "On": 5277, 
  "chose": 5278, 
  "unemployed": 5279, 
  "settled": 5280, 
  "dog": 5281, 
  "crops": 5282, 
  "sandy": 5283, 
  "comparable": 5284, 
  "converted": 5285, 
  "drafting": 5286, 
  "summary": 5287, 
  "controversial": 5288, 
  "Canon": 5289, 
  "dating": 5290, 
  "sions": 5291, 
  "boxes": 5292, 
  "handled": 5293, 
  "Communist": 5294, 
  "pol@@": 5295, 
  "zing": 5296, 
  "clothing": 5297, 
  "tone": 5298, 
  "segment": 5299, 
  "warming": 5300, 
  "prestigious": 5301, 
  "-B@@": 5302, 
  "comprises": 5303, 
  "chairs": 5304, 
  "heated": 5305, 
  "bay": 5306, 
  "39": 5307, 
  "specifications": 5308, 
  "edit": 5309, 
  "suggestion": 5310, 
  "assured": 5311, 
  "favourite": 5312, 
  "essence": 5313, 
  "chief": 5314, 
  "claimed": 5315, 
  "Adobe": 5316, 
  "treaties": 5317, 
  "poker": 5318, 
  "trouble": 5319, 
  "hopefully": 5320, 
  "mi@@": 5321, 
  "controlling": 5322, 
  "entries": 5323, 
  "Scotland": 5324, 
  "24-Hour": 5325, 
  "compare": 5326, 
  "atic": 5327, 
  "cancel": 5328, 
  "caught": 5329, 
  "Pacific": 5330, 
  "alized": 5331, 
  "meantime": 5332, 
  "her@@": 5333, 
  "enlarged": 5334, 
  "temperatures": 5335, 
  "desirable": 5336, 
  "progressive": 5337, 
  "work@@": 5338, 
  "lighting": 5339, 
  "vers": 5340, 
  "Slovenia": 5341, 
  "PPE-DE": 5342, 
  "exposure": 5343, 
  "wages": 5344, 
  "confident": 5345, 
  "Lebanon": 5346, 
  "integral": 5347, 
  "substantially": 5348, 
  "ó@@": 5349, 
  "fortunately": 5350, 
  "bro@@": 5351, 
  "ein": 5352, 
  "Kar@@": 5353, 
  "copies": 5354, 
  "combining": 5355, 
  "avoided": 5356, 
  "2.0": 5357, 
  "partnerships": 5358, 
  "Youth": 5359, 
  "41": 5360, 
  "Sony": 5361, 
  "headquarters": 5362, 
  "comp@@": 5363, 
  "churches": 5364, 
  "ran@@": 5365, 
  "respectively": 5366, 
  "preliminary": 5367, 
  "1.5": 5368, 
  "om": 5369, 
  "Bosnia": 5370, 
  "chat": 5371, 
  "Your": 5372, 
  "interinstitutional": 5373, 
  "ell": 5374, 
  "ts@@": 5375, 
  "magic": 5376, 
  "cal": 5377, 
  "workshops": 5378, 
  "declarations": 5379, 
  "booked": 5380, 
  "demographic": 5381, 
  "platforms": 5382, 
  "pays": 5383, 
  "statistical": 5384, 
  "leg@@": 5385, 
  "64": 5386, 
  "men@@": 5387, 
  "-R@@": 5388, 
  "silence": 5389, 
  "ada": 5390, 
  "emission": 5391, 
  "transformation": 5392, 
  "sion": 5393, 
  "silver": 5394, 
  "subscribe": 5395, 
  "bri@@": 5396, 
  "all-@@": 5397, 
  "Malta": 5398, 
  "&apos;d": 5399, 
  "maps": 5400, 
  "De@@": 5401, 
  "dollars": 5402, 
  "gs": 5403, 
  "Argentina": 5404, 
  "raises": 5405, 
  "regulate": 5406, 
  "receives": 5407, 
  "specialities": 5408, 
  "Elevator": 5409, 
  "measured": 5410, 
  "keeps": 5411, 
  "well-being": 5412, 
  "approx": 5413, 
  "lowest": 5414, 
  "Product": 5415, 
  "Southern": 5416, 
  "handed": 5417, 
  "finances": 5418, 
  "02": 5419, 
  "blind": 5420, 
  "equity": 5421, 
  "differ": 5422, 
  "sub-@@": 5423, 
  "E-@@": 5424, 
  "partial": 5425, 
  "AD@@": 5426, 
  "Marina": 5427, 
  "Section": 5428, 
  "bra@@": 5429, 
  "explains": 5430, 
  "clock": 5431, 
  "St": 5432, 
  "coverage": 5433, 
  "exchanges": 5434, 
  "Min@@": 5435, 
  "pharmaceutical": 5436, 
  "Luggage": 5437, 
  "Rural": 5438, 
  "visitor": 5439, 
  "genetic": 5440, 
  "can@@": 5441, 
  "regrettable": 5442, 
  "ful": 5443, 
  "Second": 5444, 
  "tribute": 5445, 
  "od@@": 5446, 
  "Liberal": 5447, 
  "Society": 5448, 
  "mouth": 5449, 
  "talked": 5450, 
  "borne": 5451, 
  "ear@@": 5452, 
  "Studio": 5453, 
  "transatlantic": 5454, 
  "expressing": 5455, 
  "stays": 5456, 
  "Deposit": 5457, 
  "signature": 5458, 
  "laser": 5459, 
  "Secretary": 5460, 
  "fin@@": 5461, 
  "cooking": 5462, 
  "describes": 5463, 
  "tropical": 5464, 
  "Bel@@": 5465, 
  "isolated": 5466, 
  "develops": 5467, 
  "ture": 5468, 
  "restrict": 5469, 
  "ette": 5470, 
  "worry": 5471, 
  "engineers": 5472, 
  "undertakings": 5473, 
  "bill": 5474, 
  "fuels": 5475, 
  "tailored": 5476, 
  "thoroughly": 5477, 
  "missions": 5478, 
  "James": 5479, 
  "Iraqi": 5480, 
  "proximity": 5481, 
  "Socialists": 5482, 
  "designer": 5483, 
  "Democratic": 5484, 
  "racism": 5485, 
  "els": 5486, 
  "Thomas": 5487, 
  "Charles": 5488, 
  "Conditions": 5489, 
  "hospital": 5490, 
  "og@@": 5491, 
  "tolerance": 5492, 
  "ste@@": 5493, 
  "acknowledged": 5494, 
  "Tri@@": 5495, 
  "doctor": 5496, 
  "sentence": 5497, 
  "sun@@": 5498, 
  "decent": 5499, 
  "Joint": 5500, 
  "aries": 5501, 
  "artificial": 5502, 
  "column": 5503, 
  "Palestine": 5504, 
  "owing": 5505, 
  "founding": 5506, 
  "fears": 5507, 
  "shortcomings": 5508, 
  "Ko@@": 5509, 
  "IC": 5510, 
  "MS": 5511, 
  "workshop": 5512, 
  "post@@": 5513, 
  "degrees": 5514, 
  "2nd": 5515, 
  "web@@": 5516, 
  "sheets": 5517, 
  "exceptions": 5518, 
  "Hamas": 5519, 
  "accommodate": 5520, 
  "monitored": 5521, 
  "flag": 5522, 
  "optional": 5523, 
  "ari@@": 5524, 
  "ona": 5525, 
  "automation": 5526, 
  "Parliamentary": 5527, 
  "robust": 5528, 
  "wording": 5529, 
  "discipline": 5530, 
  "lesson": 5531, 
  "Stockholm": 5532, 
  "downloading": 5533, 
  "Nordic": 5534, 
  "fought": 5535, 
  "acquire": 5536, 
  "harbour": 5537, 
  "incentive": 5538, 
  "simplification": 5539, 
  "capture": 5540, 
  "shaped": 5541, 
  "executed": 5542, 
  "ani": 5543, 
  "ignored": 5544, 
  "tips": 5545, 
  "failing": 5546, 
  "torture": 5547, 
  "win@@": 5548, 
  "authentic": 5549, 
  "ff": 5550, 
  "autonomy": 5551, 
  "condemned": 5552, 
  "auf": 5553, 
  "fallen": 5554, 
  "adjusted": 5555, 
  "ours": 5556, 
  "46": 5557, 
  "victim": 5558, 
  "photography": 5559, 
  "damaged": 5560, 
  "motions": 5561, 
  "suddenly": 5562, 
  "ec": 5563, 
  "returning": 5564, 
  "conveniently": 5565, 
  "gains": 5566, 
  "optical": 5567, 
  "confusion": 5568, 
  "Special": 5569, 
  "Macedonia": 5570, 
  "ged": 5571, 
  "Via": 5572, 
  "Cas@@": 5573, 
  "wise": 5574, 
  "complexity": 5575, 
  "Do@@": 5576, 
  "Space": 5577, 
  "pen@@": 5578, 
  "IN": 5579, 
  "fate": 5580, 
  "centrally": 5581, 
  "harmony": 5582, 
  "hole": 5583, 
  "Milan": 5584, 
  "fulfilled": 5585, 
  "Islam": 5586, 
  "OF": 5587, 
  "challenging": 5588, 
  "regimes": 5589, 
  "51": 5590, 
  "terminal": 5591, 
  "IM@@": 5592, 
  "Ger@@": 5593, 
  "automated": 5594, 
  "What": 5595, 
  "accepting": 5596, 
  "reduces": 5597, 
  "18th": 5598, 
  "birds": 5599, 
  "prohibited": 5600, 
  "directions": 5601, 
  "simplify": 5602, 
  "Heating": 5603, 
  "papers": 5604, 
  "incorporate": 5605, 
  "sustained": 5606, 
  "indication": 5607, 
  "shareholders": 5608, 
  "explanations": 5609, 
  "drafted": 5610, 
  "estimates": 5611, 
  "ins@@": 5612, 
  "stream": 5613, 
  "celebrate": 5614, 
  "amend": 5615, 
  "CH@@": 5616, 
  "unfortunate": 5617, 
  "outset": 5618, 
  "licence": 5619, 
  "knowing": 5620, 
  "favorite": 5621, 
  "Mu@@": 5622, 
  "SP@@": 5623, 
  "sporting": 5624, 
  "rubber": 5625, 
  "economics": 5626, 
  "characterized": 5627, 
  "performances": 5628, 
  "keen": 5629, 
  "literature": 5630, 
  "belonging": 5631, 
  "derived": 5632, 
  "searching": 5633, 
  "codes": 5634, 
  "accepts": 5635, 
  "emerge": 5636, 
  "circle": 5637, 
  "large-scale": 5638, 
  "connecting": 5639, 
  "recycling": 5640, 
  "penalties": 5641, 
  "reductions": 5642, 
  "Defence": 5643, 
  "movies": 5644, 
  "battery": 5645, 
  "surprising": 5646, 
  "separately": 5647, 
  "cr@@": 5648, 
  "doctors": 5649, 
  "OR@@": 5650, 
  "beside": 5651, 
  "College": 5652, 
  "globalization": 5653, 
  "03": 5654, 
  "notion": 5655, 
  "rejection": 5656, 
  "prominent": 5657, 
  "Ms": 5658, 
  "lacking": 5659, 
  "lakes": 5660, 
  "interim": 5661, 
  "inquiry": 5662, 
  "parameter": 5663, 
  "disappointed": 5664, 
  "ensured": 5665, 
  "Col@@": 5666, 
  "ach@@": 5667, 
  "strange": 5668, 
  "paradise": 5669, 
  "21st": 5670, 
  "ay@@": 5671, 
  "follow-up": 5672, 
  "AC@@": 5673, 
  "Left": 5674, 
  "camps": 5675, 
  "delicate": 5676, 
  "Mil@@": 5677, 
  "governed": 5678, 
  "iz@@": 5679, 
  "sol@@": 5680, 
  "dominated": 5681, 
  "environments": 5682, 
  "infringement": 5683, 
  "06": 5684, 
  "Zimbabwe": 5685, 
  "Sa@@": 5686, 
  "guidance": 5687, 
  "BMW": 5688, 
  "survival": 5689, 
  "survive": 5690, 
  "sen": 5691, 
  "pur@@": 5692, 
  "zi@@": 5693, 
  "responses": 5694, 
  "Har@@": 5695, 
  "login": 5696, 
  "golden": 5697, 
  "Albania": 5698, 
  "paintings": 5699, 
  "hoped": 5700, 
  "respecting": 5701, 
  "tackling": 5702, 
  "reinforce": 5703, 
  "reverse": 5704, 
  "makers": 5705, 
  "forming": 5706, 
  "Investment": 5707, 
  "defending": 5708, 
  "Los": 5709, 
  "observers": 5710, 
  "Beijing": 5711, 
  "teacher": 5712, 
  "Website": 5713, 
  "indirect": 5714, 
  "characterised": 5715, 
  "watching": 5716, 
  "alist": 5717, 
  "appreciated": 5718, 
  "reiterate": 5719, 
  "Opera": 5720, 
  "160": 5721, 
  "sensor": 5722, 
  "publicly": 5723, 
  "52": 5724, 
  "grants": 5725, 
  "ces": 5726, 
  "tru@@": 5727, 
  "Single": 5728, 
  "Gulf": 5729, 
  "foods": 5730, 
  "exceed": 5731, 
  "subsidiary": 5732, 
  "consistency": 5733, 
  "editor": 5734, 
  "Tuesday": 5735, 
  "pursuing": 5736, 
  "telling": 5737, 
  "closure": 5738, 
  "migrants": 5739, 
  "cat@@": 5740, 
  "05": 5741, 
  "themes": 5742, 
  "le-@@": 5743, 
  "Budgetary": 5744, 
  "Sudan": 5745, 
  "peak": 5746, 
  "evolution": 5747, 
  "ement": 5748, 
  "hor@@": 5749, 
  "defects": 5750, 
  "leather": 5751, 
  "horizontal": 5752, 
  "plain": 5753, 
  "abandoned": 5754, 
  "bas@@": 5755, 
  "underline": 5756, 
  "agent": 5757, 
  "200@@": 5758, 
  "sm@@": 5759, 
  "ed-@@": 5760, 
  "acted": 5761, 
  "non": 5762, 
  "undertaking": 5763, 
  "mining": 5764, 
  "scenery": 5765, 
  "š@@": 5766, 
  "departments": 5767, 
  "49": 5768, 
  "e.@@": 5769, 
  "circulation": 5770, 
  "announcement": 5771, 
  "branches": 5772, 
  "preferences": 5773, 
  "thoughts": 5774, 
  "Declaration": 5775, 
  "ass@@": 5776, 
  "optimum": 5777, 
  "crossing": 5778, 
  "ba": 5779, 
  "Series": 5780, 
  "unstable": 5781, 
  "tells": 5782, 
  "realized": 5783, 
  "lock": 5784, 
  "calculated": 5785, 
  "backed": 5786, 
  "an-@@": 5787, 
  "conjunction": 5788, 
  "fires": 5789, 
  "solving": 5790, 
  "stood": 5791, 
  "ei@@": 5792, 
  "3rd": 5793, 
  "throw": 5794, 
  "­@@": 5795, 
  "Ac@@": 5796, 
  "Labour": 5797, 
  "translations": 5798, 
  "newspapers": 5799, 
  "Indonesia": 5800, 
  "humans": 5801, 
  "breathtaking": 5802, 
  "breaking": 5803, 
  "posted": 5804, 
  "Libya": 5805, 
  "analyses": 5806, 
  "quota": 5807, 
  "Las": 5808, 
  "concentrated": 5809, 
  "continually": 5810, 
  "invitation": 5811, 
  "AL": 5812, 
  "consolidation": 5813, 
  "spiritual": 5814, 
  "implies": 5815, 
  "ann@@": 5816, 
  "unlimited": 5817, 
  "listened": 5818, 
  "allies": 5819, 
  "bonds": 5820, 
  "La@@": 5821, 
  "monthly": 5822, 
  "taught": 5823, 
  "my@@": 5824, 
  "continuation": 5825, 
  "A-@@": 5826, 
  "ites": 5827, 
  "ro": 5828, 
  "roughly": 5829, 
  "flowers": 5830, 
  "Tor@@": 5831, 
  "checking": 5832, 
  "loading": 5833, 
  "IA": 5834, 
  "identical": 5835, 
  "passes": 5836, 
  "ID@@": 5837, 
  "Se@@": 5838, 
  "investigate": 5839, 
  "MB": 5840, 
  "EMU": 5841, 
  "47": 5842, 
  "quantities": 5843, 
  "tension": 5844, 
  "end@@": 5845, 
  "Main": 5846, 
  "Tibet": 5847, 
  "char@@": 5848, 
  "tangible": 5849, 
  "deleted": 5850, 
  "specialised": 5851, 
  "ely": 5852, 
  "Empire": 5853, 
  "securities": 5854, 
  "ello": 5855, 
  "Qu@@": 5856, 
  "attract": 5857, 
  "*@@": 5858, 
  "backing": 5859, 
  "interaction": 5860, 
  "alarm": 5861, 
  "requiring": 5862, 
  "self": 5863, 
  "part-session": 5864, 
  "finest": 5865, 
  "bases": 5866, 
  "minds": 5867, 
  "Question": 5868, 
  "banned": 5869, 
  "upcoming": 5870, 
  "radi@@": 5871, 
  "feels": 5872, 
  "setup": 5873, 
  "roll": 5874, 
  "assumed": 5875, 
  "wake": 5876, 
  "modes": 5877, 
  "seminars": 5878, 
  "50@@": 5879, 
  "receipt": 5880, 
  "ker": 5881, 
  "clearer": 5882, 
  "imp@@": 5883, 
  "adaptation": 5884, 
  "io": 5885, 
  "revenues": 5886, 
  "profound": 5887, 
  "preventive": 5888, 
  "tape": 5889, 
  "removing": 5890, 
  "authorisation": 5891, 
  "To@@": 5892, 
  "Si@@": 5893, 
  "filling": 5894, 
  "permanently": 5895, 
  "OR": 5896, 
  "Cathedral": 5897, 
  "mirror": 5898, 
  "badly": 5899, 
  "denied": 5900, 
  "Shop": 5901, 
  "HTML": 5902, 
  "Dis@@": 5903, 
  "investing": 5904, 
  "unlikely": 5905, 
  "istic": 5906, 
  "editing": 5907, 
  "Our": 5908, 
  "á": 5909, 
  "separated": 5910, 
  "linguistic": 5911, 
  "enthusiasm": 5912, 
  "enemy": 5913, 
  "trails": 5914, 
  "ambitions": 5915, 
  "unprecedented": 5916, 
  "fifteen": 5917, 
  "male": 5918, 
  "Master": 5919, 
  "nu@@": 5920, 
  "aged": 5921, 
  "Vietnam": 5922, 
  "Tunisia": 5923, 
  "ational": 5924, 
  "Port": 5925, 
  "Ad@@": 5926, 
  "alliance": 5927, 
  "obtaining": 5928, 
  "con": 5929, 
  "ized": 5930, 
  "influenced": 5931, 
  "railways": 5932, 
  "pact": 5933, 
  "incredible": 5934, 
  "Quality": 5935, 
  "ff@@": 5936, 
  "kids": 5937, 
  "invested": 5938, 
  "novel": 5939, 
  "accused": 5940, 
  "ai@@": 5941, 
  "alised": 5942, 
  "Car": 5943, 
  "ish@@": 5944, 
  "celebrated": 5945, 
  "1980": 5946, 
  "ures": 5947, 
  "spots": 5948, 
  "vegetables": 5949, 
  "contributes": 5950, 
  "Pri@@": 5951, 
  "rose": 5952, 
  "three-@@": 5953, 
  "assessments": 5954, 
  "evil": 5955, 
  "My": 5956, 
  "excess": 5957, 
  "murder": 5958, 
  "brain": 5959, 
  "defense": 5960, 
  "partition": 5961, 
  "ot": 5962, 
  "tes": 5963, 
  "id@@": 5964, 
  "SV": 5965, 
  "grew": 5966, 
  "eh@@": 5967, 
  "ang@@": 5968, 
  "notification": 5969, 
  "IV": 5970, 
  "Norway": 5971, 
  "ach": 5972, 
  "witness": 5973, 
  "participated": 5974, 
  "strive": 5975, 
  "independently": 5976, 
  "ha": 5977, 
  "Puerto": 5978, 
  "winners": 5979, 
  "cheese": 5980, 
  "cope": 5981, 
  "loaded": 5982, 
  "installing": 5983, 
  "Euro@@": 5984, 
  "accountability": 5985, 
  "demonstration": 5986, 
  "bio@@": 5987, 
  "EM@@": 5988, 
  "investigations": 5989, 
  "striking": 5990, 
  "ane": 5991, 
  "skilled": 5992, 
  "Budget": 5993, 
  "stem": 5994, 
  "arrested": 5995, 
  "ash": 5996, 
  "clo@@": 5997, 
  "convert": 5998, 
  "authorised": 5999, 
  "eligible": 6000, 
  "continental": 6001, 
  "piano": 6002, 
  "ah@@": 6003, 
  "Organization": 6004, 
  "gate": 6005, 
  "activated": 6006, 
  "supervisory": 6007, 
  "dangers": 6008, 
  "labels": 6009, 
  "Edition": 6010, 
  "salt": 6011, 
  "und@@": 6012, 
  "Tra@@": 6013, 
  "anyway": 6014, 
  "competitors": 6015, 
  "holders": 6016, 
  "AM@@": 6017, 
  "consisting": 6018, 
  "culinary": 6019, 
  "shore": 6020, 
  "ED": 6021, 
  "s.@@": 6022, 
  "motivated": 6023, 
  "differently": 6024, 
  "ri": 6025, 
  "Alpine": 6026, 
  "coherence": 6027, 
  "Win@@": 6028, 
  "Gran": 6029, 
  "explicit": 6030, 
  "semi-@@": 6031, 
  "guides": 6032, 
  "discovery": 6033, 
  "demanded": 6034, 
  "countless": 6035, 
  "landscapes": 6036, 
  "partially": 6037, 
  "acquis": 6038, 
  "ko@@": 6039, 
  "exploit": 6040, 
  "Power": 6041, 
  "q@@": 6042, 
  "hosts": 6043, 
  "capacities": 6044, 
  "embedded": 6045, 
  "mini": 6046, 
  "tries": 6047, 
  "transformed": 6048, 
  "Gar@@": 6049, 
  "ET@@": 6050, 
  "Millennium": 6051, 
  "permits": 6052, 
  "stakeholders": 6053, 
  "Br@@": 6054, 
  "homepage": 6055, 
  "hire": 6056, 
  "controller": 6057, 
  "54": 6058, 
  "secured": 6059, 
  "tically": 6060, 
  "twelve": 6061, 
  "bears": 6062, 
  "deny": 6063, 
  "SAP": 6064, 
  "venture": 6065, 
  "Tyrol": 6066, 
  "abolition": 6067, 
  "lens": 6068, 
  "che@@": 6069, 
  "restoration": 6070, 
  "California": 6071, 
  "Mer@@": 6072, 
  "consulted": 6073, 
  "//www.@@": 6074, 
  "warranty": 6075, 
  "weekly": 6076, 
  "ea": 6077, 
  "deemed": 6078, 
  "Moldova": 6079, 
  "inequality": 6080, 
  "inevitably": 6081, 
  "behold": 6082, 
  "dual": 6083, 
  "ich": 6084, 
  "cheaper": 6085, 
  "AT": 6086, 
  "profiles": 6087, 
  "Web@@": 6088, 
  "districts": 6089, 
  "dr@@": 6090, 
  "ire": 6091, 
  "configure": 6092, 
  "appreciation": 6093, 
  "walks": 6094, 
  "AS": 6095, 
  "atory": 6096, 
  "unanimous": 6097, 
  "Digital": 6098, 
  "acc@@": 6099, 
  "OK": 6100, 
  "observations": 6101, 
  "reconciliation": 6102, 
  "ola": 6103, 
  "Danube": 6104, 
  "officers": 6105, 
  "multimedia": 6106, 
  "League": 6107, 
  "rescue": 6108, 
  "Science": 6109, 
  "employee": 6110, 
  "CHF": 6111, 
  "commonly": 6112, 
  "ill": 6113, 
  "sch@@": 6114, 
  "reproduction": 6115, 
  "fault": 6116, 
  "laboratory": 6117, 
  "ft": 6118, 
  "AND": 6119, 
  "yellow": 6120, 
  "rivers": 6121, 
  "exploring": 6122, 
  "distinguished": 6123, 
  "fying": 6124, 
  "sincerely": 6125, 
  "2.5": 6126, 
  "carrier": 6127, 
  "neutral": 6128, 
  "opponents": 6129, 
  "promotes": 6130, 
  "capability": 6131, 
  "stringent": 6132, 
  "dumping": 6133, 
  "clarification": 6134, 
  "ky": 6135, 
  "mas@@": 6136, 
  "excellence": 6137, 
  "posed": 6138, 
  "damaging": 6139, 
  "moderate": 6140, 
  "presentations": 6141, 
  "fundamentally": 6142, 
  "dictatorship": 6143, 
  "isolation": 6144, 
  "interpreted": 6145, 
  "modest": 6146, 
  "tens": 6147, 
  "styles": 6148, 
  "minimal": 6149, 
  "dominant": 6150, 
  "boundaries": 6151, 
  "az@@": 6152, 
  "ON": 6153, 
  "sin@@": 6154, 
  "struck": 6155, 
  "ched": 6156, 
  "resorts": 6157, 
  "and-@@": 6158, 
  "inclusive": 6159, 
  "det@@": 6160, 
  "pack": 6161, 
  "stimulate": 6162, 
  "interview": 6163, 
  "gar@@": 6164, 
  "transmitted": 6165, 
  "eine": 6166, 
  "mailing": 6167, 
  "Mobile": 6168, 
  "cycling": 6169, 
  "justification": 6170, 
  "sive": 6171, 
  "chocolate": 6172, 
  "mer": 6173, 
  "conviction": 6174, 
  "bread": 6175, 
  "downtown": 6176, 
  "ali@@": 6177, 
  "equ@@": 6178, 
  "sad": 6179, 
  "CS": 6180, 
  "alive": 6181, 
  "currencies": 6182, 
  "databases": 6183, 
  "trademarks": 6184, 
  "cra@@": 6185, 
  "met@@": 6186, 
  "scenario": 6187, 
  "tre@@": 6188, 
  "abilities": 6189, 
  "albeit": 6190, 
  "Wall": 6191, 
  "recover": 6192, 
  "designers": 6193, 
  "ade": 6194, 
  "Apartments": 6195, 
  "in-depth": 6196, 
  "Thailand": 6197, 
  "7.@@": 6198, 
  "indigenous": 6199, 
  "ran": 6200, 
  "alise": 6201, 
  "refined": 6202, 
  "plane": 6203, 
  "ching": 6204, 
  "translate": 6205, 
  "mounted": 6206, 
  "formula": 6207, 
  "urs": 6208, 
  "constraints": 6209, 
  "Program": 6210, 
  "earned": 6211, 
  "avoiding": 6212, 
  "commission": 6213, 
  "inevitable": 6214, 
  "US@@": 6215, 
  "sharp": 6216, 
  "poly@@": 6217, 
  "gathered": 6218, 
  "colonial": 6219, 
  "ther@@": 6220, 
  "ole": 6221, 
  "safely": 6222, 
  "roles": 6223, 
  "Gi@@": 6224, 
  "extends": 6225, 
  "delivering": 6226, 
  "globally": 6227, 
  "vicinity": 6228, 
  "Blue": 6229, 
  "fre@@": 6230, 
  "admission": 6231, 
  "actor": 6232, 
  "7-@@": 6233, 
  "To": 6234, 
  "bags": 6235, 
  "don@@": 6236, 
  "ths": 6237, 
  "sized": 6238, 
  "kill": 6239, 
  "Apple": 6240, 
  "ve@@": 6241, 
  "gym": 6242, 
  "cap@@": 6243, 
  "AC": 6244, 
  "capitalism": 6245, 
  "head@@": 6246, 
  "trademark": 6247, 
  "lifestyle": 6248, 
  "separation": 6249, 
  "plate": 6250, 
  "noticed": 6251, 
  "Standard": 6252, 
  "pose": 6253, 
  "sadly": 6254, 
  "56": 6255, 
  "pres@@": 6256, 
  "tic@@": 6257, 
  "dogs": 6258, 
  "guard": 6259, 
  "delayed": 6260, 
  "liquid": 6261, 
  "arriving": 6262, 
  "simplified": 6263, 
  "ered": 6264, 
  "intergovernmental": 6265, 
  "coalition": 6266, 
  "half-@@": 6267, 
  "impetus": 6268, 
  "finishing": 6269, 
  "PSE": 6270, 
  "younger": 6271, 
  "Real": 6272, 
  "hide": 6273, 
  "compatibility": 6274, 
  "officer": 6275, 
  "complement": 6276, 
  "rain": 6277, 
  "garage": 6278, 
  "radiation": 6279, 
  "iPhone": 6280, 
  "width": 6281, 
  "suspension": 6282, 
  "encounter": 6283, 
  "rep@@": 6284, 
  "tion@@": 6285, 
  "Chi@@": 6286, 
  "ving": 6287, 
  "hazardous": 6288, 
  "killing": 6289, 
  "inspiration": 6290, 
  "grave": 6291, 
  "surplus": 6292, 
  "dem": 6293, 
  "6.@@": 6294, 
  "Bur@@": 6295, 
  "gear": 6296, 
  "realised": 6297, 
  "irrespective": 6298, 
  "household": 6299, 
  "divide": 6300, 
  "Client": 6301, 
  "str@@": 6302, 
  "missed": 6303, 
  "sis": 6304, 
  "Ltd": 6305, 
  "terror": 6306, 
  "weapon": 6307, 
  "Supervisory": 6308, 
  "en-@@": 6309, 
  "toilet": 6310, 
  "dri@@": 6311, 
  "reinforced": 6312, 
  "indispensable": 6313, 
  "Co": 6314, 
  "6-@@": 6315, 
  "flash": 6316, 
  "eating": 6317, 
  "04": 6318, 
  "viewing": 6319, 
  "outlined": 6320, 
  "grand": 6321, 
  "Ra@@": 6322, 
  "vice": 6323, 
  "calculation": 6324, 
  "daughter": 6325, 
  "waves": 6326, 
  "Support": 6327, 
  "blocked": 6328, 
  "ko": 6329, 
  "cooling": 6330, 
  "abuses": 6331, 
  "br@@": 6332, 
  "ena": 6333, 
  "Book": 6334, 
  "co-operation": 6335, 
  "camping": 6336, 
  "panels": 6337, 
  "charter": 6338, 
  "Mag@@": 6339, 
  "dive": 6340, 
  "reaches": 6341, 
  "gases": 6342, 
  "bag": 6343, 
  "ery": 6344, 
  "entities": 6345, 
  "72": 6346, 
  "ly@@": 6347, 
  "limitations": 6348, 
  "catering": 6349, 
  "lawyers": 6350, 
  "pride": 6351, 
  "Nero": 6352, 
  "feelings": 6353, 
  "Cam@@": 6354, 
  "technically": 6355, 
  "53": 6356, 
  "a.m": 6357, 
  "advocate": 6358, 
  "tight": 6359, 
  "Ho@@": 6360, 
  "dra@@": 6361, 
  "Captain": 6362, 
  "Road": 6363, 
  "os@@": 6364, 
  "symbolic": 6365, 
  "elite": 6366, 
  "ideological": 6367, 
  "infrastructures": 6368, 
  "married": 6369, 
  "filters": 6370, 
  "donors": 6371, 
  "une": 6372, 
  "resistant": 6373, 
  "venue": 6374, 
  "aging": 6375, 
  "await": 6376, 
  "selecting": 6377, 
  "Stuttgart": 6378, 
  "existed": 6379, 
  "climbing": 6380, 
  "ang": 6381, 
  "crystal": 6382, 
  "systematically": 6383, 
  "shoes": 6384, 
  "laying": 6385, 
  "bel@@": 6386, 
  "8.@@": 6387, 
  "Guests": 6388, 
  "CEO": 6389, 
  "star@@": 6390, 
  "thin": 6391, 
  "cher": 6392, 
  "person@@": 6393, 
  "single-@@": 6394, 
  "Jerusalem": 6395, 
  "Estonia": 6396, 
  "retirement": 6397, 
  "Muslims": 6398, 
  "electronics": 6399, 
  "awards": 6400, 
  "argued": 6401, 
  "vineyards": 6402, 
  "qualities": 6403, 
  "interfaces": 6404, 
  "judges": 6405, 
  "speaks": 6406, 
  "dependence": 6407, 
  "cro@@": 6408, 
  "resumed": 6409, 
  "openly": 6410, 
  "designated": 6411, 
  "16th": 6412, 
  "advances": 6413, 
  "circuit": 6414, 
  "abstained": 6415, 
  "bands": 6416, 
  "rarely": 6417, 
  "musicians": 6418, 
  "ju@@": 6419, 
  "audit": 6420, 
  "Val": 6421, 
  "promising": 6422, 
  "criminals": 6423, 
  "eu@@": 6424, 
  "sensitivity": 6425, 
  "Me@@": 6426, 
  "rel@@": 6427, 
  "Can@@": 6428, 
  "pal@@": 6429, 
  "ruled": 6430, 
  "brother": 6431, 
  "Doha": 6432, 
  "tremendous": 6433, 
  "entrepreneurs": 6434, 
  "stones": 6435, 
  "HD": 6436, 
  "integrating": 6437, 
  "subscription": 6438, 
  "Ku@@": 6439, 
  "ls": 6440, 
  "deeper": 6441, 
  "sts": 6442, 
  "pp@@": 6443, 
  "libraries": 6444, 
  "harmonised": 6445, 
  "Chechnya": 6446, 
  "hectares": 6447, 
  "traditionally": 6448, 
  "tip": 6449, 
  "hunger": 6450, 
  "Professor": 6451, 
  "por@@": 6452, 
  "ambience": 6453, 
  "č@@": 6454, 
  "collections": 6455, 
  "workforce": 6456, 
  "consist": 6457, 
  "clothes": 6458, 
  "Playa": 6459, 
  "Christians": 6460, 
  "prevents": 6461, 
  "Gold": 6462, 
  "score": 6463, 
  "disagree": 6464, 
  "reviewed": 6465, 
  "gradual": 6466, 
  "tical": 6467, 
  "activate": 6468, 
  "Nikon": 6469, 
  "Ju@@": 6470, 
  "resolving": 6471, 
  "seminar": 6472, 
  "Fi@@": 6473, 
  "customized": 6474, 
  "5th": 6475, 
  "Jo@@": 6476, 
  "cl@@": 6477, 
  "woods": 6478, 
  "socially": 6479, 
  "Region": 6480, 
  "sha@@": 6481, 
  "tonight": 6482, 
  "attach": 6483, 
  "instability": 6484, 
  "adjustments": 6485, 
  "UNESCO": 6486, 
  "Gra@@": 6487, 
  "ub@@": 6488, 
  "tensions": 6489, 
  "Jews": 6490, 
  "endless": 6491, 
  "Mat@@": 6492, 
  "dear": 6493, 
  "incident": 6494, 
  "11.@@": 6495, 
  "profitable": 6496, 
  "excuse": 6497, 
  "AP@@": 6498, 
  "Golden": 6499, 
  "scenes": 6500, 
  "kilometers": 6501, 
  "Joseph": 6502, 
  "delivers": 6503, 
  "Ne@@": 6504, 
  "democracies": 6505, 
  "Process": 6506, 
  "AG@@": 6507, 
  "subjected": 6508, 
  "stroll": 6509, 
  "supplement": 6510, 
  "criterion": 6511, 
  "ory": 6512, 
  "fication": 6513, 
  "attempted": 6514, 
  "ering": 6515, 
  "powered": 6516, 
  "sightseeing": 6517, 
  "sec@@": 6518, 
  "Statute": 6519, 
  "Holiday": 6520, 
  "Mas@@": 6521, 
  "interference": 6522, 
  "decrease": 6523, 
  "XP": 6524, 
  "Caribbean": 6525, 
  "inter-@@": 6526, 
  "incorrect": 6527, 
  "Saddam": 6528, 
  "counts": 6529, 
  "carries": 6530, 
  "linking": 6531, 
  "securing": 6532, 
  "fits": 6533, 
  "Christ": 6534, 
  "arises": 6535, 
  "detection": 6536, 
  "Alexander": 6537, 
  "threatening": 6538, 
  "jo@@": 6539, 
  "Rental": 6540, 
  "distributors": 6541, 
  "graphical": 6542, 
  "reveal": 6543, 
  "\\@@": 6544, 
  "procedural": 6545, 
  "maintains": 6546, 
  "imperative": 6547, 
  "genetically": 6548, 
  "comforts": 6549, 
  "menus": 6550, 
  "determining": 6551, 
  "engagement": 6552, 
  "examining": 6553, 
  "joy": 6554, 
  "talent": 6555, 
  "TR@@": 6556, 
  "medi@@": 6557, 
  "rigorous": 6558, 
  "Ocean": 6559, 
  "adequately": 6560, 
  "pointing": 6561, 
  "Video": 6562, 
  "dreams": 6563, 
  "authorized": 6564, 
  "Ru@@": 6565, 
  "ci": 6566, 
  "rank": 6567, 
  "repression": 6568, 
  "Peace": 6569, 
  "Fax": 6570, 
  "washing": 6571, 
  "insight": 6572, 
  "chances": 6573, 
  "Au@@": 6574, 
  "restrictive": 6575, 
  "adverse": 6576, 
  "angle": 6577, 
  "unanimity": 6578, 
  "alize": 6579, 
  "bid": 6580, 
  "exclude": 6581, 
  "Adriatic": 6582, 
  "sincere": 6583, 
  "vessel": 6584, 
  "gen": 6585, 
  "holder": 6586, 
  "trail": 6587, 
  "congratulating": 6588, 
  "vol@@": 6589, 
  "ageing": 6590, 
  "envisaged": 6591, 
  "hosting": 6592, 
  "edi@@": 6593, 
  "gaming": 6594, 
  "plugin": 6595, 
  "ori@@": 6596, 
  "Warcraft": 6597, 
  "carriers": 6598, 
  "breeding": 6599, 
  "aus": 6600, 
  "EL@@": 6601, 
  "IGC": 6602, 
  "compromises": 6603, 
  "vacuum": 6604, 
  "loved": 6605, 
  "tournament": 6606, 
  "fu@@": 6607, 
  "pillars": 6608, 
  "packed": 6609, 
  "los": 6610, 
  "supporters": 6611, 
  "racing": 6612, 
  "rid": 6613, 
  "Holy": 6614, 
  "ising": 6615, 
  "safeguarding": 6616, 
  "somewhere": 6617, 
  "How": 6618, 
  "ong": 6619, 
  "auto@@": 6620, 
  "civilians": 6621, 
  "fabric": 6622, 
  "high-speed": 6623, 
  "Korean": 6624, 
  "Allah": 6625, 
  "indirectly": 6626, 
  "autonomous": 6627, 
  "wishing": 6628, 
  "USS": 6629, 
  "cinema": 6630, 
  "insert": 6631, 
  "entity": 6632, 
  "enhancing": 6633, 
  "Petitions": 6634, 
  "Heritage": 6635, 
  "beat": 6636, 
  "Er@@": 6637, 
  "distant": 6638, 
  "attempting": 6639, 
  "air-conditioned": 6640, 
  "non-governmental": 6641, 
  "offset": 6642, 
  "bre@@": 6643, 
  "layers": 6644, 
  "cargo": 6645, 
  "alists": 6646, 
  "luck": 6647, 
  "scrutiny": 6648, 
  "ser": 6649, 
  "featured": 6650, 
  "LE@@": 6651, 
  "worker": 6652, 
  "fruits": 6653, 
  "communist": 6654, 
  "wire": 6655, 
  "printer": 6656, 
  "refugee": 6657, 
  "ast@@": 6658, 
  "4th": 6659, 
  "stra@@": 6660, 
  "legendary": 6661, 
  "symbols": 6662, 
  "Helsinki": 6663, 
  "Plus": 6664, 
  "stating": 6665, 
  "tiny": 6666, 
  "de-@@": 6667, 
  "ris@@": 6668, 
  "sta@@": 6669, 
  "una": 6670, 
  "hearts": 6671, 
  "margin": 6672, 
  "visas": 6673, 
  "booth": 6674, 
  "TO": 6675, 
  "annually": 6676, 
  "He": 6677, 
  "Vista": 6678, 
  "Chief": 6679, 
  "consolidated": 6680, 
  "Bor@@": 6681, 
  "dust": 6682, 
  "analyse": 6683, 
  "silent": 6684, 
  "zation": 6685, 
  "ranges": 6686, 
  "sums": 6687, 
  "oder": 6688, 
  "3-star": 6689, 
  "utility": 6690, 
  "ati": 6691, 
  "verify": 6692, 
  "horses": 6693, 
  "gro@@": 6694, 
  "rolling": 6695, 
  "consultations": 6696, 
  "asks": 6697, 
  "disastrous": 6698, 
  "Kal@@": 6699, 
  "58": 6700, 
  "ME@@": 6701, 
  "shock": 6702, 
  "15th": 6703, 
  "validity": 6704, 
  "gather": 6705, 
  "writer": 6706, 
  "cul@@": 6707, 
  "coins": 6708, 
  "elegance": 6709, 
  "marriage": 6710, 
  "concludes": 6711, 
  "Cap@@": 6712, 
  "-up": 6713, 
  "Samsung": 6714, 
  "aggressive": 6715, 
  "matches": 6716, 
  "HU": 6717, 
  "stayed": 6718, 
  "down@@": 6719, 
  "protests": 6720, 
  "Nigeria": 6721, 
  "cas@@": 6722, 
  "incomes": 6723, 
  "ari": 6724, 
  "convincing": 6725, 
  "foster": 6726, 
  "66": 6727, 
  "reactions": 6728, 
  "ok@@": 6729, 
  "samples": 6730, 
  "certificates": 6731, 
  "trans-European": 6732, 
  "tab": 6733, 
  "forums": 6734, 
  "invites": 6735, 
  "mineral": 6736, 
  "Rio": 6737, 
  "Arts": 6738, 
  "bach": 6739, 
  "9.@@": 6740, 
  "upload": 6741, 
  "DI@@": 6742, 
  "sweet": 6743, 
  "RA@@": 6744, 
  "Sol": 6745, 
  "formerly": 6746, 
  "full-@@": 6747, 
  "corporations": 6748, 
  "protective": 6749, 
  "spell": 6750, 
  "tional": 6751, 
  "divisions": 6752, 
  "ab": 6753, 
  "bs": 6754, 
  "monopoly": 6755, 
  "log@@": 6756, 
  "healing": 6757, 
  "ban@@": 6758, 
  "AD": 6759, 
  "ado": 6760, 
  "Library": 6761, 
  "discretion": 6762, 
  "clinical": 6763, 
  "exceptionally": 6764, 
  "Tur@@": 6765, 
  "far-reaching": 6766, 
  "preservation": 6767, 
  "Romanian": 6768, 
  "herself": 6769, 
  "teach": 6770, 
  "mixture": 6771, 
  "reg@@": 6772, 
  "assessed": 6773, 
  "formally": 6774, 
  "unified": 6775, 
  "girl": 6776, 
  "HIV": 6777, 
  "accompanying": 6778, 
  "ik@@": 6779, 
  "workplace": 6780, 
  "conscious": 6781, 
  "sympathy": 6782, 
  "Citizens": 6783, 
  "revolutionary": 6784, 
  "dies": 6785, 
  "statute": 6786, 
  "arm": 6787, 
  "17th": 6788, 
  "fac@@": 6789, 
  "innocent": 6790, 
  "giant": 6791, 
  "globe": 6792, 
  "Finance": 6793, 
  "belt": 6794, 
  "tube": 6795, 
  "founder": 6796, 
  "stor@@": 6797, 
  "shooting": 6798, 
  "tracking": 6799, 
  "deciding": 6800, 
  "fied": 6801, 
  "perception": 6802, 
  "Latvia": 6803, 
  "voices": 6804, 
  "BC": 6805, 
  "refusal": 6806, 
  "preference": 6807, 
  "mat@@": 6808, 
  "Kirk": 6809, 
  "abandon": 6810, 
  "1990s": 6811, 
  "CE": 6812, 
  "KDE": 6813, 
  "endeavour": 6814, 
  "Dresden": 6815, 
  "ast": 6816, 
  "absurd": 6817, 
  "check-in": 6818, 
  "endorsed": 6819, 
  "paragraphs": 6820, 
  "palace": 6821, 
  "on-site": 6822, 
  "lan@@": 6823, 
  "locally": 6824, 
  "admire": 6825, 
  "News": 6826, 
  "aiming": 6827, 
  "interventions": 6828, 
  ".org": 6829, 
  "contest": 6830, 
  "Jesus": 6831, 
  "Hu@@": 6832, 
  "Piazza": 6833, 
  "exploited": 6834, 
  "highway": 6835, 
  "elling": 6836, 
  "unilateral": 6837, 
  "ens@@": 6838, 
  "distinct": 6839, 
  "59": 6840, 
  "deployment": 6841, 
  "defeat": 6842, 
  "oni": 6843, 
  "energies": 6844, 
  "villas": 6845, 
  "delegations": 6846, 
  "theoretical": 6847, 
  "plates": 6848, 
  "complimentary": 6849, 
  "ga": 6850, 
  "invoice": 6851, 
  "limiting": 6852, 
  "bit@@": 6853, 
  "strikes": 6854, 
  "form@@": 6855, 
  "complaint": 6856, 
  "skill": 6857, 
  "detention": 6858, 
  "seekers": 6859, 
  "transported": 6860, 
  "twin": 6861, 
  "cks": 6862, 
  "overwhelming": 6863, 
  "Spring": 6864, 
  "modernisation": 6865, 
  "distribute": 6866, 
  "dramatically": 6867, 
  "lo": 6868, 
  "Singapore": 6869, 
  "seaside": 6870, 
  "ol": 6871, 
  "attraction": 6872, 
  "hu@@": 6873, 
  "overnight": 6874, 
  "Image": 6875, 
  "inf@@": 6876, 
  "57": 6877, 
  "advised": 6878, 
  "off@@": 6879, 
  "immense": 6880, 
  "deadlines": 6881, 
  "immunity": 6882, 
  "newest": 6883, 
  "92": 6884, 
  "Pre@@": 6885, 
  "chamber": 6886, 
  "2,@@": 6887, 
  "of-@@": 6888, 
  "ocean": 6889, 
  "aluminium": 6890, 
  "Criminal": 6891, 
  "hunting": 6892, 
  "Hostel": 6893, 
  "J": 6894, 
  "bicycle": 6895, 
  "mount": 6896, 
  "personality": 6897, 
  "hydro@@": 6898, 
  "900": 6899, 
  "buyer": 6900, 
  "configured": 6901, 
  "worried": 6902, 
  "Show": 6903, 
  "yield": 6904, 
  "Disabled": 6905, 
  "burg": 6906, 
  "tel@@": 6907, 
  "classification": 6908, 
  "indications": 6909, 
  "safer": 6910, 
  "perceived": 6911, 
  "praise": 6912, 
  "demonstrations": 6913, 
  "Ben@@": 6914, 
  "medicinal": 6915, 
  "Partner": 6916, 
  "app@@": 6917, 
  "admitted": 6918, 
  "confirms": 6919, 
  "с@@": 6920, 
  "fy": 6921, 
  "long-@@": 6922, 
  "hom@@": 6923, 
  "proves": 6924, 
  "val@@": 6925, 
  "71": 6926, 
  "identifying": 6927, 
  "Chile": 6928, 
  "alter": 6929, 
  "Industrial": 6930, 
  "Basel": 6931, 
  "WC": 6932, 
  "rational": 6933, 
  "lat@@": 6934, 
  "pa@@": 6935, 
  "Galileo": 6936, 
  "trials": 6937, 
  "ass": 6938, 
  "execute": 6939, 
  "responding": 6940, 
  "query": 6941, 
  "prompt": 6942, 
  "ei": 6943, 
  "Gallery": 6944, 
  "Fair": 6945, 
  "Chancellor": 6946, 
  "ceremony": 6947, 
  "beautifully": 6948, 
  "wn": 6949, 
  "critique": 6950, 
  "vertical": 6951, 
  "Army": 6952, 
  "visibility": 6953, 
  "gaining": 6954, 
  "punishment": 6955, 
  "62": 6956, 
  "Tower": 6957, 
  "lays": 6958, 
  "par": 6959, 
  "stimulus": 6960, 
  "Wikitravel": 6961, 
  "breaks": 6962, 
  "emotional": 6963, 
  "costly": 6964, 
  "Gal@@": 6965, 
  "bor@@": 6966, 
  "ation@@": 6967, 
  "thinks": 6968, 
  "remedy": 6969, 
  "Lin@@": 6970, 
  "obstacle": 6971, 
  "counter@@": 6972, 
  "Newspapers": 6973, 
  "carte": 6974, 
  "processor": 6975, 
  "guilty": 6976, 
  "mel@@": 6977, 
  "thereof": 6978, 
  "War@@": 6979, 
  "reader": 6980, 
  "clauses": 6981, 
  "book@@": 6982, 
  "marking": 6983, 
  "lifting": 6984, 
  "Congo": 6985, 
  "quest": 6986, 
  "wished": 6987, 
  "gri@@": 6988, 
  "Sol@@": 6989, 
  "emphasize": 6990, 
  "holes": 6991, 
  "ato": 6992, 
  "wedding": 6993, 
  "AM": 6994, 
  "pricing": 6995, 
  "ises": 6996, 
  "OLAF": 6997, 
  "ample": 6998, 
  "yn@@": 6999, 
  "audiovisual": 7000, 
  "licensed": 7001, 
  "complementary": 7002, 
  "Saudi": 7003, 
  "surgery": 7004, 
  "origins": 7005, 
  "loc@@": 7006, 
  "ist@@": 7007, 
  "Suites": 7008, 
  "ED@@": 7009, 
  "literally": 7010, 
  "Blair": 7011, 
  "profession": 7012, 
  "C-@@": 7013, 
  "improves": 7014, 
  "30@@": 7015, 
  "meaningful": 7016, 
  "wanting": 7017, 
  "instant": 7018, 
  "93": 7019, 
  "ordering": 7020, 
  "a.m.": 7021, 
  "burning": 7022, 
  "painted": 7023, 
  "Por@@": 7024, 
  "flo@@": 7025, 
  "def@@": 7026, 
  "credits": 7027, 
  "vel@@": 7028, 
  "serial": 7029, 
  "ty@@": 7030, 
  "witnessed": 7031, 
  "Coast": 7032, 
  "commerce": 7033, 
  "vis@@": 7034, 
  "advisory": 7035, 
  "eries": 7036, 
  "zo@@": 7037, 
  "inland": 7038, 
  "painful": 7039, 
  "Mark": 7040, 
  "reasonably": 7041, 
  "consolidate": 7042, 
  "broadly": 7043, 
  "psychological": 7044, 
  "District": 7045, 
  "ich@@": 7046, 
  "cattle": 7047, 
  "Sk@@": 7048, 
  "ware": 7049, 
  "63": 7050, 
  "TH@@": 7051, 
  "sch": 7052, 
  "Training": 7053, 
  "Richard": 7054, 
  "Algeria": 7055, 
  "sends": 7056, 
  "Annual": 7057, 
  "wisdom": 7058, 
  "studying": 7059, 
  "MO@@": 7060, 
  "definitions": 7061, 
  "prerequisite": 7062, 
  "GPS": 7063, 
  "commands": 7064, 
  "onic": 7065, 
  "ization": 7066, 
  "Corporation": 7067, 
  "alpine": 7068, 
  "My@@": 7069, 
  "universe": 7070, 
  "variables": 7071, 
  "continuity": 7072, 
  "generating": 7073, 
  "cotton": 7074, 
  "Ser@@": 7075, 
  "tons": 7076, 
  "eri@@": 7077, 
  "couples": 7078, 
  "altitude": 7079, 
  "terraces": 7080, 
  "Catholic": 7081, 
  "sw@@": 7082, 
  "pu@@": 7083, 
  "sho@@": 7084, 
  "static": 7085, 
  "limitation": 7086, 
  "Edinburgh": 7087, 
  "Privacy": 7088, 
  "of@@": 7089, 
  "protects": 7090, 
  "Bad": 7091, 
  "headed": 7092, 
  "Gay": 7093, 
  "surfaces": 7094, 
  "Explorer": 7095, 
  "pushed": 7096, 
  "dé@@": 7097, 
  "pipeline": 7098, 
  "Cold": 7099, 
  "Bridge": 7100, 
  "Sam@@": 7101, 
  "settle": 7102, 
  "CA@@": 7103, 
  "gre@@": 7104, 
  "baggage": 7105, 
  "Administration": 7106, 
  "estimate": 7107, 
  "dro@@": 7108, 
  "the@@": 7109, 
  "patch": 7110, 
  "Casa": 7111, 
  "exquisite": 7112, 
  "problematic": 7113, 
  "He@@": 7114, 
  "modification": 7115, 
  "Ukrainian": 7116, 
  "distinguish": 7117, 
  "OECD": 7118, 
  "documented": 7119, 
  "ech@@": 7120, 
  "Montenegro": 7121, 
  "year-old": 7122, 
  "forestry": 7123, 
  "keyboard": 7124, 
  "modifications": 7125, 
  "renewal": 7126, 
  "thy": 7127, 
  "safeguards": 7128, 
  "diplomacy": 7129, 
  "License": 7130, 
  "legacy": 7131, 
  "lending": 7132, 
  "ideology": 7133, 
  "refurbished": 7134, 
  "donor": 7135, 
  "assessing": 7136, 
  "portion": 7137, 
  "sign@@": 7138, 
  "Siemens": 7139, 
  "MP@@": 7140, 
  "Sun": 7141, 
  "fare": 7142, 
  "23@@": 7143, 
  "IP@@": 7144, 
  "pos@@": 7145, 
  "Bre@@": 7146, 
  "tendency": 7147, 
  "broadcasting": 7148, 
  "pull": 7149, 
  "readers": 7150, 
  "spreading": 7151, 
  "buttons": 7152, 
  "multinational": 7153, 
  "SA": 7154, 
  "Pack": 7155, 
  "incidents": 7156, 
  "disabilities": 7157, 
  "comfortably": 7158, 
  "ved": 7159, 
  "dioxide": 7160, 
  "disappear": 7161, 
  "thirty": 7162, 
  "§": 7163, 
  "8-@@": 7164, 
  "enforce": 7165, 
  "hal@@": 7166, 
  "tram": 7167, 
  "completing": 7168, 
  "broadcast": 7169, 
  "container": 7170, 
  "Ter@@": 7171, 
  "dairy": 7172, 
  "Live": 7173, 
  "classified": 7174, 
  "council": 7175, 
  "inviting": 7176, 
  "textiles": 7177, 
  "intent": 7178, 
  "ferry": 7179, 
  "recognises": 7180, 
  "ni": 7181, 
  "Mi@@": 7182, 
  "Mac@@": 7183, 
  "94": 7184, 
  "imbalances": 7185, 
  "SE@@": 7186, 
  "draws": 7187, 
  "AB@@": 7188, 
  "ratify": 7189, 
  "conducting": 7190, 
  "pat@@": 7191, 
  "economical": 7192, 
  "developer": 7193, 
  "evaluated": 7194, 
  "correction": 7195, 
  "Water": 7196, 
  "vibrant": 7197, 
  "Nobel": 7198, 
  "Nokia": 7199, 
  "fulfilling": 7200, 
  "es-@@": 7201, 
  "luggage": 7202, 
  "smallest": 7203, 
  "Tu@@": 7204, 
  "©": 7205, 
  "zer": 7206, 
  "encourages": 7207, 
  "Vel@@": 7208, 
  "Mountains": 7209, 
  "There": 7210, 
  "pushing": 7211, 
  "altogether": 7212, 
  "floods": 7213, 
  "preserving": 7214, 
  "introduces": 7215, 
  "40@@": 7216, 
  "aj@@": 7217, 
  "S.": 7218, 
  "Secretary-General": 7219, 
  "defines": 7220, 
  "accommodations": 7221, 
  "1970": 7222, 
  "Ge@@": 7223, 
  "67": 7224, 
  "nearest": 7225, 
  "Firefox": 7226, 
  "sequence": 7227, 
  "feasible": 7228, 
  "tar@@": 7229, 
  "episode": 7230, 
  "EX@@": 7231, 
  "grade": 7232, 
  "austerity": 7233, 
  "Leipzig": 7234, 
  "illness": 7235, 
  "organising": 7236, 
  "sam@@": 7237, 
  "//@@": 7238, 
  "MP3": 7239, 
  "CDs": 7240, 
  "topical": 7241, 
  "Mc@@": 7242, 
  "confidential": 7243, 
  "82": 7244, 
  "opera": 7245, 
  "guitar": 7246, 
  "25@@": 7247, 
  "a.@@": 7248, 
  "ga@@": 7249, 
  "landing": 7250, 
  "conservative": 7251, 
  "sorts": 7252, 
  "IF@@": 7253, 
  "galleries": 7254, 
  "tly": 7255, 
  "fat": 7256, 
  "optimized": 7257, 
  "diet": 7258, 
  "tied": 7259, 
  "DC": 7260, 
  "EP": 7261, 
  "rap@@": 7262, 
  "shorter": 7263, 
  "son@@": 7264, 
  "sel@@": 7265, 
  "TS": 7266, 
  "inspections": 7267, 
  "PRO@@": 7268, 
  "Communication": 7269, 
  "macroeconomic": 7270, 
  "Star@@": 7271, 
  "decoration": 7272, 
  "protectionism": 7273, 
  "pine": 7274, 
  "snacks": 7275, 
  "organs": 7276, 
  "LA@@": 7277, 
  "pro-@@": 7278, 
  "deck": 7279, 
  "Pol@@": 7280, 
  "Mallorca": 7281, 
  "passport": 7282, 
  "Pan@@": 7283, 
  "distinctive": 7284, 
  "enjoyable": 7285, 
  "memories": 7286, 
  "Haiti": 7287, 
  "activists": 7288, 
  "mines": 7289, 
  "cooperative": 7290, 
  "Sie": 7291, 
  "volumes": 7292, 
  "350": 7293, 
  "attitudes": 7294, 
  "temporarily": 7295, 
  "Bulgarian": 7296, 
  "rows": 7297, 
  "fragile": 7298, 
  "és": 7299, 
  "outs": 7300, 
  "timing": 7301, 
  "ished": 7302, 
  "inger": 7303, 
  "Louis": 7304, 
  "bul@@": 7305, 
  "popularity": 7306, 
  "bathing": 7307, 
  "lic": 7308, 
  "earthquake": 7309, 
  "maker": 7310, 
  "paint": 7311, 
  "hof": 7312, 
  "Ashton": 7313, 
  "retained": 7314, 
  "fri@@": 7315, 
  "wed": 7316, 
  "Sierra": 7317, 
  "noble": 7318, 
  "Warsaw": 7319, 
  "confidentiality": 7320, 
  "in-house": 7321, 
  "ws": 7322, 
  "ron": 7323, 
  "sti@@": 7324, 
  "aboard": 7325, 
  "Technical": 7326, 
  "settlements": 7327, 
  "time-@@": 7328, 
  "foodstuffs": 7329, 
  "privileges": 7330, 
  "View": 7331, 
  "AN": 7332, 
  "Pen@@": 7333, 
  "detect": 7334, 
  "CA": 7335, 
  "diagnosis": 7336, 
  "cabin": 7337, 
  "XML": 7338, 
  "Riviera": 7339, 
  "Ti@@": 7340, 
  "coach": 7341, 
  "wo@@": 7342, 
  "Solana": 7343, 
  "households": 7344, 
  "lia": 7345, 
  "genocide": 7346, 
  "sn@@": 7347, 
  "experiments": 7348, 
  "understandable": 7349, 
  "inappropriate": 7350, 
  "Corporate": 7351, 
  "quarters": 7352, 
  "initiate": 7353, 
  "batteries": 7354, 
  "compiled": 7355, 
  "24@@": 7356, 
  "ean": 7357, 
  "Country": 7358, 
  "ern@@": 7359, 
  "ll": 7360, 
  "fic@@": 7361, 
  "intimate": 7362, 
  "Euro-Mediterranean": 7363, 
  "launching": 7364, 
  "warrant": 7365, 
  "coordinating": 7366, 
  "History": 7367, 
  "transnational": 7368, 
  "chip": 7369, 
  "att@@": 7370, 
  "qualification": 7371, 
  "eliminating": 7372, 
  "responded": 7373, 
  "dar@@": 7374, 
  "downloads": 7375, 
  "1980s": 7376, 
  "Hol@@": 7377, 
  "lifelong": 7378, 
  "precautionary": 7379, 
  "toxic": 7380, 
  "furnishings": 7381, 
  "outermost": 7382, 
  "tal": 7383, 
  "dial": 7384, 
  "routine": 7385, 
  "fed": 7386, 
  "Colombia": 7387, 
  "accessibility": 7388, 
  "ł@@": 7389, 
  "kit": 7390, 
  "cathedral": 7391, 
  "statutory": 7392, 
  "Germans": 7393, 
  "Annex": 7394, 
  "ently": 7395, 
  "gambling": 7396, 
  "organisms": 7397, 
  "organ": 7398, 
  "concessions": 7399, 
  "alternatively": 7400, 
  "employ": 7401, 
  "ium": 7402, 
  "sofa": 7403, 
  "etc.": 7404, 
  "worlds": 7405, 
  "enters": 7406, 
  "61": 7407, 
  "suits": 7408, 
  "exotic": 7409, 
  "LCD": 7410, 
  "rac@@": 7411, 
  "grey": 7412, 
  "successes": 7413, 
  "oo@@": 7414, 
  "bird": 7415, 
  "pretext": 7416, 
  "mil@@": 7417, 
  "Starfleet": 7418, 
  "VIP": 7419, 
  "ales": 7420, 
  "quoted": 7421, 
  "retention": 7422, 
  "è@@": 7423, 
  "speculation": 7424, 
  "enemies": 7425, 
  "listing": 7426, 
  "measurements": 7427, 
  "invasion": 7428, 
  "wa": 7429, 
  "weakness": 7430, 
  "OS@@": 7431, 
  "ink": 7432, 
  "withdrawn": 7433, 
  "Order": 7434, 
  "gathering": 7435, 
  "metals": 7436, 
  "irregularities": 7437, 
  "Croatian": 7438, 
  "persecution": 7439, 
  "Vo@@": 7440, 
  "lic@@": 7441, 
  "fusion": 7442, 
  "modular": 7443, 
  "spam": 7444, 
  "(RRC": 7445, 
  ")RRC": 7446, 
  "Sub@@": 7447, 
  "objections": 7448, 
  "panorama": 7449, 
  "Sc@@": 7450, 
  "ide@@": 7451, 
  "ruins": 7452, 
  "bin": 7453, 
  "LO@@": 7454, 
  "democratically": 7455, 
  "attacked": 7456, 
  "ham": 7457, 
  "socio-economic": 7458, 
  "ée": 7459, 
  "ene": 7460, 
  "lifts": 7461, 
  "by@@": 7462, 
  "Patten": 7463, 
  "thou": 7464, 
  "deliveries": 7465, 
  "peripheral": 7466, 
  "Rec@@": 7467, 
  "institute": 7468, 
  "68": 7469, 
  "races": 7470, 
  "convey": 7471, 
  "weaknesses": 7472, 
  "amp": 7473, 
  "economists": 7474, 
  "1988": 7475, 
  "Laundry": 7476, 
  "poorer": 7477, 
  "debts": 7478, 
  "Third": 7479, 
  "Hague": 7480, 
  "scripts": 7481, 
  "inequalities": 7482, 
  "EIB": 7483, 
  "OSCE": 7484, 
  "Quark": 7485, 
  "Sar@@": 7486, 
  "78": 7487, 
  "liquidity": 7488, 
  "anticipated": 7489, 
  "persuade": 7490, 
  "Terrace": 7491, 
  "ón": 7492, 
  "Kr@@": 7493, 
  "k-@@": 7494, 
  "barrier": 7495, 
  "mild": 7496, 
  "relevance": 7497, 
  "loan": 7498, 
  "Personal": 7499, 
  "baths": 7500, 
  "mood": 7501, 
  "cia": 7502, 
  "occasionally": 7503, 
  "PS": 7504, 
  "meter": 7505, 
  "Valencia": 7506, 
  "voltage": 7507, 
  "Tel@@": 7508, 
  "gan@@": 7509, 
  "Content": 7510, 
  "break@@": 7511, 
  "cer@@": 7512, 
  "nightlife": 7513, 
  "varying": 7514, 
  "iting": 7515, 
  "harder": 7516, 
  "stresses": 7517, 
  "collecting": 7518, 
  "contradiction": 7519, 
  "coating": 7520, 
  "transform": 7521, 
  "ska": 7522, 
  "RSS": 7523, 
  "Slovak": 7524, 
  "turnover": 7525, 
  "12.@@": 7526, 
  "anc@@": 7527, 
  "hat": 7528, 
  "spec@@": 7529, 
  "brutal": 7530, 
  "bookings": 7531, 
  "BR@@": 7532, 
  "festivals": 7533, 
  "yed": 7534, 
  "fitting": 7535, 
  "deliberately": 7536, 
  "preparatory": 7537, 
  "At@@": 7538, 
  "pedestrian": 7539, 
  "ok": 7540, 
  "accompany": 7541, 
  "cream": 7542, 
  "SQL": 7543, 
  "=@@": 7544, 
  "pursuit": 7545, 
  "seed": 7546, 
  "San@@": 7547, 
  "UR@@": 7548, 
  "rear": 7549, 
  "manually": 7550, 
  "Engineering": 7551, 
  "rhetoric": 7552, 
  "conscience": 7553, 
  "blocking": 7554, 
  "ita": 7555, 
  "-T@@": 7556, 
  "purchases": 7557, 
  "or-@@": 7558, 
  "sooner": 7559, 
  "But": 7560, 
  "dly": 7561, 
  "pressures": 7562, 
  "exemption": 7563, 
  "adjacent": 7564, 
  "facilitating": 7565, 
  "Is": 7566, 
  "instances": 7567, 
  "Solidarity": 7568, 
  "positively": 7569, 
  "boom": 7570, 
  "automobile": 7571, 
  "experiment": 7572, 
  "OM@@": 7573, 
  "critics": 7574, 
  "ranks": 7575, 
  "earnings": 7576, 
  "Schulz": 7577, 
  "Fin@@": 7578, 
  "sheep": 7579, 
  "Men@@": 7580, 
  "ron@@": 7581, 
  "zi": 7582, 
  "dossier": 7583, 
  "aff@@": 7584, 
  "Ak@@": 7585, 
  "posting": 7586, 
  "Child": 7587, 
  "Head": 7588, 
  "affair": 7589, 
  "designing": 7590, 
  "disadvantaged": 7591, 
  "2015": 7592, 
  "loads": 7593, 
  "LT": 7594, 
  "coastline": 7595, 
  "Objective": 7596, 
  "tunnel": 7597, 
  "Mur@@": 7598, 
  "eng@@": 7599, 
  "ming": 7600, 
  "zz@@": 7601, 
  "captured": 7602, 
  "Village": 7603, 
  "Guide": 7604, 
  "poses": 7605, 
  "arian": 7606, 
  "treating": 7607, 
  "IL@@": 7608, 
  "spo@@": 7609, 
  "Residence": 7610, 
  "architect": 7611, 
  "viruses": 7612, 
  "diesel": 7613, 
  "10.@@": 7614, 
  "pop": 7615, 
  "Max": 7616, 
  "76": 7617, 
  "SO@@": 7618, 
  "della": 7619, 
  "replacing": 7620, 
  "Arena": 7621, 
  "tender": 7622, 
  "mounting": 7623, 
  "Tr@@": 7624, 
  "FI": 7625, 
  "cri@@": 7626, 
  "elle": 7627, 
  "slide": 7628, 
  "GMOs": 7629, 
  "ears": 7630, 
  "verification": 7631, 
  "commend": 7632, 
  "random": 7633, 
  "toys": 7634, 
  "tackled": 7635, 
  "auch": 7636, 
  "accessed": 7637, 
  "Michel": 7638, 
  "reminded": 7639, 
  "SDL": 7640, 
  "Revolution": 7641, 
  "biotechnology": 7642, 
  "nicht": 7643, 
  "disappeared": 7644, 
  "Ba@@": 7645, 
  "towels": 7646, 
  "dated": 7647, 
  "cultivation": 7648, 
  "detected": 7649, 
  "titles": 7650, 
  "LE": 7651, 
  "billions": 7652, 
  "encountered": 7653, 
  "Mol@@": 7654, 
  "refreshing": 7655, 
  "thick": 7656, 
  "je@@": 7657, 
  "shame": 7658, 
  "Kurdish": 7659, 
  "closest": 7660, 
  "outline": 7661, 
  "Place": 7662, 
  "bikes": 7663, 
  "ace": 7664, 
  "ven": 7665, 
  "socialist": 7666, 
  "elimination": 7667, 
  "Forest": 7668, 
  "stainless": 7669, 
  "Sha@@": 7670, 
  "frankly": 7671, 
  "run@@": 7672, 
  "Bra@@": 7673, 
  "URL": 7674, 
  "screening": 7675, 
  "SK": 7676, 
  "tasty": 7677, 
  "DA": 7678, 
  "ial": 7679, 
  "on-line": 7680, 
  "third-country": 7681, 
  "jet": 7682, 
  "EEC": 7683, 
  "alleged": 7684, 
  "liberty": 7685, 
  "hairdryer": 7686, 
  "segments": 7687, 
  "hosted": 7688, 
  "educated": 7689, 
  "Ha@@": 7690, 
  "Dolomites": 7691, 
  "slight": 7692, 
  "amp@@": 7693, 
  "commodity": 7694, 
  "13th": 7695, 
  "confronted": 7696, 
  "oasis": 7697, 
  "Liberals": 7698, 
  "ables": 7699, 
  "ess@@": 7700, 
  "municipality": 7701, 
  "Language": 7702, 
  "pragmatic": 7703, 
  "grid": 7704, 
  "conc@@": 7705, 
  "180": 7706, 
  "Bro@@": 7707, 
  "wheels": 7708, 
  "ALDE": 7709, 
  "William": 7710, 
  "With": 7711, 
  "wearing": 7712, 
  "PR@@": 7713, 
  "imagination": 7714, 
  "vegetable": 7715, 
  "chart": 7716, 
  "attending": 7717, 
  "dropped": 7718, 
  "accountable": 7719, 
  "parent": 7720, 
  "brilliant": 7721, 
  "tw@@": 7722, 
  "86": 7723, 
  "injection": 7724, 
  "thrown": 7725, 
  "excluding": 7726, 
  "stretch": 7727, 
  "tis": 7728, 
  "bugs": 7729, 
  "shortage": 7730, 
  "magazines": 7731, 
  "nec@@": 7732, 
  "networking": 7733, 
  "fourthly": 7734, 
  "livestock": 7735, 
  "ž@@": 7736, 
  "disadvantage": 7737, 
  "double-@@": 7738, 
  "Verheugen": 7739, 
  "threaten": 7740, 
  "cop@@": 7741, 
  "Canary": 7742, 
  "grain": 7743, 
  "ik": 7744, 
  "deployed": 7745, 
  "plot": 7746, 
  "Reserve": 7747, 
  "OT@@": 7748, 
  "template": 7749, 
  "ited": 7750, 
  "congress": 7751, 
  "bold": 7752, 
  "competitions": 7753, 
  "ier": 7754, 
  "uring": 7755, 
  "backup": 7756, 
  "Round": 7757, 
  "strongest": 7758, 
  "accomplished": 7759, 
  "hospitals": 7760, 
  "real-time": 7761, 
  "hoping": 7762, 
  "Al": 7763, 
  "pan@@": 7764, 
  "swi@@": 7765, 
  "Canadian": 7766, 
  "gaps": 7767, 
  "overseas": 7768, 
  "outer": 7769, 
  "enshrined": 7770, 
  "correspond": 7771, 
  "Radio": 7772, 
  "shipment": 7773, 
  "ALE": 7774, 
  "ther": 7775, 
  "municipal": 7776, 
  "Dry": 7777, 
  "Hussein": 7778, 
  "guiding": 7779, 
  "repercussions": 7780, 
  "Photocopying": 7781, 
  "complied": 7782, 
  "fossil": 7783, 
  "built-in": 7784, 
  "Dr": 7785, 
  "installer": 7786, 
  "HP": 7787, 
  "propaganda": 7788, 
  "drag": 7789, 
  "productions": 7790, 
  "magnetic": 7791, 
  "organizing": 7792, 
  "mothers": 7793, 
  "List": 7794, 
  "hot@@": 7795, 
  "eliminated": 7796, 
  "quantitative": 7797, 
  "emergence": 7798, 
  "factories": 7799, 
  "tank": 7800, 
  "Nature": 7801, 
  "disc": 7802, 
  "pped": 7803, 
  "zes": 7804, 
  "Cohesion": 7805, 
  "ians": 7806, 
  "forever": 7807, 
  "negligence": 7808, 
  "int@@": 7809, 
  "Friendly": 7810, 
  "exc@@": 7811, 
  "resist": 7812, 
  "Palma": 7813, 
  "fastest": 7814, 
  "Climate": 7815, 
  "signatures": 7816, 
  "Account": 7817, 
  "momentum": 7818, 
  "shoulder": 7819, 
  "Athens": 7820, 
  "zoom": 7821, 
  "PM": 7822, 
  "speeds": 7823, 
  "descriptions": 7824, 
  "mini-@@": 7825, 
  "gers": 7826, 
  "tranquil": 7827, 
  "crop": 7828, 
  "Marco": 7829, 
  "regulating": 7830, 
  "ades": 7831, 
  "IBM": 7832, 
  "dealer": 7833, 
  "opt": 7834, 
  "ath@@": 7835, 
  "Sur@@": 7836, 
  "syn@@": 7837, 
  "Mountain": 7838, 
  "vi": 7839, 
  "marble": 7840, 
  "craft": 7841, 
  "shell": 7842, 
  "reward": 7843, 
  "variations": 7844, 
  "aspirations": 7845, 
  "gentle": 7846, 
  "pra@@": 7847, 
  "Börse": 7848, 
  "auction": 7849, 
  "generates": 7850, 
  "barely": 7851, 
  "directors": 7852, 
  "Wil@@": 7853, 
  "liberalization": 7854, 
  "locked": 7855, 
  "bridges": 7856, 
  "th-@@": 7857, 
  "Theatre": 7858, 
  "possession": 7859, 
  "eve": 7860, 
  "jazz": 7861, 
  "Tampere": 7862, 
  "incidentally": 7863, 
  "izing": 7864, 
  "sy@@": 7865, 
  "reveals": 7866, 
  "Fischler": 7867, 
  "prec@@": 7868, 
  "evenings": 7869, 
  "journalist": 7870, 
  "positioned": 7871, 
  "Afghan": 7872, 
  "·": 7873, 
  "stricter": 7874, 
  "Cur@@": 7875, 
  "Char@@": 7876, 
  "intensity": 7877, 
  "Pres@@": 7878, 
  "avi@@": 7879, 
  "6th": 7880, 
  "attracted": 7881, 
  "distances": 7882, 
  "adi@@": 7883, 
  "kl@@": 7884, 
  "van@@": 7885, 
  "micro-@@": 7886, 
  "lian": 7887, 
  "consultants": 7888, 
  "top@@": 7889, 
  "compensate": 7890, 
  "definitive": 7891, 
  "ultra-@@": 7892, 
  "Natural": 7893, 
  "aling": 7894, 
  "establishments": 7895, 
  "updating": 7896, 
  "injury": 7897, 
  "fies": 7898, 
  "1986": 7899, 
  "sons": 7900, 
  "bes": 7901, 
  "AV@@": 7902, 
  "commissioned": 7903, 
  "Zealand": 7904, 
  "birthday": 7905, 
  "courtyard": 7906, 
  "notify": 7907, 
  "licences": 7908, 
  "Division": 7909, 
  "bal@@": 7910, 
  "frames": 7911, 
  "Inc": 7912, 
  "successor": 7913, 
  "displaced": 7914, 
  "pe": 7915, 
  "vulnerability": 7916, 
  "boys": 7917, 
  "gl@@": 7918, 
  "rin@@": 7919, 
  "wor@@": 7920, 
  "donation": 7921, 
  "mo": 7922, 
  "alarming": 7923, 
  "ere": 7924, 
  "tissue": 7925, 
  "broadband": 7926, 
  "incurred": 7927, 
  "conceived": 7928, 
  "historically": 7929, 
  "corresponds": 7930, 
  "10th": 7931, 
  "Mel@@": 7932, 
  "tanks": 7933, 
  "architects": 7934, 
  "arena": 7935, 
  "trace": 7936, 
  "celebration": 7937, 
  "ign@@": 7938, 
  "prevail": 7939, 
  "Nor@@": 7940, 
  "cam@@": 7941, 
  "eness": 7942, 
  "foot@@": 7943, 
  "Dra@@": 7944, 
  "7th": 7945, 
  "Line": 7946, 
  "discounts": 7947, 
  "super": 7948, 
  "Ford": 7949, 
  "Ticket": 7950, 
  "inch": 7951, 
  "boarding": 7952, 
  "tariff": 7953, 
  ".net": 7954, 
  "springs": 7955, 
  "MA": 7956, 
  "recipient": 7957, 
  "smoke": 7958, 
  "tariffs": 7959, 
  "£": 7960, 
  "wholly": 7961, 
  "lend": 7962, 
  "halt": 7963, 
  "PPE": 7964, 
  "our@@": 7965, 
  "77": 7966, 
  "Force": 7967, 
  "diameter": 7968, 
  "dei": 7969, 
  "Airlines": 7970, 
  "ama": 7971, 
  "een": 7972, 
  "financially": 7973, 
  "Bri@@": 7974, 
  "ante": 7975, 
  "í": 7976, 
  "issuing": 7977, 
  "pping": 7978, 
  "ala": 7979, 
  "sich": 7980, 
  "cure": 7981, 
  "Francisco": 7982, 
  "anymore": 7983, 
  "rocks": 7984, 
  "Bas@@": 7985, 
  "somehow": 7986, 
  "sensors": 7987, 
  "Nazi": 7988, 
  "SM@@": 7989, 
  "Wi@@": 7990, 
  "Serbian": 7991, 
  "portable": 7992, 
  "favor": 7993, 
  "experimental": 7994, 
  "ss": 7995, 
  "81": 7996, 
  "Tokyo": 7997, 
  "Tuscany": 7998, 
  "density": 7999, 
  "influences": 8000, 
  "nbsp": 8001, 
  "69": 8002, 
  "Ta@@": 8003, 
  "rehabilitation": 8004, 
  "110": 8005, 
  "advocates": 8006, 
  "anybody": 8007, 
  "Capital": 8008, 
  "capitalist": 8009, 
  "Reform": 8010, 
  "matching": 8011, 
  "Bon@@": 8012, 
  "studios": 8013, 
  "ain@@": 8014, 
  "geared": 8015, 
  "appropriately": 8016, 
  "Railway": 8017, 
  "constituency": 8018, 
  "Porto": 8019, 
  "recreation": 8020, 
  "forbidden": 8021, 
  "archives": 8022, 
  "antique": 8023, 
  "MEP": 8024, 
  "Hor@@": 8025, 
  "sleeping": 8026, 
  "ash@@": 8027, 
  "Change": 8028, 
  "Bavaria": 8029, 
  "decides": 8030, 
  "Now": 8031, 
  "drawings": 8032, 
  "solarium": 8033, 
  "IB@@": 8034, 
  "hygiene": 8035, 
  "halls": 8036, 
  "biofuels": 8037, 
  "Film": 8038, 
  "contamination": 8039, 
  "Hitler": 8040, 
  "Don@@": 8041, 
  "occurring": 8042, 
  "bulk": 8043, 
  "cou@@": 8044, 
  "competing": 8045, 
  "mill": 8046, 
  "symptoms": 8047, 
  "multitude": 8048, 
  "ton@@": 8049, 
  "boy": 8050, 
  "iPod": 8051, 
  "assumption": 8052, 
  "recreational": 8053, 
  "sixth": 8054, 
  "Cleaning": 8055, 
  "ple@@": 8056, 
  "incredibly": 8057, 
  "SC@@": 8058, 
  "ame": 8059, 
  "130": 8060, 
  "1945": 8061, 
  "anger": 8062, 
  "10-@@": 8063, 
  "varies": 8064, 
  "Professional": 8065, 
  "pity": 8066, 
  "singer": 8067, 
  "formulated": 8068, 
  "seas": 8069, 
  "criticisms": 8070, 
  "Pa@@": 8071, 
  "chains": 8072, 
  "Ober@@": 8073, 
  "screens": 8074, 
  "axis": 8075, 
  "tin": 8076, 
  "realities": 8077, 
  "writers": 8078, 
  "beneficiaries": 8079, 
  "clarified": 8080, 
  "substitute": 8081, 
  "varieties": 8082, 
  "heim": 8083, 
  "hard@@": 8084, 
  "w-@@": 8085, 
  "chaos": 8086, 
  "87": 8087, 
  "generic": 8088, 
  "Technologies": 8089, 
  "88": 8090, 
  "rice": 8091, 
  "Santer": 8092, 
  "corrected": 8093, 
  "chan@@": 8094, 
  "ev": 8095, 
  "family-run": 8096, 
  "protein": 8097, 
  "aesthetic": 8098, 
  "motivation": 8099, 
  "3,@@": 8100, 
  "14th": 8101, 
  "Sri": 8102, 
  "remark": 8103, 
  "Russians": 8104, 
  "promotional": 8105, 
  "aria": 8106, 
  "motto": 8107, 
  "91": 8108, 
  "stri@@": 8109, 
  "desert": 8110, 
  "impressed": 8111, 
  "Wellness": 8112, 
  "inn@@": 8113, 
  "pending": 8114, 
  "1987": 8115, 
  "versatile": 8116, 
  "pin": 8117, 
  "accurately": 8118, 
  "feeding": 8119, 
  "defended": 8120, 
  "ethics": 8121, 
  "pesticides": 8122, 
  "specification": 8123, 
  "flora": 8124, 
  "Gr@@": 8125, 
  "personalized": 8126, 
  "mp@@": 8127, 
  "SS@@": 8128, 
  "cy@@": 8129, 
  "Res@@": 8130, 
  "Vol@@": 8131, 
  "bottle": 8132, 
  "promptly": 8133, 
  "bone": 8134, 
  "detriment": 8135, 
  "worthwhile": 8136, 
  "tran@@": 8137, 
  "Gro@@": 8138, 
  "refund": 8139, 
  "trendy": 8140, 
  "midst": 8141, 
  "incoming": 8142, 
  "SE": 8143, 
  "privilege": 8144, 
  "incomplete": 8145, 
  "89": 8146, 
  "1,000": 8147, 
  "burn": 8148, 
  "crash": 8149, 
  "containers": 8150, 
  "len@@": 8151, 
  "Shi@@": 8152, 
  "Gre@@": 8153, 
  "1985": 8154, 
  "seasonal": 8155, 
  "nationalism": 8156, 
  "When": 8157, 
  "german": 8158, 
  "ke@@": 8159, 
  "ns": 8160, 
  "abolished": 8161, 
  "criticised": 8162, 
  "Search": 8163, 
  "Olympus": 8164, 
  "X-@@": 8165, 
  "ung@@": 8166, 
  "establishes": 8167, 
  "fortress": 8168, 
  "frozen": 8169, 
  "fabulous": 8170, 
  "enforced": 8171, 
  "IG@@": 8172, 
  "Cha@@": 8173, 
  "Instruments": 8174, 
  "ment@@": 8175, 
  "uncertain": 8176, 
  "judged": 8177, 
  "Net@@": 8178, 
  "reflecting": 8179, 
  "placement": 8180, 
  "0-@@": 8181, 
  "devastating": 8182, 
  "Times": 8183, 
  "Egyptian": 8184, 
  "folk": 8185, 
  "theater": 8186, 
  "exercises": 8187, 
  "Ref": 8188, 
  "banana": 8189, 
  "restriction": 8190, 
  "lim@@": 8191, 
  "catalog": 8192, 
  "ON@@": 8193, 
  "shut": 8194, 
  "burdens": 8195, 
  "ken": 8196, 
  "resident": 8197, 
  "internally": 8198, 
  "tuna": 8199, 
  "forecasts": 8200, 
  "demonstrating": 8201, 
  "prints": 8202, 
  "subsidiaries": 8203, 
  "fur@@": 8204, 
  "postponed": 8205, 
  "vegetation": 8206, 
  "mankind": 8207, 
  "Sport": 8208, 
  "licensing": 8209, 
  "democratisation": 8210, 
  "failures": 8211, 
  "Taliban": 8212, 
  "destroying": 8213, 
  "awaiting": 8214, 
  "pump": 8215, 
  "exported": 8216, 
  "encryption": 8217, 
  "lying": 8218, 
  "severely": 8219, 
  "steep": 8220, 
  "l-@@": 8221, 
  "phenomena": 8222, 
  "therapeutic": 8223, 
  "Gor@@": 8224, 
  "assuming": 8225, 
  "Point": 8226, 
  "ET": 8227, 
  "Open@@": 8228, 
  "Wal@@": 8229, 
  "phases": 8230, 
  "simulation": 8231, 
  "Cultural": 8232, 
  "radioactive": 8233, 
  "NOT": 8234, 
  "su": 8235, 
  "dish": 8236, 
  "Tarifa": 8237, 
  "monastery": 8238, 
  "9001": 8239, 
  "PS@@": 8240, 
  "chef": 8241, 
  "valued": 8242, 
  "Ka@@": 8243, 
  "emp@@": 8244, 
  "scan": 8245, 
  "ben@@": 8246, 
  "emotions": 8247, 
  "insofar": 8248, 
  "fe@@": 8249, 
  "Istanbul": 8250, 
  "gratitude": 8251, 
  "Düsseldorf": 8252, 
  "ill-@@": 8253, 
  "exceeded": 8254, 
  "applicants": 8255, 
  "Caucasus": 8256, 
  "ster@@": 8257, 
  "buffer": 8258, 
  "med": 8259, 
  "wins": 8260, 
  "Arctic": 8261, 
  "devote": 8262, 
  "additives": 8263, 
  "low@@": 8264, 
  "les@@": 8265, 
  "translators": 8266, 
  "ut": 8267, 
  "teeth": 8268, 
  "shapes": 8269, 
  "Timor": 8270, 
  "precedent": 8271, 
  "passive": 8272, 
  "Age": 8273, 
  "ries": 8274, 
  "Darfur": 8275, 
  "injured": 8276, 
  "linear": 8277, 
  "pot": 8278, 
  "Iceland": 8279, 
  "centr@@": 8280, 
  "possess": 8281, 
  "disp@@": 8282, 
  "acid": 8283, 
  "Monti": 8284, 
  "nowhere": 8285, 
  "simpler": 8286, 
  "enchanting": 8287, 
  "inherent": 8288, 
  "Cu@@": 8289, 
  "ented": 8290, 
  "Intel": 8291, 
  "Tibetan": 8292, 
  "surfing": 8293, 
  "sor@@": 8294, 
  "under-@@": 8295, 
  "RI": 8296, 
  "sudden": 8297, 
  "cian": 8298, 
  "self-employed": 8299, 
  "qui@@": 8300, 
  "optimization": 8301, 
  "nationality": 8302, 
  "breast": 8303, 
  "cup": 8304, 
  "rises": 8305, 
  "vo": 8306, 
  "sustain": 8307, 
  "Children": 8308, 
  "Sarkozy": 8309, 
  "vin@@": 8310, 
  "dying": 8311, 
  "Im@@": 8312, 
  "lar@@": 8313, 
  "A5-0@@": 8314, 
  "tively": 8315, 
  "expects": 8316, 
  "conception": 8317, 
  "photographer": 8318, 
  "seller": 8319, 
  "bond": 8320, 
  "vague": 8321, 
  "transposition": 8322, 
  "Pu@@": 8323, 
  "Solutions": 8324, 
  "Innovation": 8325, 
  "chips": 8326, 
  "rigid": 8327, 
  "appalling": 8328, 
  "Thai": 8329, 
  "harmonise": 8330, 
  "but@@": 8331, 
  "embargo": 8332, 
  "Venezuela": 8333, 
  "Is@@": 8334, 
  "et-@@": 8335, 
  "realization": 8336, 
  "lifetime": 8337, 
  "restoring": 8338, 
  "mature": 8339, 
  "Ap@@": 8340, 
  "purchaser": 8341, 
  "recruitment": 8342, 
  "san@@": 8343, 
  "illegally": 8344, 
  "Mount": 8345, 
  "wer@@": 8346, 
  "Buyer": 8347, 
  "adapting": 8348, 
  "ured": 8349, 
  "dealers": 8350, 
  "recommends": 8351, 
  "ap": 8352, 
  "motor@@": 8353, 
  "minibar": 8354, 
  "Initiative": 8355, 
  "pay@@": 8356, 
  "19@@": 8357, 
  "suspect": 8358, 
  "submitting": 8359, 
  "chronic": 8360, 
  "73": 8361, 
  "irresponsible": 8362, 
  "honor": 8363, 
  "entails": 8364, 
  "Garda": 8365, 
  "Balkan": 8366, 
  "browse": 8367, 
  "ora": 8368, 
  "Banquet": 8369, 
  "wholeheartedly": 8370, 
  "secular": 8371, 
  "gladly": 8372, 
  "ping": 8373, 
  "BO@@": 8374, 
  "high-level": 8375, 
  "gn@@": 8376, 
  "prizes": 8377, 
  "assumes": 8378, 
  "deposits": 8379, 
  "flower": 8380, 
  "donations": 8381, 
  "storm": 8382, 
  "persistent": 8383, 
  "ba@@": 8384, 
  "Bonn": 8385, 
  "violated": 8386, 
  "fabrics": 8387, 
  "ining": 8388, 
  "Del@@": 8389, 
  "licenses": 8390, 
  "ecommerce": 8391, 
  "vor@@": 8392, 
  "Lounge": 8393, 
  "ids": 8394, 
  "submission": 8395, 
  "connects": 8396, 
  "scandal": 8397, 
  "recordings": 8398, 
  "pair": 8399, 
  "colourful": 8400, 
  "aux": 8401, 
  "Exhibition": 8402, 
  "soci@@": 8403, 
  "Panasonic": 8404, 
  "cocktail": 8405, 
  "tends": 8406, 
  "earliest": 8407, 
  "misleading": 8408, 
  "bing": 8409, 
  "i.e": 8410, 
  "acute": 8411, 
  "Scottish": 8412, 
  "Land": 8413, 
  "i-@@": 8414, 
  "tune": 8415, 
  "shores": 8416, 
  "Jan@@": 8417, 
  "Arabia": 8418, 
  "definite": 8419, 
  "Use": 8420, 
  "iers": 8421, 
  "On@@": 8422, 
  "Mari@@": 8423, 
  "ards": 8424, 
  "3.5": 8425, 
  "Holland": 8426, 
  "Airconditioning": 8427, 
  "shaping": 8428, 
  "74": 8429, 
  "Dor@@": 8430, 
  "caution": 8431, 
  "judiciary": 8432, 
  "populated": 8433, 
  "charging": 8434, 
  "sil@@": 8435, 
  "capita": 8436, 
  "Marketing": 8437, 
  "S-@@": 8438, 
  "cease": 8439, 
  "defect": 8440, 
  "foreigners": 8441, 
  "mixing": 8442, 
  "urged": 8443, 
  "Vis@@": 8444, 
  "Brok": 8445, 
  "gourmet": 8446, 
  "mutually": 8447, 
  "linen": 8448, 
  "harsh": 8449, 
  "understands": 8450, 
  "A.": 8451, 
  "lacks": 8452, 
  "Monte": 8453, 
  "sup@@": 8454, 
  "deterioration": 8455, 
  "ome": 8456, 
  "Hi@@": 8457, 
  "sacrifice": 8458, 
  "appearing": 8459, 
  "83": 8460, 
  "four-@@": 8461, 
  "Gift": 8462, 
  "unite": 8463, 
  "API": 8464, 
  "picked": 8465, 
  "Fo@@": 8466, 
  "res": 8467, 
  "ular": 8468, 
  "fulfill": 8469, 
  "Articles": 8470, 
  "expecting": 8471, 
  "backdrop": 8472, 
  "indicating": 8473, 
  "approaching": 8474, 
  "alizing": 8475, 
  "exhibitors": 8476, 
  "lawyer": 8477, 
  "Do": 8478, 
  "Jean": 8479, 
  "participant": 8480, 
  "eggs": 8481, 
  "Madeira": 8482, 
  "passage": 8483, 
  "и": 8484, 
  "GB": 8485, 
  "stimulating": 8486, 
  "civilisation": 8487, 
  "blow": 8488, 
  "Milosevic": 8489, 
  "optimistic": 8490, 
  "ji": 8491, 
  "Relations": 8492, 
  "fa@@": 8493, 
  "rounds": 8494, 
  "administrator": 8495, 
  "bits": 8496, 
  "counting": 8497, 
  "Seville": 8498, 
  "temple": 8499, 
  "peaks": 8500, 
  "pin@@": 8501, 
  "tongue": 8502, 
  "brown": 8503, 
  "hy@@": 8504, 
  "calculations": 8505, 
  "trigger": 8506, 
  "construct": 8507, 
  "beginners": 8508, 
  "fairs": 8509, 
  "24-hour": 8510, 
  "promenade": 8511, 
  "concluding": 8512, 
  "ols": 8513, 
  "GUE": 8514, 
  "Queen": 8515, 
  "etta": 8516, 
  "ques": 8517, 
  "timber": 8518, 
  "fil@@": 8519, 
  "ect": 8520, 
  "reformed": 8521, 
  "hi": 8522, 
  "pet": 8523, 
  "chi@@": 8524, 
  "footing": 8525, 
  "adhere": 8526, 
  "tering": 8527, 
  "Jan": 8528, 
  "jump": 8529, 
  "wide-ranging": 8530, 
  "notable": 8531, 
  "wer": 8532, 
  "accessing": 8533, 
  "disparities": 8534, 
  "encouragement": 8535, 
  "opposing": 8536, 
  "Mar": 8537, 
  "documentary": 8538, 
  "ie@@": 8539, 
  "flood": 8540, 
  "AR": 8541, 
  "Tar@@": 8542, 
  "m-@@": 8543, 
  "seating": 8544, 
  "mile": 8545, 
  "binary": 8546, 
  "cs": 8547, 
  "cking": 8548, 
  "ss@@": 8549, 
  "ll@@": 8550, 
  "emphasises": 8551, 
  "Travel": 8552, 
  "alising": 8553, 
  "ge-@@": 8554, 
  "mut@@": 8555, 
  "solo": 8556, 
  "optimize": 8557, 
  "As@@": 8558, 
  "disappointment": 8559, 
  "sia": 8560, 
  "orange": 8561, 
  "copper": 8562, 
  "animation": 8563, 
  "cat": 8564, 
  "contracting": 8565, 
  "ineffective": 8566, 
  "merit": 8567, 
  "kes": 8568, 
  "confused": 8569, 
  "broke": 8570, 
  "reads": 8571, 
  "distortion": 8572, 
  "seeds": 8573, 
  "somebody": 8574, 
  "2007-2013": 8575, 
  "el-@@": 8576, 
  "Israelis": 8577, 
  "enthusiastic": 8578, 
  ".The": 8579, 
  "black@@": 8580, 
  "ania": 8581, 
  "boutique": 8582, 
  "horny": 8583, 
  "Rhine": 8584, 
  "husband": 8585, 
  "abortion": 8586, 
  "ico": 8587, 
  "off-@@": 8588, 
  "monopolies": 8589, 
  "valleys": 8590, 
  "eta": 8591, 
  "masters": 8592, 
  "chapters": 8593, 
  "Game": 8594, 
  "Sy@@": 8595, 
  "q": 8596, 
  "instruction": 8597, 
  "Hel@@": 8598, 
  "ental": 8599, 
  "80@@": 8600, 
  "lush": 8601, 
  "ham@@": 8602, 
  "extract": 8603, 
  "A.@@": 8604, 
  "Gothic": 8605, 
  "pumps": 8606, 
  "condemnation": 8607, 
  "exert": 8608, 
  "expresses": 8609, 
  "fireplace": 8610, 
  "inserted": 8611, 
  "intuitive": 8612, 
  "Net": 8613, 
  "Class": 8614, 
  "GM": 8615, 
  "enthusiasts": 8616, 
  "ford": 8617, 
  "echo": 8618, 
  "Century": 8619, 
  "tig@@": 8620, 
  "Man": 8621, 
  "altered": 8622, 
  "proprietary": 8623, 
  "alle": 8624, 
  "forcing": 8625, 
  "imm@@": 8626, 
  "p-@@": 8627, 
  "liber@@": 8628, 
  "confront": 8629, 
  "drew": 8630, 
  "playground": 8631, 
  "Resolution": 8632, 
  "disability": 8633, 
  "squ@@": 8634, 
  "comitology": 8635, 
  "28@@": 8636, 
  "bil@@": 8637, 
  "columns": 8638, 
  "ward": 8639, 
  "infected": 8640, 
  "Products": 8641, 
  "childhood": 8642, 
  "PC@@": 8643, 
  "Shanghai": 8644, 
  "scenarios": 8645, 
  "werden": 8646, 
  "sectoral": 8647, 
  "hydraulic": 8648, 
  "blend": 8649, 
  "reproductive": 8650, 
  "confined": 8651, 
  "multilingual": 8652, 
  "first-class": 8653, 
  "assisted": 8654, 
  "9-@@": 8655, 
  "Fl@@": 8656, 
  "tra": 8657, 
  "Prince": 8658, 
  "unclear": 8659, 
  "slave": 8660, 
  "switching": 8661, 
  "Sim@@": 8662, 
  "interpret": 8663, 
  "conversation": 8664, 
  "yacht": 8665, 
  "grass": 8666, 
  "gifts": 8667, 
  "yours": 8668, 
  "PA": 8669, 
  "strip": 8670, 
  "intermediate": 8671, 
  "swe@@": 8672, 
  "scenic": 8673, 
  "T-@@": 8674, 
  "ologists": 8675, 
  "sentences": 8676, 
  "cave": 8677, 
  "Cross": 8678, 
  "deregulation": 8679, 
  "conditioned": 8680, 
  "dam@@": 8681, 
  "positioning": 8682, 
  "draftsman": 8683, 
  "forecast": 8684, 
  "dic@@": 8685, 
  "steady": 8686, 
  "traces": 8687, 
  "infection": 8688, 
  "ú@@": 8689, 
  "moon": 8690, 
  "swift": 8691, 
  "manages": 8692, 
  "deprived": 8693, 
  "Big": 8694, 
  "TO@@": 8695, 
  "differing": 8696, 
  "dan@@": 8697, 
  "ete": 8698, 
  "coupled": 8699, 
  "20-@@": 8700, 
  "Pl@@": 8701, 
  "ft@@": 8702, 
  "straightforward": 8703, 
  "creatures": 8704, 
  "Goals": 8705, 
  "determines": 8706, 
  "Tro@@": 8707, 
  "eleven": 8708, 
  "Gate": 8709, 
  "finger": 8710, 
  "delightful": 8711, 
  "smoothly": 8712, 
  "P-@@": 8713, 
  "comprising": 8714, 
  "Tre@@": 8715, 
  "Ö@@": 8716, 
  "undermining": 8717, 
  "suicide": 8718, 
  "140": 8719, 
  "Prof.": 8720, 
  "wet": 8721, 
  "professionalism": 8722, 
  "weaker": 8723, 
  "alert": 8724, 
  "supplying": 8725, 
  "ero": 8726, 
  "ack": 8727, 
  "cycles": 8728, 
  "pupils": 8729, 
  "ME": 8730, 
  "chi": 8731, 
  "ots": 8732, 
  "pr@@": 8733, 
  "onwards": 8734, 
  "Malaysia": 8735, 
  "sister": 8736, 
  "uphold": 8737, 
  "suspend": 8738, 
  "explanatory": 8739, 
  "Liberties": 8740, 
  "minors": 8741, 
  "exemplary": 8742, 
  "servants": 8743, 
  "attentive": 8744, 
  "rated": 8745, 
  "ase": 8746, 
  "casting": 8747, 
  "proliferation": 8748, 
  "I-@@": 8749, 
  "Fran@@": 8750, 
  "sick": 8751, 
  "seal": 8752, 
  "multiannual": 8753, 
  "no-@@": 8754, 
  "methodology": 8755, 
  "hol@@": 8756, 
  "bei": 8757, 
  "icons": 8758, 
  "flags": 8759, 
  "coloured": 8760, 
  "Ca@@": 8761, 
  "DS": 8762, 
  "predecessor": 8763, 
  "unexpected": 8764, 
  "pour": 8765, 
  "Post": 8766, 
  "ert": 8767, 
  "tastes": 8768, 
  "cont@@": 8769, 
  "xenophobia": 8770, 
  "own-initiative": 8771, 
  "nets": 8772, 
  "hitherto": 8773, 
  "bets": 8774, 
  "1979": 8775, 
  "college": 8776, 
  "far@@": 8777, 
  "swim": 8778, 
  "dynamics": 8779, 
  "friendship": 8780, 
  "Hans": 8781, 
  "interfere": 8782, 
  "circles": 8783, 
  "Far@@": 8784, 
  "salaries": 8785, 
  "ute": 8786, 
  "ally-@@": 8787, 
  "vic@@": 8788, 
  "tion-@@": 8789, 
  "Source": 8790, 
  "lengthy": 8791, 
  "laundry": 8792, 
  "Bed": 8793, 
  "Smith": 8794, 
  "ett@@": 8795, 
  "Mary": 8796, 
  "Ol@@": 8797, 
  "peninsula": 8798, 
  "deb@@": 8799, 
  "moratorium": 8800, 
  "Na@@": 8801, 
  "the-@@": 8802, 
  "idyllic": 8803, 
  "las@@": 8804, 
  "usable": 8805, 
  "alistic": 8806, 
  "delight": 8807, 
  "third-party": 8808, 
  "likes": 8809, 
  "play@@": 8810, 
  "memorable": 8811, 
  "offences": 8812, 
  "terrain": 8813, 
  "petition": 8814, 
  "norms": 8815, 
  "dependency": 8816, 
  "administrations": 8817, 
  "magical": 8818, 
  "mentioning": 8819, 
  "max": 8820, 
  "minim@@": 8821, 
  "S.@@": 8822, 
  "Press": 8823, 
  "Ci@@": 8824, 
  "Palacio": 8825, 
  "L&apos;@@": 8826, 
  "sciences": 8827, 
  "Nord": 8828, 
  "trucks": 8829, 
  "snow@@": 8830, 
  "ill@@": 8831, 
  "plastics": 8832, 
  "Cuban": 8833, 
  "Renaissance": 8834, 
  "demo": 8835, 
  "thread": 8836, 
  "investigated": 8837, 
  "stein": 8838, 
  "cross-country": 8839, 
  "learnt": 8840, 
  "consciousness": 8841, 
  "ulation": 8842, 
  "hereby": 8843, 
  "net@@": 8844, 
  "consultancy": 8845, 
  "Anonymous": 8846, 
  "sem@@": 8847, 
  "resume": 8848, 
  "Comp@@": 8849, 
  "obligatory": 8850, 
  "ams": 8851, 
  "tie": 8852, 
  "tiles": 8853, 
  "bers": 8854, 
  "Dec@@": 8855, 
  "Land@@": 8856, 
  "celebrations": 8857, 
  "archaeological": 8858, 
  "surveys": 8859, 
  "filed": 8860, 
  "weaken": 8861, 
  "Baroness": 8862, 
  "inability": 8863, 
  "merits": 8864, 
  "queries": 8865, 
  "patented": 8866, 
  "simplifying": 8867, 
  "supposedly": 8868, 
  "tered": 8869, 
  "oils": 8870, 
  "threatens": 8871, 
  "indicator": 8872, 
  "ère": 8873, 
  "Fu@@": 8874, 
  "composer": 8875, 
  "claiming": 8876, 
  "ght": 8877, 
  "dozens": 8878, 
  "Supreme": 8879, 
  "See": 8880, 
  "prostitution": 8881, 
  "synthetic": 8882, 
  "dare": 8883, 
  "60@@": 8884, 
  "abolish": 8885, 
  "neur@@": 8886, 
  "qualitative": 8887, 
  "pas@@": 8888, 
  "facto": 8889, 
  "Ur@@": 8890, 
  "copying": 8891, 
  "ony": 8892, 
  "day-to-day": 8893, 
  "ung": 8894, 
  "Championship": 8895, 
  "alia": 8896, 
  "ography": 8897, 
  "regulators": 8898, 
  "by-@@": 8899, 
  "ion@@": 8900, 
  "79": 8901, 
  "ax@@": 8902, 
  "graphy": 8903, 
  "ç@@": 8904, 
  "Cubase": 8905, 
  "touched": 8906, 
  "s": 8907, 
  "ela": 8908, 
  "ñ@@": 8909, 
  "Decision": 8910, 
  "edges": 8911, 
  "Naples": 8912, 
  "cooperating": 8913, 
  "hyper@@": 8914, 
  "Super@@": 8915, 
  "disappointing": 8916, 
  "requesting": 8917, 
  "remit": 8918, 
  "recital": 8919, 
  "pressed": 8920, 
  "jury": 8921, 
  "murdered": 8922, 
  "authoritarian": 8923, 
  "GBP": 8924, 
  "CS@@": 8925, 
  "Ironing": 8926, 
  "conditional": 8927, 
  "letting": 8928, 
  "Jacques": 8929, 
  "Jordan": 8930, 
  "contradictory": 8931, 
  "monument": 8932, 
  "renovation": 8933, 
  "fashionable": 8934, 
  "manipulation": 8935, 
  "fauna": 8936, 
  "coup": 8937, 
  "policymakers": 8938, 
  "red@@": 8939, 
  "Check-In": 8940, 
  "rejecting": 8941, 
  "fleets": 8942, 
  "truck": 8943, 
  "engineer": 8944, 
  "refusing": 8945, 
  "EP@@": 8946, 
  "Check-Out": 8947, 
  "Brazilian": 8948, 
  "oven": 8949, 
  "subsidy": 8950, 
  "swiftly": 8951, 
  "cosmetic": 8952, 
  "accelerate": 8953, 
  "gi": 8954, 
  "virtue": 8955, 
  "console": 8956, 
  "ratings": 8957, 
  "360": 8958, 
  "royal": 8959, 
  "LA": 8960, 
  "shoe": 8961, 
  "undermined": 8962, 
  "petrol": 8963, 
  "Universal": 8964, 
  "cellar": 8965, 
  "longest": 8966, 
  "proc@@": 8967, 
  "cloning": 8968, 
  "ishes": 8969, 
  "sion@@": 8970, 
  "fridge": 8971, 
  "MA@@": 8972, 
  "Mont@@": 8973, 
  "transferring": 8974, 
  "Kor@@": 8975, 
  "continents": 8976, 
  "sta": 8977, 
  "ali": 8978, 
  "Air@@": 8979, 
  "awaits": 8980, 
  "influential": 8981, 
  "Met@@": 8982, 
  "qualify": 8983, 
  "arch@@": 8984, 
  "ys@@": 8985, 
  "tag": 8986, 
  "attributes": 8987, 
  "investor": 8988, 
  "spac@@": 8989, 
  "UT@@": 8990, 
  "dat@@": 8991, 
  "cy": 8992, 
  "His": 8993, 
  "Access": 8994, 
  "banning": 8995, 
  "Hill": 8996, 
  "Harbour": 8997, 
  "CFSP": 8998, 
  "Fre@@": 8999, 
  "Summer": 9000, 
  "strengths": 9001, 
  "realisation": 9002, 
  "highlighting": 9003, 
  "recognising": 9004, 
  "Currency": 9005, 
  "1970s": 9006, 
  "Slovenian": 9007, 
  "CL@@": 9008, 
  "mes@@": 9009, 
  "Directors": 9010, 
  "volunteers": 9011, 
  "mid-term": 9012, 
  "tournaments": 9013, 
  "At": 9014, 
  "pets": 9015, 
  "grows": 9016, 
  "ranking": 9017, 
  "Daniel": 9018, 
  "kingdom": 9019, 
  "ading": 9020, 
  "Europa": 9021, 
  "corrupt": 9022, 
  "high-tech": 9023, 
  "informations": 9024, 
  "admittedly": 9025, 
  "parish": 9026, 
  "brochure": 9027, 
  "PL@@": 9028, 
  "destructive": 9029, 
  "electorate": 9030, 
  "IR@@": 9031, 
  "arisen": 9032, 
  "84": 9033, 
  "slot": 9034, 
  "ch-@@": 9035, 
  "wal@@": 9036, 
  "priced": 9037, 
  "Update": 9038, 
  "Tom@@": 9039, 
  "CD@@": 9040, 
  "appealing": 9041, 
  "1984": 9042, 
  "zur": 9043, 
  "wind@@": 9044, 
  "rentals": 9045, 
  "locals": 9046, 
  "redundant": 9047, 
  "refuge": 9048, 
  "desires": 9049, 
  "nominated": 9050, 
  "institutes": 9051, 
  "traders": 9052, 
  "HR": 9053, 
  "tired": 9054, 
  "protocols": 9055, 
  "gates": 9056, 
  "NGL": 9057, 
  "bananas": 9058, 
  "render": 9059, 
  "Democrat": 9060, 
  "bomb": 9061, 
  "eth": 9062, 
  "traceability": 9063, 
  "tech": 9064, 
  "fairness": 9065, 
  "è": 9066, 
  "onia": 9067, 
  "prejudice": 9068, 
  "calculate": 9069, 
  "dor@@": 9070, 
  "From": 9071, 
  "loyalty": 9072, 
  "G20": 9073, 
  "Euro-@@": 9074, 
  "OL@@": 9075, 
  "LateRooms.com": 9076, 
  "11@@": 9077, 
  "iti@@": 9078, 
  "10,000": 9079, 
  "tica": 9080, 
  "ities": 9081, 
  "encrypted": 9082, 
  "junior": 9083, 
  "reforming": 9084, 
  "ili@@": 9085, 
  "air-conditioning": 9086, 
  "inventory": 9087, 
  "powder": 9088, 
  "cho@@": 9089, 
  "high-performance": 9090, 
  "incompatible": 9091, 
  "natur@@": 9092, 
  "12th": 9093, 
  "fifty": 9094, 
  "emails": 9095, 
  "strasse": 9096, 
  "loud": 9097, 
  "harmonization": 9098, 
  "power@@": 9099, 
  "ation-@@": 9100, 
  "incorporating": 9101, 
  "stipulated": 9102, 
  "invented": 9103, 
  "towers": 9104, 
  "Euros": 9105, 
  "breakthrough": 9106, 
  "yea": 9107, 
  "earmarked": 9108, 
  "fer": 9109, 
  "exercised": 9110, 
  "gel@@": 9111, 
  "Pet@@": 9112, 
  "biking": 9113, 
  "VI@@": 9114, 
  "prevailing": 9115, 
  "absent": 9116, 
  "winds": 9117, 
  "ly-@@": 9118, 
  "ici@@": 9119, 
  "hybrid": 9120, 
  "successive": 9121, 
  "carriage": 9122, 
  "owe": 9123, 
  "pul@@": 9124, 
  "ceilings": 9125, 
  "het": 9126, 
  "aus@@": 9127, 
  "anonymous": 9128, 
  "climb": 9129, 
  "offensive": 9130, 
  "1.2": 9131, 
  "high@@": 9132, 
  "combinations": 9133, 
  "Basque": 9134, 
  "Word": 9135, 
  "discovering": 9136, 
  "tones": 9137, 
  "Eurostat": 9138, 
  "End": 9139, 
  "Metro": 9140, 
  "Sel@@": 9141, 
  "Fer@@": 9142, 
  "completeness": 9143, 
  "asi@@": 9144, 
  "beverages": 9145, 
  "fold": 9146, 
  "plug": 9147, 
  "AKVIS": 9148, 
  "DO@@": 9149, 
  "remembered": 9150, 
  "stopping": 9151, 
  "depression": 9152, 
  "Version": 9153, 
  "Sir": 9154, 
  "risen": 9155, 
  "EF@@": 9156, 
  "cozy": 9157, 
  "Verts": 9158, 
  "frontier": 9159, 
  "EU@@": 9160, 
  "odds": 9161, 
  "Cre@@": 9162, 
  "copied": 9163, 
  "yl@@": 9164, 
  "insecurity": 9165, 
  "Kinnock": 9166, 
  "F-@@": 9167, 
  "mediation": 9168, 
  "sit@@": 9169, 
  "Clinton": 9170, 
  "massages": 9171, 
  "149": 9172, 
  "templates": 9173, 
  "commodities": 9174, 
  "parliamentarians": 9175, 
  "prosperous": 9176, 
  "ey@@": 9177, 
  "ín": 9178, 
  "empire": 9179, 
  "eco-@@": 9180, 
  "politician": 9181, 
  "Te@@": 9182, 
  "happiness": 9183, 
  "grapes": 9184, 
  "expressions": 9185, 
  "alo@@": 9186, 
  "corrections": 9187, 
  "lucky": 9188, 
  "vac@@": 9189, 
  "ae": 9190, 
  "W.": 9191, 
  "harmonious": 9192, 
  "Ven@@": 9193, 
  "Lanzarote": 9194, 
  "entirety": 9195, 
  "pen": 9196, 
  "castles": 9197, 
  "retreat": 9198, 
  "Antonio": 9199, 
  "realm": 9200, 
  "pic@@": 9201, 
  "cli@@": 9202, 
  "C.": 9203, 
  "в@@": 9204, 
  "Mexican": 9205, 
  "Spirit": 9206, 
  "Medical": 9207, 
  "relatives": 9208, 
  "lifted": 9209, 
  "salary": 9210, 
  "Picard": 9211, 
  "extensions": 9212, 
  "benefited": 9213, 
  "camp@@": 9214, 
  "singing": 9215, 
  "pixels": 9216, 
  "pluralism": 9217, 
  "cel@@": 9218, 
  "premature": 9219, 
  "ances": 9220, 
  "dress": 9221, 
  "Test": 9222, 
  "tap": 9223, 
  "leverage": 9224, 
  "DNA": 9225, 
  "domains": 9226, 
  "catastrophe": 9227, 
  "outlook": 9228, 
  "brothers": 9229, 
  "fathers": 9230, 
  "Mugabe": 9231, 
  "multinationals": 9232, 
  "Sun@@": 9233, 
  "ih@@": 9234, 
  "bon@@": 9235, 
  "Of": 9236, 
  "warn": 9237, 
  "laptop": 9238, 
  "pipe": 9239, 
  "dedication": 9240, 
  "exceeds": 9241, 
  "showers": 9242, 
  "smo@@": 9243, 
  "agreeing": 9244, 
  "ny": 9245, 
  "recourse": 9246, 
  "writes": 9247, 
  "associate": 9248, 
  "Bl@@": 9249, 
  "champion": 9250, 
  "suspicion": 9251, 
  "anda": 9252, 
  "unchanged": 9253, 
  "ined": 9254, 
  "File": 9255, 
  "seasons": 9256, 
  "Bill": 9257, 
  "mortality": 9258, 
  "deliberate": 9259, 
  "veto": 9260, 
  "Lat@@": 9261, 
  "patience": 9262, 
  "preview": 9263, 
  "sail": 9264, 
  "steadily": 9265, 
  "evaluating": 9266, 
  "cocktails": 9267, 
  "govern": 9268, 
  "mercury": 9269, 
  "1960": 9270, 
  "buyers": 9271, 
  "employer": 9272, 
  "surprisingly": 9273, 
  "suspected": 9274, 
  "shipped": 9275, 
  "logos": 9276, 
  "Cambodia": 9277, 
  "packing": 9278, 
  "1978": 9279, 
  "Santiago": 9280, 
  "slope": 9281, 
  "lamps": 9282, 
  "ball@@": 9283, 
  "cked": 9284, 
  "underway": 9285, 
  "Top": 9286, 
  "ker@@": 9287, 
  "criticise": 9288, 
  "coin": 9289, 
  "collectively": 9290, 
  "legend": 9291, 
  "3.0": 9292, 
  "cost-effective": 9293, 
  "illa": 9294, 
  "volcanic": 9295, 
  "sentenced": 9296, 
  "hang": 9297, 
  "interoperability": 9298, 
  "hatred": 9299, 
  "stock@@": 9300, 
  "fruitful": 9301, 
  "explaining": 9302, 
  "distortions": 9303, 
  "shoot": 9304, 
  "backs": 9305, 
  "readily": 9306, 
  "ize": 9307, 
  "courageous": 9308, 
  "GT@@": 9309, 
  "Orchestra": 9310, 
  "1967": 9311, 
  "Han@@": 9312, 
  "Fri@@": 9313, 
  "rou@@": 9314, 
  "privatisation": 9315, 
  "attributed": 9316, 
  "compression": 9317, 
  "eu": 9318, 
  "Father": 9319, 
  "proactive": 9320, 
  "PP@@": 9321, 
  "pled": 9322, 
  "einer": 9323, 
  "tolerate": 9324, 
  "curious": 9325, 
  "SMS": 9326, 
  "ca@@": 9327, 
  "Mis@@": 9328, 
  "mentions": 9329, 
  "hard-@@": 9330, 
  "welding": 9331, 
  "José": 9332, 
  "insisted": 9333, 
  "snack": 9334, 
  "sind": 9335, 
  "BA": 9336, 
  "performs": 9337, 
  "brush": 9338, 
  "weakened": 9339, 
  "eck": 9340, 
  "ph": 9341, 
  "Work": 9342, 
  "advocated": 9343, 
  "imply": 9344, 
  "yo@@": 9345, 
  "durable": 9346, 
  "Alpha": 9347, 
  "After": 9348, 
  "coat": 9349, 
  "aire": 9350, 
  "tiv@@": 9351, 
  "organisational": 9352, 
  ".ch": 9353, 
  "Neighbourhood": 9354, 
  "ente": 9355, 
  "Plan@@": 9356, 
  "mobilisation": 9357, 
  "shed": 9358, 
  "travelers": 9359, 
  "assembled": 9360, 
  "FAQ": 9361, 
  "postpone": 9362, 
  "AF@@": 9363, 
  "ced": 9364, 
  "Ibiza": 9365, 
  "yard": 9366, 
  "enjoyment": 9367, 
  "Karl": 9368, 
  "Globalisation": 9369, 
  "mask": 9370, 
  "ville": 9371, 
  "cookie": 9372, 
  "specialties": 9373, 
  "excessively": 9374, 
  "Albanian": 9375, 
  "4,@@": 9376, 
  "sy": 9377, 
  "refrain": 9378, 
  "breaches": 9379, 
  "din@@": 9380, 
  "substantive": 9381, 
  "450": 9382, 
  "exhaust": 9383, 
  "alis@@": 9384, 
  "imprisoned": 9385, 
  "ue": 9386, 
  "religions": 9387, 
  "constituents": 9388, 
  "triggered": 9389, 
  "Chair": 9390, 
  "vor": 9391, 
  "reunification": 9392, 
  "na@@": 9393, 
  "Apache": 9394, 
  "Bavarian": 9395, 
  "exporting": 9396, 
  "behave": 9397, 
  "publicity": 9398, 
  "Cape": 9399, 
  "Jackson": 9400, 
  "Power@@": 9401, 
  "tre": 9402, 
  "prosecution": 9403, 
  "initi@@": 9404, 
  "ez": 9405, 
  "pa": 9406, 
  "ile": 9407, 
  "elled": 9408, 
  "compressed": 9409, 
  "Lido": 9410, 
  "counter-@@": 9411, 
  "sible": 9412, 
  "assign": 9413, 
  "Pe@@": 9414, 
  "neglected": 9415, 
  "dos": 9416, 
  "opponent": 9417, 
  "ó": 9418, 
  "Ski": 9419, 
  "illustrate": 9420, 
  "D-@@": 9421, 
  "Eurex": 9422, 
  "Oslo": 9423, 
  "neck": 9424, 
  "informing": 9425, 
  "brake": 9426, 
  "Australian": 9427, 
  "sound@@": 9428, 
  "kindly": 9429, 
  "CE@@": 9430, 
  "honey": 9431, 
  "receiver": 9432, 
  "Multi@@": 9433, 
  "zu@@": 9434, 
  "warned": 9435, 
  "strengthens": 9436, 
  "wn@@": 9437, 
  "correctness": 9438, 
  "lectures": 9439, 
  "elect": 9440, 
  "objection": 9441, 
  "nutrition": 9442, 
  "Commerce": 9443, 
  "kitchenette": 9444, 
  "employs": 9445, 
  "petitions": 9446, 
  "rever@@": 9447, 
  "athletes": 9448, 
  "corners": 9449, 
  "Fed": 9450, 
  "loose": 9451, 
  "art@@": 9452, 
  "ges@@": 9453, 
  "clean@@": 9454, 
  "drama": 9455, 
  "neighbour": 9456, 
  "egg": 9457, 
  "underlined": 9458, 
  "Voyager": 9459, 
  "д@@": 9460, 
  "LAN": 9461, 
  "interviews": 9462, 
  "toll": 9463, 
  "inspectors": 9464, 
  "Ni@@": 9465, 
  "Rock": 9466, 
  "Anna": 9467, 
  "bles": 9468, 
  "com": 9469, 
  "professions": 9470, 
  "dorf": 9471, 
  "Cer@@": 9472, 
  "dryer": 9473, 
  "beliefs": 9474, 
  "ao": 9475, 
  "triple": 9476, 
  "ark@@": 9477, 
  "tal@@": 9478, 
  "retro@@": 9479, 
  "sto@@": 9480, 
  "immune": 9481, 
  "bling": 9482, 
  "predict": 9483, 
  "ain": 9484, 
  "world-wide": 9485, 
  "Em@@": 9486, 
  "unification": 9487, 
  "Pr@@": 9488, 
  "outcomes": 9489, 
  "Light": 9490, 
  "forefront": 9491, 
  "aya": 9492, 
  "accesses": 9493, 
  "ligh@@": 9494, 
  "lio": 9495, 
  "poorly": 9496, 
  "terminals": 9497, 
  "margins": 9498, 
  "unwind": 9499, 
  "simultaneous": 9500, 
  "cluster": 9501, 
  "attendance": 9502, 
  "thematic": 9503, 
  "wealthy": 9504, 
  "mas": 9505, 
  "ex-@@": 9506, 
  "Anti@@": 9507, 
  "ceramic": 9508, 
  "detrimental": 9509, 
  "hath": 9510, 
  "bis": 9511, 
  "s.com": 9512, 
  "sharply": 9513, 
  "Frontex": 9514, 
  "holy": 9515, 
  "ö@@": 9516, 
  "juice": 9517, 
  "malaria": 9518, 
  "án": 9519, 
  "uni@@": 9520, 
  "Future": 9521, 
  "bass": 9522, 
  "drastic": 9523, 
  "9th": 9524, 
  "Gen@@": 9525, 
  "simplicity": 9526, 
  "intern@@": 9527, 
  "restricting": 9528, 
  "outbreak": 9529, 
  "entail": 9530, 
  "g-@@": 9531, 
  "glance": 9532, 
  "occupational": 9533, 
  "engaging": 9534, 
  "Pat@@": 9535, 
  "assortment": 9536, 
  "warmth": 9537, 
  "disturbing": 9538, 
  "quo": 9539, 
  "Guinea": 9540, 
  "contaminated": 9541, 
  "reconcile": 9542, 
  "profitability": 9543, 
  "adjustable": 9544, 
  "injuries": 9545, 
  "Contact": 9546, 
  "reinforcing": 9547, 
  "Des@@": 9548, 
  "optimism": 9549, 
  "oni@@": 9550, 
  "advisable": 9551, 
  "fixes": 9552, 
  "gener@@": 9553, 
  "hub": 9554, 
  "disorders": 9555, 
  "rebuild": 9556, 
  "nach": 9557, 
  "judgement": 9558, 
  "cautious": 9559, 
  "ening": 9560, 
  "å@@": 9561, 
  "sunshine": 9562, 
  "CO": 9563, 
  "Micro@@": 9564, 
  "abstract": 9565, 
  "betting": 9566, 
  "Kur@@": 9567, 
  "upgrading": 9568, 
  "Working": 9569, 
  "celebrating": 9570, 
  "enti@@": 9571, 
  "-free": 9572, 
  "Sales": 9573, 
  "mal": 9574, 
  "iness": 9575, 
  "Ram@@": 9576, 
  "traveling": 9577, 
  "slaughter": 9578, 
  "focal": 9579, 
  "5,@@": 9580, 
  "ILO": 9581, 
  "ong@@": 9582, 
  "stabilisation": 9583, 
  "Ki@@": 9584, 
  "milestone": 9585, 
  "Andreas": 9586, 
  "Ban@@": 9587, 
  "ř@@": 9588, 
  "regrettably": 9589, 
  "Victoria": 9590, 
  "analyze": 9591, 
  "sacred": 9592, 
  "neo-@@": 9593, 
  "photographers": 9594, 
  "café": 9595, 
  "tastefully": 9596, 
  "judgments": 9597, 
  "diversification": 9598, 
  "8th": 9599, 
  "tasting": 9600, 
  "warnings": 9601, 
  "thrust": 9602, 
  "sponsored": 9603, 
  "inquiries": 9604, 
  "recipes": 9605, 
  "Da@@": 9606, 
  "laundering": 9607, 
  "CF@@": 9608, 
  "derivatives": 9609, 
  "EG@@": 9610, 
  "hoc": 9611, 
  "ros": 9612, 
  "CAD": 9613, 
  "Pope": 9614, 
  "weekends": 9615, 
  "senses": 9616, 
  "haus": 9617, 
  "itt@@": 9618, 
  "Cambridge": 9619, 
  "ulate": 9620, 
  "dru@@": 9621, 
  "photographic": 9622, 
  "cle@@": 9623, 
  "Venetian": 9624, 
  "county": 9625, 
  "ight": 9626, 
  "let@@": 9627, 
  "11th": 9628, 
  "monitors": 9629, 
  "lit": 9630, 
  "frontiers": 9631, 
  "invention": 9632, 
  "G8": 9633, 
  "radically": 9634, 
  "Emperor": 9635, 
  "crimin@@": 9636, 
  "Jacuzzi": 9637, 
  "1960s": 9638, 
  "tv": 9639, 
  "Cala": 9640, 
  "Leonardo": 9641, 
  "RAM": 9642, 
  "aids": 9643, 
  "rests": 9644, 
  "Kol@@": 9645, 
  "occupying": 9646, 
  "lit@@": 9647, 
  "Pas@@": 9648, 
  "dancing": 9649, 
  "abide": 9650, 
  "adidas": 9651, 
  "Level": 9652, 
  "editorial": 9653, 
  "disadvantages": 9654, 
  "Trans@@": 9655, 
  "remuneration": 9656, 
  "unc@@": 9657, 
  "set@@": 9658, 
  "ail@@": 9659, 
  "spatial": 9660, 
  "Ren@@": 9661, 
  "eth@@": 9662, 
  "sham@@": 9663, 
  "conformity": 9664, 
  "millennium": 9665, 
  "embrace": 9666, 
  "bin@@": 9667, 
  "ax": 9668, 
  "housed": 9669, 
  "long-standing": 9670, 
  "mid": 9671, 
  "steering": 9672, 
  "ologist": 9673, 
  "disarmament": 9674, 
  "physics": 9675, 
  "Klingon": 9676, 
  "extraction": 9677, 
  "mid@@": 9678, 
  "LED": 9679, 
  "Peru": 9680, 
  "pop@@": 9681, 
  "upgraded": 9682, 
  "Sec@@": 9683, 
  "pocket": 9684, 
  "Rem@@": 9685, 
  "analysed": 9686, 
  "professor": 9687, 
  "olo": 9688, 
  "1982": 9689, 
  "1975": 9690, 
  "interiors": 9691, 
  "geographic": 9692, 
  "anticipate": 9693, 
  "ki@@": 9694, 
  "Tuscan": 9695, 
  "clearing": 9696, 
  "punished": 9697, 
  "ately": 9698, 
  "eting": 9699, 
  "basin": 9700, 
  "Les": 9701, 
  "venues": 9702, 
  "abstain": 9703, 
  "Tel": 9704, 
  "Ag@@": 9705, 
  "horizon": 9706, 
  "transmit": 9707, 
  "Pra@@": 9708, 
  "unsatisfactory": 9709, 
  "exercising": 9710, 
  "handy": 9711, 
  "habits": 9712, 
  "allocate": 9713, 
  "Kenya": 9714, 
  "Bus": 9715, 
  "retailers": 9716, 
  "yst@@": 9717, 
  "dismantling": 9718, 
  "font": 9719, 
  "challenged": 9720, 
  "nit@@": 9721, 
  "ula": 9722, 
  "balconies": 9723, 
  "assisting": 9724, 
  "Pin@@": 9725, 
  "ney": 9726, 
  "prisons": 9727, 
  "GA": 9728, 
  "pro": 9729, 
  "Upper": 9730, 
  "SL": 9731, 
  "observer": 9732, 
  "ious": 9733, 
  "hypocrisy": 9734, 
  "ath": 9735, 
  "5,000": 9736, 
  "auto": 9737, 
  "Before": 9738, 
  "vaccination": 9739, 
  "DIN": 9740, 
  "wellbeing": 9741, 
  "struggling": 9742, 
  "Medi@@": 9743, 
  "-in-@@": 9744, 
  "striving": 9745, 
  "beam": 9746, 
  "infringements": 9747, 
  "touches": 9748, 
  "worries": 9749, 
  "Chicago": 9750, 
  "illustrated": 9751, 
  "duplication": 9752, 
  "partitions": 9753, 
  "Environmental": 9754, 
  "evolved": 9755, 
  "suggesting": 9756, 
  "tubes": 9757, 
  "precondition": 9758, 
  "Cube": 9759, 
  "Rom@@": 9760, 
  "thesis": 9761, 
  "breakdown": 9762, 
  "scanner": 9763, 
  "reminds": 9764, 
  "marvellous": 9765, 
  "ral": 9766, 
  "communicated": 9767, 
  "proving": 9768, 
  "sat": 9769, 
  "locate": 9770, 
  "compile": 9771, 
  "new@@": 9772, 
  "wards": 9773, 
  "Op@@": 9774, 
  "Sky": 9775, 
  "î@@": 9776, 
  "aforementioned": 9777, 
  "cap": 9778, 
  "Sciences": 9779, 
  "overlook": 9780, 
  "EV@@": 9781, 
  "crowd": 9782, 
  "advertisements": 9783, 
  "Frattini": 9784, 
  "Good": 9785, 
  "spheres": 9786, 
  "printers": 9787, 
  "cafes": 9788, 
  "trillion": 9789, 
  "confrontation": 9790, 
  "elli": 9791, 
  "Premium": 9792, 
  "FREE": 9793, 
  "aded": 9794, 
  "prof@@": 9795, 
  "ě@@": 9796, 
  "eds": 9797, 
  "ve-@@": 9798, 
  "offence": 9799, 
  "Tor": 9800, 
  "laboratories": 9801, 
  "thickness": 9802, 
  "benefiting": 9803, 
  "deepening": 9804, 
  "Machine": 9805, 
  "REACH": 9806, 
  "seriousness": 9807, 
  "auc@@": 9808, 
  "approving": 9809, 
  "ishing": 9810, 
  "Angeles": 9811, 
  "Cro@@": 9812, 
  "Customs": 9813, 
  "counterparts": 9814, 
  "Wales": 9815, 
  "grip": 9816, 
  "brochures": 9817, 
  "saves": 9818, 
  "intolerable": 9819, 
  "impacts": 9820, 
  "e-": 9821, 
  "ous@@": 9822, 
  "mol@@": 9823, 
  "passwords": 9824, 
  "100@@": 9825, 
  "cake": 9826, 
  "derogation": 9827, 
  "pipes": 9828, 
  "Tools": 9829, 
  "assignment": 9830, 
  "EA": 9831, 
  "tz": 9832, 
  "HD@@": 9833, 
  "Police": 9834, 
  "Buenos": 9835, 
  "at-@@": 9836, 
  "cache": 9837, 
  "An": 9838, 
  "ministerial": 9839, 
  "ura": 9840, 
  "desperate": 9841, 
  "ech": 9842, 
  "Small": 9843, 
  "disproportionate": 9844, 
  "DG": 9845, 
  "spirits": 9846, 
  "complain": 9847, 
  "plug-in": 9848, 
  "governmental": 9849, 
  "promotions": 9850, 
  "machining": 9851, 
  "fast@@": 9852, 
  "publisher": 9853, 
  "SS": 9854, 
  "VI": 9855, 
  "incapable": 9856, 
  "literary": 9857, 
  "decor": 9858, 
  "particles": 9859, 
  "well-equipped": 9860, 
  "gesture": 9861, 
  "Ps": 9862, 
  "counted": 9863, 
  "precarious": 9864, 
  "Consulting": 9865, 
  "revise": 9866, 
  "dirty": 9867, 
  "selective": 9868, 
  "zum": 9869, 
  "targeting": 9870, 
  "That": 9871, 
  "gli@@": 9872, 
  "arose": 9873, 
  "DA@@": 9874, 
  "fro@@": 9875, 
  "phot@@": 9876, 
  "ine@@": 9877, 
  "helicopter": 9878, 
  "ning": 9879, 
  "PD@@": 9880, 
  "Ecofin": 9881, 
  "intervals": 9882, 
  "atively": 9883, 
  "path@@": 9884, 
  "describing": 9885, 
  "presses": 9886, 
  "Chernobyl": 9887, 
  "insulation": 9888, 
  "excursion": 9889, 
  "activation": 9890, 
  "trusted": 9891, 
  "heaven": 9892, 
  "Temple": 9893, 
  "palm": 9894, 
  "feeds": 9895, 
  "tile": 9896, 
  "oll@@": 9897, 
  "Majorca": 9898, 
  "rough": 9899, 
  "assistant": 9900, 
  "dom@@": 9901, 
  "reassure": 9902, 
  "motors": 9903, 
  "controversy": 9904, 
  "Cy@@": 9905, 
  "floating": 9906, 
  "informative": 9907, 
  "displaying": 9908, 
  "Eur@@": 9909, 
  "Pic@@": 9910, 
  "alities": 9911, 
  "acoustic": 9912, 
  "Stock": 9913, 
  "Reader": 9914, 
  "Ages": 9915, 
  "relocation": 9916, 
  "newer": 9917, 
  "seize": 9918, 
  "workflow": 9919, 
  "Collection": 9920, 
  "aro@@": 9921, 
  "fs": 9922, 
  "loop": 9923, 
  "Adjustment": 9924, 
  "oring": 9925, 
  "aver@@": 9926, 
  "authorization": 9927, 
  "hike": 9928, 
  "cruise": 9929, 
  "IL": 9930, 
  "ked": 9931, 
  "Cl@@": 9932, 
  "tabling": 9933, 
  "Herzegovina": 9934, 
  "traded": 9935, 
  "breath": 9936, 
  "aqu@@": 9937, 
  "racist": 9938, 
  "cour@@": 9939, 
  "M-@@": 9940, 
  "photograph": 9941, 
  "journeys": 9942, 
  "explosion": 9943, 
  "3000": 9944, 
  "ori": 9945, 
  "Ethiopia": 9946, 
  "legs": 9947, 
  "24th": 9948, 
  "fixing": 9949, 
  "Sav@@": 9950, 
  "folders": 9951, 
  "forwarded": 9952, 
  "first-@@": 9953, 
  "-out": 9954, 
  "elaborate": 9955, 
  "seventh": 9956, 
  "Yugoslav": 9957, 
  "strain": 9958, 
  "exp@@": 9959, 
  "shots": 9960, 
  "geopolitical": 9961, 
  "12-@@": 9962, 
  "streams": 9963, 
  "utterly": 9964, 
  "wasted": 9965, 
  "viewer": 9966, 
  "SIS": 9967, 
  "inhabited": 9968, 
  "Computer": 9969, 
  "FOR": 9970, 
  "Hal@@": 9971, 
  "rot@@": 9972, 
  "beneath": 9973, 
  "Sports": 9974, 
  "ix": 9975, 
  "mainland": 9976, 
  "pensioners": 9977, 
  "Die": 9978, 
  "1968": 9979, 
  "caves": 9980, 
  "Benjamin": 9981, 
  "ear": 9982, 
  "charts": 9983, 
  "Communities": 9984, 
  "violate": 9985, 
  "Days": 9986, 
  "Wei@@": 9987, 
  "B-@@": 9988, 
  "unn@@": 9989, 
  "controllers": 9990, 
  "strings": 9991, 
  "lasted": 9992, 
  "rape": 9993, 
  "marina": 9994, 
  "clinic": 9995, 
  "Aires": 9996, 
  "Tal@@": 9997, 
  "Granada": 9998, 
  "electro@@": 9999, 
  "pubs": 10000, 
  "appointments": 10001, 
  "flu@@": 10002, 
  "Next": 10003, 
  "Marbella": 10004, 
  "gue": 10005, 
  "alcoholic": 10006, 
  "rooted": 10007, 
  "Ly@@": 10008, 
  "exemptions": 10009, 
  "Sahara": 10010, 
  "theatres": 10011, 
  "proceeding": 10012, 
  "FC": 10013, 
  "recovered": 10014, 
  "1976": 10015, 
  "misuse": 10016, 
  "intact": 10017, 
  "rendered": 10018, 
  "declining": 10019, 
  "appliances": 10020, 
  "Democracy": 10021, 
  "nan@@": 10022, 
  "farmer": 10023, 
  "Ed@@": 10024, 
  "Easter": 10025, 
  "sou@@": 10026, 
  "Panel": 10027, 
  "adventures": 10028, 
  "yp@@": 10029, 
  "riders": 10030, 
  "rendering": 10031, 
  "Hei@@": 10032, 
  "defeated": 10033, 
  "harvest": 10034, 
  "slogan": 10035, 
  "disciplines": 10036, 
  "Fe@@": 10037, 
  "summits": 10038, 
  "cultivated": 10039, 
  "fishery": 10040, 
  "LateRooms": 10041, 
  "Barack": 10042, 
  "ander": 10043, 
  "disclosure": 10044, 
  "Advanced": 10045, 
  "aming": 10046, 
  "physically": 10047, 
  "Please": 10048, 
  "Kim": 10049, 
  "grasp": 10050, 
  "30-@@": 10051, 
  "consumed": 10052, 
  "notwithstanding": 10053, 
  "IM": 10054, 
  "ry@@": 10055, 
  "lac@@": 10056, 
  "Tyrolean": 10057, 
  "ions": 10058, 
  "35@@": 10059, 
  "provinces": 10060, 
  "dental": 10061, 
  "bombs": 10062, 
  "cker": 10063, 
  "pitch": 10064, 
  "practise": 10065, 
  "к@@": 10066, 
  "Nov@@": 10067, 
  "Dun@@": 10068, 
  "disregard": 10069, 
  "nationalist": 10070, 
  "browsing": 10071, 
  "radar": 10072, 
  "Perspective": 10073, 
  "-related": 10074, 
  "`s": 10075, 
  "rewards": 10076, 
  "organizational": 10077, 
  "Download": 10078, 
  "skiers": 10079, 
  "top-@@": 10080, 
  "paramount": 10081, 
  "tin@@": 10082, 
  "life-@@": 10083, 
  "username": 10084, 
  "Ob@@": 10085, 
  "Province": 10086, 
  "reign": 10087, 
  "repository": 10088, 
  "Store": 10089, 
  "kin": 10090, 
  "Henry": 10091, 
  "stuck": 10092, 
  "\\": 10093, 
  "accusations": 10094, 
  "hits": 10095, 
  "readiness": 10096, 
  "non-profit": 10097, 
  "illnesses": 10098, 
  "bottles": 10099, 
  "atten@@": 10100, 
  "0.5": 10101, 
  "IV@@": 10102, 
  "Berlusconi": 10103, 
  "underlines": 10104, 
  "Watson": 10105, 
  "vil@@": 10106, 
  "assistants": 10107, 
  "coll@@": 10108, 
  "illustrates": 10109, 
  "Kon@@": 10110, 
  "disclose": 10111, 
  "emphasized": 10112, 
  "anna": 10113, 
  "assert": 10114, 
  "allowances": 10115, 
  "Š@@": 10116, 
  "yourselves": 10117, 
  "midnight": 10118, 
  "logging": 10119, 
  "ze@@": 10120, 
  "eg": 10121, 
  "Channel": 10122, 
  "mi": 10123, 
  "Sil@@": 10124, 
  "Sin@@": 10125, 
  "materi@@": 10126, 
  "vigilant": 10127, 
  "Abu": 10128, 
  "Siena": 10129, 
  "Premier": 10130, 
  "CT@@": 10131, 
  "entrusted": 10132, 
  "reminder": 10133, 
  "terminology": 10134, 
  "analog": 10135, 
  "tab@@": 10136, 
  "mainstream": 10137, 
  "TA": 10138, 
  "hum@@": 10139, 
  "las": 10140, 
  "Sen@@": 10141, 
  "shifting": 10142, 
  "Excel": 10143, 
  "holdings": 10144, 
  "Other": 10145, 
  "Manhattan": 10146, 
  "Laeken": 10147, 
  "lin": 10148, 
  "surf": 10149, 
  "mot@@": 10150, 
  "frank": 10151, 
  "sh": 10152, 
  "Lan@@": 10153, 
  "extensively": 10154, 
  "Classic": 10155, 
  "lasts": 10156, 
  "impressions": 10157, 
  "rush": 10158, 
  "US-@@": 10159, 
  "PE": 10160, 
  "cables": 10161, 
  "attaches": 10162, 
  "verified": 10163, 
  "operative": 10164, 
  "lined": 10165, 
  "boosting": 10166, 
  "uns": 10167, 
  "tram@@": 10168, 
  "accomodation": 10169, 
  "dian": 10170, 
  "oper@@": 10171, 
  "uranium": 10172, 
  "dal": 10173, 
  "liberties": 10174, 
  "Cat@@": 10175, 
  "cosmetics": 10176, 
  "differs": 10177, 
  "1950": 10178, 
  "SA@@": 10179, 
  "precedence": 10180, 
  "lam@@": 10181, 
  "oppression": 10182, 
  "sle@@": 10183, 
  "balances": 10184, 
  "cited": 10185, 
  "complying": 10186, 
  "cereals": 10187, 
  "call@@": 10188, 
  "repairs": 10189, 
  "ret@@": 10190, 
  "Sound": 10191, 
  "Thank": 10192, 
  "Azerbaijan": 10193, 
  "Bali": 10194, 
  "hand-@@": 10195, 
  "Bou@@": 10196, 
  "corporation": 10197, 
  "debut": 10198, 
  "approached": 10199, 
  "processors": 10200, 
  "oning": 10201, 
  "pockets": 10202, 
  "M.": 10203, 
  "hanging": 10204, 
  "knowledge-based": 10205, 
  "Cairo": 10206, 
  "publishers": 10207, 
  "imbalance": 10208, 
  "196": 10209, 
  "EGF": 10210, 
  "pronounced": 10211, 
  "Juan": 10212, 
  "Senate": 10213, 
  "e-commerce": 10214, 
  "Regions": 10215, 
  "WiFi": 10216, 
  "forgetting": 10217, 
  "jo": 10218, 
  "Km": 10219, 
  "dia": 10220, 
  "Dem@@": 10221, 
  "deficiencies": 10222, 
  "pil@@": 10223, 
  "belts": 10224, 
  "lion": 10225, 
  "Scientific": 10226, 
  "Bir@@": 10227, 
  "communism": 10228, 
  "ened": 10229, 
  "Erika": 10230, 
  "baroque": 10231, 
  "hur@@": 10232, 
  "termination": 10233, 
  "discourse": 10234, 
  "tot@@": 10235, 
  "frameworks": 10236, 
  "ão": 10237, 
  "MISSING": 10238, 
  "dent": 10239, 
  "blu@@": 10240, 
  "Credit": 10241, 
  "wir": 10242, 
  "guardian": 10243, 
  "Av@@": 10244, 
  "comparative": 10245, 
  "metre": 10246, 
  "supranational": 10247, 
  "colony": 10248, 
  "Merkel": 10249, 
  "supplemented": 10250, 
  "honoured": 10251, 
  "ASEAN": 10252, 
  "vel": 10253, 
  "ova": 10254, 
  "shi@@": 10255, 
  "balancing": 10256, 
  "weakening": 10257, 
  "buried": 10258, 
  "-F@@": 10259, 
  "prompted": 10260, 
  "representations": 10261, 
  "award-winning": 10262, 
  "dem@@": 10263, 
  "bre": 10264, 
  "faithful": 10265, 
  "pan-European": 10266, 
  "GE": 10267, 
  "lowering": 10268, 
  "overcoming": 10269, 
  "bills": 10270, 
  "appeals": 10271, 
  "dose": 10272, 
  "1981": 10273, 
  "22@@": 10274, 
  "neighborhood": 10275, 
  "sid": 10276, 
  "speedy": 10277, 
  "allowance": 10278, 
  "small-scale": 10279, 
  "а@@": 10280, 
  "vis-à-vis": 10281, 
  "fulfilment": 10282, 
  "passionate": 10283, 
  "check@@": 10284, 
  "Mul@@": 10285, 
  "Awards": 10286, 
  "Conciliation": 10287, 
  "crossed": 10288, 
  "vendors": 10289, 
  "Adam": 10290, 
  "ves@@": 10291, 
  "flats": 10292, 
  "cleaner": 10293, 
  "stamp": 10294, 
  "cofinancing": 10295, 
  "trap": 10296, 
  "fal@@": 10297, 
  "Beauty": 10298, 
  "Installation": 10299, 
  "rides": 10300, 
  "Barnier": 10301, 
  "cod": 10302, 
  "West@@": 10303, 
  "Saint-@@": 10304, 
  "yearly": 10305, 
  "minded": 10306, 
  "umbrella": 10307, 
  "disagreement": 10308, 
  "tailor-made": 10309, 
  "Bolkestein": 10310, 
  "fiction": 10311, 
  "recipients": 10312, 
  "Sign@@": 10313, 
  "favoured": 10314, 
  "onn@@": 10315, 
[...]
