{
  "eos": 0, 
  "UNK": 1, 
  ",": 2, 
  ".": 3, 
  "в": 4, 
  "и": 5, 
  "на": 6, 
  "не": 7, 
  "что": 8, 
  "&quot;": 9, 
  "с": 10, 
  "@-@": 11, 
  "как": 12, 
  "к": 13, 
  "-": 14, 
  "но": 15, 
  "для": 16, 
  "по": 17, 
  "это": 18, 
  "то": 19, 
  "а": 20, 
  "от": 21, 
  "из": 22, 
  "за": 23, 
  "более": 24, 
  "чтобы": 25, 
  "о": 26, 
  "они": 27, 
  "того": 28, 
  "США": 29, 
  "его": 30, 
  "или": 31, 
  "также": 32, 
  "их": 33, 
  "бы": 34, 
  "может": 35, 
  "если": 36, 
  "которые": 37, 
  "время": 38, 
  "он": 39, 
  "том": 40, 
  "во": 41, 
  "все": 42, 
  "является": 43, 
  "будет": 44, 
  "мы": 45, 
  "так": 46, 
  "только": 47, 
  "когда": 48, 
  ":": 49, 
  "ли": 50, 
  "страны": 51, 
  ")": 52, 
  "(": 53, 
  "же": 54, 
  "чем": 55, 
  "?": 56, 
  "было": 57, 
  "у": 58, 
  "я": 59, 
  "до": 60, 
  "однако": 61, 
  "быть": 62, 
  "%": 63, 
  "должны": 64, 
  "еще": 65, 
  "стран": 66, 
  "даже": 67, 
  "больше": 68, 
  "могут": 69, 
  "не@@": 70, 
  "года": 71, 
  "были": 72, 
  "году": 73, 
  "между": 74, 
  "после": 75, 
  "был": 76, 
  "тем": 77, 
  "лет": 78, 
  ";": 79, 
  "этого": 80, 
  "ее": 81, 
  "который": 82, 
  "она": 83, 
  "эти": 84, 
  "ЕС": 85, 
  "образом": 86, 
  "со": 87, 
  "будут": 88, 
  "при": 89, 
  "уже": 90, 
  "сегодня": 91, 
  "ни": 92, 
  "была": 93, 
  "политики": 94, 
  "всего": 95, 
  "которая": 96, 
  "этом": 97, 
  "можно": 98, 
  "ла": 99, 
  "таким": 100, 
  "людей": 101, 
  "ной": 102, 
  "других": 103, 
  "правительства": 104, 
  "многие": 105, 
  "мира": 106, 
  "мире": 107, 
  "кто": 108, 
  "странах": 109, 
  "менее": 110, 
  "л": 111, 
  "возможно": 112, 
  "свои": 113, 
  "за@@": 114, 
  "этот": 115, 
  "своих": 116, 
  "себя": 117, 
  "против": 118, 
  "правительство": 119, 
  "поскольку": 120, 
  "свою": 121, 
  "являются": 122, 
  "ных": 123, 
  "Китай": 124, 
  "без": 125, 
  "Европы": 126, 
  "Китая": 127, 
  "ным": 128, 
  "ные": 129, 
  "своей": 130, 
  "под": 131, 
  "власти": 132, 
  "действительно": 133, 
  "есть": 134, 
  "нет": 135, 
  "стороны": 136, 
  "этой": 137, 
  "ного": 138, 
  "экономики": 139, 
  "этих": 140, 
  "по@@": 141, 
  "роста": 142, 
  "ный": 143, 
  "сейчас": 144, 
  "ном": 145, 
  "всех": 146, 
  "проблемы": 147, 
  "тех": 148, 
  "ное": 149, 
  "очень": 150, 
  "рост": 151, 
  "них": 152, 
  "хотя": 153, 
  "некоторые": 154, 
  "ными": 155, 
  "например": 156, 
  "другие": 157, 
  "‑": 158, 
  "ная": 159, 
  "те": 160, 
  "ную": 161, 
  "такие": 162, 
  "Америки": 163, 
  "которых": 164, 
  "им": 165, 
  "х": 166, 
  "должен": 167, 
  "мир": 168, 
  "случае": 169, 
  "где": 170, 
  "несмотря": 171, 
  "войны": 172, 
  "безопасности": 173, 
  "у@@": 174, 
  "ны": 175, 
  "экономического": 176, 
  "про@@": 177, 
  "люди": 178, 
  "потому": 179, 
  "мере": 180, 
  "либо": 181, 
  "ло": 182, 
  "необходимо": 183, 
  "Европе": 184, 
  "России": 185, 
  "которое": 186, 
  "которой": 187, 
  "лишь": 188, 
  "должна": 189, 
  "та": 190, 
  "многих": 191, 
  "кризиса": 192, 
  "сделать": 193, 
  "заключается": 194, 
  "течение": 195, 
  "пере@@": 196, 
  "просто": 197, 
  "таких": 198, 
  "системы": 199, 
  "особенно": 200, 
  "один": 201, 
  "т": 202, 
  "конечно": 203, 
  "именно": 204, 
  "вы@@": 205, 
  "кризис": 206, 
  "большинство": 207, 
  "ет": 208, 
  "часто": 209, 
  "вопрос": 210, 
  "результате": 211, 
  "слишком": 212, 
  "отношении": 213, 
  "пор": 214, 
  "политика": 215, 
  "&amp;": 216, 
  "населения": 217, 
  "на@@": 218, 
  "своего": 219, 
  "ки": 220, 
  "ка": 221, 
  "перед": 222, 
  "такой": 223, 
  "пока": 224, 
  "должно": 225, 
  "лись": 226, 
  "ООН": 227, 
  "н": 228, 
  "роль": 229, 
  "жизни": 230, 
  "е": 231, 
  "нам": 232, 
  "долларов": 233, 
  "да": 234, 
  "президента": 235, 
  "с@@": 236, 
  "ют": 237, 
  "об": 238, 
  "эта": 239, 
  "имеет": 240, 
  "государства": 241, 
  "евро": 242, 
  "почти": 243, 
  "ть": 244, 
  "силы": 245, 
  "теперь": 246, 
  "развития": 247, 
  "назад": 248, 
  "себе": 249, 
  "над": 250, 
  "существует": 251, 
  "человека": 252, 
  "несколько": 253, 
  "тому": 254, 
  "мировой": 255, 
  "стать": 256, 
  "времени": 257, 
  "Азии": 258, 
  "последние": 259, 
  "от@@": 260, 
  "раз": 261, 
  "МВФ": 262, 
  "при@@": 263, 
  "возможность": 264, 
  "нас": 265, 
  "часть": 266, 
  "президент": 267, 
  "экономический": 268, 
  "ли@@": 269, 
  "всем": 270, 
  "качестве": 271, 
  "демократии": 272, 
  "стране": 273, 
  "гораздо": 274, 
  "ному": 275, 
  "скорее": 276, 
  "поэтому": 277, 
  "ты": 278, 
  "означает": 279, 
  "решения": 280, 
  "два": 281, 
  "уровень": 282, 
  "г.": 283, 
  "политику": 284, 
  "до@@": 285, 
  "среди": 286, 
  "решение": 287, 
  "изменения": 288, 
  "помощи": 289, 
  "политической": 290, 
  "о@@": 291, 
  "кажется": 292, 
  "конце": 293, 
  "одной": 294, 
  "ю": 295, 
  "кроме": 296, 
  "почему": 297, 
  "новые": 298, 
  "год": 299, 
  "имеют": 300, 
  "относительно": 301, 
  "Европа": 302, 
  "свой": 303, 
  "лся": 304, 
  "много": 305, 
  "собой": 306, 
  "новых": 307, 
  "Германии": 308, 
  "Буша": 309, 
  "м": 310, 
  "политических": 311, 
  "вместо": 312, 
  "лидеры": 313, 
  "всегда": 314, 
  "через": 315, 
  "ются": 316, 
  "Японии": 317, 
  "ется": 318, 
  "никогда": 319, 
  "проблем": 320, 
  "ем": 321, 
  "внимание": 322, 
  "наиболее": 323, 
  "экономической": 324, 
  "лась": 325, 
  "следует": 326, 
  "настоящее": 327, 
  "годы": 328, 
  "экономика": 329, 
  "ему": 330, 
  "цен": 331, 
  "ВВП": 332, 
  "которую": 333, 
  "оно": 334, 
  "могли": 335, 
  "в@@": 336, 
  "нужно": 337, 
  "партии": 338, 
  "стали": 339, 
  "ва@@": 340, 
  "целью": 341, 
  "со@@": 342, 
  "свое": 343, 
  "политические": 344, 
  "поводу": 345, 
  "лось": 346, 
  "остается": 347, 
  "премьер": 348, 
  "политике": 349, 
  "другой": 350, 
  "Франции": 351, 
  "власть": 352, 
  "капитала": 353, 
  "ской": 354, 
  "самом": 355, 
  "Россия": 356, 
  "истории": 357, 
  "ти@@": 358, 
  "действительности": 359, 
  "проблема": 360, 
  "количество": 361, 
  "НАТО": 362, 
  "Индии": 363, 
  "ка@@": 364, 
  "прав": 365, 
  "цены": 366, 
  "там": 367, 
  "уровня": 368, 
  "процесс": 369, 
  "ющих": 370, 
  "ей": 371, 
  "двух": 372, 
  "рынка": 373, 
  "ке": 374, 
  "ского": 375, 
  "вы": 376, 
  "ский": 377, 
  "него": 378, 
  "членов": 379, 
  "ма@@": 380, 
  "которого": 381, 
  "степени": 382, 
  "зрения": 383, 
  "ту": 384, 
  "этим": 385, 
  "Ираке": 386, 
  "ку": 387, 
  "страна": 388, 
  "ко@@": 389, 
  "момент": 390, 
  "рынки": 391, 
  "лучше": 392, 
  "ности": 393, 
  "деле": 394, 
  "одна": 395, 
  "возможности": 396, 
  "ских": 397, 
  "ность": 398, 
  "влияние": 399, 
  "тогда": 400, 
  "миллионов": 401, 
  "й": 402, 
  "тот": 403, 
  "д": 404, 
  "отношения": 405, 
  "Америка": 406, 
  "права": 407, 
  "quot": 408, 
  "действия": 409, 
  "финансовой": 410, 
  "под@@": 411, 
  "государств": 412, 
  "находится": 413, 
  "достаточно": 414, 
  "самым": 415, 
  "ре@@": 416, 
  "эту": 417, 
  "протяжении": 418, 
  "развивающихся": 419, 
  "ющие": 420, 
  "сил": 421, 
  "Ирана": 422, 
  "раз@@": 423, 
  "С@@": 424, 
  "ле@@": 425, 
  "станет": 426, 
  "банки": 427, 
  "хорошо": 428, 
  "Америке": 429, 
  "прошлом": 430, 
  "вать": 431, 
  "недавно": 432, 
  "области": 433, 
  "система": 434, 
  "последствия": 435, 
  "быстро": 436, 
  "финансовых": 437, 
  "три": 438, 
  "уровне": 439, 
  "человек": 440, 
  "ские": 441, 
  "реформы": 442, 
  "иметь": 443, 
  "а@@": 444, 
  "ться": 445, 
  "меньше": 446, 
  "20": 447, 
  "своим": 448, 
  "поддержку": 449, 
  "общества": 450, 
  "А@@": 451, 
  "помощь": 452, 
  "к@@": 453, 
  "большой": 454, 
  "включая": 455, 
  "вместе": 456, 
  "но@@": 457, 
  "Израиля": 458, 
  "д@@": 459, 
  "стал": 460, 
  "той": 461, 
  "меры": 462, 
  "регионе": 463, 
  "такое": 464, 
  "практически": 465, 
  "странам": 466, 
  "финансового": 467, 
  "некоторых": 468, 
  "новой": 469, 
  "климата": 470, 
  "тов": 471, 
  "стало": 472, 
  "около": 473, 
  "компании": 474, 
  "финансовые": 475, 
  "оружия": 476, 
  "выборов": 477, 
  "ние": 478, 
  "одним": 479, 
  "ить": 480, 
  "значительно": 481, 
  "й@@": 482, 
  "ни@@": 483, 
  "рабочих": 484, 
  "крайней": 485, 
  "па@@": 486, 
  "концов": 487, 
  "сможет": 488, 
  "экономические": 489, 
  "р": 490, 
  "стала": 491, 
  "вероятно": 492, 
  "благодаря": 493, 
  "будущем": 494, 
  "л@@": 495, 
  "новый": 496, 
  "связи": 497, 
  "место": 498, 
  "ен": 499, 
  "реформ": 500, 
  "ставки": 501, 
  "действий": 502, 
  "точки": 503, 
  "согласно": 504, 
  "т@@": 505, 
  "экономике": 506, 
  "выборы": 507, 
  "де@@": 508, 
  "информации": 509, 
  "стабильности": 510, 
  "самое": 511, 
  "экономику": 512, 
  "ещё": 513, 
  "самых": 514, 
  "странами": 515, 
  "использовать": 516, 
  "этому": 517, 
  "торговли": 518, 
  "миллиардов": 519, 
  "развитие": 520, 
  "ра@@": 521, 
  "ро@@": 522, 
  "нельзя": 523, 
  "большей": 524, 
  "ра": 525, 
  "выборах": 526, 
  "нее": 527, 
  "я@@": 528, 
  "экономических": 529, 
  "положение": 530, 
  "всё": 531, 
  "Китае": 532, 
  "всей": 533, 
  "принять": 534, 
  "стоит": 535, 
  "да@@": 536, 
  "начала": 537, 
  "ская": 538, 
  "прежде": 539, 
  "са": 540, 
  "полностью": 541, 
  "снова": 542, 
  "Израиль": 543, 
  "вая": 544, 
  "кой": 545, 
  "каждый": 546, 
  "сильно": 547, 
  "мало": 548, 
  "создать": 549, 
  "де": 550, 
  "средства": 551, 
  "министр": 552, 
  "то@@": 553, 
  "первых": 554, 
  "учитывая": 555, 
  "ло@@": 556, 
  "годов": 557, 
  "ве@@": 558, 
  "дело": 559, 
  "переговоров": 560, 
  "привести": 561, 
  "си@@": 562, 
  "второй": 563, 
  "день": 564, 
  "ничего": 565, 
  "жизнь": 566, 
  "ющей": 567, 
  "банков": 568, 
  "части": 569, 
  "риск": 570, 
  "Нью": 571, 
  "ситуации": 572, 
  "само@@": 573, 
  "лидеров": 574, 
  "деньги": 575, 
  "средств": 576, 
  "данные": 577, 
  "миру": 578, 
  "рынок": 579, 
  "значение": 580, 
  "бо@@": 581, 
  "иться": 582, 
  "помощью": 583, 
  "систему": 584, 
  "цели": 585, 
  "го@@": 586, 
  "пути": 587, 
  "ш@@": 588, 
  "война": 589, 
  "хотят": 590, 
  "другими": 591, 
  "обычно": 592, 
  "программы": 593, 
  "ней": 594, 
  "такого": 595, 
  "такая": 596, 
  "помочь": 597, 
  "делать": 598, 
  "её": 599, 
  "века": 600, 
  "считают": 601, 
  "ним": 602, 
  "одного": 603, 
  "организации": 604, 
  "г": 605, 
  "ядерного": 606, 
  "ским": 607, 
  "ми@@": 608, 
  "инвестиций": 609, 
  "политического": 610, 
  "наконец": 611, 
  "ма": 612, 
  "какой": 613, 
  "О@@": 614, 
  "период": 615, 
  "вали": 616, 
  "ди@@": 617, 
  "Иран": 618, 
  "внутри": 619, 
  "Соединенных": 620, 
  "происходит": 621, 
  "переговоры": 622, 
  "международных": 623, 
  "Союза": 624, 
  "которым": 625, 
  "м@@": 626, 
  "глобального": 627, 
  "ответ": 628, 
  "управления": 629, 
  "ющий": 630, 
  "мо@@": 631, 
  "получить": 632, 
  "Германия": 633, 
  "усилия": 634, 
  "становится": 635, 
  "нового": 636, 
  "две": 637, 
  "пользу": 638, 
  "инвестиции": 639, 
  "нефти": 640, 
  "рас@@": 641, 
  "Турции": 642, 
  "режима": 643, 
  "право": 644, 
  "отношений": 645, 
  "можем": 646, 
  "основном": 647, 
  "основе": 648, 
  "важно": 649, 
  "трудно": 650, 
  "10": 651, 
  "и@@": 652, 
  "ющим": 653, 
  "большая": 654, 
  "об@@": 655, 
  "бе@@": 656, 
  "военных": 657, 
  "создания": 658, 
  "женщин": 659, 
  "намного": 660, 
  "котором": 661, 
  "производства": 662, 
  "ния": 663, 
  "ви@@": 664, 
  "конечном": 665, 
  "сих": 666, 
  "здесь": 667, 
  "друг": 668, 
  "ском": 669, 
  "Обамы": 670, 
  "Северной": 671, 
  "ситуация": 672, 
  "требует": 673, 
  "мог": 674, 
  "найти": 675, 
  "большую": 676, 
  "международной": 677, 
  "обеспечить": 678, 
  "выше": 679, 
  "нефть": 680, 
  "Япония": 681, 
  "любой": 682, 
  "курса": 683, 
  "интересы": 684, 
  "рынков": 685, 
  "стратегии": 686, 
  "состоянии": 687, 
  "затем": 688, 
  "п@@": 689, 
  "тами": 690, 
  "путь": 691, 
  "никто": 692, 
  "понять": 693, 
  "поддержки": 694, 
  "ностью": 695, 
  "факт": 696, 
  "отношению": 697, 
  "во@@": 698, 
  "э@@": 699, 
  "условиях": 700, 
  "нескольких": 701, 
  "военные": 702, 
  "международного": 703, 
  "фактически": 704, 
  "Восточной": 705, 
  "счет": 706, 
  "глобальной": 707, 
  "валюты": 708, 
  "мест": 709, 
  "ении": 710, 
  "50": 711, 
  "Индия": 712, 
  "1990": 713, 
  "ков": 714, 
  "посредством": 715, 
  "региона": 716, 
  "американских": 717, 
  "г@@": 718, 
  "энергии": 719, 
  "иностранных": 720, 
  "будущее": 721, 
  "те@@": 722, 
  "первый": 723, 
  "похоже": 724, 
  "Обама": 725, 
  "цы": 726, 
  "вопросы": 727, 
  "ком": 728, 
  "результаты": 729, 
  "ри@@": 730, 
  "делает": 731, 
  "ция": 732, 
  "путем": 733, 
  "представляет": 734, 
  "решений": 735, 
  "мой": 736, 
  "з@@": 737, 
  "детей": 738, 
  "очередь": 739, 
  "десятилетия": 740, 
  "самой": 741, 
  "расходы": 742, 
  "сожалению": 743, 
  "другим": 744, 
  "работы": 745, 
  "2008": 746, 
  "ением": 747, 
  "начале": 748, 
  "сказал": 749, 
  "данный": 750, 
  "вой": 751, 
  "нии": 752, 
  "курс": 753, 
  "избежать": 754, 
  "долга": 755, 
  "ресурсов": 756, 
  "та@@": 757, 
  "Латинской": 758, 
  "Европейского": 759, 
  "находятся": 760, 
  "прежнему": 761, 
  "дефицит": 762, 
  "отличие": 763, 
  "бедных": 764, 
  "силу": 765, 
  "ний": 766, 
  "ческих": 767, 
  "пре@@": 768, 
  "еврозоны": 769, 
  "столь": 770, 
  "инфляции": 771, 
  "соглашения": 772, 
  "европейских": 773, 
  "говорят": 774, 
  "налогов": 775, 
  "Б@@": 776, 
  "ское": 777, 
  "ру@@": 778, 
  "се@@": 779, 
  "говорит": 780, 
  "смогут": 781, 
  "ж@@": 782, 
  "Буш": 783, 
  "увеличение": 784, 
  "граждан": 785, 
  "подход": 786, 
  "скую": 787, 
  "контроля": 788, 
  "ится": 789, 
  "угрозу": 790, 
  "частью": 791, 
  "Д@@": 792, 
  "работу": 793, 
  "ба@@": 794, 
  "создание": 795, 
  "К@@": 796, 
  "Востоке": 797, 
  "государство": 798, 
  "приведет": 799, 
  "годах": 800, 
  "последних": 801, 
  "хочет": 802, 
  "П@@": 803, 
  "без@@": 804, 
  "наши": 805, 
  "н@@": 806, 
  "ческие": 807, 
  "денег": 808, 
  "ческий": 809, 
  "одно": 810, 
  "главным": 811, 
  "ровать": 812, 
  "ками": 813, 
  "начать": 814, 
  "числе": 815, 
  "позволить": 816, 
  "ство": 817, 
  "ющего": 818, 
  "европейские": 819, 
  "кого": 820, 
  "сторону": 821, 
  "говоря": 822, 
  "из@@": 823, 
  "ческого": 824, 
  "доходов": 825, 
  "члены": 826, 
  "Европейский": 827, 
  "насколько": 828, 
  "Запада": 829, 
  "ЕЦБ": 830, 
  "И@@": 831, 
  "му": 832, 
  "ческим": 833, 
  "внешней": 834, 
  "ва": 835, 
  "ль@@": 836, 
  "стоимость": 837, 
  "политическая": 838, 
  "чи@@": 839, 
  "га@@": 840, 
  "план": 841, 
  "военной": 842, 
  "б@@": 843, 
  "администрация": 844, 
  "министра": 845, 
  "состоит": 846, 
  "скими": 847, 
  "ческой": 848, 
  "тоже": 849, 
  "ст@@": 850, 
  "сами": 851, 
  "вают": 852, 
  "нию": 853, 
  "условия": 854, 
  "исследования": 855, 
  "зависит": 856, 
  "30": 857, 
  "достижения": 858, 
  "финансовый": 859, 
  "ко": 860, 
  "страну": 861, 
  "существуют": 862, 
  "безработицы": 863, 
  "У@@": 864, 
  "далеко": 865, 
  "проблему": 866, 
  "европейской": 867, 
  "ответственность": 868, 
  "1": 869, 
  "Южной": 870, 
  "вым": 871, 
  "американской": 872, 
  "закона": 873, 
  "настолько": 874, 
  "государственных": 875, 
  "Франция": 876, 
  "ле": 877, 
  "процесса": 878, 
  "2": 879, 
  "политический": 880, 
  "вые": 881, 
  "Великобритании": 882, 
  "Ирака": 883, 
  "действовать": 884, 
  "х@@": 885, 
  "сектора": 886, 
  "основных": 887, 
  "прошлого": 888, 
  "иногда": 889, 
  "данных": 890, 
  "свободы": 891, 
  "всему": 892, 
  "контроль": 893, 
  "сам": 894, 
  "жа@@": 895, 
  "дом": 896, 
  "расходов": 897, 
  "Ближнем": 898, 
  "надо": 899, 
  "причиной": 900, 
  "режим": 901, 
  "Штаты": 902, 
  "развитых": 903, 
  "ды": 904, 
  "борьбе": 905, 
  "американские": 906, 
  "рынке": 907, 
  "жи@@": 908, 
  "дать": 909, 
  "цию": 910, 
  "ними": 911, 
  "давление": 912, 
  "ства": 913, 
  "правления": 914, 
  "труда": 915, 
  "вает": 916, 
  "Союз": 917, 
  "легко": 918, 
  "история": 919, 
  "гг.": 920, 
  "чего": 921, 
  "дел": 922, 
  "цией": 923, 
  "р@@": 924, 
  "ющими": 925, 
  "бедности": 926, 
  "президентом": 927, 
  "составляет": 928, 
  "мер": 929, 
  "В@@": 930, 
  "большие": 931, 
  "отсутствие": 932, 
  "соглашение": 933, 
  "войну": 934, 
  "вновь": 935, 
  "ду": 936, 
  "Т@@": 937, 
  "технологии": 938, 
  "ф@@": 939, 
  "невозможно": 940, 
  "работать": 941, 
  "сравнению": 942, 
  "ла@@": 943, 
  "компаний": 944, 
  "американцы": 945, 
  "льных": 946, 
  "месяцев": 947, 
  "зи@@": 948, 
  "вал": 949, 
  "позиции": 950, 
  "развивающиеся": 951, 
  "чным": 952, 
  "произошло": 953, 
  "ль": 954, 
  "дня": 955, 
  "образования": 956, 
  "движения": 957, 
  "ну": 958, 
  "сотрудничества": 959, 
  "вполне": 960, 
  "обеспечения": 961, 
  "спустя": 962, 
  "2001": 963, 
  "су@@": 964, 
  "банка": 965, 
  "ром": 966, 
  "Э@@": 967, 
  "нашей": 968, 
  "богатых": 969, 
  "успех": 970, 
  "рует": 971, 
  "ями": 972, 
  "са@@": 973, 
  "итоге": 974, 
  "события": 975, 
  "внимания": 976, 
  "интеграции": 977, 
  "деятельности": 978, 
  "группы": 979, 
  "администрации": 980, 
  "анти@@": 981, 
  "общество": 982, 
  "очевидно": 983, 
  "правительств": 984, 
  "Африки": 985, 
  "ме@@": 986, 
  "процентные": 987, 
  "примерно": 988, 
  "дает": 989, 
  "защиты": 990, 
  "выбор": 991, 
  "ции": 992, 
  "чных": 993, 
  "целом": 994, 
  "ческое": 995, 
  "конфликта": 996, 
  "го": 997, 
  "льные": 998, 
  "необходимость": 999, 
  "нием": 1000, 
  "ры": 1001, 
  "ку@@": 1002, 
  "ресурсы": 1003, 
  "мирового": 1004, 
  "вот": 1005, 
  "самый": 1006, 
  "3": 1007, 
  "конец": 1008, 
  "большое": 1009, 
  "сказать": 1010, 
  "демократия": 1011, 
  "вообще": 1012, 
  "доллара": 1013, 
  "ках": 1014, 
  "Саркози": 1015, 
  "Ирак": 1016, 
  "Афганистане": 1017, 
  "важным": 1018, 
  "е@@": 1019, 
  "пи@@": 1020, 
  "десятилетий": 1021, 
  "население": 1022, 
  "банк": 1023, 
  "Африке": 1024, 
  "результатом": 1025, 
  "касается": 1026, 
  "самые": 1027, 
  "политическую": 1028, 
  "Кореи": 1029, 
  "большинства": 1030, 
  "ваться": 1031, 
  "необходимости": 1032, 
  "вших": 1033, 
  "модели": 1034, 
  "Соединенные": 1035, 
  "места": 1036, 
  "самого": 1037, 
  "значительной": 1038, 
  "чной": 1039, 
  "5": 1040, 
  "большим": 1041, 
  "продолжать": 1042, 
  "Г@@": 1043, 
  "ю@@": 1044, 
  "финансов": 1045, 
  "изменение": 1046, 
  "привело": 1047, 
  "кам": 1048, 
  "борьбы": 1049, 
  "Китаем": 1050, 
  "решить": 1051, 
  "угрозы": 1052, 
  "проблемой": 1053, 
  "могла": 1054, 
  "государственного": 1055, 
  "Запад": 1056, 
  "вых": 1057, 
  "основной": 1058, 
  "случаях": 1059, 
  "раньше": 1060, 
  "своими": 1061, 
  "ы": 1062, 
  "емые": 1063, 
  "новое": 1064, 
  "сти@@": 1065, 
  "вос@@": 1066, 
  "системе": 1067, 
  "ре": 1068, 
  "европейцы": 1069, 
  "2000": 1070, 
  "роли": 1071, 
  "скому": 1072, 
  "резко": 1073, 
  "Косово": 1074, 
  "/": 1075, 
  "ров": 1076, 
  "интересов": 1077, 
  "ниже": 1078, 
  "революции": 1079, 
  "цель": 1080, 
  "поддерживать": 1081, 
  "войне": 1082, 
  "Штатов": 1083, 
  "направлении": 1084, 
  "бюджета": 1085, 
  "несомненно": 1086, 
  "страной": 1087, 
  "би@@": 1088, 
  "высокие": 1089, 
  "Путин": 1090, 
  "ющая": 1091, 
  "глобализации": 1092, 
  "вого": 1093, 
  "ению": 1094, 
  "образование": 1095, 
  "изменить": 1096, 
  "ясно": 1097, 
  "идея": 1098, 
  "газа": 1099, 
  "2009": 1100, 
  "мнение": 1101, 
  "ки@@": 1102, 
  "!": 1103, 
  "участие": 1104, 
  "2007": 1105, 
  "оказаться": 1106, 
  "политическим": 1107, 
  "сообщества": 1108, 
  "избирателей": 1109, 
  "сообщество": 1110, 
  "могло": 1111, 
  "Путина": 1112, 
  "десять": 1113, 
  "ят": 1114, 
  "правила": 1115, 
  "временем": 1116, 
  "изменений": 1117, 
  "государственные": 1118, 
  "сохранить": 1119, 
  "отношениях": 1120, 
  "остаются": 1121, 
  "М@@": 1122, 
  "долг": 1123, 
  "ми": 1124, 
  "ча@@": 1125, 
  "подобные": 1126, 
  "цев": 1127, 
  "способность": 1128, 
  "ровали": 1129, 
  "основные": 1130, 
  "вшие": 1131, 
  "экономическое": 1132, 
  "совершенно": 1133, 
  "частности": 1134, 
  "пост": 1135, 
  "обе": 1136, 
  "ена": 1137, 
  "международное": 1138, 
  "снижение": 1139, 
  "американцев": 1140, 
  "сегодняшний": 1141, 
  "чного": 1142, 
  "технологий": 1143, 
  "15": 1144, 
  "ения": 1145, 
  "движение": 1146, 
  "насилия": 1147, 
  "емых": 1148, 
  "ту@@": 1149, 
  "нем": 1150, 
  "Хамас": 1151, 
  "ис@@": 1152, 
  "мне": 1153, 
  "национальной": 1154, 
  "окружающей": 1155, 
  "сто@@": 1156, 
  "влияния": 1157, 
  "сокращение": 1158, 
  "одновременно": 1159, 
  "ники": 1160, 
  "никаких": 1161, 
  "сом": 1162, 
  "трех": 1163, 
  "целей": 1164, 
  "стабильность": 1165, 
  "ческую": 1166, 
  "га": 1167, 
  "ги@@": 1168, 
  "дома": 1169, 
  "давно": 1170, 
  "постоянно": 1171, 
  "ческая": 1172, 
  "стоимости": 1173, 
  "Аль": 1174, 
  "экономикой": 1175, 
  "совсем": 1176, 
  "вопросам": 1177, 
  "идеи": 1178, 
  "вторых": 1179, 
  "экспорта": 1180, 
  "безопасность": 1181, 
  "рамках": 1182, 
  "использование": 1183, 
  "росту": 1184, 
  "попытки": 1185, 
  "новая": 1186, 
  "проведения": 1187, 
  "тах": 1188, 
  "че@@": 1189, 
  "25": 1190, 
  "частично": 1191, 
  "своем": 1192, 
  "добиться": 1193, 
  "принятия": 1194, 
  "ены": 1195, 
  "пред@@": 1196, 
  "вер@@": 1197, 
  "партия": 1198, 
  "руют": 1199, 
  "наших": 1200, 
  "чные": 1201, 
  "11": 1202, 
  "услуг": 1203, 
  "ч@@": 1204, 
  "причин": 1205, 
  "признать": 1206, 
  "правительством": 1207, 
  "40": 1208, 
  "успеха": 1209, 
  "лом": 1210, 
  "американского": 1211, 
  "экономическая": 1212, 
  "предотвратить": 1213, 
  "2005": 1214, 
  "демократических": 1215, 
  "2004": 1216, 
  "ядерной": 1217, 
  "дела": 1218, 
  "Совета": 1219, 
  "женщины": 1220, 
  "начало": 1221, 
  "ин@@": 1222, 
  "1980": 1223, 
  "времена": 1224, 
  "людям": 1225, 
  "весь": 1226, 
  "чный": 1227, 
  "ситуацию": 1228, 
  "международные": 1229, 
  "крайне": 1230, 
  "новую": 1231, 
  "стратегия": 1232, 
  "вклад": 1233, 
  "ющее": 1234, 
  "ставок": 1235, 
  "ством": 1236, 
  "пла@@": 1237, 
  "делают": 1238, 
  "пе@@": 1239, 
  "доступ": 1240, 
  "Турция": 1241, 
  "способ": 1242, 
  "придется": 1243, 
  "большее": 1244, 
  "жить": 1245, 
  "начали": 1246, 
  "сделали": 1247, 
  "социальной": 1248, 
  "результат": 1249, 
  "Ка@@": 1250, 
  "выми": 1251, 
  "больших": 1252, 
  "вызывает": 1253, 
  "общественного": 1254, 
  "точно": 1255, 
  "доходы": 1256, 
  "спад": 1257, 
  "приводит": 1258, 
  "сфере": 1259, 
  "каким": 1260, 
  "повышение": 1261, 
  "ля@@": 1262, 
  "вскоре": 1263, 
  "ша@@": 1264, 
  "пять": 1265, 
  "лы": 1266, 
  "модель": 1267, 
  "ста@@": 1268, 
  "территории": 1269, 
  "национальных": 1270, 
  "начиная": 1271, 
  "данной": 1272, 
  "здравоохранения": 1273, 
  "границы": 1274, 
  "национального": 1275, 
  "меня": 1276, 
  "инвесторов": 1277, 
  "возможностей": 1278, 
  "Н@@": 1279, 
  "дальше": 1280, 
  "среды": 1281, 
  "нами": 1282, 
  "вопросов": 1283, 
  "доверие": 1284, 
  "рынках": 1285, 
  "тных": 1286, 
  "Израилем": 1287, 
  "будущего": 1288, 
  "хуже": 1289, 
  "которыми": 1290, 
  "политикой": 1291, 
  "ду@@": 1292, 
  "аль": 1293, 
  "число": 1294, 
  "использования": 1295, 
  "ь": 1296, 
  "нибудь": 1297, 
  "выбросов": 1298, 
  "вряд": 1299, 
  "новым": 1300, 
  "риска": 1301, 
  "принимать": 1302, 
  "Х@@": 1303, 
  "стве": 1304, 
  "поддержка": 1305, 
  "особенности": 1306, 
  "количества": 1307, 
  "ровал": 1308, 
  "событий": 1309, 
  "широко": 1310, 
  "лу": 1311, 
  "чно": 1312, 
  "провести": 1313, 
  "60": 1314, 
  "воздействие": 1315, 
  "вопросом": 1316, 
  "последнее": 1317, 
  "доверия": 1318, 
  "спрос": 1319, 
  "мировых": 1320, 
  "спроса": 1321, 
  "перспективе": 1322, 
  "цами": 1323, 
  "инвесторы": 1324, 
  "процентных": 1325, 
  "оружие": 1326, 
  "Р@@": 1327, 
  "сила": 1328, 
  "вала": 1329, 
  "воз@@": 1330, 
  "конфликт": 1331, 
  "восстановление": 1332, 
  "какие": 1333, 
  "ческими": 1334, 
  "ям": 1335, 
  "одну": 1336, 
  "Европу": 1337, 
  "политиков": 1338, 
  "независимо": 1339, 
  "ях": 1340, 
  "сторон": 1341, 
  "оказались": 1342, 
  "2006": 1343, 
  "восстановления": 1344, 
  "ценности": 1345, 
  "причина": 1346, 
  "ограничения": 1347, 
  "смысле": 1348, 
  "четыре": 1349, 
  "активов": 1350, 
  "эффект": 1351, 
  "впервые": 1352, 
  "сектор": 1353, 
  "созда@@": 1354, 
  "следовательно": 1355, 
  "вание": 1356, 
  "сокращения": 1357, 
  "руководство": 1358, 
  "наоборот": 1359, 
  "предложение": 1360, 
  "ников": 1361, 
  "казалось": 1362, 
  "ых": 1363, 
  "виде": 1364, 
  "причины": 1365, 
  "экономическую": 1366, 
  "вести": 1367, 
  "довольно": 1368, 
  "ений": 1369, 
  "коррупции": 1370, 
  "становятся": 1371, 
  "ительные": 1372, 
  "регулирования": 1373, 
  "шаг": 1374, 
  "2010": 1375, 
  "льной": 1376, 
  "4": 1377, 
  "слова": 1378, 
  "ме": 1379, 
  "вое": 1380, 
  "Евросоюза": 1381, 
  "недостаточно": 1382, 
  "развитию": 1383, 
  "закон": 1384, 
  "секторе": 1385, 
  "двумя": 1386, 
  "крупных": 1387, 
  "богатые": 1388, 
  "ительной": 1389, 
  "ительных": 1390, 
  "явно": 1391, 
  "рами": 1392, 
  "Россией": 1393, 
  "вом": 1394, 
  "различных": 1395, 
  "увеличения": 1396, 
  "отношение": 1397, 
  "другом": 1398, 
  "мнению": 1399, 
  "такими": 1400, 
  "емой": 1401, 
  "ству": 1402, 
  "смогли": 1403, 
  "ст": 1404, 
  "ля": 1405, 
  "экономическим": 1406, 
  "ение": 1407, 
  "ца": 1408, 
  "ха@@": 1409, 
  "финансирования": 1410, 
  "мнения": 1411, 
  "ци@@": 1412, 
  "дефицита": 1413, 
  "достичь": 1414, 
  "свободу": 1415, 
  "пример": 1416, 
  "вый": 1417, 
  "ваются": 1418, 
  "му@@": 1419, 
  "рабочие": 1420, 
  "ЙОРК": 1421, 
  "играть": 1422, 
  "ц@@": 1423, 
  "огромные": 1424, 
  "военного": 1425, 
  "правительству": 1426, 
  "никакого": 1427, 
  "продолжает": 1428, 
  "Ф@@": 1429, 
  "се": 1430, 
  "товаров": 1431, 
  "независимости": 1432, 
  "тные": 1433, 
  "8": 1434, 
  "говорить": 1435, 
  "способом": 1436, 
  "общего": 1437, 
  "высокий": 1438, 
  "ядерных": 1439, 
  "падение": 1440, 
  "исследований": 1441, 
  "исключением": 1442, 
  "способствовать": 1443, 
  "представляют": 1444, 
  "Пакистана": 1445, 
  "ну@@": 1446, 
  "доллар": 1447, 
  "стро@@": 1448, 
  "статус": 1449, 
  "Штатах": 1450, 
  "Ш@@": 1451, 
  "национальные": 1452, 
  "обязательства": 1453, 
  "способности": 1454, 
  "кое": 1455, 
  "которому": 1456, 
  "Италии": 1457, 
  "сотрудничество": 1458, 
  "соответствии": 1459, 
  "капитал": 1460, 
  "надежды": 1461, 
  "бывший": 1462, 
  "ник": 1463, 
  "силой": 1464, 
  "серьезные": 1465, 
  "структуры": 1466, 
  "дохода": 1467, 
  "такую": 1468, 
  "конституции": 1469, 
  "голосов": 1470, 
  "опыт": 1471, 
  "зма": 1472, 
  "общей": 1473, 
  "затраты": 1474, 
  "баланса": 1475, 
  "000": 1476, 
  "увеличить": 1477, 
  "эффективно": 1478, 
  "безусловно": 1479, 
  "требуется": 1480, 
  "словами": 1481, 
  "з": 1482, 
  "дают": 1483, 
  "утверждают": 1484, 
  "вне": 1485, 
  "рованы": 1486, 
  "идет": 1487, 
  "привели": 1488, 
  "су": 1489, 
  "сомнения": 1490, 
  "государством": 1491, 
  "ответственности": 1492, 
  "рования": 1493, 
  "холодной": 1494, 
  "положения": 1495, 
  "кампании": 1496, 
  "свободной": 1497, 
  "удалось": 1498, 
  "готовы": 1499, 
  "требования": 1500, 
  "институтов": 1501, 
  "проблемами": 1502, 
  "первого": 1503, 
  "процессе": 1504, 
  "результатов": 1505, 
  "исключительно": 1506, 
  "сделал": 1507, 
  "угрозой": 1508, 
  "ан@@": 1509, 
  "произойдет": 1510, 
  "семьи": 1511, 
  "первой": 1512, 
  "ранее": 1513, 
  "восстановить": 1514, 
  "оппозиции": 1515, 
  "ь@@": 1516, 
  "2003": 1517, 
  "палестинцев": 1518, 
  "потребления": 1519, 
  "Безопасности": 1520, 
  "Корея": 1521, 
  "ше@@": 1522, 
  "отражает": 1523, 
  "товары": 1524, 
  "собственных": 1525, 
  "остановить": 1526, 
  "рованных": 1527, 
  "повышения": 1528, 
  "руководства": 1529, 
  "продолжают": 1530, 
  "ющую": 1531, 
  "ющихся": 1532, 
  "угроза": 1533, 
  "большинстве": 1534, 
  "падения": 1535, 
  "6": 1536, 
  "чувство": 1537, 
  "Греции": 1538, 
  "крупные": 1539, 
  "прибыли": 1540, 
  "чными": 1541, 
  "условий": 1542, 
  "вается": 1543, 
  "задача": 1544, 
  "емый": 1545, 
  "акций": 1546, 
  "массовой": 1547, 
  "вания": 1548, 
  "участия": 1549, 
  "показывает": 1550, 
  "долго": 1551, 
  "начал": 1552, 
  "облигаций": 1553, 
  "призна@@": 1554, 
  "льный": 1555, 
  "учреждения": 1556, 
  "сентября": 1557, 
  "сократить": 1558, 
  "собственной": 1559, 
  "политическое": 1560, 
  "представить": 1561, 
  "расти": 1562, 
  "союза": 1563, 
  "поведение": 1564, 
  "предоставить": 1565, 
  "поддержать": 1566, 
  "созданию": 1567, 
  "обороны": 1568, 
  "промышленности": 1569, 
  "пу@@": 1570, 
  "ите": 1571, 
  "жителей": 1572, 
  "местах": 1573, 
  "льным": 1574, 
  "сколько": 1575, 
  "обеих": 1576, 
  "рованные": 1577, 
  "тысяч": 1578, 
  "считает": 1579, 
  "Ю@@": 1580, 
  "народа": 1581, 
  "На@@": 1582, 
  "прибыль": 1583, 
  "зависимости": 1584, 
  "показывают": 1585, 
  "видимому": 1586, 
  "усилий": 1587, 
  "стов": 1588, 
  "ительным": 1589, 
  "сло@@": 1590, 
  "различия": 1591, 
  "срок": 1592, 
  "экономисты": 1593, 
  "снижения": 1594, 
  "американская": 1595, 
  "смерти": 1596, 
  "плане": 1597, 
  "лица": 1598, 
  "вперед": 1599, 
  "Л@@": 1600, 
  "борьба": 1601, 
  "договора": 1602, 
  "конкуренции": 1603, 
  "войск": 1604, 
  "нов": 1605, 
  "оставаться": 1606, 
  "правило": 1607, 
  "вокруг": 1608, 
  "мом": 1609, 
  "счете": 1610, 
  "льного": 1611, 
  "1989": 1612, 
  "союз": 1613, 
  "социальные": 1614, 
  "чрезвычайно": 1615, 
  "ций": 1616, 
  "защитить": 1617, 
  "последний": 1618, 
  "ши@@": 1619, 
  "емого": 1620, 
  "$": 1621, 
  "терроризмом": 1622, 
  "станут": 1623, 
  "шей": 1624, 
  "вшихся": 1625, 
  "80": 1626, 
  "демократию": 1627, 
  "лу@@": 1628, 
  "доход": 1629, 
  "множество": 1630, 
  "расширение": 1631, 
  "удар": 1632, 
  "кризисом": 1633, 
  "ня@@": 1634, 
  "текущего": 1635, 
  "сты": 1636, 
  "данного": 1637, 
  "институты": 1638, 
  "потери": 1639, 
  "глобальных": 1640, 
  "работает": 1641, 
  "желание": 1642, 
  "рам": 1643, 
  "конца": 1644, 
  "обществе": 1645, 
  "производительности": 1646, 
  "управление": 1647, 
  "причине": 1648, 
  "внутренней": 1649, 
  "--": 1650, 
  "Сирии": 1651, 
  "глобальное": 1652, 
  "ен@@": 1653, 
  "перспективы": 1654, 
  "СМИ": 1655, 
  "любом": 1656, 
  "смысл": 1657, 
  "собственные": 1658, 
  "Ра@@": 1659, 
  "позволяет": 1660, 
  "ника": 1661, 
  "опасность": 1662, 
  "глобальный": 1663, 
  "ожидать": 1664, 
  "100": 1665, 
  "воды": 1666, 
  "принятие": 1667, 
  "пределами": 1668, 
  "будучи": 1669, 
  "двадцать": 1670, 
  "друга": 1671, 
  "группа": 1672, 
  "торговле": 1673, 
  "знает": 1674, 
  "много@@": 1675, 
  "ениями": 1676, 
  "Ираном": 1677, 
  "ясь": 1678, 
  "заставить": 1679, 
  "предложения": 1680, 
  "знают": 1681, 
  "групп": 1682, 
  "момента": 1683, 
  "государственной": 1684, 
  "армии": 1685, 
  "партий": 1686, 
  "необходимы": 1687, 
  "нес@@": 1688, 
  "Большой": 1689, 
  "каждого": 1690, 
  "социального": 1691, 
  "победу": 1692, 
  "примером": 1693, 
  "выгоду": 1694, 
  "кон@@": 1695, 
  "важные": 1696, 
  "позволит": 1697, 
  "быстрее": 1698, 
  "ими": 1699, 
  "справиться": 1700, 
  "доля": 1701, 
  "ри": 1702, 
  "долгов": 1703, 
  "требуют": 1704, 
  "вопросу": 1705, 
  "составляют": 1706, 
  "периода": 1707, 
  "ран@@": 1708, 
  "экономическом": 1709, 
  "высокой": 1710, 
  "терроризма": 1711, 
  "зм": 1712, 
  "вую": 1713, 
  "бу@@": 1714, 
  "сме@@": 1715, 
  "долю": 1716, 
  "прогресс": 1717, 
  "ческом": 1718, 
  "задачей": 1719, 
  "спада": 1720, 
  "цена": 1721, 
  "своему": 1722, 
  "растет": 1723, 
  "американский": 1724, 
  "ер@@": 1725, 
  "дов": 1726, 
  "зо@@": 1727, 
  "защиту": 1728, 
  "последствий": 1729, 
  "руя": 1730, 
  "убедить": 1731, 
  "получают": 1732, 
  "систем": 1733, 
  "ско@@": 1734, 
  "наи@@": 1735, 
  "организаций": 1736, 
  "ления": 1737, 
  "ру": 1738, 
  "производ@@": 1739, 
  "экспорт": 1740, 
  "общественности": 1741, 
  "уровнем": 1742, 
  "вопросах": 1743, 
  "чен": 1744, 
  "приблизительно": 1745, 
  "Востока": 1746, 
  "хо@@": 1747, 
  "шанс": 1748, 
  "взять": 1749, 
  "деятельность": 1750, 
  "активы": 1751, 
  "полной": 1752, 
  "поддержке": 1753, 
  "проект": 1754, 
  "ит@@": 1755, 
  "вались": 1756, 
  "борьбу": 1757, 
  "же@@": 1758, 
  "историю": 1759, 
  "ё@@": 1760, 
  "неу@@": 1761, 
  "причинам": 1762, 
  "ста": 1763, 
  "первым": 1764, 
  "относится": 1765, 
  "китайские": 1766, 
  "едва": 1767, 
  "Центральной": 1768, 
  "единственным": 1769, 
  "заявил": 1770, 
  "экономическому": 1771, 
  "ги": 1772, 
  "Китаю": 1773, 
  "сть": 1774, 
  "оба": 1775, 
  "случаев": 1776, 
  "имели": 1777, 
  "законы": 1778, 
  "другого": 1779, 
  "важность": 1780, 
  "опасности": 1781, 
  "нуть": 1782, 
  "чески": 1783, 
  "гражданского": 1784, 
  "бра@@": 1785, 
  "фирмы": 1786, 
  "питания": 1787, 
  "лидера": 1788, 
  "демократической": 1789, 
  "рование": 1790, 
  "nbsp": 1791, 
  "неизбежно": 1792, 
  "позицию": 1793, 
  "суд": 1794, 
  "подобным": 1795, 
  "Украины": 1796, 
  "дебаты": 1797, 
  "бедные": 1798, 
  "правил": 1799, 
  "2002": 1800, 
  "мировые": 1801, 
  "шаги": 1802, 
  "тного": 1803, 
  "данном": 1804, 
  "будем": 1805, 
  "высоких": 1806, 
  "государственный": 1807, 
  "культуры": 1808, 
  "90": 1809, 
  "европейского": 1810, 
  "·": 1811, 
  "игры": 1812, 
  "Ба@@": 1813, 
  "положении": 1814, 
  "ростом": 1815, 
  "зоны": 1816, 
  "валютного": 1817, 
  "таком": 1818, 
  "бизнеса": 1819, 
  "необходимые": 1820, 
  "фа@@": 1821, 
  "граждане": 1822, 
  "гаранти@@": 1823, 
  "характер": 1824, 
  "лидер": 1825, 
  "бес@@": 1826, 
  "установить": 1827, 
  "рода": 1828, 
  "принципы": 1829, 
  "шая": 1830, 
  "Бразилии": 1831, 
  "нача@@": 1832, 
  "70": 1833, 
  "этими": 1834, 
  "демократические": 1835, 
  "поро@@": 1836, 
  "высоким": 1837, 
  "нашего": 1838, 
  "стремятся": 1839, 
  "производство": 1840, 
  "вший": 1841, 
  "урок": 1842, 
  "связанные": 1843, 
  "миром": 1844, 
  "программу": 1845, 
  "вероятность": 1846, 
  "программа": 1847, 
  "занятости": 1848, 
  "целях": 1849, 
  "основным": 1850, 
  "вам": 1851, 
  "Пакистан": 1852, 
  "чное": 1853, 
  "ющейся": 1854, 
  "плохо": 1855, 
  "щий": 1856, 
  "расширения": 1857, 
  "известно": 1858, 
  "большого": 1859, 
  "важных": 1860, 
  "самая": 1861, 
  "создании": 1862, 
  "разных": 1863, 
  "определить": 1864, 
  "войска": 1865, 
  "мусульман": 1866, 
  "мым": 1867, 
  "щая": 1868, 
  "объяснить": 1869, 
  "ценных": 1870, 
  "насилие": 1871, 
  "ФРС": 1872, 
  "тный": 1873, 
  "внутренних": 1874, 
  "мые": 1875, 
  "финансовую": 1876, 
  "т.к.": 1877, 
  "смог": 1878, 
  "центральные": 1879, 
  "кредитов": 1880, 
  "реальной": 1881, 
  "наше": 1882, 
  "ценностей": 1883, 
  "стремление": 1884, 
  "проводить": 1885, 
  "примеру": 1886, 
  "постепенно": 1887, 
  "немного": 1888, 
  "иностранные": 1889, 
  "обеспечение": 1890, 
  "выгоды": 1891, 
  "международным": 1892, 
  "регион": 1893, 
  "темпы": 1894, 
  "фе@@": 1895, 
  "независимость": 1896, 
  "оста@@": 1897, 
  "сов": 1898, 
  "льную": 1899, 
  "тной": 1900, 
  "жизненно": 1901, 
  "финансовая": 1902, 
  "президентских": 1903, 
  "приходится": 1904, 
  "бизнес": 1905, 
  "сама": 1906, 
  "значительные": 1907, 
  "идею": 1908, 
  "видов": 1909, 
  "уда@@": 1910, 
  "времен": 1911, 
  "открыто": 1912, 
  "народ": 1913, 
  "Е@@": 1914, 
  "всю": 1915, 
  "ходе": 1916, 
  "надеяться": 1917, 
  "ено": 1918, 
  "ровала": 1919, 
  "считать": 1920, 
  "привела": 1921, 
  "лицом": 1922, 
  "Грузии": 1923, 
  "необходима": 1924, 
  "лежит": 1925, 
  "членами": 1926, 
  "многое": 1927, 
  "обязательств": 1928, 
  "нечто": 1929, 
  "мо": 1930, 
  "ительный": 1931, 
  "Ха@@": 1932, 
  "порядок": 1933, 
  "1970": 1934, 
  "каждой": 1935, 
  "рованной": 1936, 
  "кие": 1937, 
  "санкции": 1938, 
  "огромное": 1939, 
  "1999": 1940, 
  "потребуется": 1941, 
  "9": 1942, 
  "главный": 1943, 
  "отдельных": 1944, 
  "фонд": 1945, 
  "нуждается": 1946, 
  "договор": 1947, 
  "вмешательства": 1948, 
  "никакой": 1949, 
  "представителей": 1950, 
  "однажды": 1951, 
  "само": 1952, 
  "чная": 1953, 
  "ву": 1954, 
  "кор@@": 1955, 
  "работают": 1956, 
  "людьми": 1957, 
  "принимая": 1958, 
  "арабских": 1959, 
  "стремится": 1960, 
  "ью": 1961, 
  "первую": 1962, 
  "Са@@": 1963, 
  "социальных": 1964, 
  "учреждений": 1965, 
  "сотни": 1966, 
  "финансовым": 1967, 
  "среднего": 1968, 
  "Саудовской": 1969, 
  "няя": 1970, 
  "понимание": 1971, 
  "другое": 1972, 
  "органы": 1973, 
  "данная": 1974, 
  "другая": 1975, 
  "раза": 1976, 
  "веке": 1977, 
  "Россию": 1978, 
  "стратегию": 1979, 
  "7": 1980, 
  "миллиона": 1981, 
  "получили": 1982, 
  "дней": 1983, 
  "вследствие": 1984, 
  "благосостояния": 1985, 
  "жела@@": 1986, 
  "серьезно": 1987, 
  "ослаб@@": 1988, 
  "внутренние": 1989, 
  "состоя@@": 1990, 
  "всеми": 1991, 
  "ряд": 1992, 
  "риски": 1993, 
  "страх": 1994, 
  "полу@@": 1995, 
  "ар@@": 1996, 
  "современной": 1997, 
  "гарантировать": 1998, 
  "преимущества": 1999, 
  "собственности": 2000, 
  "опасения": 2001, 
  "науки": 2002, 
  "сбережений": 2003, 
  "меж@@": 2004, 
  "душу": 2005, 
  "циями": 2006, 
  "эффективность": 2007, 
  "нему": 2008, 
  "голоса": 2009, 
  "распространение": 2010, 
  "чены": 2011, 
  "поколения": 2012, 
  "рассматривать": 2013, 
  "гом": 2014, 
  "жители": 2015, 
  "решением": 2016, 
  "мых": 2017, 
  "сторонники": 2018, 
  "емым": 2019, 
  "главной": 2020, 
  "запре@@": 2021, 
  "вшиеся": 2022, 
  "переход": 2023, 
  "частных": 2024, 
  "ительное": 2025, 
  "льная": 2026, 
  "емое": 2027, 
  "тра@@": 2028, 
  "теории": 2029, 
  "Бразилия": 2030, 
  "числа": 2031, 
  "Газа": 2032, 
  "отда@@": 2033, 
  "программ": 2034, 
  "ющиеся": 2035, 
  "политически": 2036, 
  "12": 2037, 
  "наблюдается": 2038, 
  "какое": 2039, 
  "Ма@@": 2040, 
  "цам": 2041, 
  "вмешательство": 2042, 
  "гор@@": 2043, 
  "лен": 2044, 
  "ошибки": 2045, 
  "частного": 2046, 
  "показали": 2047, 
  "цен@@": 2048, 
  "ведет": 2049, 
  "никами": 2050, 
  "ениям": 2051, 
  "тия": 2052, 
  "вернуться": 2053, 
  "удивительно": 2054, 
  "связь": 2055, 
  "интересах": 2056, 
  "голо@@": 2057, 
  "думать": 2058, 
  "подхода": 2059, 
  "задачи": 2060, 
  "успешно": 2061, 
  "пода@@": 2062, 
  "отказаться": 2063, 
  "мировую": 2064, 
  "ом": 2065, 
  "молодых": 2066, 
  "Великобритания": 2067, 
  "сле@@": 2068, 
  "правда": 2069, 
  "стороне": 2070, 
  "областях": 2071, 
  "щих": 2072, 
  "принцип": 2073, 
  "местных": 2074, 
  "кандидатов": 2075, 
  "важную": 2076, 
  "род@@": 2077, 
  "ятся": 2078, 
  "среднем": 2079, 
  "продукции": 2080, 
  "миллиарда": 2081, 
  "#": 2082, 
  "ман@@": 2083, 
  "останется": 2084, 
  "ческому": 2085, 
  "стра@@": 2086, 
  "бумаг": 2087, 
  "сложно": 2088, 
  "руется": 2089, 
  "десятилетие": 2090, 
  "Испании": 2091, 
  "бороться": 2092, 
  "нации": 2093, 
  "рыночной": 2094, 
  "большего": 2095, 
  "террористов": 2096, 
  "отказ": 2097, 
  "поведения": 2098, 
  "интересам": 2099, 
  "бедным": 2100, 
  "весьма": 2101, 
  "З@@": 2102, 
  "ха": 2103, 
  "лов": 2104, 
  "кому": 2105, 
  "потенциал": 2106, 
  "сти": 2107, 
  "ущерб": 2108, 
  "т.е.": 2109, 
  "кий": 2110, 
  "подобно": 2111, 
  "знаем": 2112, 
  "взаимо@@": 2113, 
  "типа": 2114, 
  "меньшей": 2115, 
  "верно": 2116, 
  "Саддама": 2117, 
  "напротив": 2118, 
  "вступления": 2119, 
  "революция": 2120, 
  "крах": 2121, 
  "гу@@": 2122, 
  "вызов": 2123, 
  "ительная": 2124, 
  "налоги": 2125, 
  "щим": 2126, 
  "эффективности": 2127, 
  "управлять": 2128, 
  "закры@@": 2129, 
  "пределы": 2130, 
  "разде@@": 2131, 
  "хорошие": 2132, 
  "мая": 2133, 
  "частные": 2134, 
  "наряду": 2135, 
  "форме": 2136, 
  "торговых": 2137, 
  "заме@@": 2138, 
  "существование": 2139, 
  "первые": 2140, 
  "2@@": 2141, 
  "поможет": 2142, 
  "сторонников": 2143, 
  "значит": 2144, 
  "Ч@@": 2145, 
  "мирного": 2146, 
  "прогресса": 2147, 
  "министром": 2148, 
  "пол@@": 2149, 
  "обязательно": 2150, 
  "уменьшить": 2151, 
  "кими": 2152, 
  "вопроса": 2153, 
  "местные": 2154, 
  "ге@@": 2155, 
  "показатели": 2156, 
  "организо@@": 2157, 
  "выбросы": 2158, 
  "взгляд": 2159, 
  "порядка": 2160, 
  "бывшего": 2161, 
  "получил": 2162, 
  "источником": 2163, 
  "ради": 2164, 
  "рабочей": 2165, 
  "основу": 2166, 
  "европейцев": 2167, 
  "столетия": 2168, 
  "тно": 2169, 
  "подобных": 2170, 
  "оценки": 2171, 
  "дам": 2172, 
  "жертв": 2173, 
  "защите": 2174, 
  "различные": 2175, 
  "земли": 2176, 
  "гарантии": 2177, 
  "мер@@": 2178, 
  "ге": 2179, 
  "сы": 2180, 
  "миллионы": 2181, 
  "опять": 2182, 
  "дали": 2183, 
  "тным": 2184, 
  "справедливости": 2185, 
  "достигнуть": 2186, 
  "последнего": 2187, 
  "валют": 2188, 
  "продуктов": 2189, 
  "тро@@": 2190, 
  "Ближнего": 2191, 
  "вало": 2192, 
  "политическими": 2193, 
  "Украине": 2194, 
  "Западной": 2195, 
  "a": 2196, 
  "формы": 2197, 
  "ким": 2198, 
  "месяце": 2199, 
  "концу": 2200, 
  "чей": 2201, 
  "1997": 2202, 
  "стом": 2203, 
  "жен@@": 2204, 
  "связаны": 2205, 
  "теми": 2206, 
  "ос@@": 2207, 
  "данное": 2208, 
  "ти": 2209, 
  "вшего": 2210, 
  "живут": 2211, 
  "оказать": 2212, 
  "внутреннего": 2213, 
  "реальные": 2214, 
  "руки": 2215, 
  "ление": 2216, 
  "поддерживают": 2217, 
  "города": 2218, 
  "ниях": 2219, 
  "шего": 2220, 
  "Не@@": 2221, 
  "жение": 2222, 
  "противостоять": 2223, 
  "1@@": 2224, 
  "телей": 2225, 
  "йского": 2226, 
  "выбора": 2227, 
  "ум@@": 2228, 
  "десяти": 2229, 
  "роваться": 2230, 
  "мое": 2231, 
  "рах": 2232, 
  "чную": 2233, 
  "суда": 2234, 
  "класса": 2235, 
  "стами": 2236, 
  "&apos;": 2237, 
  "следующих": 2238, 
  "ер": 2239, 
  "долги": 2240, 
  "Европой": 2241, 
  "операции": 2242, 
  "вной": 2243, 
  "Совет": 2244, 
  "столько": 2245, 
  "кую": 2246, 
  "тся": 2247, 
  "льно": 2248, 
  "потребует": 2249, 
  "любое": 2250, 
  "пытаются": 2251, 
  "ющийся": 2252, 
  "денежной": 2253, 
  "редко": 2254, 
  "дав@@": 2255, 
  "чаще": 2256, 
  "потребление": 2257, 
  "щения": 2258, 
  "финансирование": 2259, 
  "бедность": 2260, 
  "долгосрочной": 2261, 
  "ве": 2262, 
  "каких": 2263, 
  "голосования": 2264, 
  "окажется": 2265, 
  "значительное": 2266, 
  "пытается": 2267, 
  "предполагает": 2268, 
  "обмен": 2269, 
  "увеличению": 2270, 
  "начинают": 2271, 
  "лении": 2272, 
  "затрат": 2273, 
  "кар@@": 2274, 
  "глобализация": 2275, 
  "глубоко": 2276, 
  "создает": 2277, 
  "щие": 2278, 
  "скры@@": 2279, 
  "шагом": 2280, 
  "Южная": 2281, 
  "европейская": 2282, 
  "ак@@": 2283, 
  "подразумевает": 2284, 
  "избиратели": 2285, 
  "Афганистана": 2286, 
  "ёт": 2287, 
  "лением": 2288, 
  "Джордж": 2289, 
  "действие": 2290, 
  "победы": 2291, 
  "цену": 2292, 
  "рецессии": 2293, 
  "льное": 2294, 
  "выглядит": 2295, 
  "дал": 2296, 
  "фактором": 2297, 
  "це@@": 2298, 
  "тенденции": 2299, 
  "оказалась": 2300, 
  "акции": 2301, 
  "de": 2302, 
  "баланс": 2303, 
  "хи@@": 2304, 
  "играет": 2305, 
  "поддержкой": 2306, 
  "ц": 2307, 
  "сути": 2308, 
  "чиновники": 2309, 
  "общественное": 2310, 
  "мировая": 2311, 
  "ких": 2312, 
  "ря@@": 2313, 
  "должности": 2314, 
  "школы": 2315, 
  "ера": 2316, 
  "ниям": 2317, 
  "единственной": 2318, 
  "развитии": 2319, 
  "хватает": 2320, 
  "победа": 2321, 
  "завер@@": 2322, 
  "поддерживает": 2323, 
  "речь": 2324, 
  "работе": 2325, 
  "Меркель": 2326, 
  "пришло": 2327, 
  "ительно": 2328, 
  "вшей": 2329, 
  "общих": 2330, 
  "Кембридж": 2331, 
  "циях": 2332, 
  "данным": 2333, 
  "печа@@": 2334, 
  "ником": 2335, 
  "лечения": 2336, 
  "ведут": 2337, 
  "помимо": 2338, 
  "контролировать": 2339, 
  "уверенность": 2340, 
  "терроризм": 2341, 
  "услуги": 2342, 
  "согласия": 2343, 
  "руководством": 2344, 
  "обещания": 2345, 
  "парламента": 2346, 
  "получения": 2347, 
  "инфляция": 2348, 
  "вшейся": 2349, 
  "счастью": 2350, 
  "ционной": 2351, 
  "1998": 2352, 
  "остальные": 2353, 
  "общий": 2354, 
  "парламент": 2355, 
  "тых": 2356, 
  "чер@@": 2357, 
  "ительную": 2358, 
  "потенциально": 2359, 
  "скажем": 2360, 
  "чено": 2361, 
  "пяти": 2362, 
  "кра@@": 2363, 
  "лиц": 2364, 
  "следующий": 2365, 
  "общие": 2366, 
  "любого": 2367, 
  "Аравии": 2368, 
  "значения": 2369, 
  "лой": 2370, 
  "ядерное": 2371, 
  "реш@@": 2372, 
  "абсолютно": 2373, 
  "Ко@@": 2374, 
  "ительного": 2375, 
  "вывод": 2376, 
  "одном": 2377, 
  "преступления": 2378, 
  "предлагает": 2379, 
  "вынуждены": 2380, 
  "реакция": 2381, 
  "лами": 2382, 
  "чена": 2383, 
  "состав": 2384, 
  "гра@@": 2385, 
  "органов": 2386, 
  "заявления": 2387, 
  "общественных": 2388, 
  "ниями": 2389, 
  "предстоит": 2390, 
  "благо@@": 2391, 
  "месте": 2392, 
  "мыми": 2393, 
  "торговля": 2394, 
  "енные": 2395, 
  "тельные": 2396, 
  "Организации": 2397, 
  "щего": 2398, 
  "лидером": 2399, 
  "Ким": 2400, 
  "важной": 2401, 
  "правильно": 2402, 
  "инициативы": 2403, 
  "ший": 2404, 
  "знать": 2405, 
  "китайских": 2406, 
  "фирм": 2407, 
  "здоровья": 2408, 
  "военное": 2409, 
  "Ливии": 2410, 
  "давления": 2411, 
  "б": 2412, 
  "18": 2413, 
  "властью": 2414, 
  "наличие": 2415, 
  "жать": 2416, 
  "емая": 2417, 
  "сделает": 2418, 
  "сначала": 2419, 
  "вался": 2420, 
  "равно": 2421, 
  "все@@": 2422, 
  "Клинтон": 2423, 
  "торы": 2424, 
  "дети": 2425, 
  "стимулы": 2426, 
  "чиновников": 2427, 
  "уничто@@": 2428, 
  "проведение": 2429, 
  "провал": 2430, 
  "сегодняшней": 2431, 
  "снизить": 2432, 
  "Барак": 2433, 
  "нужны": 2434, 
  "ениях": 2435, 
  "ска@@": 2436, 
  "чу@@": 2437, 
  "международный": 2438, 
  "работа": 2439, 
  "логи@@": 2440, 
  "державы": 2441, 
  "поражение": 2442, 
  "конфликтов": 2443, 
  "пришлось": 2444, 
  "начинает": 2445, 
  "отличается": 2446, 
  "впечатление": 2447, 
  "стремиться": 2448, 
  "представители": 2449, 
  "единственный": 2450, 
  "силами": 2451, 
  "отде@@": 2452, 
  "мар@@": 2453, 
  "Египта": 2454, 
  "бюджет": 2455, 
  "платить": 2456, 
  "центрального": 2457, 
  "конференции": 2458, 
  "многим": 2459, 
  "ционные": 2460, 
  "платы": 2461, 
  "нять": 2462, 
  "инвести@@": 2463, 
  "зы": 2464, 
  "енных": 2465, 
  "йский": 2466, 
  "кла@@": 2467, 
  "информацию": 2468, 
  "уч@@": 2469, 
  "инфраструктуры": 2470, 
  "тор@@": 2471, 
  "ред@@": 2472, 
  "скоро": 2473, 
  "тными": 2474, 
  "основания": 2475, 
  "регионах": 2476, 
  "настро@@": 2477, 
  "щими": 2478, 
  "обще@@": 2479, 
  "западные": 2480, 
  "вроде": 2481, 
  "идей": 2482, 
  "лей": 2483, 
  "неравенства": 2484, 
  "он@@": 2485, 
  "налог": 2486, 
  "зна@@": 2487, 
  "каждая": 2488, 
  "плана": 2489, 
  "массового": 2490, 
  "иначе": 2491, 
  "сделала": 2492, 
  "сильной": 2493, 
  "планы": 2494, 
  "тную": 2495, 
  "ща@@": 2496, 
  "зации": 2497, 
  "Со@@": 2498, 
  "правительственных": 2499, 
  "рован": 2500, 
  "банкам": 2501, 
  "предложить": 2502, 
  "процветания": 2503, 
  "беспокойство": 2504, 
  "160": 2505, 
  "критики": 2506, 
  "главе": 2507, 
  "куда": 2508, 
  "спасти": 2509, 
  "свобода": 2510, 
  "1991": 2511, 
  "поддержива@@": 2512, 
  "поня@@": 2513, 
  "ор@@": 2514, 
  "нах": 2515, 
  "понимания": 2516, 
  "видеть": 2517, 
  "остальной": 2518, 
  "вз@@": 2519, 
  "срока": 2520, 
  "последова@@": 2521, 
  "средний": 2522, 
  "экономик": 2523, 
  "состояние": 2524, 
  "щены": 2525, 
  "хотел": 2526, 
  "-@@": 2527, 
  "ба": 2528, 
  "рованным": 2529, 
  "нестабильности": 2530, 
  "торговые": 2531, 
  "принципов": 2532, 
  "мусульмане": 2533, 
  "заня@@": 2534, 
  "хотели": 2535, 
  "кри@@": 2536, 
  "декабре": 2537, 
  "понимают": 2538, 
  "Па@@": 2539, 
  "продукты": 2540, 
  "президенту": 2541, 
  "рен@@": 2542, 
  "обладает": 2543, 
  "шим": 2544, 
  "кризисов": 2545, 
  "развитые": 2546, 
  "ско": 2547, 
  "уз@@": 2548, 
  "циям": 2549, 
  "ждать": 2550, 
  "наша": 2551, 
  "вернуть": 2552, 
  "потепления": 2553, 
  "резер@@": 2554, 
  "сильнее": 2555, 
  "организация": 2556, 
  "ших": 2557, 
  "гре@@": 2558, 
  "семей": 2559, 
  "глобальные": 2560, 
  "прода@@": 2561, 
  "стимулов": 2562, 
  "тельной": 2563, 
  "мягкой": 2564, 
  "будто": 2565, 
  "гу": 2566, 
  "пита@@": 2567, 
  "бро@@": 2568, 
  "облигации": 2569, 
  "оружием": 2570, 
  "неравенство": 2571, 
  "смогла": 2572, 
  "проекта": 2573, 
  "считается": 2574, 
  "означать": 2575, 
  "вра@@": 2576, 
  "половины": 2577, 
  "предположительно": 2578, 
  "жесткой": 2579, 
  "лены": 2580, 
  "общественной": 2581, 
  "сразу": 2582, 
  "углекислого": 2583, 
  "руководители": 2584, 
  "элиты": 2585, 
  "ров@@": 2586, 
  "рована": 2587, 
  "Америкой": 2588, 
  "участников": 2589, 
  "ядерным": 2590, 
  "высокого": 2591, 
  "рисков": 2592, 
  "ете": 2593, 
  "стоят": 2594, 
  "наш": 2595, 
  "ученые": 2596, 
  "руках": 2597, 
  "вод@@": 2598, 
  "ски": 2599, 
  "Си@@": 2600, 
  "Га@@": 2601, 
  "торов": 2602, 
  "распространения": 2603, 
  "18@@": 2604, 
  "Сербии": 2605, 
  "вызвать": 2606, 
  "фи@@": 2607, 
  "лен@@": 2608, 
  "важный": 2609, 
  "Египет": 2610, 
  "обстоятельствах": 2611, 
  "следующем": 2612, 
  "Палестины": 2613, 
  "Ва@@": 2614, 
  "ствами": 2615, 
  "тор": 2616, 
  "преодолеть": 2617, 
  "сильный": 2618, 
  "левых": 2619, 
  "ляет": 2620, 
  "улуч@@": 2621, 
  "поколение": 2622, 
  "первое": 2623, 
  "увидеть": 2624, 
  "бы@@": 2625, 
  "шие": 2626, 
  "ющимся": 2627, 
  "заявление": 2628, 
  "жа": 2629, 
  "ограничений": 2630, 
  "непосредственно": 2631, 
  "западных": 2632, 
  "иностранной": 2633, 
  "центре": 2634, 
  "угрожает": 2635, 
  "валютный": 2636, 
  "ственные": 2637, 
  "середине": 2638, 
  "остальных": 2639, 
  "коалиции": 2640, 
  "возможным": 2641, 
  "улучшения": 2642, 
  "соседей": 2643, 
  "собственную": 2644, 
  "тенденцию": 2645, 
  "главных": 2646, 
  "Египте": 2647, 
  "льными": 2648, 
  "Америку": 2649, 
  "Западе": 2650, 
  "убе@@": 2651, 
  "фонда": 2652, 
  "любая": 2653, 
  "защищать": 2654, 
  "Афганистан": 2655, 
  "огромный": 2656, 
  "Советского": 2657, 
  "оказался": 2658, 
  "способны": 2659, 
  "имя": 2660, 
  "ун@@": 2661, 
  "оказалось": 2662, 
  "Берлускони": 2663, 
  "опыта": 2664, 
  "тил": 2665, 
  "кредиты": 2666, 
  "собственного": 2667, 
  "тай@@": 2668, 
  "направленные": 2669, 
  "обсуждения": 2670, 
  "военный": 2671, 
  "какая": 2672, 
  "старые": 2673, 
  "включает": 2674, 
  "обре@@": 2675, 
  "ять": 2676, 
  "фонды": 2677, 
  "поставить": 2678, 
  "уроки": 2679, 
  "шесть": 2680, 
  "ВТО": 2681, 
  "китайского": 2682, 
  "депрессии": 2683, 
  "неспособность": 2684, 
  "построить": 2685, 
  "Украина": 2686, 
  "повысить": 2687, 
  "обвинения": 2688, 
  "называют": 2689, 
  "сегодняшние": 2690, 
  "бум": 2691, 
  "принести": 2692, 
  "факторов": 2693, 
  "вопросе": 2694, 
  "Чили": 2695, 
  "используют": 2696, 
  "кая": 2697, 
  "политическом": 2698, 
  "сети": 2699, 
  "ожида@@": 2700, 
  "связанных": 2701, 
  "змом": 2702, 
  "единой": 2703, 
  "ительными": 2704, 
  "границ": 2705, 
  "приняли": 2706, 
  "гражданских": 2707, 
  "Восток": 2708, 
  "позже": 2709, 
  "вшим": 2710, 
  "решении": 2711, 
  "Корее": 2712, 
  "показал": 2713, 
  "чему": 2714, 
  "улучшить": 2715, 
  "важное": 2716, 
  "ставит": 2717, 
  "ди": 2718, 
  "некоторое": 2719, 
  "реформа": 2720, 
  "союзников": 2721, 
  "необходимых": 2722, 
  "тила": 2723, 
  "законов": 2724, 
  "дить": 2725, 
  "мый": 2726, 
  "лидерами": 2727, 
  "палестинского": 2728, 
  "сла@@": 2729, 
  "демократического": 2730, 
  "Ми@@": 2731, 
  "возникает": 2732, 
  "Мао": 2733, 
  "следовать": 2734, 
  "привел": 2735, 
  "относятся": 2736, 
  "предпринять": 2737, 
  "вид": 2738, 
  "попытка": 2739, 
  "богатства": 2740, 
  "Ли@@": 2741, 
  "какую": 2742, 
  "анти": 2743, 
  "лучшим": 2744, 
  "стской": 2745, 
  "имел": 2746, 
  "взгляды": 2747, 
  "новости": 2748, 
  "рованный": 2749, 
  "компания": 2750, 
  "регулирование": 2751, 
  "све@@": 2752, 
  "Я@@": 2753, 
  "недавнего": 2754, 
  "пост@@": 2755, 
  "заработной": 2756, 
  "Иране": 2757, 
  "низким": 2758, 
  "капитализма": 2759, 
  "управля@@": 2760, 
  "Банк": 2761, 
  "емся": 2762, 
  "нуждаются": 2763, 
  "избира@@": 2764, 
  "порядке": 2765, 
  "правительственные": 2766, 
  "дами": 2767, 
  "случай": 2768, 
  "сильное": 2769, 
  "чение": 2770, 
  "окончания": 2771, 
  "уча@@": 2772, 
  "уйти": 2773, 
  "образ@@": 2774, 
  "центральный": 2775, 
  "лиш@@": 2776, 
  "име@@": 2777, 
  "Лондон": 2778, 
  "2011": 2779, 
  "идти": 2780, 
  "Ан@@": 2781, 
  "обо@@": 2782, 
  "ведь": 2783, 
  "знаний": 2784, 
  "противо@@": 2785, 
  "разработки": 2786, 
  "утверждает": 2787, 
  "экономически": 2788, 
  "тором": 2789, 
  "быстрого": 2790, 
  "эффективным": 2791, 
  "воздействия": 2792, 
  "серьезной": 2793, 
  "ственных": 2794, 
  "Штатами": 2795, 
  "искать": 2796, 
  "ющееся": 2797, 
  "применения": 2798, 
  "Джорджа": 2799, 
  "идут": 2800, 
  "Европейской": 2801, 
  "кредитно": 2802, 
  "свободного": 2803, 
  "Та@@": 2804, 
  "позиция": 2805, 
  "первом": 2806, 
  "конфликты": 2807, 
  "Пакистане": 2808, 
  "реакции": 2809, 
  "способы": 2810, 
  "войн": 2811, 
  "вторая": 2812, 
  "вные": 2813, 
  "санкций": 2814, 
  "доступа": 2815, 
  "используя": 2816, 
  "19": 2817, 
  "палестинцы": 2818, 
  "торгового": 2819, 
  "Ху": 2820, 
  "конкурентоспособности": 2821, 
  "поражения": 2822, 
  "ван@@": 2823, 
  "продолжа@@": 2824, 
  "своё": 2825, 
  "ожидания": 2826, 
  "недвижимости": 2827, 
  "долгосрочные": 2828, 
  "должность": 2829, 
  "коммунизма": 2830, 
  "китайской": 2831, 
  "смерть": 2832, 
  "обнару@@": 2833, 
  "тельных": 2834, 
  "играют": 2835, 
  "ств": 2836, 
  "данную": 2837, 
  "матери@@": 2838, 
  "Великой": 2839, 
  "ноябре": 2840, 
  "третьих": 2841, 
  "работников": 2842, 
  "отсутствии": 2843, 
  "самих": 2844, 
  "практике": 2845, 
  "ционных": 2846, 
  "По@@": 2847, 
  "признание": 2848, 
  "иммигрантов": 2849, 
  "тые": 2850, 
  "региональной": 2851, 
  "твор@@": 2852, 
  "общая": 2853, 
  "3@@": 2854, 
  "разногласия": 2855, 
  "вшийся": 2856, 
  "речи": 2857, 
  "зму": 2858, 
  "счета": 2859, 
  "животных": 2860, 
  "строительство": 2861, 
  "предоставляет": 2862, 
  "убийства": 2863, 
  "настоящий": 2864, 
  "рой": 2865, 
  "подобного": 2866, 
  "последней": 2867, 
  "нных": 2868, 
  "удастся": 2869, 
  "потребителей": 2870, 
  "интерес": 2871, 
  "степень": 2872, 
  "назвать": 2873, 
  "кле@@": 2874, 
  "достижение": 2875, 
  "правление": 2876, 
  "министров": 2877, 
  "осуществить": 2878, 
  "замед@@": 2879, 
  "неудачу": 2880, 
  "военная": 2881, 
  "гражданской": 2882, 
  "некоторым": 2883, 
  "вшись": 2884, 
  "ваны": 2885, 
  "1960": 2886, 
  "разру@@": 2887, 
  "террористических": 2888, 
  "контролем": 2889, 
  "За@@": 2890, 
  "недель": 2891, 
  "Гаити": 2892, 
  "рованного": 2893, 
  "серьезных": 2894, 
  "О": 2895, 
  "...": 2896, 
  "хозяйства": 2897, 
  "ВИЧ": 2898, 
  "разработать": 2899, 
  "вооруженных": 2900, 
  "операций": 2901, 
  "перемены": 2902, 
  "o": 2903, 
  "пойти": 2904, 
  "интеграция": 2905, 
  "предотвращения": 2906, 
  "руются": 2907, 
  "принял": 2908, 
  "спор@@": 2909, 
  "ликвидности": 2910, 
  "Комиссия": 2911, 
  "дни": 2912, 
  "американским": 2913, 
  "утра@@": 2914, 
  "нападения": 2915, 
  "масштабе": 2916, 
  "Ме@@": 2917, 
  "практи@@": 2918, 
  "вступление": 2919, 
  "16": 2920, 
  "тое": 2921, 
  "виду": 2922, 
  "вя@@": 2923, 
  "Азия": 2924, 
  "прошлое": 2925, 
  "центральных": 2926, 
  "ителей": 2927, 
  "дополнительные": 2928, 
  "шение": 2929, 
  "способствует": 2930, 
  "факторы": 2931, 
  "нашу": 2932, 
  "Северная": 2933, 
  "разработа@@": 2934, 
  "возглавля@@": 2935, 
  "желания": 2936, 
  "понятно": 2937, 
  "обра@@": 2938, 
  "системой": 2939, 
  "предприятий": 2940, 
  "емыми": 2941, 
  "общественные": 2942, 
  "говорили": 2943, 
  "официальные": 2944, 
  "ориенти@@": 2945, 
  "подобная": 2946, 
  "видят": 2947, 
  "другому": 2948, 
  "тан@@": 2949, 
  "далее": 2950, 
  "другую": 2951, 
  "поддержания": 2952, 
  "Комиссии": 2953, 
  "государствами": 2954, 
  "Евросоюз": 2955, 
  "экономическими": 2956, 
  "одно@@": 2957, 
  "бремя": 2958, 
  "щее": 2959, 
  "качества": 2960, 
  "строительства": 2961, 
  "устра@@": 2962, 
  "снижению": 2963, 
  "ня": 2964, 
  "установления": 2965, 
  "быстрый": 2966, 
  "хоть": 2967, 
  "право@@": 2968, 
  "Всемирного": 2969, 
  "границей": 2970, 
  "сопротивление": 2971, 
  "Западом": 2972, 
  "ита": 2973, 
  "полагают": 2974, 
  "пло@@": 2975, 
  "тель": 2976, 
  "содержа@@": 2977, 
  "А": 2978, 
  "вещи": 2979, 
  "подобное": 2980, 
  "нут": 2981, 
  "общее": 2982, 
  "наци@@": 2983, 
  "человечества": 2984, 
  "решать": 2985, 
  "встречи": 2986, 
  "присутствие": 2987, 
  "эффективной": 2988, 
  "Ливане": 2989, 
  "болезни": 2990, 
  "сомнений": 2991, 
  "тысячи": 2992, 
  "мого": 2993, 
  "реальная": 2994, 
  "пор@@": 2995, 
  "тер@@": 2996, 
  "надежда": 2997, 
  "хва@@": 2998, 
  "неудивительно": 2999, 
  "преимущество": 3000, 
  "улучшение": 3001, 
  "ченные": 3002, 
  "ученых": 3003, 
  "региональных": 3004, 
  "многом": 3005, 
  "Японией": 3006, 
  "сильным": 3007, 
  "недавние": 3008, 
  "получа@@": 3009, 
  "ющегося": 3010, 
  "сильные": 3011, 
  "чувства": 3012, 
  "инфраструктуру": 3013, 
  "принимают": 3014, 
  "Греция": 3015, 
  "армия": 3016, 
  "топлива": 3017, 
  "говорил": 3018, 
  "рова@@": 3019, 
  "п": 3020, 
  "помогает": 3021, 
  "какого": 3022, 
  "уси@@": 3023, 
  "тельный": 3024, 
  "ющем": 3025, 
  "религиозных": 3026, 
  "зация": 3027, 
  "обоих": 3028, 
  "работа@@": 3029, 
  "тели": 3030, 
  "тная": 3031, 
  "источников": 3032, 
  "Каддафи": 3033, 
  "четко": 3034, 
  "сделано": 3035, 
  "Индией": 3036, 
  "предста@@": 3037, 
  "сегодняшнего": 3038, 
  "Барака": 3039, 
  "сентябре": 3040, 
  "положить": 3041, 
  "Ирландии": 3042, 
  "легче": 3043, 
  "разве": 3044, 
  "дела@@": 3045, 
  "ственной": 3046, 
  "городах": 3047, 
  "тенденция": 3048, 
  "Интернет": 3049, 
  "существенно": 3050, 
  "первая": 3051, 
  "разные": 3052, 
  "кру@@": 3053, 
  "перемен": 3054, 
  "Мар@@": 3055, 
  "прекратить": 3056, 
  "освобо@@": 3057, 
  "нные": 3058, 
  "нормы": 3059, 
  "тора": 3060, 
  "ближайшие": 3061, 
  "предоставления": 3062, 
  "щ@@": 3063, 
  "разделение": 3064, 
  "источник": 3065, 
  "щать": 3066, 
  "месяца": 3067, 
  "впоследствии": 3068, 
  "сохранения": 3069, 
  "включа@@": 3070, 
  "зависеть": 3071, 
  "американское": 3072, 
  "объем": 3073, 
  "лем": 3074, 
  "солдат": 3075, 
  "модернизации": 3076, 
  "ев": 3077, 
  "Ц@@": 3078, 
  "ровало": 3079, 
  "смер@@": 3080, 
  "культура": 3081, 
  "дах": 3082, 
  "край@@": 3083, 
  "научных": 3084, 
  "тый": 3085, 
  "механизм": 3086, 
  "кли@@": 3087, 
  "Индонезии": 3088, 
  "знания": 3089, 
  "щую": 3090, 
  "разрыв": 3091, 
  "био@@": 3092, 
  "китайцы": 3093, 
  "споры": 3094, 
  "руководителей": 3095, 
  "Да@@": 3096, 
  "военным": 3097, 
  "ры@@": 3098, 
  "тное": 3099, 
  "иде@@": 3100, 
  "Африка": 3101, 
  "признаки": 3102, 
  "лучшие": 3103, 
  "субсидии": 3104, 
  "нежели": 3105, 
  "щей": 3106, 
  "доллару": 3107, 
  "глобальным": 3108, 
  "сценарий": 3109, 
  "вызывают": 3110, 
  "Мо@@": 3111, 
  "создавать": 3112, 
  "пар@@": 3113, 
  "электро@@": 3114, 
  "лению": 3115, 
  "российские": 3116, 
  "неужели": 3117, 
  "валась": 3118, 
  "сон": 3119, 
  "приводят": 3120, 
  "наблюда@@": 3121, 
  "ток": 3122, 
  "реализации": 3123, 
  "справедливо": 3124, 
  "опера@@": 3125, 
  "пер@@": 3126, 
  "текущий": 3127, 
  "тельным": 3128, 
  "молодые": 3129, 
  "нужна": 3130, 
  "традиции": 3131, 
  "ampquot": 3132, 
  "ке@@": 3133, 
  "альтернативы": 3134, 
  "военную": 3135, 
  "эпохи": 3136, 
  "резервной": 3137, 
  "До@@": 3138, 
  "следующего": 3139, 
  "урегулирования": 3140, 
  "мы@@": 3141, 
  "значительную": 3142, 
  "состояния": 3143, 
  "вещей": 3144, 
  "лан@@": 3145, 
  "кандидата": 3146, 
  "ленных": 3147, 
  "вред": 3148, 
  "наме@@": 3149, 
  "Вы": 3150, 
  "жены": 3151, 
  "пря@@": 3152, 
  "источники": 3153, 
  "поздно": 3154, 
  "произойти": 3155, 
  "телями": 3156, 
  "процента": 3157, 
  "недели": 3158, 
  "ограничи@@": 3159, 
  "мощи": 3160, 
  "ственный": 3161, 
  "энергию": 3162, 
  "президенты": 3163, 
  "тие": 3164, 
  "норма@@": 3165, 
  "начнут": 3166, 
  "газов": 3167, 
  "Соединенными": 3168, 
  "сте@@": 3169, 
  "прагмати@@": 3170, 
  "Ку@@": 3171, 
  "сдерживания": 3172, 
  "уменьшение": 3173, 
  "случилось": 3174, 
  "бер@@": 3175, 
  "правительствам": 3176, 
  "суммы": 3177, 
  "давайте": 3178, 
  "мужчин": 3179, 
  "иска@@": 3180, 
  "капитализм": 3181, 
  "четырех": 3182, 
  "превра@@": 3183, 
  "теле@@": 3184, 
  "создают": 3185, 
  "изоли@@": 3186, 
  "вшегося": 3187, 
  "низкие": 3188, 
  "подчин@@": 3189, 
  "трудности": 3190, 
  "вного": 3191, 
  "методы": 3192, 
  "Ла@@": 3193, 
  "проекты": 3194, 
  "лена": 3195, 
  "назвал": 3196, 
  "заключение": 3197, 
  "простой": 3198, 
  "образ": 3199, 
  "новыми": 3200, 
  "оказывается": 3201, 
  "реальный": 3202, 
  "связей": 3203, 
  "процентов": 3204, 
  "поставок": 3205, 
  "форму": 3206, 
  "помогли": 3207, 
  "всеобщего": 3208, 
  "изменению": 3209, 
  "лучшем": 3210, 
  "понимать": 3211, 
  "продолжаться": 3212, 
  "нео@@": 3213, 
  "применение": 3214, 
  "современных": 3215, 
  "тая": 3216, 
  "тельного": 3217, 
  "пределах": 3218, 
  "Польше": 3219, 
  "границу": 3220, 
  "сталкиваются": 3221, 
  "контролиру@@": 3222, 
  "форма@@": 3223, 
  "дипломатии": 3224, 
  "стимулирования": 3225, 
  "сокращению": 3226, 
  "Банка": 3227, 
  "Вашингтон": 3228, 
  "привлечь": 3229, 
  "центр": 3230, 
  "высокую": 3231, 
  "исследование": 3232, 
  "бед@@": 3233, 
  "глобальном": 3234, 
  "ислама": 3235, 
  "значительных": 3236, 
  "получила": 3237, 
  "Нигерии": 3238, 
  "привлека@@": 3239, 
  "диалог": 3240, 
  "российских": 3241, 
  "вся": 3242, 
  "сферы": 3243, 
  "лить": 3244, 
  "относиться": 3245, 
  "Италия": 3246, 
  "несет": 3247, 
  "щение": 3248, 
  "премии": 3249, 
  "ход": 3250, 
  "зачастую": 3251, 
  "крова@@": 3252, 
  "вен@@": 3253, 
  "потепление": 3254, 
  "здравоохранение": 3255, 
  "тельную": 3256, 
  "предприятия": 3257, 
  "глазах": 3258, 
  "надежду": 3259, 
  "фондов": 3260, 
  "либерализации": 3261, 
  "мировом": 3262, 
  "вариант": 3263, 
  "нюю": 3264, 
  "вооружений": 3265, 
  "процвета@@": 3266, 
  "занима@@": 3267, 
  "существования": 3268, 
  "двадцатки": 3269, 
  "напоминает": 3270, 
  "протесты": 3271, 
  "мах": 3272, 
  "публично": 3273, 
  "облада@@": 3274, 
  "вторжение": 3275, 
  "отчасти": 3276, 
  "остаётся": 3277, 
  "жили": 3278, 
  "валютных": 3279, 
  "желает": 3280, 
  "выполнить": 3281, 
  "правительстве": 3282, 
  "цем": 3283, 
  "ровано": 3284, 
  "указывают": 3285, 
  "нил": 3286, 
  "енного": 3287, 
  "ственного": 3288, 
  "интенси@@": 3289, 
  "солидарности": 3290, 
  "хорошим": 3291, 
  "вшая": 3292, 
  "населением": 3293, 
  "сбережения": 3294, 
  "выде@@": 3295, 
  "изоляции": 3296, 
  "эксперты": 3297, 
  "CO2": 3298, 
  "потом": 3299, 
  "риском": 3300, 
  "требу@@": 3301, 
  "П": 3302, 
  "желают": 3303, 
  "динами@@": 3304, 
  "Партии": 3305, 
  "осозна@@": 3306, 
  "азиатских": 3307, 
  "неделе": 3308, 
  "ограничить": 3309, 
  "европейский": 3310, 
  "появление": 3311, 
  "линии": 3312, 
  "естественно": 3313, 
  "отста@@": 3314, 
  "понимает": 3315, 
  "ванной": 3316, 
  "введения": 3317, 
  "сформи@@": 3318, 
  "защита": 3319, 
  "Му@@": 3320, 
  "усиление": 3321, 
  "служить": 3322, 
  "ители": 3323, 
  "религии": 3324, 
  "дер@@": 3325, 
  "оценкам": 3326, 
  "режимы": 3327, 
  "двух@@": 3328, 
  "хи": 3329, 
  "посе@@": 3330, 
  "предлага@@": 3331, 
  "противном": 3332, 
  "позволяют": 3333, 
  "мра@@": 3334, 
  "виды": 3335, 
  "шансы": 3336, 
  "бе": 3337, 
  "участвовать": 3338, 
  "видели": 3339, 
  "нер@@": 3340, 
  "отсутствия": 3341, 
  "переме@@": 3342, 
  "подъем": 3343, 
  "основная": 3344, 
  "ченных": 3345, 
  "курсов": 3346, 
  "собственный": 3347, 
  "1930": 3348, 
  "эры": 3349, 
  "сельского": 3350, 
  "Международного": 3351, 
  "бор@@": 3352, 
  "названием": 3353, 
  "следующие": 3354, 
  "проблемам": 3355, 
  "кредитования": 3356, 
  "таки": 3357, 
  "ляют": 3358, 
  "признают": 3359, 
  "сдержива@@": 3360, 
  "большинством": 3361, 
  "оказывать": 3362, 
  "размер": 3363, 
  "росте": 3364, 
  "обмена": 3365, 
  "мирных": 3366, 
  "извле@@": 3367, 
  "укрепления": 3368, 
  "членство": 3369, 
  "основании": 3370, 
  "мощь": 3371, 
  "потребности": 3372, 
  "введение": 3373, 
  "енный": 3374, 
  "выхода": 3375, 
  "убийство": 3376, 
  "статуса": 3377, 
  "Блэр": 3378, 
  "ф": 3379, 
  "хотим": 3380, 
  "тон@@": 3381, 
  "Бу@@": 3382, 
  "Наций": 3383, 
  "Хамаса": 3384, 
  "Объединенных": 3385, 
  "правых": 3386, 
  "няют": 3387, 
  "разрешить": 3388, 
  "растут": 3389, 
  "пришли": 3390, 
  "служит": 3391, 
  "стам": 3392, 
  "енной": 3393, 
  "ввести": 3394, 
  "чном": 3395, 
  "подобный": 3396, 
  "возможных": 3397, 
  "любые": 3398, 
  "класси@@": 3399, 
  "сомнение": 3400, 
  "укрепить": 3401, 
  "ценные": 3402, 
  "мов": 3403, 
  "кризису": 3404, 
  "щем": 3405, 
  "Всемирный": 3406, 
  "арабском": 3407, 
  "вных": 3408, 
  "низма": 3409, 
  "Мексики": 3410, 
  "мен@@": 3411, 
  "самыми": 3412, 
  "вызыва@@": 3413, 
  "лли@@": 3414, 
  "человеком": 3415, 
  "вления": 3416, 
  "ленные": 3417, 
  "достигли": 3418, 
  "исполн@@": 3419, 
  "поло@@": 3420, 
  "опублико@@": 3421, 
  "углерода": 3422, 
  "соседями": 3423, 
  "двадцатого": 3424, 
  "откры@@": 3425, 
  "законода@@": 3426, 
  "оккупации": 3427, 
  "многочисленные": 3428, 
  "ислами@@": 3429, 
  "Мексике": 3430, 
  "еврозоне": 3431, 
  "тельная": 3432, 
  "масси@@": 3433, 
  "имеется": 3434, 
  "определя@@": 3435, 
  "сложной": 3436, 
  "интересами": 3437, 
  "развивающимся": 3438, 
  "разоча@@": 3439, 
  "полиции": 3440, 
  "сегодняшних": 3441, 
  "левые": 3442, 
  "ванные": 3443, 
  "налогово": 3444, 
  "вный": 3445, 
  "демократи@@": 3446, 
  "люби@@": 3447, 
  "эти@@": 3448, 
  "демократическим": 3449, 
  "импорта": 3450, 
  "нару@@": 3451, 
  "Нетаньяху": 3452, 
  "45": 3453, 
  "руку": 3454, 
  "инфляцию": 3455, 
  "лидерство": 3456, 
  "тру@@": 3457, 
  "торговлю": 3458, 
  "извлечь": 3459, 
  "доста@@": 3460, 
  "ключевых": 3461, 
  "наверняка": 3462, 
  "необходимым": 3463, 
  "значительный": 3464, 
  "ядерные": 3465, 
  "ску@@": 3466, 
  "проблеме": 3467, 
  "принимает": 3468, 
  "легитимность": 3469, 
  "13": 3470, 
  "Мексика": 3471, 
  "усили@@": 3472, 
  "бумаги": 3473, 
  "январе": 3474, 
  "финансовыми": 3475, 
  "фа": 3476, 
  "нной": 3477, 
  "главная": 3478, 
  "размере": 3479, 
  "дебатов": 3480, 
  "моей": 3481, 
  "повтор@@": 3482, 
  "ключевым": 3483, 
  "Джон": 3484, 
  "став@@": 3485, 
  "охва@@": 3486, 
  "чения": 3487, 
  "йской": 3488, 
  "слу@@": 3489, 
  "газеты": 3490, 
  "недостаток": 3491, 
  "смысла": 3492, 
  "начался": 3493, 
  "АСЕАН": 3494, 
  "ген@@": 3495, 
  "уничтожения": 3496, 
  "научные": 3497, 
  "согласие": 3498, 
  "беженцев": 3499, 
  "правы": 3500, 
  "реалисти@@": 3501, 
  "валюта": 3502, 
  "14": 3503, 
  "ведения": 3504, 
  "ван": 3505, 
  "оппозиция": 3506, 
  "считали": 3507, 
  "регионов": 3508, 
  "финансировать": 3509, 
  "заслу@@": 3510, 
  "выход": 3511, 
  "гов": 3512, 
  "Газы": 3513, 
  "традиционных": 3514, 
  "Ирану": 3515, 
  "торговый": 3516, 
  "необходим": 3517, 
  "существующих": 3518, 
  "получает": 3519, 
  "парламенте": 3520, 
  "веру": 3521, 
  "емую": 3522, 
  "единства": 3523, 
  "университета": 3524, 
  "военными": 3525, 
  "ведущих": 3526, 
  "преступлений": 3527, 
  "перехода": 3528, 
  "предлож@@": 3529, 
  "ответа": 3530, 
  "создали": 3531, 
  "глобальную": 3532, 
  "издержки": 3533, 
  "безработица": 3534, 
  "эн@@": 3535, 
  "сделки": 3536, 
  "отметить": 3537, 
  "банковской": 3538, 
  "взглядов": 3539, 
  "страхования": 3540, 
  "внести": 3541, 
  "саммит": 3542, 
  "жизней": 3543, 
  "единственная": 3544, 
  "участники": 3545, 
  "ислам": 3546, 
  "кры@@": 3547, 
  "йских": 3548, 
  "обещание": 3549, 
  "тым": 3550, 
  "реальность": 3551, 
  "высокими": 3552, 
  "коммунистической": 3553, 
  "привы@@": 3554, 
  "дой": 3555, 
  "строить": 3556, 
  "рано": 3557, 
  "показать": 3558, 
  "империи": 3559, 
  "открытой": 3560, 
  "В": 3561, 
  "200": 3562, 
  "внешняя": 3563, 
  "популярность": 3564, 
  "экономии": 3565, 
  "использует": 3566, 
  "Кон@@": 3567, 
  "немногие": 3568, 
  "превышает": 3569, 
  "запасов": 3570, 
  "кризисы": 3571, 
  "ждению": 3572, 
  "долгое": 3573, 
  "ошибкой": 3574, 
  "кро@@": 3575, 
  "наде@@": 3576, 
  "лож@@": 3577, 
  "представля@@": 3578, 
  "очевидным": 3579, 
  "теля": 3580, 
  "соглашений": 3581, 
  "нестабильность": 3582, 
  "Су@@": 3583, 
  "решительно": 3584, 
  "палестинских": 3585, 
  "общественность": 3586, 
  "зависимость": 3587, 
  "происходят": 3588, 
  "экономистов": 3589, 
  "прозрачности": 3590, 
  "предпринима@@": 3591, 
  "17": 3592, 
  "обладают": 3593, 
  "будущих": 3594, 
  "стадии": 3595, 
  "пересе@@": 3596, 
  "жи": 3597, 
  "ресурсами": 3598, 
  "итак": 3599, 
  "Конгресс": 3600, 
  "нашим": 3601, 
  "эпоху": 3602, 
  "активно": 3603, 
  "лега@@": 3604, 
  "теория": 3605, 
  "природы": 3606, 
  "тен@@": 3607, 
  "Уолл": 3608, 
  "вооруженные": 3609, 
  "международная": 3610, 
  "тя@@": 3611, 
  "высоко@@": 3612, 
  "Про@@": 3613, 
  "современные": 3614, 
  "предоставление": 3615, 
  "най@@": 3616, 
  "гая": 3617, 
  "судьбы": 3618, 
  "часов": 3619, 
  "зада@@": 3620, 
  "готов": 3621, 
  "бур@@": 3622, 
  "международную": 3623, 
  "газ": 3624, 
  "национальным": 3625, 
  "краха": 3626, 
  "китайцев": 3627, 
  "стремительно": 3628, 
  "зависят": 3629, 
  "средствами": 3630, 
  "дные": 3631, 
  "осу@@": 3632, 
  "Копенгагене": 3633, 
  "вера": 3634, 
  "деся@@": 3635, 
  "задач": 3636, 
  "тол@@": 3637, 
  "сохранение": 3638, 
  "увеличивает": 3639, 
  "площади": 3640, 
  "новому": 3641, 
  "индивиду@@": 3642, 
  "личности": 3643, 
  "восстано@@": 3644, 
  "лучшее": 3645, 
  "плохой": 3646, 
  "факты": 3647, 
  "наркотиков": 3648, 
  "разница": 3649, 
  "огромных": 3650, 
  "союзники": 3651, 
  "рав@@": 3652, 
  "Ду@@": 3653, 
  "принесет": 3654, 
  "побу@@": 3655, 
  "чувствуют": 3656, 
  "оказывает": 3657, 
  "выйти": 3658, 
  "отрица@@": 3659, 
  "ющаяся": 3660, 
  "решил": 3661, 
  "уменьшения": 3662, 
  "ой": 3663, 
  "прямо": 3664, 
  "ожидается": 3665, 
  "уж": 3666, 
  "темпов": 3667, 
  "ченной": 3668, 
  "усилить": 3669, 
  "активности": 3670, 
  "показаться": 3671, 
  "рованию": 3672, 
  "няется": 3673, 
  "зировать": 3674, 
  "качество": 3675, 
  "уверенности": 3676, 
  "пле@@": 3677, 
  "приведут": 3678, 
  "27": 3679, 
  "0,@@": 3680, 
  "импорт": 3681, 
  "значи@@": 3682, 
  "гото@@": 3683, 
  "российской": 3684, 
  "наука": 3685, 
  "держа@@": 3686, 
  "реформи@@": 3687, 
  "II": 3688, 
  "реша@@": 3689, 
  "колони@@": 3690, 
  "исто@@": 3691, 
  "маловероятно": 3692, 
  "вное": 3693, 
  "Ри@@": 3694, 
  "им@@": 3695, 
  "налога": 3696, 
  "структура": 3697, 
  "членам": 3698, 
  "стабилизации": 3699, 
  "прибы@@": 3700, 
  "запасы": 3701, 
  "лам": 3702, 
  "устойчивого": 3703, 
  "нынешний": 3704, 
  "возвращение": 3705, 
  "ванных": 3706, 
  "регулиру@@": 3707, 
  "отставку": 3708, 
  "кампанию": 3709, 
  "корпорации": 3710, 
  "няются": 3711, 
  "укрепление": 3712, 
  "летом": 3713, 
  "жает": 3714, 
  "взя@@": 3715, 
  "сво@@": 3716, 
  "утвер@@": 3717, 
  "си": 3718, 
  "позволили": 3719, 
  "правам": 3720, 
  "ющему": 3721, 
  "определения": 3722, 
  "банковских": 3723, 
  "природных": 3724, 
  "дей@@": 3725, 
  "испытывают": 3726, 
  "конфронтации": 3727, 
  "полномочия": 3728, 
  "вар@@": 3729, 
  "бюрократи@@": 3730, 
  "вовсе": 3731, 
  "африканских": 3732, 
  "ничто": 3733, 
  "войной": 3734, 
  "стандар@@": 3735, 
  "делом": 3736, 
  "сомн@@": 3737, 
  "500": 3738, 
  "подавля@@": 3739, 
  "предложил": 3740, 
  "имела": 3741, 
  "Ки@@": 3742, 
  "вающих": 3743, 
  "жертвы": 3744, 
  "атаки": 3745, 
  "частях": 3746, 
  "недостатки": 3747, 
  "ново@@": 3748, 
  "главы": 3749, 
  "доказательства": 3750, 
  "рамки": 3751, 
  "катастрофы": 3752, 
  "тность": 3753, 
  "карту": 3754, 
  "ден@@": 3755, 
  "основа@@": 3756, 
  "ья": 3757, 
  "правительствами": 3758, 
  "коррупция": 3759, 
  "Польша": 3760, 
  "упал": 3761, 
  "останутся": 3762, 
  "чил": 3763, 
  "Ар@@": 3764, 
  "большими": 3765, 
  "дра@@": 3766, 
  "вырос": 3767, 
  "ительном": 3768, 
  "погло@@": 3769, 
  "единого": 3770, 
  "сы@@": 3771, 
  "зме": 3772, 
  "Индию": 3773, 
  "мае": 3774, 
  "денежных": 3775, 
  "мами": 3776, 
  "изменением": 3777, 
  "решению": 3778, 
  "аргумент": 3779, 
  "недо@@": 3780, 
  "ствам": 3781, 
  "общую": 3782, 
  "получать": 3783, 
  "соответственно": 3784, 
  "игнорировать": 3785, 
  "забо@@": 3786, 
  "свер@@": 3787, 
  "тит": 3788, 
  "верить": 3789, 
  "государствах": 3790, 
  "указывает": 3791, 
  "пусть": 3792, 
  "кре@@": 3793, 
  "ностей": 3794, 
  "произ@@": 3795, 
  "захва@@": 3796, 
  "глобальная": 3797, 
  "кажутся": 3798, 
  "тем@@": 3799, 
  "важности": 3800, 
  "Ближний": 3801, 
  "Европейском": 3802, 
  "раскры@@": 3803, 
  "полное": 3804, 
  "переговорах": 3805, 
  "отме@@": 3806, 
  "ж": 3807, 
  "ственное": 3808, 
  "контексте": 3809, 
  "министры": 3810, 
  "государственным": 3811, 
  "студентов": 3812, 
  "стре@@": 3813, 
  "зарплаты": 3814, 
  "обсуждение": 3815, 
  "С": 3816, 
  "психологи@@": 3817, 
  "Николя": 3818, 
  "вании": 3819, 
  "жилье": 3820, 
  "действиям": 3821, 
  "чьи": 3822, 
  "тон": 3823, 
  "направлены": 3824, 
  "неправильно": 3825, 
  "Аргентина": 3826, 
  "связано": 3827, 
  "огромной": 3828, 
  "повышению": 3829, 
  "отражают": 3830, 
  "резервов": 3831, 
  "международном": 3832, 
  "знали": 3833, 
  "арене": 3834, 
  "слово": 3835, 
  "Милошевича": 3836, 
  "тить": 3837, 
  "ые": 3838, 
  "держав": 3839, 
  "многими": 3840, 
  "Го@@": 3841, 
  "нит": 3842, 
  "ванию": 3843, 
  "вовле@@": 3844, 
  "Ж@@": 3845, 
  "отдельные": 3846, 
  "структурные": 3847, 
  "арабские": 3848, 
  "ВНП": 3849, 
  "рованными": 3850, 
  "встрече": 3851, 
  "удоб@@": 3852, 
  "механизмы": 3853, 
  "оценить": 3854, 
  "фермеров": 3855, 
  "успешной": 3856, 
  "жения": 3857, 
  "среде": 3858, 
  "физи@@": 3859, 
  "комиссии": 3860, 
  "живет": 3861, 
  "недавних": 3862, 
  "Югославии": 3863, 
  "выплаты": 3864, 
  "трудо@@": 3865, 
  "меня@@": 3866, 
  "думают": 3867, 
  "действуют": 3868, 
  "прида@@": 3869, 
  "тием": 3870, 
  "тель@@": 3871, 
  "развивающейся": 3872, 
  "гео@@": 3873, 
  "ционный": 3874, 
  "дили": 3875, 
  "ошибок": 3876, 
  "Хезболла": 3877, 
  "производительность": 3878, 
  "объясняет": 3879, 
  "распределения": 3880, 
  "отличаются": 3881, 
  "одному": 3882, 
  "ствах": 3883, 
  "действует": 3884, 
  "Войны": 3885, 
  "ствовать": 3886, 
  "переда@@": 3887, 
  "прийти": 3888, 
  "западной": 3889, 
  "склонны": 3890, 
  "воспользоваться": 3891, 
  "Второй": 3892, 
  "Испания": 3893, 
  "тив@@": 3894, 
  "столкнулись": 3895, 
  "сильная": 3896, 
  "ционная": 3897, 
  "конкурентоспособность": 3898, 
  "Мубарака": 3899, 
  "мало@@": 3900, 
  "настроения": 3901, 
  "обычных": 3902, 
  "успехов": 3903, 
  "вторжения": 3904, 
  "создал": 3905, 
  "саммите": 3906, 
  "24": 3907, 
  "рии": 3908, 
  "Ливана": 3909, 
  "бере@@": 3910, 
  "класс": 3911, 
  "вано": 3912, 
  "ым": 3913, 
  "низкой": 3914, 
  "инструменты": 3915, 
  "действиями": 3916, 
  "простых": 3917, 
  "дальнейшего": 3918, 
  "присоединиться": 3919, 
  "зоне": 3920, 
  "потребность": 3921, 
  "позволя@@": 3922, 
  "разрешения": 3923, 
  "отлича@@": 3924, 
  "доли": 3925, 
  "настало": 3926, 
  "Евро@@": 3927, 
  "темпами": 3928, 
  "достигла": 3929, 
  "низкий": 3930, 
  "здоровье": 3931, 
  "членом": 3932, 
  "Колумбии": 3933, 
  "сопротивления": 3934, 
  "уничтожить": 3935, 
  "бума": 3936, 
  "способов": 3937, 
  "Зимбабве": 3938, 
  "спекуля@@": 3939, 
  "последним": 3940, 
  "спас@@": 3941, 
  "общем": 3942, 
  "региональные": 3943, 
  "определение": 3944, 
  "показатель": 3945, 
  "свет": 3946, 
  "победить": 3947, 
  "признает": 3948, 
  "щает": 3949, 
  "заменить": 3950, 
  "полную": 3951, 
  "перспектива": 3952, 
  "проведении": 3953, 
  "страш@@": 3954, 
  "чить": 3955, 
  "P@@": 3956, 
  "последствиями": 3957, 
  "азиатские": 3958, 
  "растущей": 3959, 
  "влению": 3960, 
  "2012": 3961, 
  "страдают": 3962, 
  "заключалась": 3963, 
  "доба@@": 3964, 
  "ню": 3965, 
  "начнет": 3966, 
  "гах": 3967, 
  "лидерам": 3968, 
  "прямых": 3969, 
  "Ди@@": 3970, 
  "готовность": 3971, 
  "неудачи": 3972, 
  "социальная": 3973, 
  "даст": 3974, 
  "мышления": 3975, 
  "лучший": 3976, 
  "встреча": 3977, 
  "болезней": 3978, 
  "никам": 3979, 
  "свободе": 3980, 
  "фоне": 3981, 
  "крити@@": 3982, 
  "нарушения": 3983, 
  "риско@@": 3984, 
  "евреев": 3985, 
  "финансовое": 3986, 
  "зу": 3987, 
  "какими": 3988, 
  "вным": 3989, 
  "лять": 3990, 
  "стиле": 3991, 
  "нить": 3992, 
  "цене": 3993, 
  "религиозные": 3994, 
  "потеряли": 3995, 
  "осуществля@@": 3996, 
  "денежно": 3997, 
  "Польши": 3998, 
  "нен@@": 3999, 
  "жной": 4000, 
  "комиссия": 4001, 
  "проектов": 4002, 
  "промышленность": 4003, 
  "ционного": 4004, 
  "еди@@": 4005, 
  "богатство": 4006, 
  "глубокие": 4007, 
  "провозгла@@": 4008, 
  "рассматривают": 4009, 
  "рей@@": 4010, 
  "анализ": 4011, 
  "традиционные": 4012, 
  "лизации": 4013, 
  "получит": 4014, 
  "национализма": 4015, 
  "поме@@": 4016, 
  "установление": 4017, 
  "месяцы": 4018, 
  "крупнейших": 4019, 
  "реальности": 4020, 
  "валось": 4021, 
  "сильного": 4022, 
  "идеологии": 4023, 
  "вана": 4024, 
  "побе@@": 4025, 
  "создавая": 4026, 
  "оставить": 4027, 
  "компромисс": 4028, 
  "итель": 4029, 
  "признания": 4030, 
  "годами": 4031, 
  "мировым": 4032, 
  "Р": 4033, 
  "несут": 4034, 
  "внутренний": 4035, 
  "официально": 4036, 
  "нул": 4037, 
  "кво": 4038, 
  "национальный": 4039, 
  "военно": 4040, 
  "четвер@@": 4041, 
  "Фа@@": 4042, 
  "нили": 4043, 
  "восто@@": 4044, 
  "норм": 4045, 
  "Ле@@": 4046, 
  "широкой": 4047, 
  "посвя@@": 4048, 
  "ита@@": 4049, 
  "ленной": 4050, 
  "вели": 4051, 
  "конкуренция": 4052, 
  "обменного": 4053, 
  "выпол@@": 4054, 
  "очередной": 4055, 
  "язык": 4056, 
  "совместно": 4057, 
  "беспокойства": 4058, 
  "ввиду": 4059, 
  "резкое": 4060, 
  "разду@@": 4061, 
  "1950": 4062, 
  "низ@@": 4063, 
  "предлагают": 4064, 
  "жении": 4065, 
  "корпораций": 4066, 
  "дных": 4067, 
  "допусти@@": 4068, 
  "рядом": 4069, 
  "выступает": 4070, 
  "пытались": 4071, 
  "требований": 4072, 
  "влении": 4073, 
  "восточной": 4074, 
  "медленно": 4075, 
  "структуру": 4076, 
  "реального": 4077, 
  "новом": 4078, 
  "установлению": 4079, 
  "Вашингтоне": 4080, 
  "недовольство": 4081, 
  "суверенитета": 4082, 
  "понятие": 4083, 
  "начина@@": 4084, 
  "долгосрочных": 4085, 
  "ванием": 4086, 
  "словам": 4087, 
  "экономист": 4088, 
  "гру@@": 4089, 
  "обеспечивает": 4090, 
  "поч@@": 4091, 
  "75": 4092, 
  "тратить": 4093, 
  "вающие": 4094, 
  "собственным": 4095, 
  "позволило": 4096, 
  "продажи": 4097, 
  "ценой": 4098, 
  "дж@@": 4099, 
  "китайский": 4100, 
  "изначально": 4101, 
  "щением": 4102, 
  "главное": 4103, 
  "S@@": 4104, 
  "сь": 4105, 
  "стратегических": 4106, 
  "список": 4107, 
  "Чен": 4108, 
  "заниматься": 4109, 
  "следствием": 4110, 
  "ухуд@@": 4111, 
  "брать": 4112, 
  "испытыва@@": 4113, 
  "рассмотрим": 4114, 
  "остались": 4115, 
  "тельными": 4116, 
  "моря": 4117, 
  "небольшой": 4118, 
  "ху": 4119, 
  "образова@@": 4120, 
  "ственным": 4121, 
  "вил": 4122, 
  "недвижимость": 4123, 
  "нежела@@": 4124, 
  "ительности": 4125, 
  "чрезмерно": 4126, 
  "евро@@": 4127, 
  "финансовом": 4128, 
  "энергетической": 4129, 
  "нужен": 4130, 
  "жда@@": 4131, 
  "исключ@@": 4132, 
  "Де@@": 4133, 
  "Лондоне": 4134, 
  "принципе": 4135, 
  "рованная": 4136, 
  "подлин@@": 4137, 
  "amp": 4138, 
  "водо@@": 4139, 
  "вшимся": 4140, 
  "нная": 4141, 
  "вре@@": 4142, 
  "оборо@@": 4143, 
  "заключению": 4144, 
  "существу": 4145, 
  "правосудия": 4146, 
  "легитимности": 4147, 
  "неоднократно": 4148, 
  "льном": 4149, 
  "телям": 4150, 
  "займов": 4151, 
  "купить": 4152, 
  "точка": 4153, 
  "программе": 4154, 
  "полномочий": 4155, 
  "влия@@": 4156, 
  "давлением": 4157, 
  "подобной": 4158, 
  "марте": 4159, 
  "распределение": 4160, 
  "1994": 4161, 
  "пересмотреть": 4162, 
  "предсказать": 4163, 
  "нного": 4164, 
  "ждений": 4165, 
  "располож@@": 4166, 
  "высказыва@@": 4167, 
  "отказа": 4168, 
  "режимов": 4169, 
  "потребители": 4170, 
  "плохие": 4171, 
  "реальных": 4172, 
  "ье": 4173, 
  "три@@": 4174, 
  "море": 4175, 
  "демонстрации": 4176, 
  "клетки": 4177, 
  "4@@": 4178, 
  "подкреп@@": 4179, 
  "можете": 4180, 
  "предоставля@@": 4181, 
  "основы": 4182, 
  "прогресси@@": 4183, 
  "нный": 4184, 
  "сделало": 4185, 
  "макро@@": 4186, 
  "мужчины": 4187, 
  "открыть": 4188, 
  "усиления": 4189, 
  "5@@": 4190, 
  "показа@@": 4191, 
  "прекра@@": 4192, 
  "ес@@": 4193, 
  "июле": 4194, 
  "кризисе": 4195, 
  "Союзе": 4196, 
  "Кар@@": 4197, 
  "завое@@": 4198, 
  "заняться": 4199, 
  "C@@": 4200, 
  "сотрудничестве": 4201, 
  "третий": 4202, 
  "бывает": 4203, 
  "лучших": 4204, 
  "допустить": 4205, 
  "21": 4206, 
  "солидарность": 4207, 
  "ослабить": 4208, 
  "направля@@": 4209, 
  "уважение": 4210, 
  "держать": 4211, 
  "остаться": 4212, 
  "придётся": 4213, 
  "прошлой": 4214, 
  "обеспечи@@": 4215, 
  "пузырь": 4216, 
  "либеральной": 4217, 
  "мировое": 4218, 
  "тую": 4219, 
  "жена": 4220, 
  "конкурен@@": 4221, 
  "обществом": 4222, 
  "запрет": 4223, 
  "больший": 4224, 
  "енным": 4225, 
  "второго": 4226, 
  "предположить": 4227, 
  "ро": 4228, 
  "объя@@": 4229, 
  "гла@@": 4230, 
  "лег@@": 4231, 
  "уни@@": 4232, 
  "процветание": 4233, 
  "требование": 4234, 
  "прова@@": 4235, 
  "чать": 4236, 
  "повсюду": 4237, 
  "приоритетом": 4238, 
  "искус@@": 4239, 
  "якобы": 4240, 
  "резервы": 4241, 
  "дил": 4242, 
  "элита": 4243, 
  "миссии": 4244, 
  "стандарты": 4245, 
  "измен@@": 4246, 
  "имени": 4247, 
  "35": 4248, 
  "пораз@@": 4249, 
  "подня@@": 4250, 
  "кти@@": 4251, 
  "тут": 4252, 
  "национали@@": 4253, 
  "енное": 4254, 
  "риску": 4255, 
  "сты@@": 4256, 
  "лицо": 4257, 
  "национальными": 4258, 
  "сказали": 4259, 
  "1995": 4260, 
  "залож@@": 4261, 
  "совета": 4262, 
  "окру@@": 4263, 
  "доказать": 4264, 
  "сер@@": 4265, 
  "континента": 4266, 
  "ман": 4267, 
  "помогло": 4268, 
  "всём": 4269, 
  "Совете": 4270, 
  "Международный": 4271, 
  "попыток": 4272, 
  "экспертов": 4273, 
  "восстановлению": 4274, 
  "экспор@@": 4275, 
  "демократов": 4276, 
  "Турцией": 4277, 
  "стимулировать": 4278, 
  "появились": 4279, 
  "благоприят@@": 4280, 
  "ухода": 4281, 
  "поки@@": 4282, 
  "рующие": 4283, 
  "заключения": 4284, 
  "решили": 4285, 
  "реали@@": 4286, 
  "вызвало": 4287, 
  "помнить": 4288, 
  "преуспе@@": 4289, 
  "гам": 4290, 
  "воин@@": 4291, 
  "Израилю": 4292, 
  "свете": 4293, 
  "партнеров": 4294, 
  "провинции": 4295, 
  "шее": 4296, 
  "восемь": 4297, 
  "нести": 4298, 
  "парниковых": 4299, 
  "дорого": 4300, 
  "глаза": 4301, 
  "финанси@@": 4302, 
  "моби@@": 4303, 
  "вому": 4304, 
  "ответить": 4305, 
  "енная": 4306, 
  "страха": 4307, 
  "сдержать": 4308, 
  "половину": 4309, 
  "началась": 4310, 
  "игроков": 4311, 
  "появления": 4312, 
  "привяза@@": 4313, 
  "остано@@": 4314, 
  "валюту": 4315, 
  "различие": 4316, 
  "использовали": 4317, 
  "передачи": 4318, 
  "попытке": 4319, 
  "голода": 4320, 
  "млрд": 4321, 
  "агентства": 4322, 
  "навсегда": 4323, 
  "важнее": 4324, 
  "объявил": 4325, 
  "полного": 4326, 
  "информация": 4327, 
  "вас": 4328, 
  "стимули@@": 4329, 
  "тию": 4330, 
  "стимул": 4331, 
  "народов": 4332, 
  "концепции": 4333, 
  "Джа@@": 4334, 
  "вов": 4335, 
  "наверное": 4336, 
  "достой@@": 4337, 
  "оказыва@@": 4338, 
  "регионы": 4339, 
  "ён": 4340, 
  "цунами": 4341, 
  "вето": 4342, 
  "ч": 4343, 
  "полный": 4344, 
  "сопровожда@@": 4345, 
  "заклю@@": 4346, 
  "явля@@": 4347, 
  "образо@@": 4348, 
  "саммита": 4349, 
  "отлич@@": 4350, 
  "необы@@": 4351, 
  "географи@@": 4352, 
  "Кореей": 4353, 
  "религиозной": 4354, 
  "страдает": 4355, 
  "мую": 4356, 
  "прав@@": 4357, 
  "остального": 4358, 
  "связана": 4359, 
  "эмоциональ@@": 4360, 
  "чья": 4361, 
  "силе": 4362, 
  "ключевые": 4363, 
  "нской": 4364, 
  "лю@@": 4365, 
  "йте": 4366, 
  "председатель": 4367, 
  "тности": 4368, 
  "выда@@": 4369, 
  "двига@@": 4370, 
  "необходимой": 4371, 
  "винов@@": 4372, 
  "бывших": 4373, 
  "исторически": 4374, 
  "сальдо": 4375, 
  "партией": 4376, 
  "предполага@@": 4377, 
  "кур@@": 4378, 
  "назна@@": 4379, 
  "клеток": 4380, 
  "прави@@": 4381, 
  ".@@": 4382, 
  "значительным": 4383, 
  "Париж": 4384, 
  "успехи": 4385, 
  "выросли": 4386, 
  "достиг": 4387, 
  "заплатить": 4388, 
  "Федеральной": 4389, 
  "неизбеж@@": 4390, 
  "освобождения": 4391, 
  "диктатуры": 4392, 
  "наслед@@": 4393, 
  "Хаменеи": 4394, 
  "вление": 4395, 
  "попули@@": 4396, 
  "иммиграции": 4397, 
  "нищеты": 4398, 
  "цу": 4399, 
  "обяза@@": 4400, 
  "внезапно": 4401, 
  "рез@@": 4402, 
  "президентские": 4403, 
  "Фатх": 4404, 
  "существующие": 4405, 
  "христиан@@": 4406, 
  "представление": 4407, 
  "получат": 4408, 
  "количеством": 4409, 
  "эффективного": 4410, 
  "делали": 4411, 
  "ше": 4412, 
  "пригла@@": 4413, 
  "щи@@": 4414, 
  "Японию": 4415, 
  "некоторой": 4416, 
  "началом": 4417, 
  "событие": 4418, 
  "простые": 4419, 
  "уди@@": 4420, 
  "идее": 4421, 
  "бывшим": 4422, 
  "труднее": 4423, 
  "сор@@": 4424, 
  "хруп@@": 4425, 
  "нынешнего": 4426, 
  "ужас@@": 4427, 
  "утверждение": 4428, 
  "воли": 4429, 
  "зу@@": 4430, 
  "замеча@@": 4431, 
  "нным": 4432, 
  "придерживаться": 4433, 
  "уника@@": 4434, 
  "старой": 4435, 
  "ченным": 4436, 
  "ственными": 4437, 
  "жением": 4438, 
  "ценность": 4439, 
  "интегри@@": 4440, 
  "соответствует": 4441, 
  "ды@@": 4442, 
  "выгод@@": 4443, 
  "возвра@@": 4444, 
  "ы@@": 4445, 
  "обеща@@": 4446, 
  "шести": 4447, 
  "Мировой": 4448, 
  "щенных": 4449, 
  "реструктуризации": 4450, 
  "труд@@": 4451, 
  "слабость": 4452, 
  "дольше": 4453, 
  "Тайваня": 4454, 
  "объединения": 4455, 
  "Аргентины": 4456, 
  "сильных": 4457, 
  "преда@@": 4458, 
  "стандартов": 4459, 
  "службы": 4460, 
  "проводи@@": 4461, 
  "советской": 4462, 
  "сен@@": 4463, 
  "ур@@": 4464, 
  "анализа": 4465, 
  "имея": 4466, 
  "социальное": 4467, 
  "тки": 4468, 
  "сталкивается": 4469, 
  "роди@@": 4470, 
  "фактор": 4471, 
  "африканские": 4472, 
  "подписа@@": 4473, 
  "ходить": 4474, 
  "гро@@": 4475, 
  "Азию": 4476, 
  "ближе": 4477, 
  "секре@@": 4478, 
  "спасения": 4479, 
  "человеческого": 4480, 
  "моя": 4481, 
  "сегодняшняя": 4482, 
  "Германию": 4483, 
  "займы": 4484, 
  "заболеваний": 4485, 
  "Д": 4486, 
  "полагаться": 4487, 
  "барьеры": 4488, 
  "занимает": 4489, 
  "заболевания": 4490, 
  "социальную": 4491, 
  "традиционно": 4492, 
  "главные": 4493, 
  "еры": 4494, 
  "определенных": 4495, 
  "фундаментальные": 4496, 
  "няться": 4497, 
  "гражданское": 4498, 
  "лично": 4499, 
  "ежегодно": 4500, 
  "дно": 4501, 
  "дополнительных": 4502, 
  "осуществления": 4503, 
  "покупа@@": 4504, 
  "рынкам": 4505, 
  "Саудовская": 4506, 
  "направление": 4507, 
  "рит": 4508, 
  "али@@": 4509, 
  "бюджетного": 4510, 
  "двигаться": 4511, 
  "смотреть": 4512, 
  "недавний": 4513, 
  "одни": 4514, 
  "центри@@": 4515, 
  "значительного": 4516, 
  "открытия": 4517, 
  "сложнее": 4518, 
  "организа@@": 4519, 
  "рыночных": 4520, 
  "протестов": 4521, 
  "другу": 4522, 
  "пакистан@@": 4523, 
  "серьезный": 4524, 
  "японские": 4525, 
  "давать": 4526, 
  "отра@@": 4527, 
  "огромным": 4528, 
  "наркотиками": 4529, 
  "ждения": 4530, 
  "сни@@": 4531, 
  "умер@@": 4532, 
  "огромную": 4533, 
  "повторя@@": 4534, 
  "рованием": 4535, 
  "богатыми": 4536, 
  "рующих": 4537, 
  "семь": 4538, 
  "неопределенности": 4539, 
  "пы": 4540, 
  "веры": 4541, 
  "сные": 4542, 
  "утверждать": 4543, 
  "достигнут": 4544, 
  "це": 4545, 
  "бу": 4546, 
  "возможностью": 4547, 
  "вшаяся": 4548, 
  "обменный": 4549, 
  "Блэра": 4550, 
  "300": 4551, 
  "человеческой": 4552, 
  "обязательство": 4553, 
  "йские": 4554, 
  "возраста@@": 4555, 
  "тщательно": 4556, 
  "ени@@": 4557, 
  "мана": 4558, 
  "Республики": 4559, 
  "Али": 4560, 
  "пытаясь": 4561, 
  "грани": 4562, 
  "постро@@": 4563, 
  "ш": 4564, 
  "стран@@": 4565, 
  "проведению": 4566, 
  "плани@@": 4567, 
  "организацию": 4568, 
  "жен": 4569, 
  "корни": 4570, 
  "вшееся": 4571, 
  "отвер@@": 4572, 
  "влиянием": 4573, 
  "валюте": 4574, 
  "частный": 4575, 
  "называ@@": 4576, 
  "сложных": 4577, 
  "изменениям": 4578, 
  "полез@@": 4579, 
  "вами": 4580, 
  "сить": 4581, 
  "лю": 4582, 
  "ющуюся": 4583, 
  "совет": 4584, 
  "бремени": 4585, 
  "запол@@": 4586, 
  "визита": 4587, 
  "альной": 4588, 
  "пришел": 4589, 
  "предполагают": 4590, 
  "ити@@": 4591, 
  "няет": 4592, 
  "разумеется": 4593, 
  "проте@@": 4594, 
  "коло@@": 4595, 
  "уверены": 4596, 
  "ющимися": 4597, 
  "счёт": 4598, 
  "la": 4599, 
  "над@@": 4600, 
  "определенные": 4601, 
  "влены": 4602, 
  "взры@@": 4603, 
  "национализм": 4604, 
  "хорошей": 4605, 
  "трети": 4606, 
  "Кремль": 4607, 
  "ем@@": 4608, 
  "изм": 4609, 
  "применя@@": 4610, 
  "дипломатия": 4611, 
  "чита@@": 4612, 
  "круг": 4613, 
  "хаос": 4614, 
  "изменя@@": 4615, 
  "арабского": 4616, 
  "избегать": 4617, 
  "дискуссии": 4618, 
  "s": 4619, 
  "неудач@@": 4620, 
  "ностями": 4621, 
  "эру": 4622, 
  "преоблада@@": 4623, 
  "собственное": 4624, 
  "наличии": 4625, 
  "реальностью": 4626, 
  "дала": 4627, 
  "сумму": 4628, 
  "пренебре@@": 4629, 
  "долж@@": 4630, 
  "оценке": 4631, 
  "потенциала": 4632, 
  "лили": 4633, 
  "наблюдатели": 4634, 
  "Израиле": 4635, 
  "израильтян": 4636, 
  "распреде@@": 4637, 
  "спи@@": 4638, 
  "Ча@@": 4639, 
  "консенсуса": 4640, 
  "К": 4641, 
  "американскую": 4642, 
  "дным": 4643, 
  "чи": 4644, 
  "третьего": 4645, 
  "энерго@@": 4646, 
  "форми@@": 4647, 
  "сдела@@": 4648, 
  "цифры": 4649, 
  "Клинтона": 4650, 
  "прямые": 4651, 
  "подорвать": 4652, 
  "исламского": 4653, 
  "средством": 4654, 
  "вет@@": 4655, 
  "будущие": 4656, 
  "мысль": 4657, 
  "промышленных": 4658, 
  "Боливии": 4659, 
  "гражданам": 4660, 
  "человеческих": 4661, 
  "лечение": 4662, 
  "голланд@@": 4663, 
  "радика@@": 4664, 
  "визит": 4665, 
  "Швеции": 4666, 
  "первоначально": 4667, 
  "Тони": 4668, 
  "уважения": 4669, 
  "изобра@@": 4670, 
  "задолженности": 4671, 
  "енными": 4672, 
  "полагать": 4673, 
  "юаня": 4674, 
  "бедными": 4675, 
  "десятки": 4676, 
  "делая": 4677, 
  "рассмотреть": 4678, 
  "чны": 4679, 
  "Гонконга": 4680, 
  "ченный": 4681, 
  "стрит": 4682, 
  "растущее": 4683, 
  "учетом": 4684, 
  "креп@@": 4685, 
  "инициативу": 4686, 
  "чили": 4687, 
  "ши": 4688, 
  "лым": 4689, 
  "Мак@@": 4690, 
  "Германией": 4691, 
  "пройти": 4692, 
  "теорети@@": 4693, 
  "субсидий": 4694, 
  "би": 4695, 
  "вида": 4696, 
  "группировки": 4697, 
  "голос": 4698, 
  "лений": 4699, 
  "сто": 4700, 
  "устаре@@": 4701, 
  "городов": 4702, 
  "ара@@": 4703, 
  "счита@@": 4704, 
  "пространство": 4705, 
  "последствиям": 4706, 
  "подтвер@@": 4707, 
  "настоящего": 4708, 
  "лах": 4709, 
  "устранить": 4710, 
  "мор@@": 4711, 
  "объяснение": 4712, 
  "приносит": 4713, 
  "шую": 4714, 
  "сторона": 4715, 
  "продуктив@@": 4716, 
  "Сирия": 4717, 
  "уход": 4718, 
  "льному": 4719, 
  "наследие": 4720, 
  "ост@@": 4721, 
  "сыграть": 4722, 
  "прод@@": 4723, 
  "оскорб@@": 4724, 
  "политик": 4725, 
  "работали": 4726, 
  "после@@": 4727, 
  "Аргентине": 4728, 
  "стабиль@@": 4729, 
  "оценка": 4730, 
  "пользы": 4731, 
  "результатам": 4732, 
  "ключевой": 4733, 
  "официальных": 4734, 
  "золо@@": 4735, 
  "кредиторов": 4736, 
  "половине": 4737, 
  "половина": 4738, 
  "тира@@": 4739, 
  "ото@@": 4740, 
  "определенно": 4741, 
  "Юго": 4742, 
  "мся": 4743, 
  "тии": 4744, 
  "хра@@": 4745, 
  "ый": 4746, 
  "гражданские": 4747, 
  "планеты": 4748, 
  "нное": 4749, 
  "сложные": 4750, 
  "дало": 4751, 
  "эквивален@@": 4752, 
  "стских": 4753, 
  "орган": 4754, 
  "мать": 4755, 
  "правые": 4756, 
  "основой": 4757, 
  "йским": 4758, 
  "заслуживает": 4759, 
  "оцени@@": 4760, 
  "неприят@@": 4761, 
  "игру": 4762, 
  "самостоятельно": 4763, 
  "22": 4764, 
  "альным": 4765, 
  "нули": 4766, 
  "наце@@": 4767, 
  "Тайвань": 4768, 
  "серьезным": 4769, 
  "дол@@": 4770, 
  "тка": 4771, 
  "наподобие": 4772, 
  "сня@@": 4773, 
  "ждении": 4774, 
  "ливан@@": 4775, 
  "ответом": 4776, 
  "ощущение": 4777, 
  "изба@@": 4778, 
  "рованное": 4779, 
  "жива@@": 4780, 
  "инфляцией": 4781, 
  "сах": 4782, 
  "двой@@": 4783, 
  "лучшего": 4784, 
  "Бо@@": 4785, 
  "бен": 4786, 
  "субсиди@@": 4787, 
  "профсоюзы": 4788, 
  "микро@@": 4789, 
  "потоков": 4790, 
  "направить": 4791, 
  "державой": 4792, 
  "Аравия": 4793, 
  "краткосрочной": 4794, 
  "государству": 4795, 
  "возникновения": 4796, 
  "колле@@": 4797, 
  "чест@@": 4798, 
  "террористы": 4799, 
  "упомина@@": 4800, 
  "аргументы": 4801, 
  "щают": 4802, 
  "демократическая": 4803, 
  "расширить": 4804, 
  "процессу": 4805, 
  "главного": 4806, 
  "лые": 4807, 
  "продолжить": 4808, 
  "инструментов": 4809, 
  "ляется": 4810, 
  "рыночные": 4811, 
  "вреда": 4812, 
  "курсы": 4813, 
  "встре@@": 4814, 
  "ждение": 4815, 
  "допу@@": 4816, 
  "тек@@": 4817, 
  "стрем@@": 4818, 
  "потерять": 4819, 
  "партию": 4820, 
  "включают": 4821, 
  "ственная": 4822, 
  "юсь": 4823, 
  "Тунисе": 4824, 
  "недавнее": 4825, 
  "вероятности": 4826, 
  "российского": 4827, 
  "домо@@": 4828, 
  "ву@@": 4829, 
  "упро@@": 4830, 
  "па": 4831, 
  "en": 4832, 
  "жилья": 4833, 
  "масштаб@@": 4834, 
  "верят": 4835, 
  "открытого": 4836, 
  "французы": 4837, 
  "стены": 4838, 
  "вно": 4839, 
  "ровались": 4840, 
  "чув@@": 4841, 
  "согласиться": 4842, 
  "нрав@@": 4843, 
  "успехом": 4844, 
  "ракет": 4845, 
  "социально": 4846, 
  "предназна@@": 4847, 
  "слабости": 4848, 
  "имело": 4849, 
  "реформам": 4850, 
  "немедленно": 4851, 
  "требовать": 4852, 
  "текущих": 4853, 
  "пос@@": 4854, 
  "че": 4855, 
  "отража@@": 4856, 
  "сложным": 4857, 
  "собра@@": 4858, 
  "принято": 4859, 
  "шения": 4860, 
  "июне": 4861, 
  "дефолта": 4862, 
  "русские": 4863, 
  "поле": 4864, 
  "подумать": 4865, 
  "превратить": 4866, 
  "прошлым": 4867, 
  "важны": 4868, 
  "миллиарды": 4869, 
  "свет@@": 4870, 
  "неблагоприят@@": 4871, 
  "появится": 4872, 
  "1945": 4873, 
  "торговой": 4874, 
  "корот@@": 4875, 
  "единственное": 4876, 
  "наз@@": 4877, 
  "политикам": 4878, 
  "правах": 4879, 
  "глава": 4880, 
  "3,@@": 4881, 
  "продолж@@": 4882, 
  "дит": 4883, 
  "доказательств": 4884, 
  "Се@@": 4885, 
  "озабоченность": 4886, 
  "вдвое": 4887, 
  "видим": 4888, 
  "чности": 4889, 
  "шу@@": 4890, 
  "внешнюю": 4891, 
  "Каиды": 4892, 
  "зай@@": 4893, 
  "последующие": 4894, 
  "появилась": 4895, 
  "долгого": 4896, 
  "сосредото@@": 4897, 
  "меньшинств": 4898, 
  "ждением": 4899, 
  "авто@@": 4900, 
  "обеспечению": 4901, 
  "принима@@": 4902, 
  "конкурировать": 4903, 
  "Палестине": 4904, 
  "кампания": 4905, 
  "бюджетный": 4906, 
  "приток": 4907, 
  "означало": 4908, 
  "инвестировать": 4909, 
  "эффективных": 4910, 
  "потра@@": 4911, 
  "ноября": 4912, 
  "марта": 4913, 
  "могу": 4914, 
  "думали": 4915, 
  "сири@@": 4916, 
  "бит@@": 4917, 
  "жают": 4918, 
  "забы@@": 4919, 
  "президентов": 4920, 
  "преступ@@": 4921, 
  "предсказу@@": 4922, 
  "существовать": 4923, 
  "огромного": 4924, 
  "развива@@": 4925, 
  "удовлетвор@@": 4926, 
  "мед@@": 4927, 
  "потеря": 4928, 
  "ще": 4929, 
  "сильную": 4930, 
  "различий": 4931, 
  "такому": 4932, 
  "мной": 4933, 
  "ад@@": 4934, 
  "различными": 4935, 
  "писа@@": 4936, 
  "наций": 4937, 
  "перемен@@": 4938, 
  "урана": 4939, 
  "растущего": 4940, 
  "замен@@": 4941, 
  "призыв": 4942, 
  "ху@@": 4943, 
  "культуру": 4944, 
  "Советский": 4945, 
  "показателей": 4946, 
  "согласован@@": 4947, 
  "основными": 4948, 
  "траги@@": 4949, 
  "месяц": 4950, 
  "увеличением": 4951, 
  "израильских": 4952, 
  "испыта@@": 4953, 
  "возраста": 4954, 
  "продолжается": 4955, 
  "возро@@": 4956, 
  "справедливость": 4957, 
  "повсеместно": 4958, 
  "Талибана": 4959, 
  "факта": 4960, 
  "убед@@": 4961, 
  "широкое": 4962, 
  "попа@@": 4963, 
  "хими@@": 4964, 
  "осталось": 4965, 
  "C": 4966, 
  "части@@": 4967, 
  "форма": 4968, 
  "представлять": 4969, 
  "привилеги@@": 4970, 
  "1996": 4971, 
  "важными": 4972, 
  "генерал": 4973, 
  "видел": 4974, 
  "опреде@@": 4975, 
  "света": 4976, 
  "чь": 4977, 
  "оказывают": 4978, 
  "коррумпи@@": 4979, 
  "спровоци@@": 4980, 
  "многочисленных": 4981, 
  "Ираком": 4982, 
  "закон@@": 4983, 
  "второе": 4984, 
  "возника@@": 4985, 
  "постав@@": 4986, 
  "приняты": 4987, 
  "репутацию": 4988, 
  "уд@@": 4989, 
  "отве@@": 4990, 
  "влено": 4991, 
  "вная": 4992, 
  "повре@@": 4993, 
  "насе@@": 4994, 
  "серьезную": 4995, 
  "тре@@": 4996, 
  "закреп@@": 4997, 
  "заключ@@": 4998, 
  "сту@@": 4999, 
  "демократией": 5000, 
  "реальную": 5001, 
  "произошли": 5002, 
  "территорию": 5003, 
  "несправедли@@": 5004, 
  "принятии": 5005, 
  "подрывает": 5006, 
  "исход": 5007, 
  "низкого": 5008, 
  "проще": 5009, 
  "пытался": 5010, 
  "афган@@": 5011, 
  "этнических": 5012, 
  "нужды": 5013, 
  "оценку": 5014, 
  "разработке": 5015, 
  "предприня@@": 5016, 
  "ожиданий": 5017, 
  "дной": 5018, 
  "век": 5019, 
  "диалога": 5020, 
  "задачу": 5021, 
  "явление": 5022, 
  "выполнять": 5023, 
  "нападение": 5024, 
  "1992": 5025, 
  "неэффектив@@": 5026, 
  "правительственной": 5027, 
  "неустойчи@@": 5028, 
  "вли@@": 5029, 
  "подо@@": 5030, 
  "одино@@": 5031, 
  "демократизации": 5032, 
  "меньшинства": 5033, 
  "тном": 5034, 
  "сможем": 5035, 
  "моментом": 5036, 
  "структурных": 5037, 
  "ближайшем": 5038, 
  "мыс@@": 5039, 
  "президентства": 5040, 
  "поиск": 5041, 
  "кандидаты": 5042, 
  "высоко": 5043, 
  "инициатива": 5044, 
  "сверх@@": 5045, 
  "попытаться": 5046, 
  "мои": 5047, 
  "избирательных": 5048, 
  "упадок": 5049, 
  "января": 5050, 
  "октябре": 5051, 
  "территори@@": 5052, 
  "объединен@@": 5053, 
  "леса": 5054, 
  "ней@@": 5055, 
  "заставляет": 5056, 
  "управлением": 5057, 
  "решит": 5058, 
  "каса@@": 5059, 
  "неопределен@@": 5060, 
  "наличия": 5061, 
  "треть": 5062, 
  "суть": 5063, 
  "регуля@@": 5064, 
  "враждеб@@": 5065, 
  "двум": 5066, 
  "отрасли": 5067, 
  "реформу": 5068, 
  "позиций": 5069, 
  "0000": 5070, 
  "рынку": 5071, 
  "стского": 5072, 
  "поселений": 5073, 
  "террористические": 5074, 
  "телем": 5075, 
  "протеста": 5076, 
  "обучение": 5077, 
  "средство": 5078, 
  "обвин@@": 5079, 
  "достигнуто": 5080, 
  "обществу": 5081, 
  "движением": 5082, 
  "предоставляют": 5083, 
  "израильской": 5084, 
  "изма": 5085, 
  "поднима@@": 5086, 
  "судьба": 5087, 
  "компаниями": 5088, 
  "рассматри@@": 5089, 
  "получение": 5090, 
  "тили": 5091, 
  "бога@@": 5092, 
  "заинтересованы": 5093, 
  "позити@@": 5094, 
  "свободно": 5095, 
  "дис@@": 5096, 
  "вид@@": 5097, 
  "крупным": 5098, 
  "иты": 5099, 
  "рия": 5100, 
  "потерь": 5101, 
  "Боснии": 5102, 
  "посту": 5103, 
  "предметом": 5104, 
  "Союзом": 5105, 
  "тельное": 5106, 
  "щенные": 5107, 
  "умень@@": 5108, 
  "вили": 5109, 
  "банковские": 5110, 
  "душ@@": 5111, 
  "нашем": 5112, 
  "непо@@": 5113, 
  "делах": 5114, 
  "агресси@@": 5115, 
  "шен@@": 5116, 
  "щению": 5117, 
  "нравится": 5118, 
  "низких": 5119, 
  "пото@@": 5120, 
  "духо@@": 5121, 
  "итальян@@": 5122, 
  "шиит@@": 5123, 
  "верит": 5124, 
  "чки": 5125, 
  "отказывается": 5126, 
  "рованную": 5127, 
  "поток": 5128, 
  "будь": 5129, 
  "домов": 5130, 
  "отсутствует": 5131, 
  "случаи": 5132, 
  "неожи@@": 5133, 
  "видит": 5134, 
  "демократы": 5135, 
  "сосредоточиться": 5136, 
  "выбором": 5137, 
  "семей@@": 5138, 
  "конституцию": 5139, 
  "миллиар@@": 5140, 
  "совершен@@": 5141, 
  "срочно": 5142, 
  "ядерный": 5143, 
  "применить": 5144, 
  "октября": 5145, 
  "споров": 5146, 
  "фу@@": 5147, 
  "используется": 5148, 
  "зем@@": 5149, 
  "окажутся": 5150, 
  "близ@@": 5151, 
  "поколений": 5152, 
  "сравни@@": 5153, 
  "основана": 5154, 
  "потенциальных": 5155, 
  "мысли": 5156, 
  "M@@": 5157, 
  "израильского": 5158, 
  "иностранным": 5159, 
  "дале@@": 5160, 
  "жали": 5161, 
  "экологи@@": 5162, 
  "зом": 5163, 
  "R@@": 5164, 
  "зе@@": 5165, 
  "напряженность": 5166, 
  "развиваться": 5167, 
  "жертвой": 5168, 
  "израильтяне": 5169, 
  "интер@@": 5170, 
  "указа@@": 5171, 
  "аргентин@@": 5172, 
  "принципу": 5173, 
  "старых": 5174, 
  "револю@@": 5175, 
  "тер": 5176, 
  "дума@@": 5177, 
  "утверждения": 5178, 
  "республикан@@": 5179, 
  "нят": 5180, 
  "председателя": 5181, 
  "сделают": 5182, 
  "доро@@": 5183, 
  "шими": 5184, 
  "ставить": 5185, 
  "серьезное": 5186, 
  "A@@": 5187, 
  "приверженность": 5188, 
  "книге": 5189, 
  "помог": 5190, 
  "сотен": 5191, 
  "разме@@": 5192, 
  "дар@@": 5193, 
  "щена": 5194, 
  "среду": 5195, 
  "опросы": 5196, 
  "трудом": 5197, 
  "простым": 5198, 
  "инвестиционные": 5199, 
  "священ@@": 5200, 
  "растущий": 5201, 
  "непопуляр@@": 5202, 
  "занять": 5203, 
  "самим": 5204, 
  "принадлежит": 5205, 
  "вес": 5206, 
  "чуть": 5207, 
  "минима@@": 5208, 
  "управлении": 5209, 
  "продемонстрировать": 5210, 
  "слабым": 5211, 
  "отвеча@@": 5212, 
  "последнюю": 5213, 
  "щен": 5214, 
  "обучения": 5215, 
  "вопросами": 5216, 
  "заявляют": 5217, 
  "сеть": 5218, 
  "предотвра@@": 5219, 
  "част@@": 5220, 
  "популяр@@": 5221, 
  "мирный": 5222, 
  "противоречи@@": 5223, 
  "высокая": 5224, 
  "подверг@@": 5225, 
  "ограничение": 5226, 
  "подходит": 5227, 
  "фо@@": 5228, 
  "триллиона": 5229, 
  "банками": 5230, 
  "едино@@": 5231, 
  "стратегической": 5232, 
  "журналистов": 5233, 
  "чность": 5234, 
  "пы@@": 5235, 
  "нь": 5236, 
  "финансово": 5237, 
  "оказываются": 5238, 
  "требованиям": 5239, 
  "Латинская": 5240, 
  "сбаланси@@": 5241, 
  "атомной": 5242, 
  "тив": 5243, 
  "шко@@": 5244, 
  "23": 5245, 
  "июня": 5246, 
  "Румынии": 5247, 
  "страда@@": 5248, 
  "Францией": 5249, 
  "уте@@": 5250, 
  "отец": 5251, 
  "яв@@": 5252, 
  "страдания": 5253, 
  "описыва@@": 5254, 
  "осознают": 5255, 
  "сегодняшнем": 5256, 
  "спа@@": 5257, 
  "Пе@@": 5258, 
  "базы": 5259, 
  "бюджетных": 5260, 
  "собира@@": 5261, 
  "разруш@@": 5262, 
  "открытым": 5263, 
  "ительность": 5264, 
  "видение": 5265, 
  "лла": 5266, 
  "подда@@": 5267, 
  "ционным": 5268, 
  "рубежом": 5269, 
  "бло@@": 5270, 
  "оз@@": 5271, 
  "Кастро": 5272, 
  "защит@@": 5273, 
  "заплани@@": 5274, 
  "Т": 5275, 
  "7@@": 5276, 
  "A": 5277, 
  "увеличи@@": 5278, 
  "университетов": 5279, 
  "альтернативой": 5280, 
  "сотрудников": 5281, 
  "ствует": 5282, 
  "намерения": 5283, 
  "собирается": 5284, 
  "продолжит": 5285, 
  "вице": 5286, 
  "общим": 5287, 
  "экстреми@@": 5288, 
  "профессиональ@@": 5289, 
  "занятость": 5290, 
  "1967": 5291, 
  "судей": 5292, 
  "эл@@": 5293, 
  "ционную": 5294, 
  "процессы": 5295, 
  "известны": 5296, 
  "эк@@": 5297, 
  "массы": 5298, 
  "согласны": 5299, 
  "ков@@": 5300, 
  "прозра@@": 5301, 
  "Договора": 5302, 
  "ровании": 5303, 
  "объясняется": 5304, 
  "сумма": 5305, 
  "бюджетной": 5306, 
  "ДПЯ": 5307, 
  "возрождение": 5308, 
  "правящей": 5309, 
  "согласились": 5310, 
  "ситуацией": 5311, 
  "народы": 5312, 
  "природе": 5313, 
  "бан@@": 5314, 
  "слабые": 5315, 
  "количестве": 5316, 
  "поворо@@": 5317, 
  "осуществлять": 5318, 
  "коммер@@": 5319, 
  "ДНК": 5320, 
  "считаю": 5321, 
  "исправить": 5322, 
  "реакцию": 5323, 
  "регионального": 5324, 
  "коро@@": 5325, 
  "выживание": 5326, 
  "укорени@@": 5327, 
  "центральным": 5328, 
  "непосред@@": 5329, 
  "национальное": 5330, 
  "студен@@": 5331, 
  "необходимостью": 5332, 
  "ведущие": 5333, 
  "наблюдать": 5334, 
  "президентской": 5335, 
  "использованием": 5336, 
  "лесов": 5337, 
  "бывшей": 5338, 
  "Соединённых": 5339, 
  "представляется": 5340, 
  "триллионов": 5341, 
  "увеличива@@": 5342, 
  "минимум": 5343, 
  "самую": 5344, 
  "направленных": 5345, 
  "структур": 5346, 
  "демографи@@": 5347, 
  "Ро@@": 5348, 
  "расширя@@": 5349, 
  "предыдущие": 5350, 
  "вину": 5351, 
  "поднять": 5352, 
  "лет@@": 5353, 
  "супер@@": 5354, 
  "статисти@@": 5355, 
  "Мон@@": 5356, 
  "коррупцией": 5357, 
  "большему": 5358, 
  "Западном": 5359, 
  "властей": 5360, 
  "скром@@": 5361, 
  "син@@": 5362, 
  "хорошего": 5363, 
  "зло@@": 5364, 
  "обращения": 5365, 
  "масштаба": 5366, 
  "израильско": 5367, 
  "официальной": 5368, 
  "ослабление": 5369, 
  "национальном": 5370, 
  "напрямую": 5371, 
  "сотрудничеству": 5372, 
  "примеров": 5373, 
  "пора@@": 5374, 
  "гражданами": 5375, 
  "приорите@@": 5376, 
  "процессом": 5377, 
  "ченного": 5378, 
  "приближа@@": 5379, 
  "боятся": 5380, 
  "тупик": 5381, 
  "острова": 5382, 
  "вшее": 5383, 
  "католи@@": 5384, 
  "гарантий": 5385, 
  "уровню": 5386, 
  "широкого": 5387, 
  "нией": 5388, 
  "стараются": 5389, 
  "нанести": 5390, 
  "щении": 5391, 
  "ителем": 5392, 
  "инновации": 5393, 
  "кан@@": 5394, 
  "нов@@": 5395, 
  "любых": 5396, 
  "стью": 5397, 
  "ослож@@": 5398, 
  "тивной": 5399, 
  "непредсказу@@": 5400, 
  "беднейших": 5401, 
  "генов": 5402, 
  "изменилась": 5403, 
  "жению": 5404, 
  "развивать": 5405, 
  "выплат": 5406, 
  "работал": 5407, 
  "предыдущих": 5408, 
  "приоритеты": 5409, 
  "циф@@": 5410, 
  "собственность": 5411, 
  "Во@@": 5412, 
  "ждет": 5413, 
  "планов": 5414, 
  "символи@@": 5415, 
  "обшир@@": 5416, 
  "дет@@": 5417, 
  "европейским": 5418, 
  "готова": 5419, 
  "испан@@": 5420, 
  "длительного": 5421, 
  "привле@@": 5422, 
  "точку": 5423, 
  "дефляции": 5424, 
  "юге": 5425, 
  "временно": 5426, 
  "книги": 5427, 
  "влен": 5428, 
  "стратегические": 5429, 
  "основного": 5430, 
  "глубокое": 5431, 
  "одинаково": 5432, 
  "жертвами": 5433, 
  "капиталом": 5434, 
  "типи@@": 5435, 
  "призывы": 5436, 
  "разделя@@": 5437, 
  "связан": 5438, 
  "пара@@": 5439, 
  "сложности": 5440, 
  "объединить": 5441, 
  "препятствия": 5442, 
  "учитывать": 5443, 
  "угроз": 5444, 
  "ребенка": 5445, 
  "независимых": 5446, 
  "моло@@": 5447, 
  "ванными": 5448, 
  "центра": 5449, 
  "энергия": 5450, 
  "возрасте": 5451, 
  "налогоплательщиков": 5452, 
  "ден": 5453, 
  "стан@@": 5454, 
  "Аббас": 5455, 
  "проведен@@": 5456, 
  "лях": 5457, 
  "компромисса": 5458, 
  "каче@@": 5459, 
  "пасси@@": 5460, 
  "самому": 5461, 
  "демократический": 5462, 
  "конкуренцию": 5463, 
  "экспер@@": 5464, 
  "атак": 5465, 
  "ожидают": 5466, 
  "замедление": 5467, 
  "оправдания": 5468, 
  "ходя@@": 5469, 
  "публи@@": 5470, 
  "представления": 5471, 
  "малярии": 5472, 
  "мент": 5473, 
  "рождаемости": 5474, 
  "гля@@": 5475, 
  "широком": 5476, 
  "вынужден": 5477, 
  "крупной": 5478, 
  "увеличивается": 5479, 
  "частным": 5480, 
  "альтернатива": 5481, 
  "Ша@@": 5482, 
  "опровер@@": 5483, 
  "зацией": 5484, 
  "акцент": 5485, 
  "местным": 5486, 
  "нского": 5487, 
  "эффективные": 5488, 
  "тку": 5489, 
  "ком@@": 5490, 
  "сосед@@": 5491, 
  "республики": 5492, 
  "совер@@": 5493, 
  "компетен@@": 5494, 
  "случай@@": 5495, 
  "Ве@@": 5496, 
  "говорится": 5497, 
  "Индонезия": 5498, 
  "правом": 5499, 
  "мозга": 5500, 
  "составля@@": 5501, 
  "лич@@": 5502, 
  "шить": 5503, 
  "посред@@": 5504, 
  "Гуантанамо": 5505, 
  "гиб@@": 5506, 
  "ответил": 5507, 
  "оказа@@": 5508, 
  "ставку": 5509, 
  "современного": 5510, 
  "зов": 5511, 
  "СССР": 5512, 
  "дальнейшее": 5513, 
  "элементы": 5514, 
  "молодежи": 5515, 
  "методов": 5516, 
  "доб@@": 5517, 
  "делу": 5518, 
  "происхождения": 5519, 
  "ана@@": 5520, 
  "помогут": 5521, 
  "заключаться": 5522, 
  "широкий": 5523, 
  "столкновения": 5524, 
  "распада": 5525, 
  "Лу@@": 5526, 
  "усугуб@@": 5527, 
  "мусульманских": 5528, 
  "направлена": 5529, 
  "сных": 5530, 
  "комитет": 5531, 
  "Венесуэлы": 5532, 
  "землю": 5533, 
  "ителя": 5534, 
  "откло@@": 5535, 
  "спаса@@": 5536, 
  "лекарств": 5537, 
  "разделения": 5538, 
  "Аббаса": 5539, 
  "угле@@": 5540, 
  "разрешение": 5541, 
  "реагировать": 5542, 
  "новостей": 5543, 
  "улицы": 5544, 
  "кандидат": 5545, 
  "тесно": 5546, 
  "канцлер": 5547, 
  "сохраня@@": 5548, 
  "смяг@@": 5549, 
  "возможное": 5550, 
  "демонстрирует": 5551, 
  "фермеры": 5552, 
  "открытости": 5553, 
  "небольшие": 5554, 
  "правилам": 5555, 
  "внешнего": 5556, 
  "учре@@": 5557, 
  "втор@@": 5558, 
  "выполнения": 5559, 
  "культурные": 5560, 
  "джа@@": 5561, 
  "нестабиль@@": 5562, 
  "полож@@": 5563, 
  "т.д.": 5564, 
  "упала": 5565, 
  "ванным": 5566, 
  "городе": 5567, 
  "создала": 5568, 
  "настаивать": 5569, 
  "идентичности": 5570, 
  "пя@@": 5571, 
  "домой": 5572, 
  "тировать": 5573, 
  "игра": 5574, 
  "чит": 5575, 
  "e": 5576, 
  "арабов": 5577, 
  "следующим": 5578, 
  "рассматривается": 5579, 
  "годом": 5580, 
  "бесконе@@": 5581, 
  "пуга@@": 5582, 
  "бой": 5583, 
  "судить": 5584, 
  "позволят": 5585, 
  "добы@@": 5586, 
  "нила": 5587, 
  "лия": 5588, 
  "рисками": 5589, 
  "осенью": 5590, 
  "шла": 5591, 
  "напа@@": 5592, 
  "опасаются": 5593, 
  "выступают": 5594, 
  "фанати@@": 5595, 
  "чистой": 5596, 
  "внешних": 5597, 
  "бле@@": 5598, 
  "диа@@": 5599, 
  "денежная": 5600, 
  "развитой": 5601, 
  "вероят@@": 5602, 
  "хорошая": 5603, 
  "заключенных": 5604, 
  "автомоби@@": 5605, 
  "испол@@": 5606, 
  "регулярно": 5607, 
  "броса@@": 5608, 
  "нены": 5609, 
  "нынешней": 5610, 
  "Англии": 5611, 
  "палестинской": 5612, 
  "интереса": 5613, 
  "страхование": 5614, 
  "ат@@": 5615, 
  "обычные": 5616, 
  "друзей": 5617, 
  "бесполез@@": 5618, 
  "дило": 5619, 
  "шит": 5620, 
  "происходило": 5621, 
  "деше@@": 5622, 
  "опас@@": 5623, 
  "преобразова@@": 5624, 
  "мол@@": 5625, 
  "арабской": 5626, 
  "французский": 5627, 
  "стар@@": 5628, 
  "рассчитывать": 5629, 
  "Европейским": 5630, 
  "фактом": 5631, 
  "Урибе": 5632, 
  "энергети@@": 5633, 
  "основанные": 5634, 
  "правители": 5635, 
  "несколькими": 5636, 
  "достижении": 5637, 
  "гами": 5638, 
  "социал": 5639, 
  "местом": 5640, 
  "игра@@": 5641, 
  "ча": 5642, 
  "революцию": 5643, 
  "тур@@": 5644, 
  "формирования": 5645, 
  "господ@@": 5646, 
  "спро@@": 5647, 
  "лыми": 5648, 
  "изменениями": 5649, 
  "быстрое": 5650, 
  "150": 5651, 
  "промышлен@@": 5652, 
  "Обаме": 5653, 
  "тяже@@": 5654, 
  "Роберт": 5655, 
  "члена": 5656, 
  "добычи": 5657, 
  "памяти": 5658, 
  "нуж@@": 5659, 
  "возможные": 5660, 
  "знач@@": 5661, 
  "заблуждение": 5662, 
  "правильным": 5663, 
  "выража@@": 5664, 
  "определять": 5665, 
  "пришла": 5666, 
  "объема": 5667, 
  "жил": 5668, 
  "зами": 5669, 
  "Западу": 5670, 
  "отказыва@@": 5671, 
  "хом": 5672, 
  "способствуют": 5673, 
  "сложи@@": 5674, 
  "университеты": 5675, 
  "раунд": 5676, 
  "возврат": 5677, 
  "государственными": 5678, 
  "фундаментальных": 5679, 
  "компромис@@": 5680, 
  "дороги": 5681, 
  "разногласий": 5682, 
  "хрони@@": 5683, 
  "применять": 5684, 
  "включать": 5685, 
  "уровнях": 5686, 
  "избирательной": 5687, 
  "привет@@": 5688, 
  "недостатка": 5689, 
  "кредиторы": 5690, 
  "вели@@": 5691, 
  "пунктов": 5692, 
  "страхо@@": 5693, 
  "Ирландия": 5694, 
  "рациональ@@": 5695, 
  "производителей": 5696, 
  "написа@@": 5697, 
  "команда": 5698, 
  "ски@@": 5699, 
  "предоставлять": 5700, 
  "чен@@": 5701, 
  "национальная": 5702, 
  "измениться": 5703, 
  "ствующих": 5704, 
  "достижений": 5705, 
  "серьезными": 5706, 
  "процессов": 5707, 
  "Дж@@": 5708, 
  "тип": 5709, 
  "августе": 5710, 
  "коалиция": 5711, 
  "бомбы": 5712, 
  "настоящему": 5713, 
  "пом": 5714, 
  "использовании": 5715, 
  "рус@@": 5716, 
  "назначения": 5717, 
  "сельских": 5718, 
  "основанной": 5719, 
  "законность": 5720, 
  "ченными": 5721, 
  "внешние": 5722, 
  "исторической": 5723, 
  "реально": 5724, 
  "мета@@": 5725, 
  "зла": 5726, 
  "постоянным": 5727, 
  "аресто@@": 5728, 
  "зацию": 5729, 
  "преследовать": 5730, 
  "валютной": 5731, 
  "муж@@": 5732, 
  "ход@@": 5733, 
  "историей": 5734, 
  "признал": 5735, 
  "известный": 5736, 
  "нереш@@": 5737, 
  "дух": 5738, 
  "длин@@": 5739, 
  "лый": 5740, 
  "французской": 5741, 
  "импор@@": 5742, 
  "заслуживают": 5743, 
  "дополнение": 5744, 
  "иниции@@": 5745, 
  "ограничены": 5746, 
  "призыва@@": 5747, 
  "лобби@@": 5748, 
  "ственном": 5749, 
  "встреча@@": 5750, 
  "процент": 5751, 
  "лено": 5752, 
  "убий@@": 5753, 
  "4,@@": 5754, 
  "лежа@@": 5755, 
  "ускорить": 5756, 
  "немцы": 5757, 
  "достигнет": 5758, 
  "режиму": 5759, 
  "удовлетворить": 5760, 
  "беспокоиться": 5761, 
  "противополож@@": 5762, 
  "подразуме@@": 5763, 
  "прибе@@": 5764, 
  "национальную": 5765, 
  "следовало": 5766, 
  "жесткие": 5767, 
  "носит": 5768, 
  "объяснения": 5769, 
  "насилию": 5770, 
  "блага": 5771, 
  "считал": 5772, 
  "Ре@@": 5773, 
  "альянс": 5774, 
  "мирное": 5775, 
  "мента@@": 5776, 
  "стские": 5777, 
  "смену": 5778, 
  "G": 5779, 
  "тыми": 5780, 
  "разговоры": 5781, 
  "реформе": 5782, 
  "щаются": 5783, 
  "счетов": 5784, 
  "изменилось": 5785, 
  "помогают": 5786, 
  "покупать": 5787, 
  "Май@@": 5788, 
  "продолжение": 5789, 
  "недостаточ@@": 5790, 
  "угрожа@@": 5791, 
  "влением": 5792, 
  "спор": 5793, 
  "исламской": 5794, 
  "кают": 5795, 
  "деспоти@@": 5796, 
  "разрушения": 5797, 
  "нарушение": 5798, 
  "тин@@": 5799, 
  "появляется": 5800, 
  "лучшей": 5801, 
  "соотношение": 5802, 
  "превы@@": 5803, 
  "Мушарраф": 5804, 
  "банковского": 5805, 
  "вах": 5806, 
  "уго@@": 5807, 
  "город": 5808, 
  "шем": 5809, 
  "ежегод@@": 5810, 
  "возобно@@": 5811, 
  "свидетельствует": 5812, 
  "отказался": 5813, 
  "нанес@@": 5814, 
  "оппозицию": 5815, 
  "ядерную": 5816, 
  "известных": 5817, 
  "незакон@@": 5818, 
  "способа": 5819, 
  "рецессия": 5820, 
  "инструментом": 5821, 
  "пира@@": 5822, 
  "внешний": 5823, 
  "врагов": 5824, 
  "шаются": 5825, 
  "радикальные": 5826, 
  "ей@@": 5827, 
  "энергетики": 5828, 
  "группу": 5829, 
  "сферах": 5830, 
  "статьи": 5831, 
  "тельно": 5832, 
  "валютой": 5833, 
  "вав": 5834, 
  "такти@@": 5835, 
  "чному": 5836, 
  "затро@@": 5837, 
  "емость": 5838, 
  "предпочитают": 5839, 
  "the": 5840, 
  "ев@@": 5841, 
  "персона@@": 5842, 
  "насиль@@": 5843, 
  "утверждал": 5844, 
  "заявляет": 5845, 
  "крупными": 5846, 
  "определяет": 5847, 
  "отказались": 5848, 
  "ленного": 5849, 
  "суверенитет": 5850, 
  "опла@@": 5851, 
  "ус@@": 5852, 
  "подчеркивает": 5853, 
  "2015": 5854, 
  "подгото@@": 5855, 
  "плохим": 5856, 
  "климат": 5857, 
  "понятия": 5858, 
  "надеются": 5859, 
  "либера@@": 5860, 
  "попытку": 5861, 
  "границе": 5862, 
  "каждое": 5863, 
  "китайское": 5864, 
  "интервенции": 5865, 
  "продвижения": 5866, 
  "восьми": 5867, 
  "культур": 5868, 
  "экономи@@": 5869, 
  "писал": 5870, 
  "F@@": 5871, 
  "цах": 5872, 
  "наблюдателей": 5873, 
  "защи@@": 5874, 
  "избавиться": 5875, 
  "чечен@@": 5876, 
  "неизбежным": 5877, 
  "торам": 5878, 
  "гос@@": 5879, 
  "подор@@": 5880, 
  "волны": 5881, 
  "стандартам": 5882, 
  "Венгрии": 5883, 
  "коман@@": 5884, 
  "мир@@": 5885, 
  "полиция": 5886, 
  "Фонд": 5887, 
  "обществах": 5888, 
  "критику": 5889, 
  "парламентских": 5890, 
  "повестке": 5891, 
  "придет": 5892, 
  "корей@@": 5893, 
  "невер@@": 5894, 
  "обы@@": 5895, 
  "Ромни": 5896, 
  "распространяется": 5897, 
  "согласо@@": 5898, 
  "ставят": 5899, 
  "опасным": 5900, 
  "коммунизм": 5901, 
  "взле@@": 5902, 
  "инноваций": 5903, 
  "оса@@": 5904, 
  "постепен@@": 5905, 
  "насущ@@": 5906, 
  "режимом": 5907, 
  "комплек@@": 5908, 
  "потряс@@": 5909, 
  "жу": 5910, 
  "обстоятельства": 5911, 
  "вышли": 5912, 
  "вающей": 5913, 
  "равной": 5914, 
  "лил": 5915, 
  "Европейскому": 5916, 
  "наступит": 5917, 
  "опытом": 5918, 
  "нан@@": 5919, 
  "пыта@@": 5920, 
  "низкими": 5921, 
  "оправдать": 5922, 
  "институ@@": 5923, 
  "открытие": 5924, 
  "соответствующих": 5925, 
  "Й@@": 5926, 
  "окажет": 5927, 
  "помешать": 5928, 
  "валютные": 5929, 
  "электроэнергии": 5930, 
  "непри@@": 5931, 
  "механизмов": 5932, 
  "третьей": 5933, 
  "характер@@": 5934, 
  "стремления": 5935, 
  "осознать": 5936, 
  "выглядеть": 5937, 
  "администрацией": 5938, 
  "6@@": 5939, 
  "дии": 5940, 
  "про": 5941, 
  "растущие": 5942, 
  "ще@@": 5943, 
  "вит": 5944, 
  "Бирмы": 5945, 
  "уме@@": 5946, 
  "думаю": 5947, 
  "шиитов": 5948, 
  "Пекине": 5949, 
  "секретаря": 5950, 
  "налоговых": 5951, 
  "запла@@": 5952, 
  "прошло": 5953, 
  "акционеров": 5954, 
  "E@@": 5955, 
  "растущая": 5956, 
  "заметно": 5957, 
  "вную": 5958, 
  "контролю": 5959, 
  "шили": 5960, 
  "потоки": 5961, 
  "резкого": 5962, 
  "низм": 5963, 
  "D@@": 5964, 
  "ствовали": 5965, 
  "емости": 5966, 
  "возникают": 5967, 
  "носят": 5968, 
  "возьмем": 5969, 
  "непреры@@": 5970, 
  "Колумбия": 5971, 
  "ём": 5972, 
  "превен@@": 5973, 
  "личной": 5974, 
  "компенсировать": 5975, 
  "одобрения": 5976, 
  "условии": 5977, 
  "сочетание": 5978, 
  "являлись": 5979, 
  "Ху@@": 5980, 
  "КГБ": 5981, 
  "серьезного": 5982, 
  "нными": 5983, 
  "проходит": 5984, 
  "волна": 5985, 
  "Бе@@": 5986, 
  "европейскими": 5987, 
  "примут": 5988, 
  "действ@@": 5989, 
  "исторические": 5990, 
  "кать": 5991, 
  "расширен@@": 5992, 
  "кам@@": 5993, 
  "уде@@": 5994, 
  "поддерживали": 5995, 
  "имеющие": 5996, 
  "противостояние": 5997, 
  "отчаянно": 5998, 
  "знал": 5999, 
  "покры@@": 6000, 
  "отца": 6001, 
  "тревогу": 6002, 
  "каждым": 6003, 
  "Дарфуре": 6004, 
  "адеква@@": 6005, 
  "значительная": 6006, 
  "выращи@@": 6007, 
  "ливи@@": 6008, 
  "независимые": 6009, 
  "G@@": 6010, 
  "функции": 6011, 
  "знако@@": 6012, 
  "европейскую": 6013, 
  "игнори@@": 6014, 
  "женщина": 6015, 
  "цивилизации": 6016, 
  "культуре": 6017, 
  "нную": 6018, 
  "Нобелевской": 6019, 
  "налоговые": 6020, 
  "мест@@": 6021, 
  "автономии": 6022, 
  "крупный": 6023, 
  "ян@@": 6024, 
  "19@@": 6025, 
  "испытаний": 6026, 
  "союзниками": 6027, 
  "случится": 6028, 
  "районах": 6029, 
  "сектором": 6030, 
  "Гу@@": 6031, 
  "Ман@@": 6032, 
  "ся@@": 6033, 
  "ствовал": 6034, 
  "счастли@@": 6035, 
  "малых": 6036, 
  "тило": 6037, 
  "спе@@": 6038, 
  "секретарь": 6039, 
  "адрес": 6040, 
  "каждом": 6041, 
  "группой": 6042, 
  "услож@@": 6043, 
  "1979": 6044, 
  "солдаты": 6045, 
  "оставляет": 6046, 
  "еврозона": 6047, 
  "сек@@": 6048, 
  "капиталисти@@": 6049, 
  "служащих": 6050, 
  "способ@@": 6051, 
  "приз@@": 6052, 
  "происходить": 6053, 
  "шу": 6054, 
  "рассматриваться": 6055, 
  "характера": 6056, 
  "гнев": 6057, 
  "бри@@": 6058, 
  "20@@": 6059, 
  "подъема": 6060, 
  "Сахары": 6061, 
  "благо": 6062, 
  "вленные": 6063, 
  "вступить": 6064, 
  "членства": 6065, 
  "отчет": 6066, 
  "послание": 6067, 
  "спло@@": 6068, 
  "свободные": 6069, 
  "обращение": 6070, 
  "оборону": 6071, 
  "эль": 6072, 
  "кризис@@": 6073, 
  "ктив@@": 6074, 
  "запа@@": 6075, 
  "ближайшее": 6076, 
  "прогнози@@": 6077, 
  "глу@@": 6078, 
  "жных": 6079, 
  "инвестиционных": 6080, 
  "ум": 6081, 
  "максима@@": 6082, 
  "мента": 6083, 
  "народу": 6084, 
  "ценами": 6085, 
  "17@@": 6086, 
  "обмен@@": 6087, 
  "обратно": 6088, 
  "студенты": 6089, 
  "боль@@": 6090, 
  "писать": 6091, 
  "механизма": 6092, 
  "использу@@": 6093, 
  "восстание": 6094, 
  "любую": 6095, 
  "виз@@": 6096, 
  "одних": 6097, 
  "раздра@@": 6098, 
  "T@@": 6099, 
  "болезнь": 6100, 
  "энерги@@": 6101, 
  "гают": 6102, 
  "ошибка": 6103, 
  "узнать": 6104, 
  "спокой@@": 6105, 
  "вернулся": 6106, 
  "поли@@": 6107, 
  "считаться": 6108, 
  "невозможным": 6109, 
  "голосование": 6110, 
  "вор@@": 6111, 
  "возможного": 6112, 
  "мерт@@": 6113, 
  "Ладена": 6114, 
  "яс@@": 6115, 
  "мечты": 6116, 
  "достижению": 6117, 
  "остальным": 6118, 
  "разочарование": 6119, 
  "заверши@@": 6120, 
  "детям": 6121, 
  "декабря": 6122, 
  "работники": 6123, 
  "ходят": 6124, 
  "сдержа@@": 6125, 
  "законности": 6126, 
  "возвращения": 6127, 
  "богатым": 6128, 
  "жизнью": 6129, 
  "она@@": 6130, 
  "Хусейна": 6131, 
  "склон@@": 6132, 
  "думает": 6133, 
  "вля@@": 6134, 
  "Ста@@": 6135, 
  "обе@@": 6136, 
  "массовые": 6137, 
  "дефолт": 6138, 
  "организациями": 6139, 
  "выбрать": 6140, 
  "последовать": 6141, 
  "ностях": 6142, 
  "2020": 6143, 
  "колебания": 6144, 
  "нефтяные": 6145, 
  "предотвращение": 6146, 
  "кредита": 6147, 
  "полага@@": 6148, 
  "последовали": 6149, 
  "предвыборной": 6150, 
  "титься": 6151, 
  "перейти": 6152, 
  "ъ@@": 6153, 
  "вшими": 6154, 
  "ответы": 6155, 
  "уверен": 6156, 
  "производстве": 6157, 
  "ждая": 6158, 
  "сформировать": 6159, 
  "появился": 6160, 
  "протекционизма": 6161, 
  "жила": 6162, 
  "единство": 6163, 
  "ипоте@@": 6164, 
  "приносят": 6165, 
  "журналисты": 6166, 
  "разор@@": 6167, 
  "создается": 6168, 
  "получи@@": 6169, 
  "вшую": 6170, 
  "корректи@@": 6171, 
  "свободных": 6172, 
  "утверждая": 6173, 
  "ждают": 6174, 
  "Конгресса": 6175, 
  "стская": 6176, 
  "торами": 6177, 
  "компенсации": 6178, 
  "осуществи@@": 6179, 
  "судьи": 6180, 
  "шки": 6181, 
  "беспрецеден@@": 6182, 
  "устанавли@@": 6183, 
  "Ширак": 6184, 
  "Ахмадинежада": 6185, 
  "преследова@@": 6186, 
  "некоторыми": 6187, 
  "шему": 6188, 
  "обога@@": 6189, 
  "возник@@": 6190, 
  "Ин@@": 6191, 
  "транс@@": 6192, 
  "шли": 6193, 
  "прозрачность": 6194, 
  "ствия": 6195, 
  "дестабилизи@@": 6196, 
  "Западного": 6197, 
  "зака@@": 6198, 
  "каком": 6199, 
  "участием": 6200, 
  "влияет": 6201, 
  "рака": 6202, 
  "льности": 6203, 
  "Ельцина": 6204, 
  "щено": 6205, 
  "совмест@@": 6206, 
  "концепция": 6207, 
  "соответствующие": 6208, 
  "зер@@": 6209, 
  "каз@@": 6210, 
  "ционными": 6211, 
  "государствам": 6212, 
  "присутствия": 6213, 
  "перспектив": 6214, 
  "чению": 6215, 
  "рождения": 6216, 
  "использоваться": 6217, 
  "аналогично": 6218, 
  "частном": 6219, 
  "суще@@": 6220, 
  "ственную": 6221, 
  "каждому": 6222, 
  "новость": 6223, 
  "Корею": 6224, 
  "опасной": 6225, 
  "важная": 6226, 
  "ляли": 6227, 
  "законом": 6228, 
  "помогла": 6229, 
  "эффективное": 6230, 
  "уважа@@": 6231, 
  "содействовать": 6232, 
  "населению": 6233, 
  "составил": 6234, 
  "лё@@": 6235, 
  "обещает": 6236, 
  "генерала": 6237, 
  "литься": 6238, 
  "центральной": 6239, 
  "универса@@": 6240, 
  "проблемах": 6241, 
  "идеей": 6242, 
  "внес@@": 6243, 
  "навод@@": 6244, 
  "тела": 6245, 
  "движений": 6246, 
  "численности": 6247, 
  "верну@@": 6248, 
  "оказания": 6249, 
  "пациентов": 6250, 
  "усилению": 6251, 
  "обсужда@@": 6252, 
  "вол@@": 6253, 
  "фискальной": 6254, 
  "политическому": 6255, 
  "индекс": 6256, 
  "сдвиг": 6257, 
  "мости": 6258, 
  "долгосрочного": 6259, 
  "бедствия": 6260, 
  "выражен@@": 6261, 
  "Бушем": 6262, 
  "тес@@": 6263, 
  "стратегический": 6264, 
  "жизнеспособ@@": 6265, 
  "банкиры": 6266, 
  "доброво@@": 6267, 
  "школу": 6268, 
  "успешного": 6269, 
  "вел": 6270, 
  "выводу": 6271, 
  "моего": 6272, 
  "украин@@": 6273, 
  "международному": 6274, 
  "администра@@": 6275, 
  "ительному": 6276, 
  "полная": 6277, 
  "иг@@": 6278, 
  "демо@@": 6279, 
  "ляются": 6280, 
  "евре@@": 6281, 
  "гой": 6282, 
  "призывает": 6283, 
  "прошли": 6284, 
  "благотвор@@": 6285, 
  "нелегко": 6286, 
  "амбиции": 6287, 
  "изменится": 6288, 
  "опасно": 6289, 
  "одинако@@": 6290, 
  "крат@@": 6291, 
  "облег@@": 6292, 
  "суро@@": 6293, 
  "квалифици@@": 6294, 
  "примеры": 6295, 
  "кредитной": 6296, 
  "гарантирует": 6297, 
  "реак@@": 6298, 
  "апреля": 6299, 
  "палестинцами": 6300, 
  "одиночку": 6301, 
  "лекарства": 6302, 
  "необходимое": 6303, 
  "ныне": 6304, 
  "ничем": 6305, 
  "Лула": 6306, 
  "независимой": 6307, 
  "Сомали": 6308, 
  "пребывания": 6309, 
  "консерватив@@": 6310, 
  "емом": 6311, 
  "шением": 6312, 
  "ок@@": 6313, 
  "явлением": 6314, 
  "математи@@": 6315, 
  "лями": 6316, 
  "основанная": 6317, 
  "работающих": 6318, 
  "подры@@": 6319, 
  "имеются": 6320, 
  "свое@@": 6321, 
  "сконцентри@@": 6322, 
  "оснований": 6323, 
  "падением": 6324, 
  "приходит": 6325, 
  "потерян@@": 6326, 
  "заметил": 6327, 
  "формой": 6328, 
  "принадлежа@@": 6329, 
  "выбирать": 6330, 
  "общеприня@@": 6331, 
  "актов": 6332, 
  "противников": 6333, 
  "современная": 6334, 
  "меняется": 6335, 
  "Мугабе": 6336, 
  "равно@@": 6337, 
  "ряда": 6338, 
  "смертности": 6339, 
  "многосторон@@": 6340, 
  "сотрудничать": 6341, 
  "советского": 6342, 
  "низком": 6343, 
  "свя@@": 6344, 
  "200@@": 6345, 
  "печально": 6346, 
  "фанта@@": 6347, 
  "сва@@": 6348, 
  "близко": 6349, 
  "благосостояние": 6350, 
  "разумно": 6351, 
  "вну@@": 6352, 
  "графи@@": 6353, 
  "предположение": 6354, 
  "институциональ@@": 6355, 
  "надёж@@": 6356, 
  "эра": 6357, 
  "необходимый": 6358, 
  "подвер@@": 6359, 
  "периферии": 6360, 
  "обратить": 6361, 
  "задуматься": 6362, 
  "территорий": 6363, 
  "конструктив@@": 6364, 
  "комитета": 6365, 
  "сопут@@": 6366, 
  "произошел": 6367, 
  "приведёт": 6368, 
  "обла@@": 6369, 
  "принуд@@": 6370, 
  "неограничен@@": 6371, 
  "суды": 6372, 
  "as": 6373, 
  "частной": 6374, 
  "популярности": 6375, 
  "болезнен@@": 6376, 
  "выпла@@": 6377, 
  "данными": 6378, 
  "профсоюзов": 6379, 
  "компаниям": 6380, 
  "ённые": 6381, 
  "шо@@": 6382, 
  "тен": 6383, 
  "начинается": 6384, 
  "глобальному": 6385, 
  "продвига@@": 6386, 
  "нуться": 6387, 
  "предполагается": 6388, 
  "ОБСЕ": 6389, 
  "подпитыва@@": 6390, 
  "това@@": 6391, 
  "препятствием": 6392, 
  "Бер@@": 6393, 
  "1993": 6394, 
  "ею": 6395, 
  "сона": 6396, 
  "показала": 6397, 
  "продавать": 6398, 
  "долларах": 6399, 
  "континенте": 6400, 
  "стский": 6401, 
  "выжить": 6402, 
  "ствовала": 6403, 
  "рыночная": 6404, 
  "слабой": 6405, 
  "пони@@": 6406, 
  "свидетелями": 6407, 
  "26": 6408, 
  "обеспокоены": 6409, 
  "Турцию": 6410, 
  "ирланд@@": 6411, 
  "подталки@@": 6412, 
  "собственными": 6413, 
  "старается": 6414, 
  "возра@@": 6415, 
  "доходах": 6416, 
  "Конституции": 6417, 
  "короче": 6418, 
  "ошибо@@": 6419, 
  "внутренняя": 6420, 
  "раунда": 6421, 
  "разв@@": 6422, 
  "логи": 6423, 
  "повлиять": 6424, 
  "Ахмадинежад": 6425, 
  "мышление": 6426, 
  "везде": 6427, 
  "Шри": 6428, 
  "ленными": 6429, 
  "курсу": 6430, 
  "ённых": 6431, 
  "автоно@@": 6432, 
  "хороший": 6433, 
  "Север@@": 6434, 
  "оппози@@": 6435, 
  "израильские": 6436, 
  "гром@@": 6437, 
  "тратят": 6438, 
  "банкротства": 6439, 
  "вызвал": 6440, 
  "соблю@@": 6441, 
  "пытаться": 6442, 
  "нула": 6443, 
  "четверти": 6444, 
  "освобод@@": 6445, 
  "енности": 6446, 
  "повы@@": 6447, 
  "рассматривает": 6448, 
  "сердце": 6449, 
  "H@@": 6450, 
  "летний": 6451, 
  "абсур@@": 6452, 
  "французских": 6453, 
  "вины": 6454, 
  "имеющих": 6455, 
  "суде": 6456, 
  "референдум": 6457, 
  "живать": 6458, 
  "суннит@@": 6459, 
  "обещаний": 6460, 
  "нау@@": 6461, 
  "днем": 6462, 
  "регули@@": 6463, 
  "ванного": 6464, 
  "вленной": 6465, 
  "врага": 6466, 
  "амбициоз@@": 6467, 
  "зона": 6468, 
  "зи": 6469, 
  "преобразования": 6470, 
  "предше@@": 6471, 
  "референдума": 6472, 
  "критика": 6473, 
  "центром": 6474, 
  "признали": 6475, 
  "слож@@": 6476, 
  "зии": 6477, 
  "принадлежности": 6478, 
  "никах": 6479, 
  "угля": 6480, 
  "лизация": 6481, 
  "действительность": 6482, 
  "смертей": 6483, 
  "альные": 6484, 
  "преимуществ": 6485, 
  "импер@@": 6486, 
  "термин": 6487, 
  "большинству": 6488, 
  "Сирией": 6489, 
  "жая": 6490, 
  "преступлениях": 6491, 
  "рий": 6492, 
  "рем": 6493, 
  "равновесия": 6494, 
  "действиях": 6495, 
  "выглядят": 6496, 
  "пустить": 6497, 
  "улучшению": 6498, 
  "поняли": 6499, 
  "стоимостью": 6500, 
  "существующей": 6501, 
  "нефтяной": 6502, 
  "игроки": 6503, 
  "затруд@@": 6504, 
  "чувствовать": 6505, 
  "пользуются": 6506, 
  "дискредити@@": 6507, 
  "Чавеса": 6508, 
  "интеграцию": 6509, 
  "тельность": 6510, 
  "Берлин": 6511, 
  "обвиняют": 6512, 
  "существовало": 6513, 
  "француз@@": 6514, 
  "ошибку": 6515, 
  "ярост@@": 6516, 
  "примени@@": 6517, 
  "гло@@": 6518, 
  "распространению": 6519, 
  "нику": 6520, 
  "стратегического": 6521, 
  "авторитет": 6522, 
  "лизм": 6523, 
  "информа@@": 6524, 
  "просве@@": 6525, 
  "штатов": 6526, 
  "соглашению": 6527, 
  "соседи": 6528, 
  "ал@@": 6529, 
  "остался": 6530, 
  "позволил": 6531, 
  "впечатля@@": 6532, 
  "Перу": 6533, 
  "рынками": 6534, 
  "моз@@": 6535, 
  "отказываются": 6536, 
  "объединение": 6537, 
  "нение": 6538, 
  "иннова@@": 6539, 
  "хороших": 6540, 
  "es": 6541, 
  "появляются": 6542, 
  "катастрофи@@": 6543, 
  "предоста@@": 6544, 
  "фикси@@": 6545, 
  "меньшее": 6546, 
  "оби@@": 6547, 
  "поддерживал": 6548, 
  "изъя@@": 6549, 
  "вернулись": 6550, 
  "предсказа@@": 6551, 
  "возможностями": 6552, 
  "обязаны": 6553, 
  "сельскохозяйственной": 6554, 
  "государственном": 6555, 
  "бой@@": 6556, 
  "предпочт@@": 6557, 
  "приняла": 6558, 
  "условием": 6559, 
  "системати@@": 6560, 
  "благодар@@": 6561, 
  "рынком": 6562, 
  "смягчить": 6563, 
  "властями": 6564, 
  "назначение": 6565, 
  "бир@@": 6566, 
  "нефтяных": 6567, 
  "старого": 6568, 
  "хот@@": 6569, 
  "пользоваться": 6570, 
  "успешным": 6571, 
  "ую": 6572, 
  "научно": 6573, 
  "туда": 6574, 
  "вероятным": 6575, 
  "связыва@@": 6576, 
  "единый": 6577, 
  "образовании": 6578, 
  "объемов": 6579, 
  "разрушить": 6580, 
  "домини@@": 6581, 
  "пузыря": 6582, 
  "упу@@": 6583, 
  "токси@@": 6584, 
  "разделяют": 6585, 
  "аналити@@": 6586, 
  "возврата": 6587, 
  "прессы": 6588, 
  "скорость": 6589, 
  "местными": 6590, 
  "зачем": 6591, 
  "успе@@": 6592, 
  "преж@@": 6593, 
  "эффекта": 6594, 
  "дебатах": 6595, 
  "японской": 6596, 
  "час": 6597, 
  "интерес@@": 6598, 
  "земле": 6599, 
  "важна": 6600, 
  "представьте": 6601, 
  "необходимую": 6602, 
  "примет": 6603, 
  "Ющенко": 6604, 
  "консерваторы": 6605, 
  "чисто": 6606, 
  "удержать": 6607, 
  "От@@": 6608, 
  "рей": 6609, 
  "высших": 6610, 
  "Пекин": 6611, 
  "генети@@": 6612, 
  "укреп@@": 6613, 
  "правды": 6614, 
  "кает": 6615, 
  "Мушаррафа": 6616, 
  "правителей": 6617, 
  "ша": 6618, 
  "позволила": 6619, 
  "альными": 6620, 
  "негатив@@": 6621, 
  "Владимира": 6622, 
  "сепарати@@": 6623, 
  "гегемонии": 6624, 
  "внезап@@": 6625, 
  "националисти@@": 6626, 
  "Владимир": 6627, 
  "журнали@@": 6628, 
  "повстанцев": 6629, 
  "тивные": 6630, 
  "предупре@@": 6631, 
  "потреб@@": 6632, 
  "бить": 6633, 
  "этнические": 6634, 
  "управлению": 6635, 
  "открытость": 6636, 
  "темп": 6637, 
  "обвинений": 6638, 
  "резолюции": 6639, 
  "принесли": 6640, 
  "ан": 6641, 
  "отвечает": 6642, 
  "шены": 6643, 
  "28": 6644, 
  "Лиссабо@@": 6645, 
  "вными": 6646, 
  "лидерства": 6647, 
  "бразиль@@": 6648, 
  "обслуживания": 6649, 
  "противники": 6650, 
  "оправ@@": 6651, 
  "Брюссель": 6652, 
  "зная": 6653, 
  "бедностью": 6654, 
  "лая": 6655, 
  "уголо@@": 6656, 
  "честь": 6657, 
  "смена": 6658, 
  "тюрьму": 6659, 
  "следующее": 6660, 
  "выходит": 6661, 
  "Дании": 6662, 
  "миссия": 6663, 
  "размера": 6664, 
  "газе@@": 6665, 
  "феврале": 6666, 
  "этапе": 6667, 
  "вверх": 6668, 
  "обремен@@": 6669, 
  "угрожать": 6670, 
  "Сан": 6671, 
  "столкнулась": 6672, 
  "скоордини@@": 6673, 
  "взяли": 6674, 
  "развитием": 6675, 
  "выполнение": 6676, 
  "выдвига@@": 6677, 
  "группе": 6678, 
  "прогнозы": 6679, 
  "распа@@": 6680, 
  "разрабатыва@@": 6681, 
  "жд@@": 6682, 
  "абсолю@@": 6683, 
  "мексикан@@": 6684, 
  "Г": 6685, 
  "проигра@@": 6686, 
  "готовности": 6687, 
  "чувств@@": 6688, 
  "новатор@@": 6689, 
  "грандиоз@@": 6690, 
  "укло@@": 6691, 
  "полным": 6692, 
  "становиться": 6693, 
  "конституция": 6694, 
  "щед@@": 6695, 
  "следующей": 6696, 
  "эффективными": 6697, 
  "контроли@@": 6698, 
  "наказания": 6699, 
  "тона": 6700, 
  "процен@@": 6701, 
  "Токио": 6702, 
  "доходом": 6703, 
  "высоки": 6704, 
  "зда@@": 6705, 
  "множества": 6706, 
  "краткосрочные": 6707, 
  "весной": 6708, 
  "базу": 6709, 
  "кем": 6710, 
  "работой": 6711, 
  "Хар@@": 6712, 
  "напряжен@@": 6713, 
  "видимости": 6714, 
  "упали": 6715, 
  "устро@@": 6716, 
  "японцы": 6717, 
  "запад@@": 6718, 
  "повер@@": 6719, 
  "Хезболлы": 6720, 
  "исклю@@": 6721, 
  "означают": 6722, 
  "мыш@@": 6723, 
  "убеждения": 6724, 
  "реальным": 6725, 
  "уступки": 6726, 
  "свобод@@": 6727, 
  "удержива@@": 6728, 
  "обязанности": 6729, 
  "Ганди": 6730, 
  "дл@@": 6731, 
  "влена": 6732, 
  "сосредоточи@@": 6733, 
  "ликвидность": 6734, 
  "мето@@": 6735, 
  "определенной": 6736, 
  "откладыва@@": 6737, 
  "ствующие": 6738, 
  "пуска@@": 6739, 
  "раке@@": 6740, 
  "пора": 6741, 
  "сферу": 6742, 
  "расхо@@": 6743, 
  "поставки": 6744, 
  "сдерживать": 6745, 
  "прямой": 6746, 
  "защитой": 6747, 
  "принципа": 6748, 
  "объяс@@": 6749, 
  "нало@@": 6750, 
  "нения": 6751, 
  "итар@@": 6752, 
  "спасение": 6753, 
  "ванный": 6754, 
  "укрепи@@": 6755, 
  "индустри@@": 6756, 
  "вопреки": 6757, 
  "ущерба": 6758, 
  "обвинение": 6759, 
  "фер@@": 6760, 
  "достоинства": 6761, 
  "коллективной": 6762, 
  "широкомасштаб@@": 6763, 
  "малень@@": 6764, 
  "информацией": 6765, 
  "предложений": 6766, 
  "удач@@": 6767, 
  "ждут": 6768, 
  "внутреннюю": 6769, 
  "копи@@": 6770, 
  "продовольствия": 6771, 
  "бывшие": 6772, 
  "Конго": 6773, 
  "стой@@": 6774, 
  "вшуюся": 6775, 
  "Кан@@": 6776, 
  "использованию": 6777, 
  "возможной": 6778, 
  "возрождения": 6779, 
  "космо@@": 6780, 
  "гнуть": 6781, 
  "дипломатических": 6782, 
  "коне@@": 6783, 
  "Персидского": 6784, 
  "денежные": 6785, 
  "исторический": 6786, 
  "Бернанке": 6787, 
  "СПИДа": 6788, 
  "ья@@": 6789, 
  "результата": 6790, 
  "кредитных": 6791, 
  "маркси@@": 6792, 
  "приоритет": 6793, 
  "2050": 6794, 
  "автомобилей": 6795, 
  "распространя@@": 6796, 
  "усовершенство@@": 6797, 
  "итель@@": 6798, 
  "Трише": 6799, 
  "напомина@@": 6800, 
  "созна@@": 6801, 
  "министерства": 6802, 
  "сохранять": 6803, 
  "Ли": 6804, 
  "левого": 6805, 
  "вспомнить": 6806, 
  "que": 6807, 
  "занимаются": 6808, 
  "создаст": 6809, 
  "кана@@": 6810, 
  "отвечать": 6811, 
  "муд@@": 6812, 
  "вости": 6813, 
  "академи@@": 6814, 
  "частей": 6815, 
  "L@@": 6816, 
  "рук": 6817, 
  "планирования": 6818, 
  "деловой": 6819, 
  "посмотреть": 6820, 
  "восстания": 6821, 
  "карты": 6822, 
  "потребовать": 6823, 
  "оправда@@": 6824, 
  "сбо@@": 6825, 
  "факти@@": 6826, 
  "началось": 6827, 
  "ственно": 6828, 
  "определенного": 6829, 
  "свой@@": 6830, 
  "лки": 6831, 
  "рил": 6832, 
  "возму@@": 6833, 
  "номина@@": 6834, 
  "шагов": 6835, 
  "постоянной": 6836, 
  "отвле@@": 6837, 
  "сказа@@": 6838, 
  "ност@@": 6839, 
  "драмати@@": 6840, 
  "определении": 6841, 
  "резкий": 6842, 
  "полном": 6843, 
  "твердо": 6844, 
  "вода": 6845, 
  "уро@@": 6846, 
  "смеша@@": 6847, 
  "стри@@": 6848, 
  "обосно@@": 6849, 
  "конкретные": 6850, 
  "иранской": 6851, 
  "консенсус": 6852, 
  "вопло@@": 6853, 
  "обеспечивают": 6854, 
  "куп@@": 6855, 
  "наступил": 6856, 
  "американцам": 6857, 
  "вторым": 6858, 
  "воздуш@@": 6859, 
  "закончится": 6860, 
  "зая@@": 6861, 
  "йская": 6862, 
  "вят": 6863, 
  "ите@@": 6864, 
  "океана": 6865, 
  "находиться": 6866, 
  "авиа@@": 6867, 
  "постоянное": 6868, 
  "интернет": 6869, 
  "импера@@": 6870, 
  "судьбу": 6871, 
  "военном": 6872, 
  "пересмотр@@": 6873, 
  "гли": 6874, 
  "февраля": 6875, 
  "земель": 6876, 
  "обеспечении": 6877, 
  "женщинам": 6878, 
  "сельское": 6879, 
  "неожиданно": 6880, 
  "координации": 6881, 
  "автомати@@": 6882, 
  "джи@@": 6883, 
  "шек": 6884, 
  "прекращение": 6885, 
  "знаю": 6886, 
  "член": 6887, 
  "Европейская": 6888, 
  "дного": 6889, 
  "закончилась": 6890, 
  "Таксина": 6891, 
  "причем": 6892, 
  "платят": 6893, 
  "i@@": 6894, 
  "правящая": 6895, 
  "умы": 6896, 
  "последняя": 6897, 
  "лей@@": 6898, 
  "беспорядков": 6899, 
  "баланси@@": 6900, 
  "законодательство": 6901, 
  "блоки@@": 6902, 
  "вость": 6903, 
  "приемле@@": 6904, 
  "направленной": 6905, 
  "ждает": 6906, 
  "мия": 6907, 
  "европейское": 6908, 
  "Крас@@": 6909, 
  "шали": 6910, 
  "наказа@@": 6911, 
  "корпоративных": 6912, 
  "переворота": 6913, 
  "суннитов": 6914, 
  "правду": 6915, 
  "лизма": 6916, 
  "нераспространении": 6917, 
  "Иордании": 6918, 
  "сокращении": 6919, 
  "существенные": 6920, 
  "использовал": 6921, 
  "йцы": 6922, 
  "ненависти": 6923, 
  "капитали@@": 6924, 
  "жесткого": 6925, 
  "двусторонних": 6926, 
  "оккупи@@": 6927, 
  "огромная": 6928, 
  "прекращения": 6929, 
  "временное": 6930, 
  "азиатского": 6931, 
  "тельном": 6932, 
  "тят": 6933, 
  "заранее": 6934, 
  "ведение": 6935, 
  "хозяйство": 6936, 
  "несовершен@@": 6937, 
  "скло@@": 6938, 
  "оптимисти@@": 6939, 
  "альную": 6940, 
  "директора": 6941, 
  "проста": 6942, 
  "восприятие": 6943, 
  "послужить": 6944, 
  "данному": 6945, 
  "оп@@": 6946, 
  "выгод": 6947, 
  "апреле": 6948, 
  "извне": 6949, 
  "настойчи@@": 6950, 
  "сит": 6951, 
  "поисках": 6952, 
  "накануне": 6953, 
  "препятствовать": 6954, 
  "демократическую": 6955, 
  "награ@@": 6956, 
  "аль@@": 6957, 
  "Йорк": 6958, 
  "возникнуть": 6959, 
  "демократическое": 6960, 
  "падать": 6961, 
  "российский": 6962, 
  "областей": 6963, 
  "концентри@@": 6964, 
  "июля": 6965, 
  "испытания": 6966, 
  "технология": 6967, 
  "финансы": 6968, 
  "Земли": 6969, 
  "цеп@@": 6970, 
  "незаме@@": 6971, 
  "поддержание": 6972, 
  "B@@": 6973, 
  "победил": 6974, 
  "составит": 6975, 
  "ологи@@": 6976, 
  "изменении": 6977, 
  "пакет": 6978, 
  "дефицитом": 6979, 
  "При@@": 6980, 
  "школ": 6981, 
  "никак": 6982, 
  "ителям": 6983, 
  "Пакистаном": 6984, 
  "фак@@": 6985, 
  "способствовало": 6986, 
  "шать": 6987, 
  "суд@@": 6988, 
  "нежелание": 6989, 
  "смени@@": 6990, 
  "рабочую": 6991, 
  "йки": 6992, 
  "Сингапур": 6993, 
  "планете": 6994, 
  "способствовали": 6995, 
  "научной": 6996, 
  "Дэн": 6997, 
  "сочетании": 6998, 
  "учеб@@": 6999, 
  "равенства": 7000, 
  "зарплат": 7001, 
  "ваний": 7002, 
  "сторонами": 7003, 
  "структуре": 7004, 
  "выражения": 7005, 
  "ляться": 7006, 
  "сообщения": 7007, 
  "пис@@": 7008, 
  "бюджетные": 7009, 
  "звучит": 7010, 
  "органа": 7011, 
  "важнейших": 7012, 
  "неопределенность": 7013, 
  "вок": 7014, 
  "используются": 7015, 
  "The": 7016, 
  "e@@": 7017, 
  "культурных": 7018, 
  "миграции": 7019, 
  "аналоги@@": 7020, 
  "ХХ": 7021, 
  "теряет": 7022, 
  "тельством": 7023, 
  "либерализация": 7024, 
  "федера@@": 7025, 
  "повышен@@": 7026, 
  "ён@@": 7027, 
  "ленным": 7028, 
  "партнерство": 7029, 
  "окружа@@": 7030, 
  "риторика": 7031, 
  "находился": 7032, 
  "либеральных": 7033, 
  "излиш@@": 7034, 
  "традиционной": 7035, 
  "правами": 7036, 
  "авторите@@": 7037, 
  "армию": 7038, 
  "серб@@": 7039, 
  "навыки": 7040, 
  "год@@": 7041, 
  "масштабах": 7042, 
  "сущности": 7043, 
  "причин@@": 7044, 
  "юще": 7045, 
  "японских": 7046, 
  "убытки": 7047, 
  "рию": 7048, 
  "электри@@": 7049, 
  "вывода": 7050, 
  "критике": 7051, 
  "вклю@@": 7052, 
  "директор": 7053, 
  "провод@@": 7054, 
  "противоположность": 7055, 
  "разделить": 7056, 
  "либеральные": 7057, 
  "недоста@@": 7058, 
  "разнообразие": 7059, 
  "город@@": 7060, 
  "прекрати@@": 7061, 
  "перераспреде@@": 7062, 
  "0@@": 7063, 
  "основную": 7064, 
  "лле@@": 7065, 
  "Йорке": 7066, 
  "пози@@": 7067, 
  "зарожда@@": 7068, 
  "дета@@": 7069, 
  "активность": 7070, 
  "признаков": 7071, 
  "воздуха": 7072, 
  "волю": 7073, 
  "образованию": 7074, 
  "особых": 7075, 
  "удары": 7076, 
  "газо@@": 7077, 
  "И": 7078, 
  "лит": 7079, 
  "емому": 7080, 
  "тюрьме": 7081, 
  "местного": 7082, 
  "жилищ@@": 7083, 
  "предполагалось": 7084, 
  "Кремля": 7085, 
  "природа": 7086, 
  "щиков": 7087, 
  "предоставил": 7088, 
  "зависи@@": 7089, 
  "изуча@@": 7090, 
  "страданий": 7091, 
  "аспект": 7092, 
  "центральное": 7093, 
  "аналитики": 7094, 
  "проверки": 7095, 
  "шоки@@": 7096, 
  "взаимоотношений": 7097, 
  "залива": 7098, 
  "постоянного": 7099, 
  "бун@@": 7100, 
  "очевидны": 7101, 
  "помогать": 7102, 
  "великой": 7103, 
  "сложная": 7104, 
  "проявля@@": 7105, 
  "деятели": 7106, 
  "O@@": 7107, 
  "опере@@": 7108, 
  "настоящая": 7109, 
  "империали@@": 7110, 
  "словом": 7111, 
  "Фран@@": 7112, 
  "щенной": 7113, 
  "думал": 7114, 
  "партнерства": 7115, 
  "следуют": 7116, 
  "ПИИ": 7117, 
  "of": 7118, 
  "американскими": 7119, 
  "особо": 7120, 
  "вариантов": 7121, 
  "потерял": 7122, 
  "гну@@": 7123, 
  "условиям": 7124, 
  "горь@@": 7125, 
  "судебной": 7126, 
  "увеличится": 7127, 
  "1973": 7128, 
  "привержен@@": 7129, 
  "двусторон@@": 7130, 
  "интеллектуальной": 7131, 
  "устранение": 7132, 
  "адаптации": 7133, 
  "ально": 7134, 
  "летнего": 7135, 
  "дво@@": 7136, 
  "выступать": 7137, 
  "ган@@": 7138, 
  "футболь@@": 7139, 
  "сравнения": 7140, 
  "формули@@": 7141, 
  "приверженности": 7142, 
  "выходят": 7143, 
  "Москве": 7144, 
  "вленных": 7145, 
  "продемонстрировал": 7146, 
  "местной": 7147, 
  "предсказыва@@": 7148, 
  "Балканах": 7149, 
  "дискриминации": 7150, 
  "обнаружили": 7151, 
  "os": 7152, 
  "дово@@": 7153, 
  "находящихся": 7154, 
  "увеличивать": 7155, 
  "9@@": 7156, 
  "живущих": 7157, 
  "Британии": 7158, 
  "Брюсселе": 7159, 
  "банком": 7160, 
  "цикли@@": 7161, 
  "посла@@": 7162, 
  "стано@@": 7163, 
  "эволюции": 7164, 
  "дки": 7165, 
  "Фонда": 7166, 
  "Австралии": 7167, 
  "смены": 7168, 
  "ального": 7169, 
  "выход@@": 7170, 
  "произвести": 7171, 
  "нется": 7172, 
  "стратегическим": 7173, 
  "разви@@": 7174, 
  "меняет": 7175, 
  "надлежа@@": 7176, 
  "принесла": 7177, 
  "дисбаланс": 7178, 
  "рабочего": 7179, 
  "науке": 7180, 
  "сербов": 7181, 
  "S": 7182, 
  "протекциони@@": 7183, 
  "немедлен@@": 7184, 
  "лых": 7185, 
  "продолжения": 7186, 
  "всесторон@@": 7187, 
  "невинных": 7188, 
  "теряют": 7189, 
  "старая": 7190, 
  "впереди": 7191, 
  "Экономи@@": 7192, 
  "челове@@": 7193, 
  "альный": 7194, 
  "перспективу": 7195, 
  "вская": 7196, 
  "конкури@@": 7197, 
  "воспринима@@": 7198, 
  "10@@": 7199, 
  "реки": 7200, 
  "долгового": 7201, 
  "вооружения": 7202, 
  "послу@@": 7203, 
  "сельской": 7204, 
  "друже@@": 7205, 
  "доказа@@": 7206, 
  "фундаментали@@": 7207, 
  "вывести": 7208, 
  "Кара@@": 7209, 
  "вила": 7210, 
  "FARC": 7211, 
  "ряды": 7212, 
  "пра@@": 7213, 
  "французские": 7214, 
  "выросла": 7215, 
  "занимается": 7216, 
  "Ви@@": 7217, 
  "рые": 7218, 
  "силам": 7219, 
  "денежную": 7220, 
  "основанный": 7221, 
  "жёст@@": 7222, 
  "фермер@@": 7223, 
  "шести@@": 7224, 
  "составе": 7225, 
  "египет@@": 7226, 
  "успеш@@": 7227, 
  "йцев": 7228, 
  "портфе@@": 7229, 
  "энергетических": 7230, 
  "кси@@": 7231, 
  "коали@@": 7232, 
  "плоды": 7233, 
  "стремились": 7234, 
  "суверенного": 7235, 
  "равных": 7236, 
  "нский": 7237, 
  "созданием": 7238, 
  "поддерживая": 7239, 
  "демократическими": 7240, 
  "разнообраз@@": 7241, 
  "направления": 7242, 
  "немецкие": 7243, 
  "альянса": 7244, 
  "Кубе": 7245, 
  "разумным": 7246, 
  "семье": 7247, 
  "нужда@@": 7248, 
  "улицах": 7249, 
  "накоп@@": 7250, 
  "служб": 7251, 
  "поощрять": 7252, 
  "биржи": 7253, 
  "масштабы": 7254, 
  "аналогичные": 7255, 
  "проигры@@": 7256, 
  "вероятнее": 7257, 
  "эй@@": 7258, 
  "позднее": 7259, 
  "гибкости": 7260, 
  "наказание": 7261, 
  "морских": 7262, 
  "огромными": 7263, 
  "единая": 7264, 
  "дорог": 7265, 
  "уроков": 7266, 
  "Бан@@": 7267, 
  "ценам": 7268, 
  "осуществ@@": 7269, 
  "четверть": 7270, 
  "неспособ@@": 7271, 
  "стратегическое": 7272, 
  "известной": 7273, 
  "мелких": 7274, 
  "кубин@@": 7275, 
  "существова@@": 7276, 
  "усилит": 7277, 
  "воде": 7278, 
  "выдвину@@": 7279, 
  "обеспе@@": 7280, 
  "освобождение": 7281, 
  "местности": 7282, 
  "производить": 7283, 
  "высоком": 7284, 
  "следствие": 7285, 
  "голосовать": 7286, 
  "предоставлении": 7287, 
  "юриди@@": 7288, 
  "средней": 7289, 
  "Талибан": 7290, 
  "нано@@": 7291, 
  "кло@@": 7292, 
  "последует": 7293, 
  "нист@@": 7294, 
  "домаш@@": 7295, 
  "судя": 7296, 
  "объемы": 7297, 
  "игр": 7298, 
  "ленный": 7299, 
  "имо@@": 7300, 
  "Интернета": 7301, 
  "ляции": 7302, 
  "экстремистов": 7303, 
  "акту@@": 7304, 
  "лую": 7305, 
  "научиться": 7306, 
  "нараста@@": 7307, 
  "объедини@@": 7308, 
  "ах": 7309, 
  "Партия": 7310, 
  "устано@@": 7311, 
  "диктатора": 7312, 
  "окружающую": 7313, 
  "ся": 7314, 
  "превосход@@": 7315, 
  "основаны": 7316, 
  "некогда": 7317, 
  "управляющих": 7318, 
  "неделю": 7319, 
  "опо@@": 7320, 
  "Шредер": 7321, 
  "процедуры": 7322, 
  "Судана": 7323, 
  "похва@@": 7324, 
  "конференция": 7325, 
  "долгом": 7326, 
  "предоставляя": 7327, 
  "исторических": 7328, 
  "пользуется": 7329, 
  "даль@@": 7330, 
  "нена@@": 7331, 
  "государственную": 7332, 
  "нос@@": 7333, 
  "следить": 7334, 
  "мирным": 7335, 
  "выпуска@@": 7336, 
  "проли@@": 7337, 
  "косми@@": 7338, 
  "Африку": 7339, 
  "ство@@": 7340, 
  "конститу@@": 7341, 
  "внутри@@": 7342, 
  "команды": 7343, 
  "предпочтение": 7344, 
  "пробу@@": 7345, 
  "простое": 7346, 
  "машины": 7347, 
  "подверга@@": 7348, 
  "симво@@": 7349, 
  "народ@@": 7350, 
  "вном": 7351, 
  "ожидалось": 7352, 
  "сельскохозяй@@": 7353, 
  "нынешние": 7354, 
  "медицинских": 7355, 
  "продолжительность": 7356, 
  "жестокости": 7357, 
  "Марокко": 7358, 
  "выживания": 7359, 
  "точ@@": 7360, 
  "гибкость": 7361, 
  "шат": 7362, 
  "региону": 7363, 
  "природного": 7364, 
  "to": 7365, 
  "нями": 7366, 
  "выборам": 7367, 
  "покинуть": 7368, 
  "нес": 7369, 
  "региональную": 7370, 
  "сена@@": 7371, 
  "тра": 7372, 
  "энергетические": 7373, 
  "румы@@": 7374, 
  "ставка": 7375, 
  "поддержа@@": 7376, 
  "осторож@@": 7377, 
  "китайская": 7378, 
  "объеди@@": 7379, 
  "радикально": 7380, 
  "капита@@": 7381, 
  "Всемирной": 7382, 
  "беспокоит": 7383, 
  "мандат": 7384, 
  "количеству": 7385, 
  "начались": 7386, 
  "подготовки": 7387, 
  "нен": 7388, 
  "веков": 7389, 
  "широкую": 7390, 
  "ходили": 7391, 
  "средствах": 7392, 
  "случиться": 7393, 
  "стратегий": 7394, 
  "спо@@": 7395, 
  "высшего": 7396, 
  "слов": 7397, 
  "реальное": 7398, 
  "дро@@": 7399, 
  "сторонниками": 7400, 
  "средним": 7401, 
  "угрожают": 7402, 
  "кости": 7403, 
  "берет": 7404, 
  "увеличивая": 7405, 
  "предстоя@@": 7406, 
  "текущим": 7407, 
  "противостоя@@": 7408, 
  "текущей": 7409, 
  "структур@@": 7410, 
  "арабо": 7411, 
  "трудным": 7412, 
  "способами": 7413, 
  "трансатланти@@": 7414, 
  "ЛДП": 7415, 
  "объединя@@": 7416, 
  "регуляр@@": 7417, 
  "идеа@@": 7418, 
  "коммунисты": 7419, 
  "память": 7420, 
  "высо@@": 7421, 
  "коммунистических": 7422, 
  "иное": 7423, 
  "масштаб": 7424, 
  "тивного": 7425, 
  "трудностей": 7426, 
  "север@@": 7427, 
  "долговремен@@": 7428, 
  "называемые": 7429, 
  "разведки": 7430, 
  "нец": 7431, 
  "мину@@": 7432, 
  "заключа@@": 7433, 
  "иной": 7434, 
  "богаче": 7435, 
  "приватизации": 7436, 
  "Microsoft": 7437, 
  "мощности": 7438, 
  "общественным": 7439, 
  "ежегодный": 7440, 
  "грузин@@": 7441, 
  "основное": 7442, 
  "ожидает": 7443, 
  "понима@@": 7444, 
  "фактов": 7445, 
  "называет": 7446, 
  "считаются": 7447, 
  "дальнейшие": 7448, 
  "нар@@": 7449, 
  "находящиеся": 7450, 
  "Договор": 7451, 
  "асимметри@@": 7452, 
  "намер@@": 7453, 
  "находи@@": 7454, 
  "уреза@@": 7455, 
  "совместные": 7456, 
  "произведен@@": 7457, 
  "заинтересо@@": 7458, 
  "чат": 7459, 
  "многосторонних": 7460, 
  "распространен@@": 7461, 
  "элементов": 7462, 
  "обвиня@@": 7463, 
  "евреи": 7464, 
  "уничтожение": 7465, 
  "идеали@@": 7466, 
  "надвига@@": 7467, 
  "язы@@": 7468, 
  "поль@@": 7469, 
  "Жан": 7470, 
  "укреплению": 7471, 
  "мягкая": 7472, 
  "стским": 7473, 
  "иракской": 7474, 
  "представителями": 7475, 
  "искрен@@": 7476, 
  "заново": 7477, 
  "религия": 7478, 
  "коммунистического": 7479, 
  "хорошее": 7480, 
  "выиграть": 7481, 
  "развивающимися": 7482, 
  "цикла": 7483, 
  "обви@@": 7484, 
  "жений": 7485, 
  "заканчивая": 7486, 
  "навязыва@@": 7487, 
  "гигант@@": 7488, 
  "ощути@@": 7489, 
  "завы@@": 7490, 
  "раскол": 7491, 
  "середины": 7492, 
  "совет@@": 7493, 
  "практики": 7494, 
  "передать": 7495, 
  "похи@@": 7496, 
  "молодой": 7497, 
  "вле@@": 7498, 
  "Браун": 7499, 
  "погибли": 7500, 
  "N@@": 7501, 
  "заключить": 7502, 
  "губерна@@": 7503, 
  "ваем": 7504, 
  "сочета@@": 7505, 
  "рекор@@": 7506, 
  "парадокс": 7507, 
  "чет@@": 7508, 
  "являясь": 7509, 
  "придерживаются": 7510, 
  "é@@": 7511, 
  "благ": 7512, 
  "поса@@": 7513, 
  "конкретных": 7514, 
  "либералы": 7515, 
  "особого": 7516, 
  "оча@@": 7517, 
  "пти@@": 7518, 
  "объектив@@": 7519, 
  "ждали": 7520, 
  "содержание": 7521, 
  "экспорти@@": 7522, 
  "сравнительно": 7523, 
  "третья": 7524, 
  "восстанавли@@": 7525, 
  "объедин@@": 7526, 
  "крупного": 7527, 
  "жные": 7528, 
  "нашли": 7529, 
  "зани@@": 7530, 
  "Че@@": 7531, 
  "Коммунистической": 7532, 
  "предусмотр@@": 7533, 
  "увеличилось": 7534, 
  "огня": 7535, 
  "коллег": 7536, 
  "снизился": 7537, 
  "Брита@@": 7538, 
  "Lehman": 7539, 
  "активное": 7540, 
  "оставляя": 7541, 
  "добились": 7542, 
  "придержива@@": 7543, 
  "Кении": 7544, 
  "реакцией": 7545, 
  "проник@@": 7546, 
  "директоров": 7547, 
  "контра@@": 7548, 
  "Ливан": 7549, 
  "противостояния": 7550, 
  "символом": 7551, 
  "выступа@@": 7552, 
  "доноры": 7553, 
  "Обамой": 7554, 
  "дный": 7555, 
  "повышении": 7556, 
  "столкнуться": 7557, 
  "входят": 7558, 
  "компенси@@": 7559, 
  "аф@@": 7560, 
  "ленное": 7561, 
  "исследова@@": 7562, 
  "нео": 7563, 
  "Сербия": 7564, 
  "трудные": 7565, 
  "действию": 7566, 
  "нечест@@": 7567, 
  "находят": 7568, 
  "Google": 7569, 
  "признаком": 7570, 
  "занимают": 7571, 
  "вначале": 7572, 
  "хар@@": 7573, 
  "живем": 7574, 
  "выразить": 7575, 
  "препятствий": 7576, 
  "семья": 7577, 
  "альных": 7578, 
  "швед@@": 7579, 
  "шел": 7580, 
  "Чавес": 7581, 
  "МАГАТЭ": 7582, 
  "текущие": 7583, 
  "аргу@@": 7584, 
  "1981": 7585, 
  "быстрым": 7586, 
  "похоро@@": 7587, 
  "фермерам": 7588, 
  "конкре@@": 7589, 
  "реализовать": 7590, 
  "превосходство": 7591, 
  "цов": 7592, 
  "пропаганди@@": 7593, 
  "инвесторам": 7594, 
  "англи@@": 7595, 
  "моделью": 7596, 
  "отрицать": 7597, 
  "ителями": 7598, 
  "полагает": 7599, 
  "предпринимать": 7600, 
  "определяют": 7601, 
  "производи@@": 7602, 
  "вызвали": 7603, 
  "признавать": 7604, 
  "Францию": 7605, 
  "удив@@": 7606, 
  "1000": 7607, 
  "пов": 7608, 
  "волну@@": 7609, 
  "религиозного": 7610, 
  "рили": 7611, 
  "патриоти@@": 7612, 
  "заслужива@@": 7613, 
  "чрезвычай@@": 7614, 
  "Ти@@": 7615, 
  "приближается": 7616, 
  "напряжение": 7617, 
  "доклад": 7618, 
  "теорию": 7619, 
  "случая": 7620, 
  "современном": 7621, 
  "беспо@@": 7622, 
  "ыва@@": 7623, 
  "выборами": 7624, 
  "мини@@": 7625, 
  "температуры": 7626, 
  "повстан@@": 7627, 
  "Газе": 7628, 
  "пута@@": 7629, 
  "президентского": 7630, 
  "сексу@@": 7631, 
  "молчание": 7632, 
  "собираются": 7633, 
  "усугуби@@": 7634, 
  "зону": 7635, 
  "пожалуй": 7636, 
  "лии": 7637, 
  "образованием": 7638, 
  "учитыва@@": 7639, 
  "содержит": 7640, 
  "сообществом": 7641, 
  "решает": 7642, 
  "черты": 7643, 
  "тивный": 7644, 
  "рай@@": 7645, 
  "видно": 7646, 
  "репресси@@": 7647, 
  "постоянных": 7648, 
  "недавней": 7649, 
  "древ@@": 7650, 
  "стское": 7651, 
  "нация": 7652, 
  "сегодняшнее": 7653, 
  "Цзиньтао": 7654, 
  "терпимость": 7655, 
  "закрыть": 7656, 
  "оставили": 7657, 
  "иденти@@": 7658, 
  "Союзу": 7659, 
  "мерами": 7660, 
  "эмбарго": 7661, 
  "втором": 7662, 
  "Дохе": 7663, 
  "преимущественно": 7664, 
  "дефициты": 7665, 
  "гать": 7666, 
  "разво@@": 7667, 
  "впечат@@": 7668, 
  "едини@@": 7669, 
  "нынешних": 7670, 
  "сравнении": 7671, 
  "люб@@": 7672, 
  "организовать": 7673, 
  "американо": 7674, 
  "реальном": 7675, 
  "реа@@": 7676, 
  "Грузия": 7677, 
  "пожи@@": 7678, 
  "дискуссий": 7679, 
  "активи@@": 7680, 
  "жесто@@": 7681, 
  "ситуациях": 7682, 
  "ляя": 7683, 
  "отсутствием": 7684, 
  "уверен@@": 7685, 
  "лятся": 7686, 
  "гены": 7687, 
  "большому": 7688, 
  "группировок": 7689, 
  "вающий": 7690, 
  "тупи@@": 7691, 
  "пропасть": 7692, 
  "контрактов": 7693, 
  "автоматически": 7694, 
  "герман@@": 7695, 
  "жесткую": 7696, 
  "совершить": 7697, 
  "беспла@@": 7698, 
  "зам": 7699, 
  "шают": 7700, 
  "Пра@@": 7701, 
  "наименее": 7702, 
  "вед@@": 7703, 
  "понимании": 7704, 
  "всемир@@": 7705, 
  "пагуб@@": 7706, 
  "разрушение": 7707, 
  "участ@@": 7708, 
  "желез@@": 7709, 
  "оборудование": 7710, 
  "самоубий@@": 7711, 
  "размеры": 7712, 
  "мирные": 7713, 
  "фабри@@": 7714, 
  "пен@@": 7715, 
  "вызванные": 7716, 
  "обеспечивать": 7717, 
  "вне@@": 7718, 
  "кров@@": 7719, 
  "поставил": 7720, 
  "Би@@": 7721, 
  "партнером": 7722, 
  "заявить": 7723, 
  "чна": 7724, 
  "ослабления": 7725, 
  "тридцать": 7726, 
  "альном": 7727, 
  "мость": 7728, 
  "реконструкции": 7729, 
  "совершил": 7730, 
  "цар@@": 7731, 
  "республиканцы": 7732, 
  "штата": 7733, 
  "доводы": 7734, 
  "приходят": 7735, 
  "ссуды": 7736, 
  "моральной": 7737, 
  "ответ@@": 7738, 
  "Ге@@": 7739, 
  "жит": 7740, 
  "небольшое": 7741, 
  "долговременной": 7742, 
  "беспорядки": 7743, 
  "появлению": 7744, 
  "приостано@@": 7745, 
  "японцев": 7746, 
  "чертой": 7747, 
  "авторитар@@": 7748, 
  "напряженности": 7749, 
  "странно": 7750, 
  "ца@@": 7751, 
  "изда@@": 7752, 
  "коммерческие": 7753, 
  "трёх": 7754, 
  "защитники": 7755, 
  "разобла@@": 7756, 
  "берут": 7757, 
  "ядерная": 7758, 
  "выигры@@": 7759, 
  "Вьетнам": 7760, 
  "лизацию": 7761, 
  "архитекту@@": 7762, 
  "продолжали": 7763, 
  "превыша@@": 7764, 
  "шта@@": 7765, 
  "акты": 7766, 
  "сделок": 7767, 
  "толка": 7768, 
  "конфликте": 7769, 
  "известные": 7770, 
  "лин": 7771, 
  "Бен": 7772, 
  "созданы": 7773, 
  "превзо@@": 7774, 
  "свести": 7775, 
  "написал": 7776, 
  "возобновления": 7777, 
  "ПСР": 7778, 
  "сопротивля@@": 7779, 
  "британских": 7780, 
  "разделяет": 7781, 
  "бам": 7782, 
  "обычным": 7783, 
  "патен@@": 7784, 
  "устройства": 7785, 
  "ин": 7786, 
  "ешь": 7787, 
  "Южную": 7788, 
  "кейнсиан@@": 7789, 
  "воду": 7790, 
  "неудовлетвор@@": 7791, 
  "Б": 7792, 
  "ШОС": 7793, 
  "провели": 7794, 
  "британский": 7795, 
  "наилучшим": 7796, 
  "информи@@": 7797, 
  "уровней": 7798, 
  "крови": 7799, 
  "стей": 7800, 
  "препаратов": 7801, 
  "види@@": 7802, 
  "ожи@@": 7803, 
  "владе@@": 7804, 
  "прихода": 7805, 
  "нашими": 7806, 
  "каждые": 7807, 
  "умирают": 7808, 
  "прояви@@": 7809, 
  "стабилизировать": 7810, 
  "возникла": 7811, 
  "должным": 7812, 
  "ужесто@@": 7813, 
  "Ельцин": 7814, 
  "щенный": 7815, 
  "препятствует": 7816, 
  "юго": 7817, 
  "настоя@@": 7818, 
  "1,5": 7819, 
  "расточ@@": 7820, 
  "кандидатом": 7821, 
  "400": 7822, 
  "провала": 7823, 
  "колеба@@": 7824, 
  "прошед@@": 7825, 
  "терпи@@": 7826, 
  "0.000": 7827, 
  "оценивать": 7828, 
  "исключа@@": 7829, 
  "бира@@": 7830, 
  "соедин@@": 7831, 
  "Швеция": 7832, 
  "нефте@@": 7833, 
  "определяется": 7834, 
  "наращи@@": 7835, 
  "обществ": 7836, 
  "кредитные": 7837, 
  "дия": 7838, 
  "отказа@@": 7839, 
  "годовой": 7840, 
  "сельскохозяйственных": 7841, 
  "ожидали": 7842, 
  "существованию": 7843, 
  "предпочита@@": 7844, 
  "девятнадцатого": 7845, 
  "позади": 7846, 
  "Зе@@": 7847, 
  "ценах": 7848, 
  "прису@@": 7849, 
  "Таиланда": 7850, 
  "величай@@": 7851, 
  "варианты": 7852, 
  "законодательства": 7853, 
  "миллион": 7854, 
  "нена": 7855, 
  "тий": 7856, 
  "слабых": 7857, 
  "сроч@@": 7858, 
  "ходом": 7859, 
  "увеличит": 7860, 
  "уменьшению": 7861, 
  "дека@@": 7862, 
  "стабилиза@@": 7863, 
  "секторов": 7864, 
  "звуча@@": 7865, 
  "ar": 7866, 
  "культурной": 7867, 
  "док": 7868, 
  "деньгами": 7869, 
  "знамени@@": 7870, 
  "пят@@": 7871, 
  "вились": 7872, 
  "иранские": 7873, 
  "материалов": 7874, 
  "продукцию": 7875, 
  "континент": 7876, 
  "долговых": 7877, 
  "женные": 7878, 
  "избыточ@@": 7879, 
  "будущим": 7880, 
  "импорти@@": 7881, 
  "ень": 7882, 
  "выражение": 7883, 
  "функциони@@": 7884, 
  "налогообложения": 7885, 
  "ставками": 7886, 
  "лежат": 7887, 
  "договориться": 7888, 
  "хозя@@": 7889, 
  "осуществление": 7890, 
  "тако@@": 7891, 
  "мусульман@@": 7892, 
  "избрание": 7893, 
  "высшем": 7894, 
  "отстаи@@": 7895, 
  "судом": 7896, 
  "предположения": 7897, 
  "ослабе@@": 7898, 
  "пала@@": 7899, 
  "необходимого": 7900, 
  "призывают": 7901, 
  "основан": 7902, 
  "ценным": 7903, 
  "рующей": 7904, 
  "языке": 7905, 
  "щихся": 7906, 
  "выяс@@": 7907, 
  "увеличении": 7908, 
  "поставили": 7909, 
  "уво@@": 7910, 
  "углуб@@": 7911, 
  "проя@@": 7912, 
  "моральные": 7913, 
  "традиций": 7914, 
  "изменит": 7915, 
  "моральный": 7916, 
  "присут@@": 7917, 
  "метод": 7918, 
  "кажу@@": 7919, 
  "пом@@": 7920, 
  "соблюдение": 7921, 
  "движу@@": 7922, 
  "Brothers": 7923, 
  "парламент@@": 7924, 
  "жат": 7925, 
  "любят": 7926, 
  "сель@@": 7927, 
  "гуманитарной": 7928, 
  "атмосфере": 7929, 
  "урон": 7930, 
  "чами": 7931, 
  "бессмыс@@": 7932, 
  "взрыв": 7933, 
  "глубокого": 7934, 
  "кредит": 7935, 
  "районе": 7936, 
  "пада@@": 7937, 
  "испытывает": 7938, 
  "вдохновля@@": 7939, 
  "советских": 7940, 
  "человеческие": 7941, 
  "ционное": 7942, 
  "умеренных": 7943, 
  "иранского": 7944, 
  "макроэкономической": 7945, 
  "кварти@@": 7946, 
  "примирения": 7947, 
  "вдохно@@": 7948, 
  "аналогичным": 7949, 
  "лин@@": 7950, 
  "неё": 7951, 
  "выводы": 7952, 
  "чают": 7953, 
  "дию": 7954, 
  "значительными": 7955, 
  "затраги@@": 7956, 
  "зако@@": 7957, 
  "некотором": 7958, 
  "соста@@": 7959, 
  "преемника": 7960, 
  "лиши@@": 7961, 
  "сохрани@@": 7962, 
  "небольшим": 7963, 
  "уби@@": 7964, 
  "потребуются": 7965, 
  "чувством": 7966, 
  "обно@@": 7967, 
  "технологи@@": 7968, 
  "случайно": 7969, 
  "начаться": 7970, 
  "картина": 7971, 
  "дей": 7972, 
  "пога@@": 7973, 
  "Абу": 7974, 
  "снижает": 7975, 
  "препят@@": 7976, 
  "вычис@@": 7977, 
  "завтра": 7978, 
  "сказала": 7979, 
  "разум@@": 7980, 
  "тура": 7981, 
  "западного": 7982, 
  "принятию": 7983, 
  "верх": 7984, 
  "порождает": 7985, 
  "правого": 7986, 
  "схемы": 7987, 
  "называемых": 7988, 
  "сан@@": 7989, 
  "Те@@": 7990, 
  "изменили": 7991, 
  "курд@@": 7992, 
  "мусульманского": 7993, 
  "след@@": 7994, 
  "промежу@@": 7995, 
  "отка@@": 7996, 
  "оборудования": 7997, 
  "полномочиями": 7998, 
  "веб": 7999, 
  "даёт": 8000, 
  "отреаги@@": 8001, 
  "провока@@": 8002, 
  "государственное": 8003, 
  "землетрясения": 8004, 
  "устойчивой": 8005, 
  "обеспоко@@": 8006, 
  "2013": 8007, 
  "плохого": 8008, 
  "команди@@": 8009, 
  "рых": 8010, 
  "сси@@": 8011, 
  "рука": 8012, 
  "набра@@": 8013, 
  "хаоса": 8014, 
  "шансов": 8015, 
  "глубокий": 8016, 
  "устойчи@@": 8017, 
  "дет": 8018, 
  "больни@@": 8019, 
  "продоволь@@": 8020, 
  "конкурентоспособ@@": 8021, 
  "усиливает": 8022, 
  "яр@@": 8023, 
  "став": 8024, 
  "тюрьмы": 8025, 
  "избрания": 8026, 
  "размыш@@": 8027, 
  "нейтра@@": 8028, 
  "бесси@@": 8029, 
  "суме@@": 8030, 
  "лучшую": 8031, 
  "личных": 8032, 
  "профицит": 8033, 
  "Португалии": 8034, 
  "науч@@": 8035, 
  "хе": 8036, 
  "ами": 8037, 
  "В.": 8038, 
  "двусторонние": 8039, 
  "теп@@": 8040, 
  "палестинские": 8041, 
  "существовали": 8042, 
  "альное": 8043, 
  "вленная": 8044, 
  "пространства": 8045, 
  "захватыва@@": 8046, 
  "разными": 8047, 
  "возрос@@": 8048, 
  "настаивает": 8049, 
  "границах": 8050, 
  "Джона": 8051, 
  "чрезмерной": 8052, 
  "P": 8053, 
  "движется": 8054, 
  "полученные": 8055, 
  "логика": 8056, 
  "удовлетворения": 8057, 
  "вить": 8058, 
  "оптимизма": 8059, 
  "фондовой": 8060, 
  "коалицию": 8061, 
  "Пла@@": 8062, 
  "Малайзии": 8063, 
  "фикация": 8064, 
  "личные": 8065, 
  "нехватка": 8066, 
  "ез@@": 8067, 
  "влиять": 8068, 
  "массовых": 8069, 
  "показало": 8070, 
  "шло": 8071, 
  "исходя": 8072, 
  "зе": 8073, 
  "дут": 8074, 
  "празд@@": 8075, 
  "ошиб@@": 8076, 
  "последовало": 8077, 
  "всякий": 8078, 
  "возвы@@": 8079, 
  "заставит": 8080, 
  "налоговой": 8081, 
  "обма@@": 8082, 
  "щен@@": 8083, 
  "свидетельства": 8084, 
  "могуще@@": 8085, 
  "обвинять": 8086, 
  "опусто@@": 8087, 
  "жим": 8088, 
  "туре": 8089, 
  "глав": 8090, 
  "лагеря": 8091, 
  "бизнесе": 8092, 
  "входит": 8093, 
  "успешных": 8094, 
  "источника": 8095, 
  "инвестирования": 8096, 
  "сделка": 8097, 
  "цикл": 8098, 
  "примера": 8099, 
  "заем@@": 8100, 
  "провел": 8101, 
  "захочет": 8102, 
  "неде@@": 8103, 
  "очеред@@": 8104, 
  "дем": 8105, 
  "девальвации": 8106, 
  "вытес@@": 8107, 
  "точке": 8108, 
  "длительный": 8109, 
  "взаимоотношения": 8110, 
  "ближневосто@@": 8111, 
  "трансформации": 8112, 
  "оспари@@": 8113, 
  "сдерживание": 8114, 
  "перен@@": 8115, 
  "кредитный": 8116, 
  "бин": 8117, 
  "создан": 8118, 
  "льность": 8119, 
  "воспринимать": 8120, 
  "поступать": 8121, 
  "мобилизовать": 8122, 
  "мных": 8123, 
  "списка": 8124, 
  "организациям": 8125, 
  "человеку": 8126, 
  "надежде": 8127, 
  "остров": 8128, 
  "неадеква@@": 8129, 
  "пенсию": 8130, 
  "соблюдения": 8131, 
  "вооружен@@": 8132, 
  "уязви@@": 8133, 
  "осве@@": 8134, 
  "вмешиваться": 8135, 
  "соблюдать": 8136, 
  "террори@@": 8137, 
  "увеличили": 8138, 
  "исламских": 8139, 
  "одобрение": 8140, 
  "ненависть": 8141, 
  "внимательно": 8142, 
  "заявили": 8143, 
  "равенство": 8144, 
  "вызвала": 8145, 
  "дипломатические": 8146, 
  "последующих": 8147, 
  "слы@@": 8148, 
  "лов@@": 8149, 
  "семи": 8150, 
  "щается": 8151, 
  "1929": 8152, 
  "веща@@": 8153, 
  "сей": 8154, 
  "концентрации": 8155, 
  "цифра": 8156, 
  "обеспечит": 8157, 
  "величине": 8158, 
  "арабы": 8159, 
  "книга": 8160, 
  "организацией": 8161, 
  "точные": 8162, 
  "ознамено@@": 8163, 
  "потребностей": 8164, 
  "этнической": 8165, 
  "представитель": 8166, 
  "делается": 8167, 
  "введен@@": 8168, 
  "экологические": 8169, 
  "настоящим": 8170, 
  "вдоль": 8171, 
  "эффективный": 8172, 
  "банковский": 8173, 
  "зарегистри@@": 8174, 
  "Сан@@": 8175, 
  "ограничивает": 8176, 
  "морального": 8177, 
  "шал": 8178, 
  "ударов": 8179, 
  "окон@@": 8180, 
  "тли@@": 8181, 
  "ваемые": 8182, 
  "памят@@": 8183, 
  "потеря@@": 8184, 
  "бирже": 8185, 
  "консерваторов": 8186, 
  "решила": 8187, 
  "общественную": 8188, 
  "приобрести": 8189, 
  "добавить": 8190, 
  "оппонентов": 8191, 
  "схо@@": 8192, 
  "хе@@": 8193, 
  "атмосферу": 8194, 
  "запу@@": 8195, 
  "плату": 8196, 
  "подавления": 8197, 
  "строго": 8198, 
  "столетий": 8199, 
  "стиля": 8200, 
  "Тэтчер": 8201, 
  "полезным": 8202, 
  "Португалия": 8203, 
  "способствовала": 8204, 
  "сторон@@": 8205, 
  "современным": 8206, 
  "стимулирование": 8207, 
  "совмести@@": 8208, 
  "устойчивый": 8209, 
  "Интернете": 8210, 
  "пропорциональ@@": 8211, 
  "арест": 8212, 
  "карика@@": 8213, 
  "исторического": 8214, 
  "великих": 8215, 
  "отношениям": 8216, 
  "обсуждать": 8217, 
  "существенным": 8218, 
  "фондового": 8219, 
  "переживает": 8220, 
  "телекоммуника@@": 8221, 
  "исламистов": 8222, 
  "старый": 8223, 
  "протокола": 8224, 
  "чрезмерного": 8225, 
  "тному": 8226, 
  "сохраняется": 8227, 
  "расположенных": 8228, 
  "иску@@": 8229, 
  "боль": 8230, 
  "саудов@@": 8231, 
  "ленная": 8232, 
  "доверять": 8233, 
  "пу": 8234, 
  "упадка": 8235, 
  "развед@@": 8236, 
  "издержек": 8237, 
  "односторон@@": 8238, 
  "обраща@@": 8239, 
  "служат": 8240, 
  "получается": 8241, 
  "историческим": 8242, 
  "откуда": 8243, 
  "писыва@@": 8244, 
  "топливо": 8245, 
  "область": 8246, 
  "ждены": 8247, 
  "цивилизован@@": 8248, 
  "неприемле@@": 8249, 
  "колебаний": 8250, 
  "возникли": 8251, 
  "Венесуэле": 8252, 
  "65": 8253, 
  "Саддам": 8254, 
  "институциональных": 8255, 
  "стоять": 8256, 
  "судебного": 8257, 
  "тремя": 8258, 
  "Гитлера": 8259, 
  "употреб@@": 8260, 
  "торже@@": 8261, 
  "ваемых": 8262, 
  "Москва": 8263, 
  "содержания": 8264, 
  "министерство": 8265, 
  "положительный": 8266, 
  "двадцати": 8267, 
  "японского": 8268, 
  "иммигранты": 8269, 
  "репутации": 8270, 
  "проявить": 8271, 
  "жестких": 8272, 
  "миллионам": 8273, 
  "одностороннем": 8274, 
  "общему": 8275, 
  "понимали": 8276, 
  "Австрии": 8277, 
  "фы": 8278, 
  "зави@@": 8279, 
  "значимость": 8280, 
  "республиканцев": 8281, 
  "подвергаются": 8282, 
  "япон@@": 8283, 
  "потрясения": 8284, 
  "продать": 8285, 
  "фигу@@": 8286, 
  "мусульманские": 8287, 
  "цик@@": 8288, 
  "Холодной": 8289, 
  "ракеты": 8290, 
  "специаль@@": 8291, 
  "ительны": 8292, 
  "горя@@": 8293, 
  "увеличился": 8294, 
  "вило": 8295, 
  "родной": 8296, 
  "природу": 8297, 
  "действующих": 8298, 
  "встречу": 8299, 
  "станции": 8300, 
  "ть@@": 8301, 
  "категории": 8302, 
  "получали": 8303, 
  "затрудн@@": 8304, 
  "долгий": 8305, 
  "деятелей": 8306, 
  "Ай@@": 8307, 
  "соответствовать": 8308, 
  "Ширака": 8309, 
  "здоро@@": 8310, 
  "меся@@": 8311, 
  "поддержали": 8312, 
  "герои@@": 8313, 
  "То@@": 8314, 
  "завершения": 8315, 
  "молча@@": 8316, 
  "правовой": 8317, 
  "резервная": 8318, 
  "покупки": 8319, 
  "непреодоли@@": 8320, 
  "стремлении": 8321, 
  "вступа@@": 8322, 
  "региональное": 8323, 
  "быстрому": 8324, 
  "дегра@@": 8325, 
  "моему": 8326, 
  "лучшему": 8327, 
  "измер@@": 8328, 
  "увели@@": 8329, 
  "силах": 8330, 
  "щики": 8331, 
  "решающее": 8332, 
  "площа@@": 8333, 
  "чка": 8334, 
  "D": 8335, 
  "широких": 8336, 
  "пойдет": 8337, 
  "импульс": 8338, 
  "восьмерки": 8339, 
  "принципам": 8340, 
  "официального": 8341, 
  "американском": 8342, 
  "репрессии": 8343, 
  "наблюдения": 8344, 
  "заключаются": 8345, 
  "Пер@@": 8346, 
  "биологи@@": 8347, 
  "выразил": 8348, 
  "доступ@@": 8349, 
  "социалисти@@": 8350, 
  "церкви": 8351, 
  "падению": 8352, 
  "Бхутто": 8353, 
  "доходами": 8354, 
  "мораль@@": 8355, 
  "свобод": 8356, 
  "коммунистические": 8357, 
  "отсут@@": 8358, 
  "пытки": 8359, 
  "Инди@@": 8360, 
  "вызовет": 8361, 
  "дорогу": 8362, 
  "социальным": 8363, 
  "дель@@": 8364, 
  "привлекательность": 8365, 
  "финансовому": 8366, 
  "построения": 8367, 
  "Штатам": 8368, 
  "объявить": 8369, 
  "старе@@": 8370, 
  "деятельностью": 8371, 
  "клиентов": 8372, 
  "положительным": 8373, 
  "енность": 8374, 
  "стиль": 8375, 
  "армией": 8376, 
  "поступа@@": 8377, 
  "довать": 8378, 
  "зой": 8379, 
  "врачей": 8380, 
  "ула@@": 8381, 
  "основываясь": 8382, 
  "сыграли": 8383, 
  "мати@@": 8384, 
  "ужаса@@": 8385, 
  "подобную": 8386, 
  "сове@@": 8387, 
  "потенциальные": 8388, 
  "внутренним": 8389, 
  "расследования": 8390, 
  "лог": 8391, 
  "ваясь": 8392, 
  "форм": 8393, 
  "собрать": 8394, 
  "ору@@": 8395, 
  "поверить": 8396, 
  "делега@@": 8397, 
  "настоящей": 8398, 
  "нефтедобы@@": 8399, 
  "произойдёт": 8400, 
  "корпоратив@@": 8401, 
  "обладать": 8402, 
  "прямым": 8403, 
  "испытание": 8404, 
  "смотрят": 8405, 
  "Но@@": 8406, 
  "выделить": 8407, 
  "произошла": 8408, 
  "наследство": 8409, 
  "вакуум": 8410, 
  "щён@@": 8411, 
  "протестующих": 8412, 
  "радикальных": 8413, 
  "дова@@": 8414, 
  "подавляющее": 8415, 
  "ведущую": 8416, 
  "пору@@": 8417, 
  "тера": 8418, 
  "правильном": 8419, 
  "нуло": 8420, 
  "приоритетов": 8421, 
  "шенной": 8422, 
  "находилась": 8423, 
  "перена@@": 8424, 
  "выбро@@": 8425, 
  "пережива@@": 8426, 
  "делал": 8427, 
  "t@@": 8428, 
  "трудовых": 8429, 
  "шиться": 8430, 
  "дисбаланса": 8431, 
  "гне@@": 8432, 
  "варианта": 8433, 
  "попросту": 8434, 
  "распад": 8435, 
  "Кейнс": 8436, 
  "доминиру@@": 8437, 
  "языка": 8438, 
  "Бирме": 8439, 
  "ок": 8440, 
  "стабильной": 8441, 
  "альян@@": 8442, 
  "широкие": 8443, 
  "стскими": 8444, 
  "серьёзные": 8445, 
  "вынес@@": 8446, 
  "элементом": 8447, 
  "повлияет": 8448, 
  "разо@@": 8449, 
  "либерализацию": 8450, 
  "вниз": 8451, 
  "институциональные": 8452, 
  "шен": 8453, 
  "вла@@": 8454, 
  "способен": 8455, 
  "сообществ": 8456, 
  "недовольства": 8457, 
  "временным": 8458, 
  "медицинского": 8459, 
  "утвержда@@": 8460, 
  "вина": 8461, 
  "переговор@@": 8462, 
  "выра@@": 8463, 
  "выше@@": 8464, 
  "развивается": 8465, 
  "внешне@@": 8466, 
  "Сер@@": 8467, 
  "1987": 8468, 
  "Вы@@": 8469, 
  "арабским": 8470, 
  "чек": 8471, 
  "Саакашвили": 8472, 
  "никого": 8473, 
  "сильными": 8474, 
  "цини@@": 8475, 
  "огранич@@": 8476, 
  "облегчить": 8477, 
  "Ис@@": 8478, 
  "инстру@@": 8479, 
  "инструмент": 8480, 
  "допол@@": 8481, 
  "малые": 8482, 
  "мягкую": 8483, 
  "фьючер@@": 8484, 
  "декларации": 8485, 
  "Гонконг": 8486, 
  "лай@@": 8487, 
  "ввод@@": 8488, 
  "проводят": 8489, 
  "нер": 8490, 
  "никому": 8491, 
  "привлечения": 8492, 
  "иракцев": 8493, 
  "вари@@": 8494, 
  "соседних": 8495, 
  "создало": 8496, 
  "отправля@@": 8497, 
  "вилась": 8498, 
  "исключения": 8499, 
  "заемных": 8500, 
  "показателя": 8501, 
  "пошли": 8502, 
  "усилиям": 8503, 
  "давлению": 8504, 
  "инвестициям": 8505, 
  "альная": 8506, 
  "нефтью": 8507, 
  "государственная": 8508, 
  "распростран@@": 8509, 
  "король": 8510, 
  "оставался": 8511, 
  "Ислама": 8512, 
  "ограничивается": 8513, 
  "производственных": 8514, 
  "экологически": 8515, 
  "российское": 8516, 
  "показателем": 8517, 
  "клиен@@": 8518, 
  "установлении": 8519, 
  "различ@@": 8520, 
  "молодежь": 8521, 
  "эта@@": 8522, 
  "сравнение": 8523, 
  "неспособности": 8524, 
  "заливе": 8525, 
  "державами": 8526, 
  "появилось": 8527, 
  "органами": 8528, 
  "палестинское": 8529, 
  "правдо@@": 8530, 
  "немецкой": 8531, 
  "насчитыва@@": 8532, 
  "целый": 8533, 
  "снижается": 8534, 
  "покров@@": 8535, 
  "создана": 8536, 
  "Медведев": 8537, 
  "международными": 8538, 
  "редак@@": 8539, 
  "щаться": 8540, 
  "мно@@": 8541, 
  "полагали": 8542, 
  "оцен@@": 8543, 
  "признак": 8544, 
  "регулировать": 8545, 
  "круга": 8546, 
  "плохое": 8547, 
  "группами": 8548, 
  "лям": 8549, 
  "ству@@": 8550, 
  "разнообразия": 8551, 
  "мные": 8552, 
  "вился": 8553, 
  "передача": 8554, 
  "диктатор@@": 8555, 
  "судов": 8556, 
  "песо": 8557, 
  "убеждение": 8558, 
  "тоталитар@@": 8559, 
  "аспекты": 8560, 
  "пострадали": 8561, 
  "основывается": 8562, 
  "сложность": 8563, 
  "своём": 8564, 
  "муч@@": 8565, 
  "промышленной": 8566, 
  "призвал": 8567, 
  "инициатив": 8568, 
  "медленный": 8569, 
  "лку": 8570, 
  "очевидна": 8571, 
  "контро@@": 8572, 
  "пищи": 8573, 
  "мирной": 8574, 
  "ответов": 8575, 
  "судебные": 8576, 
  "гипоте@@": 8577, 
  "дера": 8578, 
  "плюс": 8579, 
  "потерю": 8580, 
  "Международ@@": 8581, 
  "увеличилась": 8582, 
  "отменить": 8583, 
  "миротвор@@": 8584, 
  "монополи@@": 8585, 
  "жителям": 8586, 
  "ов": 8587, 
  "потратить": 8588, 
  "краткосрочных": 8589, 
  "рекомендации": 8590, 
  "коллеги": 8591, 
  "Националь@@": 8592, 
  "возникнет": 8593, 
  "матери": 8594, 
  "лета": 8595, 
  "Хамасом": 8596, 
  "свободная": 8597, 
  "картину": 8598, 
  "Верховного": 8599, 
  "понял": 8600, 
  "ата@@": 8601, 
  "ито@@": 8602, 
  "правовых": 8603, 
  "лят": 8604, 
  "событиями": 8605, 
  "золото": 8606, 
  "5,@@": 8607, 
  "закла@@": 8608, 
  "загряз@@": 8609, 
  "ехать": 8610, 
  "весны": 8611, 
  "прогнозам": 8612, 
  "среднесро@@": 8613, 
  "саму": 8614, 
  "привыкли": 8615, 
  "рейтинг": 8616, 
  "сохраняет": 8617, 
  "I@@": 8618, 
  "ландия": 8619, 
  "отмеча@@": 8620, 
  "стоя@@": 8621, 
  "гар@@": 8622, 
  "ampnbsp": 8623, 
  "событием": 8624, 
  "альтернатив@@": 8625, 
  "колумби@@": 8626, 
  "поиска": 8627, 
  "подтверждает": 8628, 
  "пато@@": 8629, 
  "личность": 8630, 
  "дила": 8631, 
  "верил": 8632, 
  "истори@@": 8633, 
  "мии": 8634, 
  "сторонником": 8635, 
  "автократи@@": 8636, 
  "американскому": 8637, 
  "сокра@@": 8638, 
  "изгна@@": 8639, 
  "свобо@@": 8640, 
  "Ислам@@": 8641, 
  "вл@@": 8642, 
  "15@@": 8643, 
  "катастрофа": 8644, 
  "проводимой": 8645, 
  "потрясений": 8646, 
  "пройдет": 8647, 
  "латино@@": 8648, 
  "p@@": 8649, 
  "&#93;": 8650, 
  "&#91;": 8651, 
  "палестинский": 8652, 
  "морской": 8653, 
  "вленный": 8654, 
  "присоединения": 8655, 
  "иррациональ@@": 8656, 
  "сокращением": 8657, 
  "партийной": 8658, 
  "8,@@": 8659, 
  "скептики": 8660, 
  "внутренними": 8661, 
  "голову": 8662, 
  "моих": 8663, 
  "консолидации": 8664, 
  "избранный": 8665, 
  "8@@": 8666, 
  "Народ@@": 8667, 
  "носить": 8668, 
  "Восто@@": 8669, 
  "ётся": 8670, 
  "сму@@": 8671, 
  "итами": 8672, 
  "напад@@": 8673, 
  "индийских": 8674, 
  "судья": 8675, 
  "избе@@": 8676, 
  "специалистов": 8677, 
  "примере": 8678, 
  "бойко@@": 8679, 
  "попу@@": 8680, 
  "преследования": 8681, 
  "угрозе": 8682, 
  "слабый": 8683, 
  "падает": 8684, 
  "кварта@@": 8685, 
  "закону": 8686, 
  "способству@@": 8687, 
  "рассу@@": 8688, 
  "разработку": 8689, 
  "голод": 8690, 
  "Украину": 8691, 
  "недоверие": 8692, 
  "Пре@@": 8693, 
  "всеобъемлю@@": 8694, 
  "название": 8695, 
  "борются": 8696, 
  "отчаян@@": 8697, 
  "див": 8698, 
  "уверенностью": 8699, 
  "союзника": 8700, 
  "серьез@@": 8701, 
  "заявлений": 8702, 
  "перво@@": 8703, 
  "пожа@@": 8704, 
  "ун": 8705, 
  "85": 8706, 
  "медицинской": 8707, 
  "Ни@@": 8708, 
  "обуздать": 8709, 
  "предусматривает": 8710, 
  "временного": 8711, 
  "енную": 8712, 
  "федерального": 8713, 
  "нарушений": 8714, 
  "религиозным": 8715, 
  "культурой": 8716, 
  "геноцида": 8717, 
  "водой": 8718, 
  "осознание": 8719, 
  "отчё@@": 8720, 
  "бизнесом": 8721, 
  "+": 8722, 
  "ковой": 8723, 
  "решающую": 8724, 
  "партиза@@": 8725, 
  "внима@@": 8726, 
  "пенсион@@": 8727, 
  "тельства": 8728, 
  "пово@@": 8729, 
  "застоя": 8730, 
  "прежде@@": 8731, 
  "способна": 8732, 
  "рекла@@": 8733, 
  "целесообраз@@": 8734, 
  "демонстри@@": 8735, 
  "перви@@": 8736, 
  "коммунистическая": 8737, 
  "сход@@": 8738, 
  "сравн@@": 8739, 
  "Каире": 8740, 
  "повод": 8741, 
  "безопасностью": 8742, 
  "исследователь@@": 8743, 
  "строго@@": 8744, 
  "женных": 8745, 
  "управляют": 8746, 
  "преде@@": 8747, 
  "предупреждения": 8748, 
  "мусульманской": 8749, 
  "банкиров": 8750, 
  "Центрального": 8751, 
  "пороге": 8752, 
  "Революции": 8753, 
  "заключении": 8754, 
  "воспита@@": 8755, 
  "надеется": 8756, 
  "сбере@@": 8757, 
  "Киотского": 8758, 
  "Франсуа": 8759, 
  "очевиден": 8760, 
  "пусты@@": 8761, 
  "ид@@": 8762, 
  "желанием": 8763, 
  "стоить": 8764, 
  "мигрантов": 8765, 
  "Голля": 8766, 
  "аген@@": 8767, 
  "определению": 8768, 
  "урегулирование": 8769, 
  "тво@@": 8770, 
  "партнерами": 8771, 
  "Виль@@": 8772, 
  "Федеральная": 8773, 
  "некоторую": 8774, 
  "достаточным": 8775, 
  "кля@@": 8776, 
  "находились": 8777, 
  "неудача": 8778, 
  "распоряжении": 8779, 
  "обращаться": 8780, 
  "ключевую": 8781, 
  "похо@@": 8782, 
  "ценностям": 8783, 
  "образа": 8784, 
  "представи@@": 8785, 
  "испытанием": 8786, 
  "31": 8787, 
  "оптимизм": 8788, 
  "советские": 8789, 
  "отнюдь": 8790, 
  "законо@@": 8791, 
  "занимать": 8792, 
  "парадоксально": 8793, 
  "придать": 8794, 
  "крыла": 8795, 
  "ченная": 8796, 
  "функционировать": 8797, 
  "сте": 8798, 
  "воспринимают": 8799, 
  "вирус": 8800, 
  "сроки": 8801, 
  "сило@@": 8802, 
  "элемент": 8803, 
  "навыков": 8804, 
  "настаивают": 8805, 
  "пособия": 8806, 
  "мому": 8807, 
  "иным": 8808, 
  "беспристраст@@": 8809, 
  "вита@@": 8810, 
  "шена": 8811, 
  "севере": 8812, 
  "Кеннеди": 8813, 
  "непримири@@": 8814, 
  "продемонстрировали": 8815, 
  "первыми": 8816, 
  "ющемся": 8817, 
  "поле@@": 8818, 
  "Сталина": 8819, 
  "провали@@": 8820, 
  "представлены": 8821, 
  "успешными": 8822, 
  "предвар@@": 8823, 
  "помогая": 8824, 
  "втя@@": 8825, 
  "оказанию": 8826, 
  "тились": 8827, 
  "избра@@": 8828, 
  "средствам": 8829, 
  "Государ@@": 8830, 
  "ускор@@": 8831, 
  "договору": 8832, 
  "стороной": 8833, 
  "судебных": 8834, 
  "неформа@@": 8835, 
  "преимуществом": 8836, 
  "тур": 8837, 
  "жей": 8838, 
  "ограничен@@": 8839, 
  "честно": 8840, 
  "преодоле@@": 8841, 
  "Хай@@": 8842, 
  "иностранными": 8843, 
  "африкан@@": 8844, 
  "домашних": 8845, 
  "двери": 8846, 
  "вслед": 8847, 
  "рения": 8848, 
  "статей": 8849, 
  "ути@@": 8850, 
  "сделку": 8851, 
  "небольшая": 8852, 
  "ровав": 8853, 
  "опро@@": 8854, 
  "рок": 8855, 
  "годам": 8856, 
  "августа": 8857, 
  "процентной": 8858, 
  "различи@@": 8859, 
  "протест": 8860, 
  "V@@": 8861, 
  "придерживается": 8862, 
  "суб@@": 8863, 
  "осознавать": 8864, 
  "линию": 8865, 
  "поставлено": 8866, 
  "Палестинской": 8867, 
  "преобразований": 8868, 
  "израильский": 8869, 
  "южнокорей@@": 8870, 
  "понадобится": 8871, 
  "ви": 8872, 
  "правосла@@": 8873, 
  "активами": 8874, 
  "гали": 8875, 
  "устойчивым": 8876, 
  "трансформи@@": 8877, 
  "общественный": 8878, 
  "привод@@": 8879, 
  "ыми": 8880, 
  "оставил": 8881, 
  "банки@@": 8882, 
  "иронии": 8883, 
  "лого": 8884, 
  "тского": 8885, 
  "ошеломля@@": 8886, 
  "индий@@": 8887, 
  "задать": 8888, 
  "системами": 8889, 
  "толчок": 8890, 
  "растущим": 8891, 
  "долгие": 8892, 
  "состоянию": 8893, 
  "изнутри": 8894, 
  "систематически": 8895, 
  "течением": 8896, 
  "миллиард": 8897, 
  "тиях": 8898, 
  "временные": 8899, 
  "скоростью": 8900, 
  "индика@@": 8901, 
  "безответствен@@": 8902, 
  "русских": 8903, 
  "рецеп@@": 8904, 
  "Обаму": 8905, 
  "главную": 8906, 
  "конкурентов": 8907, 
  "вывать": 8908, 
  "тр": 8909, 
  "доступными": 8910, 
  "мероприятия": 8911, 
  "Гарвар@@": 8912, 
  "аэропор@@": 8913, 
  "лекар@@": 8914, 
  "максимально": 8915, 
  "бюджетов": 8916, 
  "располага@@": 8917, 
  "духе": 8918, 
  "положительных": 8919, 
  "побо@@": 8920, 
  "шь": 8921, 
  "разреш@@": 8922, 
  "против@@": 8923, 
  "миссию": 8924, 
  "переход@@": 8925, 
  "государстве": 8926, 
  "шага": 8927, 
  "влиятельные": 8928, 
  "столкнулся": 8929, 
  "проявления": 8930, 
  "запозда@@": 8931, 
  "ительна": 8932, 
  "коллектив@@": 8933, 
  "совокупный": 8934, 
  "целенаправл@@": 8935, 
  "отложить": 8936, 
  "тяжело": 8937, 
  "дер": 8938, 
  "Обасанджо": 8939, 
  "Пере@@": 8940, 
  "Чейни": 8941, 
  "уступа@@": 8942, 
  "выбрал": 8943, 
  "идеология": 8944, 
  "религиоз@@": 8945, 
  "нейтраль@@": 8946, 
  "главными": 8947, 
  "стскую": 8948, 
  "информационных": 8949, 
  "защища@@": 8950, 
  "глубже": 8951, 
  "российская": 8952, 
  "держава": 8953, 
  "бре@@": 8954, 
  "кредитам": 8955, 
  "взаимодействия": 8956, 
  "вшимися": 8957, 
  "плата": 8958, 
  "подходы": 8959, 
  "прецеден@@": 8960, 
  "раст@@": 8961, 
  "вки": 8962, 
  "поез@@": 8963, 
  "продажу": 8964, 
  "Кубы": 8965, 
  "остро": 8966, 
  "мешает": 8967, 
  "лауреа@@": 8968, 
  "должное": 8969, 
  "содействие": 8970, 
  "считалось": 8971, 
  "человечество": 8972, 
  "курсом": 8973, 
  "ума": 8974, 
  "дисциплины": 8975, 
  "мечта": 8976, 
  "невероят@@": 8977, 
  "компьютер@@": 8978, 
  "1,@@": 8979, 
  "практика": 8980, 
  "реализо@@": 8981, 
  "долго@@": 8982, 
  "заключался": 8983, 
  "руководителя": 8984, 
  "сви@@": 8985, 
  "дву@@": 8986, 
  "читать": 8987, 
  "факторами": 8988, 
  "навяза@@": 8989, 
  "устройство": 8990, 
  "определен@@": 8991, 
  "радио@@": 8992, 
  "особые": 8993, 
  "беспоко@@": 8994, 
  "экономиках": 8995, 
  "положительное": 8996, 
  "уголь": 8997, 
  "беспокой@@": 8998, 
  "коррупцию": 8999, 
  "свободный": 9000, 
  "цено@@": 9001, 
  "предме@@": 9002, 
  "профессор": 9003, 
  "гряз@@": 9004, 
  "прямого": 9005, 
  "поста": 9006, 
  "трудностями": 9007, 
  "устойчивое": 9008, 
  "возрастает": 9009, 
  "плат@@": 9010, 
  "положением": 9011, 
  "лицами": 9012, 
  "естественным": 9013, 
  "европейском": 9014, 
  "почву": 9015, 
  "ежедневно": 9016, 
  "ОЭСР": 9017, 
  "существенное": 9018, 
  "культурного": 9019, 
  "навязать": 9020, 
  "сохранении": 9021, 
  "йдет": 9022, 
  "подтолк@@": 9023, 
  "нор@@": 9024, 
  "откров@@": 9025, 
  "потерпели": 9026, 
  "приводя": 9027, 
  "выразился": 9028, 
  "растущую": 9029, 
  "el": 9030, 
  "сексуальных": 9031, 
  "гармони@@": 9032, 
  "британ@@": 9033, 
  "ложение": 9034, 
  "Вьетнаме": 9035, 
  "короля": 9036, 
  "обстоятельств": 9037, 
  "Руанде": 9038, 
  "Аб@@": 9039, 
  "зр@@": 9040, 
  "пуст@@": 9041, 
  "утверждали": 9042, 
  "умеренные": 9043, 
  "ООП": 9044, 
  "бами": 9045, 
  "уменьшается": 9046, 
  "Коидзуми": 9047, 
  "относ@@": 9048, 
  "менти@@": 9049, 
  "работающие": 9050, 
  "принципах": 9051, 
  "пробле@@": 9052, 
  "находимся": 9053, 
  "чём": 9054, 
  "мяг@@": 9055, 
  "фондовых": 9056, 
  "предпринимателей": 9057, 
  "сохранению": 9058, 
  "встать": 9059, 
  "вообража@@": 9060, 
  "мира@@": 9061, 
  "инфраструктура": 9062, 
  "губ@@": 9063, 
  "берегу": 9064, 
  "еся": 9065, 
  "действовали": 9066, 
  "исламские": 9067, 
  "приве@@": 9068, 
  "ходящей": 9069, 
  "ежеднев@@": 9070, 
  "депрессия": 9071, 
  "пля@@": 9072, 
  "способностью": 9073, 
  "исключение": 9074, 
  "обусло@@": 9075, 
  "авторитарные": 9076, 
  "корпоративного": 9077, 
  "кость": 9078, 
  "оди@@": 9079, 
  "управляет": 9080, 
  "бом@@": 9081, 
  "идеологи@@": 9082, 
  "un": 9083, 
  "кибер@@": 9084, 
  "единую": 9085, 
  "Кор@@": 9086, 
  "страдать": 9087, 
  "оставались": 9088, 
  "переговорам": 9089, 
  "держаться": 9090, 
  "Хиллари": 9091, 
  "грозит": 9092, 
  "живают": 9093, 
  "поддержал": 9094, 
  "избран": 9095, 
  "Шарона": 9096, 
  "внутреннее": 9097, 
  "правосудие": 9098, 
  "чает": 9099, 
  "вырастет": 9100, 
  "жар@@": 9101, 
  "накопления": 9102, 
  "немецкий": 9103, 
  "открытых": 9104, 
  "терпимости": 9105, 
  "протекционизм": 9106, 
  "быстро@@": 9107, 
  "противоречия": 9108, 
  "Нигерия": 9109, 
  "еврозону": 9110, 
  "обанкротиться": 9111, 
  "услы@@": 9112, 
  "несостоя@@": 9113, 
  "иными": 9114, 
  "отмен@@": 9115, 
  "определенный": 9116, 
  "сетей": 9117, 
  "периоды": 9118, 
  "уязвимость": 9119, 
  "северокорей@@": 9120, 
  "известным": 9121, 
  "мас@@": 9122, 
  "интеллекта": 9123, 
  "двор@@": 9124, 
  "отраслей": 9125, 
  "третье": 9126, 
  "продукт": 9127, 
  "небольших": 9128, 
  "щиеся": 9129, 
  "обречены": 9130, 
  "иракских": 9131, 
  "активного": 9132, 
  "страхи": 9133, 
  "суверен@@": 9134, 
  "подозрения": 9135, 
  "зией": 9136, 
  "активистов": 9137, 
  "раль@@": 9138, 
  "Американ@@": 9139, 
  "членах": 9140, 
  "последнем": 9141, 
  "чь@@": 9142, 
  "касающихся": 9143, 
  "взятые": 9144, 
  "6,@@": 9145, 
  "урегулированию": 9146, 
  "снижением": 9147, 
  "большом": 9148, 
  "крупнейшим": 9149, 
  "детьми": 9150, 
  "промышленные": 9151, 
  "потеряла": 9152, 
  "Чаве@@": 9153, 
  "проходят": 9154, 
  "легитим@@": 9155, 
  "безработице": 9156, 
  "туры": 9157, 
  "снизилась": 9158, 
  "ископаемых": 9159, 
  "пости@@": 9160, 
  "определён@@": 9161, 
  "развитыми": 9162, 
  "предвыбор@@": 9163, 
  "сдви@@": 9164, 
  "потеплением": 9165, 
  "находясь": 9166, 
  "указыва@@": 9167, 
  "центры": 9168, 
  "врагами": 9169, 
  "поправ@@": 9170, 
  "F": 9171, 
  "маль@@": 9172, 
  "солне@@": 9173, 
  "ищут": 9174, 
  "М": 9175, 
  "разры@@": 9176, 
  "временной": 9177, 
  "склонность": 9178, 
  "скепти@@": 9179, 
  "поворот": 9180, 
  "вступил": 9181, 
  "прессе": 9182, 
  "французского": 9183, 
  "содействия": 9184, 
  "дан": 9185, 
  "поступ@@": 9186, 
  "взаим@@": 9187, 
  "благород@@": 9188, 
  "тельности": 9189, 
  "бюрократии": 9190, 
  "потребовалось": 9191, 
  "чет": 9192, 
  "жало@@": 9193, 
  "восстановлении": 9194, 
  "регулирующих": 9195, 
  "and": 9196, 
  "рак": 9197, 
  "стол@@": 9198, 
  "китайско": 9199, 
  "стремился": 9200, 
  "крестьян": 9201, 
  "охране": 9202, 
  "безрассуд@@": 9203, 
  "ошибочно": 9204, 
  "природные": 9205, 
  "мел@@": 9206, 
  "биологии": 9207, 
  "оптима@@": 9208, 
  "подходе": 9209, 
  "объявили": 9210, 
  "владельцев": 9211, 
  "столкнувшись": 9212, 
  "бол@@": 9213, 
  "польза": 9214, 
  "наук": 9215, 
  "изучения": 9216, 
  "Жак": 9217, 
  "демонстра@@": 9218, 
  "прошлых": 9219, 
  "успеху": 9220, 
  "обычной": 9221, 
  "обнаружить": 9222, 
  "знак": 9223, 
  "предостере@@": 9224, 
  "возможен": 9225, 
  "лл": 9226, 
  "выру@@": 9227, 
  "касаются": 9228, 
  "словах": 9229, 
  "полноцен@@": 9230, 
  "партнеры": 9231, 
  "неотъемлемой": 9232, 
  "задержа@@": 9233, 
  "фикации": 9234, 
  "летней": 9235, 
  "владение": 9236, 
  "убиты": 9237, 
  "зара@@": 9238, 
  "платежного": 9239, 
  "уплаты": 9240, 
  "ДНЯО": 9241, 
  "тыва@@": 9242, 
  "падают": 9243, 
  "контр@@": 9244, 
  "миграция": 9245, 
  "перемещения": 9246, 
  "психо@@": 9247, 
  "азиатский": 9248, 
  "движению": 9249, 
  "тревож@@": 9250, 
  "Соединенным": 9251, 
  "приходилось": 9252, 
  "погибло": 9253, 
  "следова@@": 9254, 
  "дор": 9255, 
  "вечно": 9256, 
  "выбрали": 9257, 
  "огонь": 9258, 
  "продовольствие": 9259, 
  "клас@@": 9260, 
  "Осло": 9261, 
  "затрагивает": 9262, 
  "решат": 9263, 
  "пе": 9264, 
  "пониманию": 9265, 
  "Нидерланды": 9266, 
  "территориях": 9267, 
  "праве": 9268, 
  "упорно": 9269, 
  "16@@": 9270, 
  "Все@@": 9271, 
  "рух@@": 9272, 
  "активной": 9273, 
  "климати@@": 9274, 
  "Йемене": 9275, 
  "ухудшение": 9276, 
  "живо@@": 9277, 
  "немногих": 9278, 
  "ДП": 9279, 
  "семью": 9280, 
  "удивительного": 9281, 
  "вность": 9282, 
  "менять": 9283, 
  "всеобщее": 9284, 
  "родителей": 9285, 
  "Махмуд": 9286, 
  "шении": 9287, 
  "подчеркнул": 9288, 
  "нений": 9289, 
  "десятков": 9290, 
  "размеров": 9291, 
  "скептицизм": 9292, 
  "социальный": 9293, 
  "цивилизаций": 9294, 
  "методами": 9295, 
  "СПИД": 9296, 
  "дел@@": 9297, 
  "дважды": 9298, 
  "программой": 9299, 
  "рыбы": 9300, 
  "безработных": 9301, 
  "надзора": 9302, 
  "китайским": 9303, 
  "хит@@": 9304, 
  "уважать": 9305, 
  "дешевой": 9306, 
  "проница@@": 9307, 
  "СПЗ": 9308, 
  "следуя": 9309, 
  "лениями": 9310, 
  "невеже@@": 9311, 
  "зон": 9312, 
  "ключом": 9313, 
  "сердца": 9314, 
  "чу": 9315, 
  "лив": 9316, 
  "расследование": 9317, 
  "веса": 9318, 
  "оправдывает": 9319, 
  "гипер@@": 9320, 
  "известного": 9321, 
  "временных": 9322, 
  "вкладывать": 9323, 
  "атланти@@": 9324, 
  "злоупотребления": 9325, 
  "сомнению": 9326, 
  "увеличивают": 9327, 
  "учесть": 9328, 
  "производят": 9329, 
  "понижение": 9330, 
  "забывать": 9331, 
  "справляться": 9332, 
  "учреждение": 9333, 
  "вающего": 9334, 
  "характеризу@@": 9335, 
  "похожи": 9336, 
  "мечта@@": 9337, 
  "казаться": 9338, 
  "вкладыва@@": 9339, 
  "ключ@@": 9340, 
  "разоружения": 9341, 
  "дея@@": 9342, 
  "владель@@": 9343, 
  "курдов": 9344, 
  "продаж": 9345, 
  "линия": 9346, 
  "прекрасно": 9347, 
  "0,5": 9348, 
  "хорошую": 9349, 
  "воло@@": 9350, 
  "преступление": 9351, 
  "Чешской": 9352, 
  "умира@@": 9353, 
  "террора": 9354, 
  "манипули@@": 9355, 
  "жден@@": 9356, 
  "террористи@@": 9357, 
  "выполня@@": 9358, 
  "Национального": 9359, 
  "игре": 9360, 
  "стоящих": 9361, 
  "выбор@@": 9362, 
  "индийские": 9363, 
  "препод@@": 9364, 
  "собрание": 9365, 
  "диктатура": 9366, 
  "успешные": 9367, 
  "двадца@@": 9368, 
  "компанию": 9369, 
  "преступников": 9370, 
  "СПИДом": 9371, 
  "фор@@": 9372, 
  "шед@@": 9373, 
  "воспоминания": 9374, 
  "особое": 9375, 
  "кандида@@": 9376, 
  "противоречит": 9377, 
  "ратифици@@": 9378, 
  "недопусти@@": 9379, 
  "регулирующие": 9380, 
  "обменных": 9381, 
  "властям": 9382, 
  "свергнуть": 9383, 
  "партиями": 9384, 
  "экстремизма": 9385, 
  "несправедливости": 9386, 
  "дикта@@": 9387, 
  "королев@@": 9388, 
  "террористами": 9389, 
  "шенных": 9390, 
  "ты@@": 9391, 
  "практику@@": 9392, 
  "гражданским": 9393, 
  "пересмотра": 9394, 
  "совокуп@@": 9395, 
  "ствовало": 9396, 
  "банковская": 9397, 
  "угодно": 9398, 
  "низкая": 9399, 
  "слабое": 9400, 
  "дело@@": 9401, 
  "триумф": 9402, 
  "ценностях": 9403, 
  "дверь": 9404, 
  "хран@@": 9405, 
  "Кита@@": 9406, 
  "достигну@@": 9407, 
  "некоторого": 9408, 
  "ам": 9409, 
  "крупнейшей": 9410, 
  "иракского": 9411, 
  "живых": 9412, 
  "пузырей": 9413, 
  "великий": 9414, 
  "коррек@@": 9415, 
  "экстрема@@": 9416, 
  "истины": 9417, 
  "требуются": 9418, 
  "заморо@@": 9419, 
  "лице": 9420, 
  "перечис@@": 9421, 
  "поставля@@": 9422, 
  "ровалась": 9423, 
  "специальные": 9424, 
  "расо@@": 9425, 
  "пли@@": 9426, 
  "исходит": 9427, 
  "контракты": 9428, 
  "успоко@@": 9429, 
  "Ир": 9430, 
  "y": 9431, 
  "враждебность": 9432, 
  "обеспокоенность": 9433, 
  "вив": 9434, 
  "ука@@": 9435, 
  "Об@@": 9436, 
  "рабочим": 9437, 
  "нынешняя": 9438, 
  "дипломатического": 9439, 
  "давая": 9440, 
  "Северную": 9441, 
  "опрос": 9442, 
  "разработка": 9443, 
  "иду@@": 9444, 
  "прямое": 9445, 
  "ница": 9446, 
  "десятилет@@": 9447, 
  "вс@@": 9448, 
  "изо": 9449, 
  "сной": 9450, 
  "42": 9451, 
  "дальнейших": 9452, 
  "незамедлительно": 9453, 
  "завершить": 9454, 
  "рассмотрения": 9455, 
  "обманчи@@": 9456, 
  "сущность": 9457, 
  "зах": 9458, 
  "приобрет@@": 9459, 
  "тамож@@": 9460, 
  "увы": 9461, 
  "сбор@@": 9462, 
  "стремлением": 9463, 
  "рожда@@": 9464, 
  "коммунисти@@": 9465, 
  "сби@@": 9466, 
  "ДЕЛИ": 9467, 
  "врагом": 9468, 
  "геноцид": 9469, 
  "наказыва@@": 9470, 
  "получив": 9471, 
  "видения": 9472, 
  "интересно": 9473, 
  "религиозный": 9474, 
  "обратиться": 9475, 
  "планирует": 9476, 
  "предположим": 9477, 
  "дин@@": 9478, 
  "вступлении": 9479, 
  "активную": 9480, 
  "наследием": 9481, 
  "ликвидации": 9482, 
  "продовольственной": 9483, 
  "земного": 9484, 
  "теа@@": 9485, 
  "партнер@@": 9486, 
  "потенциалом": 9487, 
  "приветствовать": 9488, 
  "енно": 9489, 
  "недавняя": 9490, 
  "накапли@@": 9491, 
  "врачи": 9492, 
  "вет": 9493, 
  "изобре@@": 9494, 
  "удар@@": 9495, 
  "производители": 9496, 
  "несчастью": 9497, 
  "присутствует": 9498, 
  "техни@@": 9499, 
  "ням": 9500, 
  "яви@@": 9501, 
  "удара": 9502, 
  "оказание": 9503, 
  "рыночную": 9504, 
  "Каеды": 9505, 
  "чила": 9506, 
  "нормам": 9507, 
  "сосредоточены": 9508, 
  "чист@@": 9509, 
  "истреб@@": 9510, 
  "использованы": 9511, 
  "исключить": 9512, 
  "Берлинской": 9513, 
  "приобретения": 9514, 
  "явным": 9515, 
  "Париже": 9516, 
  "состава": 9517, 
  "могущества": 9518, 
  "специфи@@": 9519, 
  "пенсионные": 9520, 
  "амбиций": 9521, 
  "производству": 9522, 
  "окончательно": 9523, 
  "дополн@@": 9524, 
  "поставлен@@": 9525, 
  "доби@@": 9526, 
  "взамен": 9527, 
  "лизу@@": 9528, 
  "оконча@@": 9529, 
  "переходного": 9530, 
  "взор@@": 9531, 
  "неконтролиру@@": 9532, 
  "комментаторы": 9533, 
  "ностям": 9534, 
  "Центральный": 9535, 
  "заставили": 9536, 
  "британской": 9537, 
  "опасных": 9538, 
  "пересмотр": 9539, 
  "мин": 9540, 
  "подозре@@": 9541, 
  "сделав": 9542, 
  "удерживать": 9543, 
  "осторожно": 9544, 
  "Йемена": 9545, 
  "Восьмерки": 9546, 
  "социали@@": 9547, 
  "1968": 9548, 
  "Пол": 9549, 
  "чиков": 9550, 
  "квартале": 9551, 
  "руководитель": 9552, 
  "чрезмер@@": 9553, 
  "разгар": 9554, 
  "альтернативу": 9555, 
  "принадлежат": 9556, 
  "точек": 9557, 
  "Большая": 9558, 
  "вмеши@@": 9559, 
  "набор": 9560, 
  "циви@@": 9561, 
  "технических": 9562, 
  "воле": 9563, 
  "плечи": 9564, 
  "править": 9565, 
  "убийств": 9566, 
  "стена": 9567, 
  "аре@@": 9568, 
  "сту": 9569, 
  "бывают": 9570, 
  "тивных": 9571, 
  "ограничена": 9572, 
  "россиян": 9573, 
  "охраны": 9574, 
  "центров": 9575, 
  "базо@@": 9576, 
  "представ@@": 9577, 
  "зре@@": 9578, 
  "производит": 9579, 
  "учреждениями": 9580, 
  "чах": 9581, 
  "свободным": 9582, 
  "генера@@": 9583, 
  "стиму@@": 9584, 
  "частными": 9585, 
  "женщинами": 9586, 
  "одобрен@@": 9587, 
  "тать": 9588, 
  "Средней": 9589, 
  "живания": 9590, 
  "выиграл": 9591, 
  "свидетелем": 9592, 
  "искусства": 9593, 
  "числу": 9594, 
  "мам": 9595, 
  "выпу@@": 9596, 
  "теря@@": 9597, 
  "медицин@@": 9598, 
  "торговым": 9599, 
  "эпидеми@@": 9600, 
  "пресс": 9601, 
  "нём": 9602, 
  "лит@@": 9603, 
  "мошен@@": 9604, 
  "темой": 9605, 
  "тща@@": 9606, 
  "ЮАР": 9607, 
  "ванная": 9608, 
  "ет@@": 9609, 
  "существующий": 9610, 
  "сигнал": 9611, 
  "слабо@@": 9612, 
  "включить": 9613, 
  "вся@@": 9614, 
  "оправдыва@@": 9615, 
  "стратеги@@": 9616, 
  "бурге": 9617, 
  "рисковать": 9618, 
  "зелен@@": 9619, 
  "будди@@": 9620, 
  "спадом": 9621, 
  "равновесие": 9622, 
  "разразился": 9623, 
  "открытые": 9624, 
  "электората": 9625, 
  "метров": 9626, 
  "обсудить": 9627, 
  "определенным": 9628, 
  "проро@@": 9629, 
  "Дэ@@": 9630, 
  "вела": 9631, 
  "кредитного": 9632, 
  "расхождения": 9633, 
  "фици@@": 9634, 
  "повсемест@@": 9635, 
  "топли@@": 9636, 
  "s@@": 9637, 
  "Демократической": 9638, 
  "маши@@": 9639, 
  "снижении": 9640, 
  "узна@@": 9641, 
  "Януковича": 9642, 
  "жесткая": 9643, 
  "коммерческих": 9644, 
  "разному": 9645, 
  "достовер@@": 9646, 
  "недавнем": 9647, 
  "привлекательной": 9648, 
  "критически": 9649, 
  "предусматри@@": 9650, 
  "Хосни": 9651, 
  "тень": 9652, 
  "этни@@": 9653, 
  "проявляется": 9654, 
  "стара@@": 9655, 
  "взаимного": 9656, 
  "Республике": 9657, 
  "дией": 9658, 
  "каждую": 9659, 
  "дорогой": 9660, 
  "скорости": 9661, 
  "обуча@@": 9662, 
  "Вен@@": 9663, 
  "тали@@": 9664, 
  "жалуются": 9665, 
  "использова@@": 9666, 
  "вирту@@": 9667, 
  "активных": 9668, 
  "медлен@@": 9669, 
  "логии": 9670, 
  "иммигран@@": 9671, 
  "пыток": 9672, 
  "официальная": 9673, 
  "альтернативные": 9674, 
  "лени@@": 9675, 
  "боро@@": 9676, 
  "насме@@": 9677, 
  "слухи": 9678, 
  "эволю@@": 9679, 
  "спут@@": 9680, 
  "отчете": 9681, 
  "рассмотрение": 9682, 
  "тему": 9683, 
  "двигателем": 9684, 
  "доктрины": 9685, 
  "дыха@@": 9686, 
  "es@@": 9687, 
  "стен@@": 9688, 
  "суверенных": 9689, 
  "Лин@@": 9690, 
  "рассчитыва@@": 9691, 
  "стане": 9692, 
  "катастрофу": 9693, 
  "Гейтс": 9694, 
  "руководя@@": 9695, 
  "тибет@@": 9696, 
  "сводится": 9697, 
  "свидетельствуют": 9698, 
  "тонн": 9699, 
  "погру@@": 9700, 
  "снаб@@": 9701, 
  "правильные": 9702, 
  "вело": 9703, 
  "путём": 9704, 
  "европейцам": 9705, 
  "Арафата": 9706, 
  "текущая": 9707, 
  "дре@@": 9708, 
  "поправки": 9709, 
  "нигери@@": 9710, 
  "участниками": 9711, 
  "бар@@": 9712, 
  "дорож@@": 9713, 
  "холодная": 9714, 
  "капиталу": 9715, 
  "льны": 9716, 
  "выработать": 9717, 
  "обогащения": 9718, 
  "демократически": 9719, 
  "маленьких": 9720, 
  "малярией": 9721, 
  "жестко": 9722, 
  "философии": 9723, 
  "ровки": 9724, 
  "расширению": 9725, 
  "существующего": 9726, 
  "уязвимыми": 9727, 
  "защищает": 9728, 
  "пузыри": 9729, 
  "рин@@": 9730, 
  "сравнить": 9731, 
  "подходом": 9732, 
  "АН@@": 9733, 
  "нормальной": 9734, 
  "круп@@": 9735, 
  "ску": 9736, 
  "воспринимается": 9737, 
  "необрати@@": 9738, 
  "безопас@@": 9739, 
  "кредито@@": 9740, 
  "кандидатами": 9741, 
  "семьям": 9742, 
  "показыва@@": 9743, 
  "валь@@": 9744, 
  "мостью": 9745, 
  "дка": 9746, 
  "личного": 9747, 
  "достижением": 9748, 
  "менедж@@": 9749, 
  "техно@@": 9750, 
  "распоря@@": 9751, 
  "обещан@@": 9752, 
  "квалифицированных": 9753, 
  "акт": 9754, 
  "полвека": 9755, 
  "Берлине": 9756, 
  "ого": 9757, 
  "мотивы": 9758, 
  "спорта": 9759, 
  "стили": 9760, 
  "щений": 9761, 
  "плохих": 9762, 
  "президентство": 9763, 
  "волнения": 9764, 
  "подписан@@": 9765, 
  "тиру@@": 9766, 
  "пове@@": 9767, 
  "положительные": 9768, 
  "примен@@": 9769, 
  "предотвращению": 9770, 
  "тке": 9771, 
  "слегка": 9772, 
  "сообществу": 9773, 
  "Тибете": 9774, 
  "ката@@": 9775, 
  "осознает": 9776, 
  "трагедии": 9777, 
  "подтверждают": 9778, 
  "воро@@": 9779, 
  "стратегией": 9780, 
  "ввели": 9781, 
  "штра@@": 9782, 
  "отказалась": 9783, 
  "языком": 9784, 
  "образу@@": 9785, 
  "выбран@@": 9786, 
  "катастрофе": 9787, 
  "положений": 9788, 
  "одержать": 9789, 
  "избран@@": 9790, 
  "Чернобы@@": 9791, 
  "телевизион@@": 9792, 
  "вности": 9793, 
  "проживает": 9794, 
  "тихоокеан@@": 9795, 
  "вступает": 9796, 
  "охра@@": 9797, 
  "Нидерландах": 9798, 
  "гает": 9799, 
  "Лукашенко": 9800, 
  "процветанию": 9801, 
  "имеем": 9802, 
  "союзе": 9803, 
  "мусульманами": 9804, 
  "столетии": 9805, 
  "превосходства": 9806, 
  "вступлению": 9807, 
  "неуверенности": 9808, 
  "полити@@": 9809, 
  "меч@@": 9810, 
  "клу@@": 9811, 
  "инспек@@": 9812, 
  "ложили": 9813, 
  "маловероят@@": 9814, 
  "индустриальных": 9815, 
  "меньшинство": 9816, 
  "верх@@": 9817, 
  "тысячелетия": 9818, 
  "вынужден@@": 9819, 
  "дальнейшему": 9820, 
  "манской": 9821, 
  "гиган@@": 9822, 
  "мировому": 9823, 
  "амби@@": 9824, 
  "хов": 9825, 
  "делаем": 9826, 
  "стери@@": 9827, 
  "предпочли": 9828, 
  "обез@@": 9829, 
  "гал": 9830, 
  "Каи@@": 9831, 
  "явления": 9832, 
  "побед@@": 9833, 
  "хозяй@@": 9834, 
  "тяжелое": 9835, 
  "лизи@@": 9836, 
  "национальному": 9837, 
  "шается": 9838, 
  "настроение": 9839, 
  "шенные": 9840, 
  "останавли@@": 9841, 
  "паралле@@": 9842, 
  "поднимает": 9843, 
  "официальным": 9844, 
  "актив@@": 9845, 
  "пресса": 9846, 
  "Суд": 9847, 
  "Верховный": 9848, 
  "страни@@": 9849, 
  "приста@@": 9850, 
  "кризисами": 9851, 
  "прикры@@": 9852, 
  "прошла": 9853, 
  "очевидной": 9854, 
  "ённым": 9855, 
  "вилось": 9856, 
  "вин@@": 9857, 
  "отклон@@": 9858, 
  "сопротивляться": 9859, 
  "турец@@": 9860, 
  "баррель": 9861, 
  "спасению": 9862, 
  "южной": 9863, 
  "интервью": 9864, 
  "объявля@@": 9865, 
  "человеческий": 9866, 
  "преодоления": 9867, 
  "достаточной": 9868, 
  "злоупотреб@@": 9869, 
  "вского": 9870, 
  "еврейского": 9871, 
  "неоконсерва@@": 9872, 
  "гражданская": 9873, 
  "передачу": 9874, 
  "почув@@": 9875, 
  "злове@@": 9876, 
  "перераспределение": 9877, 
  "обозримом": 9878, 
  "восприимчи@@": 9879, 
  "вторую": 9880, 
  "спросить": 9881, 
  "друзья": 9882, 
  "путеше@@": 9883, 
  "конгрес@@": 9884, 
  "бюро": 9885, 
  "западе": 9886, 
  "репрессий": 9887, 
  "введению": 9888, 
  "предложили": 9889, 
  "los": 9890, 
  "обеспечивая": 9891, 
  "ковые": 9892, 
  "состоится": 9893, 
  "цио@@": 9894, 
  "характеризо@@": 9895, 
  "эт@@": 9896, 
  "лишения": 9897, 
  "наследия": 9898, 
  "гриппа": 9899, 
  "тации": 9900, 
  "проявлять": 9901, 
  "заметить": 9902, 
  "рискует": 9903, 
  "нра@@": 9904, 
  "расче@@": 9905, 
  "Олимпийских": 9906, 
  "физики": 9907, 
  "ственному": 9908, 
  "решающим": 9909, 
  "ископаемого": 9910, 
  "борется": 9911, 
  "либерального": 9912, 
  "науку": 9913, 
  "кара@@": 9914, 
  "называемого": 9915, 
  "Рейгана": 9916, 
  "отрицает": 9917, 
  "лозун@@": 9918, 
  "Москвы": 9919, 
  "нала@@": 9920, 
  "уходит": 9921, 
  "выступ@@": 9922, 
  "нашему": 9923, 
  "0х": 9924, 
  "чёт@@": 9925, 
  "преуспеть": 9926, 
  "захватить": 9927, 
  "дру@@": 9928, 
  "привед@@": 9929, 
  "полномасштаб@@": 9930, 
  "связанный": 9931, 
  "прошлые": 9932, 
  "кримина@@": 9933, 
  "вред@@": 9934, 
  "прогно@@": 9935, 
  "позволяя": 9936, 
  "функциональ@@": 9937, 
  "важней@@": 9938, 
  "остальная": 9939, 
  "короткий": 9940, 
  "некоторая": 9941, 
  "избранного": 9942, 
  "институт": 9943, 
  "продолжится": 9944, 
  "полагаю": 9945, 
  "участниц": 9946, 
  "мусульманским": 9947, 
  "совершенство@@": 9948, 
  "способных": 9949, 
[...]
