{
  "eos": 0, 
  "UNK": 1, 
  "the": 2, 
  ",": 3, 
  ".": 4, 
  "of": 5, 
  "to": 6, 
  "and": 7, 
  "in": 8, 
  "a": 9, 
  "is": 10, 
  "that": 11, 
  "&apos;s": 12, 
  "for": 13, 
  "it": 14, 
  "as": 15, 
  "be": 16, 
  "not": 17, 
  "are": 18, 
  "but": 19, 
  "on": 20, 
  "with": 21, 
  "by": 22, 
  "-": 23, 
  "&apos;&apos;": 24, 
  "this": 25, 
  "has": 26, 
  "have": 27, 
  "will": 28, 
  "``": 29, 
  "its": 30, 
  "their": 31, 
  "from": 32, 
  "an": 33, 
  "was": 34, 
  "more": 35, 
  "they": 36, 
  "at": 37, 
  "or": 38, 
  "can": 39, 
  "would": 40, 
  "countries": 41, 
  "US": 42, 
  "world": 43, 
  "than": 44, 
  "we": 45, 
  "which": 46, 
  "all": 47, 
  "if": 48, 
  "one": 49, 
  "been": 50, 
  "so": 51, 
  "his": 52, 
  "only": 53, 
  "there": 54, 
  "new": 55, 
  "economic": 56, 
  "no": 57, 
  "China": 58, 
  "political": 59, 
  "should": 60, 
  "government": 61, 
  "now": 62, 
  "about": 63, 
  "Europe": 64, 
  "other": 65, 
  "?": 66, 
  "even": 67, 
  "these": 68, 
  ":": 69, 
  "also": 70, 
  "what": 71, 
  "were": 72, 
  "he": 73, 
  "when": 74, 
  "such": 75, 
  "who": 76, 
  "most": 77, 
  "many": 78, 
  "people": 79, 
  "-RRB-": 80, 
  "-LRB-": 81, 
  "do": 82, 
  "%": 83, 
  "years": 84, 
  "some": 85, 
  "global": 86, 
  "European": 87, 
  "could": 88, 
  "country": 89, 
  "must": 90, 
  "into": 91, 
  "America": 92, 
  "power": 93, 
  "financial": 94, 
  "may": 95, 
  "because": 96, 
  "time": 97, 
  "had": 98, 
  ";": 99, 
  "much": 100, 
  "growth": 101, 
  "over": 102, 
  "out": 103, 
  "them": 104, 
  "policy": 105, 
  "I": 106, 
  "economy": 107, 
  "between": 108, 
  "EU": 109, 
  "after": 110, 
  "international": 111, 
  "crisis": 112, 
  "up": 113, 
  "first": 114, 
  "our": 115, 
  "Russia": 116, 
  "those": 117, 
  "like": 118, 
  "two": 119, 
  "while": 120, 
  "both": 121, 
  "any": 122, 
  "how": 123, 
  "against": 124, 
  "indeed": 125, 
  "today": 126, 
  "public": 127, 
  "well": 128, 
  "way": 129, 
  "military": 130, 
  "year": 131, 
  "need": 132, 
  "American": 133, 
  "war": 134, 
  "market": 135, 
  "does": 136, 
  "United": 137, 
  "system": 138, 
  "s": 139, 
  "state": 140, 
  "make": 141, 
  "too": 142, 
  "change": 143, 
  "own": 144, 
  "less": 145, 
  "un@@": 146, 
  "since": 147, 
  "become": 148, 
  "leaders": 149, 
  "just": 150, 
  "last": 151, 
  "markets": 152, 
  "yet": 153, 
  "President": 154, 
  "without": 155, 
  "where": 156, 
  "far": 157, 
  "Iran": 158, 
  "foreign": 159, 
  "support": 160, 
  "still": 161, 
  "did": 162, 
  "being": 163, 
  "long": 164, 
  "national": 165, 
  "Iraq": 166, 
  "important": 167, 
  "same": 168, 
  "trade": 169, 
  "nuclear": 170, 
  "n&apos;t": 171, 
  "Israel": 172, 
  "Japan": 173, 
  "governments": 174, 
  "-@@": 175, 
  "then": 176, 
  "democracy": 177, 
  "might": 178, 
  "future": 179, 
  "us": 180, 
  "end": 181, 
  "through": 182, 
  "security": 183, 
  "example": 184, 
  "recent": 185, 
  "course": 186, 
  "made": 187, 
  "however": 188, 
  "good": 189, 
  "social": 190, 
  "Bush": 191, 
  "India": 192, 
  "right": 193, 
  "real": 194, 
  "take": 195, 
  "States": 196, 
  "another": 197, 
  "re@@": 198, 
  "high": 199, 
  "current": 200, 
  "policies": 201, 
  "under": 202, 
  "part": 203, 
  "banks": 204, 
  "likely": 205, 
  "before": 206, 
  "$": 207, 
  "Germany": 208, 
  "Union": 209, 
  "oil": 210, 
  "prices": 211, 
  "past": 212, 
  "very": 213, 
  "states": 214, 
  "development": 215, 
  "human": 216, 
  "interest": 217, 
  "work": 218, 
  "Chinese": 219, 
  "problem": 220, 
  "region": 221, 
  "rates": 222, 
  "why": 223, 
  "West": 224, 
  "better": 225, 
  "you": 226, 
  "result": 227, 
  "rather": 228, 
  "often": 229, 
  "East": 230, 
  "debt": 231, 
  "able": 232, 
  "large": 233, 
  "capital": 234, 
  "use": 235, 
  "help": 236, 
  "during": 237, 
  "ing": 238, 
  "in@@": 239, 
  "Asia": 240, 
  "risk": 241, 
  "major": 242, 
  "fact": 243, 
  "problems": 244, 
  "moreover": 245, 
  "process": 246, 
  "among": 247, 
  "little": 248, 
  "few": 249, 
  "three": 250, 
  "poor": 251, 
  "energy": 252, 
  "around": 253, 
  "democratic": 254, 
  "means": 255, 
  "role": 256, 
  "order": 257, 
  "France": 258, 
  "institutions": 259, 
  "given": 260, 
  "already": 261, 
  "within": 262, 
  "back": 263, 
  "Obama": 264, 
  "including": 265, 
  "rate": 266, 
  "rights": 267, 
  "peace": 268, 
  "second": 269, 
  "thus": 270, 
  "investment": 271, 
  "whether": 272, 
  "money": 273, 
  "clear": 274, 
  "different": 275, 
  "ed": 276, 
  "reform": 277, 
  "almost": 278, 
  "come": 279, 
  "case": 280, 
  "members": 281, 
  "others": 282, 
  "ago": 283, 
  "fiscal": 284, 
  "history": 285, 
  "down": 286, 
  "developing": 287, 
  "itself": 288, 
  "needs": 289, 
  "law": 290, 
  "--": 291, 
  "central": 292, 
  "economies": 293, 
  "er": 294, 
  "politics": 295, 
  "regime": 296, 
  "never": 297, 
  "seems": 298, 
  "Africa": 299, 
  "billion": 300, 
  "remains": 301, 
  "least": 302, 
  "next": 303, 
  "perhaps": 304, 
  "point": 305, 
  "strong": 306, 
  "led": 307, 
  "each": 308, 
  "see": 309, 
  "IMF": 310, 
  "needed": 311, 
  "once": 312, 
  "president": 313, 
  "him": 314, 
  "Bank": 315, 
  "free": 316, 
  "Turkey": 317, 
  "interests": 318, 
  "domestic": 319, 
  "million": 320, 
  "society": 321, 
  "life": 322, 
  "every": 323, 
  "true": 324, 
  "price": 325, 
  "remain": 326, 
  "election": 327, 
  "es": 328, 
  "difficult": 329, 
  "themselves": 330, 
  "put": 331, 
  "women": 332, 
  "increase": 333, 
  "great": 334, 
  "demand": 335, 
  "administration": 336, 
  "possible": 337, 
  "common": 338, 
  "question": 339, 
  "greater": 340, 
  "ated": 341, 
  "place": 342, 
  "currency": 343, 
  "force": 344, 
  "tax": 345, 
  "higher": 346, 
  "s@@": 347, 
  "continue": 348, 
  "want": 349, 
  "despite": 350, 
  "South": 351, 
  "instead": 352, 
  "longer": 353, 
  "Western": 354, 
  "my": 355, 
  "again": 356, 
  "French": 357, 
  "private": 358, 
  "off": 359, 
  "forces": 360, 
  "best": 361, 
  "go": 362, 
  "World": 363, 
  "Middle": 364, 
  "ever": 365, 
  "Arab": 366, 
  "GDP": 367, 
  "further": 368, 
  "control": 369, 
  "population": 370, 
  "UN": 371, 
  "former": 372, 
  "Korea": 373, 
  "growing": 374, 
  "ate": 375, 
  "climate": 376, 
  "dis@@": 377, 
  "ation": 378, 
  "used": 379, 
  "century": 380, 
  "elections": 381, 
  "old": 382, 
  "regional": 383, 
  "say": 384, 
  "get": 385, 
  "stability": 386, 
  "euro": 387, 
  "rule": 388, 
  "sense": 389, 
  "know": 390, 
  "based": 391, 
  "leadership": 392, 
  "set": 393, 
  "especially": 394, 
  "decades": 395, 
  "business": 396, 
  "believe": 397, 
  "inflation": 398, 
  "S@@": 399, 
  "number": 400, 
  "member": 401, 
  "costs": 402, 
  "dollar": 403, 
  "rise": 404, 
  "War": 405, 
  "always": 406, 
  "left": 407, 
  "key": 408, 
  "face": 409, 
  "relations": 410, 
  "issues": 411, 
  "North": 412, 
  "enough": 413, 
  "small": 414, 
  "ers": 415, 
  "efforts": 416, 
  "income": 417, 
  "conflict": 418, 
  "companies": 419, 
  "resources": 420, 
  "recently": 421, 
  "Americans": 422, 
  "spending": 423, 
  "citizens": 424, 
  "Putin": 425, 
  "serious": 426, 
  "lead": 427, 
  "issue": 428, 
  "community": 429, 
  "poverty": 430, 
  "strategy": 431, 
  "simply": 432, 
  "level": 433, 
  "terms": 434, 
  "reason": 435, 
  "though": 436, 
  "The": 437, 
  "provide": 438, 
  "Russian": 439, 
  "Palestinian": 440, 
  "health": 441, 
  "rich": 442, 
  "said": 443, 
  "reforms": 444, 
  "NATO": 445, 
  "hard": 446, 
  "particularly": 447, 
  "making": 448, 
  "party": 449, 
  "big": 450, 
  "view": 451, 
  "until": 452, 
  "early": 453, 
  "find": 454, 
  "increasingly": 455, 
  "Pakistan": 456, 
  "exchange": 457, 
  "Afghanistan": 458, 
  "p@@": 459, 
  "although": 460, 
  "emerging": 461, 
  "open": 462, 
  "nor": 463, 
  "parties": 464, 
  "Council": 465, 
  "monetary": 466, 
  "per": 467, 
  "hope": 468, 
  "her": 469, 
  "success": 470, 
  "times": 471, 
  "threat": 472, 
  "turn": 473, 
  "opposition": 474, 
  "violence": 475, 
  "home": 476, 
  "weapons": 477, 
  "children": 478, 
  "benefits": 479, 
  "seen": 480, 
  "local": 481, 
  "seem": 482, 
  "day": 483, 
  "Latin": 484, 
  "long-term": 485, 
  "action": 486, 
  "T@@": 487, 
  "B@@": 488, 
  "t@@": 489, 
  "t": 490, 
  "create": 491, 
  "sector": 492, 
  "y": 493, 
  "r@@": 494, 
  "investors": 495, 
  "labor": 496, 
  "here": 497, 
  "nothing": 498, 
  "Minister": 499, 
  "done": 500, 
  "think": 501, 
  "cost": 502, 
  "ways": 503, 
  "L@@": 504, 
  "information": 505, 
  "Soviet": 506, 
  "approach": 507, 
  "politicians": 508, 
  "together": 509, 
  "education": 510, 
  "ating": 511, 
  "form": 512, 
  "&amp;": 513, 
  "value": 514, 
  "several": 515, 
  "called": 516, 
  "failed": 517, 
  "Ukraine": 518, 
  "effective": 519, 
  "M@@": 520, 
  "D@@": 521, 
  "al": 522, 
  "decade": 523, 
  "share": 524, 
  "challenge": 525, 
  "bank": 526, 
  "R@@": 527, 
  "low": 528, 
  "b@@": 529, 
  "Party": 530, 
  "similar": 531, 
  "taken": 532, 
  "run": 533, 
  "across": 534, 
  "over@@": 535, 
  "risks": 536, 
  "position": 537, 
  "agreement": 538, 
  "away": 539, 
  "changes": 540, 
  "deal": 541, 
  "fall": 542, 
  "budget": 543, 
  "majority": 544, 
  "Europeans": 545, 
  "idea": 546, 
  "failure": 547, 
  "d@@": 548, 
  "whose": 549, 
  "unemployment": 550, 
  "rising": 551, 
  "necessary": 552, 
  "increased": 553, 
  "toward": 554, 
  "non-@@": 555, 
  "age": 556, 
  "workers": 557, 
  "k@@": 558, 
  "l@@": 559, 
  "look": 560, 
  "makes": 561, 
  "really": 562, 
  "officials": 563, 
  "became": 564, 
  "influence": 565, 
  "reduce": 566, 
  "groups": 567, 
  "lack": 568, 
  "c@@": 569, 
  "return": 570, 
  "strategic": 571, 
  "credit": 572, 
  "services": 573, 
  "powerful": 574, 
  "cause": 575, 
  "eurozone": 576, 
  "ted": 577, 
  "values": 578, 
  "give": 579, 
  "freedom": 580, 
  "half": 581, 
  "months": 582, 
  "y@@": 583, 
  "aid": 584, 
  "program": 585, 
  "terrorism": 586, 
  "modern": 587, 
  "bring": 588, 
  "began": 589, 
  "rules": 590, 
  "something": 591, 
  "potential": 592, 
  "debate": 593, 
  "finance": 594, 
  "main": 595, 
  "conditions": 596, 
  "huge": 597, 
  "ting": 598, 
  "Japanese": 599, 
  "e": 600, 
  "progress": 601, 
  "developed": 602, 
  "research": 603, 
  "requires": 604, 
  "later": 605, 
  "leader": 606, 
  "German": 607, 
  "en@@": 608, 
  "matter": 609, 
  "levels": 610, 
  "rest": 611, 
  "pay": 612, 
  "g@@": 613, 
  "start": 614, 
  "consequences": 615, 
  "o@@": 616, 
  "religious": 617, 
  "Asian": 618, 
  "situation": 619, 
  "C@@": 620, 
  "short": 621, 
  "balance": 622, 
  "P@@": 623, 
  "Hamas": 624, 
  "o": 625, 
  "beyond": 626, 
  "bad": 627, 
  "lost": 628, 
  "lower": 629, 
  "found": 630, 
  "challenges": 631, 
  "20": 632, 
  "E@@": 633, 
  "opportunity": 634, 
  "things": 635, 
  "live": 636, 
  "having": 637, 
  "Central": 638, 
  "civil": 639, 
  "f@@": 640, 
  "H@@": 641, 
  "either": 642, 
  "food": 643, 
  "technology": 644, 
  "jobs": 645, 
  "Muslim": 646, 
  "globalization": 647, 
  "nations": 648, 
  "young": 649, 
  "fear": 650, 
  "play": 651, 
  "i": 652, 
  "response": 653, 
  "pressure": 654, 
  "keep": 655, 
  "consider": 656, 
  "h@@": 657, 
  "alone": 658, 
  "measures": 659, 
  "move": 660, 
  "water": 661, 
  "British": 662, 
  "five": 663, 
  "probably": 664, 
  "act": 665, 
  "systems": 666, 
  "finally": 667, 
  "im@@": 668, 
  "third": 669, 
  "leading": 670, 
  "clearly": 671, 
  "hand": 672, 
  "cooperation": 673, 
  "presidential": 674, 
  "worse": 675, 
  "created": 676, 
  "man": 677, 
  "according": 678, 
  "A@@": 679, 
  "negotiations": 680, 
  "solution": 681, 
  "let": 682, 
  "single": 683, 
  "integration": 684, 
  "e@@": 685, 
  "corruption": 686, 
  "side": 687, 
  "successful": 688, 
  "behind": 689, 
  "soon": 690, 
  "media": 691, 
  "model": 692, 
  "term": 693, 
  "anti-@@": 694, 
  "popular": 695, 
  "Israeli": 696, 
  "firms": 697, 
  "Islamic": 698, 
  "legal": 699, 
  "doing": 700, 
  "deficit": 701, 
  "significant": 702, 
  "mean": 703, 
  "Britain": 704, 
  "F@@": 705, 
  "prevent": 706, 
  "powers": 707, 
  "group": 708, 
  "decision": 709, 
  "N@@": 710, 
  "wrong": 711, 
  "recession": 712, 
  "natural": 713, 
  "came": 714, 
  "vote": 715, 
  "massive": 716, 
  "four": 717, 
  "defense": 718, 
  "she": 719, 
  "ensure": 720, 
  "production": 721, 
  "impact": 722, 
  "ch@@": 723, 
  "Prime": 724, 
  "close": 725, 
  "Palestinians": 726, 
  "effort": 727, 
  "Egypt": 728, 
  "increasing": 729, 
  "Brazil": 730, 
  "took": 731, 
  "1990": 732, 
  "al@@": 733, 
  "official": 734, 
  "ability": 735, 
  "period": 736, 
  "areas": 737, 
  "taking": 738, 
  "effect": 739, 
  "fundamental": 740, 
  "lives": 741, 
  "ates": 742, 
  "individual": 743, 
  "require": 744, 
  "everyone": 745, 
  "following": 746, 
  "exports": 747, 
  "full": 748, 
  "G@@": 749, 
  "decline": 750, 
  "comes": 751, 
  "access": 752, 
  "step": 753, 
  "Commission": 754, 
  "late": 755, 
  "confidence": 756, 
  "science": 757, 
  "Security": 758, 
  "understand": 759, 
  "n@@": 760, 
  "coming": 761, 
  "Mexico": 762, 
  "@/@": 763, 
  "held": 764, 
  "reality": 765, 
  "call": 766, 
  "competition": 767, 
  "land": 768, 
  "experience": 769, 
  "men": 770, 
  "working": 771, 
  "K@@": 772, 
  "collapse": 773, 
  "traditional": 774, 
  "job": 775, 
  "ECB": 776, 
  "living": 777, 
  "er@@": 778, 
  "total": 779, 
  "minister": 780, 
  "campaign": 781, 
  "average": 782, 
  "moral": 783, 
  "responsibility": 784, 
  "reasons": 785, 
  "ts": 786, 
  "hold": 787, 
  "me": 788, 
  "advanced": 789, 
  "actually": 790, 
  "decisions": 791, 
  "focus": 792, 
  "culture": 793, 
  "African": 794, 
  "line": 795, 
  "wealth": 796, 
  "assets": 797, 
  "allow": 798, 
  "particular": 799, 
  "self-@@": 800, 
  "brought": 801, 
  "funds": 802, 
  "attention": 803, 
  "w@@": 804, 
  "era": 805, 
  "kind": 806, 
  "largest": 807, 
  "throughout": 808, 
  "independent": 809, 
  "banking": 810, 
  "expected": 811, 
  "thing": 812, 
  "death": 813, 
  "i@@": 814, 
  "revolution": 815, 
  "certainly": 816, 
  "neither": 817, 
  "stock": 818, 
  "largely": 819, 
  "cut": 820, 
  "achieve": 821, 
  "status": 822, 
  "Fund": 823, 
  "thought": 824, 
  "evidence": 825, 
  "2008": 826, 
  "attacks": 827, 
  "m@@": 828, 
  "outside": 829, 
  "building": 830, 
  "accept": 831, 
  "O@@": 832, 
  "basic": 833, 
  "Nations": 834, 
  "plan": 835, 
  "de@@": 836, 
  "10": 837, 
  "sure": 838, 
  "capacity": 839, 
  "v@@": 840, 
  "International": 841, 
  "an@@": 842, 
  "independence": 843, 
  "governance": 844, 
  "j@@": 845, 
  "towards": 846, 
  "avoid": 847, 
  "show": 848, 
  "re-@@": 849, 
  "limited": 850, 
  "answer": 851, 
  "50": 852, 
  "behavior": 853, 
  "New": 854, 
  "consumption": 855, 
  "e-@@": 856, 
  "using": 857, 
  "stop": 858, 
  "programs": 859, 
  "moment": 860, 
  "care": 861, 
  "Italy": 862, 
  "words": 863, 
  "easy": 864, 
  "ations": 865, 
  "above": 866, 
  "cases": 867, 
  "direct": 868, 
  "effects": 869, 
  "voters": 870, 
  "W@@": 871, 
  "membership": 872, 
  "nation": 873, 
  "gas": 874, 
  "agenda": 875, 
  "becoming": 876, 
  "fight": 877, 
  "employment": 878, 
  "deficits": 879, 
  "contrast": 880, 
  "respect": 881, 
  "ic": 882, 
  "ac@@": 883, 
  "u@@": 884, 
  "es@@": 885, 
  "appears": 886, 
  "emissions": 887, 
  "ar@@": 888, 
  "goods": 889, 
  "benefit": 890, 
  "top": 891, 
  "days": 892, 
  "liberal": 893, 
  "relationship": 894, 
  "general": 895, 
  "attack": 896, 
  "unfortunately": 897, 
  "Syria": 898, 
  "concerns": 899, 
  "standards": 900, 
  "whole": 901, 
  "sometimes": 902, 
  "meeting": 903, 
  "dangerous": 904, 
  "environment": 905, 
  "certain": 906, 
  "alternative": 907, 
  "allowed": 908, 
  "on@@": 909, 
  "1": 910, 
  "merely": 911, 
  "crises": 912, 
  "events": 913, 
  "going": 914, 
  "unlikely": 915, 
  "results": 916, 
  "recovery": 917, 
  "cultural": 918, 
  "protect": 919, 
  "movement": 920, 
  "elected": 921, 
  "rapid": 922, 
  "societies": 923, 
  "a@@": 924, 
  "produce": 925, 
  "ten": 926, 
  "weak": 927, 
  "nature": 928, 
  "supply": 929, 
  "helped": 930, 
  "am@@": 931, 
  "chance": 932, 
  "known": 933, 
  "2001": 934, 
  "intervention": 935, 
  "nearly": 936, 
  "st@@": 937, 
  "wants": 938, 
  "victory": 939, 
  "news": 940, 
  "Poland": 941, 
  "am": 942, 
  "as@@": 943, 
  "Gaza": 944, 
  "infrastructure": 945, 
  "address": 946, 
  "mis@@": 947, 
  "elsewhere": 948, 
  "Greece": 949, 
  "September": 950, 
  "Islam": 951, 
  "outcome": 952, 
  "creating": 953, 
  "industrial": 954, 
  "changed": 955, 
  "reach": 956, 
  "therefore": 957, 
  "George": 958, 
  "ent": 959, 
  "followed": 960, 
  "highly": 961, 
  "beginning": 962, 
  "mass": 963, 
  "authorities": 964, 
  "office": 965, 
  "at@@": 966, 
  "en": 967, 
  "questions": 968, 
  "turned": 969, 
  "deep": 970, 
  "em@@": 971, 
  "relatively": 972, 
  "established": 973, 
  "ad@@": 974, 
  "build": 975, 
  "talks": 976, 
  "Treaty": 977, 
  "maintain": 978, 
  "begin": 979, 
  "simple": 980, 
  "parts": 981, 
  "economists": 982, 
  "army": 983, 
  "actions": 984, 
  "millions": 985, 
  "trying": 986, 
  "offer": 987, 
  "entire": 988, 
  "Kosovo": 989, 
  "thinking": 990, 
  "Sarkozy": 991, 
  "commitment": 992, 
  "family": 993, 
  "de": 994, 
  "ant": 995, 
  "environmental": 996, 
  "police": 997, 
  "fully": 998, 
  "ir@@": 999, 
  "J@@": 1000, 
  "internal": 1001, 
  "along": 1002, 
  "goal": 1003, 
  "critical": 1004, 
  "quickly": 1005, 
  "el@@": 1006, 
  "sanctions": 1007, 
  "choice": 1008, 
  "or@@": 1009, 
  "prime": 1010, 
  "productivity": 1011, 
  "scientific": 1012, 
  "annual": 1013, 
  "economics": 1014, 
  "justice": 1015, 
  "30": 1016, 
  "dollars": 1017, 
  "k": 1018, 
  "sh@@": 1019, 
  "larger": 1020, 
  "ideas": 1021, 
  "sides": 1022, 
  "taxes": 1023, 
  "le": 1024, 
  "di@@": 1025, 
  "legitimacy": 1026, 
  "warming": 1027, 
  "Saudi": 1028, 
  "area": 1029, 
  "claim": 1030, 
  "Argentina": 1031, 
  "historical": 1032, 
  "month": 1033, 
  "assistance": 1034, 
  "#": 1035, 
  "cuts": 1036, 
  "investments": 1037, 
  "himself": 1038, 
  "forward": 1039, 
  "personal": 1040, 
  "anything": 1041, 
  "argue": 1042, 
  "reserves": 1043, 
  "feel": 1044, 
  "head": 1045, 
  "terrorist": 1046, 
  "due": 1047, 
  "out@@": 1048, 
  "organizations": 1049, 
  "institutional": 1050, 
  "vision": 1051, 
  "opinion": 1052, 
  "ar": 1053, 
  "allies": 1054, 
  "basis": 1055, 
  "recognize": 1056, 
  "differences": 1057, 
  "industry": 1058, 
  "diplomatic": 1059, 
  "required": 1060, 
  "positive": 1061, 
  "try": 1062, 
  "forced": 1063, 
  "Iranian": 1064, 
  "story": 1065, 
  "your": 1066, 
  "Eastern": 1067, 
  "concern": 1068, 
  "essential": 1069, 
  "impossible": 1070, 
  "ab@@": 1071, 
  "provided": 1072, 
  "consensus": 1073, 
  "Muslims": 1074, 
  "happen": 1075, 
  "fail": 1076, 
  "seek": 1077, 
  "meet": 1078, 
  "policymakers": 1079, 
  "Cold": 1080, 
  "2": 1081, 
  "transition": 1082, 
  "easily": 1083, 
  "le@@": 1084, 
  "Lebanon": 1085, 
  "corporate": 1086, 
  "neighbors": 1087, 
  "shift": 1088, 
  "it@@": 1089, 
  "performance": 1090, 
  "currently": 1091, 
  "source": 1092, 
  "account": 1093, 
  "London": 1094, 
  "ethnic": 1095, 
  "doubt": 1096, 
  "include": 1097, 
  "th": 1098, 
  "management": 1099, 
  "regions": 1100, 
  "authority": 1101, 
  "2007": 1102, 
  "knowledge": 1103, 
  "loss": 1104, 
  "Spain": 1105, 
  "matters": 1106, 
  "1980": 1107, 
  "constitution": 1108, 
  "relative": 1109, 
  "grow": 1110, 
  "troops": 1111, 
  "summit": 1112, 
  "happened": 1113, 
  "eventually": 1114, 
  "obvious": 1115, 
  "Great": 1116, 
  "politically": 1117, 
  "generation": 1118, 
  "Washington": 1119, 
  "coalition": 1120, 
  "upon": 1121, 
  "z@@": 1122, 
  "willing": 1123, 
  "complex": 1124, 
  "wars": 1125, 
  "committed": 1126, 
  "laws": 1127, 
  "Georgia": 1128, 
  "individuals": 1129, 
  "Indian": 1130, 
  "capitalism": 1131, 
  "importance": 1132, 
  "al-@@": 1133, 
  "increases": 1134, 
  "report": 1135, 
  "scale": 1136, 
  "continued": 1137, 
  "everything": 1138, 
  "!": 1139, 
  "ly": 1140, 
  "bonds": 1141, 
  "stimulus": 1142, 
  "similarly": 1143, 
  "follow": 1144, 
  "ism": 1145, 
  "path": 1146, 
  "creation": 1147, 
  "2009": 1148, 
  "ally": 1149, 
  "protection": 1150, 
  "available": 1151, 
  "opportunities": 1152, 
  "2005": 1153, 
  "be@@": 1154, 
  "lose": 1155, 
  "improve": 1156, 
  "promote": 1157, 
  "ground": 1158, 
  "press": 1159, 
  "2000": 1160, 
  "continues": 1161, 
  "Y@@": 1162, 
  "develop": 1163, 
  "Barack": 1164, 
  "carbon": 1165, 
  "insurance": 1166, 
  "demands": 1167, 
  "2004": 1168, 
  "caused": 1169, 
  "won": 1170, 
  "presidency": 1171, 
  "soft": 1172, 
  "present": 1173, 
  "ti@@": 1174, 
  "prosperity": 1175, 
  "Saddam": 1176, 
  "under@@": 1177, 
  "seemed": 1178, 
  "ine": 1179, 
  "whatever": 1180, 
  "contrary": 1181, 
  "Republic": 1182, 
  "Congress": 1183, 
  "sustainable": 1184, 
  "40": 1185, 
  "steps": 1186, 
  "spread": 1187, 
  "none": 1188, 
  "I@@": 1189, 
  "appear": 1190, 
  "3": 1191, 
  "co@@": 1192, 
  "democracies": 1193, 
  "understanding": 1194, 
  "union": 1195, 
  "vast": 1196, 
  "direction": 1197, 
  "Iraqi": 1198, 
  "ahead": 1199, 
  "housing": 1200, 
  "gain": 1201, 
  "truth": 1202, 
  "principle": 1203, 
  "parliament": 1204, 
  "owing": 1205, 
  "external": 1206, 
  "stable": 1207, 
  "Taiwan": 1208, 
  "structural": 1209, 
  "trust": 1210, 
  "el": 1211, 
  "leave": 1212, 
  "framework": 1213, 
  "special": 1214, 
  "struggle": 1215, 
  "11": 1216, 
  "size": 1217, 
  "victims": 1218, 
  "damage": 1219, 
  "boom": 1220, 
  "facing": 1221, 
  "reducing": 1222, 
  "qu@@": 1223, 
  "2006": 1224, 
  "task": 1225, 
  "project": 1226, 
  "is@@": 1227, 
  "expect": 1228, 
  "General": 1229, 
  "responsible": 1230, 
  "regulation": 1231, 
  "roughly": 1232, 
  "suggests": 1233, 
  "25": 1234, 
  "II": 1235, 
  "save": 1236, 
  "15": 1237, 
  "achieved": 1238, 
  "went": 1239, 
  "asked": 1240, 
  "usually": 1241, 
  "agreed": 1242, 
  "V@@": 1243, 
  "worldwide": 1244, 
  "factors": 1245, 
  "anyone": 1246, 
  "unless": 1247, 
  "products": 1248, 
  "class": 1249, 
  "tried": 1250, 
  "theory": 1251, 
  "game": 1252, 
  "tr@@": 1253, 
  "&apos;": 1254, 
  "threats": 1255, 
  "reached": 1256, 
  "ist": 1257, 
  "thousands": 1258, 
  "ultimately": 1259, 
  "center": 1260, 
  "ties": 1261, 
  "talk": 1262, 
  "exist": 1263, 
  "else": 1264, 
  "om@@": 1265, 
  "ag@@": 1266, 
  "goes": 1267, 
  "stand": 1268, 
  "incentives": 1269, 
  "technologies": 1270, 
  "drug": 1271, 
  "paid": 1272, 
  "so-called": 1273, 
  "ic@@": 1274, 
  "agree": 1275, 
  "ordinary": 1276, 
  "disease": 1277, 
  "mostly": 1278, 
  "reduced": 1279, 
  "unlike": 1280, 
  "principles": 1281, 
  "2010": 1282, 
  "borders": 1283, 
  "told": 1284, 
  "favor": 1285, 
  "vital": 1286, 
  "candidate": 1287, 
  "company": 1288, 
  "difference": 1289, 
  "th@@": 1290, 
  "YORK": 1291, 
  "six": 1292, 
  "built": 1293, 
  "slow": 1294, 
  "core": 1295, 
  "crimes": 1296, 
  "immediate": 1297, 
  "tion": 1298, 
  "raise": 1299, 
  "limits": 1300, 
  "ap@@": 1301, 
  "li@@": 1302, 
  "directly": 1303, 
  "suggest": 1304, 
  "aimed": 1305, 
  "constitutional": 1306, 
  "shown": 1307, 
  "name": 1308, 
  "calls": 1309, 
  "extreme": 1310, 
  "crucial": 1311, 
  "started": 1312, 
  "identity": 1313, 
  "widely": 1314, 
  "shows": 1315, 
  "prove": 1316, 
  "conflicts": 1317, 
  "stronger": 1318, 
  "fighting": 1319, 
  "radical": 1320, 
  "giving": 1321, 
  "ter": 1322, 
  "win": 1323, 
  "rapidly": 1324, 
  "diplomacy": 1325, 
  "terrorists": 1326, 
  "compared": 1327, 
  "otherwise": 1328, 
  "provides": 1329, 
  "severe": 1330, 
  "armed": 1331, 
  "National": 1332, 
  "test": 1333, 
  "round": 1334, 
  "ones": 1335, 
  "attempt": 1336, 
  "meanwhile": 1337, 
  "est": 1338, 
  "proposed": 1339, 
  "als": 1340, 
  "earlier": 1341, 
  "Fed": 1342, 
  "Clinton": 1343, 
  "claims": 1344, 
  "con@@": 1345, 
  "existing": 1346, 
  "December": 1347, 
  "abroad": 1348, 
  "arms": 1349, 
  "ia": 1350, 
  "inequality": 1351, 
  "export": 1352, 
  "hundreds": 1353, 
  "farmers": 1354, 
  "negative": 1355, 
  "candidates": 1356, 
  "competitive": 1357, 
  "worst": 1358, 
  "W.": 1359, 
  "il@@": 1360, 
  "secure": 1361, 
  "enormous": 1362, 
  "ro@@": 1363, 
  "ous": 1364, 
  "various": 1365, 
  "establish": 1366, 
  "effectively": 1367, 
  "45": 1368, 
  "alliance": 1369, 
  "learned": 1370, 
  "hit": 1371, 
  "parliamentary": 1372, 
  "regimes": 1373, 
  "us@@": 1374, 
  "inter@@": 1375, 
  "expectations": 1376, 
  "ves": 1377, 
  "ized": 1378, 
  "loans": 1379, 
  "depends": 1380, 
  "asset": 1381, 
  "buy": 1382, 
  "Communist": 1383, 
  "ruling": 1384, 
  "per@@": 1385, 
  "everywhere": 1386, 
  "sought": 1387, 
  "Blair": 1388, 
  "red": 1389, 
  "nevertheless": 1390, 
  "biggest": 1391, 
  "lending": 1392, 
  "serve": 1393, 
  "currencies": 1394, 
  "widespread": 1395, 
  "involved": 1396, 
  "quality": 1397, 
  "net": 1398, 
  "Internet": 1399, 
  "argument": 1400, 
  "points": 1401, 
  "short-term": 1402, 
  "destruction": 1403, 
  "becomes": 1404, 
  "lo@@": 1405, 
  "Secretary": 1406, 
  "ies": 1407, 
  "fair": 1408, 
  "extent": 1409, 
  "activities": 1410, 
  "supposed": 1411, 
  "Al": 1412, 
  "takes": 1413, 
  "danger": 1414, 
  "permanent": 1415, 
  "goals": 1416, 
  "views": 1417, 
  "ended": 1418, 
  "body": 1419, 
  "output": 1420, 
  "reflect": 1421, 
  "supported": 1422, 
  "scientists": 1423, 
  "ness": 1424, 
  "person": 1425, 
  "reflects": 1426, 
  "G-20": 1427, 
  "losses": 1428, 
  "amount": 1429, 
  "concerned": 1430, 
  "structure": 1431, 
  "king": 1432, 
  "join": 1433, 
  "ings": 1434, 
  "absence": 1435, 
  "ask": 1436, 
  "electoral": 1437, 
  "near": 1438, 
  "5": 1439, 
  "welfare": 1440, 
  "getting": 1441, 
  "providing": 1442, 
  "cities": 1443, 
  "record": 1444, 
  "4": 1445, 
  "poorest": 1446, 
  "lesson": 1447, 
  "ons": 1448, 
  "week": 1449, 
  "Indonesia": 1450, 
  "plans": 1451, 
  "violent": 1452, 
  "specific": 1453, 
  "seriously": 1454, 
  "lot": 1455, 
  "innovation": 1456, 
  "sovereignty": 1457, 
  "looks": 1458, 
  "designed": 1459, 
  "liquidity": 1460, 
  "circumstances": 1461, 
  "border": 1462, 
  "affairs": 1463, 
  "met": 1464, 
  "November": 1465, 
  "Kremlin": 1466, 
  "tions": 1467, 
  "data": 1468, 
  "active": 1469, 
  "g": 1470, 
  "advantage": 1471, 
  "Hezbollah": 1472, 
  "space": 1473, 
  "rhetoric": 1474, 
  "d": 1475, 
  "forms": 1476, 
  "gave": 1477, 
  "lies": 1478, 
  "killed": 1479, 
  "quite": 1480, 
  "whom": 1481, 
  "sign": 1482, 
  "peaceful": 1483, 
  "practice": 1484, 
  "service": 1485, 
  "Korean": 1486, 
  "Serbia": 1487, 
  "m": 1488, 
  "2003": 1489, 
  "managed": 1490, 
  "treatment": 1491, 
  "reduction": 1492, 
  "pre@@": 1493, 
  "falling": 1494, 
  "drugs": 1495, 
  "Federal": 1496, 
  "mind": 1497, 
  "standard": 1498, 
  "study": 1499, 
  "priority": 1500, 
  "running": 1501, 
  "faces": 1502, 
  "collective": 1503, 
  "faced": 1504, 
  "Taliban": 1505, 
  "promises": 1506, 
  "factor": 1507, 
  "ical": 1508, 
  "savings": 1509, 
  "blame": 1510, 
  "remained": 1511, 
  "unable": 1512, 
  "solidarity": 1513, 
  "weeks": 1514, 
  "disaster": 1515, 
  "saw": 1516, 
  "argued": 1517, 
  "spent": 1518, 
  "John": 1519, 
  "normal": 1520, 
  "intelligence": 1521, 
  "equal": 1522, 
  "competitiveness": 1523, 
  "Court": 1524, 
  "saving": 1525, 
  "A": 1526, 
  "treaty": 1527, 
  "previous": 1528, 
  "overall": 1529, 
  "1970": 1530, 
  "substantial": 1531, 
  "type": 1532, 
  "expansion": 1533, 
  "1989": 1534, 
  "continent": 1535, 
  "middle": 1536, 
  "below": 1537, 
  "students": 1538, 
  "shared": 1539, 
  "seeking": 1540, 
  "Turkish": 1541, 
  "improved": 1542, 
  "produced": 1543, 
  "ready": 1544, 
  "nowadays": 1545, 
  "believed": 1546, 
  "instability": 1547, 
  "language": 1548, 
  "worked": 1549, 
  "post-@@": 1550, 
  "solutions": 1551, 
  "hands": 1552, 
  "school": 1553, 
  "communities": 1554, 
  "closer": 1555, 
  "imposed": 1556, 
  "ans": 1557, 
  "greatest": 1558, 
  "po@@": 1559, 
  "fell": 1560, 
  "tend": 1561, 
  "2@@": 1562, 
  "possibility": 1563, 
  "changing": 1564, 
  "bilateral": 1565, 
  "burden": 1566, 
  "causes": 1567, 
  "hardly": 1568, 
  "elite": 1569, 
  "regulatory": 1570, 
  "related": 1571, 
  "nationalism": 1572, 
  "learn": 1573, 
  "excessive": 1574, 
  "60": 1575, 
  "visit": 1576, 
  "final": 1577, 
  "initiative": 1578, 
  "additional": 1579, 
  "organization": 1580, 
  "addition": 1581, 
  "ists": 1582, 
  "wanted": 1583, 
  "adopted": 1584, 
  "Arabia": 1585, 
  "recognized": 1586, 
  "boost": 1587, 
  "ors": 1588, 
  "safety": 1589, 
  "speech": 1590, 
  "strength": 1591, 
  "stage": 1592, 
  "projects": 1593, 
  "promise": 1594, 
  "protests": 1595, 
  "credibility": 1596, 
  "terror": 1597, 
  "declared": 1598, 
  "defeat": 1599, 
  "intellectual": 1600, 
  "prospects": 1601, 
  "equally": 1602, 
  "Z@@": 1603, 
  "spend": 1604, 
  "decided": 1605, 
  "opening": 1606, 
  "played": 1607, 
  "worth": 1608, 
  "property": 1609, 
  "up@@": 1610, 
  "explain": 1611, 
  "ence": 1612, 
  "option": 1613, 
  "inevitable": 1614, 
  "prepared": 1615, 
  "trillion": 1616, 
  "precisely": 1617, 
  "movements": 1618, 
  "occupation": 1619, 
  "efficient": 1620, 
  "ne@@": 1621, 
  "enlargement": 1622, 
  "Ireland": 1623, 
  "city": 1624, 
  "message": 1625, 
  "mainly": 1626, 
  "Israelis": 1627, 
  "strengthen": 1628, 
  "communism": 1629, 
  "lines": 1630, 
  "partners": 1631, 
  "consumers": 1632, 
  "house": 1633, 
  "presence": 1634, 
  "afford": 1635, 
  "Libya": 1636, 
  "subsidies": 1637, 
  "flows": 1638, 
  "households": 1639, 
  "places": 1640, 
  "focused": 1641, 
  "ering": 1642, 
  "fears": 1643, 
  "compromise": 1644, 
  "ministers": 1645, 
  "thereby": 1646, 
  "regard": 1647, 
  "fuel": 1648, 
  "target": 1649, 
  "belief": 1650, 
  "heart": 1651, 
  "received": 1652, 
  "air": 1653, 
  "deeply": 1654, 
  "bl@@": 1655, 
  "rural": 1656, 
  "ending": 1657, 
  "fl@@": 1658, 
  "manage": 1659, 
  "raised": 1660, 
  "conservative": 1661, 
  "prospect": 1662, 
  "Russians": 1663, 
  "businesses": 1664, 
  "fast": 1665, 
  "January": 1666, 
  "religion": 1667, 
  "March": 1668, 
  "lessons": 1669, 
  "encourage": 1670, 
  "partly": 1671, 
  "macroeconomic": 1672, 
  "sources": 1673, 
  "imbalances": 1674, 
  "Monetary": 1675, 
  "ol@@": 1676, 
  "ded": 1677, 
  "knows": 1678, 
  "gap": 1679, 
  "vulnerable": 1680, 
  "court": 1681, 
  "100": 1682, 
  "generally": 1683, 
  "agricultural": 1684, 
  "numbers": 1685, 
  "suffering": 1686, 
  "context": 1687, 
  "positions": 1688, 
  "looking": 1689, 
  "meant": 1690, 
  "n": 1691, 
  "operations": 1692, 
  "whereas": 1693, 
  "bo@@": 1694, 
  "gone": 1695, 
  "ex@@": 1696, 
  "Greek": 1697, 
  "sp@@": 1698, 
  "sovereign": 1699, 
  "Berlin": 1700, 
  "imports": 1701, 
  "models": 1702, 
  "ity": 1703, 
  "communist": 1704, 
  "liberalization": 1705, 
  "succeed": 1706, 
  "financing": 1707, 
  "respond": 1708, 
  "promised": 1709, 
  "likewise": 1710, 
  "ge": 1711, 
  "authoritarian": 1712, 
  "trading": 1713, 
  "activity": 1714, 
  "guarantee": 1715, 
  "pe@@": 1716, 
  "accounts": 1717, 
  "ra@@": 1718, 
  "southern": 1719, 
  "ri@@": 1720, 
  "push": 1721, 
  "bubble": 1722, 
  "safe": 1723, 
  "for@@": 1724, 
  "divided": 1725, 
  "uncertainty": 1726, 
  "dialogue": 1727, 
  "smaller": 1728, 
  "crime": 1729, 
  "ary": 1730, 
  "depend": 1731, 
  "9": 1732, 
  "faster": 1733, 
  "default": 1734, 
  "sufficient": 1735, 
  "May": 1736, 
  "wages": 1737, 
  "unity": 1738, 
  "road": 1739, 
  "trend": 1740, 
  "Kim": 1741, 
  "demonstrated": 1742, 
  "decide": 1743, 
  "alized": 1744, 
  "ance": 1745, 
  "book": 1746, 
  "he@@": 1747, 
  "break": 1748, 
  "gains": 1749, 
  "June": 1750, 
  "entirely": 1751, 
  "Hong": 1752, 
  "civilian": 1753, 
  "ks": 1754, 
  "continuing": 1755, 
  "Moscow": 1756, 
  "families": 1757, 
  "faith": 1758, 
  "ization": 1759, 
  "light": 1760, 
  "accepted": 1761, 
  "considered": 1762, 
  "medical": 1763, 
  "team": 1764, 
  "y-@@": 1765, 
  "tensions": 1766, 
  "wo": 1767, 
  "nbsp": 1768, 
  "Wall": 1769, 
  "appropriate": 1770, 
  "understood": 1771, 
  "Cambridge": 1772, 
  "driven": 1773, 
  "multilateral": 1774, 
  "equity": 1775, 
  "participation": 1776, 
  "helping": 1777, 
  "par@@": 1778, 
  "agencies": 1779, 
  "agreements": 1780, 
  "Revolution": 1781, 
  "base": 1782, 
  "sort": 1783, 
  "combined": 1784, 
  "Beijing": 1785, 
  "wage": 1786, 
  "controls": 1787, 
  "speak": 1788, 
  "se@@": 1789, 
  "limit": 1790, 
  "proposal": 1791, 
  "moderate": 1792, 
  "8": 1793, 
  "ingly": 1794, 
  "ca": 1795, 
  "impose": 1796, 
  "profits": 1797, 
  "desire": 1798, 
  "2002": 1799, 
  "Palestine": 1800, 
  "defined": 1801, 
  "works": 1802, 
  "Abbas": 1803, 
  "yes": 1804, 
  "Kingdom": 1805, 
  "experts": 1806, 
  "ying": 1807, 
  "Copenhagen": 1808, 
  "latest": 1809, 
  "sound": 1810, 
  "raising": 1811, 
  "rec@@": 1812, 
  "aim": 1813, 
  "degree": 1814, 
  "man@@": 1815, 
  "emerged": 1816, 
  "significantly": 1817, 
  "sectors": 1818, 
  "range": 1819, 
  "resolution": 1820, 
  "transparency": 1821, 
  "sharply": 1822, 
  "U@@": 1823, 
  "expensive": 1824, 
  "offers": 1825, 
  "et@@": 1826, 
  "op@@": 1827, 
  "immediately": 1828, 
  "·": 1829, 
  "determined": 1830, 
  "announced": 1831, 
  "ently": 1832, 
  "invest": 1833, 
  "ideological": 1834, 
  "born": 1835, 
  "structures": 1836, 
  "l": 1837, 
  "1999": 1838, 
  "drive": 1839, 
  "sustained": 1840, 
  "sub@@": 1841, 
  "rulers": 1842, 
  "style": 1843, 
  "Kong": 1844, 
  "la@@": 1845, 
  "restore": 1846, 
  "eight": 1847, 
  "says": 1848, 
  "surplus": 1849, 
  "rely": 1850, 
  "immigration": 1851, 
  "consumer": 1852, 
  "surely": 1853, 
  "imagine": 1854, 
  "possibly": 1855, 
  "ou@@": 1856, 
  "Development": 1857, 
  "occur": 1858, 
  "subject": 1859, 
  "mistake": 1860, 
  "occurred": 1861, 
  "solve": 1862, 
  "ably": 1863, 
  "legitimate": 1864, 
  "virtually": 1865, 
  "sharp": 1866, 
  "universal": 1867, 
  "revenues": 1868, 
  "6": 1869, 
  "bu@@": 1870, 
  "zone": 1871, 
  "ens": 1872, 
  "importantly": 1873, 
  "scenario": 1874, 
  "dramatic": 1875, 
  "ec@@": 1876, 
  "obviously": 1877, 
  "battle": 1878, 
  ".@@": 1879, 
  "objective": 1880, 
  "cutting": 1881, 
  "defend": 1882, 
  "settlement": 1883, 
  "Reserve": 1884, 
  "implies": 1885, 
  "high-@@": 1886, 
  "corrupt": 1887, 
  "pursue": 1888, 
  "October": 1889, 
  "associated": 1890, 
  "truly": 1891, 
  "schools": 1892, 
  "bankers": 1893, 
  "players": 1894, 
  "moving": 1895, 
  "populations": 1896, 
  "et": 1897, 
  "easier": 1898, 
  "holding": 1899, 
  "7": 1900, 
  "broad": 1901, 
  "Paris": 1902, 
  "bringing": 1903, 
  "no@@": 1904, 
  "br@@": 1905, 
  "choose": 1906, 
  "friends": 1907, 
  "determine": 1908, 
  "chief": 1909, 
  "Organization": 1910, 
  "secular": 1911, 
  "si@@": 1912, 
  "highest": 1913, 
  "pl@@": 1914, 
  "technological": 1915, 
  "signs": 1916, 
  "contribute": 1917, 
  "ul@@": 1918, 
  "invasion": 1919, 
  "represent": 1920, 
  "well-@@": 1921, 
  "State": 1922, 
  "son": 1923, 
  "resistance": 1924, 
  "Jews": 1925, 
  "stake": 1926, 
  "wide": 1927, 
  "happens": 1928, 
  "opponents": 1929, 
  "over-@@": 1930, 
  "tradition": 1931, 
  "z": 1932, 
  "ongoing": 1933, 
  "comprehensive": 1934, 
  "legacy": 1935, 
  "ment": 1936, 
  "mere": 1937, 
  "payments": 1938, 
  "options": 1939, 
  "efficiency": 1940, 
  "str@@": 1941, 
  "surprise": 1942, 
  "proved": 1943, 
  "training": 1944, 
  "closed": 1945, 
  "hopes": 1946, 
  "pace": 1947, 
  "Chávez": 1948, 
  "bear": 1949, 
  "supporters": 1950, 
  "economically": 1951, 
  "construction": 1952, 
  "playing": 1953, 
  "1@@": 1954, 
  "Nigeria": 1955, 
  "commodity": 1956, 
  "room": 1957, 
  "acts": 1958, 
  "In@@": 1959, 
  "necessarily": 1960, 
  "trial": 1961, 
  "list": 1962, 
  "commercial": 1963, 
  "establishment": 1964, 
  "worry": 1965, 
  "controlled": 1966, 
  "Venezuela": 1967, 
  "dictatorship": 1968, 
  "dr@@": 1969, 
  "ideology": 1970, 
  "York": 1971, 
  "father": 1972, 
  "child": 1973, 
  "Jewish": 1974, 
  "territory": 1975, 
  "stands": 1976, 
  "tell": 1977, 
  "ent@@": 1978, 
  "flow": 1979, 
  "unprecedented": 1980, 
  "die": 1981, 
  "turning": 1982, 
  "uses": 1983, 
  "combination": 1984, 
  "realize": 1985, 
  "id@@": 1986, 
  "unique": 1987, 
  "ch": 1988, 
  "mission": 1989, 
  "capita": 1990, 
  "kept": 1991, 
  "trouble": 1992, 
  "h": 1993, 
  "leaving": 1994, 
  "ends": 1995, 
  "Nobel": 1996, 
  "carry": 1997, 
  "suffer": 1998, 
  "resolve": 1999, 
  "nationalist": 2000, 
  "18@@": 2001, 
  "someone": 2002, 
  "broader": 2003, 
  "minority": 2004, 
  "enemy": 2005, 
  "soldiers": 2006, 
  "industries": 2007, 
  "event": 2008, 
  "sell": 2009, 
  "remarkable": 2010, 
  "launched": 2011, 
  "fallen": 2012, 
  "senior": 2013, 
  "fund": 2014, 
  "3@@": 2015, 
  "practical": 2016, 
  "manufacturing": 2017, 
  "ling": 2018, 
  "gr@@": 2019, 
  "humanity": 2020, 
  "Democratic": 2021, 
  "universities": 2022, 
  "ed@@": 2023, 
  "malaria": 2024, 
  "attempts": 2025, 
  "12": 2026, 
  "implement": 2027, 
  "television": 2028, 
  "dramatically": 2029, 
  "summer": 2030, 
  "survive": 2031, 
  "Cuba": 2032, 
  "undermine": 2033, 
  "primary": 2034, 
  "tive": 2035, 
  "Islamist": 2036, 
  "Christian": 2037, 
  "ian": 2038, 
  "u": 2039, 
  "concept": 2040, 
  "July": 2041, 
  "deeper": 2042, 
  "historic": 2043, 
  "se": 2044, 
  "estimates": 2045, 
  "gives": 2046, 
  "image": 2047, 
  "Merkel": 2048, 
  "Colombia": 2049, 
  "represents": 2050, 
  "ants": 2051, 
  "emerge": 2052, 
  "tic": 2053, 
  "cr@@": 2054, 
  "recognition": 2055, 
  "ph@@": 2056, 
  "Treasury": 2057, 
  "proposals": 2058, 
  "starting": 2059, 
  "pro@@": 2060, 
  "ev@@": 2061, 
  "critics": 2062, 
  "considerable": 2063, 
  "charge": 2064, 
  "immigrants": 2065, 
  "legislation": 2066, 
  "suffered": 2067, 
  "strategies": 2068, 
  "supplies": 2069, 
  "threatened": 2070, 
  "conventional": 2071, 
  "underlying": 2072, 
  "engage": 2073, 
  "technical": 2074, 
  "temporary": 2075, 
  "institution": 2076, 
  "field": 2077, 
  "developments": 2078, 
  "av@@": 2079, 
  "dealing": 2080, 
  "Musharraf": 2081, 
  "ator": 2082, 
  "measure": 2083, 
  "commitments": 2084, 
  "ot@@": 2085, 
  "genuine": 2086, 
  "Republican": 2087, 
  "estimated": 2088, 
  "signed": 2089, 
  "potentially": 2090, 
  "mon@@": 2091, 
  "referendum": 2092, 
  "def@@": 2093, 
  "urban": 2094, 
  "choices": 2095, 
  "ered": 2096, 
  "experienced": 2097, 
  "Al@@": 2098, 
  "transformation": 2099, 
  "funding": 2100, 
  "AIDS": 2101, 
  "agriculture": 2102, 
  "wider": 2103, 
  "losing": 2104, 
  "survival": 2105, 
  "word": 2106, 
  "bound": 2107, 
  "observers": 2108, 
  "criticism": 2109, 
  "double": 2110, 
  "regulations": 2111, 
  "80": 2112, 
  "mechanism": 2113, 
  "race": 2114, 
  "deliver": 2115, 
  "united": 2116, 
  "conference": 2117, 
  "overcome": 2118, 
  "enemies": 2119, 
  "appeared": 2120, 
  "extremely": 2121, 
  "ked": 2122, 
  "mechanisms": 2123, 
  "relief": 2124, 
  "regardless": 2125, 
  "promoting": 2126, 
  "urgent": 2127, 
  "product": 2128, 
  "offered": 2129, 
  "federal": 2130, 
  "front": 2131, 
  "Ch@@": 2132, 
  "complete": 2133, 
  "generations": 2134, 
  "regulators": 2135, 
  "strengthening": 2136, 
  "backed": 2137, 
  "seven": 2138, 
  "cycle": 2139, 
  "implications": 2140, 
  "practices": 2141, 
  "twentieth": 2142, 
  "useful": 2143, 
  "leads": 2144, 
  "resulting": 2145, 
  "les": 2146, 
  "dependent": 2147, 
  "end@@": 2148, 
  "perspective": 2149, 
  "Fatah": 2150, 
  "perceived": 2151, 
  "ter@@": 2152, 
  "welcome": 2153, 
  "accession": 2154, 
  "physical": 2155, 
  "affect": 2156, 
  "inevitably": 2157, 
  "standing": 2158, 
  "mar@@": 2159, 
  "revolutionary": 2160, 
  "alism": 2161, 
  "C": 2162, 
  "generate": 2163, 
  "ur@@": 2164, 
  "died": 2165, 
  "purpose": 2166, 
  "confrontation": 2167, 
  "Brussels": 2168, 
  "viable": 2169, 
  "partner": 2170, 
  "targets": 2171, 
  "criminal": 2172, 
  "withdrawal": 2173, 
  "fate": 2174, 
  "Parliament": 2175, 
  "paying": 2176, 
  "engaged": 2177, 
  "ely": 2178, 
  "household": 2179, 
  "nonetheless": 2180, 
  "Mubarak": 2181, 
  "barriers": 2182, 
  "studies": 2183, 
  "shape": 2184, 
  "journalists": 2185, 
  "Burma": 2186, 
  "ut@@": 2187, 
  "exists": 2188, 
  "to@@": 2189, 
  "begun": 2190, 
  "debates": 2191, 
  "t-@@": 2192, 
  "Vietnam": 2193, 
  "id": 2194, 
  "Euro": 2195, 
  "on-@@": 2196, 
  "gained": 2197, 
  "woman": 2198, 
  "declining": 2199, 
  "economist": 2200, 
  "enter": 2201, 
  "contributed": 2202, 
  "ha@@": 2203, 
  "proven": 2204, 
  "pre-@@": 2205, 
  "debts": 2206, 
  "D": 2207, 
  "Democrats": 2208, 
  "borrowing": 2209, 
  "marked": 2210, 
  "modernization": 2211, 
  "remember": 2212, 
  "viewed": 2213, 
  "unions": 2214, 
  "supporting": 2215, 
  "planet": 2216, 
  "productive": 2217, 
  "knew": 2218, 
  "grew": 2219, 
  "ma@@": 2220, 
  "keeping": 2221, 
  "aging": 2222, 
  "exactly": 2223, 
  "Dutch": 2224, 
  "ative": 2225, 
  "eyes": 2226, 
  "treated": 2227, 
  "ing@@": 2228, 
  "incomes": 2229, 
  "dream": 2230, 
  "Milosevic": 2231, 
  "ruled": 2232, 
  "modest": 2233, 
  "Hussein": 2234, 
  "capable": 2235, 
  "weight": 2236, 
  "host": 2237, 
  "ver@@": 2238, 
  "billions": 2239, 
  "Ahmadinejad": 2240, 
  "ble": 2241, 
  "opposed": 2242, 
  "advance": 2243, 
  "izing": 2244, 
  "failures": 2245, 
  "allowing": 2246, 
  "University": 2247, 
  "Gulf": 2248, 
  "strike": 2249, 
  "centuries": 2250, 
  "skills": 2251, 
  "polls": 2252, 
  "ality": 2253, 
  "a-@@": 2254, 
  "dead": 2255, 
  "inside": 2256, 
  "replaced": 2257, 
  "organized": 2258, 
  "160": 2259, 
  "killing": 2260, 
  "corporations": 2261, 
  "cancer": 2262, 
  "Vladimir": 2263, 
  "completely": 2264, 
  "aggressive": 2265, 
  "reasonable": 2266, 
  "Mar@@": 2267, 
  "pressures": 2268, 
  "confront": 2269, 
  "described": 2270, 
  "transfer": 2271, 
  "mo@@": 2272, 
  "rejected": 2273, 
  "felt": 2274, 
  "...": 2275, 
  "dec@@": 2276, 
  "1991": 2277, 
  "firm": 2278, 
  "improving": 2279, 
  "pushed": 2280, 
  "Depression": 2281, 
  "holds": 2282, 
  "heavily": 2283, 
  "Kyoto": 2284, 
  "votes": 2285, 
  "linked": 2286, 
  "hours": 2287, 
  "strongly": 2288, 
  "initiatives": 2289, 
  "costly": 2290, 
  "arguments": 2291, 
  "weakness": 2292, 
  "Thailand": 2293, 
  "analysis": 2294, 
  "board": 2295, 
  "homes": 2296, 
  "ters": 2297, 
  "August": 2298, 
  "got": 2299, 
  "distribution": 2300, 
  "elites": 2301, 
  "except": 2302, 
  "species": 2303, 
  "Street": 2304, 
  "cl@@": 2305, 
  "ad": 2306, 
  "70": 2307, 
  "Chancellor": 2308, 
  "mer@@": 2309, 
  "1960": 2310, 
  "saying": 2311, 
  "black": 2312, 
  "acting": 2313, 
  "bottom": 2314, 
  "chaos": 2315, 
  "restructuring": 2316, 
  "willingness": 2317, 
  "adopt": 2318, 
  "ize": 2319, 
  "Sweden": 2320, 
  "pattern": 2321, 
  "dominated": 2322, 
  "figure": 2323, 
  "putting": 2324, 
  "discussion": 2325, 
  "objectives": 2326, 
  "convinced": 2327, 
  "dominant": 2328, 
  "profound": 2329, 
  "An@@": 2330, 
  "Constitution": 2331, 
  "ue": 2332, 
  "humanitarian": 2333, 
  "allows": 2334, 
  "mutual": 2335, 
  "quarter": 2336, 
  "root": 2337, 
  "typically": 2338, 
  "ial": 2339, 
  "diseases": 2340, 
  "cheap": 2341, 
  "reports": 2342, 
  "applied": 2343, 
  "ious": 2344, 
  "calling": 2345, 
  "closely": 2346, 
  "joint": 2347, 
  "suddenly": 2348, 
  "dynamic": 2349, 
  "April": 2350, 
  "clean": 2351, 
  "establishing": 2352, 
  "ators": 2353, 
  "Qaeda": 2354, 
  "wish": 2355, 
  "meaning": 2356, 
  "publicly": 2357, 
  "surprising": 2358, 
  "replace": 2359, 
  "served": 2360, 
  "figures": 2361, 
  "grown": 2362, 
  "refused": 2363, 
  "exposed": 2364, 
  "pro-@@": 2365, 
  "showed": 2366, 
  "quo": 2367, 
  "ish": 2368, 
  "peoples": 2369, 
  "enable": 2370, 
  "aside": 2371, 
  "supposedly": 2372, 
  "Economic": 2373, 
  "joined": 2374, 
  "actual": 2375, 
  "att@@": 2376, 
  "ite": 2377, 
  "austerity": 2378, 
  "wrote": 2379, 
  "daily": 2380, 
  "ho@@": 2381, 
  "cells": 2382, 
  "Yeltsin": 2383, 
  "Ar@@": 2384, 
  "Mao": 2385, 
  "Arabs": 2386, 
  "successfully": 2387, 
  "implemented": 2388, 
  "restrictions": 2389, 
  "heads": 2390, 
  "we@@": 2391, 
  "ins": 2392, 
  "correct": 2393, 
  "presidents": 2394, 
  "published": 2395, 
  "existence": 2396, 
  "prison": 2397, 
  "assume": 2398, 
  "receive": 2399, 
  "ously": 2400, 
  "setting": 2401, 
  "fewer": 2402, 
  "table": 2403, 
  "ke": 2404, 
  "moved": 2405, 
  "planning": 2406, 
  "attractive": 2407, 
  "alize": 2408, 
  "happening": 2409, 
  "reaction": 2410, 
  "gold": 2411, 
  "maintaining": 2412, 
  "cash": 2413, 
  "populist": 2414, 
  "pension": 2415, 
  "embrace": 2416, 
  "northern": 2417, 
  "Pakistani": 2418, 
  "alization": 2419, 
  "charges": 2420, 
  "passed": 2421, 
  "educated": 2422, 
  "protectionism": 2423, 
  "priorities": 2424, 
  "compete": 2425, 
  "voting": 2426, 
  "partnership": 2427, 
  "Polish": 2428, 
  "depression": 2429, 
  "affected": 2430, 
  "aware": 2431, 
  "green": 2432, 
  "18": 2433, 
  "Chile": 2434, 
  "university": 2435, 
  "decisive": 2436, 
  "sustain": 2437, 
  "protest": 2438, 
  "Hu": 2439, 
  "securities": 2440, 
  "threaten": 2441, 
  "cor@@": 2442, 
  "deaths": 2443, 
  "fortunately": 2444, 
  "gu@@": 2445, 
  "mistakes": 2446, 
  "tools": 2447, 
  "addressed": 2448, 
  "threatening": 2449, 
  "decision-making": 2450, 
  "Afghan": 2451, 
  "consequence": 2452, 
  "bodies": 2453, 
  "apply": 2454, 
  "empire": 2455, 
  "streets": 2456, 
  "fire": 2457, 
  "ep@@": 2458, 
  "CO2": 2459, 
  "Germans": 2460, 
  "includes": 2461, 
  "2011": 2462, 
  "believes": 2463, 
  "1997": 2464, 
  "one-@@": 2465, 
  "granted": 2466, 
  "demonstrate": 2467, 
  "thanks": 2468, 
  "actors": 2469, 
  "patients": 2470, 
  "weakened": 2471, 
  "package": 2472, 
  "electricity": 2473, 
  "headed": 2474, 
  "me@@": 2475, 
  "Committee": 2476, 
  "fa@@": 2477, 
  "opened": 2478, 
  "om": 2479, 
  "wave": 2480, 
  "go@@": 2481, 
  "divide": 2482, 
  "Shia": 2483, 
  "ak@@": 2484, 
  "expanding": 2485, 
  "renewed": 2486, 
  "Defense": 2487, 
  "percentage": 2488, 
  "slowdown": 2489, 
  "ty": 2490, 
  "credible": 2491, 
  "Chirac": 2492, 
  "discipline": 2493, 
  "ru@@": 2494, 
  "1998": 2495, 
  "causing": 2496, 
  "professional": 2497, 
  "geopolitical": 2498, 
  "intended": 2499, 
  "x": 2500, 
  "amounts": 2501, 
  "accounting": 2502, 
  "civilians": 2503, 
  "1930": 2504, 
  "Haiti": 2505, 
  "ber@@": 2506, 
  "managers": 2507, 
  "anniversary": 2508, 
  "latter": 2509, 
  "HIV": 2510, 
  "stance": 2511, 
  "expressed": 2512, 
  "WTO": 2513, 
  "Paul": 2514, 
  "Romania": 2515, 
  "migration": 2516, 
  "Sunni": 2517, 
  "arrangements": 2518, 
  "opposite": 2519, 
  "complicated": 2520, 
  "outcomes": 2521, 
  "mandate": 2522, 
  "heard": 2523, 
  "5@@": 2524, 
  "February": 2525, 
  "Trade": 2526, 
  "wh@@": 2527, 
  "brain": 2528, 
  "Berlusconi": 2529, 
  "returned": 2530, 
  "examples": 2531, 
  "destroy": 2532, 
  "healthy": 2533, 
  "issued": 2534, 
  "and@@": 2535, 
  "ov@@": 2536, 
  "min@@": 2537, 
  "f": 2538, 
  "TV": 2539, 
  "courts": 2540, 
  "speed": 2541, 
  "picture": 2542, 
  "emergence": 2543, 
  "elements": 2544, 
  "Atlantic": 2545, 
  "integrated": 2546, 
  "reflected": 2547, 
  "anti@@": 2548, 
  "bi@@": 2549, 
  "ov": 2550, 
  "mark": 2551, 
  "exception": 2552, 
  "returns": 2553, 
  "shocks": 2554, 
  "um": 2555, 
  "ses": 2556, 
  "expenditures": 2557, 
  "primarily": 2558, 
  "ang@@": 2559, 
  "educational": 2560, 
  "failing": 2561, 
  "downturn": 2562, 
  "openly": 2563, 
  "mortgage": 2564, 
  "kill": 2565, 
  "computer": 2566, 
  "encouraging": 2567, 
  "sent": 2568, 
  "UK": 2569, 
  "pr@@": 2570, 
  "bel@@": 2571, 
  "sea": 2572, 
  "difficulties": 2573, 
  "judges": 2574, 
  "ats": 2575, 
  "ry": 2576, 
  "link": 2577, 
  "har@@": 2578, 
  "Egyptian": 2579, 
  "contracts": 2580, 
  "shock": 2581, 
  "carried": 2582, 
  "shareholders": 2583, 
  "fragile": 2584, 
  "ud@@": 2585, 
  "wonder": 2586, 
  "ill": 2587, 
  "illegal": 2588, 
  "remaining": 2589, 
  "appreciation": 2590, 
  "condition": 2591, 
  "rescue": 2592, 
  "pushing": 2593, 
  "regarded": 2594, 
  "posed": 2595, 
  "amp": 2596, 
  "fourth": 2597, 
  "stay": 2598, 
  "added": 2599, 
  "realistic": 2600, 
  "genes": 2601, 
  "essentially": 2602, 
  "s-@@": 2603, 
  "rarely": 2604, 
  "Assembly": 2605, 
  "send": 2606, 
  "inf@@": 2607, 
  "ages": 2608, 
  "concerning": 2609, 
  "Re@@": 2610, 
  "humans": 2611, 
  "adjustment": 2612, 
  "equality": 2613, 
  "ass@@": 2614, 
  "House": 2615, 
  "S": 2616, 
  "strengthened": 2617, 
  "eliminate": 2618, 
  "birth": 2619, 
  "ban": 2620, 
  "notion": 2621, 
  "series": 2622, 
  "constraints": 2623, 
  "tough": 2624, 
  "secret": 2625, 
  "Italian": 2626, 
  "stories": 2627, 
  "ownership": 2628, 
  "genetic": 2629, 
  "guarantees": 2630, 
  "Netherlands": 2631, 
  "ited": 2632, 
  "plants": 2633, 
  "ignore": 2634, 
  "contribution": 2635, 
  "systemic": 2636, 
  "bond": 2637, 
  "reaching": 2638, 
  "revenue": 2639, 
  "ultimate": 2640, 
  "Czech": 2641, 
  "barely": 2642, 
  "trends": 2643, 
  "paper": 2644, 
  "4@@": 2645, 
  "requirements": 2646, 
  "incentive": 2647, 
  "mid-@@": 2648, 
  "liberty": 2649, 
  "expand": 2650, 
  "encouraged": 2651, 
  "facts": 2652, 
  "Tunisia": 2653, 
  "accountability": 2654, 
  "enterprises": 2655, 
  "animals": 2656, 
  "missile": 2657, 
  "R": 2658, 
  "ard": 2659, 
  "risky": 2660, 
  "heavy": 2661, 
  "au@@": 2662, 
  "inflows": 2663, 
  "low-@@": 2664, 
  "spirit": 2665, 
  "undoubtedly": 2666, 
  "engagement": 2667, 
  "ians": 2668, 
  "appeal": 2669, 
  "Supreme": 2670, 
  "finding": 2671, 
  "We": 2672, 
  "blood": 2673, 
  "ically": 2674, 
  "zero": 2675, 
  "version": 2676, 
  "te": 2677, 
  "explanation": 2678, 
  "design": 2679, 
  "un": 2680, 
  "logic": 2681, 
  "conduct": 2682, 
  "exercise": 2683, 
  "um@@": 2684, 
  "mortgages": 2685, 
  "represented": 2686, 
  "ade": 2687, 
  "equivalent": 2688, 
  "suggested": 2689, 
  "aries": 2690, 
  "employees": 2691, 
  "network": 2692, 
  "all@@": 2693, 
  "7@@": 2694, 
  "formal": 2695, 
  "proliferation": 2696, 
  "unsustainable": 2697, 
  "material": 2698, 
  "promising": 2699, 
  "ambitions": 2700, 
  "Stability": 2701, 
  "ob@@": 2702, 
  "cover": 2703, 
  "interested": 2704, 
  "claimed": 2705, 
  "voice": 2706, 
  "function": 2707, 
  "deflation": 2708, 
  "instruments": 2709, 
  "Bolivia": 2710, 
  "ambitious": 2711, 
  "G-8": 2712, 
  "p": 2713, 
  "pres@@": 2714, 
  "popularity": 2715, 
  "neighboring": 2716, 
  "stress": 2717, 
  "introduced": 2718, 
  "attitude": 2719, 
  "notably": 2720, 
  "managing": 2721, 
  "robust": 2722, 
  "executive": 2723, 
  "relevant": 2724, 
  "ents": 2725, 
  "south": 2726, 
  "gradually": 2727, 
  "achieving": 2728, 
  "initially": 2729, 
  "fin@@": 2730, 
  "usual": 2731, 
  "apart": 2732, 
  "acceptable": 2733, 
  "d-@@": 2734, 
  "Syrian": 2735, 
  "tu@@": 2736, 
  "badly": 2737, 
  "lie": 2738, 
  "der": 2739, 
  "extended": 2740, 
  "ship": 2741, 
  "previously": 2742, 
  "demanding": 2743, 
  "ning": 2744, 
  "ve": 2745, 
  "abandon": 2746, 
  "cur@@": 2747, 
  "ast@@": 2748, 
  "oned": 2749, 
  "Singapore": 2750, 
  "war@@": 2751, 
  "surprisingly": 2752, 
  "frequently": 2753, 
  "newly": 2754, 
  "cell": 2755, 
  "ful": 2756, 
  "included": 2757, 
  "responses": 2758, 
  "operate": 2759, 
  "gets": 2760, 
  "minds": 2761, 
  "It": 2762, 
  "internationally": 2763, 
  "taxpayers": 2764, 
  "current-account": 2765, 
  "voted": 2766, 
  "back@@": 2767, 
  "ensuring": 2768, 
  "alike": 2769, 
  "acted": 2770, 
  "read": 2771, 
  "reconstruction": 2772, 
  "wisdom": 2773, 
  "leverage": 2774, 
  "isolation": 2775, 
  "F": 2776, 
  "justified": 2777, 
  "twice": 2778, 
  "successor": 2779, 
  "Australia": 2780, 
  "budgets": 2781, 
  "fundamentally": 2782, 
  "manner": 2783, 
  "conclusion": 2784, 
  "happy": 2785, 
  "Con@@": 2786, 
  "reconciliation": 2787, 
  "repeatedly": 2788, 
  "launch": 2789, 
  "Netanyahu": 2790, 
  "coal": 2791, 
  "ta@@": 2792, 
  "od@@": 2793, 
  "reported": 2794, 
  "add": 2795, 
  "staff": 2796, 
  "the@@": 2797, 
  "fixed": 2798, 
  "apparent": 2799, 
  "und@@": 2800, 
  "resource": 2801, 
  "twenty-first": 2802, 
  "sexual": 2803, 
  "nobody": 2804, 
  "harm": 2805, 
  "door": 2806, 
  "Robert": 2807, 
  "exchange-rate": 2808, 
  "resulted": 2809, 
  "contain": 2810, 
  "ke@@": 2811, 
  "significance": 2812, 
  "politician": 2813, 
  "uncertain": 2814, 
  "stopped": 2815, 
  "evil": 2816, 
  "brings": 2817, 
  "pain": 2818, 
  "driving": 2819, 
  "P": 2820, 
  "spring": 2821, 
  "accompanied": 2822, 
  "winning": 2823, 
  "addressing": 2824, 
  "ement": 2825, 
  "sen@@": 2826, 
  "transatlantic": 2827, 
  "oc@@": 2828, 
  "drawn": 2829, 
  "approaches": 2830, 
  "dly": 2831, 
  "justify": 2832, 
  "prefer": 2833, 
  "Yugoslavia": 2834, 
  "ities": 2835, 
  "Yemen": 2836, 
  "res@@": 2837, 
  "harder": 2838, 
  "weakening": 2839, 
  "transparent": 2840, 
  "producers": 2841, 
  "x@@": 2842, 
  "Sudan": 2843, 
  "repression": 2844, 
  "ned": 2845, 
  "refugees": 2846, 
  "painful": 2847, 
  "flexibility": 2848, 
  "rational": 2849, 
  "ignored": 2850, 
  "buying": 2851, 
  "kinds": 2852, 
  "diversity": 2853, 
  "destroyed": 2854, 
  "narrow": 2855, 
  "alternatives": 2856, 
  "seemingly": 2857, 
  "collapsed": 2858, 
  "facilities": 2859, 
  "stocks": 2860, 
  "ay": 2861, 
  "reserve": 2862, 
  "generated": 2863, 
  "succeeded": 2864, 
  "street": 2865, 
  "weaker": 2866, 
  "Jordan": 2867, 
  "perfect": 2868, 
  "af@@": 2869, 
  "predict": 2870, 
  "In": 2871, 
  "tor@@": 2872, 
  "lived": 2873, 
  "activists": 2874, 
  "accused": 2875, 
  "Mediterranean": 2876, 
  "overwhelming": 2877, 
  "resort": 2878, 
  "creditors": 2879, 
  "God": 2880, 
  "ig@@": 2881, 
  "advantages": 2882, 
  "original": 2883, 
  "negotiate": 2884, 
  "placed": 2885, 
  "Khamenei": 2886, 
  "ening": 2887, 
  "sing": 2888, 
  "football": 2889, 
  "bed": 2890, 
  "leaves": 2891, 
  "participate": 2892, 
  "links": 2893, 
  "producing": 2894, 
  "processes": 2895, 
  "capabilities": 2896, 
  "presented": 2897, 
  "Hungary": 2898, 
  "seeing": 2899, 
  "hence": 2900, 
  "é": 2901, 
  "draw": 2902, 
  "caught": 2903, 
  "foundation": 2904, 
  "measured": 2905, 
  "comm@@": 2906, 
  "bold": 2907, 
  "trans@@": 2908, 
  "King": 2909, 
  "sts": 2910, 
  "crash": 2911, 
  "hand@@": 2912, 
  "participants": 2913, 
  "initial": 2914, 
  "compensation": 2915, 
  "az@@": 2916, 
  "avoided": 2917, 
  "enting": 2918, 
  "advice": 2919, 
  "emergency": 2920, 
  "€": 2921, 
  "simultaneously": 2922, 
  "attitudes": 2923, 
  "gi@@": 2924, 
  "cre@@": 2925, 
  "ourselves": 2926, 
  "fi@@": 2927, 
  "90": 2928, 
  "threatens": 2929, 
  "division": 2930, 
  "ow@@": 2931, 
  "surpluses": 2932, 
  "hundred": 2933, 
  "escape": 2934, 
  "Iraqis": 2935, 
  "extremists": 2936, 
  "poorer": 2937, 
  "dependence": 2938, 
  "circle": 2939, 
  "meetings": 2940, 
  "People": 2941, 
  "Pact": 2942, 
  "Laden": 2943, 
  "vi@@": 2944, 
  "Nicolas": 2945, 
  "reputation": 2946, 
  "com@@": 2947, 
  "seeks": 2948, 
  "wait": 2949, 
  "track": 2950, 
  "ps": 2951, 
  "concrete": 2952, 
  "sensitive": 2953, 
  "eye": 2954, 
  "iting": 2955, 
  "networks": 2956, 
  "effectiveness": 2957, 
  "mal@@": 2958, 
  "alist": 2959, 
  "turmoil": 2960, 
  "su@@": 2961, 
  "apparently": 2962, 
  "Social": 2963, 
  "ethical": 2964, 
  "assumed": 2965, 
  "statement": 2966, 
  "released": 2967, 
  "moves": 2968, 
  "ze": 2969, 
  "os": 2970, 
  "parents": 2971, 
  "enjoy": 2972, 
  "fueled": 2973, 
  "expression": 2974, 
  "genocide": 2975, 
  "written": 2976, 
  "targeted": 2977, 
  "discrimination": 2978, 
  "ess": 2979, 
  "famous": 2980, 
  "St@@": 2981, 
  "search": 2982, 
  "abuse": 2983, 
  "Portugal": 2984, 
  "block": 2985, 
  "Medvedev": 2986, 
  "aw@@": 2987, 
  "bailout": 2988, 
  "sooner": 2989, 
  "expense": 2990, 
  "memory": 2991, 
  "unilateral": 2992, 
  "abandoned": 2993, 
  "ant@@": 2994, 
  "enhance": 2995, 
  "revealed": 2996, 
  "plays": 2997, 
  "responded": 2998, 
  "lasting": 2999, 
  "wake": 3000, 
  "date": 3001, 
  "profit": 3002, 
  "purposes": 3003, 
  "extraordinary": 3004, 
  "16": 3005, 
  "Hitler": 3006, 
  "sales": 3007, 
  "del@@": 3008, 
  "car@@": 3009, 
  "minorities": 3010, 
  "atmosphere": 3011, 
  "Sea": 3012, 
  "absolute": 3013, 
  "mental": 3014, 
  "creates": 3015, 
  "te@@": 3016, 
  "ak": 3017, 
  "hunger": 3018, 
  "obligations": 3019, 
  "adequate": 3020, 
  "representatives": 3021, 
  "co-@@": 3022, 
  "Canada": 3023, 
  "intellectuals": 3024, 
  "directed": 3025, 
  "Mahmoud": 3026, 
  "helps": 3027, 
  "travel": 3028, 
  "ASEAN": 3029, 
  "ments": 3030, 
  "der@@": 3031, 
  "panic": 3032, 
  "judge": 3033, 
  "chosen": 3034, 
  "14": 3035, 
  "Authority": 3036, 
  "review": 3037, 
  "torture": 3038, 
  "er-@@": 3039, 
  "demographic": 3040, 
  "proportion": 3041, 
  "discussions": 3042, 
  "stood": 3043, 
  "somewhat": 3044, 
  "devastating": 3045, 
  "alizing": 3046, 
  "bubbles": 3047, 
  "concluded": 3048, 
  "surge": 3049, 
  "underway": 3050, 
  "equ@@": 3051, 
  "ati@@": 3052, 
  "transformed": 3053, 
  "openness": 3054, 
  "feeling": 3055, 
  "identify": 3056, 
  "reverse": 3057, 
  "US-@@": 3058, 
  "ics": 3059, 
  "emerging-market": 3060, 
  "dispute": 3061, 
  "oppose": 3062, 
  "delivered": 3063, 
  "de-@@": 3064, 
  "inv@@": 3065, 
  "istic": 3066, 
  "sw@@": 3067, 
  "missiles": 3068, 
  "impressive": 3069, 
  "command": 3070, 
  "ratio": 3071, 
  "disarmament": 3072, 
  "ist@@": 3073, 
  "combat": 3074, 
  "ding": 3075, 
  "conducted": 3076, 
  "w": 3077, 
  "Thaksin": 3078, 
  "visible": 3079, 
  "fresh": 3080, 
  "renminbi": 3081, 
  "bas@@": 3082, 
  "invested": 3083, 
  "pose": 3084, 
  "marks": 3085, 
  "ged": 3086, 
  "Southeast": 3087, 
  "an-@@": 3088, 
  "preserve": 3089, 
  "rival": 3090, 
  "selling": 3091, 
  "stagnation": 3092, 
  "cont@@": 3093, 
  "improvement": 3094, 
  "historically": 3095, 
  "realities": 3096, 
  "volatility": 3097, 
  "weaken": 3098, 
  "os@@": 3099, 
  "exp@@": 3100, 
  "do@@": 3101, 
  "expanded": 3102, 
  "ened": 3103, 
  "zed": 3104, 
  "shares": 3105, 
  "ge@@": 3106, 
  "youth": 3107, 
  "earnings": 3108, 
  "officers": 3109, 
  "worried": 3110, 
  "long-@@": 3111, 
  "scope": 3112, 
  "Stalin": 3113, 
  "500": 3114, 
  "pursued": 3115, 
  "flexible": 3116, 
  "6@@": 3117, 
  "somehow": 3118, 
  "proper": 3119, 
  "ay@@": 3120, 
  "bigger": 3121, 
  "catastrophe": 3122, 
  "negotiating": 3123, 
  "tribal": 3124, 
  "Darfur": 3125, 
  "rightly": 3126, 
  "insist": 3127, 
  "evolution": 3128, 
  "protecting": 3129, 
  "democratization": 3130, 
  "super@@": 3131, 
  "divisions": 3132, 
  "treat": 3133, 
  "post@@": 3134, 
  "27": 3135, 
  "drop": 3136, 
  "conservatives": 3137, 
  "phase": 3138, 
  "ches": 3139, 
  "fish": 3140, 
  "sharing": 3141, 
  "reliable": 3142, 
  "transport": 3143, 
  "approval": 3144, 
  "13": 3145, 
  "Greenspan": 3146, 
  "bombing": 3147, 
  "ines": 3148, 
  "tests": 3149, 
  "Per@@": 3150, 
  "ang": 3151, 
  "coordination": 3152, 
  "forever": 3153, 
  "ish@@": 3154, 
  "b": 3155, 
  "define": 3156, 
  "donors": 3157, 
  "entry": 3158, 
  "raises": 3159, 
  "accountable": 3160, 
  "books": 3161, 
  "stem": 3162, 
  "diverse": 3163, 
  "norms": 3164, 
  "falls": 3165, 
  "borrow": 3166, 
  "atory": 3167, 
  "sophisticated": 3168, 
  "ise": 3169, 
  "Bosnia": 3170, 
  "sions": 3171, 
  "quick": 3172, 
  "privatization": 3173, 
  "equipment": 3174, 
  "fought": 3175, 
  "grounds": 3176, 
  "ched": 3177, 
  "western": 3178, 
  "large-scale": 3179, 
  "coup": 3180, 
  "rare": 3181, 
  "ah@@": 3182, 
  "resist": 3183, 
  "learning": 3184, 
  "ys": 3185, 
  "inflationary": 3186, 
  "seats": 3187, 
  "Sharon": 3188, 
  "arrest": 3189, 
  "regarding": 3190, 
  "imperial": 3191, 
  "weapon": 3192, 
  "predicted": 3193, 
  "warning": 3194, 
  "0.@@": 3195, 
  "Islamists": 3196, 
  "showing": 3197, 
  "Peace": 3198, 
  "protected": 3199, 
  "methods": 3200, 
  "recover": 3201, 
  "excess": 3202, 
  "fails": 3203, 
  "bomb": 3204, 
  "hostile": 3205, 
  "Financial": 3206, 
  "Roma": 3207, 
  "Zimbabwe": 3208, 
  "newspapers": 3209, 
  "sur@@": 3210, 
  "valuable": 3211, 
  "import": 3212, 
  "brutal": 3213, 
  "prisoners": 3214, 
  "pressing": 3215, 
  "dangers": 3216, 
  "advocates": 3217, 
  "stated": 3218, 
  "match": 3219, 
  "neo-@@": 3220, 
  "medicine": 3221, 
  "contributions": 3222, 
  "stimulate": 3223, 
  "ching": 3224, 
  "Denmark": 3225, 
  "phenomenon": 3226, 
  "preventing": 3227, 
  "centers": 3228, 
  "false": 3229, 
  "answers": 3230, 
  "Alliance": 3231, 
  "saved": 3232, 
  "iz@@": 3233, 
  "formed": 3234, 
  "broken": 3235, 
  "dem@@": 3236, 
  "Rights": 3237, 
  "settlements": 3238, 
  "responsibilities": 3239, 
  "perception": 3240, 
  "Arafat": 3241, 
  "repeated": 3242, 
  "users": 3243, 
  "ca@@": 3244, 
  "tragedy": 3245, 
  "eastern": 3246, 
  "cars": 3247, 
  "ley": 3248, 
  "ites": 3249, 
  "slowly": 3250, 
  "hi@@": 3251, 
  "Deng": 3252, 
  "Army": 3253, 
  "separate": 3254, 
  "territorial": 3255, 
  "estate": 3256, 
  "Irish": 3257, 
  "tolerance": 3258, 
  "200": 3259, 
  "operation": 3260, 
  "retirement": 3261, 
  "down@@": 3262, 
  "hear": 3263, 
  "newspaper": 3264, 
  "ie@@": 3265, 
  "reject": 3266, 
  "bin": 3267, 
  "Foreign": 3268, 
  "ented": 3269, 
  "dominance": 3270, 
  "gar@@": 3271, 
  "pat@@": 3272, 
  "exit": 3273, 
  "hidden": 3274, 
  "governing": 3275, 
  "surveillance": 3276, 
  "cultures": 3277, 
  "fossil": 3278, 
  "extend": 3279, 
  "Protocol": 3280, 
  "24": 3281, 
  "female": 3282, 
  "doctrine": 3283, 
  "transform": 3284, 
  "hegemony": 3285, 
  "materials": 3286, 
  "investing": 3287, 
  "urgently": 3288, 
  "pass": 3289, 
  "rose": 3290, 
  "financed": 3291, 
  "Ab@@": 3292, 
  "bit": 3293, 
  "enti@@": 3294, 
  "ach@@": 3295, 
  "easing": 3296, 
  "2012": 3297, 
  "ped": 3298, 
  "element": 3299, 
  "experiences": 3300, 
  "hoped": 3301, 
  "fuels": 3302, 
  "resolved": 3303, 
  "prevented": 3304, 
  "reluctant": 3305, 
  "ars": 3306, 
  "realized": 3307, 
  "disputes": 3308, 
  "amp@@": 3309, 
  "Republicans": 3310, 
  "waiting": 3311, 
  "comparable": 3312, 
  "sites": 3313, 
  "involvement": 3314, 
  "Cyprus": 3315, 
  "territories": 3316, 
  "17": 3317, 
  "maybe": 3318, 
  "tes": 3319, 
  "variety": 3320, 
  "suicide": 3321, 
  "DC": 3322, 
  "aftermath": 3323, 
  "ice": 3324, 
  "subsequent": 3325, 
  "enterprise": 3326, 
  "OECD": 3327, 
  "lawyers": 3328, 
  "careful": 3329, 
  "9@@": 3330, 
  "ot": 3331, 
  "love": 3332, 
  "capitalist": 3333, 
  "emphasis": 3334, 
  "plant": 3335, 
  "draft": 3336, 
  "island": 3337, 
  "alists": 3338, 
  "backing": 3339, 
  "English": 3340, 
  "criteria": 3341, 
  "component": 3342, 
  "generals": 3343, 
  "declaration": 3344, 
  "ancient": 3345, 
  "Sh@@": 3346, 
  "wi@@": 3347, 
  "warned": 3348, 
  "two-@@": 3349, 
  "sc@@": 3350, 
  "discuss": 3351, 
  "mor@@": 3352, 
  "traditions": 3353, 
  "colonial": 3354, 
  "maintained": 3355, 
  "slightly": 3356, 
  "dignity": 3357, 
  "consistent": 3358, 
  "unemployed": 3359, 
  "doubts": 3360, 
  "computers": 3361, 
  "ong@@": 3362, 
  "victim": 3363, 
  "wealthy": 3364, 
  "Northern": 3365, 
  "ns": 3366, 
  "Bill": 3367, 
  "numerous": 3368, 
  "aims": 3369, 
  "scheme": 3370, 
  "monitoring": 3371, 
  "imperative": 3372, 
  "unrest": 3373, 
  "entrepreneurs": 3374, 
  "David": 3375, 
  "inadequate": 3376, 
  "yield": 3377, 
  "types": 3378, 
  "ils": 3379, 
  "optimism": 3380, 
  "mother": 3381, 
  "hedge": 3382, 
  "ana": 3383, 
  "multi@@": 3384, 
  "sees": 3385, 
  "planned": 3386, 
  "protectionist": 3387, 
  "earth": 3388, 
  "Lula": 3389, 
  "murder": 3390, 
  "o-@@": 3391, 
  "mobility": 3392, 
  "ds": 3393, 
  "unwilling": 3394, 
  "Malaysia": 3395, 
  "grave": 3396, 
  "minimum": 3397, 
  "og@@": 3398, 
  "ls": 3399, 
  "ishing": 3400, 
  "judiciary": 3401, 
  "deals": 3402, 
  "tic@@": 3403, 
  "fields": 3404, 
  "Plan": 3405, 
  "Senate": 3406, 
  "McCain": 3407, 
  "colleagues": 3408, 
  "Tibet": 3409, 
  "superpower": 3410, 
  "1950": 3411, 
  "art": 3412, 
  "richest": 3413, 
  "talking": 3414, 
  "definition": 3415, 
  "looked": 3416, 
  "sed": 3417, 
  "via": 3418, 
  "Keynes": 3419, 
  "Balkans": 3420, 
  "engineering": 3421, 
  "monopoly": 3422, 
  "thousand": 3423, 
  "multi-@@": 3424, 
  "innocent": 3425, 
  "bureaucracy": 3426, 
  "1995": 3427, 
  "occupied": 3428, 
  "offering": 3429, 
  "prosperous": 3430, 
  "focusing": 3431, 
  "fe@@": 3432, 
  "breaking": 3433, 
  "communication": 3434, 
  "pursuing": 3435, 
  "tens": 3436, 
  "socialist": 3437, 
  "white": 3438, 
  "du@@": 3439, 
  "alive": 3440, 
  "Qaddafi": 3441, 
  "consolidation": 3442, 
  "aspects": 3443, 
  "intense": 3444, 
  "forget": 3445, 
  "Reagan": 3446, 
  "grand": 3447, 
  "voices": 3448, 
  "tactics": 3449, 
  "aggregate": 3450, 
  "anger": 3451, 
  "ought": 3452, 
  "houses": 3453, 
  "coordinated": 3454, 
  "ci@@": 3455, 
  "sufficiently": 3456, 
  "count": 3457, 
  "triggered": 3458, 
  "damaged": 3459, 
  "ir": 3460, 
  "counter@@": 3461, 
  "tor": 3462, 
  "her@@": 3463, 
  "ements": 3464, 
  "sl@@": 3465, 
  "triumph": 3466, 
  "sets": 3467, 
  "England": 3468, 
  "joining": 3469, 
  "ur": 3470, 
  "carefully": 3471, 
  "asking": 3472, 
  "sk@@": 3473, 
  "concentrated": 3474, 
  "chose": 3475, 
  "car": 3476, 
  "enforcement": 3477, 
  "19": 3478, 
  "entered": 3479, 
  "sheets": 3480, 
  "so@@": 3481, 
  "state-owned": 3482, 
  "friendly": 3483, 
  "insufficient": 3484, 
  "dominate": 3485, 
  "arrested": 3486, 
  "consistently": 3487, 
  "ging": 3488, 
  "write": 3489, 
  "right-wing": 3490, 
  "ren@@": 3491, 
  "extremism": 3492, 
  "re-election": 3493, 
  "Global": 3494, 
  "pride": 3495, 
  "discovered": 3496, 
  "avoiding": 3497, 
  "one-third": 3498, 
  "images": 3499, 
  "sold": 3500, 
  "air@@": 3501, 
  "E": 3502, 
  "forgotten": 3503, 
  "int@@": 3504, 
  "yen": 3505, 
  "retain": 3506, 
  "interesting": 3507, 
  "constant": 3508, 
  "lacks": 3509, 
  "fit": 3510, 
  "transactions": 3511, 
  "tool": 3512, 
  "achievement": 3513, 
  "onto": 3514, 
  "off@@": 3515, 
  "stabilize": 3516, 
  "Tony": 3517, 
  "extra": 3518, 
  "indicate": 3519, 
  "des": 3520, 
  "aspirations": 3521, 
  "obstacles": 3522, 
  "hal@@": 3523, 
  "agency": 3524, 
  "bankruptcy": 3525, 
  "rooted": 3526, 
  "giant": 3527, 
  "electorate": 3528, 
  "explains": 3529, 
  "gaining": 3530, 
  "fundamentals": 3531, 
  "speculation": 3532, 
  "Doha": 3533, 
  "ory": 3534, 
  "sion": 3535, 
  "revolutions": 3536, 
  "foundations": 3537, 
  "75": 3538, 
  "mention": 3539, 
  "Sch@@": 3540, 
  "statements": 3541, 
  "gl@@": 3542, 
  "Serbs": 3543, 
  "express": 3544, 
  "momentum": 3545, 
  "edge": 3546, 
  "tics": 3547, 
  "intervene": 3548, 
  "res": 3549, 
  "familiar": 3550, 
  "attract": 3551, 
  "donor": 3552, 
  "distant": 3553, 
  "ton": 3554, 
  "eding": 3555, 
  "attacked": 3556, 
  "Spanish": 3557, 
  "speaking": 3558, 
  "doctors": 3559, 
  "T": 3560, 
  "&apos;@@": 3561, 
  "prominent": 3562, 
  "meaningful": 3563, 
  "innovative": 3564, 
  "smart": 3565, 
  "negotiated": 3566, 
  "pay@@": 3567, 
  "demanded": 3568, 
  "abuses": 3569, 
  "tackle": 3570, 
  "demonstrations": 3571, 
  "ture": 3572, 
  "identified": 3573, 
  "advances": 3574, 
  "chances": 3575, 
  "imposing": 3576, 
  "acc@@": 3577, 
  "finances": 3578, 
  "autonomy": 3579, 
  "aspect": 3580, 
  "1994": 3581, 
  "Iranians": 3582, 
  "22": 3583, 
  "roots": 3584, 
  "gen@@": 3585, 
  "protesters": 3586, 
  "Ali": 3587, 
  "Nazi": 3588, 
  "balanced": 3589, 
  "trip": 3590, 
  "adapt": 3591, 
  "hour": 3592, 
  "Austria": 3593, 
  "Mon@@": 3594, 
  "argues": 3595, 
  "NPT": 3596, 
  "accomplished": 3597, 
  "confronted": 3598, 
  "judgment": 3599, 
  "Jerusalem": 3600, 
  "earthquake": 3601, 
  "acknowledge": 3602, 
  "foremost": 3603, 
  "wall": 3604, 
  "stakes": 3605, 
  "ery": 3606, 
  "globally": 3607, 
  "substantially": 3608, 
  "med": 3609, 
  "civilization": 3610, 
  "judicial": 3611, 
  "benefited": 3612, 
  "ths": 3613, 
  "League": 3614, 
  "ever-@@": 3615, 
  "analysts": 3616, 
  "ash": 3617, 
  "deny": 3618, 
  "Pacific": 3619, 
  "communications": 3620, 
  "watch": 3621, 
  "couple": 3622, 
  "classes": 3623, 
  "parallel": 3624, 
  "honest": 3625, 
  "periphery": 3626, 
  "sentiment": 3627, 
  "waste": 3628, 
  "integrity": 3629, 
  "removed": 3630, 
  "release": 3631, 
  "functioning": 3632, 
  "interventions": 3633, 
  "admit": 3634, 
  "naturally": 3635, 
  "Summit": 3636, 
  "migrants": 3637, 
  "els": 3638, 
  "pragmatic": 3639, 
  "inspired": 3640, 
  "dictator": 3641, 
  "Br@@": 3642, 
  "academic": 3643, 
  "Jacques": 3644, 
  "successes": 3645, 
  "Pro@@": 3646, 
  "puts": 3647, 
  "involving": 3648, 
  "Com@@": 3649, 
  "village": 3650, 
  "Mexican": 3651, 
  "inability": 3652, 
  "runs": 3653, 
  "operating": 3654, 
  "FDI": 3655, 
  "Brown": 3656, 
  "fairly": 3657, 
  "inefficient": 3658, 
  "Board": 3659, 
  "punishment": 3660, 
  "prepare": 3661, 
  "refusal": 3662, 
  "isolated": 3663, 
  "honor": 3664, 
  "refuse": 3665, 
  "Square": 3666, 
  "ran": 3667, 
  "instrument": 3668, 
  "19@@": 3669, 
  "older": 3670, 
  "administrative": 3671, 
  "blamed": 3672, 
  "delay": 3673, 
  "yields": 3674, 
  "ce": 3675, 
  "challenging": 3676, 
  "annually": 3677, 
  "mixed": 3678, 
  "guaranteed": 3679, 
  "suspicion": 3680, 
  "greatly": 3681, 
  "properly": 3682, 
  "ving": 3683, 
  "rejection": 3684, 
  "Holocaust": 3685, 
  "disastrous": 3686, 
  "involve": 3687, 
  "recognizing": 3688, 
  "Myanmar": 3689, 
  "20@@": 3690, 
  "pursuit": 3691, 
  "unstable": 3692, 
  "No": 3693, 
  "ing-@@": 3694, 
  "hot": 3695, 
  "declined": 3696, 
  "principal": 3697, 
  "halt": 3698, 
  "contract": 3699, 
  "researchers": 3700, 
  "bloody": 3701, 
  "understandable": 3702, 
  "flawed": 3703, 
  "rel@@": 3704, 
  "Bernanke": 3705, 
  "Lebanese": 3706, 
  "finds": 3707, 
  "wife": 3708, 
  "Chairman": 3709, 
  "expertise": 3710, 
  "discussed": 3711, 
  "imply": 3712, 
  "zing": 3713, 
  "fellow": 3714, 
  "surface": 3715, 
  "Constitutional": 3716, 
  "enc@@": 3717, 
  "influential": 3718, 
  "bureaucratic": 3719, 
  "feared": 3720, 
  "imp@@": 3721, 
  "courage": 3722, 
  "approved": 3723, 
  "ships": 3724, 
  "ker": 3725, 
  "implementing": 3726, 
  "withdraw": 3727, 
  "Th@@": 3728, 
  "1967": 3729, 
  "cross-border": 3730, 
  "legislative": 3731, 
  "constitute": 3732, 
  "35": 3733, 
  "acceptance": 3734, 
  "albeit": 3735, 
  "est@@": 3736, 
  "fr@@": 3737, 
  "heat": 3738, 
  "supervision": 3739, 
  "commit": 3740, 
  "pur@@": 3741, 
  "mainstream": 3742, 
  "intention": 3743, 
  "greenhouse": 3744, 
  "comparison": 3745, 
  "sex": 3746, 
  "sensible": 3747, 
  "ades": 3748, 
  "coherent": 3749, 
  "lay": 3750, 
  "1996": 3751, 
  "instance": 3752, 
  "17@@": 3753, 
  "silence": 3754, 
  "representative": 3755, 
  "trials": 3756, 
  "facto": 3757, 
  "undermining": 3758, 
  "difficulty": 3759, 
  "bill": 3760, 
  "shifted": 3761, 
  "generous": 3762, 
  "contemporary": 3763, 
  "richer": 3764, 
  "Baghdad": 3765, 
  "intentions": 3766, 
  "strikes": 3767, 
  "propaganda": 3768, 
  "reg@@": 3769, 
  "writing": 3770, 
  "sphere": 3771, 
  "prof@@": 3772, 
  "il": 3773, 
  "ban@@": 3774, 
  "situations": 3775, 
  "DPJ": 3776, 
  "looming": 3777, 
  "adopting": 3778, 
  "expenditure": 3779, 
  "ass": 3780, 
  "state-@@": 3781, 
  "Catholic": 3782, 
  "ath@@": 3783, 
  "-LSB-": 3784, 
  "documents": 3785, 
  "poses": 3786, 
  "dark": 3787, 
  "ste@@": 3788, 
  "owed": 3789, 
  "ping": 3790, 
  "-RSB-": 3791, 
  "Gu@@": 3792, 
  "defending": 3793, 
  "two-thirds": 3794, 
  "shaped": 3795, 
  "procedures": 3796, 
  "Department": 3797, 
  "north": 3798, 
  "assessment": 3799, 
  "ah": 3800, 
  "unfair": 3801, 
  "ile": 3802, 
  "undermined": 3803, 
  "features": 3804, 
  "character": 3805, 
  "Africans": 3806, 
  "White": 3807, 
  "Belarus": 3808, 
  "defeated": 3809, 
  "counter": 3810, 
  "turns": 3811, 
  "appointed": 3812, 
  "improvements": 3813, 
  "nowhere": 3814, 
  "atic": 3815, 
  "vis@@": 3816, 
  "leg@@": 3817, 
  "shifting": 3818, 
  "philosophy": 3819, 
  "Rome": 3820, 
  "Spring": 3821, 
  "unacceptable": 3822, 
  "socialism": 3823, 
  "Israeli-Palestinian": 3824, 
  "liberals": 3825, 
  "ms": 3826, 
  "visited": 3827, 
  "explained": 3828, 
  "respected": 3829, 
  "Indians": 3830, 
  "solid": 3831, 
  "functions": 3832, 
  "ges": 3833, 
  "implementation": 3834, 
  "Justice": 3835, 
  "patterns": 3836, 
  "ity-@@": 3837, 
  "kes": 3838, 
  "unknown": 3839, 
  "founded": 3840, 
  "conf@@": 3841, 
  "ology": 3842, 
  "convince": 3843, 
  "dilemma": 3844, 
  "la": 3845, 
  "Su@@": 3846, 
  "desperate": 3847, 
  "signal": 3848, 
  "experiencing": 3849, 
  "eliminated": 3850, 
  "Le@@": 3851, 
  "1992": 3852, 
  "guide": 3853, 
  "deserve": 3854, 
  "log@@": 3855, 
  "peak": 3856, 
  "ational": 3857, 
  "ideal": 3858, 
  "forests": 3859, 
  "ain@@": 3860, 
  "criticized": 3861, 
  "tly": 3862, 
  "receiving": 3863, 
  "chain": 3864, 
  "constructive": 3865, 
  "missing": 3866, 
  "denied": 3867, 
  "Kenya": 3868, 
  "perform": 3869, 
  "noted": 3870, 
  "contained": 3871, 
  "weaknesses": 3872, 
  "reductions": 3873, 
  "connected": 3874, 
  "relationships": 3875, 
  "300": 3876, 
  "provisions": 3877, 
  "interest-rate": 3878, 
  "Human": 3879, 
  "competing": 3880, 
  "counter-@@": 3881, 
  "severely": 3882, 
  "night": 3883, 
  "struck": 3884, 
  "enabled": 3885, 
  "Lisbon": 3886, 
  "achievements": 3887, 
  "nineteenth": 3888, 
  "worrying": 3889, 
  "neighbor": 3890, 
  "mounting": 3891, 
  "regular": 3892, 
  "foreigners": 3893, 
  "grows": 3894, 
  "volatile": 3895, 
  "prior": 3896, 
  "spoke": 3897, 
  "ack": 3898, 
  "striking": 3899, 
  "logical": 3900, 
  "Web": 3901, 
  "predictable": 3902, 
  "younger": 3903, 
  "AKP": 3904, 
  "charged": 3905, 
  "alliances": 3906, 
  "shot": 3907, 
  "taxation": 3908, 
  "transfers": 3909, 
  "sustainability": 3910, 
  "condemned": 3911, 
  "twenty": 3912, 
  "owners": 3913, 
  "ancy": 3914, 
  "friend": 3915, 
  "fo@@": 3916, 
  "commentators": 3917, 
  "traditionally": 3918, 
  "owned": 3919, 
  "half-@@": 3920, 
  "blow": 3921, 
  "De@@": 3922, 
  "ironically": 3923, 
  "creative": 3924, 
  "tends": 3925, 
  "ve@@": 3926, 
  "Ex@@": 3927, 
  "boundaries": 3928, 
  "player": 3929, 
  "DNA": 3930, 
  "firmly": 3931, 
  "entering": 3932, 
  "roads": 3933, 
  "comp@@": 3934, 
  "cer@@": 3935, 
  "bureaucrats": 3936, 
  "toxic": 3937, 
  "cas@@": 3938, 
  "resolving": 3939, 
  "ances": 3940, 
  "wr@@": 3941, 
  "governed": 3942, 
  "returning": 3943, 
  "pol@@": 3944, 
  "euro-zone": 3945, 
  "wor@@": 3946, 
  "bailouts": 3947, 
  "rating": 3948, 
  "Administration": 3949, 
  "depreciation": 3950, 
  "considerations": 3951, 
  "tendency": 3952, 
  "follows": 3953, 
  "bid": 3954, 
  "fu@@": 3955, 
  "sudden": 3956, 
  "uni@@": 3957, 
  "worthy": 3958, 
  "oning": 3959, 
  "regularly": 3960, 
  "land@@": 3961, 
  "commodities": 3962, 
  "embraced": 3963, 
  "Energy": 3964, 
  "Kuchma": 3965, 
  "burdens": 3966, 
  "exploit": 3967, 
  "obtain": 3968, 
  "Gorbachev": 3969, 
  "hard-@@": 3970, 
  "stick": 3971, 
  "cu@@": 3972, 
  "controversial": 3973, 
  "insurgency": 3974, 
  "gradual": 3975, 
  "arguing": 3976, 
  "contr@@": 3977, 
  "differently": 3978, 
  "outlook": 3979, 
  "bar@@": 3980, 
  "indigenous": 3981, 
  "devaluation": 3982, 
  "vicious": 3983, 
  "dynamism": 3984, 
  "sit": 3985, 
  "innovations": 3986, 
  "reliance": 3987, 
  "article": 3988, 
  "antly": 3989, 
  "Par@@": 3990, 
  "understands": 3991, 
  "obstacle": 3992, 
  "vers": 3993, 
  "Schröder": 3994, 
  "decent": 3995, 
  "ore": 3996, 
  "engine": 3997, 
  "Gaulle": 3998, 
  "promoted": 3999, 
  "rage": 4000, 
  "1990s": 4001, 
  "claiming": 4002, 
  "confident": 4003, 
  "demise": 4004, 
  "As": 4005, 
  "reinforced": 4006, 
  "speculative": 4007, 
  "Angela": 4008, 
  "declines": 4009, 
  "enhanced": 4010, 
  "whenever": 4011, 
  "tasks": 4012, 
  "breakthrough": 4013, 
  "tied": 4014, 
  "provision": 4015, 
  "serves": 4016, 
  "informal": 4017, 
  "director": 4018, 
  "orders": 4019, 
  "accident": 4020, 
  "damaging": 4021, 
  "Uribe": 4022, 
  "plausible": 4023, 
  "involves": 4024, 
  "evident": 4025, 
  "absent": 4026, 
  "fashion": 4027, 
  "year-old": 4028, 
  "trigger": 4029, 
  "midst": 4030, 
  "meltdown": 4031, 
  "renewable": 4032, 
  "undertaken": 4033, 
  "map": 4034, 
  "uranium": 4035, 
  "des@@": 4036, 
  "surrounding": 4037, 
  "statistics": 4038, 
  "factions": 4039, 
  "ath": 4040, 
  "gender": 4041, 
  "iled": 4042, 
  "normally": 4043, 
  "Microsoft": 4044, 
  "recall": 4045, 
  "serving": 4046, 
  "tur@@": 4047, 
  "1945": 4048, 
  "Harvard": 4049, 
  "mood": 4050, 
  "Abdullah": 4051, 
  "software": 4052, 
  "0-@@": 4053, 
  "employers": 4054, 
  "desirable": 4055, 
  "Castro": 4056, 
  "shadow": 4057, 
  "sha@@": 4058, 
  "actively": 4059, 
  "animal": 4060, 
  "distinct": 4061, 
  "impoverished": 4062, 
  "tively": 4063, 
  "que": 4064, 
  "committee": 4065, 
  "15@@": 4066, 
  "site": 4067, 
  "appreciate": 4068, 
  "eventual": 4069, 
  "Ghana": 4070, 
  "ess@@": 4071, 
  "mil@@": 4072, 
  "fied": 4073, 
  "selection": 4074, 
  "ire": 4075, 
  "informed": 4076, 
  "enrichment": 4077, 
  "freely": 4078, 
  "Agency": 4079, 
  "typical": 4080, 
  "consideration": 4081, 
  "soaring": 4082, 
  "nine": 4083, 
  "struggling": 4084, 
  "Cairo": 4085, 
  "aff@@": 4086, 
  "blind": 4087, 
  "cast": 4088, 
  "Mr.": 4089, 
  "destructive": 4090, 
  "silent": 4091, 
  "Convention": 4092, 
  "persistent": 4093, 
  "tional": 4094, 
  "Socialist": 4095, 
  "likelihood": 4096, 
  "arise": 4097, 
  "storm": 4098, 
  "worries": 4099, 
  "ders": 4100, 
  "lim@@": 4101, 
  "23": 4102, 
  "deregulation": 4103, 
  "thinks": 4104, 
  "govern": 4105, 
  "lands": 4106, 
  "cap@@": 4107, 
  "private-sector": 4108, 
  "introduce": 4109, 
  "quest": 4110, 
  "lowest": 4111, 
  "scene": 4112, 
  "quantitative": 4113, 
  "multiple": 4114, 
  "assuming": 4115, 
  "ver": 4116, 
  "generating": 4117, 
  "Prize": 4118, 
  "keeps": 4119, 
  "ear@@": 4120, 
  "bridge": 4121, 
  "EMU": 4122, 
  "favorable": 4123, 
  "tered": 4124, 
  "mobilize": 4125, 
  "8@@": 4126, 
  "lend": 4127, 
  "integrate": 4128, 
  "conclude": 4129, 
  "considering": 4130, 
  "fill": 4131, 
  "girls": 4132, 
  "ill-@@": 4133, 
  "bled": 4134, 
  "unpopular": 4135, 
  "ani": 4136, 
  "reversed": 4137, 
  "hom@@": 4138, 
  "bling": 4139, 
  "drawing": 4140, 
  "sight": 4141, 
  "duty": 4142, 
  "inter-@@": 4143, 
  "farm": 4144, 
  "euros": 4145, 
  "terrible": 4146, 
  "doomed": 4147, 
  "fine": 4148, 
  "Philippines": 4149, 
  "immense": 4150, 
  "taught": 4151, 
  "hu@@": 4152, 
  "Chen": 4153, 
  "ex-@@": 4154, 
  "Third": 4155, 
  "Pope": 4156, 
  "magnitude": 4157, 
  "morality": 4158, 
  "spreading": 4159, 
  "applies": 4160, 
  "extensive": 4161, 
  "ra": 4162, 
  "sec@@": 4163, 
  "Assad": 4164, 
  "convergence": 4165, 
  "re": 4166, 
  "Asians": 4167, 
  "error": 4168, 
  "bul@@": 4169, 
  "Caucasus": 4170, 
  "passing": 4171, 
  "supports": 4172, 
  "tiny": 4173, 
  "ental": 4174, 
  "postcommunist": 4175, 
  "virtual": 4176, 
  "irrational": 4177, 
  "ranks": 4178, 
  "stabilization": 4179, 
  "earn": 4180, 
  "survey": 4181, 
  "minor": 4182, 
  "ordered": 4183, 
  "M": 4184, 
  "motivated": 4185, 
  "can@@": 4186, 
  "bre@@": 4187, 
  "uc@@": 4188, 
  "por@@": 4189, 
  "binding": 4190, 
  "purchase": 4191, 
  "al-Qaeda": 4192, 
  "troubled": 4193, 
  "defining": 4194, 
  "proof": 4195, 
  "acknowledged": 4196, 
  "0@@": 4197, 
  "dire": 4198, 
  "constrained": 4199, 
  "everybody": 4200, 
  "fold": 4201, 
  "ane": 4202, 
  "Earth": 4203, 
  "sting": 4204, 
  "Romney": 4205, 
  "sub-prime": 4206, 
  "begins": 4207, 
  "2015": 4208, 
  "produces": 4209, 
  "balances": 4210, 
  "raw": 4211, 
  "bitter": 4212, 
  "offensive": 4213, 
  "Chechnya": 4214, 
  "aud@@": 4215, 
  "fac@@": 4216, 
  "counterparts": 4217, 
  "memories": 4218, 
  "convincing": 4219, 
  "i.e.": 4220, 
  "content": 4221, 
  "witnessed": 4222, 
  "form@@": 4223, 
  "deterrence": 4224, 
  "emotional": 4225, 
  "Madrid": 4226, 
  "Belgium": 4227, 
  "gra@@": 4228, 
  "post": 4229, 
  "kers": 4230, 
  "feelings": 4231, 
  "hum@@": 4232, 
  "He@@": 4233, 
  "hatred": 4234, 
  "revive": 4235, 
  "exposure": 4236, 
  "displaced": 4237, 
  "imported": 4238, 
  "details": 4239, 
  "telling": 4240, 
  "futures": 4241, 
  "oriented": 4242, 
  "connection": 4243, 
  "male": 4244, 
  "periods": 4245, 
  "ency": 4246, 
  "surprised": 4247, 
  "Community": 4248, 
  "longer-term": 4249, 
  "weather": 4250, 
  "film": 4251, 
  "feed": 4252, 
  "Kurds": 4253, 
  "tariffs": 4254, 
  "method": 4255, 
  "arch@@": 4256, 
  "populism": 4257, 
  "background": 4258, 
  "sub-Saharan": 4259, 
  "estimate": 4260, 
  "sole": 4261, 
  "sake": 4262, 
  "investor": 4263, 
  "O": 4264, 
  "ann@@": 4265, 
  "Gazprom": 4266, 
  "student": 4267, 
  "Policy": 4268, 
  "dozens": 4269, 
  "settle": 4270, 
  "investigation": 4271, 
  "ef@@": 4272, 
  "-based": 4273, 
  "strongest": 4274, 
  "nu@@": 4275, 
  "ured": 4276, 
  "pointed": 4277, 
  "representing": 4278, 
  "hy@@": 4279, 
  "ni@@": 4280, 
  "lam@@": 4281, 
  "engineers": 4282, 
  "desperately": 4283, 
  "starts": 4284, 
  "existed": 4285, 
  "precedent": 4286, 
  "excluded": 4287, 
  "sel@@": 4288, 
  "Shanghai": 4289, 
  "lowering": 4290, 
  "fix": 4291, 
  "outs": 4292, 
  "1.5": 4293, 
  "cul@@": 4294, 
  "Agreement": 4295, 
  "veto": 4296, 
  "Obasanjo": 4297, 
  "insul@@": 4298, 
  "repeat": 4299, 
  "under-@@": 4300, 
  "patient": 4301, 
  "don@@": 4302, 
  "eng@@": 4303, 
  "Conference": 4304, 
  "che@@": 4305, 
  "persuade": 4306, 
  "targeting": 4307, 
  "ta": 4308, 
  "Tokyo": 4309, 
  "sadly": 4310, 
  "loyalty": 4311, 
  "prevail": 4312, 
  "solved": 4313, 
  "alongside": 4314, 
  "200@@": 4315, 
  "concessions": 4316, 
  "medium": 4317, 
  "wa@@": 4318, 
  "biological": 4319, 
  "disorder": 4320, 
  "lenders": 4321, 
  "near-@@": 4322, 
  "nominal": 4323, 
  "theories": 4324, 
  "index": 4325, 
  "hostility": 4326, 
  "recognizes": 4327, 
  "oll@@": 4328, 
  "cope": 4329, 
  "deepening": 4330, 
  "restored": 4331, 
  "skilled": 4332, 
  "professionals": 4333, 
  "beings": 4334, 
  "En@@": 4335, 
  "disappeared": 4336, 
  "tragic": 4337, 
  "conviction": 4338, 
  "traders": 4339, 
  "parliaments": 4340, 
  "oper@@": 4341, 
  "choosing": 4342, 
  "restoring": 4343, 
  "compelling": 4344, 
  "signals": 4345, 
  "downward": 4346, 
  "rever@@": 4347, 
  "beliefs": 4348, 
  "proud": 4349, 
  "confined": 4350, 
  "winners": 4351, 
  "ease": 4352, 
  "controlling": 4353, 
  "solely": 4354, 
  "uring": 4355, 
  "Brazilian": 4356, 
  "pen@@": 4357, 
  "globalized": 4358, 
  "schemes": 4359, 
  "outright": 4360, 
  "criminals": 4361, 
  "essence": 4362, 
  "strange": 4363, 
  "2020": 4364, 
  "peacekeeping": 4365, 
  "cheaper": 4366, 
  "plus": 4367, 
  "fired": 4368, 
  "public-@@": 4369, 
  "sal@@": 4370, 
  "st": 4371, 
  "foreign-policy": 4372, 
  "break@@": 4373, 
  "combine": 4374, 
  "ell@@": 4375, 
  "mat@@": 4376, 
  "safer": 4377, 
  "ext@@": 4378, 
  "aling": 4379, 
  "Olympic": 4380, 
  "assault": 4381, 
  "diminished": 4382, 
  "ap": 4383, 
  "accurate": 4384, 
  "eliminating": 4385, 
  "tension": 4386, 
  "Mugabe": 4387, 
  "forest": 4388, 
  "advocate": 4389, 
  "holders": 4390, 
  "succession": 4391, 
  "route": 4392, 
  "Thai": 4393, 
  "rep@@": 4394, 
  "in-@@": 4395, 
  "ished": 4396, 
  "destroying": 4397, 
  "limiting": 4398, 
  "declare": 4399, 
  "capture": 4400, 
  "dynamics": 4401, 
  "interpretation": 4402, 
  "psychological": 4403, 
  "solar": 4404, 
  "illness": 4405, 
  "grasp": 4406, 
  "eager": 4407, 
  "This": 4408, 
  "hol@@": 4409, 
  "entitled": 4410, 
  "Switzerland": 4411, 
  "atively": 4412, 
  "16@@": 4413, 
  "unified": 4414, 
  "mobile": 4415, 
  "denial": 4416, 
  "poorly": 4417, 
  "non@@": 4418, 
  "tion@@": 4419, 
  "sky": 4420, 
  "adoption": 4421, 
  "vacuum": 4422, 
  "calculations": 4423, 
  "1.@@": 4424, 
  "regulated": 4425, 
  "sending": 4426, 
  "Church": 4427, 
  "vulnerability": 4428, 
  "disasters": 4429, 
  "ight": 4430, 
  "Solidarity": 4431, 
  "work@@": 4432, 
  "offset": 4433, 
  "founding": 4434, 
  "accepting": 4435, 
  "far-reaching": 4436, 
  "forcing": 4437, 
  "furthermore": 4438, 
  "Bo@@": 4439, 
  "contributing": 4440, 
  "Charles": 4441, 
  "ame": 4442, 
  "foreseeable": 4443, 
  "explosion": 4444, 
  "th-@@": 4445, 
  "mortality": 4446, 
  "racial": 4447, 
  "wind": 4448, 
  "ring": 4449, 
  "camps": 4450, 
  "capability": 4451, 
  "free-trade": 4452, 
  "tide": 4453, 
  "biology": 4454, 
  "ballot": 4455, 
  "Car@@": 4456, 
  "ranging": 4457, 
  "anywhere": 4458, 
  "Gates": 4459, 
  "purely": 4460, 
  "completed": 4461, 
  "harsh": 4462, 
  "predecessor": 4463, 
  "bur@@": 4464, 
  "squ@@": 4465, 
  "note": 4466, 
  "5-@@": 4467, 
  "fulfill": 4468, 
  "insecurity": 4469, 
  "describe": 4470, 
  "tri@@": 4471, 
  "determination": 4472, 
  "ten@@": 4473, 
  "pipeline": 4474, 
  "ure": 4475, 
  "liberation": 4476, 
  "dimension": 4477, 
  "reinforce": 4478, 
  "inc@@": 4479, 
  "timing": 4480, 
  "poised": 4481, 
  "fairness": 4482, 
  "ets": 4483, 
  "distributed": 4484, 
  "broke": 4485, 
  "tically": 4486, 
  "k-@@": 4487, 
  "competitors": 4488, 
  "trained": 4489, 
  "ib@@": 4490, 
  "shifts": 4491, 
  "diplomats": 4492, 
  "loan": 4493, 
  "Serbian": 4494, 
  "stabilizing": 4495, 
  "testing": 4496, 
  "confronting": 4497, 
  "manipulation": 4498, 
  "reduces": 4499, 
  "invited": 4500, 
  "favored": 4501, 
  "sto@@": 4502, 
  "ineffective": 4503, 
  "projected": 4504, 
  "conc@@": 4505, 
  "implied": 4506, 
  "characterized": 4507, 
  "doubled": 4508, 
  "ishes": 4509, 
  "paradox": 4510, 
  "containment": 4511, 
  "soared": 4512, 
  "Cup": 4513, 
  "underground": 4514, 
  "seat": 4515, 
  "symbol": 4516, 
  "gross": 4517, 
  "aged": 4518, 
  "tomorrow": 4519, 
  "Mikhail": 4520, 
  "ya": 4521, 
  "anxiety": 4522, 
  "guilty": 4523, 
  "transnational": 4524, 
  "villages": 4525, 
  "arrived": 4526, 
  "watching": 4527, 
  "games": 4528, 
  "tsunami": 4529, 
  "survived": 4530, 
  "pun@@": 4531, 
  "purchasing": 4532, 
  "knowing": 4533, 
  "demonstrates": 4534, 
  "steel": 4535, 
  "suspect": 4536, 
  "unite": 4537, 
  "scenarios": 4538, 
  "foster": 4539, 
  "secondary": 4540, 
  "impression": 4541, 
  "GNP": 4542, 
  "locked": 4543, 
  "Sri": 4544, 
  "Baltic": 4545, 
  "short@@": 4546, 
  "code": 4547, 
  "mod@@": 4548, 
  "What": 4549, 
  "behave": 4550, 
  "enjoyed": 4551, 
  "association": 4552, 
  "Leader": 4553, 
  "half-century": 4554, 
  "keen": 4555, 
  "formula": 4556, 
  "steady": 4557, 
  "alleged": 4558, 
  "explicitly": 4559, 
  "dismissed": 4560, 
  "followers": 4561, 
  "box": 4562, 
  "customers": 4563, 
  "pollution": 4564, 
  "discourse": 4565, 
  "captured": 4566, 
  "dying": 4567, 
  "tro@@": 4568, 
  "reference": 4569, 
  "stems": 4570, 
  "commission": 4571, 
  "prevailing": 4572, 
  "dropped": 4573, 
  "occurs": 4574, 
  "undertake": 4575, 
  "sectarian": 4576, 
  "Un@@": 4577, 
  "shut": 4578, 
  "seized": 4579, 
  "narrative": 4580, 
  "Brothers": 4581, 
  "performed": 4582, 
  "residents": 4583, 
  "sum": 4584, 
  "emerges": 4585, 
  "countless": 4586, 
  "Millennium": 4587, 
  "makers": 4588, 
  "cooperative": 4589, 
  "winner": 4590, 
  "introduction": 4591, 
  "named": 4592, 
  "split": 4593, 
  "ign@@": 4594, 
  "ong": 4595, 
  "exclusively": 4596, 
  "facilitate": 4597, 
  "waves": 4598, 
  "guard": 4599, 
  "revival": 4600, 
  "check": 4601, 
  "free-market": 4602, 
  "Peru": 4603, 
  "ill@@": 4604, 
  "ju@@": 4605, 
  "formation": 4606, 
  "reporting": 4607, 
  "1979": 4608, 
  "law@@": 4609, 
  "pe": 4610, 
  "thr@@": 4611, 
  "Co@@": 4612, 
  "Royal": 4613, 
  "accelerate": 4614, 
  "qualified": 4615, 
  "handed": 4616, 
  "physics": 4617, 
  "tim@@": 4618, 
  "bet": 4619, 
  "piece": 4620, 
  "skepticism": 4621, 
  "ward": 4622, 
  "r": 4623, 
  "cabinet": 4624, 
  "ank": 4625, 
  "Somalia": 4626, 
  "brief": 4627, 
  "suffers": 4628, 
  "adding": 4629, 
  "province": 4630, 
  "fur@@": 4631, 
  "itation": 4632, 
  "Yushchenko": 4633, 
  "Prague": 4634, 
  "feature": 4635, 
  "fil@@": 4636, 
  "disappear": 4637, 
  "bloc": 4638, 
  "request": 4639, 
  "-led": 4640, 
  "blocked": 4641, 
  "peasants": 4642, 
  "Qu@@": 4643, 
  "arguably": 4644, 
  "explicit": 4645, 
  "slower": 4646, 
  "awareness": 4647, 
  "coverage": 4648, 
  "ination": 4649, 
  "Di@@": 4650, 
  "namely": 4651, 
  "stat@@": 4652, 
  "permit": 4653, 
  "gene": 4654, 
  "ums": 4655, 
  "flight": 4656, 
  "concentration": 4657, 
  "preparing": 4658, 
  "confirmed": 4659, 
  "secured": 4660, 
  "plenty": 4661, 
  "punished": 4662, 
  "skeptics": 4663, 
  "ff@@": 4664, 
  "150": 4665, 
  "assess": 4666, 
  "representation": 4667, 
  "hurt": 4668, 
  "ina": 4669, 
  "ase": 4670, 
  "interference": 4671, 
  "employed": 4672, 
  "exporters": 4673, 
  "reformers": 4674, 
  "dictators": 4675, 
  "ast": 4676, 
  "When": 4677, 
  "Ad@@": 4678, 
  "voluntary": 4679, 
  "potent": 4680, 
  "consul@@": 4681, 
  "fed": 4682, 
  "famously": 4683, 
  "government-@@": 4684, 
  "bombs": 4685, 
  "yed": 4686, 
  "ony": 4687, 
  "redistribution": 4688, 
  "warfare": 4689, 
  "ners": 4690, 
  "rebuild": 4691, 
  "ratings": 4692, 
  "Ukrainians": 4693, 
  "filled": 4694, 
  "misguided": 4695, 
  "Chicago": 4696, 
  "second-@@": 4697, 
  "mix": 4698, 
  "Ne@@": 4699, 
  "lin@@": 4700, 
  "outsiders": 4701, 
  "complexity": 4702, 
  "to-@@": 4703, 
  "poll": 4704, 
  "neighborhood": 4705, 
  "experiment": 4706, 
  "architecture": 4707, 
  "approximately": 4708, 
  "Rwanda": 4709, 
  "adverse": 4710, 
  "Col@@": 4711, 
  "equilibrium": 4712, 
  "cautious": 4713, 
  "catch": 4714, 
  "fighters": 4715, 
  "chronic": 4716, 
  "ots": 4717, 
  "ed-@@": 4718, 
  "distance": 4719, 
  "tors": 4720, 
  "buildings": 4721, 
  "rampant": 4722, 
  "customs": 4723, 
  "enduring": 4724, 
  "steadily": 4725, 
  "ol": 4726, 
  "our@@": 4727, 
  "remove": 4728, 
  "PLO": 4729, 
  "myth": 4730, 
  "attempted": 4731, 
  "Ecuador": 4732, 
  "ther@@": 4733, 
  "fraud": 4734, 
  "cold": 4735, 
  "burst": 4736, 
  "encies": 4737, 
  "of@@": 4738, 
  "losers": 4739, 
  "SCO": 4740, 
  "professor": 4741, 
  "sheer": 4742, 
  "liabilities": 4743, 
  "irrelevant": 4744, 
  "frustration": 4745, 
  "1993": 4746, 
  "violations": 4747, 
  "judged": 4748, 
  "Me@@": 4749, 
  "Ma@@": 4750, 
  "proclaimed": 4751, 
  "acy": 4752, 
  "frequent": 4753, 
  "names": 4754, 
  "Annan": 4755, 
  "ills": 4756, 
  "channels": 4757, 
  "forecast": 4758, 
  "pull": 4759, 
  "formidable": 4760, 
  "ids": 4761, 
  "health-care": 4762, 
  "Communists": 4763, 
  "Sunnis": 4764, 
  "originally": 4765, 
  "Hatoyama": 4766, 
  "opposing": 4767, 
  "Warsaw": 4768, 
  "decisively": 4769, 
  "tightening": 4770, 
  "specifically": 4771, 
  "ther": 4772, 
  "Man@@": 4773, 
  "grade": 4774, 
  "practically": 4775, 
  "town": 4776, 
  "Trichet": 4777, 
  "marginal": 4778, 
  "regulate": 4779, 
  "2050": 4780, 
  "connections": 4781, 
  "tolerate": 4782, 
  "anc@@": 4783, 
  "constantly": 4784, 
  "funded": 4785, 
  "well-being": 4786, 
  "Forum": 4787, 
  "seize": 4788, 
  "col@@": 4789, 
  "Center": 4790, 
  "assumption": 4791, 
  "den@@": 4792, 
  "miracle": 4793, 
  "City": 4794, 
  "unit": 4795, 
  "26": 4796, 
  "budgetary": 4797, 
  "decrease": 4798, 
  "cohesion": 4799, 
  "audience": 4800, 
  "iness": 4801, 
  "brink": 4802, 
  "Institute": 4803, 
  "remarkably": 4804, 
  "versus": 4805, 
  "le-@@": 4806, 
  "ires": 4807, 
  "wishes": 4808, 
  "challenged": 4809, 
  "Chechen": 4810, 
  "overnight": 4811, 
  "ample": 4812, 
  "machine": 4813, 
  "beneficial": 4814, 
  "bias": 4815, 
  "prolonged": 4816, 
  "treaties": 4817, 
  "chairman": 4818, 
  "ashed": 4819, 
  "Chernobyl": 4820, 
  "ret@@": 4821, 
  "notice": 4822, 
  "IC@@": 4823, 
  "pain@@": 4824, 
  "bor@@": 4825, 
  "peacefully": 4826, 
  "risen": 4827, 
  "tells": 4828, 
  "resentment": 4829, 
  "career": 4830, 
  "acquire": 4831, 
  "suit": 4832, 
  "extension": 4833, 
  "ball": 4834, 
  "complain": 4835, 
  "recessions": 4836, 
  "illusion": 4837, 
  "exclusion": 4838, 
  "altogether": 4839, 
  "ick@@": 4840, 
  "U.S.": 4841, 
  "Khrushchev": 4842, 
  "Yanukovich": 4843, 
  "origin": 4844, 
  "ys@@": 4845, 
  "wise": 4846, 
  "undermines": 4847, 
  "clash": 4848, 
  "chemical": 4849, 
  "Kazakhstan": 4850, 
  "dealt": 4851, 
  "trap": 4852, 
  "perfectly": 4853, 
  "occasion": 4854, 
  "diagnosis": 4855, 
  "pensions": 4856, 
  "freedoms": 4857, 
  "affair": 4858, 
  "affecting": 4859, 
  "anticipated": 4860, 
  "deposits": 4861, 
  "Kurdish": 4862, 
  "alistic": 4863, 
  "scandals": 4864, 
  "odds": 4865, 
  "extremist": 4866, 
  "Google": 4867, 
  "scarce": 4868, 
  "ber": 4869, 
  "carrying": 4870, 
  "stations": 4871, 
  "Q@@": 4872, 
  "assassination": 4873, 
  "ka": 4874, 
  "deemed": 4875, 
  "cra@@": 4876, 
  "Nuclear": 4877, 
  "agents": 4878, 
  "arises": 4879, 
  "bio@@": 4880, 
  "closing": 4881, 
  "first-@@": 4882, 
  "dubious": 4883, 
  "deserves": 4884, 
  "cyclical": 4885, 
  "welcomed": 4886, 
  "low@@": 4887, 
  "entr@@": 4888, 
  "ung": 4889, 
  "ute": 4890, 
  "angry": 4891, 
  "spoken": 4892, 
  "departure": 4893, 
  "cooperate": 4894, 
  "nation@@": 4895, 
  "bought": 4896, 
  "margin": 4897, 
  "indifference": 4898, 
  "Government": 4899, 
  "inaction": 4900, 
  "borrowers": 4901, 
  "head@@": 4902, 
  "epidemic": 4903, 
  "eg@@": 4904, 
  "Osama": 4905, 
  "mess": 4906, 
  "vested": 4907, 
  "ok": 4908, 
  "sad": 4909, 
  "prevention": 4910, 
  "ved": 4911, 
  "bases": 4912, 
  "implicit": 4913, 
  "alter": 4914, 
  "Ban": 4915, 
  "partial": 4916, 
  "overseas": 4917, 
  "lacking": 4918, 
  "21": 4919, 
  "calm": 4920, 
  "optimistic": 4921, 
  "Declaration": 4922, 
  "Saudis": 4923, 
  "199@@": 4924, 
  "q@@": 4925, 
  "orientation": 4926, 
  "entrenched": 4927, 
  "pu@@": 4928, 
  "contagion": 4929, 
  "hide": 4930, 
  "sign@@": 4931, 
  "application": 4932, 
  "and-@@": 4933, 
  "differ": 4934, 
  "enforce": 4935, 
  "symbolic": 4936, 
  "laid": 4937, 
  "Chief": 4938, 
  "virus": 4939, 
  "emphasized": 4940, 
  "observed": 4941, 
  "Olympics": 4942, 
  "ose": 4943, 
  "ide@@": 4944, 
  "fraction": 4945, 
  "unnecessary": 4946, 
  "ate@@": 4947, 
  "totalitarian": 4948, 
  "devoted": 4949, 
  "crop": 4950, 
  "officially": 4951, 
  "-year": 4952, 
  "expert": 4953, 
  "boosting": 4954, 
  "roles": 4955, 
  "units": 4956, 
  "Olmert": 4957, 
  "ashing": 4958, 
  "Health": 4959, 
  "é@@": 4960, 
  "reading": 4961, 
  "dic@@": 4962, 
  "10@@": 4963, 
  "FARC": 4964, 
  "despair": 4965, 
  "ese": 4966, 
  "retreat": 4967, 
  "presents": 4968, 
  "online": 4969, 
  "obligation": 4970, 
  "three-@@": 4971, 
  "volume": 4972, 
  "top@@": 4973, 
  "takeover": 4974, 
  "favorite": 4975, 
  "inclusion": 4976, 
  "intensive": 4977, 
  "ily": 4978, 
  "arrangement": 4979, 
  "conservation": 4980, 
  "ris@@": 4981, 
  "ming": 4982, 
  "enthusiasm": 4983, 
  "globe": 4984, 
  "profitable": 4985, 
  "ideals": 4986, 
  "stark": 4987, 
  "determining": 4988, 
  "sports": 4989, 
  "Association": 4990, 
  "exceed": 4991, 
  "overwhelmingly": 4992, 
  "paralysis": 4993, 
  "incapable": 4994, 
  "Geneva": 4995, 
  "neglect": 4996, 
  "ric@@": 4997, 
  "impunity": 4998, 
  "democrats": 4999, 
  "liberalism": 5000, 
  "ee": 5001, 
  "ner": 5002, 
  "constitutes": 5003, 
  "Ben": 5004, 
  "classical": 5005, 
  "rice": 5006, 
  "speci@@": 5007, 
  "studied": 5008, 
  "announcement": 5009, 
  "1,000": 5010, 
  "thrown": 5011, 
  "reward": 5012, 
  "campaigns": 5013, 
  "tremendous": 5014, 
  "motives": 5015, 
  "Koreans": 5016, 
  "industrialized": 5017, 
  "izes": 5018, 
  "Fr@@": 5019, 
  "Kashmir": 5020, 
  "debt-@@": 5021, 
  "Euro@@": 5022, 
  "Charter": 5023, 
  "farming": 5024, 
  "tical": 5025, 
  "suppose": 5026, 
  "exceptions": 5027, 
  "skeptical": 5028, 
  "foot@@": 5029, 
  "fore@@": 5030, 
  "solving": 5031, 
  "rivals": 5032, 
  "If": 5033, 
  "wins": 5034, 
  "crops": 5035, 
  "accomplish": 5036, 
  "window": 5037, 
  "executives": 5038, 
  "citizen": 5039, 
  "assist": 5040, 
  "heading": 5041, 
  "teachers": 5042, 
  "deb@@": 5043, 
  "Morocco": 5044, 
  "rigid": 5045, 
  "object": 5046, 
  "requiring": 5047, 
  "Day": 5048, 
  "forecasts": 5049, 
  "Si@@": 5050, 
  "parity": 5051, 
  "Nor@@": 5052, 
  "civilized": 5053, 
  "ple@@": 5054, 
  "Gore": 5055, 
  "ards": 5056, 
  "0,000": 5057, 
  "irresponsible": 5058, 
  "teams": 5059, 
  "extending": 5060, 
  "stuck": 5061, 
  "aircraft": 5062, 
  "bra@@": 5063, 
  "Hillary": 5064, 
  "with@@": 5065, 
  "Swedish": 5066, 
  "Schroeder": 5067, 
  "abandoning": 5068, 
  "endorsed": 5069, 
  "packages": 5070, 
  "sti@@": 5071, 
  "traded": 5072, 
  "upper": 5073, 
  "ological": 5074, 
  "tries": 5075, 
  "camp": 5076, 
  "backlash": 5077, 
  "grand@@": 5078, 
  "ler": 5079, 
  "mus@@": 5080, 
  "broadly": 5081, 
  "USSR": 5082, 
  "totally": 5083, 
  "tanks": 5084, 
  "partnerships": 5085, 
  "assumes": 5086, 
  "massacre": 5087, 
  "run-up": 5088, 
  "masses": 5089, 
  "affordable": 5090, 
  "ide": 5091, 
  "democratically": 5092, 
  "bargain": 5093, 
  "citizenship": 5094, 
  "progressive": 5095, 
  "Article": 5096, 
  "relies": 5097, 
  "alities": 5098, 
  "besides": 5099, 
  "erupted": 5100, 
  "Ethiopia": 5101, 
  "contains": 5102, 
  "preferred": 5103, 
  "Tiananmen": 5104, 
  "genuinely": 5105, 
  "Ro@@": 5106, 
  "deputy": 5107, 
  "pal@@": 5108, 
  "foreign-exchange": 5109, 
  "pure": 5110, 
  "location": 5111, 
  "Norway": 5112, 
  "wary": 5113, 
  "Ukrainian": 5114, 
  "checks": 5115, 
  "indicators": 5116, 
  "-up": 5117, 
  "regain": 5118, 
  "ash@@": 5119, 
  "reveal": 5120, 
  "bles": 5121, 
  "destabilizing": 5122, 
  "fundamentalism": 5123, 
  "shortcomings": 5124, 
  "KGB": 5125, 
  "feet": 5126, 
  "engaging": 5127, 
  "N": 5128, 
  "star": 5129, 
  "sentiments": 5130, 
  "28": 5131, 
  "formally": 5132, 
  "responding": 5133, 
  "Games": 5134, 
  "purchases": 5135, 
  "booming": 5136, 
  "islands": 5137, 
  "tra@@": 5138, 
  "phrase": 5139, 
  "TB": 5140, 
  "Georgian": 5141, 
  "consolidate": 5142, 
  "artificial": 5143, 
  "Lehman": 5144, 
  "bing": 5145, 
  "militias": 5146, 
  "ref@@": 5147, 
  "misleading": 5148, 
  "preventive": 5149, 
  "fifth": 5150, 
  "empty": 5151, 
  "dozen": 5152, 
  "post-war": 5153, 
  "Pr@@": 5154, 
  "equipped": 5155, 
  "Green": 5156, 
  "internet": 5157, 
  "distinction": 5158, 
  "findings": 5159, 
  "Gandhi": 5160, 
  "all-@@": 5161, 
  "subjects": 5162, 
  "witness": 5163, 
  "roll": 5164, 
  "ples": 5165, 
  "Lee": 5166, 
  "propose": 5167, 
  "belong": 5168, 
  "casualties": 5169, 
  "aggression": 5170, 
  "persist": 5171, 
  "reactions": 5172, 
  "initiated": 5173, 
  "attempting": 5174, 
  "dioxide": 5175, 
  "document": 5176, 
  "discredited": 5177, 
  "freeze": 5178, 
  "Christians": 5179, 
  "semi-@@": 5180, 
  "sav@@": 5181, 
  "organize": 5182, 
  "Ber@@": 5183, 
  "east": 5184, 
  "bonuses": 5185, 
  "consent": 5186, 
  "absorb": 5187, 
  "Friedman": 5188, 
  "disintegration": 5189, 
  "indispensable": 5190, 
  "Maastricht": 5191, 
  "banned": 5192, 
  "Guantánamo": 5193, 
  "missions": 5194, 
  "evolutionary": 5195, 
  "located": 5196, 
  "Law": 5197, 
  "inclusive": 5198, 
  "unclear": 5199, 
  "automatically": 5200, 
  "l-@@": 5201, 
  "electronic": 5202, 
  "throwing": 5203, 
  "Cooperation": 5204, 
  "radio": 5205, 
  "spe@@": 5206, 
  "absurd": 5207, 
  "stri@@": 5208, 
  "cotton": 5209, 
  "classic": 5210, 
  "ust@@": 5211, 
  "Egyptians": 5212, 
  "negotiation": 5213, 
  "em": 5214, 
  "subsequently": 5215, 
  "Initiative": 5216, 
  "jo@@": 5217, 
  "pick": 5218, 
  "soccer": 5219, 
  "bail": 5220, 
  "ately": 5221, 
  "characteristics": 5222, 
  "holdings": 5223, 
  "Rumsfeld": 5224, 
  "sub-@@": 5225, 
  "securing": 5226, 
  "Duma": 5227, 
  "cha@@": 5228, 
  "militants": 5229, 
  "novel": 5230, 
  "collectively": 5231, 
  "indicates": 5232, 
  "Keynesian": 5233, 
  "port": 5234, 
  "California": 5235, 
  "enabling": 5236, 
  "shortages": 5237, 
  "adjustments": 5238, 
  "worker": 5239, 
  "star@@": 5240, 
  "Labour": 5241, 
  "exc@@": 5242, 
  "rig@@": 5243, 
  "quiet": 5244, 
  "fueling": 5245, 
  "rebels": 5246, 
  "hazard": 5247, 
  "reflection": 5248, 
  "deliberately": 5249, 
  "Abu": 5250, 
  "impe@@": 5251, 
  "censorship": 5252, 
  "Ac@@": 5253, 
  "6.@@": 5254, 
  "factories": 5255, 
  "train": 5256, 
  "iti@@": 5257, 
  "restraint": 5258, 
  "dreams": 5259, 
  "feasible": 5260, 
  "institu@@": 5261, 
  "sounds": 5262, 
  "confusion": 5263, 
  "trapped": 5264, 
  "beat": 5265, 
  "meantime": 5266, 
  "medicines": 5267, 
  "assured": 5268, 
  "excuse": 5269, 
  "inherited": 5270, 
  "ports": 5271, 
  "systematic": 5272, 
  "inner": 5273, 
  "wel@@": 5274, 
  "dictatorships": 5275, 
  "interdependence": 5276, 
  "comfortable": 5277, 
  "prevailed": 5278, 
  "react": 5279, 
  "prop@@": 5280, 
  "OSCE": 5281, 
  "Saleh": 5282, 
  "retail": 5283, 
  "Calderón": 5284, 
  "rally": 5285, 
  "contraction": 5286, 
  "derivatives": 5287, 
  "sters": 5288, 
  "forth": 5289, 
  "sou@@": 5290, 
  "intent": 5291, 
  "promotion": 5292, 
  ",000": 5293, 
  "ip@@": 5294, 
  "provoked": 5295, 
  "fication": 5296, 
  "Lanka": 5297, 
  "factory": 5298, 
  "curb": 5299, 
  "exporting": 5300, 
  "Sal@@": 5301, 
  "abilities": 5302, 
  "Hu@@": 5303, 
  "1973": 5304, 
  "ali@@": 5305, 
  "bol@@": 5306, 
  "visions": 5307, 
  "station": 5308, 
  "ach": 5309, 
  "ern@@": 5310, 
  "temptation": 5311, 
  "unification": 5312, 
  "barrel": 5313, 
  "incident": 5314, 
  "spectacular": 5315, 
  "mu@@": 5316, 
  "rap@@": 5317, 
  "brand": 5318, 
  "upcoming": 5319, 
  "elect": 5320, 
  "multinational": 5321, 
  "missed": 5322, 
  "iling": 5323, 
  "radicals": 5324, 
  "rac@@": 5325, 
  "accustomed": 5326, 
  "policymaking": 5327, 
  "distrust": 5328, 
  "mothers": 5329, 
  "spec@@": 5330, 
  "Jazeera": 5331, 
  "Orange": 5332, 
  "nationalists": 5333, 
  "affects": 5334, 
  "pervasive": 5335, 
  "believing": 5336, 
  "syn@@": 5337, 
  "throw": 5338, 
  "5.@@": 5339, 
  "unilaterally": 5340, 
  "salaries": 5341, 
  "ff": 5342, 
  "zes": 5343, 
  "kin@@": 5344, 
  "2013": 5345, 
  "Hugo": 5346, 
  "hospitals": 5347, 
  "Socialists": 5348, 
  "components": 5349, 
  "cal@@": 5350, 
  "Congo": 5351, 
  "combating": 5352, 
  "booms": 5353, 
  "utterly": 5354, 
  "accumulation": 5355, 
  "El": 5356, 
  "religions": 5357, 
  "_@@": 5358, 
  "WWII": 5359, 
  "fying": 5360, 
  "ation@@": 5361, 
  "Or@@": 5362, 
  "collaboration": 5363, 
  "degradation": 5364, 
  "insisted": 5365, 
  "high-tech": 5366, 
  "construct": 5367, 
  "invariably": 5368, 
  "forge": 5369, 
  "Sa@@": 5370, 
  "Moldova": 5371, 
  "path@@": 5372, 
  "long-run": 5373, 
  "assumptions": 5374, 
  "recovered": 5375, 
  "Act": 5376, 
  "enforced": 5377, 
  "Richard": 5378, 
  "vastly": 5379, 
  "indirect": 5380, 
  "attend": 5381, 
  "ultra-@@": 5382, 
  "homeowners": 5383, 
  "spends": 5384, 
  "mentioned": 5385, 
  "relying": 5386, 
  "infl@@": 5387, 
  "interim": 5388, 
  "cards": 5389, 
  "dissidents": 5390, 
  "ised": 5391, 
  "widening": 5392, 
  "remembered": 5393, 
  "Algeria": 5394, 
  "El@@": 5395, 
  "minimal": 5396, 
  "behalf": 5397, 
  "repressive": 5398, 
  "i-@@": 5399, 
  "master": 5400, 
  "pays": 5401, 
  "ures": 5402, 
  "card": 5403, 
  "militarily": 5404, 
  "1981": 5405, 
  "-to-@@": 5406, 
  "Ayatollah": 5407, 
  "io": 5408, 
  "emotions": 5409, 
  "revived": 5410, 
  "cynical": 5411, 
  "1-@@": 5412, 
  "minimize": 5413, 
  "single-@@": 5414, 
  "attracted": 5415, 
  "carries": 5416, 
  "ining": 5417, 
  "stone": 5418, 
  "messages": 5419, 
  "Viktor": 5420, 
  "substitute": 5421, 
  "conscious": 5422, 
  "admitted": 5423, 
  "portfolio": 5424, 
  "IPCC": 5425, 
  "compare": 5426, 
  "Her@@": 5427, 
  "favors": 5428, 
  "Koizumi": 5429, 
  "-and-@@": 5430, 
  "ster@@": 5431, 
  "controversy": 5432, 
  "oversight": 5433, 
  "Tibetan": 5434, 
  "counts": 5435, 
  "gener@@": 5436, 
  "Havel": 5437, 
  "ao": 5438, 
  "misery": 5439, 
  "rivalry": 5440, 
  "platform": 5441, 
  "Princeton": 5442, 
  "LDP": 5443, 
  "Secretary-General": 5444, 
  "row": 5445, 
  "Cambodia": 5446, 
  "Pinochet": 5447, 
  "Brotherhood": 5448, 
  "the-@@": 5449, 
  "greed": 5450, 
  "sun@@": 5451, 
  "satellite": 5452, 
  "habits": 5453, 
  "induced": 5454, 
  "celebrate": 5455, 
  "Mo@@": 5456, 
  "satisfy": 5457, 
  "Khodorkovsky": 5458, 
  "errors": 5459, 
  "non-proliferation": 5460, 
  "relevance": 5461, 
  "Turks": 5462, 
  "allocation": 5463, 
  "justification": 5464, 
  "For@@": 5465, 
  "marriage": 5466, 
  "likes": 5467, 
  "nets": 5468, 
  "settlers": 5469, 
  "approaching": 5470, 
  "domestically": 5471, 
  "examine": 5472, 
  "Premier": 5473, 
  "moderates": 5474, 
  "are@@": 5475, 
  "unpredictable": 5476, 
  "Guard": 5477, 
  "entity": 5478, 
  "ez": 5479, 
  "strict": 5480, 
  "acute": 5481, 
  "bon@@": 5482, 
  "traffic": 5483, 
  "app@@": 5484, 
  "Red": 5485, 
  "Round": 5486, 
  "bargaining": 5487, 
  "Alan": 5488, 
  "Hague": 5489, 
  "letter": 5490, 
  "predecessors": 5491, 
  "&apos;re": 5492, 
  "Nixon": 5493, 
  "life-@@": 5494, 
  "exchanges": 5495, 
  "autumn": 5496, 
  "uncertainties": 5497, 
  "discover": 5498, 
  "im": 5499, 
  "considerably": 5500, 
  "catastrophic": 5501, 
  "resignation": 5502, 
  "touch": 5503, 
  "bankrupt": 5504, 
  "Program": 5505, 
  "preserving": 5506, 
  "scholars": 5507, 
  "admittedly": 5508, 
  "2-@@": 5509, 
  "psychology": 5510, 
  "aps": 5511, 
  "dist@@": 5512, 
  "contest": 5513, 
  "scores": 5514, 
  "reflecting": 5515, 
  "burning": 5516, 
  "earned": 5517, 
  "mir@@": 5518, 
  "two-state": 5519, 
  "zz@@": 5520, 
  "remote": 5521, 
  "relied": 5522, 
  "hero": 5523, 
  "Bar@@": 5524, 
  "inflicted": 5525, 
  "eling": 5526, 
  "possibilities": 5527, 
  "pi@@": 5528, 
  "wild": 5529, 
  "restricted": 5530, 
  "Movement": 5531, 
  "ale": 5532, 
  "respects": 5533, 
  "consuming": 5534, 
  "availability": 5535, 
  "Criminal": 5536, 
  "helpful": 5537, 
  "merit": 5538, 
  "hard@@": 5539, 
  "necessity": 5540, 
  "sale": 5541, 
  "spo@@": 5542, 
  "65": 5543, 
  "mistaken": 5544, 
  "Bulgaria": 5545, 
  "Finland": 5546, 
  "Revolutionary": 5547, 
  "hor@@": 5548, 
  "arian": 5549, 
  "ski": 5550, 
  "vis-à-vis": 5551, 
  "unt@@": 5552, 
  "emb@@": 5553, 
  "speaks": 5554, 
  "slowing": 5555, 
  "There": 5556, 
  "channel": 5557, 
  "unresolved": 5558, 
  "Libyan": 5559, 
  "struggles": 5560, 
  "discovery": 5561, 
  "swing": 5562, 
  "techniques": 5563, 
  "itt@@": 5564, 
  "possess": 5565, 
  "ous@@": 5566, 
  "geo@@": 5567, 
  "dy": 5568, 
  "defensive": 5569, 
  "authoritarianism": 5570, 
  "systematically": 5571, 
  "actor": 5572, 
  "violation": 5573, 
  "vague": 5574, 
  "letting": 5575, 
  "tourism": 5576, 
  "gases": 5577, 
  "new@@": 5578, 
  "Li@@": 5579, 
  "lock": 5580, 
  "urged": 5581, 
  "ambition": 5582, 
  "shr@@": 5583, 
  "gun": 5584, 
  "bust": 5585, 
  "comfort": 5586, 
  "Argentine": 5587, 
  "personnel": 5588, 
  "20th": 5589, 
  "upward": 5590, 
  "monitor": 5591, 
  "ailing": 5592, 
  "flaws": 5593, 
  "episodes": 5594, 
  "crowd": 5595, 
  "display": 5596, 
  "music": 5597, 
  "swings": 5598, 
  "depth": 5599, 
  "hospital": 5600, 
  "Fox": 5601, 
  "accounted": 5602, 
  "listen": 5603, 
  "paradoxically": 5604, 
  "covered": 5605, 
  "statehood": 5606, 
  "wards": 5607, 
  "au": 5608, 
  "appointment": 5609, 
  "pluralism": 5610, 
  "reforming": 5611, 
  "prone": 5612, 
  "3.@@": 5613, 
  "morally": 5614, 
  "zones": 5615, 
  "Kuwait": 5616, 
  "biodiversity": 5617, 
  "Consensus": 5618, 
  "Thatcher": 5619, 
  "8-@@": 5620, 
  "hydro@@": 5621, 
  "invented": 5622, 
  "internally": 5623, 
  "ven@@": 5624, 
  "igh@@": 5625, 
  "battles": 5626, 
  "tested": 5627, 
  "inhib@@": 5628, 
  "naval": 5629, 
  "civic": 5630, 
  "sm@@": 5631, 
  "wing": 5632, 
  "exaggerated": 5633, 
  "supervisory": 5634, 
  "alarming": 5635, 
  "hon@@": 5636, 
  "Times": 5637, 
  "Forces": 5638, 
  "readily": 5639, 
  "Caribbean": 5640, 
  "compensate": 5641, 
  "treating": 5642, 
  "electric": 5643, 
  "G-7": 5644, 
  "afraid": 5645, 
  "injustice": 5646, 
  "superior": 5647, 
  "Roosevelt": 5648, 
  "happiness": 5649, 
  "arr@@": 5650, 
  "Cheney": 5651, 
  "facility": 5652, 
  "disturbing": 5653, 
  "di": 5654, 
  "bosses": 5655, 
  "radically": 5656, 
  "Mus@@": 5657, 
  "indication": 5658, 
  "respectively": 5659, 
  "shame": 5660, 
  "apped": 5661, 
  "exacerbated": 5662, 
  "Boris": 5663, 
  "cler@@": 5664, 
  "civilizations": 5665, 
  "surrender": 5666, 
  "refuses": 5667, 
  "prohib@@": 5668, 
  "humiliation": 5669, 
  "hot@@": 5670, 
  "ratios": 5671, 
  "mutually": 5672, 
  "ace": 5673, 
  "wherever": 5674, 
  "crude": 5675, 
  "efficiently": 5676, 
  "1980s": 5677, 
  "ain": 5678, 
  "imagination": 5679, 
  "percent": 5680, 
  "occurring": 5681, 
  "righ@@": 5682, 
  "pressed": 5683, 
  "irony": 5684, 
  "symbols": 5685, 
  "episode": 5686, 
  "elec@@": 5687, 
  "origins": 5688, 
  "ion": 5689, 
  "breakdown": 5690, 
  "mut@@": 5691, 
  "enacted": 5692, 
  "separation": 5693, 
  "tribunal": 5694, 
  "performing": 5695, 
  "contradictory": 5696, 
  "post-Soviet": 5697, 
  "acquired": 5698, 
  "Office": 5699, 
  "boards": 5700, 
  "ev": 5701, 
  "author": 5702, 
  "Arab-Israeli": 5703, 
  "encourages": 5704, 
  "militant": 5705, 
  "valued": 5706, 
  "alas": 5707, 
  "incumbent": 5708, 
  "aring": 5709, 
  "prudent": 5710, 
  "remittances": 5711, 
  "premium": 5712, 
  "Strip": 5713, 
  "gaps": 5714, 
  "analogy": 5715, 
  "clout": 5716, 
  "literally": 5717, 
  "reportedly": 5718, 
  "pundits": 5719, 
  "reasonably": 5720, 
  "char@@": 5721, 
  "store": 5722, 
  "pointing": 5723, 
  "unusual": 5724, 
  "refugee": 5725, 
  "bal@@": 5726, 
  "85": 5727, 
  "ium": 5728, 
  "ich": 5729, 
  "Communism": 5730, 
  "shortage": 5731, 
  "theoretical": 5732, 
  "repair": 5733, 
  "ours": 5734, 
  "emp@@": 5735, 
  "iv@@": 5736, 
  "wasted": 5737, 
  "entary": 5738, 
  "expose": 5739, 
  "obs@@": 5740, 
  "wo@@": 5741, 
  "vice": 5742, 
  "for-@@": 5743, 
  "dissent": 5744, 
  "ck": 5745, 
  "safeguard": 5746, 
  "exile": 5747, 
  "homeland": 5748, 
  "ranking": 5749, 
  "soci@@": 5750, 
  "deterioration": 5751, 
  "symptoms": 5752, 
  "Southern": 5753, 
  "Ronald": 5754, 
  "Jong-il": 5755, 
  "landscape": 5756, 
  "inspire": 5757, 
  "sive": 5758, 
  "satisfied": 5759, 
  "accordingly": 5760, 
  "pan@@": 5761, 
  "public-sector": 5762, 
  "oligarchs": 5763, 
  "itate": 5764, 
  "ains": 5765, 
  "urge": 5766, 
  "ft": 5767, 
  "advisers": 5768, 
  "radicalism": 5769, 
  "delayed": 5770, 
  "businessmen": 5771, 
  "Oslo": 5772, 
  "postwar": 5773, 
  "scrutiny": 5774, 
  "exemp@@": 5775, 
  "rape": 5776, 
  "sacrifice": 5777, 
  "rises": 5778, 
  "sing@@": 5779, 
  "flowing": 5780, 
  "ect": 5781, 
  "2.5": 5782, 
  "`": 5783, 
  "aled": 5784, 
  "mindset": 5785, 
  "Morales": 5786, 
  "berg": 5787, 
  "hood": 5788, 
  "perpetrators": 5789, 
  "Bhutto": 5790, 
  "hin@@": 5791, 
  "crackdown": 5792, 
  "shaping": 5793, 
  "ek": 5794, 
  "Group": 5795, 
  "luxury": 5796, 
  "gs": 5797, 
  "cour@@": 5798, 
  "processing": 5799, 
  "spur": 5800, 
  "Armenia": 5801, 
  "bs": 5802, 
  "Kennedy": 5803, 
  "transforming": 5804, 
  "vibrant": 5805, 
  "communists": 5806, 
  "cat@@": 5807, 
  "constituencies": 5808, 
  "cle@@": 5809, 
  "pillar": 5810, 
  "mul@@": 5811, 
  "Seoul": 5812, 
  "provinces": 5813, 
  "partisan": 5814, 
  "ored": 5815, 
  "speeches": 5816, 
  "wrong@@": 5817, 
  "clo@@": 5818, 
  "delivering": 5819, 
  "temperature": 5820, 
  "entails": 5821, 
  "ik@@": 5822, 
  "prosecutors": 5823, 
  "elled": 5824, 
  "acks": 5825, 
  "tru@@": 5826, 
  "creativity": 5827, 
  "resisted": 5828, 
  "bearing": 5829, 
  "discontent": 5830, 
  "abound": 5831, 
  "doors": 5832, 
  "buyers": 5833, 
  "dogs": 5834, 
  "caste": 5835, 
  "NGOs": 5836, 
  "precise": 5837, 
  "geography": 5838, 
  "identities": 5839, 
  "regulating": 5840, 
  "defended": 5841, 
  "apparatus": 5842, 
  "sport": 5843, 
  "3-@@": 5844, 
  "deepen": 5845, 
  "reformist": 5846, 
  "pricing": 5847, 
  "pped": 5848, 
  "Saakashvili": 5849, 
  "author@@": 5850, 
  "excellent": 5851, 
  "harmful": 5852, 
  "imagined": 5853, 
  "talent": 5854, 
  "inherently": 5855, 
  "walk": 5856, 
  "men@@": 5857, 
  "anim@@": 5858, 
  "liquid": 5859, 
  "explosive": 5860, 
  "prize": 5861, 
  "ie": 5862, 
  "arbitrary": 5863, 
  "vel@@": 5864, 
  "Jintao": 5865, 
  "yn@@": 5866, 
  "tual": 5867, 
  "Is@@": 5868, 
  "Mal@@": 5869, 
  "detailed": 5870, 
  "diminish": 5871, 
  "luck": 5872, 
  "eat": 5873, 
  "emission": 5874, 
  "coupled": 5875, 
  "San": 5876, 
  "mitigate": 5877, 
  "ail@@": 5878, 
  "4.@@": 5879, 
  "2,000": 5880, 
  "it-@@": 5881, 
  "insurgents": 5882, 
  "governmental": 5883, 
  "deployed": 5884, 
  "til@@": 5885, 
  "incite": 5886, 
  "comparative": 5887, 
  "writer": 5888, 
  "tempted": 5889, 
  "march": 5890, 
  "confused": 5891, 
  "statistical": 5892, 
  "scandal": 5893, 
  "ministries": 5894, 
  "allocated": 5895, 
  "founder": 5896, 
  "hearts": 5897, 
  "Growth": 5898, 
  "ual": 5899, 
  "fertility": 5900, 
  "driver": 5901, 
  "Governing": 5902, 
  "records": 5903, 
  "tariff": 5904, 
  "31": 5905, 
  "Hollande": 5906, 
  "urgency": 5907, 
  "certainty": 5908, 
  "ligh@@": 5909, 
  "launching": 5910, 
  "removing": 5911, 
  "resolutions": 5912, 
  "Ministry": 5913, 
  "reunification": 5914, 
  "dog": 5915, 
  "buried": 5916, 
  "disputed": 5917, 
  "bills": 5918, 
  "payment": 5919, 
  "Wen": 5920, 
  "creditor": 5921, 
  "marine": 5922, 
  "B": 5923, 
  "ables": 5924, 
  "cure": 5925, 
  "evolved": 5926, 
  "prestige": 5927, 
  "restoration": 5928, 
  "bears": 5929, 
  "iously": 5930, 
  "CEO": 5931, 
  "overthrow": 5932, 
  "pin": 5933, 
  "lets": 5934, 
  "rebuilding": 5935, 
  "perceive": 5936, 
  "highlights": 5937, 
  "balancing": 5938, 
  "Bu@@": 5939, 
  "amm@@": 5940, 
  "lesser": 5941, 
  "lu@@": 5942, 
  "forthcoming": 5943, 
  "probability": 5944, 
  "consists": 5945, 
  "consume": 5946, 
  "rests": 5947, 
  "X@@": 5948, 
  "suggesting": 5949, 
  "1987": 5950, 
  "tionally": 5951, 
  "conclusions": 5952, 
  "soil": 5953, 
  "miss": 5954, 
  "counterproductive": 5955, 
  "rebellion": 5956, 
  "medium-term": 5957, 
  "unrealistic": 5958, 
  "ratified": 5959, 
  "aver@@": 5960, 
  "Ehud": 5961, 
  "breast": 5962, 
  "deployment": 5963, 
  "DELHI": 5964, 
  "routinely": 5965, 
  "virtue": 5966, 
  "tun@@": 5967, 
  "offs": 5968, 
  "ases": 5969, 
  "ham@@": 5970, 
  "allegedly": 5971, 
  "exceptional": 5972, 
  "proceed": 5973, 
  "chi@@": 5974, 
  "mainland": 5975, 
  "multilateralism": 5976, 
  "profession": 5977, 
  "therapy": 5978, 
  "sustaining": 5979, 
  "lacked": 5980, 
  "pact": 5981, 
  "ater@@": 5982, 
  "operational": 5983, 
  "Finance": 5984, 
  "fierce": 5985, 
  "recorded": 5986, 
  "contacts": 5987, 
  "tou@@": 5988, 
  "ruler": 5989, 
  "integrating": 5990, 
  "contact": 5991, 
  "phone": 5992, 
  "lif@@": 5993, 
  "incomplete": 5994, 
  "concepts": 5995, 
  "adjust": 5996, 
  "endless": 5997, 
  "concentrate": 5998, 
  "seeming": 5999, 
  "distinguish": 6000, 
  "hungry": 6001, 
  "ides": 6002, 
  "person@@": 6003, 
  "adaptation": 6004, 
  "governor": 6005, 
  "eable": 6006, 
  "provincial": 6007, 
  "militia": 6008, 
  "Franco-German": 6009, 
  "guided": 6010, 
  "highlighted": 6011, 
  "inspectors": 6012, 
  "sons": 6013, 
  "fundamentalist": 6014, 
  "inst@@": 6015, 
  "ignoring": 6016, 
  "orderly": 6017, 
  "admission": 6018, 
  "appearance": 6019, 
  "preferences": 6020, 
  "handled": 6021, 
  "insistence": 6022, 
  "stalemate": 6023, 
  "ests": 6024, 
  "reasoning": 6025, 
  "Poles": 6026, 
  "imbalance": 6027, 
  "cyber": 6028, 
  "machines": 6029, 
  "benign": 6030, 
  "malaise": 6031, 
  "insolvent": 6032, 
  "waters": 6033, 
  "Karzai": 6034, 
  "patent": 6035, 
  "defaults": 6036, 
  "Report": 6037, 
  "tended": 6038, 
  "ows": 6039, 
  "arm@@": 6040, 
  "pul@@": 6041, 
  "fluctuations": 6042, 
  "vehicles": 6043, 
  "fled": 6044, 
  "fruit": 6045, 
  "real-estate": 6046, 
  "notable": 6047, 
  "Ku@@": 6048, 
  "rewards": 6049, 
  "liber@@": 6050, 
  "Ph@@": 6051, 
  "spiritual": 6052, 
  "exclusive": 6053, 
  "recipe": 6054, 
  "Wolfowitz": 6055, 
  "val@@": 6056, 
  "vo@@": 6057, 
  "mas@@": 6058, 
  "Free": 6059, 
  "prosecution": 6060, 
  "Gerhard": 6061, 
  "transitions": 6062, 
  "temporarily": 6063, 
  "believers": 6064, 
  "hoping": 6065, 
  "interpreted": 6066, 
  "aggressively": 6067, 
  "straightforward": 6068, 
  "neutral": 6069, 
  "socially": 6070, 
  "clim@@": 6071, 
  "headlines": 6072, 
  "Valley": 6073, 
  "accelerating": 6074, 
  "spectrum": 6075, 
  "pling": 6076, 
  "worsen": 6077, 
  "spreads": 6078, 
  "unleashed": 6079, 
  "400": 6080, 
  "jail": 6081, 
  "strictly": 6082, 
  "eness": 6083, 
  "marginalized": 6084, 
  "ail": 6085, 
  "monarchy": 6086, 
  "ignorance": 6087, 
  "moon": 6088, 
  "crimin@@": 6089, 
  "degrees": 6090, 
  "elderly": 6091, 
  "acked": 6092, 
  "conspiracy": 6093, 
  "surveys": 6094, 
  "unilateralism": 6095, 
  "downs": 6096, 
  "imminent": 6097, 
  "personality": 6098, 
  "suspected": 6099, 
  "gg@@": 6100, 
  "sch@@": 6101, 
  "picked": 6102, 
  "embargo": 6103, 
  "recommendations": 6104, 
  "mag@@": 6105, 
  "bil@@": 6106, 
  "immigrant": 6107, 
  "reveals": 6108, 
  "mid@@": 6109, 
  "IAEA": 6110, 
  "shortly": 6111, 
  "warnings": 6112, 
  "lift": 6113, 
  "ins@@": 6114, 
  "nervous": 6115, 
  "perceptions": 6116, 
  "precious": 6117, 
  "markedly": 6118, 
  "offices": 6119, 
  "10,000": 6120, 
  "backs": 6121, 
  "pledged": 6122, 
  "FTA": 6123, 
  "useless": 6124, 
  "Croatia": 6125, 
  "left-wing": 6126, 
  "indefinitely": 6127, 
  "ification": 6128, 
  "distress": 6129, 
  "Romanian": 6130, 
  "personally": 6131, 
  "shrinking": 6132, 
  "American-@@": 6133, 
  "winter": 6134, 
  "generates": 6135, 
  "arena": 6136, 
  "Liu": 6137, 
  "boys": 6138, 
  "Cuban": 6139, 
  "ride": 6140, 
  "accelerated": 6141, 
  "revolt": 6142, 
  "Danish": 6143, 
  "eful": 6144, 
  "repe@@": 6145, 
  "Bahrain": 6146, 
  "liberties": 6147, 
  "explo@@": 6148, 
  "Australian": 6149, 
  "Er@@": 6150, 
  "intensity": 6151, 
  "incited": 6152, 
  "Labor": 6153, 
  "continuity": 6154, 
  "Lu@@": 6155, 
  "myself": 6156, 
  "Tribunal": 6157, 
  "enlightened": 6158, 
  "continental": 6159, 
  "tight": 6160, 
  "scientist": 6161, 
  "ma": 6162, 
  "sick": 6163, 
  "trafficking": 6164, 
  "substance": 6165, 
  "handle": 6166, 
  "anti-Americanism": 6167, 
  "minded": 6168, 
  "cli@@": 6169, 
  "temperatures": 6170, 
  "ly-@@": 6171, 
  "answered": 6172, 
  "human@@": 6173, 
  "thirty": 6174, 
  "100,000": 6175, 
  "modernity": 6176, 
  "pleasure": 6177, 
  "influenced": 6178, 
  "ethics": 6179, 
  "roc@@": 6180, 
  "devices": 6181, 
  "champion": 6182, 
  "Ministers": 6183, 
  "oun@@": 6184, 
  "James": 6185, 
  "witnessing": 6186, 
  "dismiss": 6187, 
  "cross": 6188, 
  "1,@@": 6189, 
  "imm@@": 6190, 
  "flat": 6191, 
  "aches": 6192, 
  "prim@@": 6193, 
  "adversaries": 6194, 
  "14@@": 6195, 
  "basically": 6196, 
  "chair": 6197, 
  "thin": 6198, 
  "stunning": 6199, 
  "1929": 6200, 
  "axis": 6201, 
  "Persian": 6202, 
  "eless": 6203, 
  "akin": 6204, 
  "complained": 6205, 
  "Gordon": 6206, 
  "gathered": 6207, 
  "loses": 6208, 
  "adjusted": 6209, 
  "pragmatism": 6210, 
  "academics": 6211, 
  "Slovakia": 6212, 
  "Str@@": 6213, 
  "genome": 6214, 
  "disagree": 6215, 
  "by@@": 6216, 
  "8.@@": 6217, 
  "pillars": 6218, 
  "page": 6219, 
  "orthodoxy": 6220, 
  "termin@@": 6221, 
  "forming": 6222, 
  "fan@@": 6223, 
  "cry": 6224, 
  "mired": 6225, 
  "realization": 6226, 
  "Strategy": 6227, 
  "nur@@": 6228, 
  "towns": 6229, 
  "ural": 6230, 
  "feels": 6231, 
  "stages": 6232, 
  "justi@@": 6233, 
  "Hindu": 6234, 
  "experiments": 6235, 
  "Im@@": 6236, 
  "Inter@@": 6237, 
  "confirm": 6238, 
  "club": 6239, 
  "specter": 6240, 
  "reluctance": 6241, 
  "settled": 6242, 
  "lender": 6243, 
  "carbon-@@": 6244, 
  "Joseph": 6245, 
  "pit@@": 6246, 
  "or-@@": 6247, 
  "heroic": 6248, 
  "presumably": 6249, 
  "assert": 6250, 
  "grip": 6251, 
  "questioning": 6252, 
  "clients": 6253, 
  "occasionally": 6254, 
  "Cor@@": 6255, 
  "iron": 6256, 
  "destiny": 6257, 
  "retains": 6258, 
  "contributes": 6259, 
  "Orthodox": 6260, 
  "transmission": 6261, 
  "loyal": 6262, 
  "grain": 6263, 
  "unexpected": 6264, 
  "hypocrisy": 6265, 
  "ecting": 6266, 
  "Common": 6267, 
  "participating": 6268, 
  "rein": 6269, 
  "antagon@@": 6270, 
  "ty-@@": 6271, 
  "considers": 6272, 
  "exploited": 6273, 
  "placing": 6274, 
  "ES": 6275, 
  "ack@@": 6276, 
  "maneuver": 6277, 
  "ard@@": 6278, 
  "exacerbate": 6279, 
  "ve-@@": 6280, 
  "guar@@": 6281, 
  "transportation": 6282, 
  "kilometers": 6283, 
  "grant": 6284, 
  "remind": 6285, 
  "Franc@@": 6286, 
  "threshold": 6287, 
  "Taiwanese": 6288, 
  "sympathy": 6289, 
  "dysfunctional": 6290, 
  "healthcare": 6291, 
  "disparities": 6292, 
  "drought": 6293, 
  "stepped": 6294, 
  "Jiang": 6295, 
  "circles": 6296, 
  "majorities": 6297, 
  "centr@@": 6298, 
  "run@@": 6299, 
  "print": 6300, 
  "searching": 6301, 
  "incidents": 6302, 
  "downside": 6303, 
  "existential": 6304, 
  "ney": 6305, 
  "opted": 6306, 
  "ection": 6307, 
  "ences": 6308, 
  "deadly": 6309, 
  "appeals": 6310, 
  "ams": 6311, 
  "immune": 6312, 
  "­-": 6313, 
  "yourself": 6314, 
  "demonstration": 6315, 
  "legally": 6316, 
  "extraordinarily": 6317, 
  "corner": 6318, 
  "endured": 6319, 
  "Big": 6320, 
  "commerce": 6321, 
  "protracted": 6322, 
  "sum@@": 6323, 
  "pool": 6324, 
  "absolutely": 6325, 
  "outsourcing": 6326, 
  "margins": 6327, 
  "guilt": 6328, 
  "accord": 6329, 
  "minim@@": 6330, 
  "prudential": 6331, 
  "horizon": 6332, 
  "attributed": 6333, 
  "fix@@": 6334, 
  "organizing": 6335, 
  "low-cost": 6336, 
  "deciding": 6337, 
  "expectation": 6338, 
  "ari@@": 6339, 
  "hole": 6340, 
  "sized": 6341, 
  "10-@@": 6342, 
  "grants": 6343, 
  "borne": 6344, 
  "cen@@": 6345, 
  "anti-American": 6346, 
  "inj@@": 6347, 
  "asts": 6348, 
  "clinical": 6349, 
  "Balkan": 6350, 
  "�": 6351, 
  "idity": 6352, 
  "ition": 6353, 
  "deliberate": 6354, 
  "Trans@@": 6355, 
  "Hosni": 6356, 
  "ene@@": 6357, 
  "automatic": 6358, 
  "belongs": 6359, 
  "Bas@@": 6360, 
  "tig@@": 6361, 
  "motion": 6362, 
  "aking": 6363, 
  "heroes": 6364, 
  "occupying": 6365, 
  "Woods": 6366, 
  "triumph@@": 6367, 
  "plight": 6368, 
  "predictions": 6369, 
  "tl@@": 6370, 
  "premier": 6371, 
  "stars": 6372, 
  "Islam@@": 6373, 
  "Nazis": 6374, 
  "-minded": 6375, 
  "middle-class": 6376, 
  "native": 6377, 
  "tactical": 6378, 
  "after@@": 6379, 
  "arrival": 6380, 
  "servants": 6381, 
  "Senator": 6382, 
  "eman": 6383, 
  "fishing": 6384, 
  "brave": 6385, 
  "commonly": 6386, 
  "dness": 6387, 
  "colonialism": 6388, 
  "suppression": 6389, 
  "manufactured": 6390, 
  "strategically": 6391, 
  "domination": 6392, 
  "norm@@": 6393, 
  "inherent": 6394, 
  "Am@@": 6395, 
  "deeds": 6396, 
  "historians": 6397, 
  "text": 6398, 
  "movie": 6399, 
  "Latvia": 6400, 
  "iy@@": 6401, 
  "flu": 6402, 
  "embarked": 6403, 
  "federation": 6404, 
  "radiation": 6405, 
  "seeds": 6406, 
  "anymore": 6407, 
  "capital-@@": 6408, 
  "quotas": 6409, 
  "Morsi": 6410, 
  "Uruguay": 6411, 
  "panel": 6412, 
  "hate": 6413, 
  "signing": 6414, 
  "strang@@": 6415, 
  "nightmare": 6416, 
  "stagnant": 6417, 
  "port@@": 6418, 
  "long-standing": 6419, 
  "slogan": 6420, 
  "Lama": 6421, 
  "bombings": 6422, 
  "gathering": 6423, 
  "quietly": 6424, 
  "ands": 6425, 
  "Cultural": 6426, 
  "assessing": 6427, 
  "Greeks": 6428, 
  "overly": 6429, 
  "depending": 6430, 
  "fic@@": 6431, 
  "Estonia": 6432, 
  "ro": 6433, 
  "by-@@": 6434, 
  "origin@@": 6435, 
  "indirectly": 6436, 
  "4-@@": 6437, 
  "Swiss": 6438, 
  "coun@@": 6439, 
  "anxious": 6440, 
  "Erdoğan": 6441, 
  "atrocities": 6442, 
  "replacement": 6443, 
  "trees": 6444, 
  "tons": 6445, 
  "arg@@": 6446, 
  "disappearance": 6447, 
  "G": 6448, 
  "í@@": 6449, 
  "chains": 6450, 
  "permanently": 6451, 
  "slowed": 6452, 
  "Special": 6453, 
  "First": 6454, 
  "imperfect": 6455, 
  "laureate": 6456, 
  "Min@@": 6457, 
  "tion-@@": 6458, 
  "Azerbaijan": 6459, 
  "Abkhazia": 6460, 
  "blocks": 6461, 
  "reas@@": 6462, 
  "neglected": 6463, 
  "reminded": 6464, 
  "1968": 6465, 
  "assertive": 6466, 
  "bondholders": 6467, 
  "ention": 6468, 
  "ratification": 6469, 
  "floating": 6470, 
  "toll": 6471, 
  "gotten": 6472, 
  "fundamentalists": 6473, 
  "malnutrition": 6474, 
  "imperialism": 6475, 
  "stream": 6476, 
  "Continent": 6477, 
  "constructed": 6478, 
  "op": 6479, 
  "sensitivity": 6480, 
  "spl@@": 6481, 
  "faction": 6482, 
  "scheduled": 6483, 
  "enhancing": 6484, 
  "Director": 6485, 
  "financially": 6486, 
  "resilience": 6487, 
  "Sp@@": 6488, 
  "ai": 6489, 
  "borrowed": 6490, 
  "Xiaoping": 6491, 
  "hikes": 6492, 
  "forged": 6493, 
  "notwithstanding": 6494, 
  "Climate": 6495, 
  "ada": 6496, 
  "distr@@": 6497, 
  "extr@@": 6498, 
  "Ossetia": 6499, 
  "nor@@": 6500, 
  "incompetence": 6501, 
  "centralized": 6502, 
  "hosts": 6503, 
  "adults": 6504, 
  "reconcile": 6505, 
  "debacle": 6506, 
  "moments": 6507, 
  "Liberation": 6508, 
  "precipit@@": 6509, 
  "clarity": 6510, 
  "fits": 6511, 
  "tw@@": 6512, 
  "FSB": 6513, 
  "ent-@@": 6514, 
  "attraction": 6515, 
  "-style": 6516, 
  "sentence": 6517, 
  "0.5": 6518, 
  "explanations": 6519, 
  "flourish": 6520, 
  "provoke": 6521, 
  "permitted": 6522, 
  "troubles": 6523, 
  "Marx": 6524, 
  "industrialization": 6525, 
  "Sino-@@": 6526, 
  "capitals": 6527, 
  "cycles": 6528, 
  "lasted": 6529, 
  "Left": 6530, 
  "frustrated": 6531, 
  "elimination": 6532, 
  "resistant": 6533, 
  "agendas": 6534, 
  "coordinate": 6535, 
  "fly": 6536, 
  "asing": 6537, 
  "finished": 6538, 
  "rev@@": 6539, 
  "calculated": 6540, 
  "Fischer": 6541, 
  "aces": 6542, 
  "trade-@@": 6543, 
  "but@@": 6544, 
  "communal": 6545, 
  "Vienna": 6546, 
  "emphasize": 6547, 
  "treatments": 6548, 
  "arly": 6549, 
  "wil@@": 6550, 
  "deter": 6551, 
  "ined": 6552, 
  "Au@@": 6553, 
  "ender": 6554, 
  "ara": 6555, 
  "workforce": 6556, 
  "Donald": 6557, 
  "collabor@@": 6558, 
  "title": 6559, 
  "automobile": 6560, 
  "Singh": 6561, 
  "zation": 6562, 
  "ug@@": 6563, 
  "Ed@@": 6564, 
  "Ottoman": 6565, 
  "debated": 6566, 
  "somewhere": 6567, 
  "Front": 6568, 
  "rebalancing": 6569, 
  "chess": 6570, 
  "&apos;ve": 6571, 
  "staggering": 6572, 
  "nuclear-@@": 6573, 
  "Bretton": 6574, 
  "scr@@": 6575, 
  "arians": 6576, 
  "violated": 6577, 
  "River": 6578, 
  "readiness": 6579, 
  "7-@@": 6580, 
  "superiority": 6581, 
  "possession": 6582, 
  "advertising": 6583, 
  "evidently": 6584, 
  "eag@@": 6585, 
  "super-@@": 6586, 
  "west": 6587, 
  "arrive": 6588, 
  "maintains": 6589, 
  "assembly": 6590, 
  "convicted": 6591, 
  "daunting": 6592, 
  "sol@@": 6593, 
  "Bi@@": 6594, 
  "expectancy": 6595, 
  "Ko@@": 6596, 
  "futile": 6597, 
  "killings": 6598, 
  "dividing": 6599, 
  "uprising": 6600, 
  "deprived": 6601, 
  "arity": 6602, 
  "Smith": 6603, 
  "Har@@": 6604, 
  "conservatism": 6605, 
  "dev@@": 6606, 
  "credits": 6607, 
  "Park": 6608, 
  "den": 6609, 
  "inequalities": 6610, 
  "self-interest": 6611, 
  "riots": 6612, 
  "Empire": 6613, 
  "lat@@": 6614, 
  "composition": 6615, 
  "Vol@@": 6616, 
  "Bangladesh": 6617, 
  "discussing": 6618, 
  "ceiling": 6619, 
  "watched": 6620, 
  "Ahmedinejad": 6621, 
  "tangible": 6622, 
  "dismal": 6623, 
  "curse": 6624, 
  "lab@@": 6625, 
  "eded": 6626, 
  "Freedom": 6627, 
  "paradigm": 6628, 
  "consciousness": 6629, 
  "9-@@": 6630, 
  "ser@@": 6631, 
  "languages": 6632, 
  "ales": 6633, 
  "portion": 6634, 
  "persons": 6635, 
  "etc": 6636, 
  "ify": 6637, 
  "lifetime": 6638, 
  "bud@@": 6639, 
  "fortune": 6640, 
  "profoundly": 6641, 
  "ounds": 6642, 
  "grievances": 6643, 
  "tering": 6644, 
  "smooth": 6645, 
  "ier": 6646, 
  "maximum": 6647, 
  "convention": 6648, 
  "stopping": 6649, 
  "ially": 6650, 
  "conv@@": 6651, 
  "leftist": 6652, 
  "sitting": 6653, 
  "sacred": 6654, 
  "Chavez": 6655, 
  "ads": 6656, 
  "Austrian": 6657, 
  "hel@@": 6658, 
  "soul": 6659, 
  "ze@@": 6660, 
  "hurricanes": 6661, 
  "sovereign-debt": 6662, 
  "covering": 6663, 
  "removal": 6664, 
  "oms": 6665, 
  "digital": 6666, 
  "coalitions": 6667, 
  "sponsored": 6668, 
  "lers": 6669, 
  "dri@@": 6670, 
  "manship": 6671, 
  "requirement": 6672, 
  "lit@@": 6673, 
  "baby": 6674, 
  "Bashar": 6675, 
  "breaks": 6676, 
  "husband": 6677, 
  "owe": 6678, 
  "fault": 6679, 
  "temp@@": 6680, 
  "ICC": 6681, 
  "adds": 6682, 
  "ell": 6683, 
  "Katrina": 6684, 
  "items": 6685, 
  "IF@@": 6686, 
  "WHO": 6687, 
  "conceived": 6688, 
  "teaching": 6689, 
  "sor@@": 6690, 
  "Dalai": 6691, 
  "Manuel": 6692, 
  "tougher": 6693, 
  "Be@@": 6694, 
  "Kan": 6695, 
  "fees": 6696, 
  "continuous": 6697, 
  "disagreements": 6698, 
  "bright": 6699, 
  "skill": 6700, 
  "-in-@@": 6701, 
  "financiers": 6702, 
  "exploitation": 6703, 
  "rail@@": 6704, 
  "legislature": 6705, 
  "obliged": 6706, 
  "800": 6707, 
  "expects": 6708, 
  "Tymoshenko": 6709, 
  "intr@@": 6710, 
  "eve": 6711, 
  "shar@@": 6712, 
  "fulfilled": 6713, 
  "stimul@@": 6714, 
  "successive": 6715, 
  "ues": 6716, 
  "reckless": 6717, 
  "interpret": 6718, 
  "treason": 6719, 
  "teach": 6720, 
  "intermedi@@": 6721, 
  "satisfaction": 6722, 
  "fat@@": 6723, 
  "pandemic": 6724, 
  "Yukos": 6725, 
  "School": 6726, 
  "branch": 6727, 
  "medi@@": 6728, 
  "regi@@": 6729, 
  "1920": 6730, 
  "tures": 6731, 
  "ner@@": 6732, 
  "refrain": 6733, 
  "Nice": 6734, 
  "overlooked": 6735, 
  "sli@@": 6736, 
  "conscience": 6737, 
  "Em@@": 6738, 
  "insists": 6739, 
  "refusing": 6740, 
  "heritage": 6741, 
  "outweigh": 6742, 
  "pound": 6743, 
  "avert": 6744, 
  "ential": 6745, 
  "assure": 6746, 
  "bleak": 6747, 
  "distorted": 6748, 
  "worsening": 6749, 
  "Hor@@": 6750, 
  "G8": 6751, 
  "rationale": 6752, 
  "Guatemala": 6753, 
  "negotiators": 6754, 
  "clu@@": 6755, 
  "vigorous": 6756, 
  "proceedings": 6757, 
  "orchestr@@": 6758, 
  "theme": 6759, 
  "da": 6760, 
  "focuses": 6761, 
  "procedure": 6762, 
  "clearer": 6763, 
  "floods": 6764, 
  "Cameron": 6765, 
  "legislators": 6766, 
  "aj@@": 6767, 
  "distortions": 6768, 
  "autocratic": 6769, 
  "ment@@": 6770, 
  "oil-@@": 6771, 
  "lest": 6772, 
  "detention": 6773, 
  "Burmese": 6774, 
  "Liberia": 6775, 
  "suppress": 6776, 
  "pledge": 6777, 
  "Sadat": 6778, 
  "opponent": 6779, 
  "spiral": 6780, 
  "proving": 6781, 
  "naïve": 6782, 
  "excesses": 6783, 
  "pulled": 6784, 
  "agent": 6785, 
  "unthinkable": 6786, 
  "US-led": 6787, 
  "derived": 6788, 
  "unavoidable": 6789, 
  "UN@@": 6790, 
  "crowds": 6791, 
  "speculators": 6792, 
  "recipient": 6793, 
  "excessively": 6794, 
  "revenge": 6795, 
  "broker": 6796, 
  "responds": 6797, 
  "reversal": 6798, 
  "bolster": 6799, 
  "Gl@@": 6800, 
  "respective": 6801, 
  "grim": 6802, 
  "plot": 6803, 
  "Basel": 6804, 
  "reminds": 6805, 
  "idly": 6806, 
  "Tr@@": 6807, 
  "handling": 6808, 
  "profile": 6809, 
  "motivation": 6810, 
  "pessimism": 6811, 
  "bat@@": 6812, 
  "Zhao": 6813, 
  "Coun@@": 6814, 
  "600": 6815, 
  "agging": 6816, 
  "verdict": 6817, 
  "trick@@": 6818, 
  "ung@@": 6819, 
  "Non-Proliferation": 6820, 
  "accusations": 6821, 
  "entrepreneurial": 6822, 
  "associations": 6823, 
  "oppression": 6824, 
  "passive": 6825, 
  "connect": 6826, 
  "entities": 6827, 
  "ached": 6828, 
  "attacking": 6829, 
  "directors": 6830, 
  "shattered": 6831, 
  "Bangkok": 6832, 
  "closest": 6833, 
  "reporters": 6834, 
  "mining": 6835, 
  "rene@@": 6836, 
  "Kerry": 6837, 
  "mudd@@": 6838, 
  "translate": 6839, 
  "contemplate": 6840, 
  "empowered": 6841, 
  "domin@@": 6842, 
  "Pentagon": 6843, 
  "centered": 6844, 
  "caution": 6845, 
  "beneath": 6846, 
  "read@@": 6847, 
  "tery": 6848, 
  "troubling": 6849, 
  "reacted": 6850, 
  "Force": 6851, 
  "scarcity": 6852, 
  "lau@@": 6853, 
  "anded": 6854, 
  "tone": 6855, 
  "oring": 6856, 
  "suits": 6857, 
  "infected": 6858, 
  "myriad": 6859, 
  "lucky": 6860, 
  "opinions": 6861, 
  "anyway": 6862, 
  "miles": 6863, 
  "outbreak": 6864, 
  "whoever": 6865, 
  "non-governmental": 6866, 
  "repu@@": 6867, 
  "sul@@": 6868, 
  "lifted": 6869, 
  "modernize": 6870, 
  "ko": 6871, 
  "rid": 6872, 
  "François": 6873, 
  "ugly": 6874, 
  "Istanbul": 6875, 
  "privileged": 6876, 
  "studying": 6877, 
  "reviving": 6878, 
  "spir@@": 6879, 
  "bri@@": 6880, 
  "1988": 6881, 
  "Bashir": 6882, 
  "entrepreneurship": 6883, 
  "harb@@": 6884, 
  "outstanding": 6885, 
  "paralyzed": 6886, 
  "shel@@": 6887, 
  "Atomic": 6888, 
  "Partnership": 6889, 
  "cling": 6890, 
  "sin@@": 6891, 
  "republic": 6892, 
  "engines": 6893, 
  "boosted": 6894, 
  "legitim@@": 6895, 
  "defenses": 6896, 
  "selected": 6897, 
  "Taylor": 6898, 
  "privileges": 6899, 
  "capacities": 6900, 
  "Ham@@": 6901, 
  "Dis@@": 6902, 
  "frameworks": 6903, 
  "market-@@": 6904, 
  "Three": 6905, 
  "beautiful": 6906, 
  "frozen": 6907, 
  "fer@@": 6908, 
  "hang": 6909, 
  "embedded": 6910, 
  "trusted": 6911, 
  "reactor": 6912, 
  "sian": 6913, 
  "Wor@@": 6914, 
  "Maghreb": 6915, 
  "premature": 6916, 
  "allied": 6917, 
  "isms": 6918, 
  "anchor": 6919, 
  "obsolete": 6920, 
  "Colombian": 6921, 
  "reassuring": 6922, 
  "listed": 6923, 
  "ny": 6924, 
  "erosion": 6925, 
  "seed": 6926, 
  "ar-@@": 6927, 
  "Second": 6928, 
  "shrink": 6929, 
  "tenure": 6930, 
  "turing": 6931, 
  "sentenced": 6932, 
  "advocated": 6933, 
  "Mont@@": 6934, 
  "endangered": 6935, 
  "rush": 6936, 
  "defines": 6937, 
  "pac@@": 6938, 
  "Executive": 6939, 
  "punish": 6940, 
  "holy": 6941, 
  "populated": 6942, 
  "collateral": 6943, 
  "At@@": 6944, 
  "committing": 6945, 
  "La@@": 6946, 
  "compromises": 6947, 
  "Christianity": 6948, 
  "Jo@@": 6949, 
  "celebrated": 6950, 
  "longstanding": 6951, 
  "fifty": 6952, 
  "drag": 6953, 
  "disappointed": 6954, 
  "perpetu@@": 6955, 
  "penalty": 6956, 
  "discourage": 6957, 
  "atically": 6958, 
  "surrounded": 6959, 
  "constitu@@": 6960, 
  "Islamabad": 6961, 
  "norm": 6962, 
  "Nicaragua": 6963, 
  "embodied": 6964, 
  "reformed": 6965, 
  "replacing": 6966, 
  "Mor@@": 6967, 
  "integral": 6968, 
  "We@@": 6969, 
  "matched": 6970, 
  "cho@@": 6971, 
  "ounded": 6972, 
  "gather": 6973, 
  "power@@": 6974, 
  "resume": 6975, 
  "show@@": 6976, 
  "reminder": 6977, 
  "guns": 6978, 
  "enshrined": 6979, 
  "underestimated": 6980, 
  "uries": 6981, 
  "everyday": 6982, 
  "philosopher": 6983, 
  "astic": 6984, 
  "season": 6985, 
  "cents": 6986, 
  "accumulate": 6987, 
  "aining": 6988, 
  "ki": 6989, 
  "pretty": 6990, 
  "alling": 6991, 
  "crunch": 6992, 
  "swept": 6993, 
  "birds": 6994, 
  "mobilized": 6995, 
  "isolate": 6996, 
  "telecommunications": 6997, 
  "unfortunate": 6998, 
  "42": 6999, 
  "sn@@": 7000, 
  "Scotland": 7001, 
  "disorders": 7002, 
  "renewal": 7003, 
  "stalled": 7004, 
  "1940": 7005, 
  "van@@": 7006, 
  "communicate": 7007, 
  "self-defense": 7008, 
  "sweeping": 7009, 
  "enact": 7010, 
  "violate": 7011, 
  "turnout": 7012, 
  "tissue": 7013, 
  "realizing": 7014, 
  "declaring": 7015, 
  "Dr.": 7016, 
  "not@@": 7017, 
  "modernizing": 7018, 
  "conflicting": 7019, 
  "lawyer": 7020, 
  "lifting": 7021, 
  "inism": 7022, 
  "royal": 7023, 
  "universe": 7024, 
  "dre@@": 7025, 
  "sanitation": 7026, 
  "sums": 7027, 
  "j": 7028, 
  "pages": 7029, 
  "clashes": 7030, 
  "charisma": 7031, 
  "republics": 7032, 
  "exported": 7033, 
  "Goals": 7034, 
  "mad@@": 7035, 
  "anch@@": 7036, 
  "00,000": 7037, 
  "Affairs": 7038, 
  "fiable": 7039, 
  "arose": 7040, 
  "W": 7041, 
  "-L@@": 7042, 
  "ord@@": 7043, 
  "tendencies": 7044, 
  "rejecting": 7045, 
  "marketplace": 7046, 
  "Nigerian": 7047, 
  "receives": 7048, 
  "bly": 7049, 
  "Wal@@": 7050, 
  "inging": 7051, 
  "autonomous": 7052, 
  "secretary": 7053, 
  "0.7": 7054, 
  "reb@@": 7055, 
  "Costa": 7056, 
  "venture": 7057, 
  "appreciated": 7058, 
  "Qatar": 7059, 
  "arrogance": 7060, 
  "lethal": 7061, 
  "-of-@@": 7062, 
  "wast@@": 7063, 
  "enormously": 7064, 
  "plain": 7065, 
  "underscores": 7066, 
  "drinking": 7067, 
  "ata": 7068, 
  "K": 7069, 
  "mixture": 7070, 
  "insur@@": 7071, 
  "sorts": 7072, 
  "Uzbekistan": 7073, 
  "activ@@": 7074, 
  "Sharia": 7075, 
  "tropical": 7076, 
  "opt": 7077, 
  "On": 7078, 
  "pos@@": 7079, 
  "five-year": 7080, 
  "distinguished": 7081, 
  "Je@@": 7082, 
  "square": 7083, 
  "introducing": 7084, 
  "pled": 7085, 
  "hire": 7086, 
  "honesty": 7087, 
  "journalist": 7088, 
  "articles": 7089, 
  "fusion": 7090, 
  "empowerment": 7091, 
  "possesses": 7092, 
  "eu@@": 7093, 
  "administrations": 7094, 
  "hurricane": 7095, 
  "CI@@": 7096, 
  "calculation": 7097, 
  "coast": 7098, 
  "projections": 7099, 
  "torn": 7100, 
  "referred": 7101, 
  "ocean": 7102, 
  "junta": 7103, 
  "reinforcing": 7104, 
  "preceded": 7105, 
  "peasant": 7106, 
  "traumatic": 7107, 
  "walls": 7108, 
  "induce": 7109, 
  "EFSF": 7110, 
  "interaction": 7111, 
  "quar@@": 7112, 
  "if@@": 7113, 
  "convenient": 7114, 
  "ky": 7115, 
  "Munich": 7116, 
  "develop@@": 7117, 
  "trauma": 7118, 
  "moderation": 7119, 
  "lied": 7120, 
  "Rice": 7121, 
  "pledges": 7122, 
  "exporter": 7123, 
  "fire@@": 7124, 
  "conce@@": 7125, 
  "criticize": 7126, 
  "SARS": 7127, 
  "tail@@": 7128, 
  "comments": 7129, 
  "repercussions": 7130, 
  "elling": 7131, 
  "vehicle": 7132, 
  "optimal": 7133, 
  "blin@@": 7134, 
  "prudence": 7135, 
  "indebted": 7136, 
  "err@@": 7137, 
  "embracing": 7138, 
  "700": 7139, 
  "please": 7140, 
  "Henry": 7141, 
  "transitional": 7142, 
  "Wil@@": 7143, 
  "exceeds": 7144, 
  "Sha@@": 7145, 
  "ster": 7146, 
  "St.": 7147, 
  "dimensions": 7148, 
  "undergoing": 7149, 
  "insisting": 7150, 
  "Albania": 7151, 
  "exercises": 7152, 
  "activist": 7153, 
  "consumed": 7154, 
  "merits": 7155, 
  "ambassador": 7156, 
  "abor@@": 7157, 
  "siege": 7158, 
  "qual@@": 7159, 
  "organizational": 7160, 
  "deteriorating": 7161, 
  "NAFTA": 7162, 
  "governors": 7163, 
  "ick": 7164, 
  "eradication": 7165, 
  "neg@@": 7166, 
  "suspended": 7167, 
  "Maynard": 7168, 
  "aint": 7169, 
  "priced": 7170, 
  "Beirut": 7171, 
  "viewing": 7172, 
  "ags": 7173, 
  "evolve": 7174, 
  "armies": 7175, 
  "anti-Semitism": 7176, 
  "holder": 7177, 
  "es-@@": 7178, 
  "EU-@@": 7179, 
  "Pre@@": 7180, 
  "Mc@@": 7181, 
  "rejects": 7182, 
  "neo-liberal": 7183, 
  "warm": 7184, 
  "resigned": 7185, 
  "guerrillas": 7186, 
  "transaction": 7187, 
  "problematic": 7188, 
  "implying": 7189, 
  "fun@@": 7190, 
  "shi@@": 7191, 
  "depositors": 7192, 
  "mismanagement": 7193, 
  "monopolies": 7194, 
  "boy": 7195, 
  "2030": 7196, 
  "contempt": 7197, 
  "Ba@@": 7198, 
  "notorious": 7199, 
  "depressed": 7200, 
  "Bal@@": 7201, 
  "foods": 7202, 
  "arm": 7203, 
  "reck@@": 7204, 
  "euphoria": 7205, 
  "indicator": 7206, 
  "Se@@": 7207, 
  "Bin": 7208, 
  "diversification": 7209, 
  "inflation-@@": 7210, 
  "heated": 7211, 
  "far@@": 7212, 
  "comparisons": 7213, 
  "essness": 7214, 
  "lists": 7215, 
  "taste": 7216, 
  "ei@@": 7217, 
  "heightened": 7218, 
  "bent": 7219, 
  "AI@@": 7220, 
  "doubtful": 7221, 
  "routine": 7222, 
  "aligned": 7223, 
  "hardest": 7224, 
  "entail": 7225, 
  "gro@@": 7226, 
  "loose": 7227, 
  "susceptible": 7228, 
  "cla@@": 7229, 
  "condemn": 7230, 
  "rocket": 7231, 
  "collapsing": 7232, 
  "middle-income": 7233, 
  "privilege": 7234, 
  "worrisome": 7235, 
  "Che": 7236, 
  "doctor": 7237, 
  "video": 7238, 
  "delivery": 7239, 
  "Asia-Pacific": 7240, 
  "golden": 7241, 
  "eth@@": 7242, 
  "distribu@@": 7243, 
  "headquarters": 7244, 
  "lying": 7245, 
  "advancing": 7246, 
  "hi": 7247, 
  "li": 7248, 
  "Kar@@": 7249, 
  "Sierra": 7250, 
  "invisible": 7251, 
  "Leone": 7252, 
  "blown": 7253, 
  "understandably": 7254, 
  "á@@": 7255, 
  "One": 7256, 
  "nineteenth-century": 7257, 
  "hawks": 7258, 
  "inertia": 7259, 
  "maturity": 7260, 
  "ome@@": 7261, 
  "cent": 7262, 
  "high-quality": 7263, 
  "loc@@": 7264, 
  "wit@@": 7265, 
  "talked": 7266, 
  "writers": 7267, 
  "Pol@@": 7268, 
  "deleveraging": 7269, 
  "acking": 7270, 
  "accumulated": 7271, 
  "indicated": 7272, 
  "correctly": 7273, 
  "weakens": 7274, 
  "essions": 7275, 
  "ress": 7276, 
  "approve": 7277, 
  "fantasy": 7278, 
  "patience": 7279, 
  "squeeze": 7280, 
  "29": 7281, 
  "odd": 7282, 
  "organisms": 7283, 
  "dedicated": 7284, 
  "equitable": 7285, 
  "four@@": 7286, 
  "gn@@": 7287, 
  "containing": 7288, 
  "forum": 7289, 
  "low-income": 7290, 
  "remedy": 7291, 
  "Barroso": 7292, 
  "unhappy": 7293, 
  "pollu@@": 7294, 
  "busy": 7295, 
  "itions": 7296, 
  "soldier": 7297, 
  "dian": 7298, 
  "skin": 7299, 
  "lessness": 7300, 
  "sia": 7301, 
  "valid": 7302, 
  "delicate": 7303, 
  "occasions": 7304, 
  "US@@": 7305, 
  "ai@@": 7306, 
  "continuation": 7307, 
  "denying": 7308, 
  "ili@@": 7309, 
  "mentality": 7310, 
  "best-@@": 7311, 
  "innov@@": 7312, 
  "ears": 7313, 
  "demograph@@": 7314, 
  "For": 7315, 
  "Yes": 7316, 
  "Berkeley": 7317, 
  "undertaking": 7318, 
  "NA@@": 7319, 
  "victories": 7320, 
  "Davos": 7321, 
  "strive": 7322, 
  "sem@@": 7323, 
  "Soviets": 7324, 
  "peer": 7325, 
  "blessing": 7326, 
  "Sy@@": 7327, 
  "pping": 7328, 
  "ust": 7329, 
  "tow@@": 7330, 
  "six@@": 7331, 
  "starvation": 7332, 
  "sively": 7333, 
  "deploy": 7334, 
  "literature": 7335, 
  "patri@@": 7336, 
  "lessly": 7337, 
  "frame": 7338, 
  "counterpart": 7339, 
  "undervalued": 7340, 
  "practiced": 7341, 
  "strong@@": 7342, 
  "hugely": 7343, 
  "Serb": 7344, 
  "ousness": 7345, 
  "credentials": 7346, 
  "proves": 7347, 
  "tainted": 7348, 
  "postpone": 7349, 
  "contradiction": 7350, 
  "emulate": 7351, 
  "realism": 7352, 
  "Sachs": 7353, 
  "But": 7354, 
  "ine@@": 7355, 
  "refer": 7356, 
  "regards": 7357, 
  "length": 7358, 
  "AR@@": 7359, 
  "OPEC": 7360, 
  "daughter": 7361, 
  "acknowledging": 7362, 
  "diminishing": 7363, 
  "mathematical": 7364, 
  "Czechoslovakia": 7365, 
  "restrict": 7366, 
  "colon@@": 7367, 
  "gasoline": 7368, 
  "5,000": 7369, 
  "appealing": 7370, 
  "modern@@": 7371, 
  "deser@@": 7372, 
  "My@@": 7373, 
  "transferred": 7374, 
  "popul@@": 7375, 
  "owner": 7376, 
  "hegemonic": 7377, 
  "debtor": 7378, 
  "exclude": 7379, 
  "ede": 7380, 
  "Prodi": 7381, 
  "scar@@": 7382, 
  "enlarged": 7383, 
  "idd@@": 7384, 
  "ana@@": 7385, 
  "magn@@": 7386, 
  "ama": 7387, 
  "tolerant": 7388, 
  "curtail": 7389, 
  "guidelines": 7390, 
  "alarm": 7391, 
  "murdered": 7392, 
  "critically": 7393, 
  "populists": 7394, 
  "planes": 7395, 
  "historian": 7396, 
  "web": 7397, 
  "applying": 7398, 
  "amb@@": 7399, 
  "drama": 7400, 
  "high-level": 7401, 
  "appetite": 7402, 
  "judgments": 7403, 
  "maker": 7404, 
  "Mac@@": 7405, 
  "persuaded": 7406, 
  "spur@@": 7407, 
  "vian": 7408, 
  "itable": 7409, 
  "disposal": 7410, 
  "trick": 7411, 
  "viruses": 7412, 
  "atomic": 7413, 
  "Marshall": 7414, 
  "postponed": 7415, 
  "complaints": 7416, 
  "bar": 7417, 
  "capit@@": 7418, 
  "benefiting": 7419, 
  "Petersburg": 7420, 
  "ost": 7421, 
  "raz@@": 7422, 
  "mosque": 7423, 
  "identical": 7424, 
  "aming": 7425, 
  "portfolios": 7426, 
  "exceptionally": 7427, 
  "intelligent": 7428, 
  "rebel": 7429, 
  "preference": 7430, 
  "nuclear-armed": 7431, 
  "clam@@": 7432, 
  "relatives": 7433, 
  "Los": 7434, 
  "ran@@": 7435, 
  "printing": 7436, 
  "Bay": 7437, 
  "dot@@": 7438, 
  "guidance": 7439, 
  "giants": 7440, 
  "breakthroughs": 7441, 
  "preserved": 7442, 
  "duties": 7443, 
  "battlefield": 7444, 
  "psychiatric": 7445, 
  "ind@@": 7446, 
  "freer": 7447, 
  "intervening": 7448, 
  "ws": 7449, 
  "bizarre": 7450, 
  "SDRs": 7451, 
  "WikiLeaks": 7452, 
  "stayed": 7453, 
  "arsenal": 7454, 
  "empirical": 7455, 
  "conditionality": 7456, 
  "ow": 7457, 
  "spr@@": 7458, 
  "deleg@@": 7459, 
  "resign": 7460, 
  "unc@@": 7461, 
  "compounded": 7462, 
  "clubs": 7463, 
  "hear@@": 7464, 
  "manageable": 7465, 
  "ink": 7466, 
  "mature": 7467, 
  "labor-market": 7468, 
  "obtained": 7469, 
  "jointly": 7470, 
  "You": 7471, 
  "CF@@": 7472, 
  "fascist": 7473, 
  "amed": 7474, 
  "compromised": 7475, 
  "obsessed": 7476, 
  "Ortega": 7477, 
  "revealing": 7478, 
  "Sinai": 7479, 
  "disruption": 7480, 
  "Iron": 7481, 
  "branches": 7482, 
  "climate-change": 7483, 
  "fre@@": 7484, 
  "mer": 7485, 
  "Enron": 7486, 
  "tified": 7487, 
  "tle": 7488, 
  "proposing": 7489, 
  "supportive": 7490, 
  "dependency": 7491, 
  "defenders": 7492, 
  "Ha@@": 7493, 
  "Economy": 7494, 
  "38": 7495, 
  "invitation": 7496, 
  "Dubai": 7497, 
  "tible": 7498, 
  "calamity": 7499, 
  "tiz@@": 7500, 
  "Tehran": 7501, 
  "Slobodan": 7502, 
  "fixing": 7503, 
  "escalating": 7504, 
  "edi@@": 7505, 
  "enjoys": 7506, 
  "IT": 7507, 
  "risk-taking": 7508, 
  "supremacy": 7509, 
  "adequately": 7510, 
  "drew": 7511, 
  "Erdogan": 7512, 
  "hyper@@": 7513, 
  "CD@@": 7514, 
  "onset": 7515, 
  "escalation": 7516, 
  "denounced": 7517, 
  "detail": 7518, 
  "dose": 7519, 
  "José": 7520, 
  "chan@@": 7521, 
  "gh@@": 7522, 
  "lah": 7523, 
  "childhood": 7524, 
  "1986": 7525, 
  "adult": 7526, 
  "&apos;m": 7527, 
  "Sum@@": 7528, 
  "Europe@@": 7529, 
  "remarks": 7530, 
  "HAVEN": 7531, 
  "apo@@": 7532, 
  "extends": 7533, 
  "Change": 7534, 
  "virtues": 7535, 
  "13@@": 7536, 
  "win@@": 7537, 
  "fli@@": 7538, 
  "abundant": 7539, 
  "burdened": 7540, 
  "vac@@": 7541, 
  "sun": 7542, 
  "Prince": 7543, 
  "Black": 7544, 
  "height": 7545, 
  "apping": 7546, 
  "sist@@": 7547, 
  "qualify": 7548, 
  "za": 7549, 
  "dominates": 7550, 
  "onist": 7551, 
  "un-@@": 7552, 
  "consequently": 7553, 
  "reaches": 7554, 
  "beg@@": 7555, 
  "Lithuania": 7556, 
  "phones": 7557, 
  "aire": 7558, 
  "flood": 7559, 
  "enjoying": 7560, 
  "scare": 7561, 
  "public@@": 7562, 
  "eroded": 7563, 
  "ceasefire": 7564, 
  "strip": 7565, 
  "issuing": 7566, 
  "sid@@": 7567, 
  "fronts": 7568, 
  "demonstrators": 7569, 
  "inward": 7570, 
  "pan-European": 7571, 
  "prosecutor": 7572, 
  "outlets": 7573, 
  "shocked": 7574, 
  "impede": 7575, 
  "grassroots": 7576, 
  "invention": 7577, 
  "gangs": 7578, 
  "nonsense": 7579, 
  "drastic": 7580, 
  "properties": 7581, 
  "conver@@": 7582, 
  "scenes": 7583, 
  "rewarded": 7584, 
  "notes": 7585, 
  "strengths": 7586, 
  "Boli@@": 7587, 
  "strains": 7588, 
  "harmony": 7589, 
  "indictment": 7590, 
  "ared": 7591, 
  "thrive": 7592, 
  "mel@@": 7593, 
  "al-Assad": 7594, 
  "militar@@": 7595, 
  "ensured": 7596, 
  "Salvador": 7597, 
  "micro@@": 7598, 
  "attracting": 7599, 
  "redress": 7600, 
  "retaliation": 7601, 
  "Mad@@": 7602, 
  "clever": 7603, 
  "brid@@": 7604, 
  "Shiite": 7605, 
  "college": 7606, 
  "documented": 7607, 
  "endorse": 7608, 
  "Des@@": 7609, 
  "fearful": 7610, 
  "angle": 7611, 
  "onal": 7612, 
  "locations": 7613, 
  "assurances": 7614, 
  "liberalizing": 7615, 
  "feedback": 7616, 
  "20,000": 7617, 
  "sequence": 7618, 
  "cocaine": 7619, 
  "high@@": 7620, 
  "concerted": 7621, 
  "producer": 7622, 
  "exact": 7623, 
  "gy": 7624, 
  "intends": 7625, 
  "resembles": 7626, 
  "shut@@": 7627, 
  "blood@@": 7628, 
  "succeeds": 7629, 
  "conferences": 7630, 
  "Iceland": 7631, 
  "alizes": 7632, 
  "Two": 7633, 
  "mist@@": 7634, 
  "Val@@": 7635, 
  "Mbeki": 7636, 
  "sy@@": 7637, 
  "color": 7638, 
  "vulnerabilities": 7639, 
  "bloodshed": 7640, 
  "Mitterrand": 7641, 
  "ministry": 7642, 
  "qualities": 7643, 
  "ped@@": 7644, 
  "publish": 7645, 
  "equals": 7646, 
  "ander": 7647, 
  "spin": 7648, 
  "alli@@": 7649, 
  "famine": 7650, 
  "inhabitants": 7651, 
  "undercut": 7652, 
  "brutality": 7653, 
  "rock": 7654, 
  "array": 7655, 
  "resilient": 7656, 
  "combatants": 7657, 
  "jeopardize": 7658, 
  "shops": 7659, 
  "tax@@": 7660, 
  "vary": 7661, 
  "6-@@": 7662, 
  "supreme": 7663, 
  "Mexicans": 7664, 
  "dro@@": 7665, 
  "contradic@@": 7666, 
  "tyranny": 7667, 
  "desc@@": 7668, 
  "pet": 7669, 
  "brother": 7670, 
  "peg": 7671, 
  "subsidy": 7672, 
  "plac@@": 7673, 
  "comply": 7674, 
  "commanders": 7675, 
  "advocating": 7676, 
  "demag@@": 7677, 
  "loos@@": 7678, 
  "steep": 7679, 
  "Vice": 7680, 
  "oz@@": 7681, 
  "Ju@@": 7682, 
  "deforestation": 7683, 
  "cool": 7684, 
  "jump": 7685, 
  "devise": 7686, 
  "9.@@": 7687, 
  "prompted": 7688, 
  "excluding": 7689, 
  "livelihoods": 7690, 
  "jurisdiction": 7691, 
  "1.3": 7692, 
  "siveness": 7693, 
  "rapprochement": 7694, 
  "prohibition": 7695, 
  "Il": 7696, 
  "elusive": 7697, 
  "safeguards": 7698, 
  "objec@@": 7699, 
  "demon@@": 7700, 
  "hostage": 7701, 
  "burned": 7702, 
  "visits": 7703, 
  "conditional": 7704, 
  "essed": 7705, 
  "devi@@": 7706, 
  "translated": 7707, 
  "earning": 7708, 
  "evolving": 7709, 
  "replied": 7710, 
  "ecological": 7711, 
  "agrees": 7712, 
  "Islands": 7713, 
  "committees": 7714, 
  "mistrust": 7715, 
  "outset": 7716, 
  "pharmaceutical": 7717, 
  "profitability": 7718, 
  "energy-@@": 7719, 
  "pre-crisis": 7720, 
  "Belgrade": 7721, 
  "doubling": 7722, 
  "polic@@": 7723, 
  "banker": 7724, 
  "Goldman": 7725, 
  "collected": 7726, 
  "conversation": 7727, 
  "logist": 7728, 
  "95": 7729, 
  "tot@@": 7730, 
  "environmentally": 7731, 
  "Karl": 7732, 
  "U": 7733, 
  "cit@@": 7734, 
  "š@@": 7735, 
  "broadcast@@": 7736, 
  "center-right": 7737, 
  "ected": 7738, 
  "masters": 7739, 
  "diver@@": 7740, 
  "communic@@": 7741, 
  "landing": 7742, 
  "urbanization": 7743, 
  "disproportionate": 7744, 
  "smo@@": 7745, 
  "exhausted": 7746, 
  "Fukushima": 7747, 
  "officer": 7748, 
  "squandered": 7749, 
  "Do": 7750, 
  "grab@@": 7751, 
  "As@@": 7752, 
  "slow@@": 7753, 
  "seldom": 7754, 
  "lobby": 7755, 
  "chem@@": 7756, 
  "shooting": 7757, 
  "similarities": 7758, 
  "avi@@": 7759, 
  "ility": 7760, 
  "prevails": 7761, 
  "durable": 7762, 
  "consultation": 7763, 
  "ignores": 7764, 
  "praise": 7765, 
  "questioned": 7766, 
  "one-party": 7767, 
  "Alexander": 7768, 
  "compassion": 7769, 
  "inputs": 7770, 
  "fans": 7771, 
  "strain": 7772, 
  "Roman": 7773, 
  "rein@@": 7774, 
  "tin@@": 7775, 
  "-out": 7776, 
  "slaughter": 7777, 
  "shore": 7778, 
  "nation-state": 7779, 
  "passes": 7780, 
  "par": 7781, 
  "infectious": 7782, 
  "rationality": 7783, 
  "ab": 7784, 
  "notions": 7785, 
  "of-@@": 7786, 
  "switch": 7787, 
  "equation": 7788, 
  "Anwar": 7789, 
  "rounds": 7790, 
  "Silvio": 7791, 
  "hearing": 7792, 
  "uous": 7793, 
  "slogans": 7794, 
  "Palin": 7795, 
  "defin@@": 7796, 
  "ino": 7797, 
  "chemistry": 7798, 
  "advised": 7799, 
  "meth@@": 7800, 
  "compliance": 7801, 
  "thro@@": 7802, 
  "ups": 7803, 
  "arising": 7804, 
  "dismantling": 7805, 
  "3.5": 7806, 
  "composed": 7807, 
  "exert": 7808, 
  "meat": 7809, 
  "EC@@": 7810, 
  "add@@": 7811, 
  "ron@@": 7812, 
  "warn": 7813, 
  "inal": 7814, 
  "fif@@": 7815, 
  "investigations": 7816, 
  "insight": 7817, 
  "delegation": 7818, 
  "narrowly": 7819, 
  "thinkers": 7820, 
  "verge": 7821, 
  "gged": 7822, 
  "aker": 7823, 
  "droughts": 7824, 
  "synthetic": 7825, 
  "nostalgia": 7826, 
  "cited": 7827, 
  "cop@@": 7828, 
  "Cha@@": 7829, 
  "obsession": 7830, 
  "oldest": 7831, 
  "arts": 7832, 
  "category": 7833, 
  "taboo": 7834, 
  "nationality": 7835, 
  "START": 7836, 
  "hab@@": 7837, 
  "tici@@": 7838, 
  "persists": 7839, 
  "collect": 7840, 
  "backward": 7841, 
  "characteristic": 7842, 
  "whereby": 7843, 
  "opium": 7844, 
  "1948": 7845, 
  "icks": 7846, 
  "metaphor": 7847, 
  "ensible": 7848, 
  "ays": 7849, 
  "uk@@": 7850, 
  "brothers": 7851, 
  "deadlock": 7852, 
  "evasion": 7853, 
  "itting": 7854, 
  "guess": 7855, 
  "connec@@": 7856, 
  "Cham@@": 7857, 
  "alleviate": 7858, 
  "wounded": 7859, 
  "ene": 7860, 
  "motiv@@": 7861, 
  "Jud@@": 7862, 
  "Wahhabi": 7863, 
  "laying": 7864, 
  "linking": 7865, 
  "categories": 7866, 
  "imposition": 7867, 
  "wal@@": 7868, 
  "talented": 7869, 
  "competent": 7870, 
  "barrier": 7871, 
  "red@@": 7872, 
  "PA": 7873, 
  "outrage": 7874, 
  "asi@@": 7875, 
  "1982": 7876, 
  "atives": 7877, 
  "slight": 7878, 
  "magic": 7879, 
  "stature": 7880, 
  "select": 7881, 
  "sle@@": 7882, 
  "Franklin": 7883, 
  "3,000": 7884, 
  "unintended": 7885, 
  "attended": 7886, 
  "anism": 7887, 
  "0.0@@": 7888, 
  "imprisoned": 7889, 
  "bes@@": 7890, 
  "inspections": 7891, 
  "alarm@@": 7892, 
  "onally": 7893, 
  "tier": 7894, 
  "polio": 7895, 
  "eating": 7896, 
  "constructing": 7897, 
  "mathematics": 7898, 
  "minute": 7899, 
  "foreign-@@": 7900, 
  "charismatic": 7901, 
  "grap@@": 7902, 
  "industri@@": 7903, 
  "Yale": 7904, 
  "adviser": 7905, 
  "Abe": 7906, 
  "motor": 7907, 
  "Fre@@": 7908, 
  "replic@@": 7909, 
  "oy@@": 7910, 
  "Sudanese": 7911, 
  "lified": 7912, 
  "micro-@@": 7913, 
  "Sin@@": 7914, 
  "journalism": 7915, 
  "37": 7916, 
  "decides": 7917, 
  "scor@@": 7918, 
  "leap": 7919, 
  "surr@@": 7920, 
  "Cal@@": 7921, 
  "nal": 7922, 
  "ims": 7923, 
  "itors": 7924, 
  "shaky": 7925, 
  "old-@@": 7926, 
  "deepened": 7927, 
  "herself": 7928, 
  "insights": 7929, 
  "stores": 7930, 
  "Enlightenment": 7931, 
  "induc@@": 7932, 
  "est-@@": 7933, 
  "predic@@": 7934, 
  "ature": 7935, 
  "ey@@": 7936, 
  "indicted": 7937, 
  "vanished": 7938, 
  "NTC": 7939, 
  "SDR": 7940, 
  "let@@": 7941, 
  "compatible": 7942, 
  "fare": 7943, 
  "withdrawing": 7944, 
  "scarcely": 7945, 
  "rumors": 7946, 
  "scre@@": 7947, 
  "eration": 7948, 
  "Liberal": 7949, 
  "salary": 7950, 
  "Silicon": 7951, 
  "interrup@@": 7952, 
  "counted": 7953, 
  "kin": 7954, 
  "constituted": 7955, 
  "hike": 7956, 
  "infer@@": 7957, 
  "tempting": 7958, 
  "stolen": 7959, 
  "opportun@@": 7960, 
  "judging": 7961, 
  "authorized": 7962, 
  "autom@@": 7963, 
  "anytime": 7964, 
  "implication": 7965, 
  "fathers": 7966, 
  "broad@@": 7967, 
  "voter": 7968, 
  "liability": 7969, 
  "efully": 7970, 
  "as-@@": 7971, 
  "shield": 7972, 
  "Aristide": 7973, 
  "Stat@@": 7974, 
  "volunte@@": 7975, 
  "irreversible": 7976, 
  "risk-@@": 7977, 
  "unequal": 7978, 
  "habit": 7979, 
  "crum@@": 7980, 
  "subjected": 7981, 
  "repay": 7982, 
  "rem@@": 7983, 
  "directions": 7984, 
  "haven": 7985, 
  "limitations": 7986, 
  "manufacturers": 7987, 
  "cross-@@": 7988, 
  "passage": 7989, 
  "warrant": 7990, 
  "assertion": 7991, 
  "humiliating": 7992, 
  "V-@@": 7993, 
  "pulling": 7994, 
  "talents": 7995, 
  "dangerously": 7996, 
  "proposition": 7997, 
  "intact": 7998, 
  "non-state": 7999, 
  "ares": 8000, 
  "murderous": 8001, 
  "rivers": 8002, 
  "Liber@@": 8003, 
  "post-crisis": 8004, 
  "corporation": 8005, 
  "agreeing": 8006, 
  "Advis@@": 8007, 
  "prefers": 8008, 
  "How": 8009, 
  "ratify": 8010, 
  "vel": 8011, 
  "expedi@@": 8012, 
  "ishment": 8013, 
  "drops": 8014, 
  "Shin@@": 8015, 
  "elic@@": 8016, 
  "intractable": 8017, 
  "interact": 8018, 
  "imposes": 8019, 
  "intensify": 8020, 
  "papers": 8021, 
  "reversing": 8022, 
  "unlimited": 8023, 
  "unchanged": 8024, 
  "dar@@": 8025, 
  "clock": 8026, 
  "preferable": 8027, 
  "predictability": 8028, 
  "dies": 8029, 
  "bert": 8030, 
  "hiding": 8031, 
  "abst@@": 8032, 
  "explore": 8033, 
  "dissem@@": 8034, 
  "sciences": 8035, 
  "infant": 8036, 
  "hur@@": 8037, 
  "Afghans": 8038, 
  "twelve": 8039, 
  "Libyans": 8040, 
  "cosmopolitan": 8041, 
  "illegitimate": 8042, 
  "hitting": 8043, 
  "Raf@@": 8044, 
  "fications": 8045, 
  "ocratic": 8046, 
  "dismis@@": 8047, 
  "remedies": 8048, 
  "cronies": 8049, 
  "technocrats": 8050, 
  "obli@@": 8051, 
  "Ocean": 8052, 
  "um-@@": 8053, 
  "veget@@": 8054, 
  "espo@@": 8055, 
  "school@@": 8056, 
  "chemicals": 8057, 
  "extremes": 8058, 
  "even@@": 8059, 
  "organs": 8060, 
  "Mr": 8061, 
  "ake": 8062, 
  "Shi&apos;a": 8063, 
  "differ@@": 8064, 
  "disagreement": 8065, 
  "PR@@": 8066, 
  "reign": 8067, 
  "surpassed": 8068, 
  "med@@": 8069, 
  "addiction": 8070, 
  "penetr@@": 8071, 
  "Tel": 8072, 
  "glob@@": 8073, 
  "council": 8074, 
  "separatist": 8075, 
  "48": 8076, 
  "class@@": 8077, 
  "lining": 8078, 
  "hierarchy": 8079, 
  "thoughts": 8080, 
  "havoc": 8081, 
  "ified": 8082, 
  "High": 8083, 
  "ranked": 8084, 
  "graduate": 8085, 
  "Thomas": 8086, 
  "deterrent": 8087, 
  "wearing": 8088, 
  "ocracy": 8089, 
  "yuan": 8090, 
  "el-@@": 8091, 
  "commun@@": 8092, 
  "anti-Western": 8093, 
  "mic@@": 8094, 
  "employee": 8095, 
  "threw": 8096, 
  "tan@@": 8097, 
  "subsidized": 8098, 
  "Kofi": 8099, 
  "fostering": 8100, 
  "yesterday": 8101, 
  "voc@@": 8102, 
  "Barak": 8103, 
  "2.@@": 8104, 
  "real@@": 8105, 
  "aires": 8106, 
  "q": 8107, 
  "Sar@@": 8108, 
  "ood": 8109, 
  "Conservative": 8110, 
  "mirror": 8111, 
  "independently": 8112, 
  "thoroughly": 8113, 
  "Florida": 8114, 
  "grossly": 8115, 
  "extinction": 8116, 
  "ICTY": 8117, 
  "champions": 8118, 
  "L": 8119, 
  "spill": 8120, 
  "Pe@@": 8121, 
  "human-@@": 8122, 
  "ided": 8123, 
  "investigate": 8124, 
  "atism": 8125, 
  "2,@@": 8126, 
  "Med@@": 8127, 
  "commander": 8128, 
  "Buddhist": 8129, 
  "geographical": 8130, 
  "self-confidence": 8131, 
  "With": 8132, 
  "ami": 8133, 
  "dil@@": 8134, 
  "irrigation": 8135, 
  "complacency": 8136, 
  "deliber@@": 8137, 
  "pipelines": 8138, 
  "survivors": 8139, 
  "shine": 8140, 
  "gre@@": 8141, 
  "deposit": 8142, 
  "disappointing": 8143, 
  "examination": 8144, 
  "troop": 8145, 
  "meets": 8146, 
  "Ay@@": 8147, 
  "Rica": 8148, 
  "horrific": 8149, 
  "193@@": 8150, 
  "quantity": 8151, 
  "imperatives": 8152, 
  "To": 8153, 
  "ingredients": 8154, 
  "és": 8155, 
  "asymmetric": 8156, 
  "Euro-@@": 8157, 
  "Strauss-Kahn": 8158, 
  "bot@@": 8159, 
  "detainees": 8160, 
  "Delhi": 8161, 
  "Tibetans": 8162, 
  "foot": 8163, 
  "edly": 8164, 
  "value-added": 8165, 
  "enables": 8166, 
  "handful": 8167, 
  "ens@@": 8168, 
  "pas@@": 8169, 
  "ple": 8170, 
  "repudi@@": 8171, 
  "restricting": 8172, 
  "spokes@@": 8173, 
  "trivial": 8174, 
  "lower-@@": 8175, 
  "sibility": 8176, 
  "illusions": 8177, 
  "Recession": 8178, 
  "collapses": 8179, 
  "forging": 8180, 
  "ressed": 8181, 
  "passionate": 8182, 
  "peripheral": 8183, 
  "sion@@": 8184, 
  "universally": 8185, 
  "Margaret": 8186, 
  "pockets": 8187, 
  "shocking": 8188, 
  "protections": 8189, 
  "Krugman": 8190, 
  "goodwill": 8191, 
  "design@@": 8192, 
  "ambiguous": 8193, 
  "re-elected": 8194, 
  "canc@@": 8195, 
  "exceeded": 8196, 
  "vic@@": 8197, 
  "Rio": 8198, 
  "attractiveness": 8199, 
  "paramount": 8200, 
  "beating": 8201, 
  "gravity": 8202, 
  "frontier": 8203, 
  "lobbying": 8204, 
  "regulator": 8205, 
  "accommodate": 8206, 
  "rot@@": 8207, 
  "petro@@": 8208, 
  "age-@@": 8209, 
  "confronts": 8210, 
  "third-@@": 8211, 
  "Jos@@": 8212, 
  "unjust": 8213, 
  "exciting": 8214, 
  "divides": 8215, 
  "activism": 8216, 
  "Tea": 8217, 
  "flu@@": 8218, 
  "ions": 8219, 
  "converted": 8220, 
  "uphold": 8221, 
  "intend": 8222, 
  "tobacco": 8223, 
  "maritime": 8224, 
  "would-be": 8225, 
  "circum@@": 8226, 
  "patriotism": 8227, 
  "rendered": 8228, 
  "proc@@": 8229, 
  "boom@@": 8230, 
  "brilliant": 8231, 
  "self-determination": 8232, 
  "pric@@": 8233, 
  "suggestion": 8234, 
  "awa@@": 8235, 
  "mount": 8236, 
  "Ghraib": 8237, 
  "registered": 8238, 
  "enters": 8239, 
  "elev@@": 8240, 
  "flag": 8241, 
  "anemic": 8242, 
  "jailed": 8243, 
  "tighter": 8244, 
  "Kir@@": 8245, 
  "ala": 8246, 
  "tolerated": 8247, 
  "caud@@": 8248, 
  "publication": 8249, 
  "tivity": 8250, 
  "partially": 8251, 
  "undeniable": 8252, 
  "overcoming": 8253, 
  "Confucian": 8254, 
  "ven": 8255, 
  "tation": 8256, 
  "corrup@@": 8257, 
  "dropping": 8258, 
  "thu@@": 8259, 
  "simplistic": 8260, 
  "suspicious": 8261, 
  "suppressed": 8262, 
  "farms": 8263, 
  "akers": 8264, 
  "beneficiaries": 8265, 
  "stor@@": 8266, 
  "rooms": 8267, 
  "powerless": 8268, 
  "demonstrating": 8269, 
  "acious": 8270, 
  "psycho@@": 8271, 
  "44": 8272, 
  "-R@@": 8273, 
  "H": 8274, 
  "struc@@": 8275, 
  "wounds": 8276, 
  "entation": 8277, 
  "fatal": 8278, 
  "lur@@": 8279, 
  "ona": 8280, 
  "hubris": 8281, 
  "physic@@": 8282, 
  "Adam": 8283, 
  "aving": 8284, 
  "Jiabao": 8285, 
  "ful@@": 8286, 
  "ans@@": 8287, 
  "export-led": 8288, 
  "greeted": 8289, 
  "imprisonment": 8290, 
  "alienated": 8291, 
  "mayor": 8292, 
  "triple": 8293, 
  "portrayed": 8294, 
  "crip@@": 8295, 
  "careers": 8296, 
  "heter@@": 8297, 
  "desired": 8298, 
  "mankind": 8299, 
  "conventions": 8300, 
  "thri@@": 8301, 
  "Blix": 8302, 
  "sheet": 8303, 
  "poppy": 8304, 
  "fires": 8305, 
  "specified": 8306, 
  "ck@@": 8307, 
  "insured": 8308, 
  "attached": 8309, 
  "ank@@": 8310, 
  "complement": 8311, 
  "Bro@@": 8312, 
  "undemocratic": 8313, 
  "shor@@": 8314, 
  "discount": 8315, 
  "appoint": 8316, 
  "cruel": 8317, 
  "invo@@": 8318, 
  "mega-@@": 8319, 
  "recovering": 8320, 
  "kno@@": 8321, 
  "illustrates": 8322, 
  "prevents": 8323, 
  "tortured": 8324, 
  "celebr@@": 8325, 
  "denies": 8326, 
  "FS@@": 8327, 
  "turbulence": 8328, 
  "umbrella": 8329, 
  "nationalization": 8330, 
  "awarded": 8331, 
  "lier": 8332, 
  "53": 8333, 
  "crossed": 8334, 
  "desert": 8335, 
  "resisting": 8336, 
  "out-@@": 8337, 
  "fra@@": 8338, 
  "coercion": 8339, 
  "Patri@@": 8340, 
  "alls": 8341, 
  "Science": 8342, 
  "drives": 8343, 
  "ecosystems": 8344, 
  "Tahrir": 8345, 
  "rid@@": 8346, 
  "progres@@": 8347, 
  "cher": 8348, 
  "realm": 8349, 
  "accommod@@": 8350, 
  "ury": 8351, 
  "destabilize": 8352, 
  "Ver@@": 8353, 
  "drug-@@": 8354, 
  "Sul@@": 8355, 
  "shareholder": 8356, 
  "thir@@": 8357, 
  "feeding": 8358, 
  "compelled": 8359, 
  "adhere": 8360, 
  "Euro-Atlantic": 8361, 
  "war-@@": 8362, 
  "auc@@": 8363, 
  "hesit@@": 8364, 
  "retired": 8365, 
  "addic@@": 8366, 
  "1956": 8367, 
  "Wilders": 8368, 
  "long@@": 8369, 
  "formerly": 8370, 
  "ration@@": 8371, 
  "bonus": 8372, 
  "watch@@": 8373, 
  "rela@@": 8374, 
  "Nepal": 8375, 
  "develops": 8376, 
  "ter-@@": 8377, 
  "cos@@": 8378, 
  "Cypriot": 8379, 
  "competence": 8380, 
  "promotes": 8381, 
  "set@@": 8382, 
  "Tamil": 8383, 
  "manipulate": 8384, 
  "odo@@": 8385, 
  "pieces": 8386, 
  "surgery": 8387, 
  "Sw@@": 8388, 
  "aying": 8389, 
  "beauty": 8390, 
  "acity": 8391, 
  "predominantly": 8392, 
  "churches": 8393, 
  "Ram@@": 8394, 
  "testimony": 8395, 
  "ulation": 8396, 
  "slump": 8397, 
  "pretend": 8398, 
  "relation": 8399, 
  "lap@@": 8400, 
  "fortunes": 8401, 
  "angu@@": 8402, 
  "CA@@": 8403, 
  "evaluate": 8404, 
  "v": 8405, 
  "landslide": 8406, 
  "Uganda": 8407, 
  "fruits": 8408, 
  "Muammar": 8409, 
  "zero-sum": 8410, 
  "narcotics": 8411, 
  "permits": 8412, 
  "campaigning": 8413, 
  "ica": 8414, 
  "Congressional": 8415, 
  "bird": 8416, 
  "spot": 8417, 
  "stand@@": 8418, 
  "inflated": 8419, 
  "sin": 8420, 
  "Western@@": 8421, 
  "devised": 8422, 
  "overvalued": 8423, 
  "QE": 8424, 
  "tain@@": 8425, 
  "Cubans": 8426, 
  "convert": 8427, 
  "compu@@": 8428, 
  "too-@@": 8429, 
  "possessed": 8430, 
  "fashionable": 8431, 
  "occupy": 8432, 
  "ruthless": 8433, 
  "speaker": 8434, 
  "yr@@": 8435, 
  "responsive": 8436, 
  "safely": 8437, 
  "tives": 8438, 
  "shall": 8439, 
  "separated": 8440, 
  "sca@@": 8441, 
  "drivers": 8442, 
  "°": 8443, 
  "Ceausescu": 8444, 
  "accessible": 8445, 
  "accordance": 8446, 
  "Ge@@": 8447, 
  "invading": 8448, 
  "st-@@": 8449, 
  "lic@@": 8450, 
  "Gre@@": 8451, 
  "immensely": 8452, 
  "yard": 8453, 
  "black@@": 8454, 
  "metic": 8455, 
  "disappointment": 8456, 
  "countryside": 8457, 
  "7.@@": 8458, 
  "reminiscent": 8459, 
  "rolled": 8460, 
  "olf": 8461, 
  "compulsory": 8462, 
  "amid": 8463, 
  "Khomeini": 8464, 
  "1949": 8465, 
  "crushed": 8466, 
  "Academy": 8467, 
  "Vatican": 8468, 
  "organ@@": 8469, 
  "disap@@": 8470, 
  "impressed": 8471, 
  "recruit": 8472, 
  "ton@@": 8473, 
  "supplier": 8474, 
  "sup@@": 8475, 
  "merit@@": 8476, 
  "disorderly": 8477, 
  "det@@": 8478, 
  "Kur@@": 8479, 
  "inclined": 8480, 
  "ip": 8481, 
  "Pl@@": 8482, 
  "Binyamin": 8483, 
  "NE@@": 8484, 
  "consecutive": 8485, 
  "transc@@": 8486, 
  "utility": 8487, 
  "tain": 8488, 
  "Ros@@": 8489, 
  "wholesale": 8490, 
  "compl@@": 8491, 
  "fore": 8492, 
  "entertainment": 8493, 
  "legality": 8494, 
  "storms": 8495, 
  "spike": 8496, 
  "defl@@": 8497, 
  "low-carbon": 8498, 
  "stre@@": 8499, 
  "intu@@": 8500, 
  "marketing": 8501, 
  "character@@": 8502, 
  "calcul@@": 8503, 
  "Hollywood": 8504, 
  "III": 8505, 
  "Pakistanis": 8506, 
  "depic@@": 8507, 
  "debt-to-GDP": 8508, 
  "ading": 8509, 
  "inefficiency": 8510, 
  "instructions": 8511, 
  "cribed": 8512, 
  "interpretations": 8513, 
  "endemic": 8514, 
  "BR@@": 8515, 
  "Le": 8516, 
  "rank": 8517, 
  "gul@@": 8518, 
  "SWFs": 8519, 
  "fro@@": 8520, 
  "ension": 8521, 
  "socio@@": 8522, 
  "sixth": 8523, 
  "eral": 8524, 
  "ressing": 8525, 
  "broadcast": 8526, 
  "concep@@": 8527, 
  "desp@@": 8528, 
  "Year": 8529, 
  "fragmented": 8530, 
  "met@@": 8531, 
  "fascism": 8532, 
  "agu@@": 8533, 
  "peril": 8534, 
  "•": 8535, 
  "suited": 8536, 
  "1.4": 8537, 
  "loved": 8538, 
  "omed": 8539, 
  "Market": 8540, 
  "breakup": 8541, 
  "Albanian": 8542, 
  "Muhammad": 8543, 
  "may@@": 8544, 
  "tackling": 8545, 
  "waged": 8546, 
  "rhetorical": 8547, 
  "kings": 8548, 
  "ails": 8549, 
  "Res@@": 8550, 
  "impasse": 8551, 
  "emphasizing": 8552, 
  "coca": 8553, 
  "Pearl": 8554, 
  "1.2": 8555, 
  "polar": 8556, 
  "looms": 8557, 
  "row@@": 8558, 
  "band@@": 8559, 
  "1974": 8560, 
  "Civil": 8561, 
  "ros@@": 8562, 
  "curious": 8563, 
  "yielded": 8564, 
  "50,000": 8565, 
  "misrule": 8566, 
  "differenti@@": 8567, 
  "vit@@": 8568, 
  "hopeful": 8569, 
  "insiders": 8570, 
  "Bon@@": 8571, 
  "deflationary": 8572, 
  "Corporation": 8573, 
  "tribes": 8574, 
  "bribes": 8575, 
  "rewarding": 8576, 
  "Ben@@": 8577, 
  "magazine": 8578, 
  "describes": 8579, 
  "esting": 8580, 
  "stock@@": 8581, 
  "confrontations": 8582, 
  "bridges": 8583, 
  "take@@": 8584, 
  "aw": 8585, 
  "employ": 8586, 
  "barred": 8587, 
  "Resolution": 8588, 
  "gun@@": 8589, 
  "clin@@": 8590, 
  "nutrition": 8591, 
  "comprise": 8592, 
  "logy": 8593, 
  "sil@@": 8594, 
  "infamous": 8595, 
  "empower": 8596, 
  "stum@@": 8597, 
  "ision": 8598, 
  "erup@@": 8599, 
  "license": 8600, 
  "offense": 8601, 
  "mac@@": 8602, 
  "Club": 8603, 
  "ordin@@": 8604, 
  "proxy": 8605, 
  "contentious": 8606, 
  "parasites": 8607, 
  "illiberal": 8608, 
  "lex@@": 8609, 
  "ini": 8610, 
  "correc@@": 8611, 
  "confid@@": 8612, 
  "leveraged": 8613, 
  "best@@": 8614, 
  "expressing": 8615, 
  "genetically": 8616, 
  "swe@@": 8617, 
  "polling": 8618, 
  "provocative": 8619, 
  "privatized": 8620, 
  "overdue": 8621, 
  "ashes": 8622, 
  "DP": 8623, 
  "Is": 8624, 
  "ti": 8625, 
  "traveled": 8626, 
  "patents": 8627, 
  "250": 8628, 
  "assurance": 8629, 
  "fence": 8630, 
  "yp@@": 8631, 
  "19th": 8632, 
  "ush": 8633, 
  "Italians": 8634, 
  "dead@@": 8635, 
  "pes": 8636, 
  "ideologies": 8637, 
  "bipolar": 8638, 
  "enter@@": 8639, 
  "si": 8640, 
  "put@@": 8641, 
  "combining": 8642, 
  "ifies": 8643, 
  "gamble": 8644, 
  "secularism": 8645, 
  "timely": 8646, 
  "Maliki": 8647, 
  "nationalistic": 8648, 
  "isation": 8649, 
  "lights": 8650, 
  "questionable": 8651, 
  "coincidence": 8652, 
  "ond": 8653, 
  "quarters": 8654, 
  "pile": 8655, 
  "administered": 8656, 
  "classified": 8657, 
  "dam": 8658, 
  "ey": 8659, 
  "assi@@": 8660, 
  "assist@@": 8661, 
  "obscure": 8662, 
  "fallout": 8663, 
  "devastation": 8664, 
  "Economics": 8665, 
  "Russian-@@": 8666, 
  "Amsterdam": 8667, 
  "Kal@@": 8668, 
  "journey": 8669, 
  "1970s": 8670, 
  "Democrat": 8671, 
  "secession": 8672, 
  "CIA": 8673, 
  "competi@@": 8674, 
  "frac@@": 8675, 
  "nomin@@": 8676, 
  "anticipate": 8677, 
  "preclud@@": 8678, 
  "short-run": 8679, 
  "interconnected": 8680, 
  "bank@@": 8681, 
  "correction": 8682, 
  "stimulating": 8683, 
  "frequency": 8684, 
  "interior": 8685, 
  "CO@@": 8686, 
  "forefront": 8687, 
  "nearby": 8688, 
  "ensures": 8689, 
  "ideally": 8690, 
  "courageous": 8691, 
  "horrors": 8692, 
  "Koran": 8693, 
  "pin@@": 8694, 
  "securitization": 8695, 
  "deepest": 8696, 
  "generational": 8697, 
  "billion@@": 8698, 
  "destination": 8699, 
  "assessed": 8700, 
  "urging": 8701, 
  "irre@@": 8702, 
  "disruptive": 8703, 
  "uk": 8704, 
  "jihad": 8705, 
  "Mi@@": 8706, 
  "open-@@": 8707, 
  "bombers": 8708, 
  "ense": 8709, 
  "decentralized": 8710, 
  "expelled": 8711, 
  "score": 8712, 
  "sens@@": 8713, 
  "trum@@": 8714, 
  "fastest": 8715, 
  "military-@@": 8716, 
  "averaged": 8717, 
  "resurgence": 8718, 
  "oph@@": 8719, 
  "Phelps": 8720, 
  "uneven": 8721, 
  "decreased": 8722, 
  "maj@@": 8723, 
  "tations": 8724, 
  "invent@@": 8725, 
  "cease": 8726, 
  "hard-line": 8727, 
  "cast@@": 8728, 
  "eas@@": 8729, 
  "absorbed": 8730, 
  "eping": 8731, 
  "varied": 8732, 
  "Likud": 8733, 
  "lag": 8734, 
  "divert": 8735, 
  "self": 8736, 
  "cloning": 8737, 
  "Governor": 8738, 
  "inspiration": 8739, 
  "fearing": 8740, 
  "emigr@@": 8741, 
  "manipulated": 8742, 
  "ections": 8743, 
  "dates": 8744, 
  "ñ@@": 8745, 
  "Fa@@": 8746, 
  "vil@@": 8747, 
  "self-fulfilling": 8748, 
  "reckoning": 8749, 
  "elevated": 8750, 
  "ub@@": 8751, 
  "prob@@": 8752, 
  "victorious": 8753, 
  "Damascus": 8754, 
  "rain": 8755, 
  "highlight": 8756, 
  "Niger": 8757, 
  "Fin@@": 8758, 
  "Oxford": 8759, 
  "reap": 8760, 
  "comfor@@": 8761, 
  "banning": 8762, 
  "incompetent": 8763, 
  "0th": 8764, 
  "arrests": 8765, 
  "ush@@": 8766, 
  "Nordic": 8767, 
  "sequ@@": 8768, 
  "tist": 8769, 
  "allegations": 8770, 
  "pot@@": 8771, 
  "defer@@": 8772, 
  "joke": 8773, 
  "shop": 8774, 
  "aping": 8775, 
  "colleague": 8776, 
  "ceremony": 8777, 
  "topic": 8778, 
  "prisons": 8779, 
  "disdain": 8780, 
  "tioning": 8781, 
  "married": 8782, 
  "Fidel": 8783, 
  "blocking": 8784, 
  "renegoti@@": 8785, 
  "They": 8786, 
  "Ozawa": 8787, 
  "professors": 8788, 
  "Milan": 8789, 
  "cong@@": 8790, 
  "News": 8791, 
  "invite": 8792, 
  "achievable": 8793, 
  "shortfall": 8794, 
  "well-known": 8795, 
  "corresponding": 8796, 
  "mobilizing": 8797, 
  "rad@@": 8798, 
  "tie": 8799, 
  "cultiv@@": 8800, 
  "detect": 8801, 
  "Po@@": 8802, 
  "initiate": 8803, 
  "West@@": 8804, 
  "000-@@": 8805, 
  "fol@@": 8806, 
  "1985": 8807, 
  "description": 8808, 
  "contributors": 8809, 
  "sleep": 8810, 
  "Wilson": 8811, 
  "storage": 8812, 
  "cons@@": 8813, 
  "treasury": 8814, 
  "ger@@": 8815, 
  "castes": 8816, 
  "heed": 8817, 
  "suppressing": 8818, 
  "fifteen": 8819, 
  "Yasukuni": 8820, 
  "duration": 8821, 
  "materi@@": 8822, 
  "lion": 8823, 
  "Old": 8824, 
  "disarray": 8825, 
  "Karadzic": 8826, 
  "racism": 8827, 
  "multiplied": 8828, 
  "dry": 8829, 
  "shopping": 8830, 
  "Curtain": 8831, 
  "installations": 8832, 
  "ESDP": 8833, 
  "conj@@": 8834, 
  "jihadi": 8835, 
  "diet": 8836, 
  "cumulative": 8837, 
  "subtle": 8838, 
  "discretionary": 8839, 
  "Lukashenko": 8840, 
  "denominated": 8841, 
  "tune": 8842, 
  "hardship": 8843, 
  "arsenals": 8844, 
  "protects": 8845, 
  "amendments": 8846, 
  "Americas": 8847, 
  "soar": 8848, 
  "Panel": 8849, 
  "fragmentation": 8850, 
  "counting": 8851, 
  "peso": 8852, 
  "aching": 8853, 
  "ink@@": 8854, 
  "essing": 8855, 
  "unw@@": 8856, 
  "benchmark": 8857, 
  "ariat": 8858, 
  "emphasizes": 8859, 
  "proceeds": 8860, 
  "loaded": 8861, 
  "symboli@@": 8862, 
  "crisis-@@": 8863, 
  "Kissinger": 8864, 
  "nationwide": 8865, 
  "wid@@": 8866, 
  "facilitating": 8867, 
  "NGO": 8868, 
  "Ji@@": 8869, 
  "periodic": 8870, 
  "cens@@": 8871, 
  "once-@@": 8872, 
  "optim@@": 8873, 
  "Exchange": 8874, 
  "expansionary": 8875, 
  "draws": 8876, 
  "compromising": 8877, 
  "successors": 8878, 
  "esome": 8879, 
  "Yemeni": 8880, 
  "contested": 8881, 
  "The@@": 8882, 
  "immunity": 8883, 
  "friendship": 8884, 
  "laboratory": 8885, 
  "engineer": 8886, 
  "wear": 8887, 
  "inated": 8888, 
  "Research": 8889, 
  "incorpor@@": 8890, 
  "bomb@@": 8891, 
  "influences": 8892, 
  "slavery": 8893, 
  "barbar@@": 8894, 
  "Protest@@": 8895, 
  "longevity": 8896, 
  "suppliers": 8897, 
  "posture": 8898, 
  "reconciled": 8899, 
  "foolish": 8900, 
  "Power": 8901, 
  "gang": 8902, 
  "theirs": 8903, 
  "internation@@": 8904, 
  "lagging": 8905, 
  "wat@@": 8906, 
  "newcomers": 8907, 
  "shed": 8908, 
  "ound@@": 8909, 
  "pro-democracy": 8910, 
  "reactors": 8911, 
  "dissident": 8912, 
  "overheating": 8913, 
  "labor-intensive": 8914, 
  "ensuing": 8915, 
  "ally-@@": 8916, 
  "olds": 8917, 
  "identi@@": 8918, 
  "pre-emptive": 8919, 
  "cognitive": 8920, 
  "turnaround": 8921, 
  "Bosnian": 8922, 
  "interfere": 8923, 
  "buff@@": 8924, 
  "tocr@@": 8925, 
  "tal@@": 8926, 
  "utter": 8927, 
  "distinc@@": 8928, 
  "oh@@": 8929, 
  "posts": 8930, 
  "rivalries": 8931, 
  "1933": 8932, 
  "trajectory": 8933, 
  "anj@@": 8934, 
  "Turkmenistan": 8935, 
  "Ts@@": 8936, 
  "purchased": 8937, 
  "predicament": 8938, 
  "ambiguity": 8939, 
  "trillions": 8940, 
  "ment-@@": 8941, 
  "upheaval": 8942, 
  "chooses": 8943, 
  "Democracy": 8944, 
  "reinv@@": 8945, 
  "part@@": 8946, 
  "ote": 8947, 
  "Mul@@": 8948, 
  "friction": 8949, 
  "conducive": 8950, 
  "acies": 8951, 
  "Mario": 8952, 
  "vigorously": 8953, 
  "Milton": 8954, 
  "duc@@": 8955, 
  "Fifth": 8956, 
  "breach": 8957, 
  "narrow@@": 8958, 
  "requests": 8959, 
  "bang": 8960, 
  "adversary": 8961, 
  "quot": 8962, 
  "Tu@@": 8963, 
  "secrecy": 8964, 
  "capitalists": 8965, 
  "democr@@": 8966, 
  "dare": 8967, 
  "municipal": 8968, 
  "so-@@": 8969, 
  "Texas": 8970, 
  "continuously": 8971, 
  "woes": 8972, 
  "ailed": 8973, 
  "cou@@": 8974, 
  "traits": 8975, 
  "distressed": 8976, 
  "dubbed": 8977, 
  "aug@@": 8978, 
  "duplic@@": 8979, 
  "Te@@": 8980, 
  "telephone": 8981, 
  "hun@@": 8982, 
  "modified": 8983, 
  "selective": 8984, 
  "smoke": 8985, 
  "rigorous": 8986, 
  "proponents": 8987, 
  "session": 8988, 
  "literacy": 8989, 
  "constitutions": 8990, 
  "horror": 8991, 
  "Zealand": 8992, 
  "Armenian": 8993, 
  "lum@@": 8994, 
  "Hungarian": 8995, 
  "wrec@@": 8996, 
  "unanimous": 8997, 
  "conducting": 8998, 
  "cryst@@": 8999, 
  "suspension": 9000, 
  "ero@@": 9001, 
  "drain": 9002, 
  "drove": 9003, 
  "subs@@": 9004, 
  "invaded": 9005, 
  "ray": 9006, 
  "unconditional": 9007, 
  "rob@@": 9008, 
  "anonymous": 9009, 
  "arrogant": 9010, 
  "noticed": 9011, 
  "waging": 9012, 
  "ular": 9013, 
  "strife": 9014, 
  "-Russian": 9015, 
  "itor@@": 9016, 
  "enriched": 9017, 
  "fulfilling": 9018, 
  "Marxist": 9019, 
  "sa": 9020, 
  "leaning": 9021, 
  "thereafter": 9022, 
  "predictably": 9023, 
  "Westerners": 9024, 
  "girl": 9025, 
  "warheads": 9026, 
  "thered": 9027, 
  "dam@@": 9028, 
  "Ho@@": 9029, 
  "ackers": 9030, 
  "silver": 9031, 
  "2.3": 9032, 
  "wed": 9033, 
  "sey": 9034, 
  "Albanians": 9035, 
  "anarchy": 9036, 
  "rockets": 9037, 
  "Mas@@": 9038, 
  "designated": 9039, 
  "abortion": 9040, 
  "progressively": 9041, 
  "wanting": 9042, 
  "horse": 9043, 
  "movies": 9044, 
  "collection": 9045, 
  "beaten": 9046, 
  "rough": 9047, 
  "complementary": 9048, 
  "revised": 9049, 
  "ifying": 9050, 
  "year-@@": 9051, 
  "topple": 9052, 
  "arming": 9053, 
  "belonging": 9054, 
  "Vic@@": 9055, 
  "strained": 9056, 
  "confin@@": 9057, 
  "intensified": 9058, 
  "transcend": 9059, 
  "Dominique": 9060, 
  "Investment": 9061, 
  "advisors": 9062, 
  "morning": 9063, 
  "liberated": 9064, 
  "ops": 9065, 
  "mandatory": 9066, 
  "ten-@@": 9067, 
  "underpinned": 9068, 
  "twin": 9069, 
  "Christ@@": 9070, 
  "chil@@": 9071, 
  "Srebrenica": 9072, 
  "hair@@": 9073, 
  "osity": 9074, 
  "na": 9075, 
  "ridicul@@": 9076, 
  "soli@@": 9077, 
  "draw@@": 9078, 
  "endeav@@": 9079, 
  "toppled": 9080, 
  "logically": 9081, 
  "recommended": 9082, 
  "flying": 9083, 
  "degrad@@": 9084, 
  "identifying": 9085, 
  "worsened": 9086, 
  "perverse": 9087, 
  "fragility": 9088, 
  "circulation": 9089, 
  "ective": 9090, 
  "depar@@": 9091, 
  "euro@@": 9092, 
  "proclaim": 9093, 
  "apathy": 9094, 
  "empires": 9095, 
  "my@@": 9096, 
  "embodies": 9097, 
  "designs": 9098, 
  "parallels": 9099, 
  "Hou@@": 9100, 
  "ingen@@": 9101, 
  "cleansing": 9102, 
  "Delta": 9103, 
  "distur@@": 9104, 
  "supervisors": 9105, 
  "accidents": 9106, 
  "substantive": 9107, 
  "Bhutan": 9108, 
  "revit@@": 9109, 
  "assessments": 9110, 
  "holes": 9111, 
  "withdrawn": 9112, 
  "domain": 9113, 
  "allow@@": 9114, 
  "materialize": 9115, 
  "mitigation": 9116, 
  "glance": 9117, 
  "brains": 9118, 
  "20-@@": 9119, 
  "risking": 9120, 
  "blockade": 9121, 
  "refin@@": 9122, 
  "Mumbai": 9123, 
  "grace": 9124, 
  "year@@": 9125, 
  "2008-2009": 9126, 
  "neighborhoods": 9127, 
  "execution": 9128, 
  "boycott": 9129, 
  "Chad": 9130, 
  "wind@@": 9131, 
  "simp@@": 9132, 
  "ik": 9133, 
  "neuro@@": 9134, 
  "valuation": 9135, 
  "dir@@": 9136, 
  "supervis@@": 9137, 
  "off-@@": 9138, 
  "crowded": 9139, 
  "ech": 9140, 
  "distingu@@": 9141, 
  "prosecuted": 9142, 
  "blue": 9143, 
  "plunged": 9144, 
  "hyper-@@": 9145, 
  "privately": 9146, 
  "cut@@": 9147, 
  "crib@@": 9148, 
  "nerve": 9149, 
  "viewers": 9150, 
  "nurture": 9151, 
  "paths": 9152, 
  "compound": 9153, 
  "Foundation": 9154, 
  "0s": 9155, 
  "bus@@": 9156, 
  "novel@@": 9157, 
  "unfolding": 9158, 
  "exploiting": 9159, 
  "small@@": 9160, 
  "comprehend": 9161, 
  "oppressive": 9162, 
  "reson@@": 9163, 
  "individually": 9164, 
  "social-welfare": 9165, 
  "reinvigor@@": 9166, 
  "assertiveness": 9167, 
  "peculiar": 9168, 
  "apartheid": 9169, 
  "underestimate": 9170, 
  "dividends": 9171, 
  "preoccupied": 9172, 
  "revolts": 9173, 
  "satisfactory": 9174, 
  "kov@@": 9175, 
  "designing": 9176, 
  "pause": 9177, 
  "G-@@": 9178, 
  "peacekeepers": 9179, 
  "describing": 9180, 
  "cru@@": 9181, 
  "eted": 9182, 
  "watershed": 9183, 
  "miser@@": 9184, 
  "ffs": 9185, 
  "pp@@": 9186, 
  "uniform": 9187, 
  "30,000": 9188, 
  "emit@@": 9189, 
  "providers": 9190, 
  "thwest": 9191, 
  "attribute": 9192, 
  "Draghi": 9193, 
  "subordin@@": 9194, 
  "succumb": 9195, 
  "functional": 9196, 
  "ye@@": 9197, 
  "Anglo-Saxon": 9198, 
  "je@@": 9199, 
  "fies": 9200, 
  "normalization": 9201, 
  "teenth": 9202, 
  "instances": 9203, 
  "criterion": 9204, 
  "cynicism": 9205, 
  "iss": 9206, 
  "prosper": 9207, 
  "Comprehensive": 9208, 
  "seriousness": 9209, 
  "sadd@@": 9210, 
  "spots": 9211, 
  "someday": 9212, 
  "disruptions": 9213, 
  "William": 9214, 
  "steril@@": 9215, 
  "abduc@@": 9216, 
  "primacy": 9217, 
  "havens": 9218, 
  "stakeholders": 9219, 
  "ame@@": 9220, 
  "behaved": 9221, 
  "fig@@": 9222, 
  "guiding": 9223, 
  "hoc": 9224, 
  "precarious": 9225, 
  "Berezovsky": 9226, 
  "aggravated": 9227, 
  "observer": 9228, 
  "anticip@@": 9229, 
  "dirty": 9230, 
  "aya": 9231, 
  "tes@@": 9232, 
  "flee": 9233, 
  "wheat": 9234, 
  "55": 9235, 
  "nurtured": 9236, 
  "scant": 9237, 
  "gift": 9238, 
  "Djindjic": 9239, 
  "suitable": 9240, 
  "nourished": 9241, 
  "linguistic": 9242, 
  "realistically": 9243, 
  "cartoons": 9244, 
  "indebtedness": 9245, 
  "electr@@": 9246, 
  "Mos@@": 9247, 
  "pret@@": 9248, 
  "temptations": 9249, 
  "rati@@": 9250, 
  "dep@@": 9251, 
  "neo@@": 9252, 
  "sometime": 9253, 
  "fat": 9254, 
  "ecosystem": 9255, 
  "U-@@": 9256, 
  "erode": 9257, 
  "32": 9258, 
  "fted": 9259, 
  "flooding": 9260, 
  "confirms": 9261, 
  "stops": 9262, 
  "accommodation": 9263, 
  "oming": 9264, 
  "defaul@@": 9265, 
  "generosity": 9266, 
  "flo@@": 9267, 
  "Tunisian": 9268, 
  "ees": 9269, 
  "vengeance": 9270, 
  "impending": 9271, 
  "zy": 9272, 
  "Ol@@": 9273, 
  "world-@@": 9274, 
  "conception": 9275, 
  "fal@@": 9276, 
  "ken": 9277, 
  "Humala": 9278, 
  "cartels": 9279, 
  "ply": 9280, 
  "consolidated": 9281, 
  "educ@@": 9282, 
  "ond@@": 9283, 
  "AN@@": 9284, 
  "revision": 9285, 
  "Brig@@": 9286, 
  "low-wage": 9287, 
  "flag@@": 9288, 
  "post-Cold": 9289, 
  "better-@@": 9290, 
  "colonies": 9291, 
  "dragged": 9292, 
  "cable": 9293, 
  "tism": 9294, 
  "Antarctic": 9295, 
  "ü@@": 9296, 
  "copy": 9297, 
  "reli@@": 9298, 
  "30-@@": 9299, 
  "circ@@": 9300, 
  "spra@@": 9301, 
  "analogies": 9302, 
  "fy": 9303, 
  "firing": 9304, 
  "onists": 9305, 
  "publishing": 9306, 
  "s.": 9307, 
  "secret@@": 9308, 
  "ani@@": 9309, 
  "ou": 9310, 
  "privati@@": 9311, 
  "submit": 9312, 
  "Assange": 9313, 
  "wives": 9314, 
  "uncontrolled": 9315, 
  "fiction": 9316, 
  "yielding": 9317, 
  "circul@@": 9318, 
  "oceans": 9319, 
  "anced": 9320, 
  "coastal": 9321, 
  "chapter": 9322, 
  "perestroika": 9323, 
  "brutally": 9324, 
  "tribunals": 9325, 
  "invest@@": 9326, 
  "servic@@": 9327, 
  "analyses": 9328, 
  "comman@@": 9329, 
  "gam@@": 9330, 
  "theater": 9331, 
  "icked": 9332, 
  "upset": 9333, 
  "To@@": 9334, 
  "technocratic": 9335, 
  "ong-@@": 9336, 
  "embar@@": 9337, 
  "rebel@@": 9338, 
  "denounce": 9339, 
  "authors": 9340, 
  "Orleans": 9341, 
  "enthusiastic": 9342, 
  "conceivable": 9343, 
  "punitive": 9344, 
  "oting": 9345, 
  "altered": 9346, 
  "Bur@@": 9347, 
  "DDT": 9348, 
  "99": 9349, 
  "ura": 9350, 
  "peror": 9351, 
  "volumes": 9352, 
  "Review": 9353, 
  "sus": 9354, 
  "impulse": 9355, 
  "refer@@": 9356, 
  "church": 9357, 
  "homosexuality": 9358, 
  "sta@@": 9359, 
  "partition": 9360, 
  "precondition": 9361, 
  "anom@@": 9362, 
  "dogma": 9363, 
  "illicit": 9364, 
  "1947": 9365, 
  "Services": 9366, 
  "tum@@": 9367, 
  "reserved": 9368, 
  "stroke": 9369, 
  "betrayal": 9370, 
  "proximity": 9371, 
  "mono@@": 9372, 
  "hanging": 9373, 
  "perpetual": 9374, 
  "glaciers": 9375, 
  "Michael": 9376, 
  "fights": 9377, 
  "underscored": 9378, 
  "Peninsula": 9379, 
  "Condoleezza": 9380, 
  "ject": 9381, 
  "intimidation": 9382, 
  "heating": 9383, 
  "loy@@": 9384, 
  "imperialist": 9385, 
  "curtailing": 9386, 
  "discre@@": 9387, 
  "sand": 9388, 
  "working-age": 9389, 
  "na@@": 9390, 
  "adapted": 9391, 
  "ll": 9392, 
  "anding": 9393, 
  "humane": 9394, 
  "120": 9395, 
  "occupations": 9396, 
  "glut": 9397, 
  "patern@@": 9398, 
  "philanthrop@@": 9399, 
  "Mis@@": 9400, 
  "compreh@@": 9401, 
  "instruc@@": 9402, 
  "summits": 9403, 
  "acqu@@": 9404, 
  "build-up": 9405, 
  "IR@@": 9406, 
  "unted": 9407, 
  "drafting": 9408, 
  "bloo@@": 9409, 
  "participated": 9410, 
  "exercised": 9411, 
  "regained": 9412, 
  "Rel@@": 9413, 
  "din@@": 9414, 
  "schol@@": 9415, 
  "Hab@@": 9416, 
  "setbacks": 9417, 
  "hij@@": 9418, 
  "MIT": 9419, 
  "bulk": 9420, 
  "delaying": 9421, 
  "Christmas": 9422, 
  "differs": 9423, 
  "eds": 9424, 
  "upside": 9425, 
  "unifying": 9426, 
  "proteins": 9427, 
  "fabric": 9428, 
  "deterred": 9429, 
  "provoking": 9430, 
  "boat": 9431, 
  "Golden": 9432, 
  "loser": 9433, 
  "slide": 9434, 
  "spectacle": 9435, 
  "Malawi": 9436, 
  "aided": 9437, 
  "Indonesian": 9438, 
  "tracks": 9439, 
  "milit@@": 9440, 
  "workplace": 9441, 
  "palace": 9442, 
  "big@@": 9443, 
  "render": 9444, 
  "mine": 9445, 
  "ante": 9446, 
  "­@@": 9447, 
  "inspection": 9448, 
  "sidelines": 9449, 
  "devastated": 9450, 
  "proposes": 9451, 
  "orm@@": 9452, 
  "Mohammed": 9453, 
  "endure": 9454, 
  "inqu@@": 9455, 
  "grateful": 9456, 
  "dig@@": 9457, 
  "addresses": 9458, 
  "mild": 9459, 
  "quantities": 9460, 
  "voluntarily": 9461, 
  "GM": 9462, 
  "infection": 9463, 
  "Uni@@": 9464, 
  "footing": 9465, 
  "Raj@@": 9466, 
  "behavioral": 9467, 
  "ostensibly": 9468, 
  "stressed": 9469, 
  "sym@@": 9470, 
  "sacrifices": 9471, 
  "Solzhenitsyn": 9472, 
  "ologists": 9473, 
  "solvency": 9474, 
  "kids": 9475, 
  "far-@@": 9476, 
  "Shell": 9477, 
  "inspiring": 9478, 
  "intim@@": 9479, 
  "divisive": 9480, 
  "Einstein": 9481, 
  "galvan@@": 9482, 
  "spell": 9483, 
  "shoot": 9484, 
  "ID@@": 9485, 
  "penalties": 9486, 
  "adventure": 9487, 
  "fostered": 9488, 
  "Why": 9489, 
  "rebound": 9490, 
  "intransigence": 9491, 
  "anti-Semitic": 9492, 
  "illing": 9493, 
  "amnesty": 9494, 
  "endgame": 9495, 
  "disp@@": 9496, 
  "timetable": 9497, 
  "taxpayer": 9498, 
  "indications": 9499, 
  "Nuremberg": 9500, 
  "offshore": 9501, 
  "intra-@@": 9502, 
  "6.5": 9503, 
  "protective": 9504, 
  "financial-market": 9505, 
  "EA@@": 9506, 
  "eigh@@": 9507, 
  "severity": 9508, 
  "unfettered": 9509, 
  "triggering": 9510, 
  "thorough": 9511, 
  "surprises": 9512, 
  "ght": 9513, 
  "doub@@": 9514, 
  "Venezuelan": 9515, 
  "Toledo": 9516, 
  "olu@@": 9517, 
  "adequacy": 9518, 
  "adap@@": 9519, 
  "prohibited": 9520, 
  "owes": 9521, 
  "iliation": 9522, 
  "od": 9523, 
  "premiums": 9524, 
  "celebrating": 9525, 
  "medieval": 9526, 
  "condemnation": 9527, 
  "weapon@@": 9528, 
  "charter": 9529, 
  "eradicate": 9530, 
  "themes": 9531, 
  "abstract": 9532, 
  "recourse": 9533, 
  "disgu@@": 9534, 
  "encouragement": 9535, 
  "disposable": 9536, 
  "teen": 9537, 
  "1978": 9538, 
  "outgoing": 9539, 
  "mp@@": 9540, 
  "ave": 9541, 
  "announcing": 9542, 
  "sex@@": 9543, 
  "parliament@@": 9544, 
  "Ash@@": 9545, 
  "pen": 9546, 
  "Wolfensohn": 9547, 
  "patriotic": 9548, 
  "collectiv@@": 9549, 
  "executed": 9550, 
  "tles": 9551, 
  "sat": 9552, 
  "examined": 9553, 
  "Barcelona": 9554, 
  "combines": 9555, 
  "dimensional": 9556, 
  "expenses": 9557, 
  "widened": 9558, 
  "metals": 9559, 
  "camp@@": 9560, 
  "savers": 9561, 
  "old-fashioned": 9562, 
  "evo@@": 9563, 
  "assassin@@": 9564, 
  "breath": 9565, 
  "deteriorated": 9566, 
  "stresses": 9567, 
  "sword": 9568, 
  "not-@@": 9569, 
  "ament": 9570, 
  "ert": 9571, 
  "Il@@": 9572, 
  "manifest@@": 9573, 
  "blaming": 9574, 
  "multiculturalism": 9575, 
  "cab@@": 9576, 
  "Mahathir": 9577, 
  "theorists": 9578, 
  "inci@@": 9579, 
  "forgiveness": 9580, 
  "glor@@": 9581, 
  "iles": 9582, 
  "coercive": 9583, 
  "mineral": 9584, 
  "mosques": 9585, 
  "migr@@": 9586, 
  "front-@@": 9587, 
  "exha@@": 9588, 
  "unimaginable": 9589, 
  "Catholics": 9590, 
  "victim@@": 9591, 
  "manager": 9592, 
  "Pen": 9593, 
  "chaotic": 9594, 
  "paved": 9595, 
  "search@@": 9596, 
  "IBM": 9597, 
  "publics": 9598, 
  "virtuous": 9599, 
  "withstand": 9600, 
  "Pervez": 9601, 
  "lowered": 9602, 
  "portray": 9603, 
  "revelations": 9604, 
  "anxieties": 9605, 
  "invoked": 9606, 
  "Far": 9607, 
  "horrible": 9608, 
  "mid-term": 9609, 
  "envy": 9610, 
  "tuous": 9611, 
  "unwillingness": 9612, 
  "premise": 9613, 
  "affluent": 9614, 
  "rethink": 9615, 
  "conversion": 9616, 
  "Golan": 9617, 
  "coups": 9618, 
  "PA@@": 9619, 
  "indicating": 9620, 
  "33": 9621, 
  "Jean-Claude": 9622, 
  "Kosov@@": 9623, 
  "sile": 9624, 
  "Peter": 9625, 
  "ga@@": 9626, 
  "culturally": 9627, 
  "Cristina": 9628, 
  "employ@@": 9629, 
  "hybrid": 9630, 
  "allegiance": 9631, 
  "no-@@": 9632, 
  "laugh@@": 9633, 
  "grid": 9634, 
  "accurately": 9635, 
  "explaining": 9636, 
  "pass@@": 9637, 
  "Mer@@": 9638, 
  "Carter": 9639, 
  "stretched": 9640, 
  "Confucianism": 9641, 
  "cost-@@": 9642, 
  "rupture": 9643, 
  "migrant": 9644, 
  "nomination": 9645, 
  "persecution": 9646, 
  "barrels": 9647, 
  "Dar@@": 9648, 
  "bro@@": 9649, 
  "Paulson": 9650, 
  "tification": 9651, 
  "1914": 9652, 
  "43": 9653, 
  "esses": 9654, 
  "uneasy": 9655, 
  "bour@@": 9656, 
  "Zionism": 9657, 
  "finish": 9658, 
  "staged": 9659, 
  "kn@@": 9660, 
  "walking": 9661, 
  "bureaucracies": 9662, 
  "Scandinavian": 9663, 
  "inate": 9664, 
  "Poor": 9665, 
  "lows": 9666, 
  "suspects": 9667, 
  "dumping": 9668, 
  "investig@@": 9669, 
  "populous": 9670, 
  "cheating": 9671, 
  "revaluation": 9672, 
  "ols": 9673, 
  "rul@@": 9674, 
  "disciplined": 9675, 
  "amidst": 9676, 
  "stock-market": 9677, 
  "full-scale": 9678, 
  "undergo": 9679, 
  "mightily": 9680, 
  "proportions": 9681, 
  "gen": 9682, 
  "rug": 9683, 
  "desires": 9684, 
  "barr@@": 9685, 
  "individu@@": 9686, 
  "hed@@": 9687, 
  "immoral": 9688, 
  "1975": 9689, 
  "ested": 9690, 
  "198@@": 9691, 
  "dé@@": 9692, 
  "forec@@": 9693, 
  "vowed": 9694, 
  "Soros": 9695, 
  "pivotal": 9696, 
  "nasty": 9697, 
  "4.5": 9698, 
  "escalate": 9699, 
  "swit@@": 9700, 
  "tar@@": 9701, 
  "à": 9702, 
  "noble": 9703, 
  "ate-@@": 9704, 
  "struggled": 9705, 
  "know-how": 9706, 
  "submitted": 9707, 
  "BP": 9708, 
  "manifest": 9709, 
  "quarter-century": 9710, 
  "1.6": 9711, 
  "disciplines": 9712, 
  "0.1": 9713, 
  "bers": 9714, 
  "staying": 9715, 
  "Pi@@": 9716, 
  "asks": 9717, 
  "escaped": 9718, 
  "analy@@": 9719, 
  "apes": 9720, 
  "observ@@": 9721, 
  "rol@@": 9722, 
  "ied": 9723, 
  "sink": 9724, 
  "plummeted": 9725, 
  "pronounced": 9726, 
  "heroin": 9727, 
  "abused": 9728, 
  "Iv@@": 9729, 
  "Ibrahim": 9730, 
  "mid-1990": 9731, 
  "ported": 9732, 
  "divorce": 9733, 
  "hec@@": 9734, 
  "astonishing": 9735, 
  "ben@@": 9736, 
  "retained": 9737, 
  "asserted": 9738, 
  "quasi-@@": 9739, 
  "Benedict": 9740, 
  "preparations": 9741, 
  "NATO@@": 9742, 
  "readers": 9743, 
  "realignment": 9744, 
  "widen": 9745, 
  "backdrop": 9746, 
  "History": 9747, 
  "appeasement": 9748, 
  "mentally": 9749, 
  "somebody": 9750, 
  "depended": 9751, 
  "comment": 9752, 
  "bility": 9753, 
  "interview": 9754, 
  "kes@@": 9755, 
  "anic": 9756, 
  "violating": 9757, 
  "anybody": 9758, 
  "itor": 9759, 
  "custom@@": 9760, 
  "fool": 9761, 
  "asylum": 9762, 
  "prog@@": 9763, 
  "nan": 9764, 
  "therapeutic": 9765, 
  "occasional": 9766, 
  "ignorant": 9767, 
  "extern@@": 9768, 
  "aspire": 9769, 
  "alous": 9770, 
  "withdrew": 9771, 
  "Mladic": 9772, 
  "NA": 9773, 
  "shake": 9774, 
  "ch-@@": 9775, 
  "laud@@": 9776, 
  "itous": 9777, 
  "Wh@@": 9778, 
  "ames": 9779, 
  "nice": 9780, 
  "obtaining": 9781, 
  "wishful": 9782, 
  "matches": 9783, 
  "encounter": 9784, 
  "agon": 9785, 
  "edding": 9786, 
  "execu@@": 9787, 
  "dou@@": 9788, 
  "device": 9789, 
  "load": 9790, 
  "films": 9791, 
  "operates": 9792, 
  "depreci@@": 9793, 
  "chas@@": 9794, 
  "hiring": 9795, 
  "Islamism": 9796, 
  "higher-@@": 9797, 
  "meager": 9798, 
  "ish-@@": 9799, 
  "great@@": 9800, 
  "stret@@": 9801, 
  "managerial": 9802, 
  "stu@@": 9803, 
  "persistence": 9804, 
  "glory": 9805, 
  "toral": 9806, 
  "praised": 9807, 
  "Conservatives": 9808, 
  "Hariri": 9809, 
  "Churchill": 9810, 
  "human-rights": 9811, 
  "kets": 9812, 
  "extinc@@": 9813, 
  "lian": 9814, 
  "Stockholm": 9815, 
  "embark": 9816, 
  "polarization": 9817, 
  "unchecked": 9818, 
  "anti-globalization": 9819, 
  "21st": 9820, 
  "oes": 9821, 
  "shell": 9822, 
  "ule": 9823, 
  "tale": 9824, 
  "Age": 9825, 
  "Napoleon": 9826, 
  "endanger": 9827, 
  "smoking": 9828, 
  "refuge": 9829, 
  "docum@@": 9830, 
  "detained": 9831, 
  "neo-conservative": 9832, 
  "phenomena": 9833, 
  "candidacy": 9834, 
  "que@@": 9835, 
  "endering": 9836, 
  "behaving": 9837, 
  "secular@@": 9838, 
  "bombed": 9839, 
  "appl@@": 9840, 
  "rais@@": 9841, 
  "preced@@": 9842, 
  "histories": 9843, 
  "reinforces": 9844, 
  "cov@@": 9845, 
  "Chinese-@@": 9846, 
  "Fer@@": 9847, 
  "Lenin": 9848, 
  "gay": 9849, 
  "Reinhart": 9850, 
  "interdependent": 9851, 
  "ock": 9852, 
  "complicate": 9853, 
  "steam": 9854, 
  "displayed": 9855, 
  "mines": 9856, 
  "diffusion": 9857, 
  "pronouncements": 9858, 
  "debtors": 9859, 
  "financial-sector": 9860, 
  "suspicions": 9861, 
  "bit@@": 9862, 
  "Ter@@": 9863, 
  "Commissioner": 9864, 
  "atro@@": 9865, 
  "ri": 9866, 
  "tar": 9867, 
  "lax": 9868, 
  "interestingly": 9869, 
  "tenth": 9870, 
  "repres@@": 9871, 
  "trades": 9872, 
  "constraint": 9873, 
  "itary": 9874, 
  "swaps": 9875, 
  "diplomat": 9876, 
  "abundance": 9877, 
  "Economist": 9878, 
  "Nav@@": 9879, 
  "rat@@": 9880, 
  "supplied": 9881, 
  "dy@@": 9882, 
  "ogues": 9883, 
  "cam@@": 9884, 
  "ef": 9885, 
  "gar": 9886, 
  "che": 9887, 
  "pable": 9888, 
  "Jong-@@": 9889, 
  "pacif@@": 9890, 
  "uri": 9891, 
  "fai@@": 9892, 
  "CCP": 9893, 
  "sway": 9894, 
  "1960s": 9895, 
  "MD@@": 9896, 
  "cham@@": 9897, 
  "aggres@@": 9898, 
  "multipolar": 9899, 
  "visiting": 9900, 
  "genius": 9901, 
  "growth-@@": 9902, 
  "transmitted": 9903, 
  "installed": 9904, 
  "contradictions": 9905, 
  "interrupted": 9906, 
  "endorsement": 9907, 
  "Strait": 9908, 
  "x-@@": 9909, 
  "fighter": 9910, 
  "Holland": 9911, 
  "Stu@@": 9912, 
  "inist": 9913, 
  "antagonism": 9914, 
  "sugar": 9915, 
  "Ru@@": 9916, 
  "highs": 9917, 
  "cheaply": 9918, 
  "aka": 9919, 
  "Kyrgyzstan": 9920, 
  "cures": 9921, 
  "2007-@@": 9922, 
  "opaque": 9923, 
  "truce": 9924, 
  "manages": 9925, 
  "nic@@": 9926, 
  "cau@@": 9927, 
  "crossing": 9928, 
  "US-China": 9929, 
  "tab@@": 9930, 
  "quota": 9931, 
  "straight": 9932, 
  "Sou@@": 9933, 
  "embassy": 9934, 
  "Armstrong": 9935, 
  "alignment": 9936, 
  "Len@@": 9937, 
  "lith@@": 9938, 
  "yearning": 9939, 
  "unskilled": 9940, 
  "dictate": 9941, 
  "band": 9942, 
  "edy": 9943, 
  "oil-rich": 9944, 
  "34": 9945, 
  "heal": 9946, 
  "ethnically": 9947, 
  "tech": 9948, 
  "eng": 9949, 
  "institutionalized": 9950, 
  "liked": 9951, 
  "orthodox": 9952, 
  "tank": 9953, 
  "Pradesh": 9954, 
  "2100": 9955, 
  "Politburo": 9956, 
  "versa": 9957, 
  "ok@@": 9958, 
  "ano@@": 9959, 
  "roadmap": 9960, 
  "predicting": 9961, 
  "plane": 9962, 
  "assembled": 9963, 
  "obedience": 9964, 
  "repeating": 9965, 
  "0": 9966, 
  "instrumental": 9967, 
  "hopeless": 9968, 
  "stemming": 9969, 
  "politicized": 9970, 
  "slack": 9971, 
  "defiance": 9972, 
  "recru@@": 9973, 
  "wisely": 9974, 
  "justly": 9975, 
  "green@@": 9976, 
  "Sol@@": 9977, 
  "So@@": 9978, 
  "Pla@@": 9979, 
  "ald": 9980, 
  "After": 9981, 
  "dividend": 9982, 
  "condemning": 9983, 
  "X": 9984, 
  "picking": 9985, 
  "System": 9986, 
  "veto@@": 9987, 
  "Kirchner": 9988, 
  "gent@@": 9989, 
  "eline": 9990, 
  "business@@": 9991, 
  "All": 9992, 
  "align": 9993, 
  "petition": 9994, 
  "petroleum": 9995, 
  "resumption": 9996, 
  "infections": 9997, 
  "negligible": 9998, 
  "Khan": 9999, 
  "discriminate": 10000, 
  "visa": 10001, 
  "Cypriots": 10002, 
  "variant": 10003, 
  "vivid": 10004, 
  "mergers": 10005, 
  "51": 10006, 
  "rated": 10007, 
  "graded": 10008, 
  "essi@@": 10009, 
  "Malay@@": 10010, 
  "short-lived": 10011, 
  "setback": 10012, 
  "urs": 10013, 
  "mou@@": 10014, 
  "implicitly": 10015, 
  "ancestors": 10016, 
  "ble@@": 10017, 
  "urban@@": 10018, 
  "breath@@": 10019, 
  "tan": 10020, 
  "dra@@": 10021, 
  "whis@@": 10022, 
  "stig@@": 10023, 
  "pro-Western": 10024, 
  "AT@@": 10025, 
  "Go@@": 10026, 
  "orable": 10027, 
  "disadvantage": 10028, 
  "failings": 10029, 
  "blog@@": 10030, 
  "discredit": 10031, 
  "abrupt": 10032, 
  "Ren@@": 10033, 
  "nud@@": 10034, 
  "motive": 10035, 
  "enly": 10036, 
  "2.7": 10037, 
  "ises": 10038, 
  "eh": 10039, 
  "contend": 10040, 
  "emis@@": 10041, 
  "Quartet": 10042, 
  "coffee": 10043, 
  "Action": 10044, 
  "plagued": 10045, 
  "random": 10046, 
  "artificially": 10047, 
  "Arthur": 10048, 
  "sins": 10049, 
  "trump": 10050, 
  "formulate": 10051, 
  "play@@": 10052, 
  "mobilization": 10053, 
  "Pax": 10054, 
  "geographic": 10055, 
  "resp@@": 10056, 
  "schooling": 10057, 
  "propag@@": 10058, 
  "codes": 10059, 
  "lifestyle": 10060, 
  "freed": 10061, 
  "pornography": 10062, 
  "dual": 10063, 
  "contexts": 10064, 
  "wild@@": 10065, 
  "reassure": 10066, 
  "contin@@": 10067, 
  "forbidden": 10068, 
  "unanimity": 10069, 
  "curiosity": 10070, 
  "experimental": 10071, 
  "prolong": 10072, 
  "Zedong": 10073, 
  "leveraging": 10074, 
  "winding": 10075, 
  "vaccine": 10076, 
  "admitting": 10077, 
  "tackled": 10078, 
  "thriving": 10079, 
  "porting": 10080, 
  "cav@@": 10081, 
  "tedness": 10082, 
  "foreclosures": 10083, 
  "alien@@": 10084, 
  "c": 10085, 
  "intern@@": 10086, 
  "omni@@": 10087, 
  "hall@@": 10088, 
  "harassment": 10089, 
  "manif@@": 10090, 
  "Soviet@@": 10091, 
  "guaranteeing": 10092, 
  "dismantle": 10093, 
  "opens": 10094, 
  "prejudice": 10095, 
  "concert": 10096, 
  "Rev@@": 10097, 
  "igrate": 10098, 
  "ancing": 10099, 
  "uniting": 10100, 
  "visitors": 10101, 
  "Raúl": 10102, 
  "villagers": 10103, 
  "discretion": 10104, 
  "divergence": 10105, 
  "photograph@@": 10106, 
  "autocracy": 10107, 
  "Dick": 10108, 
  "monetiz@@": 10109, 
  "foresee": 10110, 
  "tionalism": 10111, 
  "pa@@": 10112, 
  "vy": 10113, 
  "accomplishments": 10114, 
  "stun@@": 10115, 
  "time-@@": 10116, 
  "accid@@": 10117, 
  "Marx@@": 10118, 
  "file": 10119, 
  "econom@@": 10120, 
  "hypo@@": 10121, 
  "at-@@": 10122, 
  "lately": 10123, 
  "hypothesis": 10124, 
  "renew": 10125, 
  "exploring": 10126, 
  "idi@@": 10127, 
  "ballo@@": 10128, 
  "amounting": 10129, 
  "advertis@@": 10130, 
  "unusually": 10131, 
  "celebrations": 10132, 
  "secrets": 10133, 
  "impati@@": 10134, 
  "gging": 10135, 
  "Al-@@": 10136, 
  "Kohl": 10137, 
  "aked": 10138, 
  "announce": 10139, 
  "boun@@": 10140, 
  "keys": 10141, 
  "warri@@": 10142, 
  "corrected": 10143, 
  "resemble": 10144, 
  "Representatives": 10145, 
  "Ariel": 10146, 
  "gene@@": 10147, 
  "sacked": 10148, 
  "presumption": 10149, 
  "wings": 10150, 
  "emo@@": 10151, 
  "passion": 10152, 
  "audiences": 10153, 
  "amazing": 10154, 
  "sexually": 10155, 
  "asc@@": 10156, 
  "Cl@@": 10157, 
  "injury": 10158, 
  "ei": 10159, 
  "Helmut": 10160, 
  "nit@@": 10161, 
  "textbooks": 10162, 
  "oted": 10163, 
  "monthly": 10164, 
  "frightening": 10165, 
[...]
