e </w>
n </w>
e r
s </w>
t </w>
e n</w>
c h
t h
d </w>
i n
, </w>
e n
er </w>
u n
a n
. </w>
t i
o r
a l
th e</w>
a r
e i
d i
e s
g </w>
y </w>
o n</w>
o n
e l
e s</w>
u r
o </w>
i s
m </w>
f </w>
i ch
i n</w>
s t
d er</w>
a u
r e
di e</w>
w i
a </w>
r o
an d</w>
o f</w>
a t
e in
un d</w>
t o</w>
i t
r </w>
e d</w>
i s</w>
a s</w>
o m
d en</w>
l i
in g</w>
s ch
a ti
s i
l </w>
a t</w>
a n</w>
a s
ich </w>
p o
f or
e t
un g</w>
ch </w>
a b
z u
o u
a m
al </w>
g e
d e
g en</w>
t en</w>
o p
o l
i t</w>
v er
r i
t e</w>
r a
- </w>
t er
en t</w>
u s
en t
l e</w>
e c
e h
e m
d er
f ü
p ro
v e</w>
i l
ur </w>
po s
k </w>
a c
g e</w>
zu </w>
th at</w>
h r
e g
n o
; </w>
w h
l y</w>
d e</w>
i c
for </w>
ati on</w>
s p
q u
v on</w>
o t
om m
th </w>
r es
f f
is t</w>
a pos
& apos
b e
d as</w>
l o
l e
fü r</w>
ch en</w>
c on
w er
ein e</w>
or </w>
ar e</w>
ti on</w>
u l
t s</w>
el </w>
s e</w>
l ich
ur op
v i
s u
n e
d es</w>
ar </w>
ei n</w>
m a
m it</w>
au f</w>
di es
b e</w>
i e</w>
S t
h a
B -</w>
th is</w>
b er
ich t</w>
e x
ei t</w>
w </w>
V er
e m</w>
wi th</w>
i g
el l
w e</w>
i m
E urop
ati on
c e</w>
u t
g en
b er</w>
i m</w>
d a
c o
R B-</w>
o ur</w>
g es
I </w>
wi r</w>
s o</w>
un gen</w>
s h
t er</w>
d u
b ei
c i
s t</w>
r ei
a g
w ei
i r
a d
&apos ;
r u
e t</w>
s er
0 </w>
an d
de m</w>
l ich</w>
p or
e d
ti on
a f
n en</w>
I n
p l
a h
i er
wi r
t a
s en</w>
S ie</w>
as s</w>
l d</w>
n icht</w>
w or
e b
s o
it y</w>
u m</w>
al l</w>
ä n
c k
m o
ch e</w>
U n
u m
wer den</w>
b es
si on</w>
c om
l l</w>
no t</w>
t r
s in
un g
a p
ou </w>
b y</w>
is chen</w>
d ass</w>
al s</w>
A n
y ou</w>
ha ve</w>
: </w>
at e</w>
s ich</w>
g h
er e</w>
p ar
b u
k e</w>
au ch</w>
qu ot
al l
ti m
& quot
&quot ;</w>
p er
l a
g i
ou ld</w>
p </w>
wi ll</w>
z </w>
w en
a ch
t ra
omm is
w as</w>
e ch
m ent</w>
f in
d en
wh ich</w>
- R
z i
au s
- L
ung s
e v
f ro
m en</w>
fro m</w>
g r
S ch
i on</w>
wi e</w>
P ro
h ab
a ch</w>
sin d</w>
et z
in g
P ar
er s</w>
t s
l ei
h o
t o
2 0
wir d</w>
a hr
ent s</w>
ein er</w>
ü ber</w>
ol l
th er</w>
ein en</w>
c an</w>
s e
h as</w>
sch af
&apos ;</w>
ö n
ti c
E n
l u
au s</w>
it t
&apos; s</w>
ur e</w>
on e</w>
es t
( </w>
ge b
ter n
li c
-L RB-</w>
) </w>
-R RB-</w>
d ur
ü r
ab le</w>
h al
ou t</w>
d o
ommis sion</w>
e an</w>
s a
m an
es s</w>
t en
A r
un d
B er
an t</w>
g an
o der</w>
v or
e u
m e
al so</w>
r ä
hab en</w>
for m
u s</w>
o b
ä r
eh r</w>
bei </w>
an n</w>
Europ ean</w>
H er
t u
re c
ß </w>
w el
d ent</w>
E r
g er
e k
a m</w>
e p
s el
lich en</w>
al ly</w>
us t</w>
A us
a k
au f
d s</w>
k ön
h at</w>
o o
s en
r an
b et
t z
m ö
e f
m or
o h
20 0
it s</w>
si e</w>
d ar
p e
z ur</w>
b i
m en
? </w>
st en</w>
m in
f i
e y</w>
dies e</w>
un ser
ti g
at ed</w>
ar k
t ed</w>
A u
po li
l in
g u
` </w>
st ell
t ri
en d</w>
g ro
w e
is che</w>
bu t</w>
w a
w ar
g el
tion s</w>
s ti
y our</w>
der n</w>
r ü
is h
Un ion</w>
! </w>
sch en</w>
ein em</w>
du c
ic </w>
co un
por t</w>
w ur
ch t</w>
at es</w>
ation s</w>
5 </w>
er n</w>
y st
t ung</w>
st a
d es
m e</w>
t ur
p res
h e</w>
o ff
por t
k en</w>
st r
at en</w>
kön nen</w>
n ach</w>
E U
i hr
f t</w>
lich e</w>
h i
E in
an der
2 </w>
ti ve</w>
b r
dur ch</w>
f ol
z ei
k eit</w>
m er</w>
s am
mor e</w>
wen n</w>
1 9
V or
ig h
ge h
ot el</w>
a ge</w>
b o
e ar
ver y</w>
v o
es s
am ent</w>
A b
d ing</w>
w ould</w>
as t</w>
el y</w>
th ere</w>
in c
s it
ar y</w>
th ei
1 </w>
zu m</w>
u p</w>
fü hr
ö r
thei r</w>
c omm
p ri
k ing</w>
M a
es t</w>
ti es</w>
in ter
com p
as s
an n
k omm
v er</w>
er t</w>
i </w>
si on
g t</w>
` `</w>
S p
l an
s sen</w>
v or</w>
i f</w>
n ur</w>
un s</w>
ne u
Europ ä
s ol
be en</w>
es e</w>
li e
eh en</w>
r is
con t
h er
En t
i e
&apos; &apos;</w>
ü ber
v ic
m an</w>
ou s</w>
G es
ti v
h in
em ber</w>
s on
dies er</w>
ec t</w>
o ther</w>
an ce</w>
0 0</w>
u b
P res
t ei
r el
en s
k l
ü n
sh ould</w>
th ey</w>
k ann</w>
p p
it ä
re g
er n
M r</w>
t et</w>
as e</w>
M it
o g
k t</w>
ch te</w>
w ä
er i
d o</w>
z w
K on
am p
f ac
ab er</w>
b </w>
un ter
h eit</w>
t or
ech n
l en</w>
om e</w>
3 </w>
rä si
w n</w>
no ch</w>
B e
er en</w>
s ich
b t</w>
Pres i
s ec
ar i
ge m
schaf t</w>
el t</w>
R eg
l eg
ac c
C ommission</w>
di s
p f
gh t</w>
b en</w>
t re
a d</w>
di es</w>
or d
k on
en s</w>
4 </w>
t ing</w>
au </w>
C o
m ust</w>
st ru
an y</w>
p h
ei ten</w>
th ese</w>
r it
t w
us s</w>
p re
da ß</w>
K ommission</w>
n ah
m ü
g n
ti g</w>
al i
x </w>
n e</w>
b il
ation al</w>
ges ch
no w</w>
l ä
b le</w>
m ark
b ec
en ce</w>
i el
J ahr
ne w</w>
al le</w>
8 </w>
on ly</w>
s yst
f en</w>
f ir
v el
m u
tim e</w>
EU </w>
li ke</w>
wur de</w>
S </w>
g er</w>
al is
f re
k s</w>
l ung</w>
m on
gr am
al e</w>
st e</w>
an t
F or
P räsi
da y</w>
ut z
s ein</w>
a v
en d
wi ck
l em
6 </w>
poli ti
ti gen</w>
en den</w>
Her r</w>
g o
al en</w>
i h
s oll
ä l
c </w>
t n
s ehr</w>
G r
eh r
pro duc
eh men</w>
ab out</w>
tr an
Presi dent</w>
mü ssen</w>
7 </w>
a i
wor k</w>
im mer</w>
c k</w>
wh at</w>
F r
ü tz
ar d</w>
in tern
c es</w>
ing s</w>
c re
ec i
F ra
gh </w>
9 </w>
Mit g
A l
j e
b eg
tim m
in n
ci al</w>
ein es</w>
or t</w>
ent r
st at
f e
Par l
s etz
de t</w>
st ri
m ents</w>
b el
th er
y s</w>
b en
f er
sch e</w>
wei ter
res p
ati ve</w>
Au f
is ch
/ </w>
su p
d ung</w>
m ehr</w>
ber ei
m itt
H otel</w>
in e</w>
con c
em ent</w>
P o
wi th
D i
th o
v is
l and</w>
et en</w>
t ro
man y</w>
wa y</w>
dies em</w>
I h
M en
wh en</w>
wh o</w>
ges t
au se</w>
ier ung</w>
vel op
for e</w>
de velop
f ahr
d ed</w>
m i
le m</w>
o ur
w ar</w>
on der
vi el
w s</w>
n o</w>
h e
d a</w>
I hr
ac e</w>
e ff
on g</w>
itä t</w>
an s</w>
komm en</w>
A </w>
mö g
mo st</w>
U m
dies es</w>
b eh
op le</w>
im port
z wei
Europä ischen</w>
a il
ü ck
ich t
d am
li ament</w>
B es
de ut
el le</w>
l as
v es</w>
g re
r in
m y</w>
su b
h ei
h er</w>
ß en</w>
su ch</w>
sti tu
in form
% </w>
Europ e</w>
on om
Par liament</w>
b is</w>
or i
hi er</w>
m er
g lei
un der
re ch
ei </w>
a ff
Mitg li
ation en</w>
op er
pe ople</w>
c y</w>
un ter</w>
w ich
Z u
pro c
ne t</w>
ar e
po si
e urop
z en</w>
o f
mö chte</w>
en en</w>
eh t</w>
in to</w>
us e</w>
ol og
f u
on s</w>
l au
ti ge</w>
t y</w>
ier t</w>
h and
ish </w>
sch i
en de</w>
e -
R ech
ihr e</w>
v ol
ev er</w>
at ing</w>
ar bei
ell en</w>
g et
etz t</w>
St ates</w>
unser e</w>
tri es</w>
ro u
s ome</w>
it e</w>
m is
re port</w>
ser vic
di ff
at eg
vi e
en n
et e</w>
@ </w>
a in
h igh
oo d</w>
M ember</w>
vo m</w>
coun tries</w>
h el
wer e</w>
st ütz
d el
h is</w>
si ble</w>
di g
sch lie
r on
Un ter
u p
ier en</w>
l ar
pro b
sp eci
C h
europ ä
& #
v ing</w>
bes t
v ed</w>
gi bt</w>
ge w
st än
Mitgli ed
a st
Co un
f e</w>
f o
v en
b ar
er ung</w>
th an</w>
stell en</w>
ec onom
pro vi
en g
fir st</w>
lo c
ne ed</w>
qu i
t echn
Präsi dent</w>
m at
geb en</w>
h ere</w>
an k</w>
sch </w>
bes onder
ci l</w>
un k
tion en</w>
s er</w>
R e
pro pos
c le
er g
w er</w>
e e</w>
po in
w oh
ä ch
tic al</w>
@ /
@/ @</w>
hal ten</w>
In ter
el n</w>
in s
Coun cil</w>
G er
inc lu
zw ischen</w>
m s</w>
ap p
Ü ber
so wie</w>
ta ke</w>
o m</w>
wel l</w>
ag re
Z us
l at
import ant</w>
ch an
in u
ver n
am e</w>
m p
n at
ma ke</w>
c ri
sp e
di rec
ge t</w>
bec ause</w>
1 0</w>
ä h
for der
em p
de c
b eit</w>
hal b</w>
th em</w>
we en</w>
for m</w>
a y
eg t</w>
bet ween</w>
z e</w>
Ent wick
ur es</w>
Mitglied sta
m il
el s</w>
un den</w>
co ur
v en</w>
wä hr
b ein
r ati
syst em</w>
C omm
du k
b in
O r
ec tion</w>
al ity</w>
t schaf
f ic
ac k
o ver</w>
st and
g ab
c c
un i
m uss</w>
i li
E </w>
B ei
s k
t or</w>
Ar bei
ab il
h eu
st ar
o k
fin an
Ber icht</w>
wh ere</w>
l l
f ra
th ing</w>
schlie ß
sam e</w>
ic al</w>
C on
p ub
ta in
ge gen</w>
w ür
dam it</w>
ab l
eb en</w>
u t</w>
f ri
Parl ament</w>
r ich
P </w>
n ach
per i
c ul
ex c
j ust</w>
i ge</w>
ev en</w>
k eine</w>
R </w>
el l</w>
H au
i es</w>
n ung</w>
b ar</w>
i en</w>
re as
ear s</w>
M e
ac k</w>
z ah
i de
en ti
lic y</w>
Ih nen</w>
ö ff
d ann</w>
c ar
inform ation</w>
t ure</w>
Mitgliedsta aten</w>
C </w>
us s
ah r</w>
19 9
tho se</w>
b as
pro gram
L i
sup port</w>
ma de</w>
th rou
re gi
Q u
ß e</w>
Ber ei
i el</w>
ä u
schi ed
tr y</w>
com e</w>
p en
fin den</w>
z eu
or der</w>
a in</w>
af ter</w>
y p
il l
lic </w>
d r
R es
or gan
O </w>
f all
i d</w>
is su
y ears</w>
y e
D </w>
T </w>
ander en</w>
et s</w>
wir k
er k
ä tz
Ges ch
Pro b
ho w
tw o</w>
&# 9
l än
am men
resp on
f l
T h
h otel</w>
wei se</w>
G e
L än
re ad
Europ a</w>
f ul
wi e
or s</w>
ho w</w>
me di
n um
how ever</w>
Zus ammen
In form
f t
S er
lich keit</w>
S o
f ur
u ation</w>
S B-</w>
in di
k eiten</w>
sh i
g ung</w>
P er
po licy</w>
gh ts</w>
ö s
bein g</w>
tic </w>
ul ar</w>
Vor sch
ap pro
M o
ri ght</w>
M on
tra g</w>
om p
dies en</w>
wor ld</w>
en e</w>
sch ei
qu es
w is
c u
g ra
s at
un ity</w>
o s</w>
par tic
o wn</w>
t es</w>
o ch</w>
ha d</w>
j ec
a ir
r en
ther e
W ir
c ur
j ed
ß er
s c
nah men</w>
ic e</w>
i ti
pro t
in t
is t
w al
gem ein
lo w
tion al</w>
si ve</w>
ic i
ma y</w>
heu te</w>
k o
m al</w>
de mo
lo b
l t</w>
wur den</w>
an g</w>
th en</w>
K o
there fore</w>
diff er
ent ly</w>
em s</w>
M ar
l etz
h um
Fr au</w>
j o
c er
se e</w>
d at
ie ve</w>
a si
ge ment</w>
stru c
D e
M in
s eine</w>
ta in</w>
ter n</w>
w är
it ed</w>
lin e</w>
Pro duk
lo w</w>
pos sible</w>
ä f
y ing</w>
unser er</w>
sit e</w>
B ür
ä m
n u
gen er
in st
a y</w>
pl ace</w>
li m
jed och</w>
T ei
in v
un kt</w>
er rei
an ti
et t
c lo
las sen</w>
us ed</w>
woh l</w>
la ge</w>
ou s
u tion</w>
M itt
vie w</w>
s ei
E x
an z
hab e</w>
Un tern
st er</w>
ye ar</w>
sel b
G eb
St a
re d</w>
s m
Her r
at er</w>
ff en</w>
ar ly</w>
i gen</w>
s om
U S
N </w>
s or
f rei
j ect</w>
den ti
le gen</w>
ac t</w>
f as
ter s</w>
T a
zei ch
Z eit</w>
Europä ische</w>
F in
d an
s ur
lo o
throu gh</w>
bes ch
j ek
i l</w>
d et
is se</w>
G ro
v el</w>
son dern</w>
B et
mark et</w>
par t</w>
ent al</w>
neu e</w>
tr ä
l er</w>
L </w>
n er</w>
h ol
are a</w>
fu l</w>
poli tical</w>
econom ic</w>
lic k</w>
ou gh</w>
n ec
t e
ch ten</w>
ge gen
E ur
ob </w>
ag es</w>
h </w>
gest ell
p le
ich er
i a</w>
au en</w>
i z
res s</w>
h ar
us in
s s
am en</w>
g ood</w>
berei ts</w>
do es</w>
S yst
g ent
ommis sion
B il
ein f
br au
in du
res ul
Men schen</w>
ch ar
soll te</w>
bi et
bo th</w>
st and</w>
un der</w>
om s</w>
h is
ch er</w>
with in</w>
W ei
p ra
ex p
oh ne</w>
G em
b ur
Ä n
igh t</w>
op </w>
B u
M ark
A k
de b
t lichen</w>
h ö
g es</w>
on en</w>
St r
develop ment</w>
den en</w>
europä ischen</w>
ei gen
unter stütz
geh en</w>
et y</w>
sch n
bes ser
c or
z ur
k un
c ould</w>
Än der
ri ghts</w>
v al
2 0</w>
J ahr</w>
w ant</w>
ti k
tran s
ain st</w>
ß nahmen</w>
ou se</w>
ab </w>
geh t</w>
ig n
sp iel
p s</w>
ag ainst</w>
tran sp
t lich</w>
R o
m ich</w>
soll ten</w>
W eb
viel e</w>
sh o
read y</w>
p er</w>
an c
go vern
st ehen</w>
Pro gram
i le</w>
N ach
t ly</w>
ö l
ander e</w>
Ihr e</w>
omm en</w>
f am
to day</w>
abil ity</w>
S icher
0 00</w>
da zu</w>
si gn
Gr und
p rin
fahr en</w>
em ber
ihr er</w>
v oll
M il
intern ational</w>
w in
führ t</w>
en th
neu en</w>
F ran
Jahr en</w>
zwei </w>
av ail
coun try</w>
for t
th in
R ei
ta ur
i k
c ap
el d</w>
D at
ci p
be d
mu ch</w>
be k
com pl
or y</w>
öff ent
with out</w>
gan z</w>
poin t</w>
politi k</w>
gr ö
h än
ex t</w>
s ehen</w>
t om
H and
bu il
den n</w>
do ch</w>
in s</w>
dur ch
th re
l es</w>
li egt</w>
w n
lich er</w>
vi ron
cont inu
b re
in gen</w>
an ts</w>
ma chen</w>
bil ity</w>
R at</w>
his tor
is e</w>
w oll
ation alen</w>
per son
Gem ein
me as
wir tschaf
pub lic</w>
es en</w>
pri v
con si
ge f
j etzt</w>
Fra ge</w>
st u
l and
en z</w>
Entwick lung</w>
Z ei
cle ar</w>
b ri
eg r
ad t</w>
al ten</w>
de m
ein ige</w>
amp ;</w>
& amp;</w>
fin d</w>
c ol
sin ce</w>
en st
es ts</w>
C hin
ent sp
f und
ne ed
glei ch
itt ee</w>
v ari
ä hr
all en</w>
G en
5 0</w>
oper ation</w>
an g
is ch</w>
be wer
qu ality</w>
Po li
Ber ich
ig er</w>
ou t
sion s</w>
ant wor
la g</w>
er r
ver schied
so ci
tig t</w>
M ö
b it
biet et</w>
fall s</w>
Bes ch
ü h
ar ds</w>
in stitu
ungs an
g lob
sti ll</w>
num ber</w>
cur r
ec ted</w>
eb en
d ru
S it
f ut
servic es</w>
di g</w>
W or
wä h
n ehmen</w>
n te</w>
m eine</w>
f es
lei st
besonder e</w>
au m</w>
währ end</w>
k ur
a gement</w>
K in
so cial</w>
führ en</w>
in nen</w>
dur ing</w>
s eit</w>
posi tion</w>
f il
S u
c entr
fac t</w>
sa y</w>
cu st
i g</w>
B o
der s</w>
wei l</w>
em ents</w>
be fore</w>
a z
servic e</w>
conc ern
l ungen</w>
e ver
at te</w>
ru pp
e g</w>
al t</w>
t liche</w>
wa ys</w>
d ra
k es</w>
shi p</w>
k no
l ast</w>
u e</w>
e p</w>
B ar
differ ent</w>
organ is
ri f
B </w>
chan ge</w>
avail able</w>
ul ation</w>
L u
b usin
1 2
al ready</w>
il y</w>
s et</w>
su m
isch er</w>
fin det</w>
bel ieve</w>
D is
en z
t ungen</w>
emp lo
str ateg
fut ure</w>
ih r</w>
aus ge
setz en</w>
Untern ehmen</w>
en viron
gestell t</w>
cour se</w>
er te</w>
min is
da für</w>
Mö g
le x
gre at</w>
G </w>
M </w>
ti eren</w>
s on</w>
ei st
eg en
stell ung</w>
ent wick
N e
C ommission
p ur
fre e</w>
sel f</w>
at t
ro om</w>
vi du
b al
W elt</w>
zu sam
l ess</w>
g ar
In tern
nah me</w>
im m
tur al</w>
dec is
dar auf</w>
y n
T he</w>
P ri
3 0</w>
kl är
ol d</w>
A m
wie der</w>
sch on</w>
selb st</w>
sich er
prob lem
Th em
sa gen</w>
al ität</w>
ck en</w>
Parl am
un c
tw are</w>
op e</w>
au th
si de</w>
w o</w>
in ten
B ed
st an
som e
ti z
g s</w>
di tion</w>
to o</w>
da her</w>
ep t</w>
K ol
at s
o v
R ah
k now</w>
produc ts</w>
s ätz
z eit</w>
cont ro
h in</w>
grö ß
t ru
it al</w>
im pl
mi r</w>
ti schen</w>
thin k</w>
ver s
la gen</w>
nu n</w>
s einer</w>
r e</w>
an ge
au ßer
gen ommen</w>
Berei ch</w>
su cc
on -
Inform ationen</w>
är k
ar beit</w>
n eg
t schaft</w>
pres ent
f r
Ma ßnahmen</w>
gan g</w>
proc ess</w>
en te</w>
e ach</w>
le vel</w>
c ase</w>
eff ec
nat ür
t al
ris e</w>
so zi
sec on
V </w>
d ab
sch en
m ar
indi vidu
f est
ur ity</w>
g o</w>
e very</w>
ation s
dat a</w>
s af
l ungs
hum an</w>
re qu
ra p
p ut</w>
d y</w>
L age</w>
Commission er</w>
n ational</w>
J u
in de
im pro
ges am
ommis s
sat z</w>
is m</w>
ma cht</w>
w es
m us</w>
rü n
z un
wh ile</w>
dab ei</w>
g l
k e
ma in</w>
ai r</w>
ember s</w>
f ern
t yp
I s
n i
ques tion</w>
ti k</w>
ut es</w>
K ommiss
sp ra
hei ts
T re
n is</w>
b oo
amp le</w>
Herr n</w>
u </w>
em ent
N or
Fin anz
finan cial</w>
mög lich</w>
o ver
cust om
vi el</w>
at ely</w>
sit uation</w>
erg y</w>
p as
D em
mög lich
al o
a th
Prob lem
ep t
H o
ihr en</w>
m it
w eb
s timm
T ran
deb ate</w>
ig keit</w>
nec ess
bu d
b in</w>
Aus sch
z el
ma j
F </w>
issu e</w>
T ra
tra c
no v
a de</w>
ch il
Ar beit</w>
li on</w>
ish ed</w>
propos al</w>
Jahr e</w>
woll en</w>
stell t</w>
con s
wür de</w>
h en</w>
st eht</w>
c ity</w>
al lem</w>
g lich</w>
St and
F rei
icht lin
ver k
ex ample</w>
s ed</w>
L is
- S
c all
o d</w>
dar über</w>
f er</w>
m ei
des halb</w>
r o</w>
sa id</w>
da m</w>
s s</w>
me ans</w>
Ser vic
res ol
unser en</w>
off ers</w>
ver fü
ex peri
si mp
wor den</w>
kun ft</w>
wh y</w>
Arbei ts
ro oms</w>
ah l</w>
high </w>
P h
bas ed</w>
ins besondere</w>
ul t
fi ed</w>
app lic
gu t</w>
ta ken</w>
un ser</w>
f ast</w>
ig n</w>
l ü
is l
h eiten</w>
b ro
d rei
es sen
n or
k an
dis c
Me di
ar t
pe ti
leg al</w>
k ed</w>
ci tiz
re qui
Ver ein
bes t</w>
demo c
or ity</w>
tor s</w>
ad op
Hau sh
L and</w>
p rä
bes timm
P rei
200 9</w>
s es</w>
k ün
ti ert</w>
hel p</w>
f ic</w>
ac tion</w>
ne x
P al
el ec
k tion</w>
L and
c ent
th ough</w>
f äl
er st
F re
n et
wel t
bei m</w>
par tn
br ingen</w>
et was</w>
partic ular</w>
inclu ding</w>
ever y
b an
Pro jek
con di
ann t</w>
spe zi
prob lem</w>
wh e
meas ures</w>
A d
di re
busin ess</w>
c l
M an
c um
1 8
ar t</w>
al y
so f
qu e</w>
am end
setz ung</w>
de fin
bi eten</w>
lu g
sm all</w>
war d</w>
Comm ittee</w>
ich ts</w>
&#9 3
&#93 ;</w>
l ong</w>
comm on</w>
al th</w>
agre ement</w>
er fol
t sp
n ing</w>
for t</w>
ver b
en ces</w>
u al</w>
citiz ens</w>
acc ess</w>
no t
ord in
1 ;</w>
&#9 1;</w>
Unter stütz
ac coun
fur ther</w>
us ing</w>
nex t</w>
1 0
H ot
gi ve</w>
Chin a</w>
y -
in iti
i ous</w>
1 5</w>
en ergy</w>
are as</w>
gi ven</w>
än der
war en</w>
off er</w>
g ar</w>
e k</w>
m et
st s</w>
ut z</w>
wel che</w>
geh ör
ur s</w>
er halten</w>
d ings</w>
in ing</w>
sp re
olog y</w>
s icht</w>
L ös
necess ary</w>
-L SB-</w>
est abl
M r
pres ent</w>
op p
Län der</w>
er gi
Rech ts
tig ung</w>
B eh
Per son
p t
w ach
ß t</w>
De ut
ens ure</w>
z ü
li g
ten s</w>
ges etzt</w>
sch ein
ci es</w>
c al</w>
T echn
Z immer</w>
provi de</w>
inc reas
-R SB-</w>
d ungen</w>
p unkt</w>
b ack</w>
re m</w>
v </w>
on g
A ut
Ver fü
ei g
ag t</w>
ch es</w>
schließ lich</w>
ti vi
g rei
rec ei
h äl
B el
natür lich</w>
ar o
U r
S ei
n ame</w>
por ts</w>
Unterstütz ung</w>
d est
emplo y
fe w</w>
es sen</w>
au tom
loc ated</w>
ag ain</w>
ver wen
k ey</w>
zi eh
ä t
as k</w>
all er
Rah men</w>
Parlam ents</w>
thre e</w>
k a</w>
syst ems</w>
aff en</w>
sec urity</w>
Men schen
s ure</w>
wich tig</w>
al er</w>
problem s</w>
n ten</w>
all er</w>
i ons</w>
k t
ord nung</w>
Zusammen arbeit</w>
om en</w>
t ä
er ten</w>
fol low
St ra
un de</w>
tra di
H il
comp any</w>
Pro z
com peti
comp an
di gen</w>
geb o
le t</w>
ad v
l er
politi schen</w>
ass ung</w>
er sten</w>
mo der
ul arly</w>
op port
arbei ten</w>
trä ge</w>
ti al</w>
vo te</w>
v ot
et ing</w>
lar ge</w>
Änder ungsan
ie der
g le</w>
w rit
j a</w>
th ir
Vorsch lag</w>
co operation</w>
en ten</w>
sol l</w>
pra c
Tei l</w>
i d
1 2</w>
s y
best eht</w>
o l</w>
se qu
po p
ul es</w>
sh all</w>
pl ay
E -
ex is
Ar t</w>
W in
utz en</w>
si bility</w>
D eb
in vol
ic k
an other</w>
f te</w>
di d</w>
wich tig
m ehr
ör der
f ar</w>
F all</w>
s tim
ear ch</w>
d ate</w>
leg isl
a k</w>
ti sche</w>
lo ssen</w>
Bür ger</w>
b lei
tu n</w>
tro l
gro w
gab e</w>
wär e</w>
zu g</w>
drei </w>
taur ant</w>
Län dern</w>
consi der
so ur
einf ach</w>
c oll
bet ri
gr und</w>
i zi
G el
d ri
g lau
t ungs
be deut
whe ther</w>
ein mal</w>
P or
bit te</w>
G u
m einer</w>
ob jec
e as
li fe</w>
führ ung</w>
L eb
en nen</w>
ti ce</w>
Fra gen</w>
at s</w>
ol e</w>
k ri
sa m</w>
co m</w>
war ds</w>
ven tion</w>
im p
Ver k
impl ement
der en</w>
r än
m ul
K ar
h ope</w>
i an</w>
Prob lem</w>
la w</w>
ir e</w>
K om
ge ther</w>
gro up</w>
T ur
ai d</w>
EU -
st re
20 10</w>
weiter e</w>
se ver
int egr
ter stat
V ol
A mer
ord n
tra gen</w>
to gether</w>
Z iel</w>
Inter net</w>
inn er
need s</w>
N amen</w>
letz ten</w>
St u
ous ly</w>
G re
sp ar
An wen
s einen</w>
ichtlin ie</w>
ful ly</w>
S a
at ten
ple ase</w>
Amer ic
Kol legen</w>
ett bewer
al ways</w>
le a
L in
viel en</w>
Syst em</w>
wor king</w>
ha pp
tei l</w>
Z iel
d ge</w>
t sch
Par tn
st ra
tion s
G ar
st er
gro ße</w>
produc tion</w>
Gro up</w>
en jo
ge führt</w>
pro mis
z o
itä ten</w>
r y</w>
an ges
re co
M u
zei gt</w>
cul tural</w>
Wir tschaf
mat eri
ess es</w>
schaf ten</w>
i ev
port e
sp iel</w>
u l</w>
s si
gab en</w>
str eng
da ys</w>
Mil li
H </w>
M ein
B est
ti l</w>
e qui
Ent schei
ad d
Or gan
n ess</w>
in d</w>
ent ru
re chte</w>
St adt</w>
Be deut
prot ection</w>
m a</w>
ol o
do wn</w>
US A</w>
o ti
Un ited</w>
b l
Gesch äf
tra g
h ear
p rü
H ouse</w>
ol le</w>
bet ter</w>
o th
rü ck
n isse</w>
gro ßen</w>
es p
wei ter</w>
1 .
Haush al
besonder s</w>
ing ungen</w>
. com</w>
D aten</w>
komm t</w>
F ri
li ght</w>
mitt el
Verfü gung</w>
fi z
par ti
Comm unity</w>
gen d</w>
b asi
Rech t</w>
Er geb
öl k
Bedeut ung</w>
program me</w>
po wer</w>
es se</w>
dr en</w>
200 8</w>
pl at
t -
k re
In stitu
ap pe
B r
H in
et er</w>
speci al</w>
be w
regi on
p ack
all es</w>
th ank</w>
tr it
ur al</w>
Sicher heit</w>
ma king</w>
partic ularly</w>
curr ent</w>
th em
o -
str y</w>
sp ek
so wohl</w>
F am
Geb i
zur ück
ü ck</w>
B en
m ental</w>
tig keit</w>
l is
wis sen</w>
tra de</w>
Sei te</w>
sta y</w>
ma in
Fra ktion</w>
en ing</w>
ori ties</w>
c a</w>
D es
j u
indu stri
gen en</w>
k ein</w>
den ce</w>
rap porte
pf lich
tim es</w>
0 0
ar ch
Mög lichkeit</w>
n äch
fer ence</w>
Sp iel
Berich terstat
da von</w>
not wen
bec ome</w>
mu ß</w>
Mr s</w>
glei ch</w>
st e
K </w>
wor k
ic ul
m b
aro und</w>
ter ms</w>
K ri
ex tre
gro ß
pl ac
gu ar
k om
I r
o cc
cer tain</w>
En ergi
ger n</w>
W oh
n t</w>
fes sion
diff icul
chil dren</w>
ff e</w>
ab hän
entsp rech
Min is
bas is</w>
g ed</w>
ent schei
sch er</w>
tiv es</w>
S e
is mus</w>
Un i
U </w>
re al</w>
an zu
p i
er forder
s ing</w>
con f
m ä
Sta aten</w>
we gen</w>
con tri
un ic
op en</w>
resul t</w>
on ce</w>
p t</w>
or ig
f ar
go ing</w>
Them a</w>
n am
man agement</w>
f unc
issu es</w>
ver sch
t on</w>
Sch l
ex pres
w o
lo s</w>
h r</w>
tei l
per f
des sen</w>
n &apos;
st ate</w>
g ing</w>
c ris
i ma
en zen</w>
F lug
kön nte</w>
W el
Str ateg
w omen</w>
ec ts</w>
ul tur
Problem e</w>
loo k</w>
k m</w>
S k
condi tions</w>
si a</w>
Kommiss ar</w>
äm pf
ell schaft</w>
st en
ent fern
og ra
n&apos; t</w>
t el
d ent
inner halb</w>
ff t</w>
su chen</w>
di c
d lich</w>
ai l</w>
w eit</w>
spre chen</w>
in es</w>
compan ies</w>
secon d</w>
ben ef
rei ch
am e
1 1</w>
du stri
lex i
c as
ra cht</w>
S of
ful l</w>
or en</w>
is sen</w>
w are</w>
Poli tik</w>
in nov
Wei se</w>
ier ten</w>
du ce</w>
f a
in f
i fic
B eg
dar f</w>
F ahr
of f</w>
Hau pt
K unden</w>
li k
regi on</w>
ran ge</w>
B i
sam en</w>
ex ten
experi ence</w>
Di enst
zah l
R us
zw ar</w>
T o
Reg ierung</w>
inv est
R ep
esp eci
vari ous</w>
g ress</w>
guar ant
ak tu
at ur
k tur
wei sen</w>
par t
k ra
ro le</w>
especi ally</w>
L ei
gr und
d -
U S</w>
ich te</w>
contro l</w>
ra ch
vor sch
ur y</w>
errei chen</w>
G ä
at ten</w>
sec tor</w>
h and</w>
tre ten</w>
v e
ü hr
Wirtschaf ts
is ed</w>
sel ves</w>
tur n</w>
unterstütz en</w>
indu stry</w>
ation ale</w>
Ihr er</w>
W i
priv ate</w>
at y</w>
ell er</w>
n ei
o s
mat ter</w>
Zu kunft</w>
entru m</w>
at or</w>
he alth</w>
W o
lie gen</w>
O p
je der</w>
lich keiten</w>
tic s</w>
Gen er
lei ch
x im
Fam ili
mö chten</w>
be findet</w>
de f
eigen en</w>
200 0</w>
b or
wirk lich</w>
a vi
vie ws</w>
P lat
neg oti
b lick</w>
F ol
En de</w>
wh ole</w>
bur g</w>
v il
Ar tik
P ol
h ang</w>
gegen über</w>
u es</w>
rit te</w>
d one</w>
resp ect</w>
bud get</w>
di st
gel egt</w>
ch o
R u
Bei spiel</w>
Eur o</w>
ing t</w>
A t
I m
h atte</w>
speci fic</w>
er st</w>
1 00</w>
en ter
W er
t ot
so li
ih nen</w>
K un
res earch</w>
rif ten</w>
W ettbewer
accoun t</w>
di </w>
to ur
d ort</w>
an k
o c
u te</w>
govern ment</w>
or e</w>
verschied enen</w>
ier te</w>
le ben</w>
proc ed
a -
w ish</w>
wel come</w>
d el</w>
dig keit</w>
C hr
ec k</w>
ut er</w>
er ing</w>
z ep
sa ge</w>
G rupp
w w
y et</w>
h au
ein zu
follow ing</w>
her vor
is ation</w>
sever al</w>
l in</w>
h il
sch l
do cum
glob al</w>
autom ati
di stri
ab o
ati ven</w>
k rati
R olle</w>
re duc
w a</w>
200 7</w>
call ed</w>
z entr
F l
w ater</w>
per s
A fri
O ff
en der</w>
l ed</w>
l ab
N utz
ab ly</w>
In v
loc al</w>
C O
For sch
inc re
ou th</w>
ö h
R ich
entfern t</w>
G o
pro fession
politi sche</w>
us e
intern ationalen</w>
i denti
rapporte ur</w>
W eg</w>
K re
R ück
R om
continu e</w>
sub ject</w>
p a
wi de</w>
aller dings</w>
dire kt</w>
olo gi
employ ment</w>
rei chen</w>
ch t
um fas
en cy</w>
o un
g ri
zusam men
d ür
res er
resol ution</w>
F unk
sp or
l s</w>
ech an
Fr auen</w>
europä ische</w>
th e
un tern
tiv </w>
Leb ens
mo dern</w>
ish ing</w>
spra che</w>
stimm ung</w>
an s
mil lion</w>
ter m</w>
zi ehen</w>
ß en
m ing</w>
t ar
e qu
gent lem
außer dem</w>
al es</w>
eu er
an y
res our
em e</w>
in a</w>
some thing</w>
ei cht</w>
in tro
z ed</w>
f y</w>
ec k
Geschäf ts
a de
centr e</w>
mä ß
dru ck</w>
ge währ
Servic e</w>
gentlem en</w>
reg ard</w>
reg ul
pro ject</w>
maj or</w>
f lo
J un
R ichtlinie</w>
2 5</w>
G rün
ent er</w>
sof tware</w>
re ally</w>
Dem ok
ta king</w>
D r
u tions</w>
denti n</w>
EU R</w>
la dies</w>
B al
of ten</w>
cris is</w>
ame work</w>
op tim
it self</w>
su ff
d ungs
Ger many</w>
ef ul</w>
ein zel
and s</w>
k omp
In dustri
er ste</w>
t ext</w>
G ef
i k</w>
mul ti
den cy</w>
d ou
des ign
m el
eh men
m es</w>
4 0</w>
on n
direc tive</w>
1 6
jec ts</w>
beh al
del i
star t</w>
fac e</w>
op in
stat t</w>
c ro
Ihr en</w>
minis tr
du </w>
clo se</w>
200 6</w>
ah n
An t
In di
ati ves</w>
e ur
rü h
thir d</w>
Ges und
reg is
gu e</w>
f el
pl an
be au
r ules</w>
Ger man</w>
P ra
ier ungs
G i
ter r
h under
mu si
h ät
Ta g</w>
lan gu
di sp
gener al</w>
g il
c li
zi al
mil it
cre ate</w>
Ver brau
W ar
Mein ung</w>
as ser
f all</w>
es sion</w>
C ar
lich es</w>
p ay
conc lu
as p
f unk
wie der
lan g
A T
är e</w>
an st
parti cip
E ben
b lo
transp ort</w>
un til</w>
I N
a gen
po l
F u
P f
exc ell
or ding</w>
w ahr
I t
eh m
du z
ab sol
ver sion</w>
su pp
Artik el</w>
E m
ili ties</w>
c el
u li
mer k
decis ion</w>
reco gn
bu tion</w>
Ma dam</w>
ati s
le ast</w>
Ih r</w>
as se</w>
fra ge</w>
es ti
F ir
an der</w>
H ei
to wards</w>
b rei
ad ing</w>
grow th</w>
b ut
re present
schaf ts
T e
g än
K omm
19 8
me tho
con tain
Deut sch
T err
1 5
fo und</w>
custom ers</w>
institu tions</w>
Sit uation</w>
cul ture</w>
Ab ge
sh e</w>
ach iev
ver besser
m ot
vis ion</w>
ra ther</w>
bei den</w>
wn lo
ol s</w>
n on-
at er
L a
y o
Zusammen hang</w>
Program m</w>
lä ge</w>
sch ri
environ ment</w>
det ail
C omp
Ent schließ
12 4
ges agt</w>
p ro</w>
uss es</w>
comm unic
U hr</w>
1 7
li es</w>
eff ici
sit u
du e</w>
ha ving</w>
vi a</w>
auf en</w>
le ar
F isch
p ic
agre e</w>
wen iger</w>
beg rü
sin gle</w>
con struc
l en
z ung</w>
2 .
unser em</w>
land s</w>
person al</w>
zu sätz
incre ase</w>
am ong</w>
b s
es ten</w>
ach t</w>
Tre aty</w>
li gen</w>
J an
dar an</w>
fic ation</w>
man u
wor ks</w>
individu al</w>
tr on
a way</w>
an aly
lan g</w>
th ings</w>
X </w>
gr at
rit t</w>
produc t</w>
in dem</w>
st o
f ris
E C
eig n</w>
la y
D ur
gen d
&# 124
gu te</w>
Is ra
for ward</w>
Hil fe</w>
sp ec
auf grund</w>
Ver antwor
w le
posi tive</w>
ple as
th s</w>
c ed</w>
tivi ties</w>
- B
enjo y</w>
Präsi dentin</w>
Reg i
pl es</w>
stand ards</w>
lo g
ger ade</w>
L an
Mitt el</w>
mon ey</w>
itt le</w>
ac tu
e ad</w>
aus zu
Demok rati
Lös ung</w>
It ali
w ün
1 3</w>
co ver
ta ge</w>
fi eld</w>
opport unity</w>
er zi
F il
Produk te</w>
so gar</w>
er min
in stru
po ten
Sch ul
B .</w>
er war
pre par
o d
ck s</w>
pers ön
Mitt el
ges t</w>
sign ific
j en
pl ay</w>
er a</w>
Um welt
K l
alis ierung</w>
B ri
forder ungen</w>
us er</w>
bar en</w>
on line</w>
di o</w>
b au</w>
appro ach</w>
amend ments</w>
Reg ion</w>
Dienst leist
B au
resour ces</w>
p rec
wor t</w>
vol l</w>
aus sch
c all</w>
M i
pre v
eben falls</w>
r ate</w>
al low</w>
qu ite</w>
on ds</w>
öffent lichen</w>
li g</w>
gil t</w>
up s</w>
f ood</w>
M embers</w>
Hot els</w>
av our</w>
ra cy</w>
gesch lossen</w>
st ärk
ver stän
et wa</w>
ag o</w>
al though</w>
pri ce</w>
tur es</w>
H ar
li </w>
Sp an
Fran k
dar in</w>
an im
zei tig</w>
ac tivities</w>
S ü
e duc
vi ol
ch er
sch rei
d ly</w>
re cht</w>
kno wn</w>
Mu si
oo l</w>
prin cip
Ch ar
excell ent</w>
sh </w>
N ov
A ir
® </w>
form s</w>
v ement</w>
b zw
l ittle</w>
d om
lä u
R i
St ru
gr ün
h im</w>
kün f
bzw .</w>
fin ally</w>
An gel
inter est</w>
propos als</w>
fo c
ann ten</w>
um s</w>
rit eri
v ely</w>
lei sten</w>
Gr und</w>
der zeit</w>
L eben</w>
orig in
tr au
el eg
P ak
gen au</w>
H aus</w>
loc ation</w>
hin aus</w>
is ts</w>
Europ as</w>
effec tive</w>
n äm
transp ar
econom y</w>
Er fahr
näm lich</w>
fra gen</w>
rei ch</w>
ück sich
techn ology</w>
Sch utz</w>
U N
In iti
äch lich</w>
ge macht</w>
berei ch</w>
sp ä
K or
provi ded</w>
ge geben</w>
Milli onen</w>
betri fft</w>
geb racht</w>
sol ution</w>
C entr
m om
sion en</w>
ex per
ef er
z t</w>
r a</w>
reg ar
requi re
E R
egen heit</w>
ad di
rati c</w>
ti sch</w>
200 5</w>
Sicher heits
et te</w>
ag ri
fe at
peri od</w>
e th
ma ch
Mitg lie
air s</w>
fr amework</w>
er klär
weiter hin</w>
Wor ld</w>
Dat en
ell eicht</w>
en ds</w>
saf ety</w>
am ent
B as
vi elleicht</w>
. .</w>
re gel
zah l</w>
pro gress</w>
E l
Haushal ts
de ci
M ehr
al tung</w>
m embers</w>
sich er</w>
sch ie
wes ent
al t
el s
co sts</w>
m ight</w>
fam ily</w>
K ap
us sion</w>
Ver hand
des ign</w>
poin ts</w>
appro pri
unter schied
mo sp
1 .</w>
a x
acc ording</w>
w ell
zei gen</w>
r icht</w>
buil ding</w>
adop ted</w>
z immer</w>
gen den</w>
bin dung</w>
K ü
com es</w>
m ember</w>
st off
Entwick lungs
f ig
ac tiv
S h
unterstütz t</w>
sta in
abo ve</w>
l ing</w>
ges timm
p ris
th us</w>
Abge ordn
f lexi
brau chen</w>
for ce</w>
ch all
ein igen</w>
St ate</w>
Eben e</w>
legisl ation</w>
D ok
pro z
A R
d rin
simp ly</w>
on ger</w>
bei spiel
e di
Aus sprache</w>
pro per
demo krati
Rep ub
S ept
Kin der</w>
O b
In stru
Z w
p age</w>
hand elt</w>
V i
ih m</w>
inclu de</w>
to wn</w>
ad s</w>
compl et
Zei t
st eh
f avour</w>
ih n</w>
A c
ar s</w>
s weise</w>
b ank</w>
beg inn
reas on</w>
I S
P unkt</w>
ra ft</w>
z eh
l a</w>
tiv en</w>
cer tain
opin ion</w>
fre ed
en h
sol che</w>
re p
K li
w ing</w>
G eg
respon sibility</w>
h eb
com ing</w>
Sept ember</w>
N ot
zusam men</w>
M at
h ier
k er</w>
ne ben</w>
j e</w>
stän dig</w>
200 4</w>
arbei tet</w>
oth ers</w>
S i
gleich zeitig</w>
all gem
K oll
bre ak
ta g</w>
an a</w>
pro jects</w>
tion ed</w>
C or
er weise</w>
val ue</w>
bi li
M or
inde ed</w>
em pf
h ome</w>
R ates</w>
n ichts</w>
Deutsch land</w>
s einem</w>
in e
ä d
wor ds</w>
ran k
N eu
En g
exc lu
rec omm
ag ed</w>
dür fen</w>
concern ed</w>
bo dy</w>
ür k
pl an</w>
behal f</w>
glau be</w>
tei le</w>
F rüh
cle arly</w>
poli cies</w>
1 4
stim men</w>
atten tion</w>
eben so</w>
Dur ch
Person en</w>
c ally</w>
je den</w>
ma kes</w>
zeich net</w>
an gen</w>
en ed</w>
difficul t</w>
cont act</w>
Qu alität</w>
For m</w>
w eg
n ationalen</w>
d rück
c lim
E ig
dan ken</w>
resul ts</w>
d ro
n utzen</w>
Ab stimmung</w>
sen den</w>
fi le</w>
pro chen</w>
ad ministr
1 4</w>
di en
ques tions</w>
soll en</w>
olog ie</w>
am oun
mög lichen</w>
mitt el</w>
W ach
T our
ic s</w>
D o
A N
Er fol
compl ete</w>
D ru
at ur</w>
lu b</w>
ri eb
st ei
gro ups</w>
po wer
eh mer</w>
T at
on es</w>
Jan u
t ats
i tion</w>
Web site</w>
em üh
re alis
ier ungen</w>
provi des</w>
sch affen</w>
ä um
gre ater</w>
am eri
en k
kl ar</w>
L e
import ance</w>
s se</w>
f ang</w>
sho w</w>
S ek
l ist</w>
t able</w>
Gemein schaft</w>
K omp
cre di
gestimm t</w>
applic ation</w>
gem ä
sp i
pos e</w>
Wir tschaft</w>
di ge</w>
äh igkeit</w>
s ci
web site</w>
environ mental</w>
In t
vot ed</w>
* </w>
succ ess
G ol
wor d</w>
Besch äf
soci ety</w>
6 0</w>
p ass
ad dition</w>
strateg y</w>
J ap
Rech te</w>
Ges etz
wir tschaft</w>
char ac
k einen</w>
intro duc
tei len</w>
mei sten</w>
sp ru
un ver
ig ung</w>
le ft</w>
abhän gi
le b
pro mo
ih rem</w>
hal t</w>
geb ung</w>
beh and
th an
p at
fre und
do ws</w>
ho ch
Koll eg
to ber</w>
gehör t</w>
li ed</w>
Jahr hunder
For tsch
T V</w>
äch st</w>
for man
el ess</w>
ogra ph
wich tige</w>
ko sten
gen de</w>
F ar
sit es</w>
ide al</w>
rei che</w>
Ber lin</w>
ig r
for ts</w>
utz t</w>
ü l
Wel t
200 3</w>
li ber
ati c</w>
ben ö
op s</w>
1 8</w>
princip le</w>
Sof tware</w>
li ve</w>
l et
Ben utz
alo g</w>
wür den</w>
in o</w>
wirtschaf tlichen</w>
tra ining</w>
Dok um
zun ächst</w>
mo un
b are</w>
curr ently</w>
a di
sch wi
ob wohl</w>
s ei</w>
fü r
rec ent</w>
al ong</w>
mark t</w>
c ing</w>
bedeut et</w>
in t</w>
st y
ah l
inter est
L eist
de al</w>
t em
imm t</w>
Be zug</w>
trit t</w>
rei b
w and
it ing</w>
chan ges</w>
beau ti
den ten</w>
ro ad</w>
E S
gro und</w>
af f</w>
k ind</w>
direc tly</w>
z äh
unk te</w>
Bür ger
in -
ges ehen</w>
li z
ci r
po st
zu stellen</w>
B ev
manu fac
K amp
2 4</w>
sh ar
j us
rif f</w>
I I</w>
h y
st ep</w>
sa che</w>
vers ity</w>
Ne w</w>
respon sible</w>
G ra
I C
an di
Intern ational</w>
setz t</w>
b on</w>
tn is</w>
lich t</w>
Al l
l ö
f ron
au t</w>
W il
beispiel sweise</w>
re fer
bes ser</w>
ou ght</w>
hal te</w>
Be zieh
ich tet</w>
ro w</w>
p rei
am ental</w>
trol le</w>
ä he</w>
auth orities</w>
k ar
deut lich</w>
S al
4 -
st ly</w>
A S
Bes u
schn ell</w>
S in
Or t</w>
ap art
sta at
zeich n
Ges ellschaft</w>
M E
wer de</w>
ein ger
h ör
Gro ß
S y
techn ical</w>
sen d</w>
am m
b ed</w>
sh ort</w>
m echan
ch en
gu i
uni ties</w>
b ish
erfol grei
requi red</w>
lo ws</w>
Wach st
H e
eas y</w>
sich tlich</w>
Zu gang</w>
por ted</w>
ach ieve</w>
fü h
fü n
me eting</w>
1 6</w>
D ank</w>
en ess</w>
Strateg ie</w>
wi esen</w>
a th</w>
ho li
i r</w>
lo t</w>
O n
nat ural</w>
ri g
po ol</w>
olog ical</w>
on a</w>
ach ten</w>
T el
Sp ra
con su
Ko sten</w>
T i
Bev ölk
ha f
bes ten</w>
essen tial</w>
we der</w>
200 1</w>
ser ious</w>
z es</w>
An sicht</w>
k or
An gebo
wi ll
ver s</w>
loo king</w>
näch sten</w>
sol utions</w>
S eiten</w>
gen ie
Menschen rechte</w>
5 -
ör den</w>
ger ech
St ad
Rich tung</w>
wer t</w>
cri min
1 3
h t</w>
F eh
Um setzung</w>
er neu
vor gesch
bek annt</w>
de u
K ur
Sch i
inst all
dar um</w>
v al</w>
zü glich</w>
ac ro
F örder
bet re
ein ander</w>
propos ed</w>
st aff</w>
s po
é </w>
Mark t</w>
mo ve</w>
min utes</w>
e asi
I ra
s et
democ racy</w>
Z i
M inu
add ress</w>
ein zi
pos ed</w>
pro duk
stand ing</w>
So zial
z a</w>
ta k
qu ali
tig er</w>
is ten</w>
D ie</w>
gu ests</w>
intern al</w>
at ors</w>
br ing</w>
f rü
mitt ed</w>
Go vern
Ver besser
o k</w>
S ec
struc ture</w>
ot s</w>
a .</w>
p tion</w>
taur ants</w>
re ach
inter ests</w>
Verein ig
comm it
ho ffe</w>
ro und
W </w>
ris k</w>
pp ed</w>
lin es</w>
terr or
s el</w>
ex pl
hum an
p ast</w>
min d</w>
ass er</w>
h on
fam ili
c are</w>
Mit arbei
develop ed</w>
Ver trag</w>
Ver fahren</w>
al tern
st or
d au
Verantwor tung</w>
än dern</w>
Ziel e</w>
wirk ungen</w>
0 .
stat t
reg ulation</w>
mon ths</w>
up on</w>
notwen dig</w>
cont ent</w>
ag er</w>
con n
spe ak
C as
fü l
m al
car ri
con trac
wel t</w>
Pri v
ori es</w>
je de</w>
A C
vis it</w>
s ha
require ments</w>
si g
Par tei
al low
k enn
implement ation</w>
ig keiten</w>
ef forts</w>
su stain
de ck
wle dge</w>
beauti ful</w>
competi tion</w>
freed om</w>
Bed ingungen</w>
mark ets</w>
o ft</w>
regi ons</w>
fe el</w>
sch ö
par ties</w>
extre m
l onger</w>
ac tive</w>
le x</w>
c al
lan ge</w>
need ed</w>
ar ti
Kli ma
schri ft
Nov ember</w>
im e</w>
invol ved</w>
con sequ
st är
Vorsch läge</w>
Demokrati e</w>
us es</w>
aff ung</w>
f ung</w>
n ed</w>
s ab
on d
anc ed</w>
ing ly</w>
ant ly</w>
nat ure</w>
sch t</w>
a den</w>
je wei
an o</w>
z er
or d</w>
ev ents</w>
h ouse</w>
Dis k
schein t</w>
gemein samen</w>
bu s</w>
them selves</w>
P i
fort un
Inter esse</w>
ber ücksich
yo ung</w>
t ex
tic le</w>
sch ön
histor y</w>
t z</w>
e gen</w>
verwen det</w>
je des</w>
A spek
isch es</w>
Rus sia</w>
cent ury</w>
Grund lage</w>
N etz
A pri
gen u
f ail
Er weiter
mon it
Anwen dung</w>
is ion</w>
democ ratic</w>
19 7
F o
ic ro
sei ts</w>
com bin
ke ep</w>
D ec
en ough</w>
blei ben</w>
F e
Au ßen
per son</w>
a vo
st adt</w>
e f</w>
B ro
Herr en</w>
de pen
m as
ber u
negoti ations</w>
for dern</w>
mb H</w>
oo ds</w>
vi ous</w>
200 2</w>
se par
L o
lei der</w>
h ot
kön nten</w>
consi der</w>
rich tung</w>
str ong</w>
Gebi et</w>
finan zi
N ähe</w>
er möglich
stand ard</w>
geb i
se a</w>
ac y</w>
pe ace</w>
S or
inn en
Arbei tsp
S ol
cas es</w>
errei cht</w>
ä t</w>
sozi alen</w>
än de</w>
ta kes</w>
+ </w>
de mon
&#124 ;</w>
zo gen</w>
ma xim
des cri
hö ch
region al</w>
I de
itä ts
Ver sion</w>
ver fol
Deb atte</w>
Mög lichkeiten</w>
forder t</w>
ei ch
rel ev
s wi
ges etz
B oo
f our</w>
hal tung</w>
kl einen</w>
st ation</w>
situ ated</w>
ist an</w>
c aus
min im
ur t</w>
verschied ene</w>
l an</w>
Apri l</w>
appropri ate</w>
t op</w>
develop ing</w>
Ih rem</w>
Z ah
Institu tionen</w>
ser v
yn am
ur ing</w>
T ex
f eh
tot al</w>
d lichen</w>
re f
W es
extrem ely</w>
use um</w>
net work</w>
ne ver</w>
addi tional</w>
Er klär
C an
spiel en</w>
indi c
gel eg
b s</w>
ob lig
G mbH</w>
k u
äl t</w>
at ory</w>
res taurant</w>
har mon
b ark
R uss
Res taurant</w>
€ </w>
Rei he</w>
am es</w>
tru e</w>
ei ther</w>
ac tions</w>
an ten</w>
Gesch ichte</w>
P rin
vi er</w>
äu ßer
Inv esti
gra m</w>
s eh
tor y</w>
P rä
ag ing</w>
m us
a im
pres s</w>
kon kre
educ ation</w>
Ver wal
funk tion
at trac
inde pen
re form</w>
su cht</w>
do wnlo
auf ge
organ iz
fo und
get s</w>
ver ein
I T</w>
ver antwor
pri ces</w>
Tei l
forman ce</w>
fund amental</w>
entwick elt</w>
hear t</w>
direc t</w>
M et
En gl
ma il</w>
fund s</w>
wen ig</w>
ari an</w>
p an
gemein same</w>
b ra
tw eit</w>
w an
s st</w>
sp ort</w>
fort able</w>
al most</w>
ev ent</w>
F est
eff izi
n immt</w>
on d</w>
Em pf
tats ächlich</w>
te am</w>
alo gue</w>
wel tweit</w>
sp ace</w>
sch ul
g s
centr al</w>
glei chen</w>
ber eit</w>
R is
Di rec
su g
Berichterstat ter</w>
K enn
ill a</w>
8 0</w>
langu age</w>
b li
r icht
gegen wär
sh are</w>
d re
st ates</w>
lä tz
clim ate</w>
Po si
f -
impro ve</w>
Presi dency</w>
Vol k
D amen</w>
succ ess</w>
Aus wirkungen</w>
ei gent
d ar</w>
her r
col le
li eg
W ieder
lat er</w>
requ est</w>
T r
St ell
vi l</w>
off ici
every thing</w>
S pe
Her aus
B ek
plat z</w>
S el
bal d</w>
fer enz</w>
und s</w>
f f</w>
erforder lich</w>
untern ehmen</w>
A L
D u
cre ated</w>
Ab kommen</w>
Intern et
li eren</w>
se en</w>
ermöglich t</w>
ver l
abl es</w>
for eign</w>
cor rec
throu gh
des t</w>
er hö
ehr s
lin ks</w>
c la
be finden</w>
actu ally</w>
g a
I T
uni k
than ks</w>
ex am
gemein sam</w>
Win dows</w>
Fisch er
materi al</w>
r ates</w>
verfü gt</w>
l ack</w>
A G</w>
Ver f
so on</w>
In n
sen schaf
im medi
ab zu
c op
R at
an ischen</w>
Hin blick</w>
g rupp
A D
re t
b ack
hel d</w>
hel fen</w>
eff ect</w>
en cour
certain ly</w>
gn isse</w>
Verhand lungen</w>
R echn
ti </w>
stan den</w>
mitt eln</w>
sh or
tre at
c lick</w>
me et</w>
boo k</w>
Ar ch
W ähr
schlie ßen</w>
com b
ah </w>
en -
20 0</w>
Int egr
work ers</w>
Eur o
ch oo
c o</w>
C B-</w>
acc ept</w>
E N
Isra el</w>
h atten</w>
det ermin
c ar</w>
r es</w>
sp ir
Dienstleist ungen</w>
re ma
aus gest
M is
Fran ce</w>
er seits</w>
par ts</w>
Tat sache</w>
anges ichts</w>
ist ance</w>
ha ps</w>
da durch</w>
design ed</w>
manufac tur
no te</w>
p ay</w>
ameri kan
kt ur</w>
gesam ten</w>
in ation</w>
Mitglie der</w>
B ank</w>
abl ed</w>
ver fahren</w>
n ation
jen igen</w>
zu dem</w>
sp räsi
B ur
F äl
under stand</w>
lo s
us ers</w>
per haps</w>
er wäh
Ho ch
199 9</w>
Ak tiv
wi l
recei ve</w>
Program me</w>
ob s</w>
K at
den ke</w>
le ad</w>
proced ure</w>
einzel nen</w>
intern ationale</w>
in en</w>
k li
A ff
fall en</w>
F ühr
through out</w>
typ e</w>
k ultur
Kolleg innen</w>
den ken</w>
S ti
ru n</w>
con nec
A p
h en
eri es</w>
c at
co st</w>
bil dung</w>
Regi onen</w>
z er</w>
f air</w>
V iel
Minu ten</w>
ph as
ta x</w>
rel ated</w>
lä ssi
ide a</w>
war um</w>
uni que</w>
häl t</w>
5 00</w>
lo se</w>
P ub
Sch ritt</w>
invest ment</w>
in ge</w>
mis sion</w>
sch utz
fac ilities</w>
hät te</w>
g um
K ir
t est</w>
3 .
P -
u ally</w>
län dern</w>
maj ority</w>
Ö ff
ap </w>
S ub
schl uss</w>
m ut
H af
ex tern
ver ur
an gem
do ing</w>
Änderungsan träge</w>
vor zu
M al
con sum
Wir k
colle ag
si ert</w>
B ef
ämpf ung</w>
weiter en</w>
änder t</w>
r ing</w>
Ein zel
z one</w>
$ </w>
T ürk
o w</w>
Entschei dung</w>
W asser
le ading</w>
or ing</w>
gemä ß</w>
Fr en
ta x
tei lung</w>
Grupp e</w>
bes u
ne ar</w>
er ed</w>
Ergeb nis</w>
communic ation</w>
pub l
je dem</w>
z .
Off ice</w>
inclu ded</w>
Früh st
t ation</w>
e ch</w>
as soci
Ver tre
B innen
B ra
pra k
J o
c t</w>
Änderungsan trag</w>
an den</w>
Bet rieb
Di en
Berei chen</w>
V ide
las si
m ent
selb st
signific ant</w>
h ard</w>
St euer
P lan
H ö
vic e</w>
Li ber
ap er</w>
bi g</w>
guarant ee</w>
exis ting</w>
lä sst</w>
f ähigkeit</w>
wäh len</w>
si mil
rel ations</w>
sur round
concern ing</w>
le k
ei en</w>
amoun t</w>
entschei den
tr a</w>
initi ative</w>
sam keit</w>
For m
Bezieh ungen</w>
a ware</w>
ein ge
an gen
ah n</w>
ear ly</w>
Vereinig ten</w>
e den</w>
igh ts</w>
f ör
for men</w>
cap ital</w>
Ant wort</w>
Kon z
concern s</w>
Americ an</w>
rel ig
c am
wen dung</w>
ph ot
sen de</w>
z ig
c amp
musi c</w>
cont ext</w>
regar ding</w>
ari a</w>
b au
rich tig</w>
p ment</w>
f lä
wer k</w>
li ving</w>
men tioned</w>
we ek
Au stri
o wn
hin sichtlich</w>
Woh n
re ach</w>
s is</w>
Z entrum</w>
ac comm
al ist</w>
c ard</w>
m ein</w>
as h
K rise</w>
an te</w>
l ong
ic ally</w>
Bevölk erung</w>
i eb
en or
co ordin
ult ur</w>
am a</w>
out side</w>
Abgeordn eten</w>
kon nte</w>
an z</w>
s atis
program mes</w>
con ven
wich tigen</w>
Ta ges
us sel
ar ri
1 7</w>
Fren ch</w>
no thing</w>
am bi
D E</w>
Erfol g</w>
er lau
at tet</w>
f al
sch utz</w>
Tur key</w>
ger ne</w>
St re
decis ions</w>
ber g</w>
w under
en ge</w>
ch ed</w>
Aus druck</w>
h u
comm er
end ly</w>
li gh
g res
mehr ere</w>
ul ate</w>
k ol
o se</w>
wei ß</w>
F ot
Reg el
acc ept
v öl
P at
w ahl</w>
Bes timm
Pro to
f ran
er inn
ri eben</w>
su per
b ly</w>
fin al</w>
co ver</w>
Auf gabe</w>
qu ick
inst ead</w>
gab </w>
Sta ats
en lar
fam ous</w>
acro ss</w>
app ly</w>
kl eine</w>
r un
In st
P e
blei bt</w>
Por tu
K op
comm ittee</w>
demon str
Ph one</w>
lo k
igr ation</w>
ti er
imp act</w>
bo ard</w>
ander er</w>
T er
d ents</w>
ich ten</w>
tiv ely</w>
unser es</w>
m einen</w>
feat ures</w>
bark eit</w>
Plat z</w>
custom er</w>
ell ing</w>
hei ßt</w>
fi ve</w>
conf lic
su ch
verstän dlich</w>
agre ements</w>
se k
writ ing</w>
v a</w>
milit ary</w>
M ob
program m</w>
kon z
som it</w>
conn ection</w>
Türk ei</w>
B lick</w>
Z wei
to ok</w>
L ond
H ol
D ev
re fl
Ver pflich
vol le</w>
ati v</w>
be kommen</w>
kno wledge</w>
pop ulation</w>
establ ished</w>
pro gram</w>
fortun ately</w>
tradi tional</w>
res t</w>
G leich
medi a</w>
G eld</w>
m eines</w>
is ierung</w>
neu </w>
äh ri
vi r
A s
über zeu
it es</w>
sta ge</w>
Ver ordnung</w>
wirtschaf tliche</w>
län der</w>
St abil
Minis ter</w>
c ru
com par
B us
we ek</w>
an no
Kon trolle</w>
gra ph
z. B.</w>
Förder ung</w>
s ag
per formance</w>
reas ons</w>
Par k</w>
R O
vi er
C ol
e y
um e</w>
fil es</w>
erk enn
Ver bindung</w>
ing -
dig ung</w>
m als</w>
et z</w>
Americ a</w>
Ein satz</w>
prü fen</w>
h äu
erg ie</w>
Govern ment</w>
richt ungen</w>
S an</w>
is ti
be züglich</w>
lan gen</w>
W is
enth alten</w>
Partn er
vi de
par ty</w>
Sch wi
ad a</w>
j obs</w>
dent schaft</w>
si eht</w>
K ön
gef ähr
res tri
s sel
complet ely</w>
, 000</w>
n ight</w>
ne w
re main</w>
k lu
h or
alis ation</w>
buil t</w>
partn er</w>
Forsch ung</w>
best eh
ver bin
mom ent</w>
gar anti
t a</w>
s mo
tre ffen</w>
cent er</w>
si an</w>
ma g
g lichen</w>
b an</w>
gehör en</w>
sei te</w>
ent ri
Prei s</w>
d le</w>
L A
recomm end
U kra
ho urs</w>
bed ingungen</w>
rech ts
r und</w>
et c</w>
rich ten</w>
am s</w>
M al</w>
Entschließ ung</w>
origin al</w>
B an
Ur lau
T ri
M as
Co urt</w>
j ähri
every one</w>
v in
vel s</w>
prac tice</w>
Projek t</w>
ver hin
partn ers</w>
Erweiter ung</w>
C hi
z ös
ec ting</w>
objec tives</w>
profession al</w>
l ag
comm unity</w>
e ed</w>
A gen
Beh örden</w>
val ues</w>
th ern</w>
con stitu
h of</w>
des p
me an
basi c</w>
F ern
m es
gan genen</w>
amend ment</w>
ber ech
proc ess
G eh
ten den</w>
re ad</w>
Terr or
t in
E R</w>
Jahr es</w>
eff ek
R el
le y</w>
d or
F eb
em is
t op
Fri ed
sor gen</w>
w at
nach hal
er -
der ung</w>
m m
be ach</w>
ei gn
s -
Bei trag</w>
bec om
benef it</w>
ch eck</w>
inv es
ar d
Jap an</w>
p e</w>
St at
ob en</w>
dem and</w>
cap ac
al lows</w>
sen se</w>
break fast</w>
ak zep
o t</w>
s em
agri cultural</w>
i um</w>
Aussch uss</w>
la den</w>
stan ces</w>
in ed</w>
develop </w>
mo del</w>
pl ann
sch le
el ten</w>
ti n</w>
r ich</w>
con fi
O ber
ec tive</w>
conc ern</w>
K oh
con fir
syst em
tei lt</w>
v o</w>
Mark t
Nutz ung</w>
ent ed</w>
li ert</w>
e ase</w>
integr ation</w>
verwen den</w>
con grat
rei ben</w>
Lis bon</w>
Ho st
Wettbewer bs
tradi tion
par k</w>
Lis sab
rec ently</w>
auf zu
poten tial</w>
zei t
applic ations</w>
pro f
objec tive</w>
e es</w>
al -
a im</w>
rän k
s ou
inf lu
enth ält</w>
h es
re ports</w>
pack age</w>
ann te</w>
h om
m et</w>
un abhängi
wichtig sten</w>
stru ktur
f ight</w>
Partn er</w>
bish er</w>
de p
construc tion</w>
w .
L ast</w>
s ett
lu x
H am
com fortable</w>
Feb ru
ast ro
high -
choo se</w>
d aten</w>
govern ments</w>
inclu des</w>
schwi eri
f s
P an
Ge wal
promis e</w>
spä ter</w>
l it
äh n
it able</w>
er y</w>
pur ch
un a</w>
recei ved</w>
wor l
eigen e</w>
zur ück</w>
enti re</w>
r ing
ter in</w>
19 </w>
Aussch usses</w>
consum ers</w>
fül len</w>
arbei tung</w>
er möglichen</w>
quick ly</w>
el en</w>
wis e</w>
Stru ktur
foc us</w>
ent ation</w>
B ar</w>
gesam t</w>
bet ei
st ep
is ing</w>
. ..</w>
success ful</w>
M ot
ph y
perf ect</w>
k ür
i er</w>
stell ungen</w>
Verbesser ung</w>
int eg
ter ran
V al
h ous
be ein
f est</w>
O R
genie ßen</w>
en ding</w>
treat ment</w>
r aum</w>
en er</w>
W al
Ges am
wo bei</w>
arch it
il s</w>
er heb
P u
sk i</w>
Sch wei
p le</w>
z en
Ge or
Ver anst
achiev ed</w>
Verbrau cher</w>
ro ffen</w>
Not wen
se as
L eg
schließ end</w>
Ir an</w>
z lich</w>
wi d
G al
gan ze</w>
K am
eur o</w>
P re
g oods</w>
ra ce</w>
accomm od
m y
ww w.
ter rit
tor en</w>
Bu d
ex pen
ins gesamt</w>
a x</w>
tro tz</w>
zah len</w>
Auf enth
a da
gan zen</w>
N o</w>
p rise</w>
gen e</w>
desp ite</w>
Lond on</w>
as sen</w>
gen annten</w>
sour c
co de</w>
Par is</w>
holi day</w>
increas ed</w>
simp le</w>
d on
sci enti
eu er</w>
man n</w>
T he
O c
E N</w>
equi pped</w>
Arbei tn
contain s</w>
gen au
di alogue</w>
c y
Ergeb nisse</w>
Bar cel
7 0</w>
völ lig</w>
ir es</w>
so ft</w>
k ei
bo ur
st op</w>
Kon f
E- Ma
prev ent</w>
ver pflich
Au g
är en</w>
w ann</w>
n s</w>
ima ge</w>
verfü g
cho ice</w>
re mo
Sch affung</w>
G ri
se ems</w>
er sch
ur en</w>
frei </w>
sub si
rei fen</w>
E ff
grund leg
el ek
ü b
3 0
ü bri
m ean</w>
Wei ter
2 1</w>
W ort</w>
ür f
ec e</w>
trans l
Gel egenheit</w>
J oh
er c
E ast</w>
verbesser n</w>
at ure</w>
di schen</w>
ci ples</w>
d ynam
I M
F ach
fi g</w>
t el</w>
g ame</w>
Russ land</w>
un n
lim ited</w>
Ein k
Bu ch
em phas
ur ed</w>
Aff airs</w>
equi pment</w>
för dern</w>
Initi ative</w>
vis ions</w>
human it
kli cken</w>
den noch</w>
fü ll
sustain able</w>
is ten
Pri or
Inform ations
ein g</w>
comm itt
F lü
Lan des</w>
K rank
v eh
ch e
sozi ale</w>
w ech
T ext</w>
L a</w>
ans wer</w>
vorsch riften</w>
re turn</w>
fün f</w>
Ver wendung</w>
Hot el
i al</w>
groß er</w>
ra di
li ance</w>
web </w>
men d
st errei
M ag
beginn ing</w>
entwick eln</w>
dis ku
g ol
T ier
Mat eri
le vels</w>
verfü gen</w>
kl ar
zahl reiche</w>
e .
agre ed</w>
B ü
t est
k tionen</w>
r au
gr enz
be vor</w>
wei s</w>
ad ded</w>
ad d</w>
ep tion</w>
ar ch</w>
Lös ungen</w>
fri endly</w>
nach dem</w>
E lem
long -
saf e</w>
un fortunately</w>
j ob</w>
Inter essen</w>
p al
zun ehmen</w>
Wo che</w>
suff ici
V is
relev ant</w>
well -
W T
G lob
innov ative</w>
nu clear</w>
we g</w>
acc ord
chall eng
tra ff
on t</w>
ti sh</w>
vi ously</w>
9 0</w>
In nov
g igkeit</w>
c r
in n</w>
Notwen digkeit</w>
Geb äu
disc uss
gu ten</w>
ir gend
gan gen</w>
s cre
l ück
b order</w>
K ern
le dig
best ehen</w>
present ed</w>
h äre</w>
best ä
ar in</w>
sch ätz
en able</w>
bal ance</w>
fl ü
Aug ust</w>
S omm
F i
carri ed</w>
commit ment</w>
2 2</w>
c le</w>
Änder ungen</w>
fi k
Angebo t</w>
sam m
Gi pf
Gesund heits
tion ing</w>
att emp
an genommen</w>
t t
Arbeitsp lätz
N atur
D ar
m einem</w>
wen den</w>
So li
L inu
ent lich</w>
prin ciples</w>
d ates</w>
Mitarbei ter</w>
si ze</w>
Zeit punkt</w>
ti ef
g ül
high ly</w>
g ei
z ation</w>
spezi f
T ä
t ent</w>
Them en</w>
ein zig
hot els</w>
F eri
gu est</w>
N ieder
integ ri
S outh</w>
und es
m ed</w>
K ultur
mat ters</w>
li ef
lo ss</w>
Untern ehmen
H el
s ex
ma ßnahmen</w>
high er</w>
k ehr
ledig lich</w>
V en
geh end</w>
L eu
Am ster
di enen</w>
pres i
n er
Reg ierungen</w>
2 7</w>
5 .
sho ws</w>
Dr itt
ein deu
u ß</w>
gef unden</w>
ter ed</w>
bu te</w>
Über ein
M än
un ion</w>
ni em
rit ten</w>
f onds</w>
kom pl
Ko so
Lu x
ach es</w>
Bil d</w>
c ateg
increas ing</w>
intern ation
G egen
tra gs</w>
sub mitted</w>
ac ks</w>
wer k
Be wer
clo sed</w>
sh own</w>
schrift lich</w>
tiv eness</w>
n or</w>
Gesund heit</w>
bes it
Gemein schafts
Uni ver
sty le</w>
li er</w>
la st
tu al</w>
n a</w>
R E
J us
B ul
bestimm te</w>
W ert</w>
ung sp
do or</w>
O k
t licher</w>
Volk s
di ent</w>
li k</w>
wh ose</w>
Techn ologi
k rä
äußer st</w>
Jun e</w>
19 6
jo int</w>
W erk
4 .
Organ isation</w>
enlar gement</w>
off ice</w>
Famili e</w>
ho st
Erfahr ung</w>
Frank reich</w>
A f
promo te</w>
b auen</w>
t ete</w>
effec ts</w>
K ultur</w>
Inform ation</w>
Per son</w>
ver stehen</w>
hal f</w>
Hand els
form er</w>
dru ck
ser ies</w>
par li
mo d
pos sibility</w>
an ge</w>
acc ep
direc tion</w>
f ru
cover ed</w>
la y</w>
verb unden</w>
tig es</w>
as ked</w>
w ed</w>
wi der
Beh and
Ukra ine</w>
R au
ver suchen</w>
M ul
opport unities</w>
pre vious</w>
re duce</w>
asp ects</w>
beh ind</w>
Ar ticle</w>
öff net</w>
spru ch</w>
pres sure</w>
kur z</w>
einf a
frei en</w>
C ro
Ein führung</w>
Ad res
sp ac
at mosp
2 3
schn it
f eld</w>
Z entr
j our
Verein bar
d liche</w>
comp lex</w>
hin zu
Lu ft
veh ic
get ra
z in
Komm unik
fol ge</w>
wün schen</w>
An fang</w>
f ä
ch em
H igh
extern al</w>
star k</w>
f lu
respon se</w>
Um welt</w>
comp et
et ary</w>
A part
sug ges
gesam te</w>
stat us</w>
ges prochen</w>
ho hen</w>
organis ation</w>
gewähr leisten</w>
cre ation</w>
re views</w>
provi ding</w>
N i
Kamp f</w>
set ting</w>
capac ity</w>
tra vel</w>
moder n
dra w</w>
D V
M ac
n ie</w>
l y
wal k</w>
Mitgli ed</w>
f ish
T age</w>
au di
materi als</w>
u en</w>
w inn
besch äf
pri ority</w>
Ser ver</w>
Des ign</w>
sour ce</w>
Me tho
sch es</w>
Rat spräsi
opp el
zeh n</w>
ein hei
fund ing</w>
adv an
wis senschaf
ser ver</w>
Verk ehrs
Aus wahl</w>
comp re
Lis te</w>
reach ed</w>
Au ff
A pp
I S</w>
di e
A gr
Te am</w>
inter ess
comp uter</w>
sion s
plac es</w>
Proz ess</w>
ab el</w>
P C</w>
rou ght</w>
ph </w>
consider ed</w>
ass ess
ck e</w>
An zahl</w>
bel ieb
stell er</w>
lat est</w>
eb </w>
I P</w>
h ung</w>
H aus
prepar ed</w>
bew us
detail s</w>
sätz e</w>
mäß ig</w>
ren e
minis ter</w>
sch ütz
bet ra
g ers</w>
b y
cro ss
Aktiv itäten</w>
Her zen</w>
br ingt</w>
plac ed</w>
ges sen</w>
erk ennen</w>
B usin
Ma i</w>
ho he</w>
tr auen</w>
s ech
2 -
K an
ar tige</w>
spe ak</w>
Soli dar
ali en</w>
rema ins</w>
writ ten</w>
num er
hervor ra
Kommiss arin</w>
Um gebung</w>
industri al</w>
f ang
ah len</w>
al ing</w>
finan z
T ro
ev ent
an gebo
s l
qu ar
verk ehr</w>
fur ther
O st
Man agement</w>
se arch</w>
prot ect</w>
ab or
port ing</w>
g el</w>
ex change</w>
rach tens</w>
Jun i</w>
E rachtens</w>
b ath
sup ported</w>
Spra che</w>
en heit</w>
n it
selbst verständlich</w>
sicher heit</w>
S T
Afri ca</w>
M är
al b
fol low</w>
Bek ämpfung</w>
tic ally</w>
An aly
bestimm ten</w>
bil lion</w>
e ed
W ahl</w>
S am
g te</w>
st ar</w>
gew öh
on nen</w>
er zeu
kri min
sen si
C om
er weiter
o il</w>
Centr al</w>
fä hi
Kre di
consu mer</w>
zwei te</w>
ci vil</w>
Fortsch ritte</w>
effici ent</w>
Con vention</w>
y l
ur g
W e
mar k</w>
produc ed</w>
R ot
Integr ation</w>
ef ul
supp ly</w>
H inter
p ages</w>
1 ,
I D
Wachst um</w>
con duc
inter net</w>
setz ungen</w>
ex hi
bili ties</w>
stän digen</w>
3 00</w>
Z ahl</w>
2 3</w>
compre hen
mo bi
easi ly</w>
sourc en</w>
pl ant</w>
er ster</w>
pl om
j ün
D inge</w>
Produk tion</w>
Organ is
Industri e</w>
ch s</w>
tig ungs
em erk
W ahr
in der
b it</w>
indepen dent</w>
P lay
zwei tens</w>
an ia</w>
Gä ste</w>
commer cial</w>
M ad
et t</w>
Kap it
i tim
c ame</w>
bel ow</w>
sub st
soli dar
b st
accept able</w>
De z
4 5</w>
Gener al</w>
ek t</w>
on y</w>
y er</w>
func tion</w>
- T
fran zös
nei gh
ass istance</w>
I tal
H and</w>
ein schließlich</w>
deci ded</w>
add res
A P</w>
cre ating</w>
ber s</w>
B emüh
c ause</w>
Bestimm ungen</w>
simil ar</w>
W asser</w>
further more</w>
ic k</w>
f ten</w>
all ein</w>
b ad</w>
th ous
rel ax
sel f-
eigent lich</w>
Erklär ung</w>
le ge</w>
sol chen</w>
ausgest attet</w>
gi ves</w>
J av
q </w>
Me er</w>
Vor aus
m em
entsprech end</w>
mo di
zi p</w>
s yn
wei t
regul ations</w>
Prei se</w>
I n</w>
si bilities</w>
fron t</w>
b ir
geb aut</w>
Y or
di ver
sp rün
st au
e over</w>
wä l
Sp ain</w>
E ing
b ür
zeu ge</w>
Amster dam</w>
bei de</w>
ru le</w>
Syst ems</w>
Gä ste
Bri tish</w>
Tran spar
Barcel ona</w>
Kon ta
US -
egen heiten</w>
lei cht</w>
lea ve</w>
t le</w>
Y </w>
i on
th y</w>
los sen
rel i
Di alog</w>
B l
syst eme</w>
w ander
sag te</w>
pro duce</w>
eh e</w>
Öff ent
pop ular</w>
wur f</w>
üh m
Mehr heit</w>
Hand el</w>
agen da</w>
U N</w>
ver gangenen</w>
mo vement</w>
charac ter
ges ell
Posi tion</w>
auf genommen</w>
del l</w>
St elle</w>
A mend
sum mer</w>
mor eover</w>
pres ents</w>
möglich keiten</w>
alis m</w>
N ational</w>
lin k</w>
m ati
größ ten</w>
Koso vo</w>
so und</w>
ex ec
einzi ge</w>
st ability</w>
la un
Auf merk
199 8</w>
Vorsch riften</w>
em er
our selves</w>
hol d</w>
wer s</w>
H a
M icro
ill s</w>
Entschei dungen</w>
leg ung</w>
Bil d
pre ci
ärk te</w>
s ent</w>
h eben</w>
S tim
pleas ed</w>
ic es</w>
Dez ember</w>
Dec ember</w>
Am eri
leg t</w>
read ing</w>
li ge</w>
o ther
accommod ation</w>
eig net</w>
N atur</w>
g ün
restri c
An forderungen</w>
Gewal t</w>
P unkte</w>
ati v
zwei ten</w>
y ed</w>
S um
m ers</w>
ad ver
F ak
die jenigen</w>
eh er</w>
prä sen
disc ussion</w>
vis it
N o
hin ter</w>
ge m</w>
fre qu
legisl ative</w>
Ital y</w>
Jahrhunder t</w>
ap poin
ac ts</w>
Energi e
b rought</w>
rel ation</w>
mobi le</w>
P rü
konz entri
re pe
f air
M useum</w>
fri ed
L es
itt ing</w>
at z</w>
pur pose</w>
Aufmerk samkeit</w>
secon dly</w>
sh op</w>
ter t</w>
ss el</w>
Wes tern</w>
partn er
S onn
proper ty</w>
C D</w>
l auf
In sel</w>
s cri
f ishing</w>
po ver
Ma y</w>
char ge</w>
com promise</w>
ari es</w>
M ich
exp lo
fi x
men te</w>
mes sage</w>
op tion</w>
zi p
fac il
Sp iel</w>
voll en</w>
öffent liche</w>
ell a</w>
H um
D et
G ed
O pf
Gef ahr</w>
rel ation
Engl ish</w>
ä st
Aut om
ac qu
distri bution</w>
Er zeu
viol ence</w>
ni ed
ber ühm
dire k
e vi
con ference</w>
el op
M y
Eig en
S c
terran ean</w>
credi t</w>
e a</w>
g as</w>
reg ards</w>
ges ellschaft</w>
pur su
activ ity</w>
spe ed</w>
let ter</w>
H y
T it
trä gen</w>
i ken</w>
flo or</w>
reser v
ev al
C H
l ing
x is</w>
docum ent</w>
stat ement</w>
Projek te</w>
Investi tionen</w>
D or
S wi
nor m
wichtig er</w>
im pres
shi ps</w>
C ap
inter pre
c a.</w>
p ati
lar gest</w>
gn is</w>
Berei che</w>
proced ures</w>
En ergie</w>
berei t
c anc
b ig
downlo ad</w>
s al
k ein
step s</w>
ur sprün
schie den</w>
Gr enzen</w>
Agr ar
m m</w>
it ation</w>
is land</w>
eful ly</w>
ed ly</w>
contri bution</w>
stär ken</w>
fil m</w>
gi ving</w>
sit z</w>
Inst all
L at
pay ment</w>
europä ischer</w>
kon trol
Frei heit</w>
fas sen</w>
P ap
be zieh
neu er</w>
g t
dec lar
it en</w>
au ber
Dev elop
comp on
Mär z</w>
o ber
pro mot
instru ments</w>
fir stly</w>
gen heit</w>
ein gesetzt</w>
ek t
Bal k
En ter
Linu x</w>
mi d
äu ß
d .</w>
ru hi
Ma sch
atmosp here</w>
Kin der
zi eht</w>
in fra
Mo d
transpar ency</w>
get an</w>
wei s
om et
riteri en</w>
3 5</w>
s äm
is tischen</w>
Par ty</w>
Beschäf tigung</w>
Wettbewer b</w>
some times</w>
benö tigen</w>
L auf
L ehr
wen ige</w>
Stad t
Stand punkt</w>
t ell</w>
it em</w>
gewöh n
allow ed</w>
Fol gen</w>
g riff</w>
pro visions</w>
docum ents</w>
bewer tungen</w>
el te</w>
F el
B re
kon nten</w>
E is
bu ff
Af gh
Land wirtschaft</w>
dam age</w>
St unden</w>
Fischer ei
c riteri
fol gt</w>
le -
ev ol
por ate</w>
An frage</w>
ar ran
C am
ger ung</w>
ha fen</w>
conc ept</w>
st elle</w>
y ond</w>
dra ft</w>
Kü che</w>
R aum</w>
B undes
ec ken</w>
kei ts
lang fris
un mittel
i ze</w>
vide o</w>
con tr
S an
. 00</w>
durch geführt</w>
speci fic
H ung
Priv at
im mer
opp ing</w>
criteri a</w>
wahr schein
Janu ary</w>
2 5
dan ke</w>
G oo
C ity</w>
in i</w>
con st
Disk ussion</w>
G ot
Repub lic</w>
Medi terranean</w>
benef its</w>
au er</w>
u le</w>
St äd
aktu ellen</w>
sec tion</w>
tain ed</w>
mor gen</w>
os op
ill ed</w>
ef fort</w>
B ot
sch wer
j ähr
phy si
Wi der
expres s</w>
star ted</w>
interest ing</w>
gr an
ko sten</w>
N et
erst ens</w>
M acht</w>
k ing
p ass</w>
größ te</w>
Str and</w>
oper ating</w>
S we
si x</w>
Unter such
- in-
Berich ts</w>
s n
integr ated</w>
Portu g
Rah men
forder ung</w>
men sch
f alt</w>
en a</w>
L E
elec tri
c lassi
R ights</w>
an -
lieg enden</w>
Präsi denten</w>
jus ti
Par k
Ver änder
oll ar</w>
vari ety</w>
N ationen</w>
Bil dung</w>
ander s</w>
form ed</w>
equ al</w>
t ask</w>
Mar ch</w>
bec ame</w>
Transpar enz</w>
di gt</w>
hu ge</w>
cl ass</w>
St o
sat z
be yond</w>
erwar ten</w>
p ul
b all</w>
Gäste bewertungen</w>
grow ing</w>
t es
stu dy</w>
iz ed</w>
hör en</w>
elec tron
r at
l eh
numer ous</w>
Kun st
kur z
E M
Univer sit
Stu di
begrü ße</w>
ye es</w>
b el</w>
Hö he</w>
pos es</w>
el e</w>
Ber u
requ ire</w>
s us
ab ge
R A
Empf eh
mu t</w>
di men
erneu t</w>
solidar ity</w>
Schwi er
is on</w>
Grün den</w>
pro duz
techn ologi
sel n</w>
or row</w>
Tel ef
p aid</w>
D om
t ou
pover ty</w>
Präsi dentschaft</w>
ler nen</w>
gel ö
S -
M us
ser ve</w>
l ös
immedi ately</w>
Auff assung</w>
challeng es</w>
for ces</w>
transp or
St .</w>
elec tions</w>
Mob il
ro und</w>
B rü
dig ital</w>
emplo yees</w>
Web </w>
ein gesch
D -
colleag ues</w>
K ün
altern ative</w>
drück lich</w>
Ok tober</w>
l am
Bed ürf
dou ble</w>
Kom promis
ver gessen</w>
t ac
wieder hol
O per
gel ten</w>
ver öffent
w -
wer t
avo id</w>
institu tion
U p
i de</w>
jün g
Sa che</w>
Oc tober</w>
fre uen</w>
lab our</w>
zun ehmen
O S</w>
Fe der
ihr es</w>
por ary</w>
inst al
off izi
F er
Feh ler</w>
Fir ma</w>
S lo
b ahn
lei </w>
un sch</w>
ti ck
Janu ar</w>
her aus
P a
re -
tom orrow</w>
it ali
Sin ne</w>
ep h
sta g</w>
Öffent lichkeit</w>
en ced</w>
nah e</w>
Kön ig
lö sen</w>
N ation
tain s</w>
buil d</w>
re view</w>
dis crimin
aus reich
ann ual</w>
el ements</w>
An ti
p ain
S il
W ahl
so fort</w>
er ungs
al te</w>
getra gen</w>
Ver tei
i -
B lo
c ast
j ahr
re in
Reg eln</w>
consequ ences</w>
stand s</w>
D el
ro ff
ell es</w>
Bemüh ungen</w>
s la
sor g
Re form</w>
instru ment</w>
Res er
t an
A ss
dri ve</w>
Ex per
ge wäh
app lied</w>
An satz</w>
fahr t</w>
de cken</w>
contro ll
E rei
Servic es</w>
il osop
pro fi
P ass
= </w>
bei tragen</w>
F es
terror ism</w>
K ommission
st ark
Poli tik
offici al</w>
sin n
Pal est
per man
un ge</w>
fas st</w>
effici ency</w>
hät ten</w>
go es</w>
Bel gi
entsprech enden</w>
ch tung</w>
Yor k</w>
appe ar
chan ged</w>
star ting</w>
li gt</w>
lear n</w>
proc esses</w>
S ou
au t
hau pt</w>
ve au</w>
Bet ei
tr aum</w>
to ol</w>
re ality</w>
füll t</w>
wer te</w>
demokrati schen</w>
pro sp
to ols</w>
Nor th</w>
ge worden</w>
analy sis</w>
ast ern</w>
ma sch
Itali an</w>
& gt
&gt ;</w>
C a
wir ken</w>
b ase</w>
conflic t</w>
b ru
vot ing</w>
re k
typ es</w>
cur ren
r aten</w>
tal k</w>
ol er
sit z
high est</w>
il legal</w>
Lin ie</w>
r .</w>
K raft</w>
d eten</w>
t esten</w>
se ek
Fäl len</w>
bet rä
pub lic
ü t
behand elt</w>
verhin dern</w>
beg ren
C lub</w>
ex tra</w>
timm ung</w>
Span ish</w>
gre at
zeich nung</w>
bed ingt</w>
199 7</w>
to -
Milli ar
ser ved</w>
ch ing</w>
p ho
Dem oc
berücksich tigt</w>
B on
congrat ulate</w>
requ ires</w>
häu fig</w>
sch ool</w>
happ y</w>
einf ach
qu are</w>
worl d
At mosp
advan tage</w>
ätz e</w>
fol genden</w>
K ör
sa ying</w>
E C</w>
Qu al
c ou
con ver
Tages ordnung</w>
erfol gt</w>
K ra
Bür gern</w>
st able</w>
sch w
implement ed</w>
vo c
Frühst ück</w>
y a</w>
P H
WT O</w>
ade qu
ne y</w>
i ed</w>
K u
prac tical</w>
histor ical</w>
do m</w>
ß er</w>
C ha
spor ts</w>
W h
sel y</w>
t ag
Dru ck</w>
cru cial</w>
dig keiten</w>
Portug al</w>
sich ern</w>
D an
ell s</w>
si eren</w>
T or
beh alten</w>
off en
ik o</w>
apart ment</w>
Mon aten</w>
Develop ment</w>
da ily</w>
On lin
monit oring</w>
Ne w
Jahr es
Musi k</w>
trag s
Chr ist
Chr isti
du kt</w>
Bürger innen</w>
ver standen</w>
ung sh
lo wer</w>
fü gen</w>
organis ations</w>
Syst em
o x
per c
establ ish</w>
ut ting</w>
Benutz er</w>
Deb ian</w>
sh ops</w>
schö nen</w>
minim um</w>
r ely</w>
Fin an
i ef
off ering</w>
ver z
Bul g
de ath</w>
li ves</w>
alis ts</w>
occ a
ck ing</w>
suffici ent</w>
N ord
alis mus</w>
res taurants</w>
int el
lo sen</w>
tro ll
C enter</w>
ali zed</w>
zu min
rich tige</w>
f res
mo bili
zu führen</w>
l esen</w>
Ju ly</w>
Forsch ungs
Flug hafen</w>
cons ult
comprehen sive</w>
wahrschein lich</w>
Sch lü
ser i
Bil der</w>
inten si
ne ver
a der</w>
V ölk
zumin dest</w>
Behand lung</w>
au lt</w>
h .</w>
C re
T at</w>
Sel bst
Zi vil
sig keit</w>
d nis</w>
Ko ordin
Pro f
ver treten</w>
un er
Nach bar
li ghts</w>
b ran
end lich</w>
B ad</w>
wel ches</w>
stän dige</w>
far mers</w>
W est</w>
L og
Änder ung</w>
ide as</w>
st a</w>
person s</w>
c raft</w>
Lissab on</w>
_ </w>
cir cum
ish es</w>
off en</w>
ig es</w>
ver sucht</w>
Ber at
w est
über haupt</w>
t al</w>
Menschen rechts
Ma ß
T ab
wei st</w>
a war
Ta gen</w>
reduc tion</w>
g yp
dist ance</w>
et ten</w>
M P
s ales</w>
2 6</w>
vi ert</w>
car ry</w>
exp ect</w>
Wis sen
ho ch</w>
&apos; ll</w>
ab ri
b ot
verantwor tlich</w>
re ference</w>
S en
Ju gend
Dat eien</w>
bo x</w>
ut ely</w>
komm ens</w>
E L
Sp ei
ei lung</w>
1 -
do w</w>
other wise</w>
lau b
v an</w>
ri gh
0 -
techn ischen</w>
V o
ter en</w>
re t</w>
m ess
N r.</w>
olog ischen</w>
maxim um</w>
Ju li</w>
trä gt</w>
get ary</w>
al ter</w>
D ef
b emüh
ver wal
sec ure</w>
th eless</w>
s ü
pro jek
N AT
f örder
k at
as tic</w>
ämpf en</w>
i o</w>
eh em
2 8</w>
play ers</w>
si l
hel p
di sa
apart ments</w>
H oh
trans fer</w>
ander em</w>
rech ts</w>
dom in
con v
stru ktur</w>
acc ession</w>
außer halb</w>
Prei s
tig ten</w>
S icht</w>
us eful</w>
is es</w>
n ehm
sor gung</w>
s th
camp a
wa ste</w>
an ische</w>
fi el
an lage</w>
institu tional</w>
Finanz ierung</w>
beg in</w>
wh er
voll ständig</w>
Ver gan
ag ra
erklär t</w>
sign ed</w>
Atmosp häre</w>
be für
Afgh an
t eten</w>
br ing
fol gen</w>
sof ern</w>
cli ents</w>
publ ished</w>
Bas is</w>
letz te</w>
Arch it
Sch utz
F R</w>
streng th
T u
Kon ferenz</w>
Gr ö
lik ely</w>
never theless</w>
erfolgrei ch</w>
or ed</w>
Beg inn</w>
um -
An streng
conven i
Ver häl
vil lage</w>
bre chen</w>
Repub lik</w>
Austri a</w>
zusätz lich</w>
ex ac
deut schen</w>
prob ably</w>
neu es</w>
w ine</w>
technologi es</w>
er füllen</w>
pl ans</w>
ei l
al it
rel ating</w>
v ali
f ts
week s</w>
chall enge</w>
moder nen</w>
pa ar</w>
angem essen
long- term</w>
Urlau b</w>
zeu g</w>
schütz en</w>
ko st
tu de</w>
O -
s ent
M id
histor ic</w>
jewei ligen</w>
bes te</w>
st ets</w>
scienti fic</w>
busin esses</w>
world wide</w>
gesch affen</w>
caus ed</w>
D ro
Vergan genheit</w>
Best ell
off ered</w>
n issen</w>
führ te</w>
19 5
over all</w>
al one</w>
decis i
S port
Zentr al
Centr e</w>
ur ch</w>
gew esen</w>
j em
Aspek te</w>
F lu
proz ess</w>
fri ends</w>
y our
y m
gen ce</w>
Produk t
gem ents</w>
pas sen
A gent
empf eh
Erfahr ungen</w>
T ag
ke y
trit ts
mark s</w>
Angel egenheit</w>
M and
jo in</w>
ex tent</w>
verpflich tet</w>
Ver trauen</w>
is tic</w>
besu chen</w>
nat ur
zahl reichen</w>
K a
an ces</w>
Min der
Wo chen</w>
n ice</w>
Res sourcen</w>
Techn ologie</w>
F und</w>
W erte</w>
Dat ei</w>
P D
interest ed</w>
ti ken</w>
In halt</w>
innov ation</w>
Me er
po or</w>
Li efer
ar gum
m ier
zu setzen</w>
sec tors</w>
g ten</w>
ab schließend</w>
zei ten</w>
any thing</w>
lea ders</w>
bed au
cla im
sech s</w>
men tion</w>
brau cht</w>
accord ance</w>
M ün
sc ap
tn isse</w>
grei fen</w>
lo sigkeit</w>
histor ischen</w>
leg itim
wan ted</w>
gen utzt</w>
Al t
k in
ver ab
de gre
Berichterstat terin</w>
ne ws</w>
air port</w>
Presi dent
o de</w>
n ess
3 -
hand eln</w>
l ate</w>
Uni versity</w>
sc ale</w>
op tions</w>
Rechts vorschriften</w>
power s</w>
z .</w>
Direc tive</w>
en se</w>
visit ors</w>
V illa</w>
strateg ic</w>
ges p
kol l</w>
tiv al</w>
Heraus forderungen</w>
Aufenth alt</w>
us sions</w>
c ut</w>
co hes
cer ti
di sche</w>
metho ds</w>
Res taurants</w>
leist et</w>
fl uss</w>
J e
ausge zeichn
eb y</w>
k n
ish ment</w>
Itali en</w>
w onder
anno unc
besser e</w>
gen s</w>
Busin ess</w>
Sch ritte</w>
sek tor</w>
s ession</w>
li gung</w>
jus tice</w>
erwar tet</w>
Funk tion</w>
r at</w>
genu g</w>
t au
S af
all s</w>
c andi
D oppel
erinn ern</w>
ach tet</w>
zu künf
nied ri
tur ned</w>
ra ised</w>
B lu
rei se</w>
199 6</w>
C -
W ell
Woh l
es ter</w>
flä che</w>
mach ine</w>
S wis
metho d</w>
conc entr
Be weg
Adres se</w>
H ins
heu tigen</w>
at or
ament ary</w>
erst ör
Ges prä
betre ff
l ess
tran si
rän kt</w>
b and</w>
k ennen</w>
pop ul
gesch ütz
fin e</w>
Arbeitn ehmer</w>
um en</w>
Schwier igkeiten</w>
val u
ph one</w>
k am
du le</w>
st ro
chil d</w>
Person al</w>
n ä
appe ar</w>
ge wiesen</w>
ag ieren</w>
ban ks</w>
persön lichen</w>
Gesam t
process ing</w>
tra in</w>
P au
mo tion</w>
play er</w>
ch ance</w>
es ter
Partei en</w>
sp rü
aus schließlich</w>
impl ement</w>
Hins icht</w>
erlau bt</w>
Ber g
- -</w>
priv aten</w>
amerikan ischen</w>
ch s
2 4
elek tron
di plom
go t</w>
fiel ds</w>
R O</w>
king .com</w>
en des</w>
entschei den</w>
her en</w>
rel and</w>
Span ien</w>
w ser</w>
dou bt</w>
ber t</w>
c s</w>
Frank fur
D er</w>
wei ten</w>
reg ime</w>
res tor
ru ption</w>
moder ne</w>
automati sch</w>
adver ti
h op
influ ence</w>
a ver
accep ted</w>
vorgesch la
Kun den
sc ope</w>
s eines</w>
zeich nen</w>
bil den</w>
I reland</w>
Reg ierungs
Angel egenheiten</w>
inc or
Pra xis</w>
ex erc
C u
archit ec
Dr .</w>
oper ate</w>
reas on
dem ands</w>
en ze</w>
W est
absol utely</w>
bar er</w>
langu ages</w>
b is
beg innen</w>
hal ten
Chin ese</w>
ter e</w>
A -
Au di
bit ten</w>
In fra
K al
a ys</w>
zusätz liche</w>
Sch wer
über nehmen</w>
mon th</w>
lo st</w>
en gen</w>
re duz
6 .
aff ected</w>
eth n
S P
kl ein
em ail</w>
Vertre ter</w>
Arbeitsplätz e</w>
W ein
begrü ßen</w>
k it
Or d
wor ked</w>
I -
w .</w>
Sta at</w>
rel eas
bor ders</w>
erkenn ung</w>
k am</w>
ev ision</w>
sta aten</w>
Solidar ität</w>
aff t</w>
pe ac
n ern</w>
us ually</w>
nam ely</w>
inves tig
C al
adop t</w>
Reg is
ra h
he ad</w>
flexi ble</w>
tar get</w>
ci ties</w>
President -in-
sch wer</w>
con om
C op
Micro soft</w>
P ot
k i</w>
neg ative</w>
or ie</w>
Instru ment</w>
ima ges</w>
geh ö
E S</w>
k aum</w>
Opf er</w>
Fol ge</w>
A T</w>
eg el
ak tivi
initi atives</w>
S onder
President-in- Office</w>
Spiel er</w>
represent atives</w>
il leg
sel ben</w>
ver mei
alis ed</w>
ge kommen</w>
bewus st</w>
I F
f ish</w>
ap preci
Grupp en</w>
C amp
tr ying</w>
em o
moun tain</w>
op ening</w>
Gebäu de</w>
Auf gaben</w>
Eig ent
Ein richtung</w>
möglich erweise</w>
Con ference</w>
E conom
separ ate</w>
B or
del eg
nach ten</w>
j </w>
k rise</w>
E v
G et
ur ance</w>
kon om
si ehe</w>
re forms</w>
si vely</w>
n ö
P P
bi tion</w>
co -
Boo king.com</w>
occ up
allgem einen</w>
pris es</w>
inten ded</w>
Con stitu
An nahme</w>
l auf</w>
us h
conf ig
W unsch</w>
zu l
rel ease</w>
größ ere</w>
So ci
gre en</w>
Ihr es</w>
aktu elle</w>
Fri eden</w>
Kri eg</w>
di enst
ab kommen</w>
frei e</w>
m and
Afghan istan</w>
es ischen</w>
inter es
n ationale</w>
struc tural</w>
r ats</w>
Organis ationen</w>
stoff e</w>
vorgesch lagen</w>
cohes ion</w>
Ö sterrei
lin ien</w>
expres sed</w>
T her
um fang
call s</w>
un employment</w>
committ ed</w>
O N
R a
m bo
milit är
fern er</w>
impro ved</w>
j ahr</w>
Verf assung</w>
Ar mut</w>
sel ection</w>
Milliar den</w>
m in</w>
eindeu tig</w>
k il
lei ten</w>
par king</w>
Sit zung</w>
en ha
P en
v ital</w>
um s
prü ft</w>
res i
dar stellt</w>
er fahren</w>
Er n
gel ei
N icht
sch ung</w>
H ä
roff enen</w>
sch o
R ec
Syst eme</w>
zi g</w>
w r
re ck
cle an</w>
dan ach</w>
th ought</w>
administr ation</w>
cri tical</w>
steh enden</w>
for ced</w>
2 9</w>
increas ingly</w>
Verpflich tungen</w>
tem per
tal king</w>
-L CB-</w>
p il
G ei
contrac t</w>
D im
pro per</w>
Anstreng ungen</w>
sti eg</w>
min ute</w>
A K
su itable</w>
M ess
he al
glau ben</w>
main tain</w>
appro ved</w>
stärk er</w>
found ed</w>
main ly</w>
I ch</w>
ail s</w>
gebi et</w>
u n</w>
gen der</w>
st ress</w>
ri ffen</w>
äst in
Mittel me
ex </w>
us w.</w>
gel eist
S at
hear d</w>
anti -
ben utzt</w>
Über wach
ma p</w>
L ab
relation ship</w>
alis iert</w>
den s</w>
ep ing</w>
stu di
confi dence</w>
Kün st
Re ak
sig n</w>
itali en
alis ten</w>
cri pt</w>
d ete</w>
Proto koll</w>
al tet</w>
install ation</w>
buff et</w>
Sch n
grupp e</w>
- F
la ws</w>
comm ents</w>
dest ens</w>
get ting</w>
un bedingt</w>
ilosop h
K riterien</w>
ho ben</w>
f ying</w>
ig ran
ig t</w>
ist ent</w>
administr ative</w>
curren cy</w>
M om
Kar te</w>
e- mail</w>
l ad
™ </w>
führ ten</w>
aus ger
bor n</w>
min destens</w>
m ming</w>
run ning</w>
j eg
7 5</w>
ori enti
R ats
F alle</w>
G N
P ati
he av
emis sions</w>
competi tive</w>
fig ur
coun t</w>
ru s</w>
ch in
ei l</w>
Amend ment</w>
Zus timmung</w>
vic tim
au p
Ob jek
entsp richt</w>
ad vis
R en
vir tu
Sü d
überzeu gt</w>
nach fol
S ign
Proz ent</w>
Sec urity</w>
V ir
P l
verein bar
plann ing</w>
pri orities</w>
W ahlen</w>
gestell ten</w>
l aufen</w>
V oll
reduc ed</w>
mor ning</w>
ck er</w>
s itting</w>
Dis tri
Entschließ ungsan
conclu sion</w>
entsprech ende</w>
ti ous</w>
eu ern</w>
vor gelegt</w>
sti gen</w>
so bald</w>
er leben</w>
ne ar
b ung</w>
ben utzen</w>
sa chen</w>
un den
Ira q</w>
schön e</w>
s agt</w>
tro tz
deci de</w>
c tion</w>
rei cht</w>
3 1</w>
ung st
b lu
sel ect</w>
ati schen</w>
si m
prac tic
auf s
mit ten</w>
zwei fel
N a
Vereinbar ung</w>
st abil
deli very</w>
m ember
circum stances</w>
U K</w>
ho ffen</w>
3 2</w>
industri e</w>
C z
c .</w>
v ements</w>
Palest in
cri tic
automati cally</w>
Kredi t
ali ties</w>
del ines</w>
U R
p ts
R ed
ens uring</w>
Leu te</w>
specific ally</w>
infra structure</w>
T sch
Veranst al
Funk tionen</w>
H ause</w>
ali zation</w>
Goo gle</w>
qui et</w>
S Q
D I
P S</w>
traff ic</w>
ori en</w>
wesent lich</w>
olog ische</w>
Terror ismus</w>
glei che</w>
M c
ch ann
sp ann
pres er
ge zeigt</w>
subst anti
go al</w>
au ßer</w>
kar te</w>
agri culture</w>
C li
i ties</w>
fäl le</w>
correc t</w>
erwäh nt</w>
Verwal tung</w>
finan cing</w>
l ern</w>
sy ch
deck t</w>
struc tures</w>
bil ater
g ames</w>
ens icht
k ü
eng ine
gel egen</w>
ver tre
Binnen markt</w>
drin gend</w>
glob alen</w>
bi a</w>
hoch wer
Partei </w>
bo t</w>
famili es</w>
nor mal</w>
sicher lich</w>
k ers</w>
f le
ä te</w>
Ide e</w>
a i</w>
An erkennung</w>
Al p
Gipf el</w>
-R CB-</w>
P la
D en
victim s</w>
u ten</w>
# </w>
cri me</w>
Rus sian</w>
ge grün
B ade
ver lässi
speak ing</w>
men u</w>
contri bute</w>
der t</w>
i p
Aussch uß</w>
sup ports</w>
et ings</w>
Stell ung
st ab
Produk tions
Haush alt</w>
2 .</w>
unterschied lichen</w>
si zed</w>
sp richt</w>
get roffen</w>
i or</w>
ra il
O S
der zei
i ö
t abled</w>
Best and
exten sive</w>
b es</w>
Agen da</w>
be qu
O N</w>
your self</w>
sh opping</w>
mp tion</w>
bil ität</w>
effec tively</w>
er lei</w>
ul tim
sich ten</w>
berücksich tigen</w>
St ar</w>
off ensicht
Z er
exp ected</w>
sour ces</w>
be ziehen</w>
ar a</w>
t em</w>
M ex
trotz dem</w>
detail ed</w>
vor her
Regi on
prec is
encour age</w>
N ations</w>
tain ing</w>
E lek
bour g</w>
lich ung</w>
stim me</w>
N ich
kon stru
particip ation</w>
et er
h und
Kl ein
geb il
us h</w>
cross -
Stabil ität</w>
zul etzt</w>
electron ic</w>
Er d
ie f</w>
pho to</w>
sa ys</w>
hin weisen</w>
wh at
O sten</w>
per spec
phot ograph
entwick lung</w>
Re formen</w>
pri m
u tive</w>
introduc ed</w>
gen annt</w>
Sof t
P L</w>
schrei ben</w>
ha ft</w>
M S</w>
Su per
pl us</w>
gerech t</w>
Comp uter</w>
deli ver
erk annt</w>
im in
B ahn
Produk ten</w>
b ul
ander erseits</w>
Qual itäts
stän de</w>
stän den</w>
com fort</w>
ri </w>
ass ungs
20 20</w>
Technologi en</w>
stu dents</w>
es tic</w>
under standing</w>
M el
end ed</w>
In halte</w>
Vor teile</w>
Do wnlo
ex ist</w>
precis ely</w>
schnit t</w>
A gre
as si
defin ed</w>
° </w>
verfüg bar</w>
Char ak
prot ected</w>
a str
techn ische</w>
eg u
di ar
Mitt eilung</w>
c in
ain ed</w>
Vol k</w>
fiz ierung</w>
reib ung</w>
gew o
ge -
f ast
icht sh
Air port</w>
ch ern</w>
su s</w>
ent weder</w>
mehr eren</w>
transpar ent</w>
S eh
ger ungen</w>
s an
akzep tieren</w>
ris ks</w>
7 -
pas sen</w>
so -
Fu ß
gar den</w>
� </w>
re member</w>
Durch führung</w>
feat ure</w>
r uss
dat ab
Im mobili
o .</w>
H off
power ful</w>
wh om</w>
partner ship</w>
di vi
bu ch</w>
N ahr
B emerk
disc ussions</w>
Tran s
ä den</w>
gener ation</w>
disc uss</w>
erzi elt</w>
Schl ussel
ch ec
ti l
bestimm t</w>
sicher zustellen</w>
O ly
aim ed</w>
lar ger</w>
u g
func tions</w>
k o</w>
an geb
develop ments</w>
thous ands</w>
Kri eg
E T
komm enden</w>
k al
da gegen</w>
st -
re vol
ar ischen</w>
rech t
hil fen</w>
an nen</w>
Pro dukt</w>
anim als</w>
b a</w>
Enter prise</w>
but ed</w>
ar tigen</w>
ther ap
te ach
le av
o di
rech ten</w>
f is
discuss ed</w>
besteh enden</w>
G ast
D ol
bud getary</w>
ali gen</w>
af ter
sch ar
ak tiv</w>
ün f
ut y</w>
E-Ma il</w>
5- 0
ati sti
gew is
assess ment</w>
n ütz
ge ändert</w>
Ven e
S up
pp ing</w>
w ood</w>
d ated</w>
Indi a</w>
B S
man ner</w>
besonder en</w>
refer red</w>
dar unter</w>
ch ter</w>
Inv est
gelö st</w>
ger ing
beg an</w>
M ach
Ab sch
r ural</w>
Wettbewerbs fähigkeit</w>
avi g
meas ure</w>
gegenwär tig</w>
man aged</w>
Besu ch</w>
exc ep
exac tly</w>
h our</w>
al og
and a</w>
st ers</w>
Lux em
K ateg
reg ular</w>
j ene</w>
fel low</w>
Stra ße</w>
st ated</w>
he ad
f el</w>
Co de</w>
c lu
ear lier</w>
läu ft</w>
lin ked</w>
posi tions</w>
ci a</w>
7 .
gan gs
j ur
T y
Europ e
inn er</w>
is tische</w>
g liche</w>
Oly mp
Swis s</w>
K no
ru fen</w>
entr y</w>
coll ection</w>
ar k</w>
Onlin e-
C D
n ungen</w>
enter prises</w>
as ks</w>
becom ing</w>
um gesetzt</w>
ati vely</w>
ev ening</w>
conv inc
4 00</w>
har d
sch lä
H altung</w>
a des</w>
Bar ro
lie be</w>
D ub
poli ce</w>
wr ong</w>
n ehmer</w>
er land</w>
introduc tion</w>
re presents</w>
bet rach
li mit</w>
ic a</w>
p u
es tim
S on
Ch ance</w>
wei te</w>
St ation</w>
B ank
adequ ate</w>
stat tung</w>
E mis
ar m
it z
be darf</w>
unk ten</w>
Sek tor</w>
Medi en</w>
geb enen</w>
Anwen dungen</w>
dig it
stre et</w>
erg än
el se</w>
spezi ell</w>
ch mal</w>
wh ite</w>
tra v
ch ter
Bel ar
op ened</w>
finanzi ellen</w>
Nation al
I denti
s eiten</w>
sp r
lo y
pur poses</w>
Gel d
notwen digen</w>
war ten</w>
R efer
Ch anc
199 5</w>
ma ß
Währ ungs
A sia</w>
erg reifen</w>
Au gen</w>
we ap
G est
fest gelegt</w>
re fu
Verbrau cher
vermei den</w>
er füllt</w>
zei chen</w>
imm ern</w>
D ollar</w>
form at</w>
f ei
ob viously</w>
respon d</w>
sh e
Gr and</w>
satis fac
l ass</w>
wer ke</w>
w ants</w>
gener ally</w>
&apos; re</w>
gen cy</w>
6 -
än den</w>
sel ected</w>
vo ice</w>
cel eb
clo sely</w>
Gri ech
discrimin ation</w>
c an
mo del
V ic
ri d</w>
in ci
Somm er</w>
impro ving</w>
scre en</w>
spiel e</w>
Ver b
geleg ten</w>
säm tliche</w>
ter min
H T
il fe</w>
Z </w>
inform ieren</w>
streng then</w>
consider able</w>
in come</w>
an ci
en ster</w>
ichtlin ien</w>
Co sta</w>
du m</w>
imm igration</w>
wor th</w>
medi cal</w>
tr ust</w>
sup porting</w>
F ac
ö st
tour ist</w>
Ein richtungen</w>
disp lay</w>
gui delines</w>
Zei chen</w>
S ite</w>
je derzeit</w>
par agra
Feri en
0 1</w>
grupp en</w>
wel cher</w>
wor ten</w>
Pro c
sa ve</w>
füh l</w>
unabhängi g</w>
verfol gen</w>
über nachten</w>
P lan</w>
Gar anti
N ah
rü cken</w>
P S
swi mming</w>
ehr te</w>
Frankfur t</w>
e en</w>
ens wür
kra ft
tra ck</w>
nachfol gend</w>
fur n
Fl or
Stand ards</w>
berei tet</w>
NAT O</w>
teil weise</w>
lo ve</w>
pro por
qu anti
z entrum</w>
St ro
Mon ate</w>
ge ber</w>
b ab
v ac
y es</w>
Aus bildung</w>
de ep
le bt</w>
Konta kt</w>
bro ad
fo ot
I L
rec ord</w>
any one</w>
M ol
ver lei
eu ch</w>
Su che</w>
S im
war m</w>
re present</w>
Al tern
An spruch</w>
dr am
wal king</w>
ander es</w>
Lei t
exper ts</w>
W a
cont in
T em
de bt</w>
br it
g as
Ver trags</w>
en det</w>
play ed</w>
ver si
Ein fluss</w>
qu es</w>
ge eignet</w>
tig keiten</w>
st ein</w>
ob ach
cam era</w>
comp ens
ges und
st es</w>
gra du
voll er</w>
politi scher</w>
Geor gi
program s</w>
in side</w>
D ig
oper ations</w>
p r
sp end</w>
haf ten</w>
ange zeigt</w>
ain s</w>
Vor berei
gen e
Swi tz
L am
1 50</w>
mark eting</w>
vis i
erzi elen</w>
tr ation</w>
ad ju
stau sch</w>
acc es
Tur k
so- called</w>
ac ci
happ en</w>
un less</w>
Geg ens
S ant
follow ed</w>
S yn
ten de</w>
u de</w>
über schrei
competi tiveness</w>
erhö hen</w>
en land</w>
kl are</w>
tra dition</w>
rei sen</w>
Agre ement</w>
jewei ls</w>
wär en</w>
ver ring
Klima wand
Kun st</w>
net works</w>
Viel falt</w>
verbesser t</w>
Kin dern</w>
einger ichtet</w>
L ie
ent schieden</w>
Konz ept</w>
f oo
Mid dle</w>
K ris
b a
sch lagen</w>
de dic
Betrieb s
gew ün
ungs -</w>
coordin ation</w>
tä glich</w>
be zo
ci ans</w>
fac ing</w>
brit ann
Gre ece</w>
un e</w>
uli eren</w>
land scap
pro vision</w>
k ap
19 4
sc en
n on
bro ad</w>
ec t
ter race</w>
H or
fa vo
lig ten</w>
funktion iert</w>
de fic
p aper</w>
Instru mente</w>
z ept
jec ted</w>
pri or</w>
des wegen</w>
tour ism</w>
is tics</w>
fo li
degre e</w>
lux ur
connec ted</w>
T ermin
ä ten</w>
h aus</w>
gel angen</w>
As soci
Famili en
exclu sive</w>
b ü
Kenn tnis</w>
s anc
spe ech</w>
f ant
lau t</w>
fäl lt</w>
staat lichen</w>
­ </w>
t our</w>
u si
en g</w>
Sit z
verb rei
w and</w>
hon our
Berich te</w>
N G
Schl af
presi dency</w>
2 6
Komp on
tel eph
eu erung</w>
and ing</w>
Pro t
el ement</w>
t y
Tä tigkeit</w>
vor gesehen</w>
der ungen</w>
z z
compon ents</w>
en falls</w>
thin king</w>
Verwal tungs
eg et
Ak tion
aus drücklich</w>
spi elt</w>
frei heit</w>
Spra chen</w>
Christi an</w>
n is
re fer</w>
pa th</w>
er stellt</w>
0 s</w>
f and</w>
Lebens mittel
2 ,
bet onen</w>
2 8
Br ussel
acc ur
For derung</w>
ch ron
B ran
Bo ard</w>
auf merk
ru p
E l</w>
t led</w>
cli ent</w>
an spru
profi tieren</w>
co s
Pub lic</w>
parli amentary</w>
Famili en</w>
Initi ativen</w>
fish eries</w>
schaf tlichen</w>
Veränder ungen</w>
win ter</w>
K rä
V il
Switz erland</w>
D eleg
p hr
bek ann
rich tet</w>
Verein ten</w>
Soft war
P len
g st</w>
ap par
b on
Men ge</w>
Web seite</w>
o te</w>
Ab schluss</w>
de aling</w>
sum mit</w>
zentr ale</w>
Stim me</w>
lu ß</w>
em in
F lexi
proper ly</w>
ori z
Schwei z</w>
su m</w>
Abgeordn ete</w>
exis ten
purch ase</w>
We ge</w>
tiv ity</w>
gan g
kon ferenz</w>
Groß britann
rich tigen</w>
Rom a</w>
bo dies</w>
ge eign
lich em</w>
Po licy</w>
m ischen</w>
Brussel s</w>
Gr enz
ten d</w>
ju d
sti ge</w>
ger t</w>
play ing</w>
Ro oms</w>
oh n
dra wn</w>
L ag
man chmal</w>
Fre m
end or
we ak
er stellen</w>
E AD
ho od</w>
Li z
it ate</w>
Mitgliedsta at</w>
K il
C A
att le</w>
enti rely</w>
St and</w>
0 er</w>
lat er
consider ation</w>
ö konom
spir it</w>
besch lossen</w>
M ut
buil dings</w>
pres ence</w>
difficul ties</w>
möglich st</w>
bath room</w>
ag no
M eter</w>
M er
Innov ation</w>
E L</w>
Leist ungen</w>
st atis
auth ority</w>
Au str
dest ro
j et
part ment</w>
poli tics</w>
cons ul
ati k</w>
ge fordert</w>
h anden</w>
flexi bility</w>
öff nen</w>
aver age</w>
ho sp
w in</w>
be achten</w>
konkre te</w>
Ira k</w>
Eng agement</w>
Tran spor
nei ther</w>
ge halten</w>
mechan is
Sch w
er leich
Mo dell</w>
Cz ech</w>
leist ung</w>
Po st
sp rech
anim al</w>
mög liche</w>
zäh len</w>
pl ants</w>
pl ätze</w>
em erg
sti t
Aus gaben</w>
par all
Beschäf tigungs
Pol and</w>
ordin ary</w>
typ ical</w>
enn a</w>
iz ation</w>
sth af
S ach
app lies</w>
Febru ar</w>
Febru ary</w>
ti se</w>
at ti
dar aus</w>
H u
eleg ant</w>
coun ter
Se a</w>
Ver gleich</w>
woll te</w>
finanzi elle</w>
zu gleich</w>
f our
et c.</w>
sich t
ver trau
P T</w>
rei s</w>
Install ation</w>
durch aus</w>
inform ed</w>
ut t
las h</w>
enor m
Dien ste</w>
fix ed</w>
enha gen</w>
ästin ens
fre ue</w>
bu y</w>
ro man
gen ü
K ing
dom estic</w>
P C
cre te</w>
Stand ard</w>
s and
r al</w>
actu al</w>
Z y
20 11</w>
Heraus forderung</w>
fail ure</w>
own ed</w>
betrach tet</w>
gehö ri
gew innen</w>
perman ent</w>
spi eg
tig te</w>
E G
ör de</w>
ar ten</w>
Tei le</w>
se em</w>
fres h</w>
grund sätz
Kra ft
Z eiten</w>
fl ation</w>
eng l
Rats vor
gi gen</w>
he ar</w>
O L
differ ence</w>
At lan
Ein wander
Ver stän
Währ ung</w>
E mp
est ed</w>
Gre en</w>
etz ung</w>
Musi k
met res</w>
Arbei ten</w>
A sy
lok alen</w>
konzentri eren</w>
lei tung</w>
An gaben</w>
it ems</w>
ec </w>
vor handen</w>
vehic les</w>
Zei traum</w>
komp lex
ab ilities</w>
do wn
gewähr leistet</w>
Sal z
über prüfen</w>
Mul ti
benö tigt</w>
Bei tritt</w>
Gesch ä
purch as
M echan
adv anced</w>
me etings</w>
s ul
Mi o.</w>
DV D</w>
näch ste</w>
y ester
de -
&#124 ;
car ds</w>
reduc ing</w>
sto ck</w>
Ver bin
comb at</w>
prü fung</w>
dan ger
cor e</w>
for d</w>
Gebi eten</w>
Haus es</w>
appe ars</w>
Kat astro
Mit te</w>
promot ing</w>
w on
Dim en
L e</w>
u fen</w>
adv ant
un ten</w>
S ing
Gar ten</w>
veröffent licht</w>
unterschied liche</w>
p ap
wen igen</w>
ha fte</w>
dar stellen</w>
er b
9 .
comp ati
tra k
St ärk
w ent</w>
br auch</w>
be auf
bel iev
erfol gen</w>
star ke</w>
v ul
ma ßen</w>
An trag</w>
D P</w>
experi enced</w>
bes i
Program ms</w>
appro xim
erklär en</w>
re d
ge ograph
Ein igung</w>
Fil m</w>
P s</w>
mon etary</w>
Besu cher</w>
w om
zah lt</w>
Flü cht
angebo ten</w>
ju di
di sh</w>
Dru ck
W ol
f la
mo bil
g lie
zep tion</w>
tä tig</w>
aim s</w>
get re
practic es</w>
So cial</w>
ent stehen</w>
auth or
A chtung</w>
seri ously</w>
Parlam ent
ima g
asp ect</w>
Bei tritts
implement ing</w>
Konf lik
gegen sei
führ er</w>
num bers</w>
M un
mach ines</w>
persön lich</w>
m icro
pleas ant</w>
er scheint</w>
dis cover</w>
auf t</w>
ed s</w>
rene w
ein gehen</w>
samm lung</w>
kultur ellen</w>
thre at</w>
h inter
humanit arian</w>
n ation</w>
spra ch
führ enden</w>
For um</w>
Regel ung</w>
offensicht lich</w>
gegrün det</w>
yp e</w>
y s
S .</w>
T im
simp li
Stellung nahme</w>
differ ences</w>
T au
Re de</w>
For derungen</w>
Ph ot
Stat us</w>
l eng
fü gt</w>
so weit</w>
sa w</w>
viel fäl
teleph one</w>
verur s
Zwei fel</w>
ti ver</w>
for get</w>
Ein haltung</w>
dor f</w>
easi er</w>
becom es</w>
ic o</w>
k aufen</w>
wonder ful</w>
leist ungen</w>
s un
sup pl
Belar us</w>
Zw eck</w>
def ence</w>
dec or
be antwor
disku tieren</w>
Spe zial
grei f
establ ishment</w>
a dem
d ank</w>
orig in</w>
S ee</w>
L it
Wor te</w>
vern ünf
medi um-
I B
absol ut</w>
H om
geleist et</w>
lich erweise</w>
gesch rieben</w>
hous es</w>
Q </w>
schwieri g</w>
à </w>
oo m</w>
ack no
über all</w>
fre ut</w>
P il
member ship</w>
gesch ehen</w>
hand el</w>
um in
n ieder
C at
saf egu
ga ve</w>
Har mon
bal anced</w>
au d</w>
ell ed</w>
pen sion</w>
ec ke</w>
stat ements</w>
Land wir
Jahrhunder ts</w>
da cht</w>
hr en</w>
k oh
l le</w>
ber icht</w>
Jahr zeh
kun fts
0 ,
reason able</w>
li en</w>
op position</w>
en -</w>
ge k
produc ers</w>
s li
ein iger</w>
attemp t</w>
rel ax</w>
Apart ments</w>
ern sthaf
N ame</w>
zäh lt</w>
wa gen</w>
Kom fort</w>
sen s
Her stellung</w>
Komp et
L -
am eter</w>
prin t</w>
W ar</w>
gi g</w>
D S
e be</w>
F onds</w>
o o</w>
I ma
s a</w>
zeu gen</w>
dam als</w>
gelei tet</w>
h im
yester day</w>
ori al</w>
3 3</w>
ph ase</w>
econom ies</w>
G as
l ten</w>
gest alten</w>
Auf nahme</w>
con crete</w>
d .
m äch
will kommen</w>
wir kt</w>
f und</w>
qu alität</w>
Sp rach
seas on</w>
f s</w>
pic ture</w>
at ta
gem ü
Analy se</w>
Joh n</w>
tri eb
tiv ität</w>
crimin al</w>
end gül
con dition</w>
c ra
continu ed</w>
o w
Ar gum
eh ol
V ari
con dem
am ing</w>
Disk us
S cript</w>
D as</w>
wach sen
ess or</w>
ausge wäh
O T
stu dies</w>
consu mption</w>
quali fiz
B ru
Tran sport</w>
cle an
umfas st</w>
Prior itäten</w>
Mil it
ein erseits</w>
sp unkt</w>
charac ter</w>
chan ging</w>
g ain</w>
9 5</w>
² </w>
my self</w>
her unter
gra de</w>
adop tion</w>
transl ation</w>
em bly</w>
d uty</w>
Aspek t</w>
Ch am
sus p
Seh enswür
uni vers
associ ated</w>
Terr asse</w>
gew icht</w>
b ahn</w>
evi dence</w>
posi tiv</w>
fri eden</w>
Sor ge</w>
ogra f
medi c
car efully</w>
verfol gt</w>
Fried ens
A M
ent sch
cl ari
li ons</w>
lea der</w>
pre fer
Ges ell
model s</w>
cal cul
f low</w>
s le
danger ous</w>
det ail</w>
Österrei ch</w>
Kir che</w>
gew and
fest stellen</w>
x -
tra ding</w>
phr ase</w>
il -
p .
ah ead</w>
ö k
R um
recogn ition</w>
Dokum ent</w>
region alen</w>
car s</w>
kl ass
fin ance</w>
fu n</w>
categ ories</w>
EAD S</w>
viel mehr</w>
ver lassen</w>
n utz
9 9</w>
Bed ar
z ö
rä ume</w>
ür en</w>
V ier
wei ght</w>
zeu g
avail ability</w>
ass es</w>
pas st</w>
Entwick lungen</w>
agen cies</w>
G od</w>
happ ened</w>
mitt els</w>
th -
anges prochen</w>
Europe ans</w>
call ing</w>
Kommunik ation</w>
un acceptable</w>
genu ine</w>
Ir ish</w>
Pak istan</w>
woh ner</w>
her zlich</w>
Hinter grund</w>
g .</w>
krä fte</w>
Fern seh
or ders</w>
Hum an</w>
des er
Minis ter
guarant ees</w>
in form</w>
A P
Isra el
wa it</w>
aussch uss</w>
impro vement</w>
ati n</w>
peac eful</w>
beh avi
Arbeits losigkeit</w>
fe el
ho t</w>
Ver sch
Sp a</w>
aus gewo
jähri gen</w>
Stärk ung</w>
immedi ate</w>
vic es</w>
p unkte</w>
combin ation</w>
s ets</w>
lie ßen</w>
g utes</w>
inst ance</w>
Econom ic</w>
niem and</w>
ier ter</w>
contr ary</w>
demokrati sche</w>
zu g
techn i
ins urance</w>
ein geb
2 4-
i .
an gt</w>
Universit ät</w>
ra ise</w>
Her steller</w>
Großbritann ien</w>
weiter er</w>
En viron
intro duce</w>
or g</w>
t aus
ut ed</w>
im possible</w>
garanti ert</w>
übri gen</w>
Gemein samen</w>
l -
I R
son st</w>
ru h
at z
in struc
str ong
Pol en</w>
ad ul
Pak et</w>
cour ses</w>
ahr en</w>
lear ning</w>
natur ally</w>
Partner schaft</w>
mi x
Funk tion
B rit
shar ed</w>
Ab end</w>
wi eg
T un
pre -
sp ent</w>
dr itt
Gener al
Les ung</w>
C i
{ </w>
il lu
Kon fer
All gem
ro ll
p sych
einfa che</w>
b ing</w>
brei te</w>
Bü ro
compar ed</w>
coll abor
hin gewiesen</w>
Poli zei
8 .
Pri me</w>
spezi elle</w>
propos e</w>
Viel zahl</w>
ier e</w>
him self</w>
Au gen
Fo und
on e-
rän ken</w>
mit einander</w>
e ß</w>
Rechn ung</w>
Afri ka</w>
gegenwär tigen</w>
attrac tive</w>
M ik
govern mental</w>
Barro so</w>
Au to</w>
unterstütz e</w>
20 13</w>
is ine</w>
co ff
stär kt</w>
ärk ten</w>
a .
ich ts
schi ed</w>
Dis krimin
sensi tive</w>
D u</w>
ein geführt</w>
Ar ten</w>
t old</w>
el ection</w>
Sto ck
reli able</w>
wa iting</w>
Associ ation</w>
Problem en</w>
führ ungen</w>
rü st
hand s</w>
combin ed</w>
announc ed</w>
Bedürf nisse</w>
w ishes</w>
qu alit
Ges etz</w>
W issen</w>
umfas sende</w>
vol un
sp ending</w>
ek te</w>
fig ures</w>
Sehenswür digkeiten</w>
pos sibilities</w>
be ds</w>
jour n
eh mer
se ek</w>
tru ly</w>
ou l
hau pts
exhi bition</w>
ein setzen</w>
refu ge
R ein
clo ser</w>
Nahr ungs
er hält</w>
ei lt</w>
King dom</w>
ph en
relig ious</w>
r itt
N u
z erstör
Ir land</w>
Geschäfts ordnung</w>
verk ehr
y al</w>
hal tet</w>
Prior ität</w>
l uss</w>
descri bed</w>
For men</w>
allow ing</w>
z ing</w>
grö ßer
su che</w>
continu es</w>
cont em
K r
Überwach ung</w>
absol ute</w>
strong ly</w>
empfeh len</w>
particip ate</w>
fe ar</w>
fe der
F und
adv ance</w>
defin ition</w>
groß es</w>
9 8</w>
el ected</w>
el a</w>
Reg el</w>
it z</w>
aufmerk sam</w>
s ort</w>
t asks</w>
as yl
lös ung</w>
A si
d in
ff s</w>
französ ischen</w>
t inu
be ar</w>
s letter</w>
zu frieden</w>
an sch
kit chen</w>
kein erlei</w>
Ger ichtsh
Mom ent</w>
Fu ß</w>
resp ective</w>
vor liegenden</w>
reserv ation</w>
pass ed</w>
erforder lichen</w>
SQ L</w>
en ables</w>
St ar
Zu stän
expen di
Elem ente</w>
geschütz t</w>
IS O</w>
ad ed</w>
si des</w>
T H
ob tain</w>
Betrieb </w>
W ech
y e</w>
einfa chen</w>
m .</w>
di um</w>
F inn
distri ct</w>
br and</w>
pack ages</w>
s outh</w>
St or
regis tered</w>
datab ase</w>
cor respon
no ti
Pf lan
Brü ssel</w>
gro unds</w>
W ün
Afri can</w>
campa ign</w>
Des ign
fol gende</w>
A S</w>
ac i
adju st
bestä tigt</w>
Bewer tung</w>
po l</w>
go sla
ausreich end</w>
ü r</w>
isch en
Ide en</w>
char ged</w>
Jus tice</w>
pp er</w>
f are</w>
zu vor</w>
am en
betei ligt</w>
Am bi
paragra ph</w>
urg ent</w>
mo ving</w>
be zeichnet</w>
s eg
but ton</w>
Indi en</w>
M ann</w>
Fortsch ritt</w>
anci ent</w>
Sin n</w>
Ent wurf</w>
spar tn
Vor sitz
re chen</w>
ens wert</w>
u ter
gro ß</w>
än gt</w>
ada p
F -
An d</w>
W ander
l te</w>
ag s</w>
om in
great est</w>
ge zogen</w>
ver tei
territ ory</w>
releas ed</w>
aussch usses</w>
co l</w>
n ennen</w>
fir m</w>
zu stimmen</w>
3 4</w>
Mo der
betra chten</w>
w esen</w>
ar ing</w>
ti scher</w>
m eist
Min dest
P ic
bru ch</w>
enorm ous</w>
en ken</w>
l es
honour able</w>
ic ken</w>
größ eren</w>
ein ander
f ers</w>
internation aler</w>
abhän gigkeit</w>
H alb
complet ed</w>
ar ily</w>
fis cal</w>
isch em</w>
ing ton</w>
establ ishing</w>
stimm t</w>
bre ak</w>
sign al</w>
K andi
ech te</w>
kompl ett</w>
Frühst ück
pos t</w>
claim s</w>
pic tures</w>
Verpflich tung</w>
install ed</w>
gesch i
fil l</w>
Democ rats</w>
3 6</w>
de vices</w>
cor porate</w>
man age</w>
Konf li
brei ten</w>
Mo un
be t</w>
M ärkte</w>
ech ischen</w>
br ary</w>
S til</w>
des ire</w>
Griech enland</w>
der ed</w>
Verhäl tnis</w>
Kri tik</w>
V I
Prin zip</w>
w oo
mö gen</w>
ges tern</w>
nam es</w>
at ter
or e
Mad rid</w>
ab gel
sor gt</w>
perspec tive</w>
convinc ed</w>
ac </w>
4 8</w>
n ü
a j
no on</w>
ent decken</w>
at ures</w>
architec ture</w>
n ar
bl ack</w>
regis ter</w>
T est
ma g</w>
vor hand
Regel ungen</w>
W e</w>
Mitt eln</w>
pay ments</w>
- up</w>
beginn t</w>
Found ation</w>
O li
Glob alisierung</w>
th or
Ma ße</w>
sk ills</w>
vor aus
sat ell
biet er</w>
199 4</w>
on s
N utzen</w>
F it
gel assen</w>
near by</w>
S ar
An teil</w>
tä t</w>
comm ent</w>
om eter</w>
individu als</w>
mitt l
ex port</w>
res ort</w>
op pos
exerc ise</w>
cu isine</w>
E- Fraktion</w>
lä ss
ff er</w>
zu erst</w>
con tain</w>
zi </w>
län ger</w>
schie de</w>
Leist ung</w>
ber eiten</w>
et es</w>
G ü
zu gän
R oh
hel pf
conclu sions</w>
her gestellt</w>
M ari
Agent ur</w>
al ty</w>
Spe zi
aus führ
besit zt</w>
Ged an
beg lück
Turk ish</w>
Sant a</w>
T ick
garanti eren</w>
evol ution</w>
Her z
Res earch</w>
prei s</w>
Tra dition</w>
si erung</w>
zi gen</w>
K lim
est ate</w>
w all</w>
ma gn
man gel
Techn ik</w>
w asser
righ tly</w>
ho h
Ban ken</w>
5 0
Stre et</w>
enti tled</w>
prei se</w>
Wor ten</w>
Nach t</w>
sich ts
Erklär ungen</w>
spac ious</w>
ten en</w>
gen annte</w>
mark ed</w>
col or</w>
tion ally</w>
6 5</w>
2 7
K ab
inst all</w>
si ven</w>
m useum</w>
m un
Sp it
plat form</w>
fail ed</w>
beh aup
achiev ing</w>
ap pl
z y
Eis en
wesent lichen</w>
über tragen</w>
B M
contro ls</w>
De fin
ati sche</w>
deut sche</w>
Verk ehr</w>
initi al</w>
leist ungs
M L</w>
W ik
kosten los</w>
I V</w>
statt finden</w>
Grö ße</w>
perf ec
key word</w>
exten ded</w>
wä ch
ap art</w>
ekt ur</w>
ex tra
cour t</w>
pro to
mi um</w>
organis ed</w>
tain ment</w>
institu tion</w>
zah lung</w>
Sch ön
adverti sing</w>
B est</w>
out come</w>
k op
Entschließungsan trag</w>
ar ticle</w>
lü sse</w>
Is lam
Grün de</w>
fin de</w>
asyl um</w>
el imin
wach st
mbo l</w>
C ub
in hab
Leist ungs
Ã </w>
st ood</w>
in zwischen</w>
Betei ligung</w>
commit ments</w>
h tt
fac tors</w>
or am
sur face</w>
Tra de</w>
sol cher</w>
Stra ßen
Ne ther
Koh ä
on i
gran ted</w>
E astern</w>
stark en</w>
di se
medi zin
k er
tot ally</w>
wün sche</w>
ambi tious</w>
O rig
ö pf
Bus h</w>
Kompromis s</w>
wel chen</w>
ec kt</w>
wen det</w>
ent ing</w>
continu ing</w>
g barkeit</w>
s ale</w>
um welt
entsp rechen</w>
Tit el</w>
ali a</w>
ri es</w>
k ept</w>
inten ance</w>
Mis s
bein haltet</w>
er häl
Um fang</w>
fiz iert</w>
stor age</w>
f igh
Ap part
ben ach
Kom bin
regis tri
ent ran
un able</w>
Stad tz
Jav a
S E
weap ons</w>
tru m</w>
S port</w>
über ra
He alth</w>
Palestin ian</w>
sei en</w>
surround ing</w>
aus län
P as
Unternehmen s
Feder al</w>
frü her</w>
Gol f</w>
de x</w>
all -
ei m
r ying</w>
Europä er</w>
m ir
6 00</w>
wh il
c lub</w>
g la
ak t</w>
Flexi bilität</w>
sub sequ
ac king</w>
} </w>
Vi enna</w>
ü st
mot or
boo king</w>
as h</w>
lit er
approxim ately</w>
dedic ated</w>
ar tic
ü ben</w>
dis pos
zu folge</w>
bil d</w>
igran ts</w>
ver letz
allgem eine</w>
w ettbewer
whil st</w>
Deut sche</w>
T our</w>
t on
Ab satz</w>
re mind</w>
Vide o</w>
candi date</w>
dise ase</w>
gel ief
Ak tionen</w>
d &apos;
bli oth
3 7</w>
Pati enten</w>
dien st</w>
i en
lim its</w>
ver häl
f ach</w>
Mitglie dern</w>
Z immer
erhö ht</w>
Kon tin
Ni veau</w>
En d
Schlü ssel
stei gen</w>
Austri an</w>
um p
rä ger</w>
mem ory</w>
e quality</w>
D on
bri tischen</w>
up date</w>
haupts ächlich</w>
rech tlichen</w>
er es</w>
ge öffnet</w>
Fre e</w>
colleag ue</w>
G az
k ann
Ar ab
sorg fäl
Haushal tsp
ex klu
O M
enn t</w>
c ent</w>
col our
verl oren</w>
kra ft</w>
Empfeh lungen</w>
ab geschlossen</w>
ta il
Erei gnisse</w>
Wieder auf
A ll</w>
mas sive</w>
tel evision</w>
E hr
al em</w>
Constitu tion</w>
be aches</w>
A G
existen ce</w>
exam ples</w>
inter face</w>
Ein druck</w>
t oler
un to</w>
spezi ellen</w>
ó n</w>
ar en</w>
arri val</w>
sci ence</w>
ing u
de vice</w>
g ä
kür zlich</w>
Ham burg</w>
Gegens atz</w>
nation aler</w>
Men ü
inform iert</w>
what ever</w>
ar i</w>
C ast
ri ver</w>
Man ager</w>
über n
ung sin
Metho de</w>
Binnen mark
priv il
m ün
rel ativ</w>
vali d</w>
ger en</w>
our n
R ichtlinien</w>
tur ning</w>
fähi g</w>
bek annten</w>
multi later
St rei
Verstän dnis</w>
bew eg
swi t
li e</w>
B ab
ge gangen</w>
inter vention</w>
ac compan
ul a</w>
ad vice</w>
K ro
ur s
mei st</w>
lem ent</w>
S ci
Er hö
indepen dence</w>
pi ece</w>
Ver letz
Mon at</w>
jüng sten</w>
T ha
Nether lands</w>
á </w>
big gest</w>
199 0</w>
sch ir
Gebi ete</w>
success fully</w>
sen sus</w>
h aus
au c
persön liche</w>
acces sible</w>
con ci
mitt elt</w>
C E
pre vention</w>
wi der</w>
tar gets</w>
. 000</w>
a ther</w>
expendi ture</w>
lis ten</w>
wirtschaf ts
hol ung</w>
Tre ffen</w>
us ual</w>
t ürk
sich erung</w>
Grund satz</w>
tri p</w>
geschi eht</w>
eval u
Auf bau</w>
cho sen</w>
G rü
blo ck
8 -
igh t
surround ed</w>
as king</w>
ro l</w>
Ris iken</w>
arch i
be zogen</w>
oblig ations</w>
k as</w>
Schl uss
su n</w>
ag ne</w>
ein verstanden</w>
genau so</w>
N er
ak zept
v eget
appro val</w>
außer ord
monit or</w>
prak tisch</w>
Bot schaft</w>
g uter</w>
erforder t</w>
ven ue</w>
A tom
nachhal tige</w>
S tern
particip ants</w>
organiz ation</w>
ast s</w>
win d</w>
k um
agen cy</w>
f assung</w>
A N</w>
gn issen</w>
Re alität</w>
un ge
de ep</w>
ent eil</w>
EC U</w>
High </w>
perfec tly</w>
ne arly</w>
att ack</w>
back ground</w>
sub scri
bin ding</w>
y right</w>
ent y</w>
politi sch</w>
hi elt</w>
expres sion</w>
Wirk ung</w>
T en
le v
M es
Fra ktionen</w>
i ans</w>
beau ty</w>
Gener ation</w>
rou te</w>
const antly</w>
Alt stadt</w>
promo tion</w>
st ö
gui de</w>
g g
Beg riff</w>
Hoff nung</w>
bring ing</w>
jähr lich</w>
ag ue</w>
go als</w>
M use
mü s
kom bin
Bei hilfen</w>
recommend ations</w>
eri a</w>
A cc
writ e</w>
so ver
Orig in
appoin ted</w>
form ing</w>
unter schei
I G
Nutz er</w>
v es
füh len</w>
medium- sized</w>
lan gt</w>
m ly</w>
la id</w>
To des
8 00</w>
bet roffen</w>
p utting</w>
fi l</w>
O m
govern ance</w>
regel mäßig</w>
b loo
p he</w>
Cro ati
deli ver</w>
Op tion</w>
deu ten</w>
as su
Gr unde</w>
Sy ri
cont ents</w>
an e</w>
S un
co ast</w>
Pro vin
I N</w>
fir e</w>
angen eh
a el</w>
fest gestellt</w>
f ach
Al ban
do c
R ad
no ch
mer ely</w>
D ut
Gre ek</w>
aller y</w>
eng ine</w>
ab en</w>
St ein
vorgeschla genen</w>
3 8</w>
advant ages</w>
helpf ul</w>
cla im</w>
regis tration</w>
quali fied</w>
f elt</w>
kün st
Aus sicht</w>
di sh
Eng land</w>
ho st</w>
rail way</w>
inter ven
situ ations</w>
fac es</w>
air craft</w>
ma intenance</w>
abhängi g</w>
vi erung</w>
employ ed</w>
en dum</w>
U l
Voraus setzungen</w>
on to</w>
dimen sion</w>
gew al
ex plan
an lagen</w>
re den</w>
Arbei t
Ph ase</w>
Dimen sion</w>
bri dge</w>
Politik er</w>
strength ening</w>
tri fft</w>
mom ent
Unter kunft</w>
c au
u .
wichtig ste</w>
hän gt</w>
ke eping</w>
met ers</w>
glob ale</w>
vehic le</w>
A B
Er war
substanti al</w>
S and
Geg enteil</w>
da p
rap id</w>
In nen</w>
ch urch</w>
di ger</w>
Plat t
é s</w>
Eff izi
den k
cons istent</w>
eck -
and ed</w>
rei ber</w>
einzi gen</w>
Fot os</w>
der ship</w>
5 5</w>
mechan ism</w>
lo ad</w>
Meer es
S ank
Reg ulation</w>
Bedar f</w>
K las
m ass</w>
H äl
on ia</w>
Nich trau
recomm end</w>
N um
Kon troll
Sk i
poin ted</w>
holi days</w>
be wegen</w>
K aff
ob vious</w>
gram mati
il ing</w>
hol en</w>
Far b
ti erung</w>
Er de</w>
th eit</w>
Be obach
j unge</w>
einzel ne</w>
Ris iko</w>
physi cal</w>
contain ed</w>
exper im
pre viously</w>
G ran
favo ur
H is
regel n</w>
ordn ungs
D e</w>
produk tion</w>
comp liance</w>
R am
f ein
Sum mit</w>
gesell schaften</w>
comm unities</w>
ef s</w>
un it</w>
präsen tiert</w>
R äum
Ver mitt
tri ed</w>
Führ ung</w>
form ation</w>
v it
neigh bo
Bestand teil</w>
art a</w>
stell te</w>
pati ents</w>
E st
I D</w>
bar ri
plann ed</w>
lin ge</w>
C af
kann st</w>
n un
event u
ränk ungen</w>
lä gen</w>
ide ale</w>
c m</w>
wor fen</w>
j ungen</w>
Bil dungs
p assung</w>
fac tor</w>
ent gegen
S .
gewün sch
S ain
Prü fung</w>
cap able</w>
bet roffenen</w>
intel li
Mitglied s
h a</w>
w ater
ier enden</w>
arti sts</w>
ne -
dou b
rei bt</w>
d den</w>
zip ien</w>
Institu te</w>
A ir</w>
parall el</w>
mid dle</w>
wo durch</w>
Industri e
Vor teil</w>
Agen cy</w>
Gol f
st ory</w>
Ö l
Sch war
at o</w>
J ourn
dic t
it age</w>
ren o
Rel ig
I A</w>
dynam ic</w>
C S
schn eller</w>
ühr en</w>
Gesetz gebung</w>
ques ts</w>
D re
w est</w>
an statt</w>
zweifel los</w>
r ent</w>
ei len</w>
sol ange</w>
f it</w>
htt p</w>
li erte</w>
Fir men</w>
ch em</w>
lo ss
get eilt</w>
conclu de</w>
sur vi
some one</w>
3 9</w>
on ed</w>
am ong
du s</w>
exten d</w>
str ö
su ite</w>
G ent
on t
dec ades</w>
r ul
Rei se</w>
among st</w>
dau er
zurück zu
ther eby</w>
O s</w>
an geht</w>
gi ge</w>
voll kommen</w>
Play er</w>
grenz überschrei
J er
n icht
zu verlässi
li ability</w>
coff ee</w>
person ally</w>
seek ing</w>
dist inc
respon sibilities</w>
äu fer</w>
Hand el
konstru k
nah m</w>
Un abhängigkeit</w>
ör per
um b
Cas ino</w>
beschäf tigt</w>
ph ilosoph
out standing</w>
manufactur ing</w>
disku tiert</w>
LA N</w>
In seln</w>
caus es</w>
s even</w>
an bieten</w>
i ds</w>
kan ischen</w>
Erhö hung</w>
Rei se
Mot or
noch mals</w>
guarant eed</w>
gel aden</w>
eh nt</w>
m as</w>
Got t</w>
st one</w>
inten sive</w>
er er</w>
f light</w>
Häl fte</w>
ver w
rec eption</w>
199 2</w>
vul ner
ser n</w>
Nieder lan
fra gt</w>
unter st
Über prüfung</w>
Ge währ
Ratspräsi dent</w>
bu chen</w>
ar ms</w>
bar s</w>
gan gs</w>
Liber alisierung</w>
moun tains</w>
un ch</w>
Ber lin
weiter es</w>
For eign</w>
enn ung</w>
cap it
Java Script</w>
An rei
beru f
O ut
win den</w>
optim al</w>
reco very</w>
Dien st</w>
dri ving</w>
u .</w>
An lagen</w>
le ads</w>
M ill
relax ing</w>
k einer</w>
berühm ten</w>
sei tens</w>
win dow</w>
tre ated</w>
Un d</w>
of -
e .</w>
besser en</w>
li an</w>
at trak
addres sed</w>
W and
freund liche</w>
A lex
Infra struktur</w>
speci es</w>
test ing</w>
gewäh lt</w>
gel y</w>
Jap an
depen ding</w>
gef örder
ati sch</w>
f illed</w>
Diskrimin ierung</w>
König reich</w>
Zah lungs
E u
Aus land</w>
wes halb</w>
Kor ea</w>
sp eich
be zieht</w>
ar di
n ations</w>
S D
con sensus</w>
tro l</w>
R ules</w>
Mus li
resul ting</w>
ali ge</w>
ges eh
sm aller</w>
er o
u z
1 1.
Stru ktur</w>
re move</w>
dispos al</w>
in spi
sel l</w>
p ak
19 .</w>
wle d
M erk
ck t</w>
Städ te</w>
wä s
tradition ellen</w>
determin ed</w>
Fes tival</w>
boo ks</w>
poten zi
sur pris
H -
discuss ing</w>
re agieren</w>
L atin</w>
al a</w>
or ds</w>
ö der
dig ungs
Environ ment</w>
Zah len</w>
s quare</w>
n d</w>
fäl len</w>
pp e</w>
mar ily</w>
fac ed</w>
con soli
M ü
att acks</w>
ent ure</w>
-R eg
Pe ople</w>
is ieren</w>
Veranstal tungen</w>
wer ten</w>
t äu
t ests</w>
alis ieren</w>
eval uation</w>
Ak ti
invest ments</w>
di schar
PH P</w>
bur e
posi t</w>
Lin ks</w>
spezif ischen</w>
Hol z
tz ei
Sonn en
Stra f
Koordin ierung</w>
categ ory</w>
fer tigt</w>
er as</w>
9 6</w>
Rum än
re ve
m ung</w>
Eink aufs
Pe ti
Metho den</w>
Intern ationalen</w>
Swe den</w>
m o</w>
expl ain</w>
Pub lik
Charak ter</w>
P eter</w>
am ents</w>
B -
al ter
extre me</w>
is iert</w>
W ür
ra d</w>
es ische</w>
Aktion sp
Nichtrau cher
stoff en</w>
kom fort
On line</w>
gemein sam
Al liance</w>
spezif ische</w>
Ob ama</w>
C ard</w>
region ale</w>
industri es</w>
ar m</w>
ti tle</w>
Con trol</w>
tal ks</w>
ho ff
sen s</w>
gesch lossen
compet ence</w>
la ke</w>
S S
gesp eich
strateg ie</w>
dritt ens</w>
P in
cons ists</w>
Tei len</w>
Angebo te</w>
br ings</w>
lux ury</w>
Har d
attrac tions</w>
pri marily</w>
sprü che</w>
tou ch</w>
ab sich
ob ject</w>
schö n</w>
akzep tiert</w>
del ay</w>
fl us
V -
Unternehmen s</w>
spre ad</w>
Inn en
Sch we
pre p
m ari
phot os</w>
Hin weis</w>
Far ben</w>
K lar
u ti
W inter
sicher stellen</w>
wer fen</w>
landscap e</w>
fahr ens</w>
Fäl le</w>
berei che</w>
or al</w>
Ad ministr
an gel
dest ru
1 st</w>
schn itt
no tice</w>
D avi
mis s
am et
ill ing</w>
w an</w>
exp ect
sy mp
bet ont</w>
k ehr</w>
. de</w>
ste el</w>
K M
ol der</w>
st euer
Frühstück s
lief ern</w>
Haupt stadt</w>
posi tiven</w>
bequ em</w>
Ver öffent
Män ner</w>
Lauf e</w>
komp et
Rom ania</w>
techn ological</w>
identi ty</w>
prim ary</w>
höch ste</w>
ur ge</w>
incor por
fic ations</w>
z te</w>
lis ted</w>
es te</w>
9 7</w>
comp lic
e ar</w>
Gu est</w>
Klima anlage</w>
Min utes</w>
trans fer
bu tions</w>
gew isse</w>
In n</w>
condi tioning</w>
Ru he</w>
bro wser</w>
multi -
multi ple</w>
mo de</w>
wa chen</w>
Beweg ung</w>
T ai
Ch em
län dlichen</w>
un anim
Wil len</w>
manufactur ers</w>
lieg ende</w>
ent lichen</w>
smo king</w>
spac es</w>
d an</w>
organis ationen</w>
pres sion</w>
Unter schiede</w>
sanc tions</w>
lag s</w>
nit ure</w>
Ent sch
ch i
bil det</w>
kil omet
J es
si ght</w>
Tier e</w>
län e</w>
tel ef
Bu ch</w>
An passung</w>
Dokum ente</w>
w- how</w>
ge arbeitet</w>
de alt</w>
beg ann</w>
li a</w>
isch -
ein richtungen</w>
equ ally</w>
Netz werk</w>
sho wer</w>
k ul
r en</w>
ur ban</w>
l ament
T emp
g ut
zi em
proc eed
associ ation</w>
di versity</w>
mut ual</w>
zeu gung</w>
s es
ol z</w>
conduc t</w>
lea dership</w>
Stu dio</w>
lei den</w>
Ge w
Gesetz e</w>
An liegen</w>
er ungen</w>
Gr enze</w>
de h
Teil nehmer</w>
Um ständen</w>
accoun ts</w>
represent ative</w>
Materi al</w>
Per spek
E F
Klimawand el</w>
Reak tion</w>
Ord nung</w>
Deleg ation</w>
ag iert</w>
Z immern</w>
nor th</w>
F ähigkeit</w>
übern ommen</w>
ti ally</w>
La ke</w>
rec ord
ol a</w>
ab len</w>
weg s</w>
ed ge</w>
S amm
ra il</w>
Diskus sionen</w>
ver lieren</w>
regel mäß
speak ers</w>
sk i
ell ec
Bed ro
bür ger
Eur o-
erneu er
Projek t
Ver such</w>
er geben</w>
ver stärkt</w>
consult ation</w>
li ation</w>
Comp any</w>
si eben</w>
sch lim
cop y</w>
ear bei
beh inder
Bed enken</w>
st ations</w>
Vorberei tung</w>
signific antly</w>
Res ort</w>
er ie</w>
om as</w>
for est</w>
Kol lege</w>
S ur
el -
grund lage</w>
beein flus
vot es</w>
stell ungs
derzei tigen</w>
ko ordin
prep are</w>
Ein sch
ha m</w>
Stadtz entrum</w>
Reg uli
ver sions</w>
man che</w>
• </w>
wieder um</w>
ger ufen</w>
ath ed
blo ck</w>
etz en</w>
basi ert</w>
impro vements</w>
d ritten</w>
N ik
R ou
W aff
0 9</w>
der i
deleg ation</w>
controll ed</w>
Land schaft</w>
mechanis ms</w>
enter ed</w>
Form at</w>
s tic</w>
ein s</w>
on ic</w>
aff ect</w>
un denen</w>
loo ks</w>
är m
ren ov
config ur
nam ed</w>
Eink lang</w>
ci vi
Ge fühl</w>
Pal ace</w>
li eben</w>
0 8</w>
ver langen</w>
16 0</w>
sm it
s au
Wor k
mean ing</w>
Pro duc
scho ols</w>
represent ed</w>
ob serv
p un
deliver ed</w>
sk in</w>
acc ess
i ens</w>
Ch amp
jähri ge</w>
h oriz
fol gerungen</w>
p et
G laub
sch war
I II</w>
Pro di</w>
untern ommen</w>
Br enn
jem and</w>
tur ed</w>
politi cians</w>
V it
c ast</w>
exp an
S O
g keit</w>
gl ass</w>
Su ch
be fassen</w>
g one</w>
Ser ie</w>
visi ble</w>
Pau l</w>
Schi ff
un sten</w>
hier bei</w>
prec ed
furn ished</w>
geb en
fu el</w>
de ad
compati ble</w>
al p
gesch ä
v ill
9 .</w>
O pen
P r
b us
entscheiden d</w>
diver se</w>
for c
Mich ael</w>
Ameri ka</w>
d rücken</w>
Aut ob
errei ch
Verfü gbarkeit</w>
l as</w>
nö tig</w>
Mar tin</w>
z ell
Mark et</w>
contem porary</w>
high light</w>
wichtig es</w>
Pra k
St unde</w>
T al
m igration</w>
e o</w>
st ore</w>
ber n</w>
komp liz
la w
ri es
Grund rechte</w>
hö here</w>
Teil nahme</w>
Milit är
&apos; ve</w>
eg al</w>
u tion
6 4</w>
Strateg ien</w>
Kombin ation</w>
ra c
def ault</w>
L icht</w>
ris ing</w>
sou thern</w>
ti le</w>
C lu
ak tive</w>
amerikan ische</w>
kin ds</w>
requ ested</w>
ehem aligen</w>
ne ut
199 3</w>
beg rün
exper tise</w>
tem porary</w>
K ür
Voraus setzung</w>
d as
T his</w>
li erung</w>
Dut ch</w>
an erkannt</w>
Kör per</w>
n den</w>
St ellen</w>
erlau ben</w>
ung er</w>
icht ete</w>
zi elt</w>
exc ept</w>
Gä sten</w>
Ber ücksich
be ob
der artige</w>
rep ly</w>
foo t</w>
Über nach
Mon t
mit tag</w>
qu ick</w>
k -
z y</w>
is o
descri ption</w>
A g
we alth</w>
u d</w>
be absich
an i</w>
ari en</w>
e au</w>
to m</w>
Bra zi
sol e</w>
Ant worten</w>
es sive</w>
behand eln</w>
w on</w>
ang s
si </w>
H ü
r ichtlinie</w>
help ing</w>
B ay</w>
и </w>
Sü den</w>
compens ation</w>
K unde</w>
cross- border</w>
reg ret</w>
zunehmen d</w>
emphas ise</w>
ra y</w>
in ary</w>
ov </w>
R ent
Überein kommen</w>
au sh
Form ular</w>
ech ten</w>
Tem per
umfas senden</w>
Er wachsen
stra ße</w>
ign or
erhäl tlich</w>
Fre unde</w>
qu ote</w>
0. 000</w>
Effizi enz</w>
Stu die</w>
F lä
ver anst
beg lei
beh örden</w>
H öh
fin ding</w>
Berücksich tigung</w>
star ten</w>
eb ene</w>
recogn ise</w>
fund ament
konkre ten</w>
celeb r
Op en</w>
pleas ure</w>
allgem ein</w>
resp ek
Bei fall</w>
gl ück
er fahr
pe op
ir y</w>
c a
Telef on</w>
le ch
F la
ri ft</w>
Sank tionen</w>
W esten</w>
will ing</w>
si bly</w>
I P
Y ou</w>
ac ting</w>
v e-
histor ische</w>
gen er</w>
H än
expen sive</w>
oppos ite</w>
bes or
re jected</w>
lin ed</w>
b om
f ak
mel dung</w>
betre ffen</w>
vorsch lag</w>
An sch
lin ie</w>
dru gs</w>
m ale</w>
künf tig</w>
ent lang</w>
mel den</w>
G DP</w>
Fre ude</w>
decisi on-
ta il</w>
ra dio</w>
T R
af ri
4 9</w>
oblig ation</w>
Grund sätze</w>
An lage</w>
ho l</w>
f ting</w>
wesent liche</w>
20 .</w>
foli o</w>
laun ched</w>
sha pe</w>
ho her</w>
ver se</w>
at oren</w>
gol f</w>
Allgem einen</w>
streng th</w>
Res p
st off</w>
dien ste</w>
prof it</w>
r ö
hil ft</w>
auth or</w>
atti tude</w>
Z oll
0 7</w>
B ou
ath s</w>
spra chen</w>
bei zu
Win ter</w>
R ome</w>
So zi
tig ungen</w>
T aus
Untersuch ung</w>
Ge win
hi </w>
occ ur
gel ungen</w>
Entwick l
g an</w>
Gei st</w>
B ör
War en</w>
defin i
satell ite</w>
is s
Ver träge</w>
2 50</w>
refuge es</w>
4 2</w>
f abri
gres sive</w>
renew able</w>
tur ing</w>
re quests</w>
besi des</w>
Mein ungs
bet t</w>
staat liche</w>
Medi a</w>
Res i
Eigen schaften</w>
consequ ently</w>
ari um</w>
fr aud</w>
, 00</w>
L im
min e</w>
present ation</w>
Ma il
kno ws</w>
web sites</w>
Ver halten</w>
engine ering</w>
emphas is</w>
r auch</w>
Sch äden</w>
ziem lich</w>
sol ve</w>
er in</w>
tax es</w>
Det ails</w>
Program m
appe al</w>
comb ating</w>
ob st
Maß nahme</w>
getre ten</w>
om en
Bahn hof</w>
oper ators</w>
Cham ber</w>
B earbei
Sp ek
leng th</w>
3 .</w>
expect ations</w>
figh ting</w>
Hil fs
A V
flü ge</w>
for um</w>
e th</w>
r uns</w>
Zu griff</w>
brei tung</w>
hel ps</w>
G B</w>
tion ality</w>
t ment</w>
st äd
komm erzi
kl einer</w>
tu t</w>
co ok
unmittel bar</w>
Ver brechen</w>
priv acy</w>
Ferien woh
Zu stand</w>
p el
mo bility</w>
E di
Wirtschafts -</w>
8 5</w>
f ts</w>
tra gung</w>
resol ve</w>
R ob
feel ing</w>
Komm ent
Aus gang
sub stances</w>
N L</w>
ta ste</w>
T od</w>
Auf trag</w>
oo k</w>
mil lions</w>
kultur elle</w>
const ant</w>
ev a</w>
dra wing</w>
ges pi
d ul
di seas
s ult
außer gewöhn
beein druck
po or
schn ell
experi ences</w>
Sch ule</w>
gri ffen</w>
mensch lichen</w>
heb ung</w>
recommend ed</w>
inten tion</w>
m ärkte</w>
D a
re place</w>
schließ t</w>
ultim ately</w>
bi o
d t</w>
M ak
comp ly</w>
führ ende</w>
G U
tex ts</w>
2 1.</w>
vor an
Rot ary</w>
Z ur
ver sorgung</w>
dies el
Ro yal</w>
bezieh ung</w>
per s</w>
Gen ehm
her aus</w>
Defin ition</w>
äh igkeiten</w>
S ter
g ü
lat ter</w>
arran gements</w>
ern st</w>
Völk er</w>
rel atively</w>
Ad ri
st ät
H on
ver änder
lich ten</w>
schätz en</w>
exis ts</w>
Ver trags
aff airs</w>
E gyp
suff ering</w>
beg onnen</w>
Sit z</w>
welt weiten</w>
lis ten
Landwir te</w>
u ung</w>
relig iö
Un gleich
ei ght</w>
sch auen</w>
Mik ro
asi de</w>
Minis ters</w>
m ur
ser ves</w>
st echn
Cu st
li t</w>
sub -
produc ing</w>
re kt</w>
W äh
cover s</w>
Spiel e</w>
Kon sequ
kon tak
vin ce</w>
reser ve</w>
institution ellen</w>
Fran c
ma ß</w>
Leit linien</w>
An fragen</w>
Ar gent
G ep
disa ster</w>
heal thy</w>
Kar ten</w>
c are
host els</w>
mo ved</w>
Ak te
beauf trag
di ty</w>
recogn ised</w>
ar ische</w>
E G</w>
prot ecting</w>
W ien</w>
cons ci
Er kenn
Archit ektur</w>
C y
ä ck
passen gers</w>
construc tive</w>
o ten</w>
Downlo ad</w>
F ut
int ellec
f ai
ei te</w>
refl ect</w>
ma y
wat ch</w>
Ab sicht</w>
pro of</w>
wissenschaf tlichen</w>
zusätz lichen</w>
Prü f
cl ing</w>
Asy l
Kon tak
niem als</w>
mo vi
S quare</w>
angem essen</w>
au l
ach tung</w>
un its</w>
beträ gt</w>
P ool</w>
ser vers</w>
er ei</w>
th ro
sol d</w>
A 3
ati es</w>
ier ende</w>
d ler</w>
For t
dest ination</w>
bes ei
Stand ard
ra sch</w>
dan ger</w>
conc ep
applic able</w>
Kapit al
st res
hand ling</w>
t ent
Hin der
et ter
Sp ann
ersch einen</w>
interes siert</w>
eg el</w>
exten sion</w>
geförder t</w>
op posed</w>
er öffnet</w>
ur ement</w>
En ergy</w>
men ten</w>
Sch ü
Au th
W ash
Fi re
abl ing</w>
nä her</w>
Fischer ei</w>
ci pl
err or</w>
tru th</w>
Kü ste</w>
nach zu
Is land</w>
grundsätz lich</w>
Host el
CO 2</w>
co her
F ein
Strateg y</w>
Leb ens</w>
reach ing</w>
diseas es</w>
schwieri gen</w>
s low
ung ser
woh l
grundleg enden</w>
ö sterrei
valu able</w>
sti l
sa v
D A
bur den</w>
dis covered</w>
win digkeit</w>
P hi
lo g</w>
centr es</w>
Sch engen</w>
kur ze</w>
produk te</w>
enth al
E ar
do kum
invol ving</w>
Gedan ken</w>
aktivi eren</w>
vor geseh
lis te</w>
Erwar tungen</w>
schn elle</w>
vis u
direc tives</w>
Wo chen
ausgezeichn ete</w>
appreci ate</w>
F T
wn s</w>
R oll
v ar
Sch aden</w>
leb ens
Bi blioth
ol l</w>
P aper</w>
M ang
Besch reibung</w>
inc en
Materi alien</w>
fül lung</w>
eigen es</w>
b ath</w>
offici als</w>
-S ter
B ir
än der</w>
0 5</w>
gr enzen</w>
j ection</w>
automati c</w>
Ru le</w>
Mittel punkt</w>
Lin k</w>
tur ns</w>
artic les</w>
increas es</w>
par lament
pl en
critic ism</w>
übri gens</w>
den den</w>
Mun ich</w>
t ary</w>
M aria</w>
exclu sively</w>
Kateg orie</w>
prä z
B au</w>
mag az
ruhi gen</w>
Sc ot
graph ic</w>
bedau er
ad en
instal liert</w>
C ul
L ord</w>
Ab stimm
ver ändert</w>
M ur
K auf
K y
sch wei
fig ure</w>
m 2</w>
3 ,
wes tern</w>
confir med</w>
Su ite</w>
Char ter</w>
Entschei dungs
kurz em</w>
ob il
invol vement</w>
italien ischen</w>
sat lan
Wer k</w>
Nor men</w>
st ä
hervorra gende</w>
mand ate</w>
li efer
pol lu
B us</w>
Agrar politik</w>
k amp
i red</w>
Wahr heit</w>
mar g
Reg ier
or a</w>
lar gely</w>
f ail</w>
be zug</w>
kün fte</w>
mitt ler
hol ding</w>
Entwicklungs ländern</w>
entwick elten</w>
ti erten</w>
Nach frage</w>
thre at
sp a</w>
bed ro
Nor den</w>
ti s</w>
cre ative</w>
deb ates</w>
P ro</w>
natür lichen</w>
to urs</w>
ier s</w>
w us
Schwe den</w>
sc lub</w>
obst ac
Ein stellung</w>
depen dent</w>
Kap az
tick ets</w>
happ ens</w>
an e
determin e</w>
An griff</w>
Verbesser ungen</w>
be deuten</w>
um n</w>
zentr alen</w>
fi </w>
L ou
re ds</w>
privil eg
besit zen</w>
teil nehmen</w>
sug gest</w>
erheb lich</w>
feh l
cy cle</w>
es -
re m
Rau m
s we
n de</w>
e. g.</w>
dischar ge</w>
Wis senschaf
peri o
enth usi
C O</w>
e as</w>
grundleg ende</w>
Berat ung</w>
pro file</w>
O ri
gespi elt</w>
Hostel sclub</w>
to b
Sch au
Beru fs
lei sch</w>
bo at</w>
out put</w>
peop les</w>
zw ungen</w>
gen i
bes tim
pf en</w>
ven tionen</w>
tei </w>
is ol
Bei spiele</w>
fi es</w>
Brit ain</w>
Exper ten</w>
D ra
I l
Kohä sions
am tier
and -
ent standen</w>
Jo se
ma ster</w>
rapporte urs</w>
best and</w>
wech sel
Dat a</w>
e ge</w>
um geben</w>
bal con
tre aty</w>
amoun ts</w>
An dre
ass ist</w>
ausgezeichn eten</w>
contri butions</w>
Swe dish</w>
Finan cial</w>
Sch u
e -</w>
tick et</w>
kost et</w>
fru it</w>
s w
liber alisation</w>
St off
sem in
enti al</w>
li ers</w>
Empfeh lung</w>
heav y</w>
ens es</w>
vol ume</w>
US D</w>
Arch i
ep age</w>
g ir
be ge
erweiter t</w>
repe at</w>
Kin d</w>
J </w>
berech tigt</w>
identi al</w>
happ ening</w>
stri c
temper ature</w>
letz tlich</w>
ot echn
dish es</w>
an schließend</w>
umfas sen
v ent</w>
Struktur en</w>
neu esten</w>
th in</w>
wor se</w>
Ratsvor sitz</w>
ey e</w>
b all
t edly</w>
ti erte</w>
conveni ent</w>
P L
ek en</w>
ver langt</w>
ann e</w>
Bef u
W at
Wirk lichkeit</w>
verk ehrs
objec ts</w>
spo t</w>
sp ring</w>
Al b
grat ulieren</w>
tre es</w>
auf zunehmen</w>
gen des</w>
Nah en</w>
prosp er
leav ing</w>
defin e</w>
char ges</w>
alis tischen</w>
Stell ung</w>
ori um</w>
ah nen</w>
1 000</w>
g -
an wes
coun ter</w>
leg ungen</w>
sk y</w>
mean ing
d ritte</w>
icht eten</w>
bemüh t</w>
Bes or
Fo to</w>
che ap</w>
ich erung</w>
kein es
wat ers</w>
Ambi ente</w>
Y u
Über zeugung</w>
ch ain</w>
ausgest att
n ungs
ic king</w>
th e-
I mp
Pf licht</w>
opin ions</w>
or ca</w>
i x</w>
I t</w>
em a</w>
abgel ehnt</w>
R adi
bri ef</w>
ici ous</w>
befür wor
Verk auf</w>
em ed</w>
wachst um</w>
Ge winn
pp en</w>
tr äch
7 00</w>
R h
kon trolle</w>
it ely</w>
än ger</w>
ursprün glichen</w>
fal sch</w>
er maßen</w>
A L</w>
höch sten</w>
sch we
Unter schied</w>
get r
ück e</w>
ger äum
W affen</w>
tra ges</w>
at a</w>
sur v
Proc ed
schön sten</w>
rüst ung</w>
er ter</w>
strateg ies</w>
ran k</w>
m t</w>
restric tions</w>
prei s
resol utions</w>
k ämpfen</w>
ch ap
räsi dent</w>
b lin
resol ved</w>
E T</w>
forder e</w>
omm enen</w>
presi dent</w>
U .
D onn
ob tained</w>
par ents</w>
hab er</w>
ic kt</w>
thir dly</w>
isch ung</w>
kon sequ
zugän glich</w>
dis cipl
help ed</w>
off enen</w>
198 9</w>
weis ung</w>
1 20</w>
kehr en</w>
hund reds</w>
li eb
bri ef
199 1</w>
west lichen</w>
Kri min
PD F</w>
hab t</w>
Be ach</w>
hand els
sat zes</w>
R -
o st
kon tinu
comm and</w>
sch afft</w>
3 D</w>
T ari
ad voc
certain ty</w>
Führ ungs
St atisti
comm un
um zusetzen</w>
produz iert</w>
ph en</w>
Klim a</w>
o po
Wal d
prepar ation</w>
U ser</w>
sp anischen</w>
r ein</w>
Harmon isierung</w>
remo ved</w>
appear ed</w>
t sin
tre at</w>
betreff enden</w>
rupp en</w>
Un gar
Bu cht</w>
Glob al</w>
coll ective</w>
L ob
wettbewer bs
medi um</w>
E ssen</w>
st am
Sch la
kurz fris
depen ds</w>
ver ehrte</w>
ech t</w>
gän ge</w>
Web sites</w>
sch icken</w>
un gef
a ß</w>
sur ely</w>
Projek ten</w>
contrac ts</w>
ass ure</w>
P unkten</w>
C r
bil dungs
ver bringen</w>
compl ain
organis iert</w>
b our</w>
nor mal
T -
off ices</w>
rema ining</w>
M alt
Zer ti
ME Ps</w>
regul atory</w>
X -
v an
Ko operation</w>
communic ations</w>
An bieter</w>
zu legen</w>
vor genommen</w>
ro te</w>
Ab kommens</w>
Dienstleist ungs
Kam era</w>
pro ve</w>
s and</w>
di a</w>
ü sse</w>
de par
ig ner</w>
künf tigen</w>
zi ele</w>
man i
atur en</w>
ich en</w>
f tung</w>
Engl isch</w>
laun ch</w>
h ä
verurs acht</w>
Er leb
Bo den</w>
c en
k ro
Verf assungs
k g</w>
St art</w>
hier zu</w>
prec ise</w>
Tour ismus</w>
for es
St euern</w>
i. e.</w>
def end</w>
voll ständige</w>
Anwen dungs
z ir
Ex press</w>
pro p
stre ets</w>
wirk sam</w>
wi tn
ob jek
cre ates</w>
per form</w>
kri eg</w>
f ern</w>
post -
Wh ite</w>
V ie
ur a</w>
aut onom
on i</w>
f ted</w>
E D
require ment</w>
Emis sionen</w>
organiz ations</w>
p es</w>
hervor heben</w>
Mitglied schaft</w>
Region al
frei wil
Air bus</w>
invest ors</w>
über nimmt</w>
seh e</w>
un eingesch
jeg liche</w>
ali ze</w>
Min i
20 12</w>
ass ungen</w>
wirtschaf tlicher</w>
Aus führungen</w>
A qu
L ang
durch zuführen</w>
Rom an</w>
bek ämpfen</w>
O R</w>
Frem den
sicher ungs
ge prä
G M
H oll
wirk lichen</w>
Struktur fonds</w>
wirk ung</w>
conflic ts</w>
Krank heiten</w>
lo ok
c e-
inten d</w>
erg riffen</w>
Bestell ung</w>
fle et</w>
Bra si
funktion ieren</w>
sinn voll</w>
tw o-
Mün chen</w>
Jus ti
t emp
rah men</w>
ad ly</w>
sy mb
Po ker</w>
ver stärk
vi eren</w>
Techn ology</w>
masch inen</w>
Altern ative</w>
Änderungsan trägen</w>
Ser bi
GN U</w>
10 .
pro hi
letz ten
impres sive</w>
reich ung</w>
Regis tri
B ack
kontinu ier
invol ve</w>
W ur
di agno
k y</w>
ev en
Ar z
komm e</w>
Ab schnitt</w>
Immobili en
Saf ety</w>
schaf tliche</w>
Daten bank</w>
lau tet</w>
Mas sen
loc ations</w>
aufge fordert</w>
dat en
C oll
identi fy</w>
excep tional</w>
tes te</w>
hil fe</w>
ben utz
0 6</w>
Proced ure</w>
bish eri
th i
nah e
Bade zimmer</w>
n avig
divi ded</w>
oper ational</w>
Masch inen</w>
extre m</w>
ab road</w>
Vorsch lägen</w>
europ a</w>
last ung</w>
me at</w>
lo ck
Li eb
issu ed</w>
Be weis</w>
el er
beglück wünschen</w>
m utz
ati cally</w>
Konfer enz
Wash ington</w>
an en</w>
ell o</w>
Überein stimmung</w>
Sat ell
Ti ef
Ap pl
ult in
Rumän ien</w>
jour ney</w>
di r</w>
fa ther</w>
hö her</w>
Wech sel
ul l</w>
Ak tu
S ME
E ri
Vertei digungs
Croati a</w>
er ör
Stra ß
pass word</w>
1 1.</w>
ehr gei
Geb rauch</w>
schlä gt</w>
V ision</w>
fur niture</w>
äh r</w>
chin esischen</w>
ar ab
sex u
entsp annen</w>
ann ehmen</w>
mus ste</w>
Kon trol
O M</w>
connec tions</w>
oo k
-Ster ne-
ban ken</w>
ei ra</w>
reser ves</w>
ethn ic</w>
zi pl
st ed</w>
h it</w>
Verhand lungs
Verbin dungen</w>
Phi li
W C</w>
reg ularly</w>
er mu
Ausgang spunkt</w>
kar ten</w>
stit utes</w>
Por t
bure auc
don es
gest atten</w>
pal ästinens
decision- making</w>
sch ule</w>
be wäl
viel er</w>
confir m</w>
Entwicklungs länder</w>
effec tiveness</w>
in klu
Partn ern</w>
parli aments</w>
har m
vor her</w>
tri eb</w>
4 3</w>
notwen dige</w>
Fil m
aus geschlossen</w>
Tag ung</w>
system en</w>
T ime</w>
kl assi
ari o</w>
4 4</w>
W are</w>
H ome</w>
awar eness</w>
Pla za</w>
verschied ener</w>
lat z</w>
blu e</w>
freund lich</w>
cust oms</w>
se eing</w>
bestä tigen</w>
Aus nahme</w>
F enster</w>
ot te</w>
Dritt ländern</w>
Haf en</w>
w alls</w>
e eing</w>
Telef on
Well ness
ck et</w>
Dor f</w>
SME s</w>
nachhal tigen</w>
Aus stattung</w>
Am ts
facil itate</w>
Pu tin</w>
sich ere</w>
N ein</w>
fin ished</w>
contin ent</w>
n ischen</w>
Ma astr
min ority</w>
foc used</w>
al ed</w>
itä tsp
österrei ch
illu str
klar en</w>
Künst ler</w>
Ri ver</w>
st opp
main tained</w>
minis ters</w>
F ähigkeiten</w>
the ore
h ence</w>
ing er</w>
zug unsten</w>
ungef ähr</w>
ot ten</w>
gla d</w>
the at
ra k
angemessen e</w>
ter ung</w>
enter tainment</w>
Ex ec
minis ter
besch ränkt</w>
zu zu
schie det</w>
realis tic</w>
n el</w>
Klas se</w>
Str as
Di rek
v ast</w>
Program men</w>
es day</w>
lay ed</w>
а </w>
Bulg aria</w>
Gest altung</w>
durch führen</w>
B a
recommend ation</w>
char ming</w>
Bet ra
d inner</w>
Du sche</w>
verab schiedet</w>
hard ware</w>
Elem ent</w>
statis tics</w>
Aus führung</w>
tn is
fün f
Au stausch</w>
b st</w>
ser viert</w>
subsi dies</w>
Aut o
gespeich ert</w>
ement ary</w>
fri end</w>
bis lang</w>
occa sion</w>
Institu tion</w>
ch ers</w>
et ed</w>
Ratspräsi dentschaft</w>
N etz</w>
El tern</w>
zu ständigen</w>
car bon</w>
S par
ver trag</w>
frequ ently</w>
Konfli kt</w>
il l</w>
wi t
Ver ring
techn ik</w>
Japan ese</w>
S I
ab and
di ed</w>
m ultin
Gre at</w>
e ast</w>
Arbeitsplätz en</w>
hosp it
conduc ted</w>
anspru chs
ey es</w>
rä f
A gri
character istics</w>
Dub lin</w>
electri city</w>
univers al</w>
nahe zu</w>
ann er</w>
bahn hof</w>
sa una</w>
Problem s</w>
hei m</w>
Schwer punkt</w>
con serv
Op tim
d. h.</w>
out door</w>
lan s</w>
emer gency</w>
f it
aus gesprochen</w>
mess ages</w>
produc tive</w>
Gesch m
be zahlen</w>
im es</w>
Po wer
li qui
spec tac
low -
ge prüft</w>
for schung</w>
ek ten</w>
steh ende</w>
D rei
au dio</w>
no ise</w>
ch -
Geor ge</w>
cast le</w>
Ger äte</w>
par ks</w>
Gent oo</w>
frü heren</w>
masch ine</w>
-R e
dem anding</w>
е </w>
überzeu gen</w>
sub mit</w>
o th</w>
Komm un
cle ar
de als</w>
under stood</w>
conci liation</w>
C E</w>
cor ruption</w>
l o</w>
re vis
Kon kur
Ma ß</w>
wel fare</w>
do ors</w>
le ben
k ern
c ab
tro p
Far be</w>
ver wand
grat eful</w>
inf o</w>
congrat ul
ro ads</w>
k ateg
resi dence</w>
Sch ei
Pre mier
we ather</w>
Al ter</w>
G old</w>
cop yright</w>
b un
ak tiven</w>
D ay</w>
ati ver</w>
¤ </w>
defin iert</w>
besch le
man ager</w>
Um gang</w>
Plen um</w>
num mer</w>
An gst</w>
Pol ish</w>
ra d
ber ge</w>
R ed</w>
ans wers</w>
so dass</w>
min uten</w>
m essen</w>
Kro ati
Gleich gewicht</w>
disp layed</w>
T isch</w>
Luxem bourg</w>
verhin dert</w>
In dones
gelief ert</w>
bilater al</w>
ß te</w>
y le</w>
C yp
B ay
Buch ung</w>
Slo v
impres sion</w>
az z
er läu
fast er</w>
organiz ed</w>
sign s</w>
t reiben</w>
M ann
Host els</w>
k rank
en de
igh ted</w>
interess ante</w>
0 2</w>
be an
Somm er
az ier
ver gleich
geh and
Sh op</w>
Prin zipien</w>
A .</w>
prin ting</w>
Sp i
main taining</w>
Fest legung</w>
eu </w>
Vereinbar ungen</w>
K en
Par ti
Wissen schaft</w>
modi fied</w>
fe e</w>
ent wurf</w>
W all
classi c</w>
Kommunik ations
w u
et -
cover ing</w>
ed ing</w>
Schn itt
B la
E s
judi cial</w>
V an</w>
g or
Konta kt
traff icking</w>
Ur spr
kur zen</w>
of s</w>
ver st
nun mehr</w>
top ic</w>
5 .</w>
Rech ts</w>
4 1</w>
r am
de cre
Stra ßen</w>
aus gesetzt</w>
ie den</w>
R S
rech tliche</w>
pi ec
v ölk
al co
Cyp rus</w>
Bemerk ungen</w>
geh ende</w>
coun tr
fac ts</w>
Dro gen
co ast
Verring erung</w>
Ko sten
Bei träge</w>
feh lt</w>
Außen politik</w>
exp lic
Fr amework</w>
V iz
Fr on
sett ings</w>
terror ist</w>
ra el
Veranst altung</w>
Di alog
S au
for th
ta st
So vi
some what</w>
he ber
col our</w>
Regierungs konferenz</w>
Be am
Li by
n etz
K üh
pro ud</w>
res tru
B ö
Ä r
ung sch
k raten</w>
Er holung</w>
R and
gro w</w>
lo h
s ligh
verlei hen</w>
no ted</w>
be vorzu
shor t
d al
Bet re
promis es</w>
ma chte</w>
einzig artige</w>
pollu tion</w>
la m</w>
P ack
Fak toren</w>
an f
tar get
s auber
or -
R et
R evolution</w>
m ar</w>
is er</w>
auf nehmen</w>
Men sch</w>
w asser</w>
Über setz
struktur en</w>
del ighted</w>
Plan ung</w>
Über setzung</w>
Nach richten</w>
Geschäf te</w>
Bezieh ung</w>
dan k
m än
kü mm
E Z
se at</w>
inhab it
re di
über wach
vis a</w>
Can ada</w>
Pu er
Hei mat
imp lic
läss lich</w>
mor al</w>
bloo d</w>
Gesprä che</w>
sin g
dra w
dro p</w>
Geg end</w>
hinzu fügen</w>
s .
fi f
Kompon enten</w>
vis ual</w>
wün sch
v on
ü gen</w>
re turned</w>
lic ense</w>
F lash</w>
Cop enhagen</w>
tic k</w>
func tioning</w>
Aus stellung</w>
Re form
S hi
verring ern</w>
mo dule</w>
F A
erreich bar</w>
expl ore</w>
4 .</w>
Investi tions
Wer bung</w>
Zus atz
fe atur
ursprün glich</w>
in sp
proper ties</w>
Davi d</w>
Fr ont</w>
c af
dar y</w>
id ly</w>
Schl uss</w>
provi der</w>
declar ation</w>
H imm
pas siert</w>
accompan ied</w>
Fit ness
woll ten</w>
E P
Justi z</w>
Minder heiten</w>
wel chem</w>
mo stly</w>
sty l
no w
un möglich</w>
Bes onder
lei sure</w>
lin gen</w>
di tionen</w>
sch ritt
tats äch
M em
Ger ichte</w>
in er</w>
im posed</w>
u. a.</w>
sorgfäl tig</w>
Fir men
letzten dlich</w>
P op
M esse</w>
k el</w>
pro mp
pre dic
ver ändern</w>
own ers</w>
is rael
instal lieren</w>
Jav a</w>
Gesell schaften</w>
lie ß</w>
T ar
cont acts</w>
pro ved</w>
individu elle</w>
activ ely</w>
per formed</w>
begrü ßt</w>
Ver bot</w>
ent steht</w>
US B</w>
chem ical</w>
erleich tern</w>
besteh ende</w>
ausge führt</w>
D ep
stri ct</w>
Hand eln</w>
St e
An merk
Garanti e</w>
gehöri gen</w>
spartn er</w>
form al</w>
hö heren</w>
Ein stellungen</w>
em enti
Bre ak
re ject</w>
P lug
nor thern</w>
Sup port</w>
kat astro
geb oren</w>
indic ated</w>
bu ch
D A</w>
aussch uß</w>
ger ichtet</w>
Mon etary</w>
t ler</w>
ähn lich</w>
Op tionen</w>
I C</w>
up dated</w>
lu s</w>
sätz en</w>
jo ined</w>
pl ug
10 -
Reg ime</w>
invol ves</w>
normal erweise</w>
at e
kt op</w>
k oll
satis fied</w>
direk ten</w>
Ameri kan
dri vers</w>
restru c
Sch ool</w>
schwi er
fol lows</w>
Ein beziehung</w>
bemüh en</w>
c les</w>
KM U</w>
18 .</w>
о </w>
p ft</w>
ut ing</w>
durch schnitt
committ ees</w>
car eful</w>
Al li
po ll
0 3</w>
ex ter
Zi ffer</w>
u ters</w>
Li ef
R ub
Vertei digung</w>
Haf tung</w>
g a</w>
Po st</w>
gel tenden</w>
Deut schen</w>
in ser
ch air
Bu dap
sex ual</w>
demonstr ated</w>
cou ple</w>
än gen</w>
al d</w>
äum en</w>
Platt form</w>
der ing</w>
Ch arta</w>
Be dien
col d</w>
on going</w>
demonstr ate</w>
heu tige</w>
D ek
li erten</w>
rä umen</w>
woh nen</w>
U T
Wün sche</w>
intellec tual</w>
geh ens
Daten schutz
lich sten</w>
gest altet</w>
C er
b emerk
famili ar</w>
c ot
transpor tation</w>
au ern</w>
compet ent</w>
Mac </w>
H al
lok ale</w>
an cy</w>
a gen</w>
k ir
wei le</w>
fiz ieren</w>
Bal tic</w>
pl ays</w>
contr ast</w>
Lu ft</w>
fra g
Tex te</w>
y m</w>
da fri
mon um
Wei ß
t ack
Kil ometer</w>
bestim men</w>
Sta at
Ak tion</w>
St är
gebi ete</w>
fe ed</w>
vor legen</w>
declar ed</w>
fir ms</w>
glob alisation</w>
her z
pres s
ff er
h all</w>
russ ischen</w>
Sub si
Priv ate</w>
tim edi
n one</w>
surround ings</w>
en ergi
si v</w>
ru b
au ßen</w>
sch einen</w>
nah me
G lück
gr ü
4 7</w>
Zy per
W ein</w>
transi tion</w>
speak er</w>
te ams</w>
Hau p
up -
kri ti
Kommission s
l ying</w>
yst em</w>
förder t</w>
Mark tes</w>
A do
Nor di
Appl ause</w>
Mobil ität</w>
st ens</w>
li brary</w>
schle cht</w>
drin k</w>
d ining</w>
f em
akzept abel</w>
V el
Bo x</w>
high- quality</w>
Veröffent lichung</w>
Transpor t
P et
re ported</w>
justi fied</w>
bi ke</w>
bo und</w>
erfolgrei che</w>
mark t
9 -
gew inn
zi ge</w>
betri eb
st amm
Vorsch lags</w>
techni ques</w>
Ab hän
L ev
O l
H ai
p ed</w>
ab gestimmt</w>
me ant</w>
pre fer</w>
perf ekt</w>
ru g</w>
in flation</w>
exper t</w>
dri ver</w>
collabor ation</w>
stor ed</w>
subsi diar
ad or</w>
Vor gehen</w>
ak ter
Portu gu
consider ing</w>
inv ite</w>
passen ger</w>
star ts</w>
tran satlan
ge zwungen</w>
stru g
F unds</w>
Ro bert</w>
B it
Zentral bank</w>
Frei heiten</w>
V ia</w>
B ol
occ ur</w>
sti ll
Ziel en</w>
sett lement</w>
min orities</w>
on ing</w>
peri or</w>
e astern</w>
an er</w>
conclu ded</w>
perc ent</w>
sho wing</w>
My SQL</w>
subsidiar ity</w>
st eigen
äuß ert</w>
win es</w>
expan sion</w>
Bi o
Subsi diar
ge fügt</w>
Mo s
k amen</w>
eed ed</w>
M -
ber aten</w>
pos sibly</w>
4 6</w>
Kon figur
val ent</w>
Sk ype</w>
direk te</w>
con tradi
en zi
ran g</w>
acc o</w>
Vi et
a g</w>
H it
d less</w>
bur ger</w>
s ac
S emin
credi bility</w>
erinn ert</w>
Geh eim
Stru c
Grün dung</w>
Tel ek
den kt</w>
beträ ch
ein ig</w>
St ück</w>
determin ation</w>
bri tische</w>
clu bs</w>
tour ists</w>
ass ets</w>
D ü
Brazi l</w>
Poli tiken</w>
ou b
f lights</w>
C N
remo te</w>
tack le</w>
he ating</w>
lief ert</w>
Untersuch ungen</w>
a is</w>
US S</w>
h am
Um feld</w>
person en
benef ici
ra in</w>
verschied en
Tra g
einhei tlichen</w>
S eg
entscheiden de</w>
Gerichtsh of</w>
P act</w>
Qu ali
cri mes</w>
docum entation</w>
imm igrants</w>
inhabit ants</w>
in en
beg eist
f lug
c utting</w>
piec es</w>
präsen tieren</w>
configur ation</w>
far m</w>
f rüh
Ac t</w>
g old</w>
Chanc en</w>
res istance</w>
Hei m
zentr al</w>
wid ely</w>
ex por
Chin as</w>
par tly</w>
resp ected</w>
hoff entlich</w>
A v
Stu denten</w>
proz esses</w>
conf ron
Ar ab</w>
ori ented</w>
lig ent</w>
verur teilt</w>
ear th</w>
last ing</w>
regar ded</w>
Berei t
ta gen</w>
Aus gabe</w>
ent -
gr ant</w>
rap idly</w>
ges u
dür fte</w>
Ver pack
mas sage</w>
uli ert</w>
Identi tät</w>
R ek
bed room</w>
or ts</w>
Ver trieb
K ing</w>
Ac tion</w>
bezieh ungen</w>
wer tung</w>
Besor gnis</w>
l ust</w>
äuß ern</w>
A h
ameri ka</w>
m ation</w>
Kon sens</w>
on ien</w>
fant astic</w>
is lands</w>
g al
her itage</w>
Schlaf zimmer</w>
ow ner</w>
zü ge</w>
Sp eci
drück t</w>
new sp
erheb liche</w>
U -B
ro t
ici p
Arbeits markt</w>
I I
Th omas</w>
str onger</w>
in mitten</w>
sa ving</w>
c able</w>
Def iz
program ms</w>
wach sen</w>
re main
in ts</w>
constitu tional</w>
A ID
hin zu</w>
gewähr t</w>
d ating</w>
Re de
educ ational</w>
M eg
as sum
s ön
ra w</w>
sen sible</w>
ver dient</w>
met al</w>
vis ory</w>
den z</w>
organis ieren</w>
lis ts</w>
me e</w>
ö t
er setzt</w>
tor al</w>
assu me</w>
fre m
Sign al</w>
over come</w>
UN -
bek ämpfung</w>
mot or</w>
tax ation</w>
El ec
ver halten</w>
t ari
loy ment</w>
verk aufen</w>
care er</w>
bek annte</w>
Einwander ung</w>
Hoh en</w>
wh ol
argum ent</w>
vie wed</w>
reduz ieren</w>
Sovi et</w>
Son ne</w>
vorhand enen</w>
ro b
j ap
ver an
empf oh
zeich nis</w>
alb um</w>
R und
es ch
Web seiten</w>
Krä fte</w>
A sh
em en</w>
re plac
f ur</w>
after noon</w>
Portugu ese</w>
Zw ecke</w>
Sp azier
val ley</w>
y ers</w>
high ligh
fa vor
betri eben</w>
Euro pol</w>
Aufenth al
trans actions</w>
mo tiv
strateg ischen</w>
spo ken</w>
S z
beru ht</w>
basi er
Rechn ungsh
sch eme</w>
f ot
boo t</w>
Mitarbei tern</w>
größ er</w>
zu fried
dep th</w>
eth eless</w>
event ually</w>
it al
an de</w>
geh enden</w>
Ver breitung</w>
Ver sionen</w>
D ynam
beschäf tigen</w>
einfach er</w>
ab gesehen</w>
exc iting</w>
legitim ate</w>
erst mals</w>
dist ingu
individu ellen</w>
Sa una</w>
C ook
arri ve</w>
relax ation</w>
kontak tieren</w>
außerord entlich</w>
aus sprechen</w>
fes tival</w>
Prei sen</w>
Ado be</w>
ä r</w>
sti g</w>
Bemerk ung</w>
mari time</w>
sta at</w>
L os</w>
coll ec
be währ
non etheless</w>
dau er</w>
K i
gener ated</w>
il d</w>
record ed</w>
di ch</w>
magn ific
ex it</w>
ch st
des ired</w>
is ting</w>
reserv ations</w>
wom an</w>
ci </w>
d opp
bo ten</w>
S ony</w>
rech tzei
zusammen arbeiten</w>
lä ßt</w>
wir eless</w>
verk auft</w>
Br and
el se
emerg ing</w>
Asi en</w>
c ell
found ation</w>
f äh
Studi en</w>
A C</w>
liber al</w>
Wer t
bed rooms</w>
l ac
ver hand
ci ti
chann el</w>
Mar ina</w>
ackno wled
K er
ahr t</w>
groß zü
Lie be</w>
wiederhol en</w>
zu gang</w>
occa sions</w>
Exec utive</w>
satisfac tion</w>
genü gend</w>
ange gebenen</w>
üh r</w>
5 2</w>
Can on</w>
K n
new ly</w>
F ischer</w>
fas h
W ich
Pra gue</w>
ab gesch
E-Ma il-
Kapit el</w>
fash ion</w>
on ym
Krank heit</w>
k a
j enen</w>
Des k</w>
wissenschaf tliche</w>
begren zt</w>
l ets</w>
p unk
M ed
g allery</w>
oh n</w>
adop ting</w>
contain ing</w>
encour aging</w>
bek räf
sel be</w>
Mex ico</w>
A ward</w>
amet ers</w>
Win d
C ur
. org</w>
correc tly</w>
ag ers</w>
T op
hin aus
Israel i</w>
winn ing</w>
Autom obil
an hand</w>
Ar t
verantwor tungs
N ic
K yo
verbin den</w>
vis ited</w>
der er</w>
profession als</w>
tradition elle</w>
z ungen</w>
ser s</w>
l ots</w>
Kontrol len</w>
ac ted</w>
ab sen
effek tiv</w>
b ou
awar ded</w>
sp on
mat ch</w>
hier für</w>
с т
PP E-
sen ding</w>
br ut
K urs</w>
supp liers</w>
mi et
F err
Balk on</w>
einger eicht</w>
inklu sive</w>
is te</w>
vor stellen</w>
eb ung</w>
unver züglich</w>
Erzeu gnisse</w>
y outh</w>
An schluss</w>
ähr t</w>
m ol
is mus
cent ur
d eine</w>
f loo
statt dessen</w>
Sor gen</w>
Energi ever
iel d</w>
chann els</w>
entwick elte</w>
viel es</w>
ten nis</w>
Wer ke</w>
vor ran
Vor stellung</w>
wher eas</w>
ti an</w>
certi fic
zi el</w>
Z eu
ver stärken</w>
destru ction</w>
fäl lig</w>
Rep res
stu dio</w>
mittler weile</w>
wid met</w>
pu ts</w>
constitu tion</w>
schl ag
ähn liche</w>
Hung ary</w>
gel n</w>
correspon ding</w>
Stock hol
func tional</w>
Men sch
Fr au
15 .</w>
sk o
h ü
auf s</w>
ehol ders</w>
Gew icht</w>
H an
shar es</w>
B IP</w>
bot tom</w>
decisi ve</w>
else where</w>
12 .
he at</w>
soli d</w>
F as
shar ing</w>
gra f
N ig
vis iting</w>
Nach richt</w>
ck er
Tre k</w>
leh nung</w>
re placed</w>
H all</w>
New sletter</w>
System en</w>
plen ary</w>
vor bereitet</w>
appear ance</w>
Kon zep
Besch luss</w>
si erte</w>
gebi eten</w>
spra ch</w>
m ein
an gewand
5 1</w>
zei ge</w>
Kyo to</w>
ber ühr
quar ter</w>
D enk
M B</w>
Sek toren</w>
französ ische</w>
Vor sitz</w>
Bel ast
sich eren</w>
wa ff
n omin
subsi di
behavi our</w>
loss es</w>
net er</w>
Arz nei
be u
er ischen</w>
bel ast
B and</w>
7 2</w>
citi zen</w>
prepar ing</w>
Budap est</w>
Ein w
d ol
N I</w>
8 6</w>
herr scht</w>
provi ders</w>
2. 0</w>
R oom</w>
Balk ans</w>
IC H
Tai wan</w>
Kon stru
interpre tation</w>
look ed</w>
zü gigkeit</w>
finanz iert</w>
de partment</w>
Bedro hung</w>
Schluss folgerungen</w>
ti ere</w>
ex ports</w>
Au ge</w>
jen er</w>
ig sten</w>
Prot ection</w>
identi fied</w>
ban k
Schul en</w>
े </w>
di gn
Ch urch</w>
wür digkeit</w>
a gem
ist a</w>
su ites</w>
ehm ern</w>
er schi
Mo z
L t
gh ter</w>
person nel</w>
manufactur er</w>
offizi ellen</w>
Comp uter
ti que</w>
end ung</w>
renov ated</w>
D al
schrift liche</w>
Con gress</w>
pf lan
anc ing</w>
spann ung</w>
ser ving</w>
entran ce</w>
ven tion
z ten</w>
st em</w>
enth alt</w>
Stand or
stre ben</w>
regar dless</w>
erfolgrei chen</w>
S V</w>
compon ent</w>
mi x</w>
volun tary</w>
Bereit stellung</w>
er lebt</w>
li ft</w>
cu ts</w>
appl ying</w>
t liches</w>
glau b
Bo sn
Sit u
Ear th</w>
0 4</w>
ban king</w>
gew onnen</w>
Fri day</w>
tro ub
g age</w>
spar en</w>
Belgi um</w>
betei ligen</w>
schätz ung</w>
ens ures</w>
Städ ten</w>
vac ation</w>
ro ck</w>
inclu sion</w>
pl ate</w>
E B
entscheiden der</w>
up dates</w>
ein m
her zustellen</w>
Pro fession
x es</w>
ro utes</w>
Z ür
Re duz
Z ul
cro ss</w>
distri buted</w>
Sch lu
P ay
ex emp
aus ser
wer ken</w>
P lätz
T enn
bei getragen</w>
defic it</w>
hän gen</w>
rück e</w>
Eisen bahn
ed -
cont ex
vulner able</w>
Zw ischen
T est</w>
T ru
schn ei
sim ult
gew issen</w>
un be
ruhi g</w>
bestimm ter</w>
f un
th ly</w>
O ne</w>
Rechts grundlage</w>
Al le</w>
Ern ähr
R est</w>
K as
E dition</w>
anwes end</w>
Män nern</w>
fer tigen</w>
mp ft</w>
R om</w>
ling s
d ation</w>
L ö
es cap
exam ine</w>
ad o</w>
gh ly</w>
groß em</w>
arti st</w>
- based</w>
Malt a</w>
Mar ke</w>
exc essive</w>
propos es</w>
proc eed</w>
F ei
Joh ann
m ern</w>
I V
G las
di vision</w>
gef angen</w>
B lack</w>
addres ses</w>
stan de</w>
steh e</w>
balcon y</w>
propos ing</w>
it a</w>
Pak ete</w>
du l</w>
ro s</w>
to wns</w>
O ld</w>
gebo ten</w>
them e</w>
Kon sult
enh ance</w>
inter ior</w>
besch rieben</w>
Ha ar
shi pping</w>
Kur z
th es
Er stellung</w>
dies bezüglich</w>
Katastro phe</w>
Vor der
origin ally</w>
elektron ischen</w>
mo ther</w>
erzeu gt</w>
bel angt</w>
Ko oper
Benutz er
cas h</w>
C ri
Wohl stand</w>
im por
su gar</w>
sol ches</w>
P R
ri ebe</w>
Th urs
V AT</w>
Minister p
facil ity</w>
b sp
Er wä
st ück</w>
schri ft</w>
plan et</w>
ver mitteln</w>
ge kenn
interess ant</w>
Fre unden</w>
la ys</w>
in k</w>
K auf</w>
Genehm igung</w>
An sichten</w>
st olz</w>
F ris
CO M</w>
kon fron
Kon text</w>
en kt</w>
M all
s op
Mang el</w>
best ellen</w>
st euer</w>
im pose</w>
Waff en
sch ed
bl ing</w>
every body</w>
quar ters</w>
einge halten</w>
avo i
kehr t</w>
we ge</w>
Ass embly</w>
integri ert</w>
lan ce</w>
Besch lüsse</w>
exc eption</w>
ehr t</w>
dustri e</w>
Hung arian</w>
Ham as</w>
geb rau
res ear
pack aging</w>
fol glich</w>
cir cul
S atur
stra fe</w>
Konsequ enzen</w>
en ger</w>
zu lässi
Geschä ft
J ac
inv est</w>
r on</w>
gener ate</w>
ma kers</w>
Bar s</w>
Sta ates</w>
mensch liche</w>
Medi en
Ein heit</w>
S M
län g
shor t-
sel s</w>
an wen
il ed</w>
langfris tig</w>
inves tieren</w>
Nor thern</w>
komm un
pro ven</w>
gef äl
zu tage</w>
f en
am az
A re
zi elen</w>
S ha
ru f</w>
isten z</w>
fit ness</w>
in k
kl eines</w>
Struc tural</w>
extra ordinary</w>
k lim
pol y
ar my</w>
F a
ber at
Regier ungsch
subst ance</w>
re cip
imag ine</w>
mil k</w>
Wi r</w>
tob acco</w>
dr ing
ab use</w>
lo unge</w>
au to
Pres s</w>
Mis sion</w>
s man</w>
pl or
host el</w>
Lissab on-
suff er</w>
In f
sta un
optim ale</w>
D ach
b attle</w>
Break fast</w>
bedeut ende</w>
enst adt</w>
con fer
beh örde</w>
dis k</w>
fil ms</w>
fil ter</w>
Vide o
behand lung</w>
beantwor ten</w>
electri c</w>
§ </w>
Z one</w>
al itäten</w>
p ac
bed ing
ver än
Distri bution</w>
individu ell</w>
cour ts</w>
T on
ell ers</w>
cor ner</w>
ab ol
sligh tly</w>
wiederhol t</w>
cour age</w>
E ch
accur ate</w>
decor ated</w>
Viz ep
zi el
an belangt</w>
bereit gestellt</w>
S icherung</w>
Polizei </w>
ap p</w>
appoin tment</w>
W LAN</w>
H en
attemp ts</w>
cos y</w>
wirtschaf tlich</w>
Ein kommen</w>
beob achten</w>
st ag
ger eg
Bild schir
e ties</w>
sav ings</w>
zu ständig</w>
Glaub würdigkeit</w>
fer nen</w>
hin gegen</w>
ü bt</w>
Ber n
less ons</w>
car rying</w>
pl enty</w>
her vor</w>
er hielt</w>
poli tically</w>
sozi aler</w>
Pot enzi
fu sion</w>
vor anzu
ein bezogen</w>
E W
Euro zone</w>
o tive</w>
on e
Ungar n</w>
Gol d
complic ated</w>
R in
pat ent</w>
auth en
il le</w>
Dem on
Über legungen</w>
b atter
dom ain</w>
countr y
wei len</w>
Ä gyp
all zu</w>
An la
du ties</w>
sec ret</w>
über sch
5 4</w>
gri ffe</w>
li ger</w>
of t
gesund heit</w>
absen ce</w>
am b
4- 0
re min
berei chen</w>
Wachst ums
hous ing</w>
Posi tionen</w>
speich ern</w>
L oun
ange geben</w>
Mark eting</w>
í </w>
z onen</w>
defin itely</w>
Is lam</w>
kri eg
gr ati
lab el</w>
vi erte</w>
ge fallen</w>
W äl
k ö
off ic
D auer</w>
Betra g</w>
styl ish</w>
sch e
E E
Eng ine
Atlan tic</w>
effizi ent</w>
for ests</w>
sol ely</w>
E d
demo kraten</w>
direc ted</w>
ger ät</w>
Kolleg in</w>
Vier tel</w>
pic tur
represent ation</w>
Zivil gesellschaft</w>
ra ising</w>
star s</w>
ann i
D res
ge führten</w>
weit gehend</w>
hervor ge
Inter essen
einzig ar
St ei
n ör
ti s
ll er</w>
Mr d.</w>
mil es</w>
Geb ur
Gegen stand</w>
dru g</w>
Bud gets</w>
ap s</w>
am ed</w>
Tour isten</w>
supp lies</w>
concep ts</w>
Woh nung</w>
ausge zeichnet</w>
great ly</w>
ni er</w>
supp lier</w>
be ut
el i
stra h
tri al</w>
M ei
top ics</w>
r ental</w>
vir tual</w>
und oub
sub jects</w>
ier tes</w>
conn ect</w>
Ger ech
lü ssel
den de</w>
f li
iz za</w>
ur teilung</w>
port al</w>
f ans</w>
Proz esse</w>
Lat e
Lief erung</w>
gen ehm
us ern</w>
s .com</w>
gel ingt</w>
pursu e</w>
is men</w>
Apart ment</w>
6 .</w>
Bulg arien</w>
Mor gen</w>
Li fe</w>
ein zur
ali for
T reib
N os</w>
verbin det</w>
sugges tions</w>
blo g</w>
einzig artigen</w>
fu er</w>
im ports</w>
Vor haben</w>
ch es
V ater</w>
Up date</w>
Musi c</w>
coll ap
em b
fl at</w>
lü ck</w>
R ati
Maastr icht</w>
gest attet</w>
Kon to</w>
m use
Thurs day</w>
C l
harmon isation</w>
lang sam</w>
Gewähr leistung</w>
Kor ruption</w>
t ö
langfris tige</w>
g oo
17 .</w>
alis ierten</w>
far ming</w>
flo ws</w>
in sofern</w>
Ger ät</w>
in put</w>
hei m
ge o
stra ight</w>
Ein wohner</w>
S ev
B C</w>
off ene</w>
Salz burg</w>
rec y
Ver zö
mittl eren</w>
won der</w>
wirk sam
J ames</w>
In tel
e z</w>
Mod elle</w>
z -
ul ated</w>
ut tle</w>
argum ents</w>
tim et
cons ent</w>
ges s
en abled</w>
verb undenen</w>
-F i</w>
Cli ent</w>
si ghts</w>
reduz iert</w>
mar ri
every day</w>
adul ts</w>
E X
gestell te</w>
er setzen</w>
B rei
speci fied</w>
Tran sa
Cust om
Reduz ierung</w>
we ar</w>
gebil det</w>
B y
qu is
ausger ichtet</w>
wunder schönen</w>
refer endum</w>
ni veau</w>
ver sichern</w>
í a</w>
Gra d</w>
problem e</w>
spectac ular</w>
et ter</w>
T om
F ru
äum t</w>
u a</w>
p ush</w>
en ne</w>
bab we</w>
g ained</w>
recei ving</w>
Ent lastung</w>
ger äte</w>
ab sor
Sch en
P ort</w>
Dat ei
ge plan
gr ös
sch m
ri c</w>
ren owned</w>
über greif
Ver trau
Kultur en</w>
ent rep
difficul ty</w>
tr end</w>
ma chten</w>
N O
Gef ahren</w>
Qu ad
beein träch
ef t</w>
auf treten</w>
Dol om
mus sten</w>
isl am
anges ehen</w>
är kt</w>
verkehr s</w>
20 -
bet reiben</w>
mo dell</w>
C S</w>
Kroati en</w>
dep end</w>
prosper ity</w>
f es</w>
D N
entsch lossen</w>
7 1</w>
four th</w>
Schlü ssel</w>
relig ion</w>
s -</w>
zukünf tigen</w>
wei ch
on er</w>
co w</w>
gün s
le u
compar ison</w>
introduc ing</w>
glie der</w>
S ie
Nach hal
ber gen</w>
An lass</w>
ri ft
militär ische</w>
Elek tro
Brasi lien</w>
continu ous</w>
C F
Kontak te</w>
hol ds</w>
lie ber</w>
R ef
depar ture</w>
größer es</w>
Auf sichts
weis ungen</w>
G -
künf tige</w>
dis abled</w>
LA F</w>
L as</w>
Internet -
Gaz a</w>
Land es
is ted</w>
Stoff e</w>
direc tory</w>
lauf enden</w>
en abling</w>
16 .</w>
7 .</w>
Schi ffe</w>
ver teilt</w>
ag ent
Rech t
unver gess
tradi tions</w>
jed enfalls</w>
uni versity</w>
rei ter
pre t
magnific ent</w>
inter nen</w>
Prak tiken</w>
satisfac tory</w>
pay ing</w>
f a</w>
revol ution
ro ot</w>
zentr en</w>
fer tig</w>
verfüg baren</w>
co operate</w>
IT -
necess arily</w>
d ance</w>
C le
tra ge
ge dacht</w>
s elling</w>
Völk er
hand le</w>
9 2</w>
E p
accord ingly</w>
sugges ted</w>
Eigent um</w>
gesch ichte</w>
s .</w>
Lebens mittel</w>
sc ene</w>
st sein</w>
Er füllung</w>
th and
sk a</w>
lab elling</w>
umfang reiche</w>
pl atte</w>
H i
it ra
fin ish</w>
gar dens</w>
utt gar
Sp aß</w>
einzu setzen</w>
port folio</w>
betreff end</w>
Dom in
promis ed</w>
Bo ot
Vor aussch
be endet</w>
hund red</w>
Comm un
be vor
Fir st</w>
un ited</w>
BM W</w>
w ahl
G ut
Wi -Fi</w>
at tri
Energi en</w>
unterst reichen</w>
al ties</w>
6 8</w>
ar ding</w>
moment an</w>
vertei digen</w>
Moder n
Ver lust</w>
fant as
Ent fern
erkenn t</w>
im port</w>
sover eign
staat lichkeit</w>
ordn ungen</w>
over view</w>
Proz esses</w>
Al ger
behaup ten</w>
schi eben</w>
Kop f</w>
thous and</w>
G au
F ig
prev enting</w>
ver mut
konfron tiert</w>
Ver trag
Bo den
S timm
en cing</w>
signific ance</w>
Gef än
St uttgar
ev al</w>
L as
geh ol
low ak
constitu te</w>
Wirtschafts wachstum</w>
g am
oblig ed</w>
fr ame</w>
ränk ung</w>
ch amp
soli di
ern e</w>
ver län
unic ations</w>
ut ation</w>
Stras bourg</w>
S ad
succ eed</w>
arti stic</w>
ausge geben</w>
militär ischen</w>
führ ungs
Verletz ung</w>
Gerech tigkeit</w>
aktivi ert</w>
negoti ating</w>
dau ert</w>
per mitted</w>
inv ited</w>
al located</w>
pati ent</w>
hochwer tige</w>
ha ir</w>
be kommt</w>
gemein schaftlichen</w>
Net work</w>
institution elle</w>
Bud get</w>
philosoph y</w>
well- known</w>
soci eties</w>
ange passt</w>
in ev
Mill enn
jur is
gesetz ten</w>
W ill
Sp ace</w>
au ff
af for
Konkur ren
effizi enz</w>
zu lassen</w>
un zur
un for
fish er
Über gangs
s low</w>
freed oms</w>
projek te</w>
ent gegen</w>
auth ori
vorzu legen</w>
centur ies</w>
ik er</w>
N on-
Organ e</w>
m -
Slo ven
IN G</w>
the ory</w>
F al
M ut</w>
du mp
personen bezo
environ ment
y o</w>
konzentri ert</w>
Su iten</w>
unterschei den</w>
The ater</w>
super vision</w>
gn is
tä glichen</w>
wirk same</w>
lau b</w>
Ab en
p ing</w>
p ure</w>
strateg ische</w>
erhö h
Park platz</w>
ver i
ehr ten</w>
l y-
ab stimmen</w>
illeg alen</w>
n i</w>
unabhängi gen</w>
Ch eck-
x el</w>
simult ane
Ger icht</w>
organ ic</w>
prak tische</w>
Ex change</w>
si t</w>
re vision</w>
n y</w>
zukünf tige</w>
ech ische</w>
a w
Res ol
ge geben
ful fil</w>
Perspek tive</w>
ar gu
la stly</w>
eu ch
grün den</w>
lay er</w>
we ak</w>
spo ke</w>
best ell
8 .</w>
hy dro
forc ement</w>
Kör per
rel ative</w>
norm ally</w>
wirtschaf ten</w>
e able</w>
C R
undoub tedly</w>
unter zeichnet</w>
Audi tors</w>
z in</w>
Americ ans</w>
drin ks</w>
M erc
j unk
spre che</w>
Fahr zeuge</w>
lo ck</w>
ri ffe</w>
Re zeption</w>
confir mation</w>
lo vely</w>
leg ally</w>
Situ ationen</w>
Puer to</w>
Deb i
sto ßen</w>
perio ds</w>
G lück</w>
mitt eilen</w>
Menü </w>
vorgeschla gene</w>
Ra dio</w>
boo k
p m</w>
Val ley</w>
Vide os</w>
ungs verfahren</w>
Egyp t</w>
gehens weise</w>
az za</w>
sum m
Di kt
wel com
ar med</w>
speci alist</w>
Donn er
s ung</w>
forth coming</w>
har dly</w>
klär ung</w>
estim ated</w>
w rote</w>
ac tors</w>
Ma il</w>
ub </w>
NG Os</w>
E M</w>
sustain ability</w>
sel ten</w>
unabhängi ge</w>
6 6</w>
effizi ente</w>
Ima ge</w>
ski ing</w>
test ed</w>
H under
Am t</w>
an zen</w>
Person al
produc tivity</w>
as en</w>
program ming</w>
as es</w>
t less</w>
Provin z</w>
Kom pl
campa ign
tu ally</w>
n a
P y
l assung</w>
ol o</w>
Bro wser</w>
u el</w>
P fer
der e</w>
ref ers</w>
Weiter en</w>
Ver einfach
Tä tigkeiten</w>
A D</w>
vorgeseh enen</w>
an gebracht</w>
Zu sch
ati </w>
fähi gen</w>
Num mer</w>
Zustän digkeit</w>
public ation</w>
er gibt</w>
an schließen</w>
sicht bar</w>
et ab
Geschm ack</w>
mi en</w>
ris t
coun ts</w>
Gr an</w>
no tic
Red ner</w>
ari ties</w>
Wider spruch</w>
es que</w>
Islam ic</w>
Ver arbeitung</w>
a ward</w>
E i
U. S.</w>
Kris en
Schi ff</w>
ex trac
Prof essor</w>
bisheri gen</w>
she et</w>
fir mly</w>
Übernach tung</w>
M O
ä fen</w>
Aut or
ver dienen</w>
Sch ne
beh oben</w>
gr enze</w>
enh anced</w>
zi vil
Ger man
angebo t</w>
E V
E s</w>
ge pf
samm eln</w>
dest in
Nachbar n</w>
Belgi en</w>
func tionality</w>
Mob ile</w>
anzu zeigen</w>
rei cher</w>
leh nen</w>
colour s</w>
P RO
dic tion</w>
welcom ed</w>
unter liegen</w>
F eld</w>
An stieg</w>
Grü nen</w>
mi d-
leav es</w>
proceed ings</w>
gar ten</w>
unzur eich
re marks</w>
instruc tions</w>
in hal
N eben
bew u
barri ers</w>
contri buted</w>
ger ing</w>
acc eler
5 6</w>
wieg end</w>
ange kün
M ärkten</w>
Ter rit
al ong
Fin land</w>
Ab lehnung</w>
de posit</w>
sch em</w>
sto cks</w>
Per sön
Geh minuten</w>
las h
oper ative</w>
in j
k örper
b ungen</w>
W eg
voll ständigen</w>
Tha il
z ed
be ur
Stro m
th umb
A R</w>
P läne</w>
hil frei
mod ules</w>
distri but
pos ing</w>
ir ing</w>
wa ffen</w>
Kon ver
o zone</w>
destro yed</w>
über prüft</w>
Im pl
natür liche</w>
win dows</w>
T own</w>
eri ode</w>
en em
Soci alist</w>
leg te</w>
un like</w>
m ass
herunter laden</w>
besonder er</w>
str onom
safegu ard</w>
realis e</w>
empf angen</w>
EC B</w>
air -
S A</w>
po t</w>
abil ität</w>
obstac les</w>
b ann
10 0
ir s</w>
lat t</w>
stre am</w>
sy mbol</w>
bar es</w>
gewähr en</w>
bein gs</w>
ar ise</w>
coordin ated</w>
indic ate</w>
stat e-
Kommission spräsi
Aus flüge</w>
vill ages</w>
wi es
geb eten</w>
wech sel</w>
b emer
kön nt</w>
unfor get
u pper</w>
vers ary</w>
t ables</w>
Krieg s
Beh inder
si erten</w>
comb ine</w>
suff ered</w>
endor se</w>
gemein schaft</w>
R ö
Frei zügigkeit</w>
itt ed</w>
z auber
Regierungsch efs</w>
A F
accept ance</w>
enh aus</w>
am t</w>
Sp ir
F ax</w>
I W
dank bar</w>
t elec
ab sur
u ph
Verk ehr
konkre t</w>
d able</w>
Donner stag</w>
wa ve</w>
Bevölk erungs
k illed</w>
L O
Sp eich
s q
Pat ri
spar tei</w>
may be</w>
k el
kontrol lieren</w>
Ser bia</w>
vor liegende</w>
bra chte</w>
Veränder ung</w>
öff nung</w>
recogn ized</w>
restric ted</w>
ed y</w>
J ung
Lat ein
be völk
5 3</w>
Gemein schaf
Tr au
n am</w>
Aktionsp lan</w>
ed back</w>
bel ief</w>
Sa chen</w>
L ok
Er wer
AID S</w>
ast er</w>
versi ties</w>
Berlin er</w>
verwal tung</w>
Zei ch
Char les</w>
week end</w>
er freut</w>
por ation</w>
ern t</w>
mi th
unn y</w>
ar bit
Frei tag</w>
Mut ter
am i</w>
Gemein de</w>
geprä gt</w>
bud gets</w>
Haushaltsp lan</w>
C it
Best ä
par ameters</w>
cr yp
P O
P lus</w>
Vor lage</w>
sever e</w>
bon us</w>
hervorge hoben</w>
ex u
Aus maß</w>
Absch affung</w>
Mon it
ger aten</w>
bet ten</w>
disa sters</w>
sch em
st ages</w>
Br un
ade my</w>
Zei tung</w>
Geschä ft</w>
gleich ermaßen</w>
00 1</w>
angeb ot
spieg elt</w>
dienst leistungen</w>
Bör se</w>
sec tions</w>
man aging</w>
E I
luxur iö
co ol
r are</w>
sp here</w>
Tra ining</w>
Resp ekt</w>
Ma ur
ph arm
hom es</w>
M ir
along side</w>
einhei tliche</w>
ernsthaf t</w>
Gesch le
tac kl
in folge</w>
enthal tenen</w>
öffent lich</w>
F ü
tri ps</w>
g ap</w>
explo itation</w>
politi sches</w>
err ors</w>
Finanz krise</w>
Flücht linge</w>
Befu gnisse</w>
bür ger</w>
-Sterne- Hotel</w>
sup posed</w>
conven tional</w>
h ast</w>
er ce</w>
sho t</w>
er wer
tr ends</w>
s ach
mis sing</w>
humanit äre</w>
kl ein</w>
Ne ws</w>
c ells</w>
fe es</w>
wach senden</w>
exc ur
ge plant</w>
Binnenmark tes</w>
um p</w>
schutz es</w>
Er inn
se -
ves sels</w>
remain ed</w>
in er
fu hr</w>
Gleich stellung</w>
or ama</w>
dar gestellt</w>
Tex t
Agri culture</w>
mo vements</w>
har t</w>
La w</w>
em m
Eben en</w>
re mark
vereinbar t</w>
jet zigen</w>
viol ations</w>
consider ably</w>
gro sse</w>
ä le</w>
erwäh nen</w>
Ver halten
di ox
App lik
St ability</w>
ran ging</w>
no tes</w>
Vol kes</w>
investig ation</w>
gui ded</w>
hear ing</w>
ä mpft</w>
ci an</w>
dri ven</w>
po t
deli ber
chec ks</w>
ap ers</w>
vier tel</w>
Bef eh
Feder ation</w>
To ols</w>
expl ained</w>
fai th</w>
S har
ans wer
zu gr
Vic e-
alis e</w>
letz ter</w>
dis cre
Ar mee</w>
exclu sion</w>
vor bei</w>
B lan
In fo
Betei ligten</w>
di n</w>
enk ung</w>
Abhän gigkeit</w>
Ur heber
ri de</w>
par liament</w>
ada pt</w>
contri but
refl ected</w>
I ran
Ger ichts
ssi g</w>
um zu
ver boten</w>
Sch rift
B ang
k tions
Be für
Voraussch au</w>
ar ity</w>
enter prise</w>
Schwei zer</w>
reg ret
4 0
dre am</w>
Feh ler
adap ted</w>
5 9</w>
ill ar</w>
so genannten</w>
Get rän
country side</w>
4 ,
nach drücklich</w>
hervorra genden</w>
N ice</w>
ätz en</w>
r or</w>
ti ef</w>
l unch</w>
cl asses</w>
canc er</w>
A z
trav elling</w>
bestimm ungen</w>
uni versities</w>
por tu
men ade</w>
bege g
th ers</w>
Inform ation
A sian</w>
k üh
refl ects</w>
L icht
13 .</w>
sa ved</w>
Bet ten</w>
rä um
l ers</w>
UN ES
Führ er</w>
G or
kateg orien</w>
norm alen</w>
hoh em</w>
muse ums</w>
Y ear</w>
metho den</w>
Mon day</w>
CH F</w>
St euerung</w>
über ein
Berich ten</w>
An kunft</w>
Staats an
D ritten</w>
wi ce</w>
G ames</w>
Qu ellen</w>
beauftrag ten</w>
design s</w>
be danken</w>
fik ation</w>
consul ting</w>
ex zell
kor rig
AC P</w>
10 .</w>
Gar den</w>
internation ally</w>
pan oram
ge fragt</w>
sch reck
über aus</w>
produz ieren</w>
Frühstücks buffet</w>
trans mission</w>
comp act</w>
gewünsch ten</w>
f ährt</w>
wh en
Zah lungen</w>
beg riffen</w>
nieder län
subsequ ent</w>
pri me</w>
Amend ments</w>
au stausch</w>
Po wer</w>
über ein</w>
kon figur
exclu ded</w>
besch ränken</w>
Zu g</w>
mun icip
Play a</w>
aktu ell</w>
wahr en</w>
är ten</w>
ß ten</w>
ga ther
Institu t</w>
unter sucht</w>
f anden</w>
bud sman</w>
Konflik te</w>
Met ro
Hand els</w>
gener ations</w>
flä chen</w>
Hei zung</w>
Sch loss</w>
exter nen</w>
antwor ten</w>
Aben dessen</w>
Georgi a</w>
Liz enz
schn ellen</w>
zusammen zu
Leg al</w>
N am
Imp ul
Commission ers</w>
conc er
ökonom ischen</w>
Bür o</w>
alifor n
M ah
Ti bet</w>
J ack
when ever</w>
Sun day</w>
z eln</w>
er enden</w>
fest zulegen</w>
Erinn erung</w>
dign ity</w>
foot ball</w>
ak s</w>
del icious</w>
pro min
in ess</w>
elek tr
künst ler
Ma j
r d</w>
so unds</w>
as sen
sorg ungs
wi ld</w>
ar tet</w>
lie ß
K ub
luxur ious</w>
än ge</w>
mag ne
j unc
besor gt</w>
b rech
B ut
z iger</w>
restruc turing</w>
st ör
Ber g</w>
12 .</w>
unforget table</w>
resour ce</w>
proto col</w>
leich ter</w>
stan z</w>
ent ary</w>
Krimin alität</w>
wor thy</w>
C up</w>
Kan ada</w>
Rom an
zugr unde</w>
G am
Г </w>
coll ected</w>
ts etzung</w>
einge gangen</w>
Rück kehr</w>
S our
b len</w>
A 5-0
ain ing</w>
im men
cl ause</w>
spir it
geleg te</w>
sp ei
Con su
reli ability</w>
he ut
stre t
freund lichen</w>
n ut
um setzen</w>
charac ters</w>
hei ßen</w>
Al ter
Ge werk
gesch m
well ness</w>
umfas send</w>
Ur sachen</w>
Blo g</w>
entru ms</w>
erweiter n</w>
ent täu
clean ing</w>
C he
beglei tet</w>
analy se</w>
Nahrungs mittel
eh </w>
ali tion</w>
kompl ette</w>
bil d
b enden</w>
l us
stei gt</w>
erst klassi
auf gebaut</w>
Stockhol m</w>
war ning</w>
zurück zuführen</w>
sup er</w>
Ä u
gesch ätz
H- 0
s ought</w>
D än
S w
ber ich
ergän zt</w>
einzu führen</w>
unterschied lich</w>
Cast le</w>
wel comes</w>
Stand ort</w>
Wik itra
sop his
geeign ete</w>
kor rekt</w>
er fordern</w>
fisher men</w>
Stern e</w>
Kön ig</w>
concentr ate</w>
Masch ine</w>
un ruh
schwer en</w>
appro ve</w>
phen omen
pen alty</w>
S L
Sain t</w>
p ush
ent deckt</w>
ö tz
sovereign ty</w>
b ach</w>
Mark en</w>
ein gestellt</w>
sp ät
exis tiert</w>
target ed</w>
Ver trages</w>
her stellung</w>
Ph ilosoph
ek tion
intel ligent</w>
Ex p
Gesch windigkeit</w>
gener ell</w>
krä f
Taus ende</w>
For mu
Lei tung</w>
H O</w>
lös ungen</w>
Groß teil</w>
Ver teilung</w>
ass ess</w>
Rechts staatlichkeit</w>
believ es</w>
O t
G ang</w>
fest gelegten</w>
V ul
di alog</w>
Is lands</w>
arbei tete</w>
bsp </w>
arbei ts
F ish
Agent uren</w>
inform ationen</w>
geni essen</w>
essen tially</w>
Fak tor</w>
N at
st ür
under taken</w>
h l</w>
heut zutage</w>
sho wed</w>
Volks gesundheit</w>
ro ots</w>
brief ly</w>
democ rati
offizi elle</w>
p ed
tr o</w>
strength ened</w>
Wor t
L ay
Alli anz</w>
sched ul
5 8</w>
li ved</w>
re action</w>
be zahlt</w>
a qu
bour hood</w>
ei gh
po ols</w>
Samm lung</w>
anti cip
won ach</w>
z ieren</w>
st ing</w>
it ar
Gen eva</w>
C P
hei t
sor y</w>
an erk
fem ale</w>
un fair</w>
ess ed</w>
dis krimin
comp uters</w>
athed ral</w>
sto ck
pra g
Loun ge</w>
C ir
Arbeitsp latz</w>
Su dan</w>
Re z
reich s</w>
sophis tic
ein sch
f ing</w>
ge äußert</w>
feder al</w>
perf ekte</w>
is lat
6 7</w>
ö r</w>
Dar stellung</w>
ber ichten</w>
kom fortable</w>
tre e</w>
pres sed</w>
L ad
Balk an</w>
n ische</w>
gest altung</w>
Bud d
Si ed
r t</w>
W är
ris es</w>
Bran che</w>
restor e</w>
em bar
Ex tre
Jahrzeh nten</w>
Fr ist</w>
fair ly</w>
klass ischen</w>
let ters</w>
b utes</w>
lä t
Dre h
no body</w>
abl eh
arri ved</w>
S mo
A M</w>
po lic
tiv itäten</w>
gi o</w>
blo cks</w>
k i
Uni vers
re construction</w>
EU -R
p her
rä u
bro w
n bsp</w>
ge wich
jo ining</w>
S ohn</w>
sen ken</w>
F ood</w>
vorsch läge</w>
ph ones</w>
S lowak
eb o
non- smoking</w>
Mi ß
A s</w>
mi eten</w>
th u
n ine</w>
shor tly</w>
wes enheit</w>
kern el</w>
Lu f
Pass wort</w>
Reser vierung</w>
t ab
ver weisen</w>
bir th</w>
dec ade</w>
genau e</w>
gest ärkt</w>
wis sen
P hän
Qu elle</w>
m l</w>
Aut onom
Öff nung</w>
empfoh len</w>
N avig
beh err
initi ally</w>
Kredit karte</w>
Rech ten</w>
ange wendet</w>
I ON</w>
S how</w>
ig ar
de fiz
E duc
g lo
verhand lungen</w>
gesetz lichen</w>
scienti sts</w>
H us
Stim men</w>
gesch äf
Bl ut
qu iry</w>
ten der</w>
flu g</w>
T rin
vor nehmen</w>
t ons</w>
musi cal</w>
prin ted</w>
Aus einander
comp ul
symp ath
14 .</w>
Rei sen</w>
transfer red</w>
Val en
a sion</w>
inf rin
Nach t
Berei tschaft</w>
s entation</w>
n ers</w>
ec ological</w>
statt findet</w>
- K
canc ell
I P-
sto ß</w>
f illing</w>
St unden
sen z</w>
qualit ativ</w>
8 8</w>
process ed</w>
dec line</w>
x e</w>
Yu gosla
gan z
C AP</w>
Hoch schul
Re port</w>
portu gi
stamm t</w>
Op position</w>
enter ing</w>
direc tor</w>
As sozi
Pap ier</w>
sit zes</w>
k einem</w>
nütz lich</w>
sicher gestellt</w>
ss on</w>
Fahr t</w>
Cap tain</w>
Ent spannung</w>
stim ul
Proz ess
deep ly</w>
acci dent</w>
si v
dr y</w>
ling u
be enden</w>
anz un
cul tures</w>
zo g</w>
9 3</w>
T or</w>
wal d</w>
Par ameter</w>
r h
mis sions</w>
M A</w>
ck en
Ver mö
di t</w>
offen bar</w>
ass embly</w>
Gener ationen</w>
per cent
BS E</w>
F or</w>
Abge ord
eri en</w>
re pub
supp lied</w>
Ver lauf</w>
fi x</w>
Ma in</w>
un ning</w>
R ab
Gel der</w>
Vereinfach ung</w>
be aring</w>
n ail</w>
gegenwär tige</w>
Mall orca</w>
st atisti
tion ary</w>
v a
post p
Mehr wert
mutz ung</w>
Thail and</w>
bi </w>
V .</w>
ा </w>
Or te</w>
U C
vi </w>
rechtzei tig</w>
aus gaben</w>
fes ten</w>
to ward</w>
M A
G ast</w>
p -
ad ding</w>
Host el</w>
el em
Wochen ende</w>
pro ch
digit alen</w>
Niederlan den</w>
c lin
B üh
Eing ang</w>
ther mal</w>
col on
sau ber</w>
enor me</w>
Umwelt schutz</w>
Deb atten</w>
Ex plor
Ner o</w>
Medi kam
ich ert</w>
F öder
Z un
dist or
prof its</w>
ist ant</w>
я </w>
ir re
pres sing</w>
vide os</w>
Schwi m
ord net</w>
teil s</w>
Wel thand
lear ned</w>
türk ischen</w>
oft mals</w>
Schön heit</w>
yp en</w>
l ec
Invest oren</w>
ste am</w>
neighbo uring</w>
Debi an-
Stär ke</w>
Bes ei
re gu
w ör
qui red</w>
Ma ster</w>
g li
se kre
Berichterstat ters</w>
Viet nam</w>
R ap
5 7</w>
prosp ects</w>
Mut ter</w>
Be wus
i Phone</w>
thre ats</w>
&apos; m</w>
HT ML</w>
Wirtschafts krise</w>
stärk ere</w>
s ah</w>
su it</w>
it en
Wil li
ün s
Te ams</w>
Plan eten</w>
E P</w>
fro h</w>
Proto koll
arbit r
Park plätze</w>
An im
equi valent</w>
fas cin
ück en</w>
manufac ture</w>
Hau t</w>
vor aus</w>
Hand lungs
über winden</w>
will ing
Dig ital</w>
lä dt</w>
fre ely</w>
Kontin ent</w>
high lights</w>
Z ut
T ages</w>
Strei t
p illar</w>
das selbe</w>
Biblioth ek</w>
stei gern</w>
Ver lu
eigen er</w>
beh ält</w>
ir ischen</w>
B ad
Währungs union</w>
lich keits
Er gän
Anwen der</w>
si ed
an son
s z
frü hen</w>
present ing</w>
Di ffer
on ers</w>
Amerikan er</w>
fähi ge</w>
europä isches</w>
fac tory</w>
oper ates</w>
ges ti
Kompet enz</w>
e at</w>
Cat al
\ </w>
EZ B</w>
territ orial</w>
eventu ell</w>
integri erten</w>
dr as
ad ds</w>
re al
coll ect</w>
ges ichert</w>
Fern sehen</w>
Wei h
G lau
t um</w>
A th
gri echischen</w>
her auszu
appropri ations</w>
D ör
suffici ently</w>
EU- Mitgliedstaaten</w>
bewäl tigen</w>
or ation</w>
proz esse</w>
and o</w>
satis fy</w>
in ing
re form
Stuttgar t</w>
B in
lei dung</w>
Ju gend</w>
N ob
ackno wledge</w>
Telek omm
Dokum enten</w>
hospit ality</w>
sha dow</w>
Spei sen</w>
Deut sch</w>
er staun
im peri
derzei tige</w>
App le</w>
L y
Di plom
ach ing</w>
Bestimm ung</w>
Pol y
jud g
ins el</w>
Parlam ente</w>
Mr .</w>
kontrol liert</w>
ak te</w>
ra id</w>
gel esen</w>
n eh
Kü sten
wor st</w>
Stre cke</w>
si gh
tax pay
angemessen en</w>
D eck
ã o</w>
Austr alia</w>
zerstör t</w>
Phot o
fund ed</w>
de ad</w>
Z ins
mitt lung</w>
den jenigen</w>
tr at</w>
S mar
War en
id ents</w>
or dered</w>
Om budsman</w>
pharm ac
every where</w>
Kop enhagen</w>
Fac ilities</w>
produc es</w>
sol ar</w>
rel ates</w>
refer ences</w>
/ /
Pro duz
ep s</w>
hy th
wi des
Besei tigung</w>
Über blick</w>
Er haltung</w>
c on</w>
kon tex
sec ur
effek tive</w>
zur zeit</w>
fas zin
ti sches</w>
maß geb
ti er</w>
zu kommen</w>
Zah lung</w>
urg ently</w>
D ri
Kon gres
C .</w>
propor tion</w>
dafri ka</w>
verk nü
versch är
par t-
Pi azza</w>
Wes entlichen</w>
Wand el</w>
X P</w>
anson sten</w>
CO 2-
unter bro
il ater
ge wer
bel ong</w>
bur gh</w>
Kap ital</w>
pol it
Telekomm unik
K ern</w>
shi ft</w>
O K</w>
wa ge</w>
hi king</w>
rech tlich</w>
Straß burg</w>
er tes</w>
en erg
virtu ally</w>
Administr ation</w>
Pres se
enjo yed</w>
gro ssen</w>
vi rus</w>
tra cks</w>
ver n</w>
audi o
* *
Kir k</w>
tre ff
unn ö
B asi
lin ken</w>
refer ring</w>
Proto col</w>
he ading</w>
Ma y
län dliche</w>
bin den</w>
Kateg orien</w>
geb äu
ul en</w>
über lassen</w>
si zes</w>
Kamp agne</w>
UN O</w>
ch air</w>
pl astic</w>
9 4</w>
Haupt bahnhof</w>
ic y
K öl
Mi et
st ak
P ir
swit ch</w>
pan el</w>
Minu te</w>
е н
sel ber</w>
Registri erung</w>
al le
exec utive</w>
in os</w>
et a</w>
Den mark</w>
bo ards</w>
atta ched</w>
Alex ander</w>
kn app</w>
tem por
Mechan ismen</w>
diplom atic</w>
end sten</w>
am in</w>
inten ds</w>
Bearbei tung</w>
effici ently</w>
L ern
Cor porate</w>
bedeut enden</w>
tu ell</w>
lei sch
heal th
lossen heit</w>
Gal il
ent es</w>
unn el</w>
des k</w>
Projek ts</w>
Ö l</w>
uni form</w>
any where</w>
en ergie</w>
verstän d
st ran
con vic
Potenzi al</w>
fahr er</w>
geograph ical</w>
erzeu gen</w>
k lear
Muse en</w>
emp ha
coher ent</w>
gül tig</w>
Di am
zeichn ungen</w>
s al</w>
Cook ies</w>
sor ry</w>
gradu ally</w>
individu ally</w>
tig keits
Indi an</w>
Län ge</w>
Autob ahn</w>
auf fordern</w>
restor ed</w>
M äd
Her bst</w>
Hel sin
wor tern</w>
eng aged</w>
P las
an zeigen</w>
vorsch lagen</w>
anni versary</w>
herr sch
ent liche</w>
H ong</w>
Christ mas</w>
dig es</w>
h ungen</w>
e dition</w>
Ho li
B ord</w>
m ere</w>
so eben</w>
neg ativen</w>
entscheiden den</w>
besu cht</w>
unter suchen</w>
Gra fi
bew ahren</w>
us age</w>
stric tly</w>
anzu bieten</w>
war ran
il er</w>
ck y</w>
Instru ments</w>
Gemein same</w>
D ingen</w>
son gs</w>
strug gle</w>
Kon zentr
Fran zös
log ical</w>
phenomen on</w>
er re
ot ing</w>
oper ated</w>
ar ising</w>
W ed
A vi
Entwickl ungsh
Mon ten
Flor enz</w>
op en
revol ution</w>
T ool</w>
highligh ted</w>
speci alists</w>
d y
us alem</w>
exec ution</w>
Ri o</w>
f ly</w>
roman tic</w>
Alb um</w>
treat ments</w>
Gu ide</w>
am m</w>
ro lle</w>
6 3</w>
Kandi daten</w>
Ver sorgung</w>
A ri
zw ingen</w>
V ista</w>
Dialog s</w>
z e
K e
ben de</w>
r ut
Funk tions
j i
8 2</w>
- European</w>
6 2</w>
thre e-
Nik on</w>
candi dates</w>
avi ation</w>
8 0
Inn enstadt</w>
Benutz ung</w>
Bedürf nissen</w>
hinzu gefügt</w>
sch mer
te a</w>
dar k</w>
T onnen</w>
eur os</w>
P ul
Zusammen halt</w>
L ic
Jose ph</w>
in spir
langfris tigen</w>
C ot
n ights</w>
stam men</w>
N ep
Sch ick
Küh l
Aus wei
kor rek
radi k
clo sure</w>
ge fasst</w>
mis take</w>
D ritte</w>
Anti -
Todes strafe</w>
198 0</w>
gra d</w>
me ets</w>
Sicherheits politik</w>
Ü bri
tra vel
hon our</w>
reser ved</w>
succ eeded</w>
Auf trags
consequ ence</w>
Mag az
tiv als</w>
occur red</w>
öff n
favour able</w>
under ground</w>
30 .</w>
c ell</w>
wesent licher</w>
pl ötz
illeg ale</w>
aff ects</w>
ah me</w>
Kon g</w>
for ts
Sad dam</w>
Ober fläche</w>
tr e</w>
S enkung</w>
g lied</w>
Her z</w>
Mon tag</w>
S t</w>
ak ia</w>
gew ach
eng ines</w>
G ir
rech nen</w>
est ens</w>
ung laub
Aut os</w>
sor ge</w>
Po int</w>
mit zu
Cha ir
aus el</w>
IM F</w>
herr lichen</w>
7 3</w>
tra gt</w>
ru pt</w>
ver fahrens</w>
verw öh
E A</w>
m outh</w>
be fasst</w>
inspi red</w>
Pres se</w>
g ig
p ä
well en
gekenn zeichnet</w>
oll ars</w>
pre ad</w>
bein halten</w>
Frei zeit
Luxem burg</w>
astr onom
re porting</w>
dam ages</w>
str asse</w>
Augen blick</w>
incre di
Direc tor</w>
ha ft
Be achtung</w>
ant es</w>
wel coming</w>
finanz ieren</w>
Region al</w>
müs ste</w>
kümm ern</w>
rit ter</w>
wirk lichung</w>
Ab ent
wech seln</w>
k reis</w>
son g</w>
g ischen</w>
er wor
wides pread</w>
oc op
Mechan ismus</w>
S W
spezi alisiert</w>
Det ail</w>
verletz ungen</w>
Vertre tern</w>
Hinder nisse</w>
ig i
Ven ice</w>
7 7</w>
Vice- President</w>
rep utation</w>
Str and
Lei p
hy po
therap y</w>
Zu verlässi
o es</w>
incorpor ated</w>
gh äfen</w>
profession elle</w>
alis tische</w>
cli cking</w>
ab end</w>
Hin weise</w>
Ad v
Ac ademy</w>
Spit zen
gro ss</w>
Ur teil</w>
st euern</w>
mar ine</w>
Zür ich</w>
st ur
neu n</w>
wür dig</w>
N T
Li ve</w>
fin ed</w>
del ic
fest zustellen</w>
Indi vidu
lo ser</w>
teach ing</w>
us -
com position</w>
simil arly</w>
p ts</w>
Uni ons
s qu
gesch o
prak tischen</w>
di ert</w>
li able</w>
ver wei
to s</w>
eng age</w>
vor gestellt</w>
sch u
Gep äck
alco hol</w>
b lau
kur s</w>
ur gency</w>
scri pt</w>
tn issen</w>
Fre und</w>
h ef
Mand at</w>
T ok
Belgi an</w>
d ges</w>
ausgewäh lt</w>
Ergeb nissen</w>
integr ate</w>
he ads</w>
S ier
az z</w>
ehr lich</w>
r ant</w>
Staats -</w>
Ägyp ten</w>
pris oners</w>
caus ing</w>
v ation</w>
gi k</w>
Hom epage</w>
ab e</w>
prot ec
resul ted</w>
lab or
unmittel barer</w>
Ver sammlung</w>
er richtet</w>
Jugend lichen</w>
Ver gn
pro sec
cul tiv
berech net</w>
Sy m
ge führte</w>
gefähr det</w>
oper ator</w>
encour aged</w>
facil it
aff ir
quot as</w>
S C
H D
gehand elt</w>
in tim
consi ders</w>
An hör
6 9</w>
movi e</w>
ac quired</w>
rec re
9 1</w>
char akter
particip ating</w>
B O
8 9</w>
Nachhal tigkeit</w>
F ro
in ely</w>
app el
Fl uss</w>
min ing</w>
ik a</w>
An sprüche</w>
St ör
Dritt el</w>
hil l</w>
Finan zi
em ark</w>
ver ank
cam p</w>
or es</w>
Kohäsions politik</w>
co des</w>
mis s</w>
Innov ationen</w>
äl teren</w>
pass ing</w>
man ual</w>
acci dents</w>
müs sten</w>
do s</w>
Über tragung</w>
Ber echn
S ä
ou d</w>
ehr en</w>
K äufer</w>
ं </w>
lig keit</w>
et ten
T O
stitu tion</w>
magaz ine</w>
c lar
m acro
sophistic ated</w>
typ ischen</w>
Beg rün
verl etzt</w>
basi cally</w>
gro wn</w>
H U</w>
A U
geh ei
alis ierte</w>
er schaft</w>
vari ed</w>
angen ehmen</w>
olog isch</w>
Netz werk
Re al</w>
Pat ent
pro vince</w>
compul sory</w>
Pro ject</w>
TH E</w>
komp ati
er ship</w>
mei ster</w>
in her
confi denti
re venue</w>
kon zip
boo st</w>
erklär te</w>
clari fy</w>
angewand t</w>
conver gence</w>
Sou verän
kosten lose</w>
ter ri
a po
g no
Res ult
explan ation</w>
th ou
lab or</w>
grenz ung</w>
wirk liche</w>
stu dent</w>
produk ten</w>
st rei
y ear
st ance</w>
ou ts
am p</w>
gereg elt</w>
rec ording</w>
war tet</w>
ein stimm
O n</w>
S äu
produc er</w>
Mit entschei
fahr t
Pal ästinens
re ti
reich hal
ver sammlung</w>
Wirk samkeit</w>
achiev ement</w>
em pl
medic ine</w>
tra ined</w>
Constitu tional</w>
P eter
beabsich tigt</w>
for th</w>
deck ung</w>
ver li
gewäh lten</w>
ins ist</w>
ergän zen</w>
ha z
beeinflus sen</w>
se u
tag s</w>
at orium</w>
schwieri ge</w>
Satur day</w>
angeneh m</w>
S AP</w>
An meldung</w>
subsequ ently</w>
seek s</w>
beantwor tet</w>
beg ins</w>
symb ol
5 ,
air ports</w>
Prä senz</w>
hi dden</w>
d ollar</w>
B 5-0
gen z</w>
Premier minister</w>
willing ness</w>
el f</w>
air lines</w>
palästinens ischen</w>
recogn ize</w>
Hä user</w>
bring ung</w>
Hö chst
Veranstal tungs
Kaff ee</w>
se es</w>
ous ness</w>
se ats</w>
graph ics</w>
Wachst um
fest legen</w>
о в
län gst</w>
F on
nit ten</w>
c ommission
Ver wirklichung</w>
welt weite</w>
them ati
So l</w>
ö ch
gün stige</w>
Journ alisten</w>
sch were</w>
min i
ch ester</w>
Pflan zen</w>
program men</w>
regul ated</w>
tro ops</w>
sich ert</w>
a ke</w>
Energie effizienz</w>
Reguli erung</w>
AN D</w>
ut most</w>
1 1
Cul ture</w>
an sprechen</w>
Vie w</w>
Gemein schaften</w>
tri g
lob by</w>
op tional</w>
Kon junk
kno w-how</w>
T ER
anzun ehmen</w>
Ak tions
Tre aties</w>
T ür</w>
Finn land</w>
sit zen</w>
reg ierung</w>
CD s</w>
Dan ish</w>
6 0
Wider stand</w>
teach ers</w>
Ber ge</w>
9 00</w>
ent fernen</w>
geb lieben</w>
meaning fully</w>
stand s
D E-Fraktion</w>
construc ted</w>
6 1</w>
t wice</w>
Ther ap
harm ful</w>
gesch ickt</w>
ri ding</w>
Übri gen</w>
zer ti
plan en</w>
ck ed</w>
F ur
or i</w>
Di es
D er
echn ik</w>
do w
Betre uung</w>
humanit ären</w>
pictur esque</w>
n ative</w>
ex act</w>
Tour ism</w>
rec ords</w>
N av
Unter kategorien</w>
ag ents</w>
fo ssi
geleg enen</w>
w ash
w ahr</w>
da k
Helsin ki</w>
to x
ob served</w>
j i</w>
Jer usalem</w>
P A</w>
re vi
bewer ten</w>
In du
Liz enz</w>
repe at
panoram ic</w>
Ta x
en vis
co ol</w>
ent ative</w>
sp häre</w>
Mach t
chin esische</w>
Sy mbol</w>
G ul
ar d-
Custom er</w>
Mo sk
s ein
Dokum entation</w>
so il</w>
erk unden</w>
ou ts</w>
projek t</w>
t ü
eh lt</w>
Si em
L au
Gem ü
pl ates</w>
pur ely</w>
ur laub</w>
Präsi dent
läu fig</w>
grü nen</w>
P ack</w>
ri eren</w>
Schul den</w>
Wirtschafts politik</w>
Appart ements</w>
sp er
min er
B our
preser ve</w>
l or
Büro krati
Vermö gen
Umwelt fragen</w>
pic k</w>
zieh ung</w>
Modern isierung</w>
Entfern ung</w>
vor ge
Li thu
lic ens
L eh
all eg
radi cal</w>
amen ities</w>
an sehen</w>
Spiel en</w>
ei ved</w>
cris es</w>
Dat um</w>
Gipf el
combin es</w>
B ag
k rei
pos it
Sto ck</w>
develop ers</w>
Auth ority</w>
betri eb</w>
Außen -</w>
addres sing</w>
exten ding</w>
V IS</w>
kilomet res</w>
de fe
S ho
St art
sub- categories</w>
Tau ch
ich e</w>
A ra
cook ies</w>
vi erten</w>
verring ert</w>
Mark en
Consu mer</w>
hin weg</w>
associ ations</w>
at om
Bet riebe</w>
spä t</w>
lan ger</w>
W ör
Vor stellungen</w>
Er forder
Pan oram
b em
T al</w>
Pass ag
ó </w>
Flug haf
cho ices</w>
sup por
op ens</w>
är er</w>
K h
si x
su perior</w>
Er richtung</w>
multilater al</w>
St amm
S om
over looking</w>
h t
N ok
bed ded</w>
cap abilities</w>
implic ations</w>
enn ess</w>
vi br
un ab
hop es</w>
ol dest</w>
govern ing</w>
Her stell
haf tet</w>
s eb
sur prise</w>
contex tually</w>
evi dent</w>
Bur ma</w>
ich tung</w>
enti ert</w>
Weiter entwicklung</w>
mehr fach</w>
afri kanischen</w>
speci alized</w>
digit ale</w>
wa days</w>
chair man</w>
end ar</w>
up grade</w>
Busin ess
net z</w>
grammati cally</w>
Relig ion</w>
aufzu bauen</w>
Mot or</w>
sol di
son n
ra chten</w>
pret ty</w>
ster ben</w>
Schlussel wortern</w>
kontex tuell</w>
m ärkten</w>
grammati sch</w>
fa x</w>
un ilater
hervorra gend</w>
ä user</w>
disp ute</w>
ar men</w>
Dü ssel
Me eting</w>
Oli ven
bo ats</w>
italien ische</w>
edi ted</w>
addi tionally</w>
geschlossen en</w>
Aus arbeitung</w>
Ver fol
War craft</w>
sta ke</w>
Mo dule</w>
Schlussel wort</w>
7 6</w>
Verbraucher schutz</w>
Z erstör
Arbeitn ehmern</w>
12 .00</w>
Schlussel phrase</w>
besonder es</w>
So w
y ard</w>
comp le
en forcement</w>
hy dr
c at</w>
Leg isl
ide ally</w>
l on
ex o
a gements</w>
Um wel
Feh l
percent age</w>
fo x</w>
d oppel
ada pt
5 00
Tab ak
setz te</w>
eb ook</w>
gegeben enfalls</w>
sch ä
Ferienwoh nung</w>
syn chron
Argum ente</w>
sp ite</w>
ben en</w>
g otten</w>
confer ences</w>
bo und
ein gebracht</w>
deut sch
Indu stry</w>
atten d</w>
ar do</w>
vic tory</w>
An hän
me al</w>
bel ong
no wadays</w>
Lan gu
druck s
Zyper n</w>
trau m
Spezial itäten</w>
shi p
se arch
ti ll</w>
Zu ge</w>
Flä che</w>
worl d-
est ri
flo ors</w>
B om
be unruh
Dr ing
Wiederauf bau</w>
pris on</w>
Er satz
bi tions</w>
con vention</w>
Flu ghäfen</w>
ag a</w>
ver steht</w>
telec omm
radi o
war t</w>
man chen</w>
negoti ation</w>
s now</w>
Educ ation</w>
Mex iko</w>
b les</w>
ein sei
I K
ehem alige</w>
it ly</w>
rig or
Vermitt lungs
200 7-
M S
a ge
koh ol
C lassi
amend ed</w>
sch lag</w>
a ders</w>
An nehm
vor gelegten</w>
W erten</w>
ag on
Rich ard</w>
Z im
ä s
D s</w>
Sch atten
7 8</w>
dump ing</w>
pl as
per mit</w>
nah </w>
An bet
cr yst
W omen</w>
t les</w>
op es</w>
medic ines</w>
iz ing</w>
ter ing</w>
C ab
kenn t</w>
C lin
Aus bildungs
man ip
cul p
í n</w>
ret ari
unter brei
land s
rati fication</w>
chap ter</w>
vor liegen</w>
zwei ter</w>
relation ships</w>
er stat
defin ieren</w>
über wachen</w>
Col lege</w>
In hal
gen o
O EC
gemeinsam es</w>
Hol z</w>
Mark et
ess el</w>
dig ungen</w>
ch ris
T ests</w>
o live</w>
schedul ed</w>
Wil d
form ats</w>
ari ans</w>
ro ut
n utzt</w>
Auf zug</w>
m s
mor al
reno viert</w>
er teilt</w>
Ver zeichnis</w>
trans fers</w>
R eb
mäß ige</w>
Philosoph ie</w>
Finanz ierungs
ö l</w>
conc ert</w>
regel ung</w>
diver si
In ten
Le on
len ken</w>
sex </w>
aus üben</w>
it y-
ech es</w>
onym ous</w>
geb ühr
Lit er
anno un
vor zunehmen</w>
Erleb nis</w>
um ge
E mail</w>
k r
G ay</w>
eur ozone</w>
gewöhn lich</w>
i onen</w>
Bes itz
sol ch</w>
incen tives</w>
egr o</w>
Mäd chen</w>
con stitutes</w>
Te am
Akte ure</w>
Reser ve</w>
expen se</w>
um so</w>
Grund lagen</w>
col ors</w>
m ouse</w>
acqu is
Nig eria</w>
an wenden</w>
An dal
vari able</w>
Qu art
voll es</w>
auf bauen</w>
schem es</w>
er hol
en burg</w>
st al
genau er</w>
Kop f
E tik
be ach
wäch st</w>
B all
surpris ed</w>
communic ate</w>
re tain</w>
berühm te</w>
Haf t
for ec
Resol ution</w>
Co ck
Chi le</w>
exp and</w>
UNES CO</w>
Sti ftung</w>
dimen sion
Fre und
Min im
Blu e</w>
z iert</w>
ein geleitet</w>
poor est</w>
berich terstat
ruhi ge</w>
maxim al</w>
Serbi en</w>
Spei cher
ang le</w>
Intern ationale</w>
nar row</w>
wech s
An n
zah lungen</w>
tim ent</w>
Spit ze</w>
Auf lösung</w>
f at</w>
T ieren</w>
verwen deten</w>
le ute</w>
Tra ditionen</w>
conveni ence</w>
ac adem
näch ster</w>
P aci
re agiert</w>
J ur
pr er
besei tigen</w>
opp on
tief en</w>
ic als</w>
li ck
fa ßt</w>
ung s</w>
Best re
An reg
Bas el</w>
tro ck
Explor er</w>
mor t
Aus bau</w>
K lu
Ab fall
ri fic
pre mis
enti eren</w>
h ase</w>
gesell schaftlichen</w>
cas ino</w>
ed a</w>
man n
The at
Frau en
Mil ch
europ a
journ alists</w>
Fam ily</w>
Urlau bs
kl asse</w>
tra in
jo int
organ ise</w>
Sing le</w>
legitim acy</w>
W en
Unter künfte</w>
Ver sicherungs
än e</w>
b y-
be arbeiten</w>
An pass
fe wer</w>
Oper a</w>
19 th</w>
Sier ra</w>
Well ness</w>
ten e</w>
elimin ate</w>
appro aches</w>
M eist
Wissenschaf tler</w>
ad o
H O
on ie</w>
L ast
pro gres
E ver
Energi es
b o</w>
Vorsitz enden</w>
mach in
gä ste</w>
Are a</w>
Sonn tag</w>
K rei
ven ues</w>
Eu ch</w>
inde x</w>
rupp e</w>
finan ced</w>
Sch wä
Män gel</w>
concentr ation</w>
zw öl
per mission</w>
keines wegs</w>
as is</w>
O LAF</w>
Räum e</w>
repe ated</w>
rep air</w>
25 .</w>
ver stehe</w>
benach tei
be zü
Wäh ler</w>
reib ungen</w>
H z</w>
All ah</w>
rah men
bed ürf
sei t
3 50</w>
Di agno
heraus ra
bel n</w>
C P</w>
in tu
Auswei tung</w>
Entwick ler</w>
s ar
Ev ents</w>
Cub a</w>
ICH T</w>
own ership</w>
Ar men
pil ot</w>
Reg en
th res
Nok ia</w>
p en</w>
eu ert</w>
Musli m</w>
ra ces</w>
neighbo urs</w>
Vorder grund</w>
Schü ler</w>
der ly</w>
campaign s</w>
up gra
accoun ting</w>
stu ff</w>
fik ationen</w>
territ ori
chec ked</w>
Sek tors</w>
-R es
thir d-
gesu cht</w>
Sa ison</w>
Aus sage</w>
g iger</w>
cat ch</w>
Bil dern</w>
t sh
¼ </w>
Leb an
neut r
Dres den</w>
© </w>
thumb nail</w>
um gehen</w>
in spec
äl ter</w>
nut ri
Inter governmental</w>
ke ys</w>
Leg itim
Ver z
smo oth</w>
üb ung</w>
da d</w>
ir l
ma x</w>
sp üren</w>
ch tet</w>
wer ks</w>
wher eby</w>
tern s</w>
op enness</w>
bü ro
Um struktur
C el
p ast
Sk y
7 4</w>
Akti en
m ische</w>
ultim ate</w>
Bü cher</w>
B R
offizi ell</w>
Sch alt
Kompl ett
H all
B and
integri erte</w>
er o</w>
Dän emark</w>
econom ically</w>
sch alten</w>
fe et</w>
no -
sek tors</w>
Volks wirtschaften</w>
quanti t
Str ände</w>
Herz eg
F an
b ol
Krieg es</w>
So und
in y</w>
classi cal</w>
Kat alog</w>
parlament arischen</w>
remark able</w>
d é
ी </w>
D au
navig ation</w>
is ter</w>
l s
st unning</w>
bran che</w>
G T
adi se</w>
intern e</w>
ir able</w>
Cas a</w>
cast ing</w>
-L ös
new sletter</w>
z ens</w>
enor men</w>
e. g</w>
lei ter</w>
certi fied</w>
land wirtschaftlichen</w>
en es</w>
in adequate</w>
Di re
dig keits
Wohn zimmer</w>
y ards</w>
Par a
E th
sozi al
for war
K la
Souverän ität</w>
b right</w>
comple tion</w>
s car
Bestä tigung</w>
fre e
under lying</w>
gleich heit</w>
E din
P on
W W
Proz eß</w>
sü dlichen</w>
woo den</w>
O x
Doppel zimmer</w>
funk tion</w>
i Po
fahr ens
ing redi
Annehm lichkeiten</w>
g on</w>
stor es</w>
e ure</w>
is co</w>
amaz ing</w>
Über gang</w>
Ver ab
rei ches</w>
- und</w>
Sam sung</w>
Wohn ungen</w>
lö schen</w>
secon ds</w>
innov ativen</w>
· </w>
mäß igen</w>
an ten
ent stand</w>
gerech te</w>
Ehr e</w>
qu ellen</w>
hunder t</w>
Con tent</w>
Internet zugang</w>
un zäh
ses sions</w>
ein igt</w>
studi ed</w>
b aus</w>
fir st-
Ris ik
el and</w>
an gehen</w>
sch wä
profession ellen</w>
ass et</w>
Bef örder
per su
me als</w>
Universit äten</w>
Mar k</w>
stat ing</w>
fl uss
br y
Objek te</w>
er hoben</w>
agem ent
E D</w>
li ked</w>
Kre ativ
Nutz ungs
ök ologischen</w>
st ories</w>
Masch inen
ri k</w>
p. m.</w>
Anbet racht</w>
Erwachsen e</w>
t un
er le
öst lichen</w>
d sch
hilfrei ch</w>
ös s
ek tion</w>
sh ore</w>
des to</w>
bl ed</w>
her stellen</w>
al tungen</w>
A ch
viol ation</w>
frei er</w>
ver bindung</w>
ear n</w>
co o
proz eß</w>
hochwer tigen</w>
Or ten</w>
U M
b at</w>
ges etz</w>
Fund amental</w>
elektron ische</w>
f lich</w>
Kon vent</w>
be er</w>
ge widmet</w>
consider ations</w>
ov a</w>
So und</w>
m elt</w>
höch st</w>
ingredi ents</w>
Energi equ
deb ating</w>
krä ften</w>
descri be</w>
v is</w>
ativ ity</w>
klein ere</w>
hö her
Paci fic</w>
Por tal</w>
ex posed</w>
read s</w>
believ ed</w>
gefähr lich</w>
Fahr er</w>
verb lei
win d
ret ary</w>
lay out</w>
co ck
un necessary</w>
erst es</w>
Ph il
effizi enter</w>
be fu
P atten</w>
deser ves</w>
mer ken</w>
konsequ ent</w>
as signed</w>
p p</w>
Sam stag</w>
is en
A y
co decision</w>
met er</w>
Chair man</w>
Bla ir</w>
größ ter</w>
b ited</w>
Anmerk ungen</w>
er a
Ci vil</w>
pol is</w>
aus gehen</w>
büro krati
up- to-
bevölk erung</w>
H ab
Entsch lossenheit</w>
Erfol ge</w>
Ar c
ver öffentlichen</w>
to il
Qu es
Sie g</w>
schwe dischen</w>
unge achtet</w>
Stra h
Mo dul</w>
Pre mi
getr ennt</w>
Ein satz
Slov akia</w>
Bes itz</w>
found ations</w>
Kor re
min or</w>
р а
su ms</w>
S li
Siem ens</w>
Air lines</w>
transl ated</w>
Verbrau chern</w>
Kooper ations
timet able</w>
Ex istenz</w>
ac compl
D C</w>
besch ä
R eh
Gesetz es
gi ble</w>
komm ens
mi le</w>
in door</w>
S atz</w>
d än
L or
betei ligten</w>
da vor</w>
8 1</w>
Oper ation</w>
k ette</w>
repeat edly</w>
Er reichung</w>
F euer
N ICHT</w>
gegen über
Got tes</w>
Pen sion</w>
sen k
Off ic
Ter ms</w>
dist ur
B av
Nichtraucher zimmer</w>
grenzüberschrei tenden</w>
vermut lich</w>
fin dung</w>
Person en
of- the-
s ement</w>
Qu ality</w>
an ger
sich tig</w>
H D</w>
Ru f</w>
Smo king</w>
gemü tliche</w>
S n
enjo ying</w>
ion s
reck t</w>
spe eches</w>
represent ing</w>
cancell ation</w>
inst antly</w>
Rati fizierung</w>
so ever</w>
dis count</w>
i j
Grupp en
Deutsch lands</w>
emo st</w>
vol lem</w>
ro ll</w>
gro ss
Ge wäs
str ing</w>
man agers</w>
Himm el</w>
woh nern</w>
p end
thor ough</w>
theat re</w>
Geb ühren</w>
featur ing</w>
so und
N izza</w>
bewu ßt</w>
ri d
ob serve</w>
spiel er</w>
olog ischer</w>
s me
mi th</w>
Speci al</w>
sp len
R em
er wiesen</w>
gün stigen</w>
exam ination</w>
ý </w>
frequ ency</w>
R enn
Leip zig</w>
am in
Demok raten</w>
Hard ware</w>
for emost</w>
kür z
c el</w>
ek tor</w>
Mos cow</w>
á n
Bur g</w>
F I</w>
an genen</w>
ref res
lic a</w>
Elek tron
geschä ft</w>
techni que</w>
s burg</w>
exam ined</w>
neh me</w>
umin ium</w>
й </w>
Ab lauf</w>
ber ichtet</w>
Aspek ten</w>
gerech t
verbrei tet</w>
comm it</w>
genu inely</w>
T S</w>
Sch o
hal tungs
all ing</w>
Argum ent</w>
S ig
ru m
Geg ner</w>
Kompet enzen</w>
Ma xim
er nen</w>
ach ed</w>
Por to</w>
Fish eries</w>
umfas sen</w>
beg un</w>
8 7</w>
simultane ously</w>
cre w</w>
j ac
intensi v</w>
er heben</w>
F assung</w>
wid men</w>
guarant eeing</w>
Ash ton</w>
lich t
Wed n
comp ete</w>
stärk sten</w>
CE O</w>
Sch reiben</w>
vi era</w>
6 ,
T amp
Be zeichnung</w>
tor ies</w>
her bei
i ko
S icht
dies bezü
ember au
I M</w>
auslän dischen</w>
L T</w>
üb lichen</w>
tä tigen</w>
gab en
Ph y
Bl ack
clo ck</w>
lic ation</w>
5- 00
h ills</w>
L ohn
Vereinig te</w>
St ur
fol der</w>
S E</w>
sol ved</w>
occup ation</w>
ber ger</w>
Ges icht
Ex port
L oc
Kno w-how</w>
K lo
and al
v acc
pri ze</w>
Beh örde</w>
Qu ell
reib ungs
Ch ic
Stell en
seit dem</w>
ha i</w>
sugges ts</w>
posi tion
complain ts</w>
bei behalten</w>
sign ing</w>
geb ene</w>
with draw</w>
H of</w>
lei hen</w>
eth ical</w>
Vor rang</w>
strö m</w>
198 8</w>
er leb
su </w>
Werk zeug</w>
air e</w>
res um
Wa sch
4- star</w>
condi tioned</w>
par tei
räsi denten</w>
bedro ht</w>
Kon vention</w>
Re al
L E</w>
Ru ß
R evision</w>
Camp ing
op ho
Sch wellen
Schul den
se as</w>
Bab y
Soci ety</w>
at emberau
par tial</w>
D amp
G B
on gs</w>
hoh es</w>
Ro ad</w>
3 1.</w>
inten tions</w>
subscri be</w>
over -
stan zen</w>
Sy mb
Gol den</w>
vor ange
au x</w>
Stabil itäts
an forderungen</w>
Fil me</w>
Mo dus</w>
ar z
Niederlan de</w>
ni k</w>
zu gs
Bestell ungen</w>
fal sche</w>
Gre ens</w>
frü h</w>
b uses</w>
occ o</w>
d res
Fire fox</w>
Durch setzung</w>
mix ed</w>
dis zipl
H ein
verur teilen</w>
con stra
v illa</w>
s ity</w>
techn isch</w>
electri cal</w>
H IV</w>
zi a</w>
tex tile</w>
Ac count</w>
S ens
secon dary</w>
P har
T ruppen</w>
wel le</w>
Wer be
kombin iert</w>
ga stronom
audi ence</w>
ver m
1. 5</w>
Hoh e</w>
clar ity</w>
k lin
Jes us</w>
at ri
import antly</w>
li gence</w>
te ch</w>
dram atic</w>
ar res
s tick</w>
Re par
inform al</w>
la im
condem n</w>
chem ische</w>
a o</w>
Eff ekt</w>
s k</w>
verhäl tnis</w>
erwer ben</w>
geb ot
tig sten</w>
Volk spartei</w>
jüng ste</w>
D am
stell ten</w>
è re</w>
In genie
hei ght</w>
U -
aus wählen</w>
tn ess</w>
Ar ena</w>
er teilen</w>
altern atives</w>
eleg ante</w>
V ar
Klar heit</w>
Russ lands</w>
P un
Sch ad
vertrau t</w>
zah ler</w>
kol lek
Garanti en</w>
Nor d</w>
fal se</w>
collap se</w>
20 th</w>
n ight
bew egt</w>
cons isten
pro fes
lo ses</w>
ist ently</w>
destro y</w>
wei chen</w>
exis tieren</w>
Tick et</w>
R unde</w>
sm us</w>
exp anded</w>
tier enden</w>
dat eien</w>
por tra
F abri
er ende</w>
compar able</w>
depen dence</w>
Zwei ten</w>
ver tritt</w>
ge fühl</w>
P ur
bro ken</w>
20 15</w>
enjo ys</w>
Statisti ken</w>
öffent licher</w>
b ay</w>
Mich el</w>
in o
G lei
anzu wenden</w>
komplex e</w>
Schul z</w>
miet ung</w>
prefer red</w>
gün stig</w>
befür worten</w>
emp ty</w>
sp ür
Slowak ei</w>
Wich tigkeit</w>
G eist
Eigent ü
F ang
lo ading</w>
Mal ay
überra scht</w>
bes tra
2 nd</w>
Her kunfts
zu geben</w>
ful l-
Je wish</w>
fortun ate</w>
Ch il
In flation</w>
IW F</w>
18 0</w>
escap e</w>
and in
arab ischen</w>
Kommissionspräsi dent</w>
haf ter</w>
Monten egro</w>
Edin burgh</w>
Sol ana</w>
ar ray</w>
n ings</w>
eist ungen</w>
listen ing</w>
Holi day</w>
ologi en</w>
flexi bel</w>
De partment</w>
str and</w>
for cing</w>
um gehend</w>
pen sions</w>
der art</w>
unterschied licher</w>
P ho
adv enture</w>
qu et</w>
förder ung</w>
ig a</w>
ig ungen</w>
gr aben</w>
resp ects</w>
voc ational</w>
gem essen</w>
é e</w>
p aths</w>
Kon zer
geb nisse</w>
li fe
Sek unden</w>
hi elten</w>
Ty p</w>
au tor
Pal ette</w>
ti m</w>
sp rin
comp lex
d ying</w>
expres s
del ete</w>
gir ls</w>
sp anische</w>
Web -
joint ly</w>
th ri
nä her
r ating</w>
mith ilfe</w>
L eben
tern al</w>
Hä fen</w>
tik er</w>
Syri a</w>
Minis terr
Palestin ians</w>
ung alo
tr in
sac rific
sam ple</w>
t onn
Aus richtung</w>
Vene zu
h un
ter -
o li
Jo int</w>
mög lichkeit</w>
Br ut
hol e</w>
zu fügen</w>
typ isch</w>
aut umn</w>
ähn lichen</w>
24 .</w>
finanz ierung</w>
gre enh
att ack
Rechn ungs
feh len</w>
mean while</w>
G AP</w>
F rü
g ori
er arbeitet</w>
re turns</w>
trag ic</w>
es c
Log is
insp ection</w>
iss ance</w>
bewer tet</w>
pl ur
is tisch</w>
Vor gehensweise</w>
sp it
K DE</w>
N C
sen der</w>
blin d</w>
mittel alter
sa al</w>
Mar ok
Er schein
wach sende</w>
junc tion</w>
Haushal ts</w>
Fel der</w>
spec trum</w>
be weisen</w>
id ance</w>
inst re
Spazier gang</w>
appar ent</w>
ch am
Pflan zen
ver mittelt</w>
Ver heu
8 3</w>
Chanc en
präz ise</w>
arti fic
Komment are</w>
el igi
respek tieren</w>
co st-
En ts
doub ts</w>
Pra g</w>
fif th</w>
Ab teilung</w>
op pose</w>
Hai ti</w>
St ahl
uni or</w>
behaup tet</w>
log ic</w>
Vor red
Engine ering</w>
wher ever</w>
aktu alisiert</w>
lief erung</w>
Kenn zeichnung</w>
auslän dische</w>
eil lance</w>
Valen cia</w>
T V
m äh
coast al</w>
f lat
Problem atik</w>
continu ously</w>
stät ten</w>
rieb enen</w>
v ary</w>
lan gem</w>
Sol daten</w>
Su ites</w>
Fot ogra
Ur sache</w>
Z e
diesel be</w>
til ity</w>
Publik um</w>
viol ent</w>
Entwicklungsh ilfe</w>
Wedn esday</w>
Gemein den</w>
trage dy</w>
Aus blick</w>
kosten losen</w>
accur acy</w>
fre ch
Mar t
et tes</w>
af en</w>
klär en</w>
zei gte</w>
revis ed</w>
m ²</w>
ah e</w>
ri ere</w>
lo sing</w>
the tic</w>
Qu ark</w>
af ford</w>
character istic</w>
Verk aufs
Nach druck</w>
el ev
pharmac eu
taus end</w>
b ought</w>
manufactur ed</w>
stand ardi
uneingesch ränkt</w>
statt gefunden</w>
foc using</w>
Fest platte</w>
jähr lichen</w>
arran ged</w>
Off enheit</w>
an o
Kür ze</w>
transi tional</w>
poten ti
gar age</w>
intelli gen
Lu d
Origin al
verl ag
koh är
fahr zeuge</w>
C ru
E del
ar tik
Fre e
Stor age</w>
diesel ben</w>
T ot
gehöri ge</w>
j o</w>
timedi a</w>
24- Stunden
str ation</w>
ge ehrte</w>
l ap
Bet reiber</w>
erheb lichen</w>
For tsetzung</w>
d einer</w>
gori th
bli cken</w>
t oll
aus wirken</w>
la ying</w>
Verheu gen</w>
anzu passen</w>
resp ec
Gesetz geb
dead line</w>
bec ken</w>
zeichn ete</w>
r ation
M ass
Zei tsch
cir cu
S P</w>
n esses</w>
á n</w>
T ren
P ier
f at
zu stande</w>
Aus sagen</w>
Mor occo</w>
medi eval</w>
Schick sal</w>
adul t</w>
Kenn tnisse</w>
elec toral</w>
p rel
ru fe</w>
Prof .</w>
mechan ical</w>
b ün
ges to
unden e</w>
erleich tert</w>
sa d</w>
typ ically</w>
Ira q
S K</w>
Resi dence</w>
N ation</w>
ha ir
fahr ts
resear chers</w>
u c
verur sachen</w>
bedauer lich</w>
Heim at</w>
certi fication</w>
ger ingen</w>
por te</w>
forts etzen</w>
stri ke</w>
peti tion</w>
su ited</w>
therap eu
wär tige</w>
go s</w>
sm art</w>
a issance</w>
Invest ment</w>
rec all</w>
wunder schöne</w>
S ark
meas urement</w>
exp enses</w>
ass urance</w>
Zuverlässi gkeit</w>
n est
horiz on
fre ul
deut liche</w>
st ein
T op</w>
sa ke</w>
Lou is</w>
Per formance</w>
g ungs
T el</w>
klär t</w>
umfang reichen</w>
K au
pos s
Latein amerika</w>
vor liegt</w>
Netz e</w>
Dynam ik</w>
beweg ung</w>
ein st</w>
Co ur
ent deck
Ziel setzungen</w>
trans action</w>
fascin ating</w>
üst et</w>
fall ing</w>
Stei gerung</w>
tri bute</w>
W eine</w>
di tions</w>
sit ät</w>
zw ischen
ag u
L om
beru h
In kraft
W ett
D R
SD L</w>
lo ans</w>
198 6</w>
tor ia</w>
. net</w>
bri l
Trag ö
endgül tige</w>
Wahr ung</w>
Protokoll s</w>
regi onen</w>
com pos
A ma
Einzel heiten</w>
mi ß
politi ken</w>
region aler</w>
kap it
Aus rüstung</w>
Bet racht</w>
Fot o
Gesch en
angekün digt</w>
H ände</w>
Vermögen s
inn ere</w>
dis co
Altern ativen</w>
ein iges</w>
D oh
aff ecting</w>
Emp loyment</w>
r ung</w>
gemeinsam er</w>
T ak
medizin ische</w>
Besch ränkungen</w>
Zu cker
A .
automati sche</w>
ro of</w>
juris diction</w>
inn eren</w>
Lebensmittel sicherheit</w>
Sci ence</w>
ei ts
zentr aler</w>
Zeit plan</w>
wir ft</w>
Mittelme er</w>
In halten</w>
Werk zeuge</w>
leg er</w>
a e
gro und
komplex en</w>
Düssel dorf</w>
health care</w>
Ver n
appar ently</w>
speci ally</w>
ti les</w>
ver wiesen</w>
Erei gnis</w>
bro ader</w>
Mensch heit</w>
begrün det</w>
af raid</w>
mo tivi
Comm on</w>
arran gement</w>
T us
Pro vi
begeg nen</w>
ar ts</w>
He ads</w>
Bu ff
it ations</w>
splen did</w>
arbei teten</w>
cal m</w>
er ische</w>
bran ch</w>
en cryp
Blo ck
D O
I f</w>
ei ling</w>
Im peri
publ ish</w>
Up dates</w>
di ving</w>
gen -
ü ch
W ä
del ays</w>
ch airs</w>
prob ieren</w>
tra ktionen</w>
Bewus stsein</w>
i ed
Saf e</w>
Mittelme err
so for
kor ea</w>
3 00
gran ting</w>
Sei ten
citiz en
erforder liche</w>
l are</w>
environment ally</w>
rec ru
Wür de</w>
Chancen gleichheit</w>
h ne</w>
k es
Minder heit</w>
G R
dr ängt</w>
F leisch</w>
with draw
AR E</w>
Aut or</w>
be fin
prepar ations</w>
Ori enti
Ri viera</w>
remo val</w>
H alt
der selben</w>
in ien</w>
for gotten</w>
ven tive</w>
Treib haus
j an</w>
EI B</w>
integr ity</w>
ung er
w unden</w>
Minis try</w>
Sec ond</w>
bre ath
Georgi en</w>
U K
erwäh nten</w>
excur sions</w>
lo go</w>
1 30</w>
Galil eo</w>
L T
vi able</w>
up-to- date</w>
repub lik</w>
h ang
Fisch ler</w>
Fil ter</w>
Plätz e</w>
employ ers</w>
K lassi
answer ed</w>
Stro m</w>
per pet
gest artet</w>
fair en</w>
Gar ten
Vene dig</w>
Nordi c</w>
ann ehm
bath rooms</w>
B ün
I X</w>
alis ing</w>
form ular</w>
Ver sprechen</w>
lei chte</w>
W all</w>
bu ying</w>
fer tigung</w>
tatsäch lichen</w>
ju dge</w>
Bas is
realis iert</w>
Lehr er</w>
1 10</w>
hor se</w>
enthusi as
kön ne</w>
of tware</w>
Aus nahmen</w>
promot ed</w>
wick lung</w>
pf ung</w>
alis ierungs
zer o</w>
short- term</w>
Rei cht
stres sed</w>
Über nahme</w>
r us
ge gn
A li
g ungen</w>
V ill
österreich ischen</w>
Ver län
L A</w>
bu g</w>
betri ebe</w>
zu gestimmt</w>
Rech en
T ali
ver trauen</w>
terri ble</w>
versch affen</w>
what soever</w>
G anz
Er krank
de voted</w>
cust om</w>
an erkennen</w>
ch a
big ger</w>
so genannte</w>
aus es</w>
purchas ed</w>
ori entation</w>
prosp ect</w>
B A</w>
unterbro chen</w>
schen ken</w>
medi terran
oblig ator
dec lare</w>
Über sicht</w>
n ehmen
er weisen</w>
marg in
Ministerp räsident</w>
wür digen</w>
vie wing</w>
ac io</w>
vor sieht</w>
Ti bet
ar ed</w>
un certainty</w>
-S h
trav ellers</w>
Kommission smit
Sow jet
Entsch ä
Rein igung</w>
Liefer anten</w>
Auf trag
auth ors</w>
ing ent</w>
Flor ence</w>
S ah
an ger</w>
über mitteln</w>
und ry</w>
bo w
Rei ch
ass ured</w>
pro gressive</w>
gi ft</w>
Finn ish</w>
tur en</w>
m its</w>
Se ele</w>
kur zer</w>
ref used</w>
cal endar</w>
Ver sand
techn ischer</w>
plan ung</w>
T aten</w>
Dro gen</w>
Kaff e
Bürokrati e</w>
gl ing</w>
mom ents</w>
ref use</w>
er vice</w>
Al ps</w>
M au
H our</w>
get rieben</w>
voll stän
ot t
Con troll
ar rest</w>
UR L</w>
frei ght</w>
verab schieden</w>
form uliert</w>
express ly</w>
absur d</w>
bo asts</w>
gemü tlichen</w>
Er öffnung</w>
A l</w>
pel ine</w>
d äm
k ern</w>
b ö
glau bt</w>
einzi g</w>
kur se</w>
Cor poration</w>
princip al</w>
tu </w>
Er arbeitung</w>
dr ängen</w>
verz ichten</w>
zwöl f</w>
Dokum ent
Glau ben</w>
sign als</w>
tor i
sch lu
Sch reib
leb enden</w>
taxpay ers</w>
ron t</w>
er öffnen</w>
aus gehend</w>
anti </w>
bein ahe</w>
res idents</w>
autom otive</w>
Pal ma</w>
clo sing</w>
AN T
Ju gosla
angeneh me</w>
Sü do
b ag
M igration</w>
er arbeiten</w>
moder ner</w>
E-Mail- Adresse</w>
dr yer</w>
Auf hebung</w>
p ace</w>
An f
Ab bau</w>
Land wirtschafts
19 45</w>
person en</w>
Liber alen</w>
res cu
d al</w>
Intern al</w>
7 ,
h är
d ing
li vely</w>
Ver fahrens</w>
2 2.</w>
angen ommenen</w>
spek tak
ign ore</w>
offici ally</w>
gen es</w>
dur ation</w>
tri eben</w>
ökonom ische</w>
schön es</w>
preser ved</w>
rene wed</w>
Nichtraucher zonen</w>
ch ur
Tun is
Ver ordnungen</w>
eindeu tige</w>
c ts</w>
ti gh
observ ation</w>
Äu ßer
W art
geeign eten</w>
b lan
Fri endly</w>
wi fe</w>
foc uses</w>
niedri gen</w>
Clu bs</w>
t one</w>
er langen</w>
befürwor tet</w>
se emed</w>
bes ich
pursu ant</w>
Im mun
dep lo
Ver fahrens
G A</w>
Austr alien</w>
ausgestatt ete</w>
Mon te</w>
ar gue</w>
¶ </w>
an passen</w>
g ingen</w>
g ate</w>
access ories</w>
C ô
M ischung</w>
gering er</w>
lo aded</w>
sle ep</w>
install ations</w>
post al</w>
G il
br ands</w>
part ments</w>
des igner</w>
prin zip</w>
surv eillance</w>
Ges icht</w>
li ke
Mac ed
Par li
aff ili
gebäu de</w>
year -
sou l</w>
benefici al</w>
Ho w</w>
ver arbeitet</w>
hier mit</w>
General sekre
spät estens</w>
gi pf
j ing</w>
Welt krieg</w>
Schwim mb
p. m</w>
neut ral</w>
Bau m
comm odi
sl opes</w>
8 4</w>
Bau ern</w>
per forman
Win d</w>
hel l</w>
Г ј
S ab
Her kunft</w>
bel ongs</w>
k as
min es</w>
publ ishing</w>
met ro</w>
Doh a</w>
eleg anten</w>
ränk te</w>
deb ated</w>
motor way</w>
zu gelassen</w>
ograf ie</w>
G as</w>
H änden</w>
hin e</w>
deser ve</w>
läu fi
ag nen</w>
J on
our s</w>
ol f</w>
pres idential</w>
gen öss
fin ds</w>
hör t</w>
Repres entative</w>
zw eck
and al</w>
quanti ty</w>
geb ühren</w>
höch ster</w>
Nach mittag</w>
kö mm
Zerstör ung</w>
be zeichnen</w>
olog ne</w>
ursprün gliche</w>
sy m
S zen
Privat sphäre</w>
198 7</w>
pak et</w>
Zun ahme</w>
stopp ed</w>
Buch stab
dimen sions</w>
intu i
be ef</w>
ec ks</w>
tax i</w>
ma ster
verm ieden</w>
hon est</w>
um es</w>
H alle</w>
adjust ment</w>
surv ey</w>
lin ing</w>
in sufficient</w>
p it
erst reckt</w>
f ell</w>
destin ations</w>
Tamp ere</w>
Softwar e-
et tet</w>
res idential</w>
GU E</w>
as onic</w>
wid th</w>
sta ying</w>
fu hren</w>
F requ
gi </w>
S eries</w>
genie ßt</w>
öh ne</w>
religiö sen</w>
ei ler</w>
sover eign</w>
Sü dafrika</w>
sicher er</w>
auf nahme</w>
w och</w>
Produk tivität</w>
198 5</w>
a wa
k an</w>
an zig</w>
G O</w>
r ar
Aus beut
enjo y
einger ei
rel ief</w>
Rechn er</w>
m i</w>
Mar co</w>
S ul
Presi dents</w>
Kre uz
lin k
than king</w>
u um</w>
integri eren</w>
Zerti fik
pl er</w>
K m</w>
L ager</w>
susp ended</w>
Ber gen</w>
cat alogue</w>
mark ing</w>
C ou
Terror isten</w>
b and
Geb ir
cam eras</w>
ä der</w>
Wieder herstellung</w>
w ed
eigent liche</w>
S em
Caf é</w>
bu </w>
w öch
hal b
des ktop</w>
ü ssen</w>
Sour ce</w>
on y
all ed</w>
m atic</w>
maxim ale</w>
com posed</w>
russ ische</w>
T ou
popul ations</w>
commer ce</w>
kap az
R ic
ti gem</w>
ssi er</w>
gewünsch te</w>
Aus grenzung</w>
wi en</w>
verein t</w>
nicht -
char m</w>
mitt ing</w>
Partner ship</w>
best ände</w>
achiev ements</w>
n ur
indic ators</w>
ne o
el det</w>
L un
zu ge
bu cht</w>
pro vo
defic its</w>
at t</w>
ar range</w>
Wettbewer bs</w>
änder ungen</w>
Tur n
Er halt</w>
mark tes</w>
ay a</w>
ar te</w>
ex pos
Verab schied
under take</w>
soldi ers</w>
modi fy</w>
explic itly</w>
F ax
ig ungs
identi fication</w>
St euer</w>
Um stände</w>
gel angt</w>
Frei handels
ti ll
det eri
Begrün dung</w>
O s
C A</w>
Mil lion</w>
R ass
e de</w>
auf geführt</w>
Formu lierung</w>
s ä
Schl ag
ge habt</w>
negoti ated</w>
z immern</w>
fi ehlt</w>
V al</w>
gegensei tigen</w>
Zur ich</w>
Menschenrechts verletzungen</w>
Bürger beauftragten</w>
fes te</w>
super b</w>
B ett
Dig ital
g ast
J a</w>
credi ble</w>
ger inge</w>
ad res
geleg ene</w>
Le ague</w>
sti l</w>
verbin dungen</w>
Schlu ß
f angen</w>
gel ernt</w>
con version</w>
Schn ell
chem icals</w>
ag gres
b its</w>
k riterien</w>
ć </w>
wahr e</w>
ret ten</w>
gra vier
bureauc racy</w>
b icy
Rechnungsh of</w>
con i</w>
rul ing</w>
greenh ouse</w>
sh uttle</w>
Lissabon- Strategie</w>
po sts</w>
Produc t</w>
Verabschied ung</w>
advis e</w>
Col om
distinc tion</w>
läu fe</w>
sch äd
berühr t</w>
Europ ar
thor ou
ti a</w>
certific ate</w>
gu il
empf ängt</w>
f an</w>
log istics</w>
tra ins</w>
interess anten</w>
gi a</w>
prec ision</w>
mm ing
ein stellen</w>
spieg eln</w>
Alter s
suppl ementary</w>
zw anzig</w>
schl uss
P is
car te</w>
e ve</w>
relev anten</w>
Bau ern
Unter drück
Kapaz ität</w>
behavi or</w>
zeh n
Abgeord neter</w>
verz err
Mitt woch</w>
thi op
di eren</w>
S A
Konjunk tur
da hin</w>
sens or</w>
Funktion alität</w>
pre mium</w>
odi versity</w>
pl ätzen</w>
zusammen arbeit</w>
Ex ternal</w>
refl ection</w>
Si eg
auf gestellt</w>
7 9</w>
red und
zeichn eten</w>
Hän dler</w>
prü f
eb t</w>
funk tionen</w>
big u
ch ro
exhi bitions</w>
d den
Ant on
telef on
Anrei ze</w>
wa i
territ ories</w>
ck ets</w>
et or
par ameter</w>
vor über
Finan zen</w>
Haf en
ü </w>
Co operation</w>
Zu stell
Sch aden
di en</w>
-S oftware</w>
ft -
Rep rä
stän digkeit</w>
K ä
rati fied</w>
jeg licher</w>
klein eren</w>
ver arbeitung</w>
vis its</w>
pro pri
durch zusetzen</w>
kl en</w>
Trans fer</w>
Nach fol
Klimawand els</w>
under stand
kan di
d ei</w>
Min er
ab geben</w>
Bur eau</w>
cons istently</w>
beruf lichen</w>
ad mit</w>
fi re
Kl ing
Gewin n</w>
emerg ed</w>
purchas ing</w>
S L</w>
rob ust</w>
tre as
B rücke</w>
tsp rech
it ten</w>
industri ellen</w>
B I
pat ents</w>
ver teilung</w>
F ür
prev ented</w>
spektak ul
An träge</w>
Bu il
ir on</w>
c eiling</w>
it zer</w>
mer k</w>
Wert pap
ein ges
Gro ßen</w>
necess ity</w>
kri tischen</w>
s culp
An gabe</w>
Ausbeut ung</w>
archi ve</w>
wander ung</w>
er lassen</w>
ci ally</w>
j p
metho de</w>
Ro th
atten ded</w>
telecomm unications</w>
like wise</w>
civi lian</w>
whe el</w>
Emp ire</w>
Ein nahmen</w>
Olymp ic</w>
A 4-0
y- to-
mittl ere</w>
t lichkeit</w>
x en</w>
acc um
For d</w>
promis ing</w>
Fremden verkehr</w>
Boo t</w>
Rück gang</w>
Ro s
medizin ischen</w>
tex </w>
Empf ang</w>
geschm ack
E qu
d lichkeit</w>
Bit te</w>
st ab</w>
contro versi
30 -
authori zed</w>
her um</w>
Boo k</w>
n on</w>
tre bt</w>
F isch</w>
Mein ungen</w>
Schul d</w>
ma il
occup ied</w>
basi eren</w>
Sark o
preci ous</w>
innov ations</w>
Con sul
B ed</w>
23 .</w>
im ported</w>
plötz lich</w>
komfort ablen</w>
pat tern</w>
wün scht</w>
Pl ace</w>
threat ened</w>
per sec
wh el
negoti ate</w>
fe edback</w>
th otel</w>
son stige</w>
Be au
re tail</w>
wert volle</w>
cen ters</w>
cro w
wor rying</w>
gerecht fertigt</w>
ne x</w>
Hand lungen</w>
seg ment</w>
der -
an ch
ic on</w>
sche dule</w>
winn er</w>
organ ize</w>
mand atory</w>
p ain</w>
frequ ent</w>
Non- Smoking</w>
Wäl der</w>
r an</w>
adem ie</w>
PPE- DE</w>
affor dable</w>
ati sierung</w>
f assungs
Verfol gung</w>
C ho
Re f</w>
Chi ef</w>
citizen ship</w>
Stu fe</w>
Dire kt
M y</w>
neigh bourhood</w>
4 00
schle chte</w>
ari b
zunehmen de</w>
Ma x</w>
dict ator
spä teren</w>
endgül tigen</w>
un dern</w>
r ischen</w>
Ro ck</w>
w th</w>
Wün schen</w>
fl ying</w>
ing er
beru hen</w>
Ameri kas</w>
Rich ter</w>
kan ische</w>
C ologne</w>
hau sh
Jugend liche</w>
Fischerei politik</w>
C ar</w>
sh el
Slo wen
Funktion ieren</w>
wei gh
rec ession</w>
Te ch</w>
Con serv
. N
ti ps</w>
IB M</w>
dri ves</w>
J ord
O F</w>
kosten frei</w>
demonstr ates</w>
ser b
s unny</w>
problem los</w>
nor men</w>
releas es</w>
wä sche</w>
mis takes</w>
nation als</w>
extern e</w>
hy gi
Govern ance</w>
de aths</w>
F un
dies mal</w>
kre di
Def ence</w>
men ge</w>
gewach sen</w>
d f
entsp ann
disp lays</w>
Konz ern
ren omm
Ver suche</w>
Lab our</w>
om a</w>
ten sion</w>
ul ar
pol nischen</w>
indic ates</w>
überwach t</w>
i den
Softwar e
tim ely</w>
machin ery</w>
ausreich ende</w>
unk no
kü ste</w>
I stan
Fo ot
inter active</w>
Y our</w>
Stra ft
di an</w>
spo ts</w>
ar dis
ge ograf
Fak ten</w>
sag ten</w>
uni gen</w>
over whel
zu sagen</w>
n ic
am bigu
ein führen</w>
v re</w>
privileg ed</w>
speci fy</w>
The orie</w>
R icht
9 001</w>
v ine
fel der</w>
ut en
einstimm ig</w>
wär ts</w>
Hus sein</w>
all mäh
res sourcen</w>
is en</w>
detail lierte</w>
en c
V I</w>
el li</w>
Fahr zeug</w>
S ri</w>
unic ation</w>
dar gelegt</w>
197 0</w>
ac t
Tim es</w>
ab gegeben</w>
P M</w>
to wer</w>
Ver trieb</w>
sp err
Spek trum</w>
rel ate</w>
pp s</w>
academ ic</w>
ap i
pres ti
author ised</w>
gerech net</w>
irl pool</w>
Eff ek
Y outh</w>
J acqu
justi fy</w>
d ella</w>
Objek t</w>
har m</w>
I A
Z ahn
in vo
bu l</w>
bli eb</w>
enz eit</w>
evalu ate</w>
lar ge-
termin al</w>
unterschei det</w>
Olymp us</w>
noti fied</w>
kon kur
organis ierte</w>
ne ben
J os
His tor
äum e</w>
C lau
K ey
ableh nen</w>
mis sed</w>
Menschen rechten</w>
al location</w>
sa iling</w>
Be urteilung</w>
Energiequ ellen</w>
Außen minister</w>
Zusammen setzung</w>
urop ä
angebot enen</w>
verstärk te</w>
ac tor</w>
fail s</w>
Ev ent</w>
Kub a</w>
es si
Sum me</w>
Berat ungen</w>
Erzeu gung</w>
ein geladen</w>
9 ,
tau chen</w>
defin ing</w>
eu s</w>
plan e</w>
st on</w>
oh nt</w>
mu g
public ations</w>
Refer endum</w>
L AN
arbei ter</w>
S av
nehm ern</w>
eig nen</w>
geb ro
Schwar z
prot est</w>
Belast ung</w>
schwier iger</w>
d ün
pain ting</w>
plat ten</w>
Ferienwoh nungen</w>
organis ierten</w>
Ex port</w>
im per
Änder ungs
app en</w>
rel oc
r ent
L en
ex quis
aus drück
Ost europa</w>
d un
effizi enten</w>
terror ists</w>
bus y</w>
geplan ten</w>
geb unden</w>
G PS</w>
pas sieren</w>
Ver sorgungs
meas uring</w>
An kün
C lar
dopp elt</w>
For mul
kun den
pap ers</w>
Schnitt stelle</w>
replac ement</w>
conserv ation</w>
äl tere</w>
Erd be
P V
demokrati sch</w>
emp fiehlt</w>
F ans</w>
Gro wth</w>
rati o</w>
ci vil
E lev
Franc isco</w>
du al</w>
a por
G oth
trop ical</w>
far ms</w>
Install ations
b ahnen</w>
in akzeptabel</w>
u e
agre es</w>
str eng</w>
iPo d</w>
g reg
air line</w>
Beam ten</w>
human ity</w>
Fl ori
Profession al</w>
Pri ze</w>
ungs -
acquis ition</w>
la di
B ah
al ar
vo ters</w>
Lo gik</w>
B is
dru cken</w>
cre ature</w>
Phy si
l assungen</w>
su chte</w>
israel ischen</w>
gener ous</w>
contrac tual</w>
Them en
Gewin ne</w>
Tari fa</w>
ech ter</w>
Spann ungen</w>
mo ves</w>
unanim ously</w>
consul t</w>
ag anda</w>
tra -
Produk tion
beschle un
land schaft</w>
zu gute</w>
emis sion</w>
S eri
gen ous</w>
Frem d
ig ten</w>
reve aled</w>
angebo te</w>
gel ingen</w>
ter ungen</w>
plac ing</w>
reg imes</w>
wi es</w>
er freul
war s</w>
beschle unigen</w>
M .</w>
EG -
schrei bt</w>
sp lit</w>
applic ant</w>
ger icht
transi t</w>
Verlän gerung</w>
S CH
system atic</w>
Str asse</w>
besch reibt</w>
S S</w>
after wards</w>
not ably</w>
unter wegs</w>
bal ances</w>
j ü
pas sende</w>
get ö
typ ische</w>
Mini bar</w>
I .</w>
kamp f</w>
co al</w>
Schutz es</w>
mon o
v als</w>
Su n</w>
Köl n</w>
b aut</w>
Aus gangs
M D
è s</w>
An zeige</w>
Prä sentation</w>
egel ung</w>
occ urs</w>
Fuß ball
lich -
protec tion
isti scher</w>
Willi am</w>
staat licher</w>
Marok ko</w>
withdraw al</w>
dau ern</w>
beeinflus st</w>
E .
interven e</w>
Vor gän
pro xim
verli ehen</w>
Erwä gung</w>
tonn es</w>
phy s
L ü
Besch werden</w>
initi ated</w>
po ker</w>
vereinbar ten</w>
viel sei
liz iert</w>
proc urement</w>
Steuer zahler</w>
f itted</w>
li est</w>
Mon ti</w>
geb au
coordin ate</w>
ge be</w>
unkno wn</w>
congratul ations</w>
re alize</w>
k new</w>
slow ly</w>
G öt
ärm sten</w>
м </w>
- in</w>
ob gleich</w>
J ean</w>
Ro om
ch at</w>
agent ur</w>
sen ior</w>
at on</w>
im posing</w>
controll ing</w>
Be wohner</w>
h o</w>
p unkten</w>
An bindung</w>
k it</w>
beru fen</w>
k ä
S po
Kar l</w>
du p
fu hr
zulässi g</w>
lei det</w>
1, 5</w>
Rahmen bedingungen</w>
W esen</w>
newsp aper</w>
quali fications</w>
San ter</w>
sü d
ir ische</w>
Einsch ränkungen</w>
gebrau cht</w>
gest ütz
gewinn t</w>
contribut ing</w>
un usual</w>
auf er
state- of-the-
verstän dnis</w>
Il lu
Ergän zung</w>
hand els</w>
li fer
z ones</w>
N RO</w>
In dex</w>
Syri en</w>
bir d</w>
B ahn</w>
differ enti
mon opo
E X</w>
ali ke</w>
cor por
Aufenthal ts
sp are</w>
arbitr ary</w>
ques tion
inves tiert</w>
bi egen</w>
Adres sen</w>
bab y</w>
ear ning</w>
Israel is</w>
Verletz ungen</w>
l &apos;
s now
Plen ar
eg a</w>
F ok
re e</w>
Büh ne</w>
Kre u
weit aus</w>
prec au
inter medi
E in</w>
F OR
photograph s</w>
St al
ch eck-
Bet rug</w>
vor gehen</w>
lich te</w>
AK P-
re act</w>
Lei ter</w>
un stable</w>
zwei f
T A</w>
besch ließen</w>
Pf lichten</w>
horizon tal</w>
au ßen
r ale</w>
Fest stellung</w>
L ar
Bet rach
tä r</w>
lei tungen</w>
Hei l
m igr
K ul
it ably</w>
k unden</w>
Tr end</w>
ein treten</w>
G las</w>
kurzfris tig</w>
uni ons</w>
struc tured</w>
[...]
