{
  "": 37322, 
  "kalk@@": 33915, 
  "verschiedentlich": 54562, 
  "Stakeholder": 49678, 
  "ebet@@": 35399, 
  "Szczecin": 65379, 
  "Signalen": 44128, 
  "Paare": 8229, 
  "Suche": 986, 
  "Herstellungsverfahren": 57019, 
  "Pronk": 56335, 
  "coni@@": 69591, 
  "woods": 13755, 
  "üppige": 41355, 
  "hanging": 74733, 
  "Prof@@": 11790, 
  "woody": 74785, 
  "nieder": 17491, 
  "Beschäftigung": 1677, 
  "sation": 63417, 
  "EU-US": 81030, 
  "canes": 72219, 
  "Mitte-R@@": 26491, 
  "Moreira": 62245, 
  "gefäl@@": 16831, 
  "stät@@": 67143, 
  "kraftvolle": 56455, 
  "durchgängige": 50163, 
  "originality": 81031, 
  "Grundrechtecharta": 37074, 
  "ei@@": 1631, 
  "zweifelsohne": 20282, 
  "Offers": 74194, 
  "Western": 5867, 
  "Kurdenfrage": 56202, 
  "Bruttoinlandsprodukts": 24447, 
  "Fremdenfeindlichkeit": 21751, 
  "Euro": 452, 
  "Vitamine": 36515, 
  "ี@@": 76897, 
  "Gest@@": 11187, 
  "ellation": 67999, 
  "Reformierung": 28742, 
  "umsetzung": 58623, 
  "üge": 25735, 
  "Schre@@": 58221, 
  "Blade": 49457, 
  "Infektion@@": 58765, 
  "lings": 19105, 
  "touristen": 52705, 
  "Nahen": 3235, 
  "replaces": 81034, 
  "vollautomatisch": 55621, 
  "athed@@": 57219, 
  "politician": 81035, 
  "Zábor@@": 76216, 
  "bringing": 81036, 
  "showroom": 76217, 
  "Meinungsunterschiede": 58905, 
  "Gärtner": 44749, 
  "streck@@": 21421, 
  "besorgniserregend": 25496, 
  "Miert": 55519, 
  "Erzählungen": 33401, 
  "Sack": 31444, 
  "viable": 83707, 
  "GA@@": 9579, 
  "trieb@@": 34586, 
  "gleichzeitige": 32775, 
  "verbandes": 29240, 
  "haltener": 56749, 
  "überholten": 50051, 
  "removing": 83779, 
  "Kompromiss@@": 36486, 
  "letzten@@": 34634, 
  "Signaturen": 36585, 
  "gabe@@": 27376, 
  "lätz@@": 75658, 
  "ная": 64178, 
  "aufwirft": 25585, 
  "insular": 72267, 
  "unermü@@": 35695, 
  "weiterentwickeln": 24205, 
  "anstehende": 32776, 
  "27.": 5589, 
  "Time@@": 37125, 
  "weiterentwickelt": 13428, 
  "271": 50350, 
  "272": 47221, 
  "273": 47222, 
  "274": 52916, 
  "275": 35494, 
  "watch@@": 50674, 
  "277": 54783, 
  "278": 57607, 
  "279": 53227, 
  "vervielfäl@@": 71648, 
  "Schlim@@": 19400, 
  "bigen": 12393, 
  "Verteidigungsministerium": 17985, 
  "errors": 71929, 
  "dialogs": 58222, 
  "auseinander@@": 32904, 
  "Erzeuger": 11109, 
  "niederländische": 13658, 
  "cooking": 73295, 
  "Sebastián": 61803, 
  "distingu@@": 74066, 
  "Schlösser": 31750, 
  "Jungfern@@": 28861, 
  "Hamilton": 9038, 
  "übrig@@": 52369, 
  "gehoben": 16309, 
  "zufrieden@@": 26102, 
  "erhobenen": 23857, 
  "ylen": 49946, 
  "regierenden": 12271, 
  "shocks": 79217, 
  "Breiten": 56717, 
  "Kernfusion": 54784, 
  "Bäckerei": 38804, 
  "Synonym": 32818, 
  "vorgeb@@": 31036, 
  "Foundation": 5548, 
  "Frühwarn@@": 42318, 
  "Shr@@": 49755, 
  "derweise": 35995, 
  "chter": 9529, 
  "Sozialschutzes": 55168, 
  "affiliates": 76218, 
  "Hour": 39377, 
  "Umzug": 10228, 
  "ching": 15803, 
  "wärtstrend": 41479, 
  "china": 46261, 
  "Wäh@@": 39904, 
  "athan": 63418, 
  "Kreb@@": 32380, 
  "Lan@@": 7348, 
  "Asylsystem": 55520, 
  "Mauritius": 36909, 
  "健@@": 79074, 
  "kids": 52326, 
  "Certific@@": 70933, 
  "Fotok@@": 58029, 
  "Muro": 62858, 
  "Lordaeron": 67505, 
  "Supermacht": 33606, 
  "ERGY": 61294, 
  "akzeptieren": 1849, 
  "Kommentaren": 13459, 
  "闻@@": 79075, 
  "ueber": 17561, 
  "Männern": 2807, 
  "geschuldet": 29859, 
  "Überfluss": 37865, 
  "Avira": 46631, 
  "ausgebauten": 59049, 
  "Isler": 63419, 
  "Isles": 62067, 
  "Mangel": 2951, 
  "Stand": 2068, 
  "gastein": 65892, 
  "golden": 41609, 
  "Dexter": 43083, 
  "Knowled@@": 65798, 
  "anheben": 49756, 
  "Harvey": 18117, 
  "sters": 9752, 
  "Smar@@": 22574, 
  "wohlwollend": 42264, 
  "ätzt": 64347, 
  "zerbrechen": 40837, 
  "Körper@@": 4827, 
  "stern": 8771, 
  "Küst@@": 20772, 
  "genommenen": 24632, 
  "wo@@": 7479, 
  "andalus@@": 49365, 
  "Aktualisierungen": 21675, 
  "Integrität": 8811, 
  "KTOR": 73776, 
  "insecurity": 79077, 
  "abzustimmen": 14001, 
  "42": 3630, 
  "Schwellen@@": 22596, 
  "Mannschaft": 1291, 
  "33-@@": 18978, 
  "Vorbehaltsware": 40089, 
  "ity@@": 25032, 
  "ländischen": 20100, 
  "Ho": 28944, 
  "gemu@@": 37715, 
  "therefore": 76221, 
  "Enttäuschung": 9154, 
  "Franciacorta": 67316, 
  "Self-@@": 55850, 
  "musik": 9774, 
  "Einzelfall": 25046, 
  "züglich": 66514, 
  "Diabetes": 8950, 
  "Änderungsanträge": 1311, 
  "hinzu@@": 17161, 
  "verschwendet": 22939, 
  "Ambi@@": 29138, 
  "Aufnahme@@": 19603, 
  "UNITA": 66515, 
  "Clients": 21278, 
  "Deutschland": 653, 
  "zugehörige": 45187, 
  "reproduktive": 35996, 
  "Lot@@": 21109, 
  "gün@@": 69415, 
  "cardassianischen": 58223, 
  "pflanzung": 54239, 
  "fremden@@": 39852, 
  "SPA": 31366, 
  "verschwenden": 25397, 
  "Umverteilung": 25249, 
  "volum@@": 28743, 
  "St-@@": 45487, 
  "Pre-@@": 42036, 
  "Delg@@": 48980, 
  "locked": 77820, 
  "tic-@@": 56082, 
  "locken": 9360, 
  "Kärnten": 52144, 
  "Sainjon": 66881, 
  "locker": 25250, 
  "intakt": 26247, 
  "−": 34558, 
  "Ricci@@": 43938, 
  "Klicken": 25178, 
  "wertungen": 50553, 
  "simpel": 57847, 
  "Subprime-@@": 37323, 
  "Jeggle": 60046, 
  "Le": 4077, 
  "wang": 45410, 
  "wand": 13650, 
  "La": 1814, 
  "holl@@": 35086, 
  "reduc@@": 71529, 
  "themati@@": 57120, 
  "wann": 1175, 
  "Li": 13125, 
  "Tandberg": 64191, 
  "ABAP": 55620, 
  "Lu": 42869, 
  "sterben": 3993, 
  "grenzübergreifenden": 39336, 
  "want": 68991, 
  "überflüssigen": 58907, 
  "mail": 17633, 
  "prinzipi@@": 46567, 
  "Komposition": 26474, 
  "absolute": 8499, 
  "LG": 23993, 
  "Zucker": 8705, 
  "LE": 16075, 
  "LB": 55968, 
  "LC": 47299, 
  "LA": 6749, 
  "glet@@": 49458, 
  "LO": 53677, 
  "travel": 62761, 
  "Zweig": 23079, 
  "Bescheinigung": 40218, 
  "Jetzt": 32055, 
  "Besei@@": 69231, 
  "LV": 41505, 
  "vertritt": 5702, 
  "playback": 76222, 
  "LR": 56203, 
  "vorausgesetzt": 10315, 
  "LP": 33097, 
  "Christdemokraten": 13635, 
  "-off": 45488, 
  "Falcon": 41610, 
  "晏@@": 81043, 
  "unterhaltsam": 34278, 
  "SP2": 51299, 
  "LY": 66404, 
  "1893": 52469, 
  "Pestizi@@": 38073, 
  "Berufsk@@": 57220, 
  "weiße": 5289, 
  "erlebnisreichen": 45880, 
  "L.": 7951, 
  "Film@@": 2403, 
  "Kurses": 33535, 
  "Verf@@": 30309, 
  "Nordmann": 66929, 
  "wrong": 76902, 
  "recht": 968, 
  "L2": 63420, 
  "L3": 64637, 
  "Nährstoffe": 35341, 
  "weißt": 24510, 
  "zzanine": 69414, 
  "Städ@@": 26392, 
  "ergreifenden": 56204, 
  "fleiß@@": 24518, 
  "CFO": 42667, 
  "Reduzierung": 6301, 
  "Gesicht@@": 36050, 
  "Gepäcks": 51348, 
  "Lachs@@": 41963, 
  "elnden": 25033, 
  "reibt": 46985, 
  "Stereo@@": 41821, 
  "Sanktions@@": 27268, 
  "LehrerInnen": 33069, 
  "18th": 76903, 
  "ergibt": 6313, 
  "Brel@@": 66219, 
  "Navigator": 45004, 
  "essin": 52229, 
  "CFR": 68407, 
  "CFP": 75266, 
  "Fokus": 5649, 
  "Verhalten@@": 31979, 
  "Nachbarschaft": 6279, 
  "sätz@@": 64846, 
  "Produktpalette": 20501, 
  "Ökonomen": 7101, 
  "swa@@": 75092, 
  "Sánchez": 48113, 
  "welcomed": 81046, 
  "verbindlich": 15552, 
  "ortiment": 53349, 
  "Niederlassungsfreiheit": 55169, 
  "Willi": 62246, 
  "Entwicklungs@@": 3095, 
  "朝": 81024, 
  "vertik@@": 56162, 
  "Wille": 9260, 
  "Schwester@@": 26691, 
  "welcomes": 81048, 
  "Geschäftsverkehr": 32534, 
  "木": 76224, 
  "bedeutungs@@": 32377, 
  "erstein": 56523, 
  "札": 81033, 
  "本": 75942, 
  "fit": 10704, 
  "benign": 77512, 
  "Schroeder": 65583, 
  "fix": 20214, 
  "zai": 38551, 
  "inar": 68992, 
  "inas": 35603, 
  "Smiths": 16769, 
  "kaz@@": 63132, 
  "kam@@": 19749, 
  "fic": 42741, 
  "inal": 53560, 
  "fia": 66836, 
  "fig": 18050, 
  "Kundendienst": 23278, 
  "pulsi@@": 81049, 
  "fik": 25740, 
  "gebildet": 7570, 
  "Him": 77822, 
  "Hin": 51154, 
  "tik-@@": 30062, 
  "Lak@@": 6784, 
  "zucker": 25687, 
  "spruchs": 40995, 
  "corridor": 82972, 
  "Mitro@@": 60364, 
  "ussel@@": 35905, 
  "antum": 71163, 
  "rezept": 46114, 
  "Indones@@": 47860, 
  "verwöh@@": 30694, 
  "Instru": 81572, 
  "Partnerschafts-": 38019, 
  "2x@@": 61199, 
  "Mestre": 53336, 
  "angestre@@": 71530, 
  "bure@@": 79078, 
  "klingen": 19604, 
  "Verwundbarkeit": 32171, 
  "arbeitungs@@": 61804, 
  "korro@@": 43158, 
  "Bundeswehr": 51253, 
  "Bé@@": 42855, 
  "terminology": 84199, 
  "Unterhaltung": 6896, 
  "averse": 70424, 
  "Gänze": 48151, 
  "befürwortete": 53769, 
  "Informati@@": 43819, 
  "präzisiert": 40090, 
  "wägung": 70127, 
  "Rechtsch@@": 45624, 
  "identifiziert": 4902, 
  "rhein@@": 57848, 
  "Statute": 72400, 
  "Bacon": 39250, 
  "Gründe": 2437, 
  "allah": 34179, 
  "Bediensteten": 20126, 
  "osis": 61805, 
  "Konkurrenzfähigkeit": 54563, 
  "allas": 58766, 
  "mühelos": 25895, 
  "391": 61383, 
  "390": 40768, 
  "Gegenseitigkeit": 26248, 
  "Verlauf@@": 48657, 
  "Pufferüberlauf": 50267, 
  "wäl@@": 37548, 
  "gewonnene": 48907, 
  "größ@@": 54917, 
  "Quot@@": 32957, 
  "Werbem@@": 32655, 
  "schung": 15929, 
  "halbe": 6756, 
  "Haute-@@": 61114, 
  "ober@@": 14821, 
  "ädern": 57852, 
  "Kriminalisierung": 47713, 
  "乗@@": 76927, 
  "erbringt": 39808, 
  "Konstruktion@@": 61071, 
  "zauberhafte": 47051, 
  "adapt": 78208, 
  "doppeltem": 56450, 
  "ль@@": 28822, 
  "size": 58814, 
  "aktuellen": 1268, 
  "stamping": 76906, 
  "gebundenen": 15054, 
  "MEDIA": 46335, 
  "IE@@": 41417, 
  "Eto@@": 65668, 
  "Passwor@@": 33999, 
  "strata": 40385, 
  "Haushaltsverfahrens": 44029, 
  "geliebt": 12555, 
  "fairen": 8225, 
  "Reut@@": 63831, 
  "statuts": 52030, 
  "Verkehrssicherheit": 36647, 
  "sheet": 70150, 
  "estimate": 77868, 
  "oberstes": 40687, 
  "bach@@": 37918, 
  "IJ@@": 64469, 
  "aktueller": 28171, 
  "aktuelles": 30729, 
  "Informationssysteme": 47396, 
  "auszudrücken": 18618, 
  "dische": 6463, 
  "Zerem@@": 67414, 
  "Aufenthaltsraum": 39853, 
  "dortigen": 23365, 
  "neutralen": 29168, 
  "Mittelmeerküste": 54500, 
  "ministries": 81055, 
  "Ländern": 377, 
  "Modellierung": 33195, 
  "Lande@@": 28359, 
  "viert@@": 17684, 
  "Niger": 33745, 
  "operation@@": 47829, 
  "mischungen": 47476, 
  "vieto": 81057, 
  "Gb@@": 70237, 
  "serei": 42110, 
  "bör@@": 50354, 
  "Anwender@@": 36487, 
  "Lond@@": 36269, 
  "Kirsch@@": 42870, 
  "Kommissionsmitglieder": 24987, 
  "-Spe@@": 60495, 
  "vieh": 50161, 
  "giftigen": 40383, 
  "prei@@": 16414, 
  "klär@@": 28506, 
  "bl@@": 3666, 
  "signiert": 46654, 
  "endlich": 1525, 
  "Ärztin": 28839, 
  "getötet": 1260, 
  "LAND": 52149, 
  "Aktionsplattform": 56083, 
  "mündliche": 12010, 
  "service": 6293, 
  "Laughter": 81058, 
  "russischen": 2574, 
  "Antriebstechnik": 53564, 
  "comp@@": 17255, 
  "master": 28448, 
  "Stabilis@@": 60120, 
  "russischer": 15304, 
  "Catto@@": 74067, 
  "Vertrauens@@": 12030, 
  "Sparen": 54666, 
  "kontrollierter": 52145, 
  "Aristo@@": 39494, 
  "Studiengänge": 55058, 
  "PvP": 64542, 
  "rewards": 76225, 
  "gefol@@": 69671, 
  "Desinf@@": 44809, 
  "versagt": 12857, 
  "unbestreitbar": 30024, 
  "GMOs": 74385, 
  "Blan@@": 13245, 
  "afran@@": 72291, 
  "task": 69083, 
  "Agadir": 66116, 
  "Oracle": 18484, 
  "Pastrana": 66253, 
  "mann-K@@": 77724, 
  "clean-@@": 74068, 
  "sudanesischen": 27764, 
  "270": 23302, 
  "ehood": 77827, 
  "orientierung": 38828, 
  "ACK@@": 58486, 
  "SPAM": 67792, 
  "ahmen": 16298, 
  "ferien": 27248, 
  "Catalunya": 31906, 
  "Verletzten": 19302, 
  "install@@": 52529, 
  "serhö@@": 60609, 
  "idle": 74734, 
  "sturz": 16617, 
  "beruhende": 43535, 
  "tiero": 73600, 
  "Città": 64083, 
  "SPAR": 65999, 
  "IB": 36910, 
  "feeling": 69765, 
  "best-@@": 31698, 
  "Schweizerischen": 44172, 
  "müh@@": 18393, 
  "mehrfacher": 57100, 
  "6819": 58767, 
  "Mentor": 21150, 
  "kontrollierten": 13524, 
  "aufträge": 15502, 
  "Chicago": 3127, 
  "besichtigen": 14023, 
  "6815": 64084, 
  "Pilot@@": 12250, 
  "Rekord@@": 3422, 
  "Є@@": 74069, 
  "ὁ": 81059, 
  "goodness": 84936, 
  "Flugzeu@@": 19702, 
  "З@@": 67765, 
  "tale": 70264, 
  "miniatur@@": 64847, 
  "Theo": 34234, 
  "OSZE": 19164, 
  "gebotenen": 32777, 
  "imstande": 16873, 
  "sitio": 81060, 
  "Fontaine": 31749, 
  "kollegen": 8990, 
  "Jiabao": 45957, 
  "Stimmabgabe": 25497, 
  "Facetten": 32740, 
  "Unternehmensk@@": 59879, 
  "invali@@": 72076, 
  "Dial@@": 38565, 
  "Begrüß@@": 63133, 
  "y-@@": 1206, 
  "Session-@@": 51318, 
  "jahres@@": 10859, 
  "They": 72883, 
  "ist-@@": 60121, 
  "simp@@": 46569, 
  "begab@@": 15572, 
  "Erlernen": 24634, 
  "Yokohama": 57396, 
  "segeln": 29801, 
  "führt": 641, 
  "DEM@@": 60905, 
  "ful@@": 38929, 
  "Seit": 35604, 
  "echnik": 27392, 
  "Hor@@": 4589, 
  "kommerzielle": 6828, 
  "pauschal": 51856, 
  "metrics": 67503, 
  "venti@@": 47952, 
  "door-@@": 56624, 
  "ὺ": 81061, 
  "DER@@": 36864, 
  "fertiger": 49343, 
  "Pandora": 39911, 
  "amps": 51927, 
  "beleuchteten": 50164, 
  "two-@@": 69858, 
  "unterlassen": 30424, 
  "Wirtschaftsin@@": 39496, 
  "Sein": 22357, 
  "mosa@@": 61970, 
  "Erkrankungen": 11415, 
  "singer": 46032, 
  "DiskRecovery": 67504, 
  "夕@@": 81062, 
  "schlendern": 32326, 
  "oder": 50, 
  "Moo@@": 31298, 
  "besagt": 4539, 
  "Kons@@": 57345, 
  "Teilnahme@@": 43082, 
  "arbeitern": 18499, 
  "tech": 19649, 
  "tilien": 31788, 
  "Avat@@": 50558, 
  "yl@@": 7278, 
  "singen": 10757, 
  "Mor@@": 1541, 
  "schafter": 15709, 
  "Marke": 2432, 
  "Züge": 10840, 
  "minimale": 20944, 
  "abel@@": 19626, 
  "ヒ@@": 81063, 
  "Buchar@@": 70421, 
  "Par@@": 1222, 
  "Eurol@@": 35450, 
  "berühmten": 3505, 
  "dicken": 19969, 
  "berühmter": 40248, 
  "berühmtes": 60242, 
  "Enthaltung": 52470, 
  "Markter@@": 51857, 
  "Template": 41808, 
  "Marks": 28145, 
  "A5-00@@": 26906, 
  "tenden@@": 31367, 
  "ὶ": 81064, 
  "schaften": 5164, 
  "eingestellt": 4762, 
  "Resources": 18008, 
  "arbeitn@@": 45081, 
  "Pomm@@": 34688, 
  "tibe@@": 50052, 
  "Vla@@": 39453, 
  "excavator": 81065, 
  "レ@@": 76226, 
  "kerns": 57972, 
  "Reisen": 3595, 
  "rics": 47744, 
  "João": 62259, 
  "Stammzellen@@": 70112, 
  "Wiederhol@@": 49185, 
  "rico": 58099, 
  "LIVE": 51684, 
  "höchste": 2927, 
  "rick": 11897, 
  "rich": 37610, 
  "Geste": 13896, 
  "Jed@@": 43159, 
  "trün@@": 64756, 
  "rice": 44751, 
  "verkehr@@": 26085, 
  "Versäumnis": 13141, 
  "rica": 61887, 
  "nebenan": 43452, 
  "beschneiden": 26582, 
  "abgehalten": 5362, 
  "а@@": 18849, 
  "Entlastungs@@": 40384, 
  "dream@@": 72220, 
  "Pöt@@": 74757, 
  "千@@": 81066, 
  "Vok@@": 23793, 
  "Tricks": 16607, 
  "angesp@@": 12668, 
  "öffentlichem": 46724, 
  "öffentlichen": 482, 
  "iate": 71531, 
  "öffentlicher": 5464, 
  "öffentliches": 24555, 
  "蝦@@": 81067, 
  "择@@": 81068, 
  "-Rei@@": 13715, 
  "bevorzugt": 12725, 
  "XLSTAT": 44752, 
  "platz": 3511, 
  "Schleim@@": 43972, 
  "vill@@": 44471, 
  "medic@@": 70200, 
  "PVC-@@": 48114, 
  "gen-@@": 14292, 
  "boarder": 66000, 
  "Riu": 65167, 
  "patch": 39284, 
  "Rio": 5455, 
  "stol@@": 15067, 
  "Expan@@": 26219, 
  "ara-@@": 38567, 
  "電@@": 79084, 
  "Firmensitz": 33446, 
  "Investitions@@": 5353, 
  "kodi@@": 19549, 
  "extrem@@": 30426, 
  "Höhepunkte": 29268, 
  "Gründen": 1561, 
  "Zuck@@": 34319, 
  "izil": 61514, 
  "ized": 67907, 
  "point-@@": 57346, 
  "zahlen": 894, 
  "Chron@@": 14778, 
  "acienda": 79085, 
  "kr@@": 6621, 
  "zahler": 47955, 
  "Gewis@@": 63105, 
  "Anderson": 6825, 
  "Jahres@@": 2584, 
  "Monster": 12916, 
  "individuelle": 4848, 
  "osity": 51020, 
  "Gründer": 6196, 
  ".it": 49089, 
  "entschlossen@@": 61115, 
  "Wassersportarten": 51535, 
  "lots": 70422, 
  "Kenyan": 73778, 
  "irr": 49757, 
  "irs": 15448, 
  "Internetnutzer": 56581, 
  "Informationsaustausch": 19310, 
  "iri": 38399, 
  "Vollstreckung": 32331, 
  "rumor@@": 76908, 
  "iro": 21377, 
  "ations": 10728, 
  "ira": 20073, 
  "auffallend": 25812, 
  "ire": 3213, 
  "Advanced": 19438, 
  "Buff@@": 9006, 
  "Work@@": 11031, 
  "Heimatländer": 56582, 
  "Ausflug": 13606, 
  "Männer": 772, 
  "extend": 79087, 
  "nature": 69585, 
  "leist@@": 31542, 
  "massagen": 58703, 
  "Robustheit": 46180, 
  "equ@@": 26577, 
  "cula": 46692, 
  "glanz@@": 20878, 
  "ulierten": 19650, 
  "Schauspieler": 3239, 
  "mäh@@": 38274, 
  "butions": 71395, 
  "Shel@@": 11976, 
  "stanzen": 39639, 
  "Gewalttaten": 24381, 
  "firm@@": 36151, 
  "enkreis": 51603, 
  "Vertragsbestimmungen": 60365, 
  "zes@@": 23455, 
  "dow@@": 33214, 
  "heating": 75661, 
  "Laura": 12102, 
  "Staat": 848, 
  "negative": 5791, 
  "welche": 374, 
  "Weihnachts@@": 5732, 
  "Neuchâtel": 70117, 
  "geraumer": 39963, 
  "Straß@@": 17477, 
  "Forschungen": 11898, 
  "ausgewogene": 12023, 
  "esis": 36203, 
  "halbwegs": 59740, 
  "Apartment": 8378, 
  "sierungs@@": 29410, 
  "ppets": 46656, 
  "Kurier@@": 48701, 
  "unterstreichen": 6300, 
  "seu@@": 46797, 
  "Government": 15445, 
  "Schlafzimmern": 21438, 
  "Dokumentations@@": 48562, 
  "esia": 48659, 
  "4.2": 42261, 
  "esie": 38805, 
  "DIM@@": 66215, 
  "Entschließung": 1406, 
  "blonde": 51155, 
  "歌@@": 81072, 
  "Kosten-@@": 62954, 
  "Ō@@": 70527, 
  "fra": 65895, 
  "Beruh@@": 32185, 
  "Mitspieler": 60000, 
  "intuitiv": 32448, 
  "Gedicht": 27300, 
  "union": 13345, 
  "Harrachov": 67038, 
  "fri": 75184, 
  "Mitgliedsländern": 20250, 
  "erinnerte": 6914, 
  "kasten": 18688, 
  ".": 4, 
  "beratungen": 52258, 
  "fru": 73499, 
  "Energiegewinnung": 54464, 
  "Halten": 31559, 
  "Haushaltskontroll@@": 59603, 
  "trock@@": 28320, 
  "Poseidon": 63234, 
  "IStGH": 28034, 
  "Kunststoff@@": 15068, 
  "Arnaud": 54913, 
  "guil@@": 69232, 
  "Konflikt@@": 20370, 
  "haft@@": 38621, 
  "tibility": 77831, 
  "TO@@": 15260, 
  "Consensus": 66516, 
  "fahrenden": 53250, 
  "TZ@@": 47134, 
  "paradig@@": 65799, 
  "betreuung": 39962, 
  "Auktion@@": 18619, 
  "Parlam@@": 74295, 
  "Durão": 67317, 
  "Kloster": 14209, 
  "spin": 72539, 
  "coo@@": 71273, 
  "Wiersma": 62068, 
  "TDI": 54465, 
  "Auszahlung": 16427, 
  "Flach@@": 25557, 
  "MY@@": 52370, 
  "Ÿ@@": 72891, 
  "Lagerung": 15954, 
  "Law": 10367, 
  "Osti@@": 65274, 
  "employ": 81073, 
  "Vorreiter": 32741, 
  "vorzubringen": 48660, 
  "untragbar": 33548, 
  "glu@@": 45813, 
  "Eingestän@@": 24245, 
  "umsteigen": 41755, 
  "真@@": 77833, 
  "vorschrift": 60243, 
  "Vorjahres@@": 10882, 
  "deste": 55851, 
  "canoeing": 79092, 
  "Hauptaufgabe": 37230, 
  "wachsen@@": 66617, 
  "Afrikas": 10405, 
  "desto": 5263, 
  "uneingeschränkte": 16097, 
  "Hirsch@@": 41611, 
  "Zwischenstopp": 53771, 
  "alisten": 7299, 
  "Trinken": 17732, 
  "Cala": 22249, 
  "rutschen": 22286, 
  "conditioner": 79093, 
  "Tourism@@": 60244, 
  "Genugtuung": 20652, 
  "komponiert": 31445, 
  "numerische": 52052, 
  "memorial": 79094, 
  "Valley": 6624, 
  "angehoben": 34133, 
  "rechenschaftspflich@@": 51757, 
  "zah@@": 18474, 
  "Thailands": 26191, 
  "strengere": 13336, 
  "feind@@": 28146, 
  "devo@@": 60610, 
  "Videok@@": 28892, 
  "detailliertere": 50703, 
  "split": 40324, 
  "Zusammenlegung": 45236, 
  "substanti@@": 47934, 
  "lipp@@": 70302, 
  "junge": 1542, 
  "tensive": 55971, 
  "boiled": 81076, 
  "vierten": 2736, 
  "viertel": 9666, 
  "Erstellen": 22677, 
  "Erwachsene": 5364, 
  "hochauflösenden": 54914, 
  "zugewiesenen": 37425, 
  "ary-@@": 61385, 
  "qualifiziert": 10914, 
  "Rech@@": 18442, 
  "Schocks": 29411, 
  "M.@@": 11458, 
  "Reyn@@": 16027, 
  "Tak@@": 10173, 
  "Jugendher@@": 65961, 
  "Traces": 68329, 
  "Lebensformen": 55701, 
  "überarbeitet": 14855, 
  "EBA": 56867, 
  "路@@": 81078, 
  "Darstellungs@@": 51960, 
  "ität@@": 39854, 
  "Modul": 9171, 
  "Zustände": 29249, 
  "Ungewissheit": 18838, 
  "Wod@@": 57348, 
  "Freizeiteinrichtungen": 48030, 
  "einhergehen": 22122, 
  "verschiedenste": 27130, 
  "Elfen": 52821, 
  "mittragen": 46725, 
  "Modus": 9170, 
  "桂": 81079, 
  "inc@@": 10200, 
  "dk@@": 55170, 
  "corporate": 68834, 
  "plaque": 81080, 
  "Zollunion": 25133, 
  "Populismus": 37371, 
  "Rapid": 46413, 
  "zurzeit": 8144, 
  "Noval@@": 67916, 
  "Brustkrebs": 14789, 
  "stream@@": 65694, 
  "Florentiner": 53866, 
  "FL@@": 17162, 
  "treibenden": 59050, 
  "Vorhang": 24195, 
  "wiederholten": 17888, 
  "lasse": 10699, 
  "Jurys": 55816, 
  "IAO-@@": 54336, 
  "weltberühmten": 32489, 
  "loo@@": 48299, 
  "FC@@": 53884, 
  "religi@@": 33654, 
  "Happy": 22962, 
  "Zugeständnis": 37659, 
  "hai": 20074, 
  "polis@@": 45643, 
  "hak": 54995, 
  "hal": 59734, 
  "ham": 2734, 
  "han": 10376, 
  "endum": 69859, 
  "Oscar": 9053, 
  "umfangreiche": 4956, 
  "sequenzen": 45958, 
  "had": 12917, 
  "Immobilienmarkt": 48919, 
  "hay": 68170, 
  "Connecticut": 10035, 
  "beloved": 81081, 
  "fielen": 4765, 
  "Schicksals": 42320, 
  "ด@@": 77836, 
  "har": 13894, 
  "has": 25733, 
  "hat": 36, 
  "Eure": 36423, 
  "End-@@": 16039, 
  "wr@@": 28909, 
  "istan": 17959, 
  "priesen": 21800, 
  "inging": 40029, 
  "knock": 66721, 
  "elders": 79095, 
  "Setup": 36390, 
  "Lampedusa": 35737, 
  "Risikof@@": 65896, 
  "Mich@@": 15573, 
  "Mitterr@@": 71532, 
  "unequivocally": 81082, 
  "objective": 76228, 
  "Brücke": 5610, 
  "vorteilhafte": 32490, 
  "Sonnenunter@@": 61112, 
  "Risikok@@": 29695, 
  "shadow": 70523, 
  "commodi@@": 79097, 
  "beherbergt": 9581, 
  "Selbstregulierung": 40091, 
  "schienen": 11308, 
  "Bremsen": 37599, 
  "Subjek@@": 33143, 
  "semi": 68298, 
  "egelung": 15869, 
  "igrants": 79098, 
  "ähert": 49948, 
  "Was@@": 28463, 
  "Comic@@": 24597, 
  "baskets": 79099, 
  "Bald@@": 24731, 
  "ähern": 75185, 
  "Steven": 6992, 
  "Frames": 38275, 
  "ateg@@": 43307, 
  "reduzieren": 2716, 
  "Pentagon": 9667, 
  "ス@@": 73529, 
  "tsprech@@": 62159, 
  "Swedish": 72375, 
  "attorney": 79100, 
  "Lagerhaltung": 52917, 
  "Klassifikation": 50657, 
  "crowd": 81086, 
  "Wohnen": 31446, 
  "crown": 77838, 
  "ianischen": 26444, 
  "Druck@@": 3958, 
  "lebigkeit": 70212, 
  "Lenkungs@@": 46798, 
  "Mittelmeeres": 48920, 
  "Wies@@": 34134, 
  "Nordosten": 12756, 
  "Firma": 1045, 
  "angu@@": 55280, 
  "Plit@@": 64330, 
  "Queenst@@": 76910, 
  "darüberhinaus": 37611, 
  "zeugt": 15544, 
  "geografischen": 18607, 
  "Antal@@": 70213, 
  "äfte": 30743, 
  "nachlässi@@": 41023, 
  "zeugs": 50559, 
  "Garde": 29412, 
  "inhuman": 65897, 
  "Garda": 36392, 
  "unting": 80805, 
  "zeuge": 15282, 
  "stands@@": 12278, 
  "Facebook": 3475, 
  "Spalte": 19710, 
  "Ray": 9539, 
  "sprach": 1616, 
  "Übersetzer": 16712, 
  "gorge": 80704, 
  "Leitungs@@": 29298, 
  "Watts": 28172, 
  "sing@@": 30240, 
  "Tiermehl": 53028, 
  "Erfüllungsgehilfen": 45489, 
  "ausgehende": 38953, 
  "Multilateralismus": 36424, 
  "Johan@@": 36521, 
  "barcode": 79101, 
  "Menschenrechtsaktivisten": 27861, 
  "binden": 9582, 
  "minimalen": 29637, 
  "Calle": 31487, 
  "binder": 55622, 
  "interpre@@": 37966, 
  "bindet": 26369, 
  "starring": 77839, 
  "Fe@@": 8333, 
  "Bündel": 28507, 
  "endor@@": 46115, 
  "grü": 79125, 
  "industrialisierten": 44173, 
  "adet": 63421, 
  "Begehren": 54759, 
  "Barri@@": 27979, 
  "acom": 40092, 
  "Mitspracher@@": 70727, 
  "ader": 11693, 
  "ades": 25416, 
  "chemisch": 45411, 
  "Zulassungs@@": 25333, 
  "cular": 51476, 
  "Menüs": 17146, 
  "President-in-Office": 79102, 
  "flut": 26947, 
  "aded": 46726, 
  "entier@@": 26616, 
  "Schub": 27894, 
  "Schadenspunkt": 57850, 
  "klarzustellen": 30880, 
  "Schuh": 30224, 
  "aden": 3432, 
  "Hip@@": 20838, 
  "teles@@": 67592, 
  "Etik@@": 41823, 
  "Hauptverantwortung": 46262, 
  "Rentensysteme": 32458, 
  "schlu@@": 27926, 
  "-Laufwerk": 46263, 
  "anbieten": 2762, 
  "Pragmatismus": 40030, 
  "Formulierung": 8787, 
  "pandem@@": 56722, 
  "honeymoon": 81351, 
  "lieber": 4342, 
  "unvollständig": 29201, 
  "Aaron": 10737, 
  "lieben": 4232, 
  "Stereo": 55333, 
  "Gemeinschaft": 632, 
  "anisch": 29169, 
  "Förderungen": 49758, 
  "anbieter": 9701, 
  "einzuziehen": 57102, 
  "shoots": 79104, 
  "Dai@@": 33658, 
  "Beutel": 36357, 
  "Elastizität": 49366, 
  "anbietet": 10036, 
  "hammo@@": 81145, 
  "dick@@": 24692, 
  "Ebro": 62319, 
  "addington": 70630, 
  "mbH": 46414, 
  "exek@@": 14064, 
  "Entscheidungsprozessen": 51574, 
  "lenk@@": 21756, 
  "ernstes": 32746, 
  "valu@@": 67233, 
  "fabrik": 11322, 
  "Raster": 45414, 
  "Weltwirtschaft": 8428, 
  "betonte": 7314, 
  "Heidel@@": 53125, 
  "Erwerb": 11330, 
  "Ende": 237, 
  "Kommun@@": 37478, 
  "Abfragen": 36809, 
  "Praktikanten": 38029, 
  "ve@@": 8130, 
  "isl@@": 24804, 
  "luxuriö@@": 48382, 
  "wände": 20700, 
  "öglich": 76912, 
  "pfen": 6987, 
  "normaler": 20844, 
  "normales": 20592, 
  "ersticken": 37426, 
  "Spie@@": 38812, 
  "е": 18839, 
  "strike": 74386, 
  "Warn@@": 12138, 
  "verde": 59604, 
  "normalen": 4951, 
  "Messestand": 42804, 
  "Pich@@": 47301, 
  "生@@": 74736, 
  "safeguard": 77841, 
  "envis@@": 70934, 
  "Wissens": 14605, 
  "other@@": 54667, 
  "geteil@@": 58768, 
  "年@@": 77842, 
  "amerikanischen": 730, 
  "echo@@": 68645, 
  "auszuräumen": 42805, 
  "amerikanischem": 45800, 
  "arrays": 69586, 
  "aza": 37922, 
  "anco": 36307, 
  "endete": 3303, 
  "County": 2141, 
  "Spambots": 33184, 
  "azz": 61889, 
  "beeindrucken": 24676, 
  "Wahn@@": 33356, 
  "Haus@@": 1694, 
  "amerikanischer": 5725, 
  "Messenger": 25267, 
  "Honig": 20932, 
  "whoever": 81091, 
  "Isabel": 40596, 
  "dues": 70427, 
  "britischer": 7910, 
  "Vorsitzende": 4053, 
  "zusammenleben": 52481, 
  "auswahl": 13855, 
  "kontrollier@@": 42229, 
  "moderne": 2070, 
  "Terror@@": 4466, 
  "minibar": 69942, 
  "tis@@": 23954, 
  "Tales": 41574, 
  "IME@@": 63715, 
  "Cap@@": 4723, 
  "minal": 50941, 
  "bular": 80037, 
  "überbringen": 60496, 
  "religiöser": 17199, 
  "hauses": 12368, 
  "Befehlen": 56084, 
  "Tool@@": 31447, 
  "Badewanne": 16269, 
  "ECOFIN": 62763, 
  "fließt": 12498, 
  "kostbaren": 37612, 
  "unterschiedlich": 6302, 
  "fungierte": 53885, 
  "Her@@": 2707, 
  "quick@@": 26997, 
  "Schü": 79106, 
  "billig@@": 17098, 
  "Chinesischen": 59051, 
  "ritte": 36646, 
  "Some@@": 31580, 
  "LateRooms.com": 22085, 
  "IC-@@": 36605, 
  "Betäub@@": 28151, 
  "stürzen": 5336, 
  "italienische": 4784, 
  "Antidiskriminierungs@@": 46657, 
  "Fasern": 33831, 
  "roll": 14304, 
  "Konsulat": 28101, 
  "kontro@@": 32011, 
  "ßes": 26475, 
  "ßer": 14009, 
  "E": 1974, 
  "transporten": 57851, 
  "palms": 78064, 
  "amerikanische": 1116, 
  "milde": 20946, 
  "Gardena": 64944, 
  "Melbourne": 4057, 
  "Katiforis": 51965, 
  "ham@@": 15245, 
  "intent": 79107, 
  "sage@@": 38126, 
  "OV@@": 61890, 
  "variable": 29450, 
  "transporter": 54564, 
  "veröffent@@": 49181, 
  "Gardens": 24150, 
  "ßen": 4081, 
  "Kraus@@": 51667, 
  "PostgreSQL": 54337, 
  "gegenübersteht": 41612, 
  "Free@@": 17708, 
  "Massenentlassungen": 51356, 
  "eBay": 17575, 
  "ren": 3376, 
  "kämpf@@": 10105, 
  "president": 80926, 
  "Rechn@@": 38280, 
  "Wahlmöglichkeit": 57483, 
  "green@@": 62764, 
  "Aids-@@": 47565, 
  "G20-Gipfel": 36362, 
  "corps": 38566, 
  "volle": 2395, 
  "3st": 65898, 
  "anhaltend": 38400, 
  "entrepreneur@@": 77843, 
  "wahrnimmt": 41824, 
  "ost": 48671, 
  "谢@@": 82529, 
  "osi": 16826, 
  "osk": 71396, 
  "digungen": 12652, 
  "oso": 48115, 
  "abgaben": 34907, 
  "osa": 21891, 
  "chair": 73530, 
  "ose": 11915, 
  "Kra@@": 12150, 
  "Krebs@@": 6282, 
  "hän@@": 5986, 
  "macht": 367, 
  "voc@@": 37184, 
  "fro@@": 8355, 
  "baller": 14858, 
  "Tourist": 36522, 
  "schaftspflich@@": 81096, 
  "schöner": 9678, 
  "schönes": 7933, 
  "Rassen": 26476, 
  "unterstützende": 28837, 
  "crates": 70816, 
  "crater": 81401, 
  "mache": 6091, 
  "schönen": 2780, 
  "schönem": 29736, 
  "Privath@@": 30883, 
  "ikrobi@@": 79108, 
  "circumstances": 81097, 
  "Tourism": 44030, 
  "third": 76914, 
  "Vorjahres": 29103, 
  "Hammer@@": 33838, 
  "Tall@@": 31703, 
  "Österreichische": 62604, 
  "beleg@@": 56085, 
  "Karo@@": 57484, 
  "läufer@@": 44394, 
  "Funk@@": 9199, 
  "engagierte": 15937, 
  "geachtet": 14399, 
  "gloomy": 81099, 
  "ümm@@": 28321, 
  "geflossen": 35439, 
  "Barrel": 7690, 
  "Gesamthaushalt": 60452, 
  "exact": 76230, 
  "dahin@@": 42032, 
  "minute": 33307, 
  "riebene": 38506, 
  "Tat": 1487, 
  "Tau": 56458, 
  "Hausaufgaben": 22491, 
  "Tap": 36454, 
  "Jakob": 33567, 
  "gewachsene": 50455, 
  "undene": 41686, 
  "Mitte": 1249, 
  "Nico": 40093, 
  "Tax": 36698, 
  "Blätter": 15486, 
  "PA@@": 22695, 
  "Tag": 253, 
  "Habit@@": 37126, 
  "Tab": 39622, 
  "unveräußer@@": 46658, 
  "Tal": 7346, 
  "Verbund": 30026, 
  "Tan": 37427, 
  "Tao": 51668, 
  "drakon@@": 38444, 
  "mitteilen": 7030, 
  "Antragsteller": 24471, 
  "Mädchen": 1386, 
  "Silvio": 28205, 
  "Luftverschmutzung": 21960, 
  "Stockwerke": 23401, 
  "309": 57308, 
  "trails": 73813, 
  "Silvia": 56467, 
  "M.": 4973, 
  "LI@@": 36998, 
  "Flugzeugen": 11168, 
  "mauern": 28744, 
  "Ap@@": 4945, 
  "M5": 54116, 
  "Meeresspiegel": 29981, 
  "M6": 59470, 
  "M1": 43528, 
  "shirts": 51758, 
  "M3": 47383, 
  "M2": 53447, 
  "berfläche": 54915, 
  "Ernst": 12724, 
  "cherer": 45881, 
  "grösseren": 45155, 
  "googletag.display": 43752, 
  "echnologie": 29007, 
  "Alpha@@": 15404, 
  "C-@@": 2360, 
  "Mario": 11289, 
  "fiziertes": 33484, 
  "belä@@": 35552, 
  "köstliches": 45326, 
  "terroristische": 12683, 
  "Inhalten": 8599, 
  "evorschriften": 59537, 
  "Inhaltes": 60245, 
  "Benennung": 23009, 
  "Quinta": 49723, 
  "AI@@": 14220, 
  "Magna": 36648, 
  "gewahrt": 17301, 
  "fizierten": 13703, 
  "stärkste": 14568, 
  "Lopez": 15903, 
  "Fraktion": 846, 
  "bewachsen@@": 47052, 
  "Me": 11424, 
  "parlament@@": 50054, 
  "Ma": 23006, 
  "Konzep@@": 48997, 
  "Mb": 66119, 
  "kino": 52939, 
  "Mo": 16354, 
  "Lebensart": 38838, 
  "Paket@@": 17097, 
  "Phantasie": 21019, 
  "Ansatzes": 17451, 
  "aku@@": 34732, 
  "Mt": 26139, 
  "MAD@@": 54683, 
  "vorsätzliches": 57496, 
  "Ms": 31907, 
  "Mr": 71274, 
  "Sitzplatz": 20093, 
  "zylinder": 44174, 
  "307": 51301, 
  "My": 10668, 
  "Recre@@": 48193, 
  "Daten": 384, 
  "ME": 17345, 
  "MD": 25761, 
  "Lang@@": 7051, 
  "MF": 34908, 
  "MA": 11858, 
  "abends": 11072, 
  "MC": 26164, 
  "MB": 11896, 
  "MM": 54251, 
  "ML": 35823, 
  "legungs@@": 18009, 
  "partments": 61618, 
  "MI": 34824, 
  "kreislauf": 35696, 
  "queue": 73779, 
  "MT": 28895, 
  "MW": 34006, 
  "abende": 34635, 
  "itäten": 10985, 
  "MP": 11924, 
  "MS": 9759, 
  "MR": 50165, 
  "vorgeschrieben": 19091, 
  "anna": 8167, 
  "HV@@": 51669, 
  "Annahme": 2282, 
  "MY": 59299, 
  "Auswirkung": 8410, 
  "bour@@": 28175, 
  "adäquat": 39847, 
  "iertem": 19837, 
  "info@@": 46969, 
  "UV-@@": 28946, 
  "umps": 38919, 
  "liance": 55059, 
  "Jum@@": 23333, 
  "Giulia": 66216, 
  "fortführen": 38507, 
  "Biog@@": 68088, 
  "umpf": 37325, 
  "Vorstands@@": 18257, 
  "bestimmt": 1836, 
  "Jong": 21636, 
  "Wes@@": 13509, 
  "afa": 32820, 
  "Kyo@@": 47745, 
  "Richtlinie": 707, 
  "Davidson": 24672, 
  "made-@@": 74388, 
  "Nei@@": 11685, 
  "mak@@": 37765, 
  "August": 1123, 
  "working": 69416, 
  "hГ": 54117, 
  "Baskenland": 37613, 
  "Gerichts@@": 3500, 
  "Ermittlungen": 4161, 
  "Verordnungen": 8685, 
  "ausbeuten": 43380, 
  "gefahr@@": 38401, 
  "plo@@": 44023, 
  "Lo": 37955, 
  "aufgebür@@": 77218, 
  "geschwä@@": 37967, 
  "ad@@": 1501, 
  "Millim@@": 47135, 
  "effektiv": 3927, 
  "Gießen": 57043, 
  "USB@@": 41297, 
  "Iris": 45156, 
  "unvermei@@": 41749, 
  "Klaus": 20075, 
  "Fernen": 46970, 
  "opädie": 56584, 
  "liere": 56834, 
  "nas@@": 39040, 
  "nad@@": 30329, 
  "JR": 63859, 
  "wünsch@@": 30027, 
  "milli@@": 11835, 
  "Belichtung": 29662, 
  "Rechtsstaatlichkeit": 6856, 
  "Mobiliar": 33252, 
  "Zentrum": 857, 
  "Management-@@": 14071, 
  "consoles": 81103, 
  "Genuß": 41895, 
  "Liegen@@": 51255, 
  "ى@@": 81105, 
  "Abrüstung": 23955, 
  "Nord-Süd-@@": 36911, 
  "iederlassung": 51477, 
  "riders": 65695, 
  "Noti@@": 35045, 
  "refin@@": 76773, 
  "Träger@@": 25532, 
  "Pustertal": 58772, 
  "MASCHINE": 68273, 
  "portugiesische": 17057, 
  "ABAS": 66217, 
  "Pays": 61971, 
  "abortion": 78216, 
  "subst@@": 70113, 
  "niederlän@@": 45569, 
  "auszusprechen": 24532, 
  "Wörter": 12846, 
  "caution": 81106, 
  "altertüm@@": 51041, 
  "Vergel@@": 78145, 
  "craft@@": 65168, 
  "Conservatory": 69041, 
  "Einteilung": 45005, 
  "heimgesucht": 13584, 
  "sover@@": 54118, 
  "mirrors": 72884, 
  "Building": 18254, 
  "fliegt": 13841, 
  "sprün@@": 53299, 
  "darstellt": 1929, 
  "Punk@@": 4010, 
  "reitungen": 75666, 
  "Hilfsleistungen": 48459, 
  "kreuzt": 29946, 
  "Symphony": 34320, 
  "Verteidigungspolitik": 11614, 
  "lockt": 22268, 
  "günstigsten": 28582, 
  "Segmente": 30526, 
  "Ç@@": 46659, 
  "Hume": 40637, 
  "litre": 79110, 
  "ople": 74237, 
  "septic": 79645, 
  "Notfall": 20287, 
  "Marathon@@": 33916, 
  "bies": 21434, 
  "Neugier": 33308, 
  "assung": 34636, 
  "Orchester@@": 38930, 
  "Rangliste": 19019, 
  "锋@@": 81111, 
  "sprüch@@": 49857, 
  "Skinner": 37479, 
  "einbezogen": 5963, 
  "Bord": 3125, 
  "LAN-@@": 61017, 
  "Pinsel": 32580, 
  "erschwinglichen": 28705, 
  "erneuerbarer": 16568, 
  "Dör@@": 60907, 
  "Transformations@@": 47415, 
  "atal": 46805, 
  "STA": 64085, 
  "scales": 84443, 
  "STM": 65382, 
  "sour": 43589, 
  "LD": 54565, 
  "Accord": 74056, 
  "Bari": 48921, 
  "pünktlich": 25498, 
  "schweb@@": 28228, 
  "Messung": 12750, 
  "schmuggel": 32857, 
  "atar": 60922, 
  "atas": 61892, 
  "Corporate": 8435, 
  "Korps": 31662, 
  "釉@@": 76916, 
  "Trick": 12726, 
  "transportieren": 17931, 
  "surfing": 64232, 
  "spannend": 19571, 
  "conscious": 81112, 
  "x-@@": 5166, 
  "Berichterstatter": 1242, 
  "acional": 62581, 
  "subsi@@": 81113, 
  "LN": 65899, 
  "mango": 76231, 
  "Moll": 57233, 
  "policy@@": 69664, 
  "wolves": 79111, 
  "denburg": 65054, 
  "Nachfolge@@": 32735, 
  "essors": 50658, 
  "Wetter": 4405, 
  "orch@@": 31368, 
  "Novel@@": 32484, 
  "webpage": 79112, 
  "LIN": 52710, 
  "rès": 16217, 
  "Auswärtigen": 23956, 
  "years": 73085, 
  "SM@@": 12566, 
  "Bowis": 43590, 
  "episodes": 79113, 
  "Trustees": 61815, 
  "希@@": 79114, 
  "Elias": 38755, 
  "food-@@": 66838, 
  "ergänzen": 6844, 
  "Wetten": 12611, 
  "Sit@@": 14332, 
  "bescheiden": 18131, 
  "düstere": 20996, 
  "Parade@@": 50935, 
  "jin": 46337, 
  "östlichen": 6424, 
  "Assist": 62069, 
  "Differ@@": 39855, 
  "LT": 15163, 
  "getäuscht": 32905, 
  "unfaire": 33527, 
  "widri@@": 36699, 
  "Gitarristen": 43832, 
  "gleichmäßige": 49561, 
  "Assisi": 51042, 
  "illas": 25644, 
  "Nichtnutzung": 54240, 
  "Spiele": 951, 
  "Cederschi@@": 75667, 
  "LS": 39623, 
  "sperspektiven": 67319, 
  "verwirklichen": 8644, 
  "recipients": 83520, 
  "Architektur@@": 18843, 
  "Bristol": 12092, 
  "Autoren@@": 46799, 
  "殊@@": 81115, 
  "Deutsche": 5565, 
  "schilder": 41222, 
  "grenzten": 54803, 
  "祝@@": 81116, 
  "registrierte": 18561, 
  "sorten": 21028, 
  "Gordon": 4714, 
  "Ponti@@": 40094, 
  "\\": 4712, 
  "mutmaßlichen": 16218, 
  "zusammenhängenden": 28484, 
  "ussion": 38176, 
  "5.000": 3886, 
  "constituent": 84902, 
  "plung": 20088, 
  "Kosmetika": 38445, 
  "Untergrund@@": 41820, 
  "jected": 78150, 
  "Erkennen": 48116, 
  "Yellow": 38806, 
  "Kleider": 10060, 
  "stolze": 22399, 
  "Grundi@@": 56976, 
  "durchsetzen": 8579, 
  "quarter": 69767, 
  "Bell@@": 12103, 
  "hochentwickelten": 53991, 
  "Produktions-": 32263, 
  "retrieve": 81118, 
  "anonyme": 31244, 
  "weges": 53992, 
  "ernannt": 5729, 
  "receipt": 79115, 
  "Konventionen": 21236, 
  "Weinberge": 30987, 
  "u.v.@@": 64181, 
  "Live": 5810, 
  "typen": 16633, 
  "gefühl": 8774, 
  "sponsor": 55737, 
  "entering": 81119, 
  "Mok@@": 49155, 
  "Theorie": 6320, 
  "wegen": 415, 
  "Domus": 64638, 
  "Deborah": 26564, 
  "Aushöh@@": 75668, 
  "fil@@": 6447, 
  "flamm@@": 34461, 
  "traums": 53557, 
  "Rumäniens": 21759, 
  "CPUs": 58737, 
  "Michigan": 5789, 
  "internen": 4441, 
  "mpfen": 45570, 
  "internes": 50561, 
  "interner": 36753, 
  "seriously": 81121, 
  "Rundfunk": 20400, 
  "trauma": 72885, 
  "Gom@@": 19988, 
  "wirksamkeit": 39041, 
  "internet": 48527, 
  "Transfers": 23007, 
  "Chillon": 64841, 
  "12-@@": 5051, 
  "Lipi@@": 62070, 
  "Kapitalmarkt": 51433, 
  "та": 49841, 
  "Kapitel": 4673, 
  "Sy@@": 5446, 
  "counter@@": 70303, 
  "intoler@@": 48564, 
  "hairdresser": 81122, 
  "Verfechter": 12749, 
  "Recital": 73531, 
  "maschinen": 6899, 
  "Samstag": 960, 
  "lucrative": 81123, 
  "unvergleichlichen": 40568, 
  "Travelodge": 63135, 
  "forma@@": 59882, 
  "ET-@@": 38751, 
  "byte": 62330, 
  "al-@@": 1334, 
  "añ@@": 46034, 
  "Olivenöl@@": 47746, 
  "Ohr@@": 14327, 
  "beabsichtigte": 27393, 
  "DSL": 46868, 
  "film-@@": 68381, 
  "bedeutendste": 32251, 
  "Hi-@@": 45250, 
  "tö": 77848, 
  "Kepler": 48460, 
  "Bananen": 19651, 
  "BlackBerry": 20317, 
  "anzen": 12301, 
  "Street": 1438, 
  "unruh@@": 71164, 
  "einsetzt": 13337, 
  "ernähr@@": 37016, 
  "emotion": 73532, 
  "info": 14035, 
  "Lieb@@": 11476, 
  "oni": 9763, 
  "saving": 77849, 
  "ono": 28385, 
  "Wanderer": 22471, 
  "Zustandekommen": 41983, 
  "Duisen@@": 73298, 
  "OS-@@": 27075, 
  "L1": 57746, 
  "ong": 4521, 
  "ond": 16893, 
  "one": 1710, 
  "eingebrachten": 22287, 
  "Calderón": 52597, 
  "ony": 15246, 
  "ormen": 63044, 
  "Aufklärungs@@": 26669, 
  "Tiefe": 8325, 
  "ons": 1220, 
  "family-@@": 81124, 
  "ont": 8957, 
  "schließe": 10715, 
  "justiti@@": 50940, 
  "less-@@": 72080, 
  "Monday": 34832, 
  "Mal@@": 2934, 
  "1.50": 65074, 
  "Hisbollah": 12567, 
  "schließt": 3929, 
  "types": 72006, 
  "Asylantrag": 59375, 
  "Ihrerseits": 53448, 
  "steam@@": 79118, 
  "Bombe": 9961, 
  "Meile": 13149, 
  "Rückverfol@@": 69861, 
  "automatisch": 2294, 
  "Vögeln": 28840, 
  "erischen": 14410, 
  "té": 17843, 
  "günstige": 8258, 
  "shutt@@": 70488, 
  "erisches": 51156, 
  "erischer": 27895, 
  "Zimmerpreises": 38955, 
  "exzellenter": 43753, 
  "inden": 60583, 
  "Benzin@@": 12995, 
  "Aufbau@@": 34413, 
  "Kampagnen": 8474, 
  "begrüßen": 2203, 
  "Mittel@@": 1830, 
  "finanzierungs@@": 28449, 
  "inflic@@": 81127, 
  "Beschuss": 20022, 
  "schnitts": 39219, 
  "wettbewerbsfähige": 20412, 
  "non-stop": 57350, 
  "crossroads": 81564, 
  "Leich@@": 33000, 
  "Easy-Forex": 61116, 
  "Forschungsergebnisse": 33792, 
  "gely": 70916, 
  "Tennisplätze": 34378, 
  "ball@@": 8671, 
  "schnitte": 31448, 
  "substan@@": 31175, 
  "wandering": 79119, 
  "Auftrags@@": 14638, 
  "zugeschnitten": 17838, 
  "emen": 17844, 
  "Disziplinen": 25071, 
  "musik@@": 23424, 
  "Bedrän@@": 38276, 
  "Grü@@": 52471, 
  "emed": 72222, 
  "combin@@": 68918, 
  "turned": 83920, 
  "Infrastruktur": 3132, 
  "Vir@@": 16478, 
  "Field": 15055, 
  "Vig@@": 31596, 
  "smart@@": 55282, 
  "Kul@@": 18818, 
  "borough": 12948, 
  "tourismus@@": 58488, 
  "utable": 70729, 
  "emer": 47309, 
  "hochwertiges": 31488, 
  "hochwertiger": 19606, 
  "Hals": 9476, 
  "antworten": 6064, 
  "Dosis": 17241, 
  "Halt": 25309, 
  "wegzudenken": 59328, 
  "zog": 1565, 
  "jahr": 4610, 
  "ض@@": 69669, 
  "brück@@": 54119, 
  "grösser@@": 50308, 
  "zon": 36523, 
  "Fahr@@": 2749, 
  "Mangel@@": 32656, 
  "ränke": 40613, 
  "Zahlen@@": 35352, 
  "Half": 40964, 
  "-in-law": 81501, 
  "Kompromissänderungsanträge": 53558, 
  "Zivilisationen": 34741, 
  "Hall": 4349, 
  "hochwertigem": 43663, 
  "imperatives": 77850, 
  "schwerpunkt": 43889, 
  "easy@@": 34321, 
  "Entscheidungsfindungs@@": 45163, 
  "transm@@": 74071, 
  "gestattet": 6341, 
  "Haar@@": 8873, 
  "Nachfolger": 6951, 
  "Gleit@@": 43944, 
  "buffet": 29454, 
  "vorherseh@@": 49056, 
  "enhafte": 49090, 
  "gestatten": 5241, 
  "EP@@": 13993, 
  "Meilenstein": 11980, 
  "printed": 76245, 
  "atro@@": 48109, 
  "Wurst@@": 41965, 
  "ungewöhnlichen": 16270, 
  "Allergikerzimmer": 41896, 
  "abre@@": 75186, 
  "Kuppel": 39220, 
  "aut@@": 15231, 
  "phic": 74392, 
  "phia": 69768, 
  "markt": 1782, 
  "phin": 47648, 
  "Treibstoff@@": 9784, 
  "bew@@": 31037, 
  "TEC@@": 52919, 
  "Granit": 41029, 
  "Chef": 1424, 
  "Waldbränden": 44670, 
  "auk@@": 66333, 
  "Lande": 17722, 
  "Chen": 16645, 
  "fizierte": 9496, 
  "Geh@@": 8896, 
  "klä@@": 21199, 
  "event": 44319, 
  "Artef@@": 32963, 
  "oppos@@": 81131, 
  "Heiligen": 8259, 
  "stark@@": 67415, 
  "Entscheidungsträger": 12159, 
  "leisch@@": 24163, 
  "Boli@@": 48194, 
  "Sky": 8186, 
  "distill@@": 79120, 
  "verworfen": 33447, 
  "Gebirg@@": 43160, 
  "mountains": 80825, 
  "bereits": 180, 
  "Führung": 1135, 
  "Schärfe": 39391, 
  "aggressive": 15748, 
  "Ski": 14931, 
  "fremde": 22434, 
  "øn@@": 64945, 
  "betrachten": 2253, 
  "zuverlässiges": 51872, 
  "presst": 25957, 
  "zahl": 8240, 
  "Ankunfts@@": 40569, 
  "ausgearbeitete": 60002, 
  "Spanisch@@": 51961, 
  "Topo@@": 45862, 
  "Dienstes": 11372, 
  "Unterbringung": 20914, 
  "Diensten": 10584, 
  "unvergessliche": 20622, 
  "Leadership": 33045, 
  "presse": 20446, 
  "jagt": 29145, 
  "Sach@@": 7991, 
  "betrachtet": 2418, 
  "spezialisierte": 18703, 
  "Busut@@": 76918, 
  "Antoni@@": 44466, 
  "veröffentlichte": 3574, 
  "ambi": 51759, 
  "Bah@@": 25814, 
  "beschränken": 5847, 
  "assing": 74266, 
  "monds": 16757, 
  "Assets": 42195, 
  "Gruy@@": 69334, 
  "Mik@@": 12109, 
  "Szenario": 11224, 
  "Prinzen": 25363, 
  "stas@@": 66618, 
  "Tony": 3347, 
  "Außenst@@": 27590, 
  "Stromerzeugung": 31156, 
  "Barn@@": 30290, 
  "dasselbe": 6172, 
  "ordnungsgemäßen": 26086, 
  "platte": 13902, 
  "Rhythmus": 18523, 
  "akter@@": 46265, 
  "einwandfreie": 42462, 
  "Ostrava": 63976, 
  "laufender": 48032, 
  "gelandet": 21088, 
  "-Karte": 53559, 
  "rondis@@": 66390, 
  "tractor": 70624, 
  "endeten": 13625, 
  "т@@": 17371, 
  "Facilities": 71278, 
  "Magento": 67676, 
  "Solidaritäts@@": 31405, 
  "architekt@@": 79123, 
  "tika": 20398, 
  "Übertragungs@@": 19787, 
  "YER": 53228, 
  "Alters@@": 9596, 
  "vision": 18342, 
  "gleiten": 21091, 
  "Pfandbrief@@": 56977, 
  "Besseren": 50042, 
  "unzureichend": 10748, 
  "exchange-@@": 81133, 
  "Rings": 57611, 
  "höher": 2162, 
  "empfindlicher": 57351, 
  "John@@": 14673, 
  "empfindlichen": 30730, 
  "ausgenommen": 12263, 
  "gefüllte": 44766, 
  "Düngemittel": 52815, 
  "impressions": 77857, 
  "Ringe": 28607, 
  "Keram@@": 39981, 
  "Kosten@@": 4406, 
  "Stadtentwicklung": 50456, 
  "Worldwide": 27632, 
  "planet": 68560, 
  "830": 56087, 
  "Frucht": 21670, 
  "Slobo@@": 73086, 
  "Bruch@@": 32332, 
  "schmerzhafte": 23681, 
  "gerau@@": 19824, 
  "Designated": 68330, 
  "vors": 41115, 
  "Shi@@": 9517, 
  "Stil@@": 18525, 
  "Cli@@": 9423, 
  "enttäuscht": 5040, 
  "Resonanz": 32858, 
  "Pech": 27196, 
  "Effizi@@": 70305, 
  "gespon@@": 15561, 
  "Mitsubishi": 32264, 
  "Enti@@": 21174, 
  "Onlineshop": 51043, 
  "Stütze": 39787, 
  "Hip": 39969, 
  "Impfung": 24184, 
  "flut@@": 33917, 
  "Vorhersage": 17515, 
  "aversion": 57373, 
  "entspann@@": 29335, 
  "Inhalts@@": 23831, 
  "auftrag": 24030, 
  "Anspruch": 1467, 
  "tigkeiten": 30731, 
  "Elef@@": 22429, 
  "Járóka": 67507, 
  "uc@@": 38931, 
  "Hit": 4718, 
  "Charakteristika": 48998, 
  "bereithält": 59082, 
  "194@@": 25334, 
  "concentrated": 81135, 
  "räger": 35496, 
  "small@@": 70216, 
  "fes@@": 10188, 
  "Hauptsp@@": 37017, 
  "alistischen": 13854, 
  "eboarding": 60611, 
  "Sessions": 28360, 
  "cle-@@": 48117, 
  "Seer@@": 29067, 
  "Stability": 70306, 
  "Re-@@": 50266, 
  "s": 85, 
  "fel@@": 11298, 
  "workplace": 81622, 
  "logistischen": 40095, 
  "Plooij-van": 64387, 
  "alistischer": 22397, 
  "alistisches": 35238, 
  "UN@@": 5730, 
  "Beweisen": 14436, 
  "alpen@@": 56978, 
  "Mae": 15415, 
  "versand@@": 50521, 
  "Patienten": 1078, 
  "PPE-DE-Fraktion": 14975, 
  "anbiet@@": 41011, 
  "baden": 30839, 
  "idyll@@": 48565, 
  "Führungen": 22094, 
  "improvis@@": 24229, 
  "guitar@@": 74074, 
  "Auszubildende": 53574, 
  "ergonom@@": 42600, 
  "grundlage": 20995, 
  "Fortbildungs@@": 42685, 
  "korrekter": 55320, 
  "entschied@@": 50166, 
  "Pepper": 37506, 
  "Diskrepan@@": 81138, 
  "Veto": 16355, 
  "west": 22474, 
  "bitions": 81139, 
  "Erkrank@@": 37596, 
  "Pv@@": 60241, 
  "klausel": 17047, 
  "akkredi@@": 31489, 
  "Führungsrolle": 15170, 
  "vertrau@@": 26651, 
  "Wirtschaftswachstum": 4737, 
  "Lebensweise": 21447, 
  "名@@": 79377, 
  "motives": 81631, 
  "präsenz": 21120, 
  "präsent": 15487, 
  "Ghrai@@": 72886, 
  "Balz@@": 60612, 
  "wants": 77859, 
  "formen": 4360, 
  "formel": 35779, 
  "Dolderer": 60016, 
  "isations@@": 40570, 
  "Empfänger@@": 29854, 
  "spektive": 34587, 
  "Offiziere": 5943, 
  "readings": 81141, 
  "photos": 69234, 
  "Rückmeldungen": 33568, 
  "VHS": 62409, 
  "Grundvoraussetzungen": 59883, 
  "gged": 73299, 
  "EU-Organe": 49760, 
  "Arri@@": 46971, 
  "former": 24067, 
  "Briefen": 30732, 
  "groß@@": 8230, 
  "buses": 76161, 
  "fГјr": 34442, 
  "Krau@@": 59329, 
  "gehörten": 10229, 
  "Cesenatico": 52816, 
  "Erzeugung": 8798, 
  "bootable": 76235, 
  "fin": 27395, 
  "Prep@@": 32958, 
  "Philipp@@": 39436, 
  "ja@@": 16073, 
  "Commander": 21827, 
  "biomedi@@": 47384, 
  "Hamm@@": 50457, 
  "cure": 74742, 
  "Voreinstellungen": 58490, 
  "fil": 60613, 
  "Anforderung": 15216, 
  "Meeres": 15303, 
  "newspaper": 77860, 
  "situation": 9619, 
  "vernetzte": 56869, 
  "Inhaf@@": 29665, 
  "Komm@@": 6603, 
  "Size": 46416, 
  "Fassade": 17650, 
  "appel@@": 27508, 
  "Prei": 75188, 
  "aufrufen": 16516, 
  "ESPRiT": 60780, 
  "technologi": 79128, 
  "Nagoya": 58224, 
  "Elevator": 67234, 
  "&@@": 72713, 
  "ansteigen@@": 21895, 
  "Prey": 73300, 
  "Herrlichkeit": 23425, 
  "technology": 68173, 
  "Admiral": 24422, 
  "Preiserhöhungen": 56516, 
  "Profile": 14181, 
  "Sot@@": 10705, 
  "verified": 75189, 
  "Tra@@": 2019, 
  "ÿ@@": 68835, 
  "gleichbedeutend": 27796, 
  "Forschungsarbeit": 53561, 
  "Deinem": 40159, 
  "Swar@@": 43240, 
  "Deinen": 29800, 
  "otti": 19503, 
  "songwriter": 77861, 
  "Deines": 60268, 
  "Deiner": 25278, 
  "Sok@@": 39624, 
  "gre@@": 14211, 
  "otto": 31134, 
  "elem@@": 63879, 
  "otta": 44245, 
  "übergeordneten": 34777, 
  "Van@@": 11068, 
  "semiti@@": 68767, 
  "otte": 19325, 
  "Drei-@@": 13489, 
  "UTC": 55973, 
  "Tempel": 12104, 
  "abandoned": 80518, 
  "eling": 29451, 
  "eline": 18233, 
  "IRT": 66839, 
  "Commissioner": 71822, 
  "-Reform": 54668, 
  "ventions": 70225, 
  "edges": 70731, 
  "wired": 76237, 
  "Sklaven": 22288, 
  "Clean": 26310, 
  "XVN": 64653, 
  "Neuseeland": 6857, 
  "IRA": 24270, 
  "IRC": 36051, 
  "IRE": 46184, 
  "Militäre@@": 59599, 
  "Islantilla": 66840, 
  "tracking": 70423, 
  "wane": 41024, 
  "berichtet": 1342, 
  "60,000": 65383, 
  "befrie@@": 68089, 
  "ingung": 55390, 
  "dargelegten": 36955, 
  "NUTS": 68090, 
  "彩@@": 80071, 
  "domin@@": 10037, 
  "nuklear@@": 59186, 
  "Beurteilungen": 32859, 
  "Will@@": 12011, 
  "AOM@@": 70114, 
  "jetzigen": 6578, 
  "Membran": 55009, 
  "Frühstück": 1971, 
  "Juk@@": 68062, 
  "NR@@": 9924, 
  "Port": 6496, 
  "berichten": 2738, 
  "BOX": 63235, 
  "PAN@@": 56586, 
  "Zel@@": 17238, 
  "Stay@@": 52598, 
  "spekul@@": 28206, 
  "Spi@@": 12820, 
  "being": 67849, 
  "Diesel": 23994, 
  "COS": 35260, 
  "Merlot": 64383, 
  "Fat@@": 17084, 
  "NAS": 59658, 
  "Dieser": 22659, 
  "Bauteile": 25158, 
  "Vorgängerin": 42323, 
  "Berichtsjahr": 56587, 
  "Soft@@": 21463, 
  "Lumix": 48882, 
  "Joseph": 5670, 
  "Therme": 44568, 
  "Speicher@@": 8445, 
  "generator": 41897, 
  "übereinstimmend": 59052, 
  "Maler": 16147, 
  "Einstellungs@@": 21839, 
  "dicke": 19371, 
  "Galaxien": 25618, 
  "priori": 57818, 
  "leder@@": 41687, 
  "cau@@": 54210, 
  ".The": 73780, 
  "Guantanamo": 16595, 
  "лен@@": 64848, 
  "besetzt": 8090, 
  "IP-Adresse": 21068, 
  "Zyklus@@": 53562, 
  "Mad": 26165, 
  "erbit@@": 15247, 
  "加@@": 81150, 
  "Minnesota": 7783, 
  "Student": 7429, 
  "einreisen": 44616, 
  "erachten": 33448, 
  "Dunkeln": 27811, 
  "Montparnasse": 52920, 
  "sums": 67690, 
  "äusserst": 40553, 
  "gestures": 81151, 
  "Merkmale": 9699, 
  "erachtet": 19608, 
  "ehem@@": 46220, 
  "Schuhe": 9257, 
  "preference": 81153, 
  "secon@@": 73089, 
  "world": 23583, 
  "günsti@@": 61894, 
  "kont@@": 36588, 
  "Pik@@": 38446, 
  "sensational": 81684, 
  "demü@@": 18875, 
  "Ra@@": 3637, 
  "confine": 79518, 
  "kons@@": 24466, 
  "unterliegt": 11156, 
  "Valent@@": 23728, 
  "ahem@@": 73090, 
  "letztendlich": 4213, 
  "atz@@": 28086, 
  "än@@": 2552, 
  "maßes": 67235, 
  "gefär@@": 21777, 
  "Kulturzentrum": 46653, 
  "Geschäftswelt": 49182, 
  "Man": 6716, 
  "Fujim@@": 62331, 
  "COD": 29992, 
  "antie": 58473, 
  "Chil@@": 10622, 
  "arbeits@@": 8368, 
  "grub": 38693, 
  "tierung": 11368, 
  "Authentifizierung": 38431, 
  "rüfungen": 37018, 
  "30": 395, 
  "AR-@@": 43241, 
  "Bowles": 48301, 
  "udev": 66430, 
  "atorin": 5790, 
  "Engel": 14989, 
  "Murter": 59736, 
  "Großstadt": 43754, 
  "-Sal@@": 32382, 
  "treffende": 44395, 
  "kauft": 9245, 
  "eze": 50667, 
  "志@@": 80738, 
  "entfernten": 10958, 
  "Thaksin": 32330, 
  "Dio@@": 49949, 
  "faster": 66213, 
  "Rechtsrahmen": 16878, 
  "ın@@": 41164, 
  "präsentation": 36266, 
  "Heiz@@": 13282, 
  "cavity": 76922, 
  "diplomatische": 10823, 
  "bedenkt": 13387, 
  "äh": 50150, 
  "酒@@": 81157, 
  "ät": 18840, 
  "king.com": 79321, 
  "öffnung": 28497, 
  "är": 3528, 
  "refundable": 76239, 
  "다": 81159, 
  "dustri@@": 50055, 
  "911": 19926, 
  "Affin@@": 40838, 
  "übermittelte": 36754, 
  "Lastwagen": 18979, 
  "arrow": 79504, 
  "tigh@@": 62956, 
  "finanziert": 3556, 
  "Gehen": 37181, 
  "Literatur": 10149, 
  "ought": 72689, 
  "Cash": 14139, 
  "leadership": 74394, 
  "celess": 73663, 
  "Pazifik": 16094, 
  "Out@@": 5095, 
  "Anmerk@@": 75671, 
  "gelistet": 23564, 
  "konsultieren": 20518, 
  "angestellte": 52472, 
  "Quecksilber": 22804, 
  "apit@@": 18848, 
  "Revolution": 4001, 
  "pir@@": 29202, 
  "Teller": 24911, 
  "pig@@": 47385, 
  "ä.": 67508, 
  "wissenschaftler": 17202, 
  "atives": 15343, 
  "Zeichen@@": 21930, 
  "ativen": 7108, 
  "ativem": 41152, 
  "Handling": 32778, 
  "ländern": 12582, 
  "Millions": 46116, 
  "KG": 21048, 
  "modern@@": 17830, 
  "auten": 12991, 
  "host@@": 47053, 
  "infizierten": 30116, 
  "bekannteste": 23584, 
  "market-@@": 72075, 
  "formung": 46417, 
  "No": 11658, 
  "18-@@": 8387, 
  "stört": 19805, 
  "Dienst@@": 3430, 
  "Hinweise": 3674, 
  "wans": 73527, 
  "Paint": 48566, 
  "aktualisierte": 18819, 
  "bedaure": 15465, 
  "Connec@@": 30994, 
  "mechan@@": 40818, 
  "Wasserpolitik": 54241, 
  "24,@@": 18945, 
  "NH": 25986, 
  "NI": 12156, 
  "Sitzungen": 6737, 
  "Stirn": 26936, 
  "NL": 7958, 
  "akademische": 16230, 
  "NO": 41025, 
  "besorgniserregenden": 45882, 
  "würfe": 18208, 
  "NB": 55623, 
  "NC": 31170, 
  "NE": 30881, 
  "ön@@": 7233, 
  "ley@@": 21961, 
  "len@@": 5441, 
  "NY": 23913, 
  "NZ": 38365, 
  "schungen": 45015, 
  "otoren": 44254, 
  "Entfaltung": 38622, 
  "danach": 1695, 
  "NP": 45157, 
  "Con@@": 2013, 
  "NS": 43242, 
  "NT": 24556, 
  "ve-@@": 16581, 
  "NV": 51858, 
  "Kohlen@@": 22744, 
  "witt": 25279, 
  "durchdacht": 40769, 
  "Hannover": 16879, 
  "Überarbeitung": 8227, 
  "N.": 6428, 
  "bran@@": 12626, 
  "neoliberalen": 31135, 
  "wiederkehrenden": 36649, 
  "spiritu@@": 27429, 
  "witz": 18184, 
  "Coma": 64639, 
  "biomet@@": 70819, 
  "singul@@": 49858, 
  "ghter": 46727, 
  "Erkrankung": 16195, 
  "遝@@": 76924, 
  "N1": 51670, 
  "erwähnte": 8715, 
  "with": 32821, 
  "Abkling@@": 72114, 
  "vorwiegend": 16570, 
  "erfahrene": 13023, 
  "Nahverkehr": 35106, 
  "pull": 79133, 
  "asso": 42404, 
  "parli@@": 81725, 
  "schickt": 14525, 
  "kostenfreier": 49274, 
  "rage": 28508, 
  "asse": 7663, 
  "änger": 15500, 
  "assa": 49761, 
  "lehr@@": 12454, 
  "Spielers": 20060, 
  "Spielern": 4407, 
  "Faszination": 23402, 
  "assy": 65356, 
  "cra@@": 18020, 
  "ragt": 54120, 
  "-Bon@@": 50852, 
  "kostenfreien": 17735, 
  "kostenfreiem": 30840, 
  "trips": 67335, 
  "rust": 75672, 
  "bißchen": 33142, 
  "Bilbao": 34760, 
  "Segel@@": 11358, 
  "Ufern": 34092, 
  "arbeitungen": 50167, 
  "jährliches": 23134, 
  "jährlicher": 57353, 
  "Lac@@": 22660, 
  "Erfrischung": 50056, 
  "Airlines": 5892, 
  "watches": 75750, 
  "wenigsten": 8040, 
  "EU-Mitteln": 44527, 
  "Richtige": 27394, 
  "MEPs": 74078, 
  "follow-up": 73091, 
  "formulation": 76925, 
  "energe@@": 61018, 
  "jährlichen": 3512, 
  "eele": 39205, 
  "Humanity": 65273, 
  "cream": 77863, 
  "Beteiligung": 2183, 
  "Sarawak": 65277, 
  "Absicherung": 17428, 
  "Read": 27928, 
  "Erkenn@@": 55054, 
  "en@@": 244, 
  "abstimmen": 5510, 
  "Bart": 20913, 
  "freunde": 25746, 
  "OSZE-@@": 47715, 
  "1441": 63696, 
  "schwank@@": 27687, 
  "Nein@@": 55638, 
  "sowieso": 14591, 
  "puppy": 81094, 
  "Lady": 8597, 
  "enheit": 6980, 
  "Kult": 33607, 
  "ection": 40770, 
  "Molek@@": 58353, 
  "Authentizität": 33994, 
  "conceptu@@": 79138, 
  "Eliz@@": 45959, 
  "y-to-@@": 70014, 
  "konsultiert": 18475, 
  "Filmindustrie": 59471, 
  "Wachstumsraten": 23811, 
  "Sing@@": 14856, 
  "zuträglich": 57354, 
  "Durch": 31663, 
  "schlecht@@": 68836, 
  "trichtlinie": 60123, 
  "Modern@@": 38290, 
  "Verhaltensko@@": 60248, 
  "Bürokratie@@": 52921, 
  "tricky": 74396, 
  "Ausflu@@": 57222, 
  "konkurrierenden": 26447, 
  "Wagen": 8253, 
  "visits": 79139, 
  "9.@@": 5637, 
  "thorn": 28351, 
  "natur@@": 14835, 
  "temporäre": 27250, 
  "eigt": 69496, 
  "Hardware": 8429, 
  "möbel": 26226, 
  "anteile": 50353, 
  "Gardasee": 34746, 
  "eign": 81543, 
  "Bewilligung": 48461, 
  "Bernardo": 52474, 
  "gebot": 9823, 
  "onlin@@": 43383, 
  "Generalsekre@@": 59884, 
  "mentale": 27347, 
  "Entspannungs@@": 42871, 
  "Kay@@": 18503, 
  "sch": 2446, 
  "Fit": 39169, 
  "Kriegsverbrechen": 16915, 
  "caused": 76926, 
  "Fix": 45327, 
  "LUM@@": 64558, 
  "Améri@@": 48302, 
  "verträ@@": 35296, 
  "stereot@@": 38330, 
  "Ski@@": 8973, 
  "Synergieeffekte": 48033, 
  "nigh@@": 72377, 
  "Fig": 67332, 
  "neigung": 66002, 
  "Storn@@": 69235, 
  "arktischen": 29369, 
  "Kriegsverbrecher": 40912, 
  "Fin": 61706, 
  "hetero@@": 37550, 
  "dissemin@@": 73626, 
  "lizen@@": 32537, 
  "Ghil@@": 75677, 
  "acry@@": 72378, 
  "fundamentalistischen": 45960, 
  "sylv@@": 74397, 
  "chener": 53678, 
  "Finger@@": 26720, 
  "Della": 59984, 
  "schränkt": 44528, 
  "Schalt@@": 15168, 
  "nennen": 1703, 
  "Dod@@": 8395, 
  "medizinischer": 10684, 
  "Ottom@@": 54242, 
  "begrüßt": 3575, 
  "ereignisreichen": 46336, 
  "schränke": 34279, 
  "loß": 55901, 
  "norm": 44604, 
  "ra": 2895, 
  "ussia": 43529, 
  "Nordo@@": 36589, 
  "system@@": 14809, 
  "Pazi@@": 31490, 
  "ahme": 34966, 
  "synchronized": 77866, 
  "fehlten": 24472, 
  "begeh@@": 36912, 
  "Kommen": 39919, 
  "estri@@": 27253, 
  "Grossetête": 49183, 
  "mani@@": 46238, 
  "ahmt": 31521, 
  "Wirtschaftsprü@@": 24633, 
  "24th": 77867, 
  "Handbuchs": 56338, 
  "Kondi@@": 66003, 
  "kostenloses": 26015, 
  "Schach": 30020, 
  "verfügen": 1502, 
  "begleitet": 4781, 
  "ro": 5968, 
  "begleiter": 32265, 
  "sans": 24156, 
  "Rating-@@": 30183, 
  "adina": 65056, 
  "ading": 38402, 
  "bracht": 64541, 
  "Kompatibilitäts@@": 58491, 
  "ξ@@": 68837, 
  "sang": 16326, 
  "sand": 38177, 
  "importiert": 18180, 
  "cker@@": 19282, 
  "invol@@": 47863, 
  "begleiten": 9689, 
  "Schlosses": 29595, 
  "sank": 6718, 
  "verleihen": 4109, 
  "Beratung": 3449, 
  "emet@@": 55974, 
  "199": 34046, 
  "198": 45572, 
  "Ergebnissen": 4669, 
  "195": 35554, 
  "194": 45158, 
  "197": 45716, 
  "Russischen": 21488, 
  "躇@@": 81285, 
  "190": 20540, 
  "193": 42531, 
  "192": 37660, 
  "past": 68639, 
  "Präsidentschaftskandidaten": 14289, 
  "19.": 2361, 
  "eingeb@@": 17655, 
  "Richtungs@@": 49659, 
  "Sanierung": 17569, 
  "Reyes": 29863, 
  "komfortabler": 41093, 
  "Ergebnisses": 31413, 
  "Fruehstu@@": 65976, 
  "prinzipien": 43161, 
  "handicapped": 78447, 
  "Worf": 43364, 
  "basierter": 35555, 
  "basiertes": 17494, 
  "astr@@": 23605, 
  "geschmackvolle": 46973, 
  "Ip@@": 25846, 
  "spaket": 29104, 
  "Dermat@@": 37242, 
  "Fraunhofer-@@": 62411, 
  "io@@": 20200, 
  "Ruder@@": 39730, 
  "lein": 33840, 
  "Mitgliedsländer": 17117, 
  "Machtübernahme": 28746, 
  "basierten": 6567, 
  "Malat@@": 65278, 
  "leid": 7738, 
  "Ablauf@@": 36635, 
  "RR@@": 56979, 
  "verschoben": 6210, 
  "hash": 67416, 
  "heben": 9150, 
  "regelmäßige": 9233, 
  "eingespielt": 54428, 
  "Charlie": 8769, 
  "geschätzten": 11365, 
  "hasa": 81783, 
  "faces": 74370, 
  "Erneuerung": 12166, 
  "Gross@@": 21809, 
  "zuliefer@@": 48922, 
  "gespi@@": 61118, 
  "Westfalen": 62083, 
  "hast": 3459, 
  "methoden": 8178, 
  "Spencer": 14804, 
  "AN-@@": 43015, 
  "Visby": 66517, 
  "34": 3146, 
  "traditionelle": 3853, 
  "Kosmetik@@": 20593, 
  "Security": 6530, 
  "Bonds": 17788, 
  "Küsten": 17802, 
  "nuklearer": 56726, 
  "knapp": 2462, 
  "otive": 66942, 
  "prior": 71397, 
  "nuklearen": 11836, 
  "periodic": 79145, 
  "Überschneidungen": 42643, 
  "Ya@@": 42220, 
  "kurz@@": 13651, 
  "behör@@": 53563, 
  "i.@@": 24476, 
  "beachtlichen": 43308, 
  "ermassen": 60249, 
  "Shim@@": 33793, 
  "balls": 16942, 
  "Pension": 9860, 
  "rov@@": 36862, 
  "Teher@@": 22963, 
  "VEST": 67417, 
  "wohnen": 4314, 
  "depart": 84669, 
  "Italien@@": 38074, 
  "adidas": 22170, 
  "plain": 70929, 
  "mitzuwirken": 36485, 
  "Kuwait": 21545, 
  "GM@@": 11053, 
  "Unik@@": 52475, 
  "Feng": 49660, 
  "-Skript": 46035, 
  "Richmond": 14548, 
  "Frühjahrstagung": 43833, 
  "Dies@@": 39856, 
  "timmungen": 50458, 
  "crowned": 82833, 
  "aufs": 5828, 
  "auft": 54566, 
  "Niveaus": 31369, 
  "aufzeichnen": 58351, 
  "Crash": 10631, 
  "Mé@@": 21530, 
  "Frankfurt": 6118, 
  "geöffneten": 41077, 
  "andro": 33785, 
  "insi@@": 61904, 
  "theastern": 79146, 
  "automate": 73302, 
  "contro@@": 65831, 
  "Verpack@@": 35087, 
  "füllten": 15595, 
  "Provence": 33357, 
  "langweilig": 21052, 
  "mord": 36863, 
  "more": 10350, 
  "marsch": 31980, 
  "niedergelegt": 31305, 
  "Frühjahr": 5286, 
  "denz@@": 36016, 
  "door": 57731, 
  "testes": 54243, 
  "tester": 24095, 
  "Kärntner": 62248, 
  "chemische": 6978, 
  "materieller": 39402, 
  "Wiederaufbaus": 35440, 
  "adern": 51357, 
  "Vaku@@": 41078, 
  "aders": 25688, 
  "tested": 79147, 
  "unigen": 70308, 
  "gewogen": 32615, 
  "ANT@@": 21757, 
  "materiellen": 19416, 
  "security-@@": 72541, 
  "Nigel": 18000, 
  "testen": 3544, 
  "farb@@": 33638, 
  "branchen@@": 19703, 
  "Qaida": 16242, 
  "Geschäftsjahr": 9080, 
  "beschworen": 25825, 
  "tank@@": 47479, 
  "Stauner": 62766, 
  "Jahrhundert": 1202, 
  "Burgh@@": 58376, 
  "Charge": 31299, 
  "讯": 81170, 
  "记": 81819, 
  "bias": 64114, 
  "Staunen": 51257, 
  "Gob@@": 32710, 
  "Wiederkäu@@": 51715, 
  "Uruguay-Runde": 56771, 
  "Otta@@": 43530, 
  "ong@@": 8603, 
  "Übernacht@@": 50257, 
  "Befol@@": 70820, 
  "Panasonic": 18330, 
  "mehl": 28974, 
  "DC@@": 26025, 
  "wieder": 150, 
  "extrac@@": 81172, 
  "ще@@": 65340, 
  "Ewi@@": 49517, 
  "geni@@": 17493, 
  "wissenschaftlern": 39393, 
  "Garderobe": 39788, 
  "ete@@": 60366, 
  "trivi@@": 48745, 
  "Musharraf": 16608, 
  "ram": 19728, 
  "estyle": 64288, 
  "Propag@@": 31171, 
  "Tauch@@": 9469, 
  "wettbewerbsfäh@@": 36650, 
  "mehr": 73, 
  "Glasgow": 7898, 
  "bonded": 81174, 
  "huge": 79148, 
  "hens": 73893, 
  "Stiftungs@@": 30421, 
  "enlarge": 81175, 
  "Fusion": 9641, 
  "klarere": 37270, 
  "zaubern": 42308, 
  "gol@@": 14087, 
  "tsysteme": 53774, 
  "smug@@": 75675, 
  "Sims": 35438, 
  "neutraler": 49856, 
  "í@@": 7745, 
  "Fresken": 37766, 
  "träglich": 49367, 
  "weitreichender": 59737, 
  "Emil": 52148, 
  "Schlangen": 30072, 
  "mender": 59472, 
  "ayo": 49262, 
  "Kohlendiox@@": 42806, 
  "brett": 16299, 
  "umstritt@@": 15699, 
  "Manuskript": 38403, 
  "verlangsamen": 17042, 
  "weitreichenden": 29413, 
  "menden": 13272, 
  "lanka": 75676, 
  "abbauen": 32779, 
  "Hoffnungen": 7421, 
  "Biokraftstoffe": 26825, 
  "Grundfreiheiten": 14152, 
  "lizenziert": 33965, 
  "entage": 50268, 
  "П@@": 50659, 
  "jiang": 43384, 
  "Trinkwasser": 18076, 
  "eingerichtete": 12666, 
  "Ereignisse": 1989, 
  "Vertragsverhältnis": 48999, 
  "topo@@": 52371, 
  "West@@": 2482, 
  "Moleküle": 36956, 
  "Nero": 15175, 
  "media": 26520, 
  "DP@@": 49000, 
  "Х@@": 70597, 
  "Meldung": 8495, 
  "go-@@": 31597, 
  "Jel@@": 28450, 
  "geschä@@": 27442, 
  "kognitiven": 34681, 
  "ohydr@@": 71533, 
  "Sour@@": 38508, 
  "Von@@": 26401, 
  "installed": 75285, 
  "ausgewählte": 12707, 
  "Veranstalter": 14273, 
  "Akten@@": 23238, 
  "irakischen": 6744, 
  "Instandhaltung": 26370, 
  "lenkt": 25668, 
  "signs": 81177, 
  "Wärmebehand@@": 60125, 
  "installer": 68764, 
  "smiling": 81178, 
  "DKK": 63622, 
  "anschließt": 42753, 
  "ausserhalb": 23832, 
  "Standpunk@@": 81179, 
  "Konkurs": 27425, 
  "Pinheiro": 59054, 
  "smitglieder": 27578, 
  "Hero@@": 25072, 
  "bummel": 57355, 
  "Sprich@@": 62762, 
  "rounds": 76858, 
  "Portugals": 20519, 
  "Fisheries": 74745, 
  "Lidos": 65801, 
  "nostalg@@": 45717, 
  "Schriften": 15358, 
  "bypass": 79150, 
  "angepackt": 42807, 
  "Brussels": 60250, 
  "sauce": 63331, 
  "Löschen": 31038, 
  "focussed": 81180, 
  "gepflegte": 24916, 
  "tann@@": 68838, 
  "bilateralen": 10570, 
  "oram@@": 66843, 
  "Banken": 1057, 
  "MS-DOS": 67768, 
  "Elektronik": 15217, 
  "fülle": 47386, 
  "leuchtend": 51671, 
  "leistung": 4351, 
  "ersatz@@": 52922, 
  "Banker": 12398, 
  "ersetzt": 3112, 
  "lika": 35816, 
  "engüter@@": 58908, 
  "Wiederer@@": 45237, 
  "anstelle": 7219, 
  "ablehnen": 8803, 
  "füllt": 15545, 
  "Doh@@": 34705, 
  "zugeschickt": 47223, 
  "Mitwirkung": 14556, 
  "Treiben": 37480, 
  "child@@": 73347, 
  "sorgfältigen": 34147, 
  "ahm@@": 28608, 
  "Obst": 11582, 
  "Quoten": 11504, 
  "compensation": 76205, 
  "Authority": 15232, 
  "zulernen": 71166, 
  "Schröder": 32616, 
  "Stabilitäts@@": 26805, 
  "Republic@@": 69417, 
  "Treiber": 14449, 
  "aganda": 73092, 
  "oph@@": 38447, 
  "Verschmutzungen": 40571, 
  "architekton@@": 46882, 
  "te@@": 3562, 
  "enh@@": 13644, 
  "つ@@": 76987, 
  "Instabilität": 11676, 
  "numeric": 73783, 
  "Straßenbahnen": 49951, 
  "Köstlichkeiten": 22680, 
  "euten": 53127, 
  "task@@": 67783, 
  "TR@@": 11844, 
  "Kriegs@@": 3797, 
  "populäre": 23682, 
  "Ima@@": 27109, 
  "Autost@@": 57853, 
  "mail@@": 26875, 
  "lebender": 30803, 
  "errei@@": 13517, 
  "athie": 27896, 
  "nordamerikanischen": 45513, 
  "鰀@@": 81181, 
  "ändischen": 32018, 
  "research": 56340, 
  "Th@@": 2190, 
  "conut": 69418, 
  "Zielgruppe": 23014, 
  "saugen": 59738, 
  "Report": 14063, 
  "lebenden": 7772, 
  "offline": 33569, 
  "Brun@@": 15737, 
  "Prof.": 14535, 
  "bestellt": 7817, 
  "politisch-@@": 42496, 
  "Verkehrsin@@": 52260, 
  "Messag@@": 31136, 
  "Freihandel": 35493, 
  "Vertragsparteien": 25499, 
  "Prozentsatz": 11775, 
  "17,@@": 14761, 
  "homosexu@@": 10124, 
  "Builder": 42603, 
  "zusammenarbeit": 37182, 
  "olds": 15593, 
  "umwelt@@": 11144, 
  "Nina": 29912, 
  "Energiek@@": 38020, 
  "beglück@@": 65893, 
  "Nine": 21181, 
  "Witwe": 21637, 
  "acute": 70130, 
  "Verstößen": 26041, 
  "Astro@@": 18148, 
  "akademie": 29571, 
  "aussagekräftige": 49275, 
  "Ales@@": 59739, 
  "definition": 37019, 
  "pairs": 73533, 
  "gewässer": 26393, 
  "Screenshot": 48384, 
  "speziell": 2576, 
  "stellern": 17723, 
  "ceasefire": 79152, 
  "Plak@@": 37721, 
  "havens": 77875, 
  "hervorgegangen": 18690, 
  "bedeutsam": 24710, 
  "plers": 66442, 
  "zufrieden": 2760, 
  "serielle": 41275, 
  "stellers": 24423, 
  "Profi": 23629, 
  "Economist": 37020, 
  "verkehrs@@": 10553, 
  "ocity": 66221, 
  "Qualitätskontrolle": 35697, 
  "gulierung": 58469, 
  "Benutzerkonto": 49091, 
  "pH-@@": 55625, 
  "12.30": 50355, 
  "Fri": 52614, 
  "Cache": 27333, 
  "Dalai": 16356, 
  "Hack@@": 8266, 
  "Planet@@": 37021, 
  "anzun@@": 67320, 
  "Χ": 78978, 
  "zunächst": 717, 
  "hegt": 50942, 
  "Fru": 74159, 
  "umfangreich@@": 40238, 
  "ADSL": 54181, 
  "Grav@@": 35959, 
  "Belgrad": 22095, 
  "Starten": 39566, 
  "Layout@@": 50764, 
  "graphie": 25119, 
  "ographen": 29557, 
  "Guardian": 12295, 
  "wirksamere": 36096, 
  "denied": 73432, 
  "Vorrechte": 34826, 
  "Bann@@": 26826, 
  "anzunähern": 53990, 
  "ographer": 70524, 
  "Neoliberalismus": 49276, 
  "saint": 68092, 
  "erschein@@": 34860, 
  "aver": 36810, 
  "aves": 28256, 
  "essays": 76244, 
  "Handelsp@@": 60614, 
  "session@@": 68482, 
  "Starter": 14960, 
  "Kinderhandel": 54466, 
  "bestei@@": 32003, 
  "Astur@@": 53224, 
  "hinzugefügt": 3724, 
  "Ž@@": 35741, 
  "aufwands": 45788, 
  "Ū@@": 81185, 
  "Autonomiebehörde": 19958, 
  "Bugs": 34934, 
  "Kleinen": 23068, 
  "Schlupf@@": 42196, 
  "mittelfristigen": 37010, 
  "ellina": 65279, 
  "elling": 22411, 
  "pum@@": 29522, 
  "sicher@@": 14926, 
  "惯@@": 82020, 
  "Friedensnobelpreis": 39831, 
  "Inhaltsangabe": 47748, 
  "traps": 75858, 
  "ise@@": 35497, 
  "Vertriebs@@": 12957, 
  "Serv@@": 43531, 
  "vorwärts": 14222, 
  "eiling": 68765, 
  "Cancer": 16285, 
  "Galway": 45601, 
  "Nachfragen": 57732, 
  "Flugzeuge": 4629, 
  "erstadt": 41298, 
  "igkeits@@": 36524, 
  "patchwork": 82270, 
  "Brün@@": 51358, 
  "dismantling": 81186, 
  "empfahl": 18772, 
  "Usbekistan": 26857, 
  "Flugzeugs": 18234, 
  "ommenen": 45883, 
  "Faso": 42681, 
  "setag": 71795, 
  "File@@": 57974, 
  "vely": 62767, 
  "andinav@@": 72379, 
  "Secchi": 64755, 
  "Club@@": 8446, 
  "3L": 65958, 
  "organisations": 76247, 
  "Bundesp@@": 50805, 
  "Napolitano": 32284, 
  "nahme@@": 17948, 
  "graffiti": 76929, 
  "weggenommen": 60675, 
  "gliche": 16736, 
  "lib@@": 29479, 
  "Stru@@": 18374, 
  "Management": 1593, 
  "büros": 11097, 
  "sell": 25207, 
  "ﬁ": 81188, 
  "seln": 9463, 
  "Triangle": 64640, 
  "Messina": 46860, 
  "Rijeka": 54121, 
  "SATA": 61809, 
  "Food": 9792, 
  "3G": 31908, 
  "Orchester": 15091, 
  "grundsätzlich": 4773, 
  "cco": 51760, 
  "also": 299, 
  "260": 24764, 
  "geschichte": 4881, 
  "Dampf": 25280, 
  "selt": 24776, 
  "spannungen": 39280, 
  "3D": 11978, 
  "港@@": 79158, 
  "-Fraktion": 63468, 
  "alts@@": 67144, 
  "sels": 48683, 
  "Haushaltsdisziplin": 24988, 
  "singles": 73534, 
  "Sonnenuntergang": 20847, 
  "lehnen": 9404, 
  "virus": 27509, 
  "bom@@": 20344, 
  "Tische": 22767, 
  "luck@@": 69236, 
  "Trekking": 40113, 
  "heb@@": 12996, 
  "gehei@@": 10632, 
  "inu@@": 35780, 
  "Zuschauer": 4987, 
  "sektoralen": 50562, 
  "ovice": 66222, 
  "Capitol": 12648, 
  "Verbesserungs@@": 42197, 
  "herrschenden": 22312, 
  "desch@@": 33041, 
  "-Version": 36453, 
  "edlen": 28032, 
  "Ermittlungs@@": 27996, 
  "edler": 50853, 
  "Voll@@": 4661, 
  "sulph@@": 81194, 
  "barren": 68002, 
  "Portfolio": 9742, 
  "verantwortungsvoll": 34787, 
  "arten": 5130, 
  "artei": 30184, 
  "pipes": 72584, 
  "reckt": 37022, 
  "wording": 77647, 
  "reco@@": 70359, 
  "blenden": 27510, 
  "Han": 44105, 
  "Übrigen": 8839, 
  "blended": 73590, 
  "uga": 56981, 
  "lungen": 5349, 
  "Gehälter": 11401, 
  "prä": 79160, 
  "Umweg": 41418, 
  "fürchter@@": 21439, 
  "australische": 4206, 
  "passiven": 40423, 
  "entwicklung": 4223, 
  "Distributoren": 22697, 
  "Finanzverwaltung": 55975, 
  "Behold": 81195, 
  "Has": 69498, 
  "Hat": 21069, 
  "genaueren": 57223, 
  "Schauf@@": 29474, 
  "follow@@": 75193, 
  "access": 61718, 
  "Bulgarian": 73785, 
  "Bass": 21453, 
  "Melodie": 27511, 
  "Palast": 10660, 
  "Premiere": 9995, 
  "gesamt@@": 24118, 
  "malerischen": 13106, 
  "Dune": 56871, 
  "-Spezialisten": 40386, 
  "00-@@": 15143, 
  "Base": 19401, 
  "ějo@@": 70928, 
  "installieren": 5027, 
  "knowledgeable": 81414, 
  "Dirk": 35239, 
  "rundherum": 59885, 
  "愛": 79163, 
  "Ausnahmer@@": 70035, 
  "columns": 75678, 
  "hafter": 11769, 
  "haftes": 24673, 
  "dancers": 81196, 
  "haftet": 14411, 
  "Repair": 64182, 
  "künstlichen": 22269, 
  "Ungleichbehandlung": 48463, 
  "Wifi": 60252, 
  "Stanis@@": 54468, 
  "ingrad": 59188, 
  "Kunststoffen": 41614, 
  "explodiert": 22827, 
  "überragende": 57356, 
  "compass": 79521, 
  "Büro@@": 7367, 
  "onger": 63880, 
  "haften": 3901, 
  "Tren@@": 38179, 
  "haftem": 47304, 
  "Überschrift": 17550, 
  "AutoCAD": 62586, 
  "tanken": 31819, 
  "istinnen": 46491, 
  "gehilfen": 71044, 
  "Telefonnummern": 30756, 
  "bytes": 67237, 
  "Null@@": 15362, 
  "Schlussfolgerung": 14639, 
  "Oett@@": 73786, 
  "tanker": 42324, 
  "amerikanisches": 34690, 
  "rechtlichen": 3178, 
  "chtest": 69862, 
  "alarmierenden": 47954, 
  "schulischen": 52795, 
  "ausdrucks@@": 44470, 
  "Kapazitäts@@": 38932, 
  "Glacier": 40449, 
  "312": 46660, 
  "wahrnehm@@": 26088, 
  "310": 31203, 
  "Des@@": 5527, 
  "315": 48567, 
  "pay-@@": 66229, 
  "Bootes": 39334, 
  "Akteure": 6636, 
  "Fiori": 53682, 
  "31.": 3454, 
  "Leicht@@": 21722, 
  "analog": 31522, 
  "Westeuropa": 18241, 
  "sequences": 77592, 
  "Resol@@": 61384, 
  "forec@@": 81198, 
  "MON@@": 34967, 
  "unverz@@": 60765, 
  "Konsistenz": 22944, 
  "Europarat": 22431, 
  "exchange": 72083, 
  "erbauten": 49859, 
  "Progres@@": 29666, 
  "sentim@@": 39361, 
  "Unsere": 22717, 
  "Abfahrts@@": 42827, 
  "alization": 56727, 
  "eins@@": 38981, 
  "zurückführen": 50459, 
  "EPA": 21689, 
  "Simul@@": 37424, 
  "15th": 77879, 
  "Seiden@@": 29269, 
  "440": 36134, 
  "naïve": 77880, 
  "就@@": 81199, 
  "Rollen@@": 15686, 
  "Prü@@": 18769, 
  "faul@@": 68640, 
  "präsentierte": 15656, 
  "Pré@@": 58628, 
  "専@@": 81200, 
  "ZOW": 52511, 
  "Dämon@@": 48662, 
  "Long@@": 12348, 
  "platt@@": 67040, 
  "wechselseitigen": 54338, 
  "gewissem": 30804, 
  "einfachsten": 27365, 
  "Bür@@": 21632, 
  "chalets": 73831, 
  "last": 13165, 
  "gnaden@@": 34692, 
  "Nein": 2613, 
  "小@@": 74080, 
  "grab@@": 25335, 
  "fuehrt": 60469, 
  "flä@@": 36685, 
  "zurückfallen": 59055, 
  "Neid": 42037, 
  "packing": 71167, 
  "emeal": 81201, 
  "connection": 68919, 
  "Dokument": 2766, 
  "Wilde": 34135, 
  "azza": 57613, 
  "lash": 43532, 
  "Query": 61707, 
  "Poggio": 66844, 
  "krä@@": 29008, 
  "mitteln": 6513, 
  "gewisses": 21597, 
  "gewisser": 6331, 
  "dder": 61049, 
  "beln": 20898, 
  "ausgezeichnete": 4508, 
  "leugnet": 17522, 
  "ometer": 33701, 
  "acted": 81202, 
  "olle": 17492, 
  "profitieren": 2122, 
  "empfehle": 16439, 
  "Chávez": 22123, 
  "adaptation": 79323, 
  "überschü@@": 20674, 
  "bels": 47137, 
  "olls": 32906, 
  "oppel@@": 43183, 
  "Irak-@@": 14543, 
  "dden": 52286, 
  "belt": 17685, 
  "8,@@": 2710, 
  "mittelt": 63314, 
  "Fördermittel": 40638, 
  "geformt": 24246, 
  "schere": 31300, 
  "SFAA": 66166, 
  "Cars": 37525, 
  "Obertauern": 66004, 
  "schern": 45961, 
  "Cart": 67321, 
  "IMAP": 65058, 
  "schers": 48586, 
  "ähr@@": 30393, 
  "extravagant": 67918, 
  "zigsten": 52372, 
  "Carl": 10960, 
  "untermau@@": 65901, 
  "Schreib@@": 12945, 
  "Freizeitpark": 56341, 
  "Wechselwirkungen": 43724, 
  "EU-@@": 1028, 
  "Care": 9390, 
  "terminger@@": 52943, 
  "jun@@": 40710, 
  "unschuldig": 22358, 
  "Demokrati@@": 21892, 
  "top-down": 75195, 
  "privilegierten": 28678, 
  "della": 19459, 
  "6@@": 806, 
  "Reise@@": 4925, 
  "Forschungszentrum": 57486, 
  "es.@@": 34693, 
  "lessly": 81989, 
  "messungen": 38656, 
  "moderation": 76931, 
  "38": 3620, 
  "erraten": 19613, 
  "Tsat@@": 74748, 
  "FS-@@": 55392, 
  "Hiroshima": 48663, 
  "Michel": 11416, 
  "presses": 76249, 
  "economy": 69424, 
  "Marken": 4225, 
  "Beiträgen": 18196, 
  "Anla@@": 21858, 
  "Philadel@@": 35674, 
  "IP-@@": 17188, 
  "expanded": 75259, 
  "aushalt": 42856, 
  "budget": 42464, 
  "Zustimmungs@@": 56549, 
  "Maystadt": 65697, 
  "ু@@": 77595, 
  "pressed": 77404, 
  "Intelligence": 19892, 
  "Marker": 32480, 
  "geholt": 17271, 
  "Brauerei": 30958, 
  "Market": 8695, 
  "pressen": 22289, 
  "Arten@@": 35018, 
  "lade": 34899, 
  "Rechtsdurch@@": 35997, 
  "iser@@": 65607, 
  "Lärmbelästigung": 47962, 
  "Hew@@": 44412, 
  "kontraproduktiv": 22805, 
  "Drucker": 14549, 
  "Gäste@@": 53896, 
  "vom": 114, 
  "von": 11, 
  "05.@@": 30255, 
  "übergreifend": 26166, 
  "vok": 73535, 
  "Ausstattungs@@": 48664, 
  "Tschechischen": 11461, 
  "kens": 44748, 
  "htt@@": 60766, 
  "vor": 66, 
  "vos": 50057, 
  "Besuch": 1365, 
  "sicheren": 4923, 
  "äuser": 16685, 
  "Drucken": 28614, 
  "voy": 24448, 
  "Tali@@": 60498, 
  "Gedankenaustausch": 52923, 
  "kommuniziert": 30545, 
  "Safe@@": 60126, 
  "kur@@": 5798, 
  "Norwich": 23601, 
  "Geistes": 19222, 
  "gesetzgeber": 64849, 
  "nachträgliche": 52817, 
  "ное": 64641, 
  "personellen": 39970, 
  "vermuten": 10022, 
  "Einrichtung": 1837, 
  "Nordatlan@@": 41356, 
  "meteor@@": 42214, 
  "retari@@": 71534, 
  "ной": 56342, 
  "trin@@": 38863, 
  "spartei": 22847, 
  "städte": 18209, 
  "Aufschlag": 51761, 
  "DC-@@": 45986, 
  "Then": 51399, 
  "lateinischen": 41223, 
  "Lohn-": 47966, 
  "Verunsicherung": 33485, 
  "Ruf@@": 36205, 
  "Kipp@@": 42465, 
  "Raphael": 46036, 
  "material@@": 59886, 
  "Anschein": 17282, 
  "relax@@": 54122, 
  "ner-@@": 27654, 
  "Damas@@": 49001, 
  "bemühen": 4499, 
  "nickname": 76097, 
  "Tig@@": 17869, 
  "kompetent": 20481, 
  "geeignete": 6723, 
  "läufen": 32102, 
  "til": 18296, 
  "Programmen": 4536, 
  "Namen": 332, 
  "Listen@@": 48034, 
  "Kang": 46598, 
  "kompetenz": 20614, 
  "Tasten": 21059, 
  "Beauftragte": 59606, 
  "indirek@@": 70732, 
  "morgigen": 19472, 
  "Names": 54567, 
  "Rechts@@": 2283, 
  "Umweltz@@": 57733, 
  "Erziehungs@@": 30362, 
  "Programmes": 50009, 
  "etzes": 55370, 
  "bench@@": 72254, 
  "Karl": 10849, 
  "-Seite": 8202, 
  "O.": 20089, 
  "KS": 23620, 
  "bildungen": 32187, 
  "Anwendbarkeit": 47387, 
  "Component": 70036, 
  "erlebnisse": 55976, 
  "Zuschüsse": 20124, 
  "bedingungs@@": 47481, 
  "FWB": 61972, 
  "Tastat@@": 48385, 
  "Pomer@@": 67665, 
  "defin@@": 30757, 
  "princip@@": 73788, 
  "Vigo": 35140, 
  "abilität": 19989, 
  "ክ@@": 81207, 
  "alternativer": 24338, 
  "toster@@": 33739, 
  "ore@@": 26116, 
  "Licht@@": 5549, 
  "Grundsätze": 4607, 
  "mandat": 68003, 
  "ierender": 12790, 
  "ierendes": 21758, 
  "genossenschaft": 52600, 
  "geschoss": 29336, 
  "greg@@": 38075, 
  "beheiz@@": 39568, 
  "komprimiert": 41357, 
  "jährigen": 1328, 
  "Hydromassage": 54786, 
  "jähriges": 7823, 
  "jähriger": 2705, 
  "pfeiler": 62881, 
  "eers": 71684, 
  "behand@@": 29204, 
  "Marino": 30533, 
  "Marina": 10156, 
  "Umweltkatastrophe": 51577, 
  "art@@": 9261, 
  "Marine": 6689, 
  "einräumt": 22712, 
  "ierenden": 6294, 
  "Brandt": 49662, 
  "On": 10263, 
  "Geltungsdauer": 56589, 
  "nachgieb@@": 52147, 
  "Fuengiro@@": 77962, 
  "Juwel@@": 27825, 
  "Oh": 8652, 
  "Of": 10956, 
  "Restriktionen": 29414, 
  "Truppen": 1851, 
  "wives": 40858, 
  "heilige": 19768, 
  "seligen": 31267, 
  "dchen": 30221, 
  "emergence": 74082, 
  "Os": 23995, 
  "dling": 66644, 
  "Glaubens@@": 14654, 
  "ON": 10456, 
  "OM": 22381, 
  "OL": 28451, 
  "OK": 9323, 
  "genossen": 8338, 
  "einzigartig": 8381, 
  "Eigenheiten": 48118, 
  "OF": 33046, 
  "vermute": 10710, 
  "OC": 34107, 
  "OB": 60127, 
  "veranschaulicht": 31266, 
  "chorus": 77882, 
  "Ship@@": 46286, 
  "individuals": 75196, 
  "Potenzial": 3815, 
  "Südtirols": 44189, 
  "markieren": 11098, 
  "OU": 64289, 
  "OT": 35047, 
  "OS": 6347, 
  "OR": 17605, 
  "kirche": 16076, 
  "OP": 4401, 
  "Inspec@@": 62071, 
  "Summers": 34333, 
  "einmalige": 8231, 
  "dokumentation": 39234, 
  "bi-@@": 49584, 
  "Angriffen": 8545, 
  "pflegt": 26663, 
  "postkommunistischen": 57107, 
  "zijn": 46267, 
  "ital@@": 45239, 
  "Ötz@@": 62768, 
  "semin@@": 46728, 
  "Abspaltung": 44175, 
  "methode": 11791, 
  "te-": 44847, 
  "Abwägung": 43762, 
  "tisch": 3293, 
  "WTO@@": 49563, 
  "import@@": 39657, 
  "ቐ@@": 81326, 
  "Nap@@": 24693, 
  "Westbal@@": 49459, 
  "Jün@@": 24855, 
  "lüssen": 33191, 
  "-Lite": 66532, 
  "unterstellen": 47922, 
  "drücklich": 68004, 
  "Frank": 5227, 
  "measurements": 81212, 
  "Menschenrecht@@": 29558, 
  "Wohnbereich": 30253, 
  "Brabant": 66433, 
  "bitt@@": 67042, 
  "spaltung": 32569, 
  "behave": 81213, 
  "anschaulich": 43243, 
  "cool@@": 35817, 
  "Reisepass": 29667, 
  "rifying": 81214, 
  "Franz": 16058, 
  "Aviation": 23096, 
  "ch-@@": 5113, 
  "Cin@@": 21152, 
  "übernommen": 2444, 
  "E-Shops": 34136, 
  "Ausländer": 12068, 
  "Publikum": 2594, 
  "otro@@": 45329, 
  "gekostet": 27110, 
  "flüssige": 36651, 
  "Gesellschaften": 5453, 
  "Arbeitsumfeld": 52226, 
  "Din@@": 17729, 
  "alog@@": 26418, 
  "umliegende": 44575, 
  "föderale": 5634, 
  "wells": 20379, 
  "Gesellschafter": 36097, 
  "hinwegsetzen": 57734, 
  "Construction": 41214, 
  "gehöri@@": 67033, 
  "earth@@": 66700, 
  "Entkoppelung": 52478, 
  "beeinträchtigt": 9479, 
  "Ost": 16672, 
  "tigkeits@@": 27042, 
  "zerstreuen": 19171, 
  "pracht@@": 56615, 
  "Science-@@": 26395, 
  "sci@@": 26243, 
  "mouth": 13047, 
  "Before": 47866, 
  "Omni@@": 33262, 
  "Sonnenschir@@": 72082, 
  "ausbreitet": 21980, 
  "Selbständigkeit": 43661, 
  "ਡ@@": 82055, 
  "Zoll": 7338, 
  "terrorists": 81217, 
  "zialitäten": 52150, 
  "zzles": 55977, 
  "into": 17005, 
  "-Browser": 41154, 
  "komplexere": 55062, 
  "befürworten": 9489, 
  "intu": 77883, 
  "welle": 9916, 
  "Wissenschaftliche": 57487, 
  "Sachverhalt": 33869, 
  "ints": 40514, 
  "befürwortet": 9134, 
  "Shah": 28412, 
  "Ausschau": 42198, 
  "liziert": 24316, 
  "sightseeing": 74171, 
  "Anlegestelle": 49460, 
  "span": 65498, 
  "Kreditkartennummer": 60254, 
  "schwei@@": 20447, 
  "vorschreibt": 38433, 
  "spac": 75768, 
  "entsch@@": 43892, 
  "obsol@@": 48196, 
  "Verteiler": 45644, 
  "gases": 67769, 
  "Mahler": 57488, 
  "Charme": 9033, 
  "edu@@": 64290, 
  "Kundenbetreuung": 47428, 
  "downloadable": 76591, 
  "User": 9984, 
  "spas": 73583, 
  "Hoo@@": 15395, 
  "gitar@@": 40840, 
  "Mittelmeerraums": 38238, 
  "zufriedenstell@@": 59331, 
  "CT@@": 19663, 
  "manische": 39934, 
  "Ausgang": 9935, 
  "ap-@@": 26338, 
  "Dienststellen": 15611, 
  "theken": 58355, 
  "Ber@@": 2433, 
  "Verstoß": 10651, 
  "ани@@": 53808, 
  "exotischen": 24827, 
  "l@@": 685, 
  "jacke": 28679, 
  "Befehl@@": 14088, 
  "Graben": 27862, 
  "Spezifikationen": 22789, 
  "Contest": 29737, 
  "Journ@@": 17189, 
  "Amnesty": 18661, 
  "zwischen@@": 21435, 
  "Resolution": 7858, 
  "considerable": 81219, 
  "ministerin": 7620, 
  "fades": 61708, 
  "tschechischen": 14212, 
  "Mexik@@": 34368, 
  "思@@": 79596, 
  "kasch@@": 40492, 
  "Bedien@@": 14618, 
  "möchte": 133, 
  "Memorandum": 37768, 
  "Appartementh@@": 59607, 
  "Filmfestival": 33775, 
  "leicht": 997, 
  "HER@@": 42668, 
  "unschuldiger": 39551, 
  "seriellen": 49277, 
  ".at": 46492, 
  "Antiquitäten": 34101, 
  "mau@@": 43834, 
  "organ@@": 22270, 
  "faden": 44606, 
  "lizieren": 18667, 
  "Eleganz": 13911, 
  "Rentabilität": 17291, 
  "Sofia": 20158, 
  "wuchs": 5547, 
  "einschlägigen": 16467, 
  "Distribut@@": 69237, 
  "influence": 76933, 
  "Bartels": 49114, 
  "Catalogue": 74355, 
  "diverse": 14613, 
  "chat": 33703, 
  "Atomenergie": 32538, 
  "Sierra": 9428, 
  "bewusstsein": 24337, 
  "Parkett": 42669, 
  "Rhein-Main-@@": 62861, 
  "beitrag": 15291, 
  "obigen": 38350, 
  "Friedrichshain": 63779, 
  "CANoe": 64642, 
  "cushi@@": 79169, 
  "Plen@@": 66313, 
  "uranium": 81221, 
  "Kompens@@": 42704, 
  "conceptions": 82079, 
  "mächtig": 18864, 
  "Iron@@": 39889, 
  "和": 79170, 
  "Visums": 51860, 
  "gefördert": 4043, 
  "δ@@": 45084, 
  "revision": 65281, 
  "Paketes": 49461, 
  "präsentiert": 4054, 
  "reichhaltiges": 20798, 
  "bungalows": 67445, 
  "Julius": 26273, 
  "Materialien": 3760, 
  "herkömmliche": 21761, 
  "reglem@@": 39160, 
  "überzeugenden": 29166, 
  "Phrasen": 42393, 
  "suppression": 71401, 
  "perverse": 51389, 
  "reinsurance": 81724, 
  "Paketen": 20159, 
  "revidierten": 35059, 
  "線": 77885, 
  "lang": 669, 
  "Haushalt@@": 41091, 
  "lane": 27897, 
  "land": 1392, 
  "weitreichende": 16646, 
  "lana": 39394, 
  "踌@@": 81223, 
  "produkt": 11024, 
  "Leipzig": 17452, 
  "unveröffent@@": 43244, 
  "gesicherten": 23303, 
  "restlichen": 10970, 
  "Radar": 19827, 
  "lant": 68410, 
  "lans": 16713, 
  "graben": 9890, 
  "propagieren": 46450, 
  "Ferdin@@": 67043, 
  "Abdeckung": 17709, 
  "premi@@": 17918, 
  "EZB": 5541, 
  "vielschichtigen": 51984, 
  "pres@@": 13056, 
  "ang@@": 4443, 
  "Wöl@@": 22412, 
  "silber": 47224, 
  "Experten": 1909, 
  "aushaltsp@@": 63095, 
  "Jim": 4775, 
  "Tabletten": 28421, 
  "toten": 14274, 
  "Erwerbsbevölkerung": 46268, 
  "Happ@@": 39144, 
  "schulische": 57489, 
  "agues": 72371, 
  "wiegt": 15152, 
  "Registri@@": 33581, 
  "istic": 48924, 
  "Notice": 65902, 
  "bilanz": 10056, 
  "Nütz@@": 62072, 
  "schämen": 31589, 
  "Jäger": 22907, 
  "börse": 17845, 
  "istin": 9532, 
  "verwendete": 15855, 
  "Encoder": 61042, 
  "S-@@": 3447, 
  "ö@@": 2681, 
  "Jürgen": 33358, 
  "storniert": 30028, 
  "strände": 54918, 
  "anzeige": 30558, 
  "unverhäl@@": 79173, 
  "resources": 72085, 
  "versary": 78626, 
  "uploaded": 74751, 
  "treibende": 19678, 
  "press@@": 31944, 
  "Organ": 15036, 
  "proizvo@@": 66751, 
  "bewußt": 9553, 
  "ermäßigten": 31945, 
  "liegend": 33586, 
  "zuerhalten": 74752, 
  "Islam@@": 15420, 
  "sc@@": 6114, 
  "fundierte": 26957, 
  "Euren": 55720, 
  "Legislaturperiode": 23815, 
  "Web-Site": 44530, 
  "Luftfeuchtigkeit": 38278, 
  "petitions": 74401, 
  "Clin@@": 7318, 
  "beginnend": 13379, 
  "Stellungen": 58228, 
  "Entschließungsentwurf": 30394, 
  "Fünf@@": 16411, 
  "Markt": 536, 
  "SV@@": 24511, 
  "alin": 31301, 
  "Themenbereichen": 56590, 
  "harbor": 81224, 
  "lebe": 20401, 
  "höher@@": 23936, 
  "メ@@": 77135, 
  "bestück@@": 47867, 
  "worüber": 20312, 
  "gerten": 11702, 
  "befassten": 58773, 
  "Easy-@@": 69142, 
  "alia": 17623, 
  "Nachrichten@@": 2479, 
  "Sl@@": 10734, 
  "licht@@": 22848, 
  "H1N1": 50944, 
  "Möbeln": 21366, 
  "häufige": 20849, 
  "125@@": 59741, 
  "Toys": 49529, 
  "Cunha": 46974, 
  "Kontextmenü": 44531, 
  "besuchten": 11170, 
  "notwendigen": 2615, 
  "gerüstet": 24711, 
  "synchron@@": 46884, 
  "Mosambik": 37482, 
  "Liebling@@": 22097, 
  "video": 13895, 
  "notwendiges": 50766, 
  "notwendiger": 30455, 
  "ె@@": 81225, 
  "Jugen@@": 36258, 
  "dynamics": 76255, 
  "Bereich": 317, 
  "Transformation": 20313, 
  "mur@@": 21347, 
  "rements": 81226, 
  "Rückzug": 6962, 
  "Patentier@@": 74376, 
  "Kunstwerke": 18256, 
  "Technologie-@@": 36310, 
  "ገ@@": 77887, 
  "-of-@@": 51762, 
  "Abänderung": 35605, 
  "multimedia": 70221, 
  "Telegra@@": 5434, 
  "Aid@@": 44255, 
  "Ais@@": 44532, 
  "Blockade": 13436, 
  "demokraten": 54339, 
  "Rezeption": 6738, 
  "erforderlich": 1012, 
  "Emissions@@": 9189, 
  "erfunden": 15466, 
  "gesell@@": 19939, 
  "chefs": 19846, 
  "berüch@@": 21409, 
  "announc@@": 76256, 
  "Privatsphäre": 5646, 
  "weit@@": 12949, 
  "gefahren": 7666, 
  "KYMD@@": 81228, 
  "ри@@": 33602, 
  "krise": 5437, 
  "accommod@@": 62769, 
  "Occup@@": 21676, 
  "Nai@@": 31932, 
  "seil@@": 44925, 
  "atorial": 74753, 
  "Müttern": 25558, 
  "Att@@": 41615, 
  "schwe@@": 35088, 
  "Medikamenten": 11839, 
  "erfrischen": 47292, 
  "Begründer": 14606, 
  "ationsk@@": 16974, 
  "Nemetschek": 65698, 
  "Recycling": 22098, 
  "ould": 22943, 
  "gleichzeitig": 695, 
  "fetch": 63519, 
  "Höflichkeit": 19251, 
  "Mühlen": 41224, 
  "weltberühmte": 48568, 
  "Suchmaschinen@@": 44343, 
  "nutritional": 81231, 
  "mussen": 68656, 
  "dson": 22043, 
  "maker": 23654, 
  "Category": 67044, 
  "Athlon": 65384, 
  "Greenwich": 30592, 
  "geschah": 5372, 
  "deten@@": 68572, 
  "Judith": 36475, 
  "Wettbewerb": 1221, 
  "Tito": 53019, 
  "Spielerkonto": 58322, 
  "willkommen": 2901, 
  "tick@@": 24022, 
  "wand@@": 9674, 
  "Keramik@@": 31598, 
  "Tuvok": 59742, 
  "streng@@": 33486, 
  "Kosten-": 60367, 
  "getrennt": 6249, 
  "Laufzeit": 13015, 
  "wohltuende": 47482, 
  "Menschheit": 7538, 
  "joy@@": 69865, 
  "Solo": 29208, 
  "confidence": 79178, 
  "spräsidenten": 59056, 
  "skirche": 55740, 
  "bingen": 74083, 
  "propose": 80445, 
  "längerfristig": 43084, 
  "erzeugung": 22617, 
  "Pul@@": 9398, 
  "Siegel": 23066, 
  "EU@@": 9378, 
  "Siegen": 26850, 
  "EB@@": 17614, 
  "Sieges": 27111, 
  "Sieger": 5893, 
  "NATO": 4944, 
  "AdLINK": 56462, 
  "Wedding": 60255, 
  "steh@@": 20252, 
  "Kräft@@": 49088, 
  "entfernung": 43755, 
  "Außenpool": 26932, 
  "Endkunden": 44396, 
  "projektes": 51861, 
  "nie@@": 45309, 
  "pfe": 24761, 
  "Kronplatz": 58630, 
  "ा@@": 74754, 
  "fortzuführen": 37552, 
  "-Roman": 72717, 
  "weiterzuentwickeln": 22903, 
  "Schott@@": 70124, 
  "Scheck": 29523, 
  "vö@@": 39500, 
  "effektiveren": 48569, 
  "EU-Außenpolitik": 59365, 
  "pft": 40874, 
  "WI-FI": 68821, 
  "hygienischen": 49003, 
  "09@@": 24961, 
  "Mariahil@@": 66619, 
  "Frühstücksbuffet": 7866, 
  "projekten": 10501, 
  "customer": 72261, 
  "Madam": 74755, 
  "Haltestellen": 29337, 
  "Steuersatz": 56728, 
  "zusammenführen": 48570, 
  "Meth@@": 22189, 
  "Milosev@@": 59332, 
  "clients": 70217, 
  "Schlau@@": 58774, 
  "abgetan": 24674, 
  "offizi@@": 63136, 
  "stahl@@": 41299, 
  "dritte": 1816, 
  "Stück@@": 15810, 
  "erwar@@": 12529, 
  "befürchten": 11435, 
  "stoffs": 35818, 
  "etti": 13346, 
  "bereit@@": 19258, 
  "etto": 24230, 
  "Massenvern@@": 69289, 
  "hervor@@": 9450, 
  "Rückgabe": 28680, 
  "DSL-@@": 54949, 
  "lock": 9950, 
  "loch": 14010, 
  "örtliche": 11040, 
  "ette": 2174, 
  "promotional": 74433, 
  "wußte": 15479, 
  "Berufsbildung": 36930, 
  "chon": 47674, 
  "gegenseitig": 7739, 
  "stoffe": 7252, 
  "etts": 10986, 
  "begehrte": 39565, 
  "rods": 50460, 
  "bu@@": 3164, 
  "ameters": 75198, 
  "deck@@": 9113, 
  "e.com": 10527, 
  "teilnimmt": 28114, 
  "weiblichen": 9370, 
  "ämon@@": 40387, 
  "Bestandteile": 15205, 
  "angenehm@@": 49954, 
  "Remot@@": 66232, 
  "chos": 59344, 
  "zeug@@": 38331, 
  "senken": 2986, 
  "Europawahlen": 22124, 
  "ez@@": 11998, 
  "comedy": 76936, 
  "Friends": 19615, 
  "RiT": 81234, 
  "Haftung": 5516, 
  "Kasper@@": 69238, 
  "amerika": 62957, 
  "Nathan": 14717, 
  "Färbung": 46493, 
  "auszuprobieren": 46420, 
  "Hyperlink": 56591, 
  "Rati@@": 33746, 
  "Kundenorientierung": 52818, 
  "Vivi@@": 35863, 
  "thotel": 46572, 
  "Red": 4777, 
  "gemessenen": 46117, 
  "widerspiegeln": 10667, 
  "geübt": 27301, 
  "Zurückhaltung": 14863, 
  "Gospel": 49664, 
  "Kontinente": 36206, 
  "CN@@": 8716, 
  "transeuropä@@": 66620, 
  "democracy": 75199, 
  "manpower": 79180, 
  "blem@@": 68411, 
  "Mutter": 1090, 
  "einzuleiten": 13429, 
  "traditionsreiche": 51962, 
  "gleich@@": 3908, 
  "One": 4983, 
  "Meci@@": 67323, 
  "last-@@": 66621, 
  "geräumige": 15938, 
  "Alpes-@@": 70218, 
  "60-@@": 14822, 
  "gedacht": 3633, 
  "fruchtbare": 32657, 
  "Zerschlagung": 40743, 
  "ichtig": 69479, 
  "lack@@": 24937, 
  "Drink": 18722, 
  "Pfeilers": 35655, 
  "ces@@": 34793, 
  "Friedrich-@@": 65586, 
  "muth": 62588, 
  "insight": 81238, 
  "Lif@@": 60909, 
  "Story": 11093, 
  "Geldern": 21835, 
  "plädiere": 36957, 
  "Platin": 34827, 
  "Versuch@@": 17593, 
  "europäisch-@@": 55393, 
  "directs": 77888, 
  "Wartung": 11164, 
  "entstand": 6021, 
  "interoperable": 70822, 
  "plädiert": 20224, 
  "kammern": 39281, 
  "ELD@@": 70003, 
  "Reisende": 9218, 
  "wundern": 17014, 
  "Scientific": 36865, 
  "Emergency": 27663, 
  "Messdaten": 58775, 
  "speziellen": 3784, 
  "Anton@@": 27473, 
  "uh@@": 46147, 
  "ländische": 34180, 
  "Brooks": 14121, 
  "Cabinet": 54568, 
  "Diversi@@": 51763, 
  "Fragen": 341, 
  "spezielles": 20882, 
  "spezieller": 22681, 
  "liebe@@": 28544, 
  "iger@@": 34230, 
  "sow@@": 64543, 
  "derivative": 61633, 
  "油": 81240, 
  "Erfüll@@": 69420, 
  "wundert": 49004, 
  "auflö@@": 53683, 
  "morgen": 1180, 
  "Vec@@": 39679, 
  "Sender": 7104, 
  "staat": 7795, 
  "恵@@": 81242, 
  "Register": 12024, 
  "Autor@@": 16023, 
  "umhin": 32539, 
  "Anzieh": 82201, 
  "Gewicht": 3186, 
  "Passwörter": 23407, 
  "Senden": 27809, 
  "Works": 22637, 
  "Tabelle": 5588, 
  "realize": 75201, 
  "ीय": 82206, 
  "Finanzstabilität": 37100, 
  "vorsor@@": 44256, 
  "Makler": 20482, 
  "Zut@@": 20816, 
  "deinstal@@": 64803, 
  "Flecken": 23937, 
  "Emmanuel": 33197, 
  "beantragen": 10502, 
  "Terroranschläge": 20160, 
  "anzahl": 25586, 
  "denzen": 44330, 
  "Bieter": 21638, 
  "Hoteles": 59743, 
  "ypischen": 46886, 
  "glasses": 79663, 
  "enco@@": 68561, 
  "Fluggastdatens@@": 54569, 
  "breiteren": 13013, 
  "web-site": 74158, 
  "Verbraucherorganisationen": 50461, 
  "Vorbereitungen": 9803, 
  "Ungar@@": 38448, 
  "otage": 40841, 
  "läuten": 31624, 
  "Anniversary": 65499, 
  "Wahrschein@@": 37661, 
  "deficiency": 74758, 
  "übernahm": 6068, 
  "irrit@@": 72226, 
  "-Rates": 47843, 
  "off@@": 7551, 
  "südwestlich": 25843, 
  "totalit@@": 56592, 
  "9.3": 63333, 
  "Sept@@": 57491, 
  "Viren": 12997, 
  "CAMP@@": 53128, 
  "Wechsel@@": 12641, 
  "ssing": 66224, 
  "matrix": 61475, 
  "geschmackvoll": 16085, 
  "eintritt": 17360, 
  "Umgebung": 1395, 
  "boutique": 70426, 
  "Coupé": 54469, 
  "bod@@": 61895, 
  "Gange": 12482, 
  "errichtete": 24119, 
  "南": 75680, 
  "gek@@": 5003, 
  "Begrenzung": 12239, 
  "biometrische": 50462, 
  "schwach": 8635, 
  "bekennen": 22806, 
  "bedauer@@": 53995, 
  "gedei@@": 65894, 
  "schwierigsten": 25711, 
  "EID@@": 56873, 
  "Teig": 33002, 
  "Vielen": 26617, 
  "Verbots": 21998, 
  "trete": 46185, 
  "welches": 2334, 
  "Teil": 193, 
  "herab@@": 14328, 
  "mangelhaften": 49614, 
  "-10": 46338, 
  "schlän@@": 59744, 
  "welcher": 2768, 
  "crun@@": 77890, 
  "Folklor@@": 58356, 
  "harmonische": 30425, 
  "Verbote": 24938, 
  "forwarded": 79083, 
  "Maximal@@": 34623, 
  "Teleskop": 32551, 
  "Angola": 23031, 
  "Harvard": 11637, 
  "Geburtstags@@": 31815, 
  "umfassend@@": 62216, 
  "Wesentliche": 27302, 
  "transferable": 77891, 
  "could": 74084, 
  "area": 50169, 
  "blichkeits@@": 35048, 
  "weh@@": 12219, 
  "feh@@": 12083, 
  "Jesus": 9934, 
  "älle": 17916, 
  "length": 71797, 
  "ratification": 79182, 
  "ert@@": 24437, 
  "Reb@@": 4189, 
  "achtung": 31414, 
  "3km": 61296, 
  "Ria": 56721, 
  "relays": 76939, 
  "Louisi@@": 63070, 
  "Bemerkungen": 3995, 
  "wide-@@": 77892, 
  "mittag": 42325, 
  "Hotel": 164, 
  "starken": 1746, 
  "starkem": 30759, 
  "Roo@@": 20425, 
  "urteilung": 72227, 
  "küste": 15574, 
  "scene": 71930, 
  "tot@@": 10706, 
  "damit": 141, 
  "eves": 27644, 
  "starkes": 6658, 
  "starker": 7303, 
  "scent": 81246, 
  "Genüsse": 52711, 
  "Sprin@@": 19227, 
  "St.-@@": 53775, 
  "Irak": 1035, 
  "eship": 71402, 
  "pandemic": 77881, 
  "allgemeinen": 1926, 
  "programmier@@": 31599, 
  "allgemeinem": 19372, 
  "festival": 19172, 
  "Voraussetzung": 4694, 
  "nt@@": 61020, 
  "osität": 52819, 
  "Machbarkeits@@": 48746, 
  "Plänen": 9609, 
  "emaster": 61896, 
  "Obersten": 7983, 
  "Abe@@": 40554, 
  "allgemeiner": 14712, 
  "las@@": 6277, 
  "Wild@@": 4643, 
  "Iraq": 72887, 
  "Fax-": 17932, 
  "Paar": 1896, 
  "Kreis": 7512, 
  "even@@": 33704, 
  "Kask@@": 37429, 
  "heisst": 24638, 
  "gence": 62898, 
  "Bauchspeicheldrü@@": 33570, 
  "Strafverfolgungsbehörden": 13403, 
  "überraschende": 25336, 
  "Einmütigkeit": 52712, 
  "Katalonien": 31095, 
  "唸@@": 81248, 
  "Flüssigkeits@@": 44754, 
  "Ewigkeit": 33841, 
  "umsonst": 24918, 
  "RSS@@": 58357, 
  "Taxis": 25689, 
  "etic": 45803, 
  "Verurteilung": 6509, 
  "ektur": 63881, 
  "EU-Mitglieder": 51756, 
  "umgestaltet": 38332, 
  "Physiker": 27535, 
  "Golf@@": 6214, 
  "roulette": 69948, 
  "Extru@@": 41033, 
  "Vatanen": 66623, 
  "Barro@@": 35974, 
  "Station@@": 61120, 
  "WH@@": 35401, 
  "optimum": 74759, 
  "Finanzlage": 58103, 
  "irgendetwas": 8287, 
  "Weltkrieg": 5784, 
  "Kuba": 6215, 
  "fif@@": 68246, 
  "eigentliche": 7918, 
  "UCITS": 77893, 
  "Dezember@@": 29452, 
  "Sof@@": 26124, 
  "Schiffs@@": 11041, 
  "false": 52924, 
  "ammon@@": 71535, 
  "zucker@@": 21962, 
  "Glar@@": 63520, 
  "Pass@@": 8741, 
  "Montreux": 47580, 
  "zweierlei": 22057, 
  "tonight": 77894, 
  "Secret": 21778, 
  "SIR@@": 61500, 
  "Fangmethoden": 58229, 
  "trainings": 67732, 
  "hilflos": 37067, 
  "Verkehrsarten": 58911, 
  "händler": 6148, 
  "atia": 61634, 
  "fahr@@": 4934, 
  "atic": 26167, 
  "atie": 14015, 
  "dishes": 81089, 
  "contest@@": 65282, 
  "atik": 15449, 
  "atim": 66431, 
  "atin": 21394, 
  "atio": 51862, 
  "lik@@": 14310, 
  "Thé@@": 67145, 
  "atis": 38568, 
  ".COM": 56905, 
  "PR@@": 3142, 
  "Pe@@": 3608, 
  "Veranst@@": 69499, 
  "Niederlanden": 6174, 
  "kenntnisse": 23655, 
  "Alghero": 62785, 
  "universit@@": 28499, 
  "worldwide": 73793, 
  "Progno@@": 16401, 
  "teria": 54340, 
  "Plünderung": 39043, 
  "terie": 20161, 
  "fangen": 6454, 
  "Bayreu@@": 70336, 
  "Geschwister": 22560, 
  "tropische": 25134, 
  "Topol@@": 74403, 
  "Erholung": 2083, 
  "terin": 1934, 
  "SLR": 61978, 
  "genügen": 20675, 
  "zurecht@@": 39044, 
  "Swimming-@@": 61119, 
  "Sozialpartnern": 27168, 
  "Mode": 6647, 
  "Stadtzentrum": 4783, 
  "Modi": 24382, 
  "zufriedenstellenden": 52053, 
  "abgelenkt": 24799, 
  "Reserve": 4838, 
  "Wörterbücher": 54919, 
  "Ahn@@": 53450, 
  "Korruptions@@": 16531, 
  "placement": 51964, 
  "Papastam@@": 79186, 
  "beziehen": 3846, 
  "prädestiniert": 59057, 
  "GFP": 28062, 
  "bred": 76942, 
  "Padova": 63835, 
  "stabilisierung": 56874, 
  "Spanischen": 32691, 
  "Preisverlei@@": 69327, 
  "Pru@@": 28692, 
  "onau@@": 52713, 
  "behandelnden": 49278, 
  "Darlehen": 6133, 
  "Weiterbehandlung": 56343, 
  "brew": 68177, 
  "gegen@@": 19769, 
  "bres": 49279, 
  "χ@@": 60617, 
  "Ermu@@": 70574, 
  "Überprüfungen": 21464, 
  "stehen": 312, 
  "Trichet": 32743, 
  "Werft": 24704, 
  "rings": 52601, 
  "Scheideweg": 45330, 
  "Goo@@": 10328, 
  "Menschen-": 41898, 
  "schmackhafte": 48197, 
  "Annotator": 59745, 
  "jap@@": 19165, 
  "besuche": 22668, 
  "GMBH": 63065, 
  "geebnet": 34637, 
  "Kernkraftwerken": 40436, 
  "bizarren": 35074, 
  "Escrow": 67771, 
  "rechnen": 5992, 
  "restrik@@": 41625, 
  "Neop@@": 52373, 
  "basiered": 42392, 
  "taps": 77895, 
  "ature": 66060, 
  "gg@@": 16539, 
  "Schutzes": 10273, 
  "jav": 77896, 
  "irreversible": 64758, 
  "basieren": 7959, 
  "jar": 38021, 
  "Update": 6676, 
  "jan": 17372, 
  "entities": 74779, 
  "jal": 63624, 
  "jam": 63625, 
  "tape": 70525, 
  "jak": 48571, 
  "II-@@": 21639, 
  "Radio-": 56344, 
  "Vergnügungs@@": 48665, 
  "jad": 56345, 
  "Tscher@@": 48224, 
  "jab": 31992, 
  "hochwertige": 5782, 
  "zucht@@": 47573, 
  "Scho@@": 26149, 
  "Integrationsprozess": 42604, 
  "parano@@": 49092, 
  "demonstration": 48738, 
  "Malces@@": 75685, 
  "organisiertes": 43245, 
  "retro@@": 28606, 
  "Komitee": 15209, 
  "pel@@": 17058, 
  "Le@@": 1544, 
  "Mängeln": 32617, 
  "dämmen": 64544, 
  "organisierten": 8350, 
  "obgleich": 11417, 
  "aufgedeckt": 8827, 
  "Leichtath@@": 24158, 
  "dot@@": 45804, 
  "Rating": 20520, 
  "Schwach@@": 35089, 
  "aer": 51672, 
  "Verarmung": 45963, 
  "aet": 55289, 
  "keiner": 2222, 
  "feldern": 13443, 
  "ganzem": 27303, 
  "Capo@@": 48120, 
  "ganzen": 638, 
  "aes@@": 69143, 
  "Brenn@@": 8682, 
  "Tasse": 13850, 
  "stufe": 9273, 
  "stuff": 72381, 
  "-Lösungen": 14557, 
  "gerte": 7560, 
  "ganzer": 28610, 
  "straight@@": 79187, 
  "keinem": 7054, 
  "keinen": 421, 
  "ael": 18947, 
  "Nordirland": 8586, 
  "iPad": 11376, 
  "Ps": 14231, 
  "Heller": 43893, 
  "trauen": 31302, 
  "kund@@": 21189, 
  "prises": 62412, 
  "Haushaltskonsolidierung": 38808, 
  "frame": 54341, 
  "Bauarbeiten": 42466, 
  "diplomatischen": 9244, 
  "Präpar@@": 49369, 
  "Joachim": 33618, 
  "diplomatischer": 29947, 
  "detwas": 76329, 
  "Wirbel@@": 12992, 
  "Adoption": 21465, 
  "Drogen-": 53976, 
  "vollbringen": 28052, 
  "unterschätzt": 21799, 
  "Disziplinar@@": 21560, 
  "geführt": 643, 
  "Po": 47893, 
  "PR": 15749, 
  "PS": 8415, 
  "PP": 24939, 
  "absolviert": 25732, 
  "PV": 39094, 
  "destiny": 82185, 
  "PT": 7227, 
  "struppen": 24675, 
  "compar@@": 66943, 
  "nuclear": 74087, 
  "Arbeitsbedingungen": 10623, 
  "Zuliefer@@": 29026, 
  "Suit@@": 61021, 
  "georgische": 32334, 
  "vergla@@": 44607, 
  "PC": 3516, 
  "schätzungsweise": 9128, 
  "PF": 45085, 
  "PG": 31600, 
  "PD": 17870, 
  "PE": 24712, 
  "Cus@@": 42872, 
  "PI": 29629, 
  "PN": 18210, 
  "PO": 38076, 
  "PL": 5825, 
  "PM": 5605, 
  "Hilfeleistung": 50563, 
  "P3": 66723, 
  "datenschutz@@": 52820, 
  "P1": 61989, 
  "ausreich@@": 73795, 
  "Kyoto-Protokolls": 34910, 
  "izz@@": 17928, 
  "obligatorische": 15915, 
  "Flus@@": 27536, 
  "mind@@": 70526, 
  "uttons": 67352, 
  "jeweilige": 12684, 
  "Loops": 53378, 
  "ameri@@": 60005, 
  "timent": 61897, 
  "Berechnung": 11425, 
  "P.": 9314, 
  "Coreper": 71798, 
  "läufige": 50779, 
  "Linksetzung": 50854, 
  "Sorrento": 59190, 
  "concern@@": 81253, 
  "ša": 62670, 
  "angezeigte": 59609, 
  "Strategie@@": 30664, 
  "unternommenen": 33879, 
  "typ@@": 30817, 
  "gleiches": 24096, 
  "gleicher": 11968, 
  "gleichem": 36811, 
  "Yun@@": 43611, 
  "gleichen": 661, 
  "莹@@": 82334, 
  "sletter": 79235, 
  "Bequem@@": 71403, 
  "halfen": 52714, 
  "然@@": 77699, 
  "wil@@": 11203, 
  "icus": 56593, 
  "zinsen": 61202, 
  "Glockenturm": 49564, 
  "Maril@@": 31166, 
  "gesund": 8852, 
  "Arafat": 26021, 
  "einmütig": 48198, 
  "Besorgnis": 3300, 
  "Vergemeinschaftung": 43309, 
  "Demokraten": 1821, 
  "Sportart": 18588, 
  "Ask@@": 34588, 
  "Gemeinschaftsprogrammen": 59191, 
  "gang@@": 21853, 
  "Ý@@": 69831, 
  "geändert": 1755, 
  "gespräch": 16310, 
  "realisierbar": 39117, 
  "Alcoa": 39017, 
  "handlung": 17710, 
  "erlebt": 2955, 
  "trägliche": 39283, 
  "Yu@@": 12863, 
  "parag@@": 76945, 
  "rus@@": 31700, 
  "sch-@@": 15700, 
  "Novum": 47685, 
  "Nami@@": 56461, 
  "Macartney": 61709, 
  "erlebe": 59746, 
  "-Sens@@": 44279, 
  "ners": 10106, 
  "aur@@": 18067, 
  "Alex@@": 20757, 
  "ists": 21753, 
  "rieren": 14725, 
  "zeit@@": 5566, 
  "pop-up": 77220, 
  "Klä@@": 34589, 
  "Website-@@": 39095, 
  "Bindeglied": 51359, 
  "hydr@@": 62074, 
  "venge@@": 81257, 
  "prinzips": 50564, 
  "Sacrédeus": 66432, 
  "STOXX": 64545, 
  "Hostels": 6247, 
  "Zap@@": 33697, 
  "gemeinschaftlicher": 37127, 
  "über@@": 396, 
  "kms": 70219, 
  "Buchen": 44151, 
  "edel@@": 29668, 
  "umgegangen": 28322, 
  "Andro@@": 17442, 
  "maß@@": 14908, 
  "Vorgeschichte": 51220, 
  "vorgaben": 37223, 
  "glam@@": 23565, 
  "OECD": 19750, 
  "Böhmen": 54470, 
  "Bethlehem": 43852, 
  "öf@@": 48199, 
  "Schifffahrts@@": 28782, 
  "mom@@": 30962, 
  "ös@@": 18927, 
  "ы@@": 32222, 
  "gemeinschaftlichen": 7425, 
  "arote": 70823, 
  "entlegenen": 19402, 
  "Kunstverein": 64546, 
  "pragmatisch": 37553, 
  "Besichtigungen": 43162, 
  "Humank@@": 64851, 
  "Piper": 35298, 
  "Posit@@": 65904, 
  "boo@@": 31637, 
  "psychische": 12112, 
  "娃": 81129, 
  "behaupten": 2523, 
  "Einkaufen": 40771, 
  "Fuel": 45331, 
  "fäden": 54124, 
  "Regelung": 2834, 
  "beleben": 15598, 
  "exik@@": 74507, 
  "denial": 76947, 
  "veran@@": 36207, 
  "Dun@@": 3587, 
  "greifen": 7399, 
  "richtigerweise": 51028, 
  "Regular": 67047, 
  "ept@@": 28208, 
  "samstags": 34829, 
  "FLO@@": 65424, 
  "PVC": 32590, 
  "Straftat": 14522, 
  "r.@@": 54787, 
  "betre@@": 36426, 
  "feminine": 63137, 
  "amkeit": 54660, 
  "Serf@@": 69672, 
  "usern@@": 71536, 
  "₤": 81262, 
  "veg@@": 41045, 
  "preci@@": 74089, 
  "Großraum": 44114, 
  "Diplomatie": 11746, 
  "Unschul@@": 30969, 
  "Decken": 20773, 
  "ebo@@": 19303, 
  "Deckel": 29205, 
  "Cair@@": 36659, 
  "regelungen": 15677, 
  "übri@@": 54920, 
  "iko@@": 14005, 
  "Lao": 66095, 
  "view@@": 10894, 
  "partei@@": 5140, 
  "Vorar@@": 68207, 
  "füllung": 20862, 
  "identity": 73095, 
  "Peitsche": 23311, 
  "audit": 61975, 
  "Immobilienanzeige": 31370, 
  "korre@@": 41525, 
  "39.@@": 48121, 
  "off": 6216, 
  "Klicks": 36666, 
  "Yog@@": 26583, 
  "anzieht": 23879, 
  "Viren@@": 41579, 
  "Pöl@@": 61976, 
  "schriftlich": 1718, 
  "ofs": 30077, 
  "mathematische": 39501, 
  "phal": 68642, 
  "PRO@@": 18516, 
  "Scro@@": 36755, 
  "oft": 490, 
  "Artists": 39625, 
  "Margen": 16412, 
  "Wahlverfahren": 53996, 
  "audio": 69863, 
  "1.25": 64949, 
  "enthielt": 6392, 
  "Zelt@@": 31658, 
  "vorteil": 48572, 
  "Programm-@@": 51360, 
  "sselt": 67324, 
  "Argum@@": 32447, 
  "funk@@": 17403, 
  "interkulturelle": 49136, 
  "REG@@": 63236, 
  "Taxi@@": 25463, 
  "foothills": 82276, 
  "Ort@@": 37183, 
  "Jab@@": 29472, 
  "Ri@@": 2441, 
  "Gräu@@": 53129, 
  "Lac": 47477, 
  "geschossen": 9140, 
  "griechische": 8897, 
  "Ausmaße": 29788, 
  "web": 33807, 
  "weg": 1471, 
  "vorschlagen": 6595, 
  "Ausbildungen": 56664, 
  "wed": 72229, 
  "wei": 26871, 
  "weh": 12618, 
  "wen": 6406, 
  "wem": 13751, 
  "verwechseln": 31701, 
  "Paddington": 41543, 
  "wer": 530, 
  "Verde": 37615, 
  "vegetarische": 43055, 
  "verwechselt": 32692, 
  "nten": 8842, 
  "K": 3342, 
  "sorgt": 3785, 
  "Wachstum": 936, 
  "practise": 76263, 
  "Analysis": 31433, 
  "KK@@": 50357, 
  "Verdi": 56208, 
  "tics": 10957, 
  "photo": 27367, 
  "beurteilt": 12655, 
  "auseinanderzusetzen": 44533, 
  "ung-": 50849, 
  "ungsh@@": 9905, 
  "archeological": 82712, 
  "Generalsekretariat": 53997, 
  "Head@@": 10679, 
  "Kat@@": 5905, 
  "Skip@@": 57856, 
  "tice": 51187, 
  "dish": 40440, 
  "TEN-T": 71932, 
  "tich": 38449, 
  "Tauern": 56875, 
  "Kag@@": 41690, 
  "tick": 71800, 
  "pier": 66944, 
  "Lav": 74161, 
  "Mask@@": 25520, 
  "Kolum@@": 8291, 
  "emme": 57614, 
  "nichtig": 44237, 
  "Führ@@": 21253, 
  "Giro@@": 52177, 
  "emma": 59193, 
  "leader": 33193, 
  "Einkaufsstraßen": 42236, 
  "ra@@": 1258, 
  "liebe": 1944, 
  "emmt": 15344, 
  "Micro@@": 10075, 
  "Agents": 53230, 
  "Klett@@": 57226, 
  "Finanzier@@": 38077, 
  "Piraten": 14251, 
  "become": 76948, 
  "Golfer": 26340, 
  "liebt": 9585, 
  "sendes": 43458, 
  "Ausflugs@@": 38181, 
  "ulating": 81176, 
  "庆@@": 81266, 
  "𢥲@@": 77899, 
  "grids": 77900, 
  "SYST@@": 68830, 
  "Textilsektor": 55209, 
  "Anhänge": 40716, 
  "gezahlt": 8696, 
  "geseh@@": 41419, 
  "fluss": 8868, 
  "Great": 11217, 
  "Arbeitsbereich": 42201, 
  "Kontr@@": 59106, 
  "moralische": 9604, 
  "gymnastics": 79636, 
  "ERG@@": 54788, 
  "chin@@": 28087, 
  "co.@@": 46303, 
  "ern@@": 3453, 
  "ots": 7349, 
  "verfälscht": 46421, 
  "Nomin@@": 10680, 
  "recognition": 77901, 
  "Partien": 57678, 
  "drittgrößte": 29592, 
  "Bernstein": 29465, 
  "sanktion@@": 23566, 
  "Einzelhandel@@": 12330, 
  "Defi@@": 39045, 
  "Gültigkeits@@": 65283, 
  "Sloven@@": 64625, 
  "Savi@@": 60618, 
  "ehmer": 21904, 
  "winzigen": 13079, 
  "passion": 71933, 
  "Tibet@@": 31625, 
  "Sortim@@": 44755, 
  "Umweltziele": 57977, 
  "biology": 77902, 
  "avig@@": 58744, 
  "autonomen": 24383, 
  "verfall": 56210, 
  "Markteinführung": 41757, 
  "drücken": 4873, 
  "ɑ@@": 83115, 
  "Martin@@": 38093, 
  "Utopia": 64388, 
  "entnehmen": 17212, 
  "Utopie": 41301, 
  "cru@@": 25672, 
  "asiens": 41826, 
  "Wiederherstellung": 7711, 
  "tica": 21167, 
  "Kochkunst": 58644, 
  "abdecken": 13172, 
  "Scheibe": 21406, 
  "lifestyle": 72718, 
  "gelesen": 4535, 
  "anständige": 22662, 
  "Trupp@@": 42113, 
  "】": 70825, 
  "VON": 39864, 
  "Vertretungen": 30222, 
  "Moskau": 4395, 
  "langer": 4038, 
  "langem": 5486, 
  "《": 79193, 
  "langen": 1644, 
  "Biodiver@@": 70733, 
  "」": 76265, 
  "『": 71976, 
  "dicht@@": 34830, 
  "、": 76449, 
  "gänge": 8269, 
  "explizite": 34306, 
  "documentary": 79194, 
  "VOY": 44472, 
  "swimming": 73097, 
  "spark": 49120, 
  "genannten": 1861, 
  "letters": 69772, 
  "Schwächen": 13318, 
  "å@@": 18921, 
  "bewus@@": 70119, 
  "bruderschaft": 71405, 
  "STOP": 59194, 
  "针@@": 81269, 
  "Schreyer": 37024, 
  "trag@@": 11396, 
  "E-Mails": 7492, 
  "Ö@@": 4782, 
  "alumin@@": 67919, 
  "Versicherungsunternehmen": 28452, 
  "COND@@": 70528, 
  "Sofitel": 47750, 
  "browser": 57050, 
  "Kreditinstitute": 57282, 
  "genanntes": 57978, 
  "genannter": 26652, 
  "orientalischen": 54342, 
  "Mexiko": 3136, 
  "privates": 14663, 
  "privater": 10253, 
  "geräum@@": 48736, 
  "gipfel": 16365, 
  "Û@@": 74760, 
  "peac@@": 73307, 
  "Dr@@": 13501, 
  "Consu@@": 44444, 
  "erdenkliche": 54657, 
  "ppen@@": 16901, 
  "much": 71935, 
  "Schloß": 37175, 
  "undurch@@": 11786, 
  "gob@@": 58185, 
  "gegebene": 34181, 
  "Fotze": 43163, 
  "privaten": 1477, 
  "privatem": 30805, 
  "Aufstellungs@@": 62671, 
  "Füll@@": 23070, 
  "einheit": 7265, 
  "Jubil@@": 50228, 
  "kman": 48667, 
  "aufdecken": 48200, 
  "yarns": 81270, 
  "Straßenbahn": 28033, 
  "Meca": 64183, 
  "Megapixels": 77904, 
  "radioaktive": 33609, 
  "Contract": 54244, 
  "Winzer": 38645, 
  "zwischenstaatliche": 38509, 
  "Unic@@": 33966, 
  "geile": 30961, 
  "Megapixeln": 52380, 
  "Healthcare": 24043, 
  "Mexican": 73741, 
  "fry": 76938, 
  "Referenz@@": 11686, 
  "fragmentation": 81851, 
  "syst@@": 54343, 
  "anted": 80292, 
  "Myanmar": 14287, 
  "Provokationen": 41544, 
  "Confu@@": 76268, 
  "ら": 76951, 
  "excitement": 81271, 
  "placed": 77622, 
  "D3@@": 66123, 
  "Vorder@@": 16931, 
  "Milcher@@": 38182, 
  "problem": 5742, 
  "gebil@@": 38933, 
  "vernachlässigen": 27727, 
  "Schadenspunkte": 42605, 
  "treten": 2884, 
  "Executive": 2490, 
  "adly": 56907, 
  "enteam": 58358, 
  "Wijsen@@": 74405, 
  "arro@@": 42534, 
  "Direktzah@@": 70311, 
  "thermo@@": 53746, 
  "Kabinen": 37567, 
  "onation": 40388, 
  "Nato": 27305, 
  "vines": 76771, 
  "ম@@": 78828, 
  "Darwin": 25345, 
  "Herkunfts-": 53352, 
  "Kick": 12167, 
  "Ernähr@@": 17702, 
  "Gäste": 1553, 
  "Risikoanalyse": 60770, 
  "Georgien": 6900, 
  "Conc@@": 31946, 
  "diamet@@": 59334, 
  "7,5": 20115, 
  "を@@": 74761, 
  "evolution@@": 34880, 
  "Moratoriums": 53776, 
  "details": 21924, 
  "materi@@": 26245, 
  "钦": 84898, 
  "Konzern@@": 11084, 
  "Corp.": 7633, 
  "vergleichbare": 19585, 
  "illusion": 72890, 
  "Structure": 68093, 
  "Schlich@@": 30185, 
  "February": 70631, 
  "repeat": 79788, 
  "polizei": 11265, 
  "töten": 3802, 
  "palast": 25337, 
  "Tutsis": 64483, 
  "Jahres-@@": 20258, 
  "multinationale": 23833, 
  "outlets": 77007, 
  "ausgewählter": 41146, 
  "Vorhersagen": 21175, 
  "U": 3641, 
  "ULL": 68018, 
  "Chefkoch": 38623, 
  "multinationals": 81272, 
  "dischen": 8647, 
  "tötet": 10921, 
  "machbar": 23213, 
  "-Bef@@": 26140, 
  "Oze@@": 20147, 
  "searches": 74907, 
  "verstorben": 46422, 
  "Corps": 20253, 
  "insec@@": 81273, 
  "konzept": 11474, 
  "concer@@": 73799, 
  "QuarkCopy@@": 74763, 
  "Zypern-@@": 49862, 
  "Charakteren": 31790, 
  "agements": 62483, 
  "ets@@": 26371, 
  "Nachteil": 12814, 
  "gardens": 69240, 
  "Deauville": 63139, 
  "gesetz@@": 9380, 
  "Aktien@@": 2663, 
  "dote": 56021, 
  "通@@": 76269, 
  "Spani@@": 61476, 
  "magnetic": 79198, 
  "Kensington": 27812, 
  "Roche": 26705, 
  "London": 713, 
  "nursery": 81275, 
  "äumen": 30254, 
  "-Krei@@": 73084, 
  "vertrauens@@": 28663, 
  "sfers": 49462, 
  "Metrostation": 38119, 
  "test@@": 7502, 
  "ungerechtfertigten": 50522, 
  "integrity": 77907, 
  "rebr@@": 72221, 
  "Mosel": 62272, 
  "Vorgesetzten": 35227, 
  "anderweitige": 60501, 
  "onus": 44587, 
  "Agu@@": 23683, 
  "einführen": 7699, 
  "farben": 18620, 
  "worte": 31524, 
  "massen@@": 13310, 
  "belangt": 43386, 
  "Heim": 35240, 
  "Erläuterungen": 25763, 
  "Organisation@@": 59473, 
  "Marg@@": 38810, 
  "Einbau": 30842, 
  "worth": 7836, 
  "road": 35316, 
  "Produk@@": 15629, 
  "ösem": 52055, 
  "ösen": 11117, 
  "Glo@@": 14161, 
  "Moon": 18780, 
  "Sex@@": 6653, 
  "Ruine": 41691, 
  "eat@@": 61578, 
  "宝@@": 81278, 
  "Pipe": 45332, 
  "Ansiedlung": 43020, 
  "Enterprise": 4439, 
  "buchen": 4179, 
  "Military": 24405, 
  "öser": 31665, 
  "öses": 27826, 
  "底@@": 81280, 
  "psychisch": 35606, 
  "Castill@@": 72544, 
  "lustigen": 32057, 
  "250@@": 31954, 
  "progression": 73800, 
  "Verlagerung": 9017, 
  "Quell@@": 15978, 
  "Wiederwahl": 12757, 
  "eiver": 60275, 
  "Einkäufe": 27875, 
  "Paus@@": 46975, 
  "architektonisch": 50688, 
  "Sicherheitsstrategie": 41117, 
  "Olivenbäume": 54789, 
  "Menschenverstand": 19664, 
  "weißer": 16366, 
  "Blütezeit": 51632, 
  "Traum": 5517, 
  "eived": 81281, 
  "莞": 82490, 
  "Papandreou": 39374, 
  "mp3": 58770, 
  "Russlands": 4754, 
  "Dess@@": 34943, 
  "Rechtsprechung": 16540, 
  "gebrau@@": 34909, 
  "erlaubnis": 58359, 
  "Spritzgieß@@": 50618, 
  "Europaw@@": 81282, 
  "aw": 32595, 
  "ramp": 80143, 
  "ნ@@": 82995, 
  "mend@@": 67593, 
  "gour@@": 68594, 
  "fortsetzt": 41137, 
  "Hardwar@@": 33529, 
  "Einfluß": 14857, 
  "Moser": 53473, 
  "Materi@@": 36427, 
  "tibetische": 28647, 
  "mitgearbeitet": 38128, 
  "üt": 37820, 
  "drü@@": 20736, 
  "Geb@@": 8382, 
  "Гјber": 60006, 
  "ür": 22382, 
  "Statisti@@": 32599, 
  "Mazda": 44473, 
  "Game": 6217, 
  "Gama": 65172, 
  "beratenden": 42039, 
  "UNO@@": 43310, 
  "profession@@": 35300, 
  "ński": 52716, 
  "Sizilien": 31075, 
  "Nietzsche": 58494, 
  "projec@@": 63980, 
  "aufwerfen": 43894, 
  "Delta@@": 58106, 
  "Befragten": 12338, 
  "Zweifels@@": 68136, 
  "jewei@@": 61898, 
  "vertretenden": 48035, 
  "Datenschutz@@": 10437, 
  "th@@": 1196, 
  "Campbell": 9142, 
  "tain@@": 33610, 
  "protection": 68768, 
  "Einlagen": 18149, 
  "Berufe": 22788, 
  "ebru@@": 69358, 
  "Verhalten": 2270, 
  "steckt": 8292, 
  "stresses": 81284, 
  "qua": 39573, 
  "Festnahmen": 20315, 
  "Jazz": 10537, 
  "standorte": 45646, 
  "Wahr@@": 25560, 
  "ier@@": 2764, 
  "innehaben": 50271, 
  "während@@": 74764, 
  "cano@@": 72545, 
  "Spruch": 57736, 
  "Little": 9856, 
  "arznei@@": 58633, 
  "YST@@": 55548, 
  "tiefgreif@@": 29815, 
  "zunehmender": 29232, 
  "vá": 64090, 
  "Partner-@@": 48775, 
  "Nachrichten": 2037, 
  "Produktionskosten": 34235, 
  "INTER@@": 39790, 
  "bru": 74093, 
  "Hormon@@": 20758, 
  "Bank@@": 1922, 
  "Vorauszahlung": 41616, 
  "Geschle@@": 37483, 
  "Braun": 16055, 
  "bro": 38404, 
  "Ständigen": 33611, 
  "archaeological": 76900, 
  "bri": 68997, 
  "flo@@": 7661, 
  "bre": 18170, 
  "bra": 30427, 
  "Google@@": 39859, 
  "vielfältig": 18001, 
  "plot": 71407, 
  "Tanker": 35218, 
  "Topolánek": 65173, 
  "zeilen@@": 61977, 
  "oods": 67850, 
  "Acht": 12619, 
  "nine": 84216, 
  "mitglied": 7555, 
  "bundles": 75194, 
  "Kommunikationen": 43671, 
  "uniqu@@": 48573, 
  "ד": 76954, 
  "⁄": 72461, 
  "Geltung": 21237, 
  "mon@@": 3050, 
  "heg@@": 27592, 
  "Umweltbedingungen": 56877, 
  "besuch": 15930, 
  "er-": 15240, 
  "Elysées": 55394, 
  "Kontrollkästchen": 58360, 
  "echer@@": 55855, 
  "willst": 11539, 
  "einfließen": 29338, 
  "Untersuchungskommission": 45964, 
  "Franc@@": 26043, 
  "gewertet": 41617, 
  "Chianti": 33487, 
  "separaten": 13954, 
  "Industrieanlagen": 55523, 
  "rigenten": 71169, 
  "შ@@": 76955, 
  "Sockel": 40797, 
  "Behälter": 25690, 
  "Schweinef@@": 45887, 
  "hist@@": 60620, 
  "Aceh": 46896, 
  "embargos": 57221, 
  "separater": 50060, 
  "separates": 43756, 
  "Gegen@@": 3427, 
  "conditioned": 76271, 
  "undenheit": 67594, 
  "pot": 20449, 
  "Ruhr@@": 51479, 
  "ert": 1095, 
  "1990": 5612, 
  "1993": 5569, 
  "1992": 5191, 
  "1995": 3777, 
  "1994": 4567, 
  "1997": 3139, 
  "ers": 532, 
  "1999": 2000, 
  "1998": 2750, 
  "Gebrau@@": 44331, 
  "ery": 13104, 
  "erz": 23729, 
  "zel@@": 10857, 
  "ere": 1330, 
  "erg": 59681, 
  "Initiative": 1394, 
  "era": 7391, 
  "containment": 76956, 
  "mages": 72596, 
  "ern": 453, 
  "ero": 11155, 
  "eri": 27929, 
  "scripting": 74094, 
  "ON@@": 13126, 
  "5,000": 31745, 
  "mpf": 46494, 
  "Abb": 48466, 
  "renovierte": 15612, 
  "Anlagenbau": 54671, 
  "Abe": 21690, 
  "渲@@": 81287, 
  "Augen@@": 5577, 
  "Ralph": 20090, 
  "chirurg@@": 18471, 
  "Ausmaß": 4413, 
  "impair": 74765, 
  "f-@@": 6416, 
  "totalen": 36913, 
  "Abu": 7159, 
  "ausgefüllt": 25669, 
  "Blen@@": 49935, 
  "Zielvorgabe": 56463, 
  "zielen": 8780, 
  "vorgezogen": 20883, 
  "Glück@@": 18132, 
  "gültig": 9603, 
  "谷@@": 79204, 
  "verborgen": 23834, 
  "recovery": 75203, 
  "Verlegung": 38983, 
  "carriers": 74766, 
  "provide": 76272, 
  "Finanzmarkt": 50272, 
  "nuts": 75512, 
  "OpenSSL": 65387, 
  "vot@@": 40597, 
  "Zuhör@@": 24140, 
  "very": 65933, 
  "Zivilbevölkerung": 18381, 
  "Stadthotel": 54111, 
  "Pizz@@": 25451, 
  "jeure": 75686, 
  "alcohol@@": 81289, 
  "Segment": 12285, 
  "Europaabgeordneten": 36769, 
  "Blei@@": 12448, 
  "Allahs": 36289, 
  "inien": 59662, 
  "bares": 4570, 
  "barer": 4258, 
  "deser@@": 50358, 
  "mortal": 72089, 
  "Rückmeldung": 46730, 
  "Dörfchen": 59774, 
  "Taten": 7740, 
  "kohärenter": 51319, 
  "pers@@": 18028, 
  "Lunch@@": 56983, 
  "kontinu": 80374, 
  "annähernd": 13843, 
  "barem": 15939, 
  "Überschwemmungen": 11201, 
  "Schnitte": 60622, 
  "baren": 1753, 
  "arch": 24003, 
  "emann": 25681, 
  "interpretieren": 21212, 
  "balance": 61960, 
  "ationist": 68920, 
  "Berichtigungs-": 59888, 
  "Expertent@@": 53998, 
  "Zieles": 56878, 
  "Stunde": 1889, 
  "asiatischen": 7257, 
  "schneider": 44031, 
  "Artill@@": 20968, 
  "Technische": 34706, 
  "fa@@": 11604, 
  "Delegation": 4305, 
  "Sphere": 57737, 
  "asiatischer": 28706, 
  "schneiden": 7105, 
  "wertvoll": 18678, 
  "Lé@@": 37769, 
  "Zielen": 4720, 
  "motor-@@": 76273, 
  "Höhen": 12673, 
  "mps": 64091, 
  "Hacker": 16714, 
  "dik@@": 18022, 
  "Rückfahrt": 51447, 
  "demographische": 30995, 
  "cont@@": 29873, 
  "Anatolia": 75204, 
  "nör@@": 27863, 
  "leug@@": 59747, 
  "BAT@@": 63428, 
  "unterschiede": 21719, 
  "lieferungen": 11909, 
  "verfüg@@": 42328, 
  "12.1": 65699, 
  "kammer@@": 39973, 
  "Fahrrad": 11346, 
  "12.5": 71656, 
  "innovative": 4979, 
  "präventiven": 40254, 
  "Caleta": 59648, 
  "NGL-Fraktion": 20737, 
  "verbuchen": 44082, 
  "Geschäftsbeziehungen": 34324, 
  "icher@@": 20116, 
  "herauf@@": 23631, 
  "什@@": 81293, 
  "Bands": 15604, 
  "benötigten": 13004, 
  "tren@@": 44354, 
  "komponierte": 58914, 
  "tragen": 872, 
  "ớ@@": 75687, 
  "achtel@@": 46661, 
  "Drei": 20615, 
  "orum": 48747, 
  "ays": 11002, 
  "Start@@": 5676, 
  "herzlich": 3632, 
  "arus": 56757, 
  "AM@@": 6831, 
  "folgerichtig": 47751, 
  "g-@@": 7703, 
  "Kommentar": 3379, 
  "Beschäftig@@": 31066, 
  "rehabil@@": 73541, 
  "onischen": 16244, 
  "üllen": 25748, 
  "Vé@@": 55167, 
  "Oman": 35949, 
  "ช": 81294, 
  "safe": 46269, 
  "impro@@": 73722, 
  "Loi@@": 59060, 
  "fuss@@": 61810, 
  "Motion": 20179, 
  "Stol@@": 22326, 
  "aufgezeichnet": 15014, 
  "forscht": 48036, 
  "Omar": 17133, 
  "workflows": 75688, 
  "begreift": 34094, 
  "saft": 36429, 
  "navig@@": 45965, 
  "Kodi@@": 45160, 
  "onischer": 57108, 
  "grä@@": 35281, 
  "gemeinnüt@@": 68998, 
  "ach-@@": 60910, 
  "abgeleitet": 25252, 
  "intel@@": 46038, 
  "Regionalpolitik": 12235, 
  "wn-@@": 57980, 
  "reasonably": 81295, 
  "Ho@@": 1779, 
  "l": 427, 
  "ilo": 39146, 
  "ergriff": 24418, 
  "Archaeological": 76275, 
  "Client@@": 38813, 
  "lizations": 71575, 
  "ophil@@": 31204, 
  "方@@": 77910, 
  "vorzusehen": 28362, 
  "dings": 32583, 
  "Phare": 71657, 
  "Quark@@": 47868, 
  "Hr@@": 43164, 
  "Europaabgeordnete": 55627, 
  "schlossen": 20020, 
  "dumping": 48467, 
  "Typs": 23706, 
  "beeren": 25975, 
  "Außenbeziehungen": 21393, 
  "klubs": 35029, 
  "ausgewogen": 16519, 
  "Maes": 46662, 
  "tsin@@": 12642, 
  "oberfläche": 22510, 
  "sler": 44854, 
  "gemeinsam": 934, 
  "Egyptian": 74323, 
  "Gale@@": 64472, 
  "Type": 33450, 
  "Liefer-": 56464, 
  "skrieg": 49763, 
  "madura": 73542, 
  "Verankerung": 35241, 
  "Naturstein": 60542, 
  "leitete": 8791, 
  "Gastfreundschaft": 13038, 
  "weiter@@": 4938, 
  "trainers": 73310, 
  "sockets": 75098, 
  "Downtown": 38934, 
  "Monnet": 47139, 
  "Werkstoffe": 34463, 
  "Gründ@@": 54785, 
  "Alge@@": 72719, 
  "陳@@": 81297, 
  "dus": 20528, 
  "Gesundheit": 987, 
  "Meyer": 23754, 
  "Ankar@@": 53684, 
  "Raketen": 9809, 
  "disputed": 81299, 
  "lebte": 4064, 
  "extern@@": 42671, 
  "artier": 72841, 
  "Salzburg": 14836, 
  "orchester": 34464, 
  "Abtei": 37025, 
  "ographi@@": 53777, 
  "Primera": 61553, 
  "Maori": 57637, 
  "Taiwan@@": 47581, 
  "ץ": 80348, 
  "Servic@@": 10648, 
  "Villen@@": 49464, 
  "adjour@@": 75690, 
  "emph@@": 54471, 
  "certified": 74096, 
  "Widerspruch": 5743, 
  "menade": 74410, 
  "Zeilen": 11470, 
  "Parade": 12872, 
  "veranschau@@": 71408, 
  "amer@@": 35715, 
  "chtungen": 39016, 
  "mysti@@": 28917, 
  "leder": 32908, 
  "vorbereiten": 8781, 
  "diskredi@@": 27187, 
  "renew": 77913, 
  "Quadratmeter": 16845, 
  "vorbereitet": 3244, 
  "professionell": 13970, 
  "Abklingzeit": 58230, 
  "Abchasien": 33702, 
  "Amendments": 76957, 
  "fortbestehen": 36652, 
  "Fortschritts@@": 40573, 
  "Veran@@": 67851, 
  "champs": 53872, 
  "auslösen": 7729, 
  "金@@": 76713, 
  "abgestimmtes": 55128, 
  "schätzungen": 27512, 
  "Staaten": 248, 
  "Versandverfahren": 54245, 
  "vierter": 22171, 
  "Staates": 2641, 
  "datiert": 20201, 
  "iseum": 74097, 
  "another": 73311, 
  "viertes": 23239, 
  "Manfred": 45240, 
  "Cook@@": 32927, 
  "borgh@@": 74521, 
  "electronic": 63626, 
  "leuchtenden": 37869, 
  "2050": 21182, 
  "völlig": 998, 
  "symmet@@": 41967, 
  "ausgebildete": 23366, 
  "gewinn@@": 5961, 
  "ankommen": 9807, 
  "ogra@@": 25741, 
  "ingen": 13503, 
  "inger": 3823, 
  "Dön@@": 65044, 
  "intermediate": 81301, 
  "Regelwerk": 35353, 
  "Wärmet@@": 54672, 
  "ekt@@": 19453, 
  "dogs": 72231, 
  "heissen": 36701, 
  "feu@@": 12172, 
  "Pike": 39883, 
  "TSE": 64115, 
  "emblem": 72547, 
  "pop@@": 33892, 
  "Andersson": 47651, 
  "nachstehend": 26692, 
  "verank@@": 67512, 
  "wastes": 82624, 
  "Leiter@@": 29765, 
  "ª@@": 72684, 
  "strebt": 17302, 
  "要": 81303, 
  "呆@@": 81304, 
  "ess@@": 5314, 
  "Backup": 24989, 
  "ה@@": 72145, 
  "maximizing": 82821, 
  "self-contained": 81915, 
  "emi@@": 32693, 
  "genau@@": 34638, 
  "guild": 81305, 
  "Nr.": 1358, 
  "Elb@@": 56731, 
  "vertiefen": 15678, 
  "ሰ@@": 81306, 
  "angeben": 11605, 
  "Haf@@": 18077, 
  "venant": 76276, 
  "Relation": 49764, 
  "pre-accession": 79206, 
  "Entfremdung": 36208, 
  "beschränkungen": 13208, 
  "Gladi@@": 42329, 
  "ández": 74768, 
  "erhöhungen": 55978, 
  "scans": 54246, 
  "Eisenbahnunternehmen": 41022, 
  "Einfamili@@": 40255, 
  "Q1": 38334, 
  "Steigung": 45007, 
  "CORE@@": 70939, 
  "jüdischen": 9882, 
  "buchbar": 45996, 
  "Elev@@": 65269, 
  "Surfer": 29289, 
  "portraits": 63140, 
  "FISHLABS": 62770, 
  "zweideu@@": 41626, 
  "göt@@": 43246, 
  "Junta": 27013, 
  "sorrow": 77914, 
  "Diskussion": 1597, 
  "wä@@": 13491, 
  "ettierung": 57615, 
  "hervorrufen": 24044, 
  "Maestro": 44059, 
  "prototyping": 79209, 
  "erfüll@@": 34182, 
  "gkeiten": 36591, 
  "Q.": 46976, 
  "ulative": 51967, 
  "Vormarsch": 27304, 
  "9,5": 29766, 
  "academic": 77915, 
  "Voip@@": 66225, 
  "Umweltverträ@@": 68247, 
  "beauftragten": 28088, 
  "Transpar@@": 29140, 
  "Sic@@": 60623, 
  "Berès": 46039, 
  "beauftragter": 34183, 
  "rotar@@": 54922, 
  "menüs": 34590, 
  "Loš@@": 65019, 
  "digungs@@": 52056, 
  "cour@@": 26168, 
  "SEO-@@": 60911, 
  "braune": 26693, 
  "Gallery": 18422, 
  "Qs": 57738, 
  "Debü@@": 25229, 
  "Qu": 69242, 
  "bruch": 6584, 
  "Artist": 31601, 
  "schu@@": 20574, 
  "Beleuchtung": 15440, 
  "Button": 13829, 
  "Lucy": 23684, 
  "Jubiläums@@": 39097, 
  "nachdrück@@": 32787, 
  "stration": 57981, 
  "Luca": 34519, 
  "entsetzt": 23050, 
  "Lieblings@@": 7262, 
  "Pj@@": 15721, 
  "Geschm@@": 70498, 
  "Dämonen": 29141, 
  "Tbilisi": 76960, 
  "waff@@": 13636, 
  "ierer": 28089, 
  "Twelve": 64092, 
  "QS": 56091, 
  "ना@@": 79210, 
  "ansä@@": 65284, 
  "verziert": 43387, 
  "Sanitär@@": 38078, 
  "框": 81308, 
  "Isom@@": 55175, 
  "QA": 60129, 
  "strukturierung": 50743, 
  "Verstärkung": 11165, 
  "jenseits": 8056, 
  "QE": 36223, 
  "meß@@": 51863, 
  "QF": 70633, 
  "Dogmen": 53452, 
  "Menschlichkeit": 15792, 
  "ieren": 678, 
  "Plag@@": 66521, 
  "Blit@@": 24950, 
  "Aluminium-@@": 30092, 
  "Ridge": 32618, 
  "Hand@@": 2137, 
  "Letzt": 42006, 
  "Astronomie": 41855, 
  "KT@@": 38845, 
  "ergänz@@": 64184, 
  "dump@@": 43591, 
  "Nahe": 30841, 
  "Klängen": 38335, 
  "lasst": 14101, 
  "oftmals": 7751, 
  "PAL": 59931, 
  "intergovernmental": 79183, 
  "sozialistischen": 15904, 
  "Santiago": 15957, 
  "Moselle": 71048, 
  "DCI": 59335, 
  "romantischen": 16286, 
  "Photography": 52966, 
  "roll@@": 7486, 
  "bayerischen": 43837, 
  "Raumschiff": 24227, 
  "rupt@@": 45805, 
  "romantisches": 39048, 
  "View@@": 57979, 
  "Antennen": 46601, 
  "multilateraler": 45675, 
  "Aufruhr": 16758, 
  "Schien@@": 22044, 
  "Nantes": 53566, 
  "Mallor@@": 62585, 
  "Straftäter": 35038, 
  "behindert": 10683, 
  "Edel@@": 15079, 
  "telefonisch": 14976, 
  "zirk@@": 32874, 
  "Arbeitsmethoden": 44672, 
  "Reaktions@@": 22213, 
  "risiko": 8634, 
  "Fahrt": 3619, 
  "Fri@@": 11491, 
  "Bier": 7428, 
  "downtime": 82671, 
  "Loud": 76277, 
  "kapazität": 11505, 
  "eme": 16582, 
  "katastrophen": 45322, 
  "runs": 73543, 
  "Milos@@": 72312, 
  "ema": 18404, 
  "Zehntel": 36527, 
  "Board@@": 29206, 
  "zunahme": 58634, 
  "emo": 61979, 
  "emi": 35442, 
  "Agent": 7920, 
  "vielmehr": 3088, 
  "glas": 20966, 
  "Schüler": 2794, 
  "rund": 388, 
  "ubar@@": 71275, 
  "nichts": 447, 
  "deal@@": 61636, 
  "Exportsubventionen": 55284, 
  "Medaillen": 22045, 
  "Stadien": 18902, 
  "stir@@": 61204, 
  "Core-@@": 44928, 
  "9.30": 55395, 
  "Kohäsionsfonds": 18647, 
  "oll@@": 8107, 
  "Liban@@": 29242, 
  "Jackson": 3848, 
  "mum@@": 56457, 
  "identifizieren": 6002, 
  "Fluss": 4679, 
  "spätere": 15384, 
  "beeinflußt": 41848, 
  "Domain@@": 40161, 
  "Einträgen": 47319, 
  "で@@": 75207, 
  "Eisbergs": 44929, 
  "ehn@@": 27513, 
  "Cabri": 81311, 
  "brasserie": 74641, 
  "60er": 14344, 
  "Industrialisierung": 36465, 
  "rat@@": 5243, 
  "Malawi": 36531, 
  "techniques": 76279, 
  "erer": 3725, 
  "eres": 5438, 
  "thro@@": 22161, 
  "Monitoring": 23199, 
  "CB@@": 37968, 
  "fundiert": 54790, 
  "Horror": 37836, 
  "bereitgestellten": 16228, 
  "empfohlene": 30330, 
  "erledigt": 17118, 
  "Ziehm": 66945, 
  "epide@@": 41156, 
  "verfehlt": 20631, 
  "sprecher": 4445, 
  "ered": 36071, 
  "routin@@": 68332, 
  "awak": 81312, 
  "festzulegen": 6997, 
  "Schweizerische": 47305, 
  "erei": 5439, 
  "eren": 1389, 
  "Philosophie": 6816, 
  "bedürftigsten": 53778, 
  "flexicurity": 76907, 
  "hah": 68094, 
  "Höh@@": 49665, 
  "Domingo": 41827, 
  "S-Bahn": 40017, 
  "wänden": 34008, 
  "diese": 60, 
  "Volks": 59889, 
  "seiten": 8022, 
  "Schlössern": 55396, 
  "hir@@": 35301, 
  "niederländischer": 39569, 
  "ethnischen": 7657, 
  "legten": 12821, 
  "righ@@": 59748, 
  "niederländischen": 8869, 
  "landes@@": 13150, 
  "Sever@@": 29484, 
  "travellers": 79211, 
  "-Loch-@@": 62865, 
  "rapporteur": 81313, 
  "Ewing": 47478, 
  "Versand@@": 13912, 
  "climate": 67958, 
  "neigen": 8699, 
  "Nax@@": 66226, 
  "歩@@": 83223, 
  "MOS": 62160, 
  "Nam@@": 16781, 
  "፣": 79917, 
  "Embargos": 40256, 
  "Kämpfe": 6575, 
  "bull@@": 41192, 
  "mer@@": 3937, 
  "thy": 28252, 
  "zeitschriften": 43388, 
  "MOO": 62010, 
  "Schrauben": 35433, 
  "tackl@@": 81314, 
  "arians": 62629, 
  "Unterrichtung": 24357, 
  "Elektronik@@": 16402, 
  "Sec@@": 19166, 
  "Erden": 17326, 
  "Conci@@": 49955, 
  "tone": 35499, 
  "erman": 40967, 
  "Straft@@": 39161, 
  "Gesamtpreis": 58231, 
  "Lenk@@": 23685, 
  "gesenkt": 8720, 
  "Stockwerken": 36528, 
  "Hoheits@@": 26478, 
  "tons": 5101, 
  "Verwaltungskosten": 33880, 
  "Zuweisung": 24635, 
  "zierte": 11629, 
  "Ireland": 53779, 
  "US-Regierung": 12624, 
  "OEM@@": 69422, 
  "Westsahara": 31450, 
  "Twen@@": 62076, 
  "zerstörten": 25731, 
  "telecommunications": 75208, 
  "arch@@": 21353, 
  "徳@@": 81310, 
  "etran@@": 53780, 
  "häfen": 50360, 
  "Fahn@@": 26479, 
  "Kerry": 8047, 
  "Gep@@": 52057, 
  "Country": 12090, 
  "stitute": 46270, 
  "schö@@": 62501, 
  "Gentoo": 11954, 
  "überarbeiteten": 31751, 
  "Baghdad": 61391, 
  "cz@@": 30292, 
  "Streitmacht": 51249, 
  "ु@@": 76004, 
  "Wohlfahrtsstaat": 48202, 
  "Corbey": 63429, 
  "Belize": 33361, 
  "eingeschlossen": 11936, 
  "Komplikationen": 16715, 
  "download@@": 61377, 
  "Geber@@": 32223, 
  "ehrt": 6204, 
  "gutschein": 55177, 
  "ausgiebig": 33967, 
  "therly": 72382, 
  "zuvorkomm@@": 50946, 
  "stehlen": 13616, 
  "Bruchteil": 18728, 
  "koordiniert": 12571, 
  "Trä@@": 38336, 
  "Mat@@": 4577, 
  "ehre": 20316, 
  "Wrocław": 62250, 
  "Dialog": 1668, 
  "Ahmed": 12601, 
  "Entgegenkommen": 49087, 
  "engen@@": 72142, 
  "üll@@": 66768, 
  "umweltpolitischen": 40390, 
  "win-win": 76034, 
  "überschreiben": 42921, 
  "CIPRA": 67595, 
  "Heinz": 37554, 
  "pragmatischen": 37271, 
  "reciprocal": 81315, 
  "sechzehn": 44673, 
  "vage": 16164, 
  "Erlaubnis": 7696, 
  "Karaoke": 50351, 
  "vernach@@": 73313, 
  "Zwöl@@": 36152, 
  "gna": 61637, 
  "adise": 77916, 
  "gne": 27221, 
  "häufigste": 41360, 
  "Pre@@": 4353, 
  "fünfzehn": 13347, 
  "cylinder": 81317, 
  "cons": 26169, 
  "COR@@": 30497, 
  "vogel": 40866, 
  "appartement": 62590, 
  "ۆ@@": 81318, 
  "CVS": 44492, 
  "übergreifenden": 17059, 
  "Druckerei": 43389, 
  "cona": 50492, 
  "übergreifender": 53020, 
  "tissue": 79200, 
  "cone": 40162, 
  "conf": 55856, 
  "Massen": 14275, 
  "KR": 38072, 
  "sl@@": 14194, 
  "plom@@": 68413, 
  "Verwir@@": 64950, 
  "Universums": 25304, 
  "Kalkstein": 49358, 
  "Ägypter": 21779, 
  "ulates": 81319, 
  "isionen": 39285, 
  "angebote": 11181, 
  "überhöh@@": 46977, 
  "skri@@": 13225, 
  "Stop": 16229, 
  "renoviert": 8546, 
  "Dorn@@": 54673, 
  "seiner": 121, 
  "Spezi@@": 16175, 
  "Ägypten": 3295, 
  "Adriano": 49306, 
  "liv@@": 37327, 
  "Apa@@": 73545, 
  "Pedi@@": 33571, 
  "Müll@@": 10767, 
  "Hunden": 23488, 
  "monthly": 74668, 
  "beamte": 3639, 
  "Sicherheitsvorschriften": 43165, 
  "fuss": 39098, 
  "TAR@@": 41361, 
  "illary": 75696, 
  "hang": 13060, 
  "Samstag@@": 4628, 
  "hand": 19063, 
  "angeprangert": 30843, 
  "خ@@": 67679, 
  "ausschließen": 15710, 
  "и": 13127, 
  "ban@@": 7552, 
  "Grun@@": 40640, 
  "Herangehensweise": 16517, 
  "smarter": 74654, 
  "felder": 9345, 
  "feldes": 30029, 
  "Abi@@": 30665, 
  "wettbewerbsfähiger": 24473, 
  "XAMP@@": 70634, 
  "1600": 29611, 
  "Produktsicherheit": 45491, 
  "min": 6256, 
  "Konditionen": 25135, 
  "Parma": 48232, 
  "verbucht": 60369, 
  "oning": 42087, 
  "gekämpft": 9361, 
  "Hinrichtungen": 26251, 
  "Subcommittee": 78852, 
  "unterschiedliche": 2806, 
  "Strombo@@": 73804, 
  "Portland": 15060, 
  "Köln": 11590, 
  "gil@@": 20211, 
  "Parlamentspräsidenten": 48203, 
  "betragen": 17092, 
  "პ@@": 83371, 
  "traditions": 76943, 
  "fen@@": 14864, 
  "äußerste": 53453, 
  "redi@@": 23392, 
  "tä@@": 7501, 
  "Modernis@@": 42265, 
  "Dni@@": 65250, 
  "Nether@@": 56422, 
  "einzunehmen": 24247, 
  "Werden": 35781, 
  "Staat@@": 12399, 
  "Lorenzo": 28547, 
  "台@@": 73876, 
  "Duft": 18476, 
  "Verteidigungs@@": 3768, 
  "meistern": 20845, 
  "Südsudan": 23158, 
  "kalender": 19113, 
  "Autoh@@": 23693, 
  "abgelaufen": 19440, 
  "anter": 17034, 
  "kredi@@": 38510, 
  "EGNOS": 60527, 
  "Us@@": 35711, 
  "gewinnen": 677, 
  "reg@@": 3876, 
  "57@@": 22904, 
  "gehensweise": 74770, 
  "sometimes": 81321, 
  "Erwiderung": 56732, 
  "zuweilen": 17175, 
  "concerns": 79215, 
  "Zwischenzeit": 4888, 
  "wälder": 22360, 
  "Mitgefühl": 15753, 
  "antem": 56347, 
  "Clarke": 9172, 
  "Untersuchungen": 3397, 
  "anten": 2399, 
  "lic@@": 15385, 
  "Witt@@": 32619, 
  "ungsteam": 49798, 
  "Textdatei": 60726, 
  "Restaurant": 1139, 
  "spiegel@@": 55253, 
  "Transc@@": 54157, 
  "dising": 57600, 
  "gewollt": 20458, 
  "én": 45479, 
  "dankbar": 5063, 
  "bedeutendsten": 14792, 
  "Sozial@@": 2643, 
  "Beschäftigungsp@@": 50362, 
  "MASSIVE": 68178, 
  "designers": 71709, 
  "Ticket": 9424, 
  "Wind": 5122, 
  "Wine": 34009, 
  "Web-Seite": 39628, 
  "Ga@@": 10317, 
  "Dist@@": 43491, 
  "Winamp": 61641, 
  "Einzelfällen": 55557, 
  "cooler": 60772, 
  "Krab@@": 34188, 
  "cool": 13142, 
  "Zapati@@": 62502, 
  "öhler": 70909, 
  "Fira": 61381, 
  "Währungs-": 57982, 
  "Bü": 81323, 
  "coolen": 28173, 
  "sparse": 73314, 
  "night": 23656, 
  "Maribor": 59866, 
  "Bö": 79218, 
  "Laufwerke": 36138, 
  "fähigkeit": 5618, 
  "-Bit": 45492, 
  "-Spezial@@": 60007, 
  "beschließt": 19206, 
  "Ökologie": 34184, 
  "welchem": 5017, 
  "Schleswig-Holstein": 55524, 
  "trainee": 78840, 
  "begnügen": 46118, 
  "Ehesch@@": 16975, 
  "abhält": 56583, 
  "Commission": 6337, 
  "Italia": 25628, 
  "Öfen": 48668, 
  "borg": 33099, 
  "bore": 74100, 
  "bord": 45968, 
  "Verkehr@@": 21440, 
  "erhöhte": 6813, 
  "Schönheiten": 33920, 
  "Armeniern": 47140, 
  "Ceder@@": 72720, 
  "hren": 9275, 
  "Bolivi@@": 46481, 
  "Kaffe@@": 11630, 
  "korrupten": 32584, 
  "Phi@@": 51045, 
  "Oldtimer": 53685, 
  "Ordin@@": 51923, 
  "Tim": 4396, 
  "zugewiesen": 12887, 
  "asking": 69328, 
  "Tiroler": 30293, 
  "geweiht": 40843, 
  "Lexikon": 47390, 
  "Gerard": 29405, 
  "strada": 47652, 
  "participation": 76963, 
  "Gray": 15184, 
  "Graz": 32453, 
  "Aer@@": 21801, 
  "peel": 76281, 
  "Sortiment": 14492, 
  "Gras": 16882, 
  "ikern": 33047, 
  "abtrün@@": 22327, 
  "Seiner": 38229, 
  "andeln": 65062, 
  "erstattung": 29043, 
  "nordwestlich": 22538, 
  "Gran": 12851, 
  "鋒@@": 78346, 
  "billigung": 38811, 
  "Dachterrasse": 21395, 
  "Grab": 12864, 
  "5x@@": 66371, 
  "Grad": 3523, 
  "länglich": 56211, 
  "Graf": 29485, 
  "Staatschef": 28035, 
  "vielfäl@@": 46922, 
  "niederschlagen": 47141, 
  "Ortes": 21619, 
  "Neubau": 35289, 
  "Subsidiaritäts@@": 55178, 
  "verwehrt": 20254, 
  "earbei@@": 46119, 
  "Orten": 4810, 
  "Printing": 60716, 
  "busines@@": 76333, 
  "beharrt": 12481, 
  "Wissens@@": 14175, 
  "Ocster": 65063, 
  "Weitsicht": 48192, 
  "waf@@": 62503, 
  "step@@": 49666, 
  "konnen": 37969, 
  "Science": 8745, 
  "Klem@@": 24755, 
  "veranschaulichen": 37014, 
  "wasting": 82807, 
  "Kalender@@": 25742, 
  "Bedarfs": 35107, 
  "Abdullah": 13061, 
  "profession": 76119, 
  "NG@@": 22472, 
  "puncto": 39050, 
  "zimmer-@@": 55979, 
  "klopfen": 22158, 
  "Diebstahl": 13863, 
  "Feminismus": 40391, 
  "Seriosität": 48749, 
  "Abstimmungsstunde": 23887, 
  "WARE": 73377, 
  "üre": 37821, 
  "Pensions@@": 22682, 
  "langsam@@": 12873, 
  "vorgabe": 62077, 
  "Blase": 21845, 
  "GetYourGuide": 52925, 
  "üro": 59611, 
  "sovereign": 81328, 
  "load-@@": 68179, 
  "Ny@@": 16902, 
  "Regency": 49005, 
  "Englisch": 3659, 
  "conservation": 81329, 
  "châ@@": 76651, 
  "Photosmart": 68562, 
  "Donal@@": 37793, 
  "Danu@@": 71538, 
  "Maked@@": 57791, 
  "ITER@@": 64473, 
  "ʃ@@": 79220, 
  "geschlossen@@": 63781, 
  "diligence": 75699, 
  "Meisterwerk": 30633, 
  "Weltgesundheits@@": 66624, 
  "referendums": 72384, 
  "schweigen": 11668, 
  "Hilfsprogramm": 47219, 
  "Verlängerung": 7369, 
  "Mikrowelle": 31752, 
  "rauch": 47752, 
  "gal@@": 11525, 
  "Belder": 49956, 
  "Romanesque": 74771, 
  "ک@@": 74772, 
  "Optimierungen": 53021, 
  "wirkenden": 29077, 
  "gewalt": 25561, 
  "Slowakischen": 46731, 
  "lanciert": 20790, 
  "fiskal@@": 52044, 
  "ihr@@": 21279, 
  "captive": 79221, 
  "NL@@": 27057, 
  "Käl@@": 22422, 
  "Führern": 10591, 
  "gründlich": 11642, 
  "Hohen": 5677, 
  "Herstellern": 11295, 
  "Sap@@": 28298, 
  "Hoher": 50273, 
  "gemacht": 225, 
  "lügen": 26289, 
  "inmitten": 3473, 
  "Führers": 27272, 
  "Umfrage": 2500, 
  "Eigentumsvorbehalt": 59338, 
  "reichung": 29211, 
  "kästchen": 69844, 
  "Indischen": 22023, 
  "Cream": 55442, 
  "ausgelesen": 60912, 
  "er@@": 217, 
  "Abänderungsanträge": 40904, 
  "Mühl@@": 50417, 
  "äl@@": 7306, 
  "Verwüstung": 37934, 
  "schwerwi@@": 55212, 
  "Charlotten@@": 71049, 
  "Between": 61899, 
  "kommunistischen": 10435, 
  "anspruchs@@": 40773, 
  "disease": 72550, 
  "geliebten": 21925, 
  "ล": 77919, 
  "steiger@@": 17072, 
  "Sch@@": 625, 
  "expertise": 68005, 
  "ronen": 22868, 
  "prayer": 72956, 
  "Mitta@@": 70752, 
  "schlanke": 29738, 
  "Zö@@": 39629, 
  "MEDA-@@": 40097, 
  "1,000": 60624, 
  "Inclu@@": 49093, 
  "fasc@@": 74773, 
  "Entscheidungst@@": 68999, 
  "äts@@": 30146, 
  "far@@": 10871, 
  "spürbare": 33612, 
  "wollten": 2059, 
  "fünfte": 10081, 
  "Fix@@": 21556, 
  "tesa": 58257, 
  "Brennstoff@@": 19578, 
  "morph@@": 57228, 
  "Staats": 55742, 
  "Tragödien": 25398, 
  "tesy": 66244, 
  "Thur@@": 24206, 
  "test": 8306, 
  "Falle": 2455, 
  "ausgesch@@": 17346, 
  "Erstaunen": 30561, 
  "quot@@": 54791, 
  "klargemacht": 60130, 
  "tu@@": 4786, 
  "funktions@@": 33749, 
  "iPods": 48454, 
  "Flüchtlinge": 5249, 
  "Rückstände": 38752, 
  "Einfuhr": 17610, 
  "verdeutlicht": 18662, 
  "Afghanist@@": 20973, 
  "Häl@@": 31158, 
  "improvisation": 73402, 
  "teilgenommen": 6192, 
  "Trial": 43166, 
  "Iberotel": 67325, 
  "occasion": 81332, 
  "later@@": 42287, 
  "exam@@": 59376, 
  "seeing": 77920, 
  "leitungs@@": 22618, 
  "Berichte": 1608, 
  "konkurrenz@@": 20333, 
  "Plasma@@": 34498, 
  "ebox": 55629, 
  "Abba": 57553, 
  "Genießen": 45009, 
  "ez-@@": 40415, 
  "fried@@": 20270, 
  "Saas-Fee": 66118, 
  "spuren": 16903, 
  "Dschi@@": 11443, 
  "Verkauf@@": 10793, 
  "Rechtschreib@@": 49864, 
  "Displays": 25181, 
  "Berichts": 1815, 
  "Keller": 12349, 
  "unausweichlich": 36000, 
  "trennen": 7794, 
  "gehörte": 9588, 
  "differ@@": 40575, 
  "Golfplätzen": 39974, 
  "songs": 39051, 
  "entsprechender": 17539, 
  "tribunals": 72958, 
  "concept": 69329, 
  "abgesetzt": 44674, 
  "ssiges": 37461, 
  "diplomacy": 79223, 
  "Verhältnis": 2659, 
  "父": 81333, 
  "Berühm@@": 23686, 
  "salmon@@": 71938, 
  "supplement": 78413, 
  "Republic": 65906, 
  "selbstre@@": 61888, 
  "Taktiken": 29706, 
  "bemerk@@": 12634, 
  "Täler": 30949, 
  "fortun@@": 75701, 
  "p.m.": 72791, 
  "Republik": 1704, 
  "Informationskampagne": 40208, 
  "Vorraus@@": 59613, 
  "Kie@@": 35186, 
  "Migranten": 9906, 
  "Burg": 9289, 
  "helles": 25533, 
  "Innenminister": 14140, 
  "wirkungsvolle": 43592, 
  "WEU": 49080, 
  "gebundene": 33497, 
  "Burn": 49187, 
  "Schlauch": 48669, 
  "Genehmigung": 4581, 
  "defl@@": 42231, 
  "Lenti@@": 66634, 
  "gige": 16369, 
  "Elefanten": 18922, 
  "Temper@@": 30149, 
  "SC-@@": 62908, 
  "hellen": 13338, 
  "aland": 56349, 
  "-innen": 54923, 
  "erlauben": 3561, 
  "Anteilnahme": 34371, 
  "estation": 62078, 
  "demonstri@@": 19311, 
  "fertigungen": 61025, 
  "Europa-Mittelmeer-@@": 32541, 
  "Rolex": 49668, 
  "üßt": 41482, 
  "automobiles": 81334, 
  "Weiter@@": 12243, 
  "Artistic": 71103, 
  "incentives": 73256, 
  "airing": 61026, 
  "wärts@@": 10371, 
  "Räu@@": 15951, 
  "Netto@@": 3959, 
  "gue": 14438, 
  "artific@@": 75914, 
  "verspüren": 51675, 
  "turns": 72090, 
  "Terr@@": 33087, 
  "gekennzeichnet": 6776, 
  "gun": 37078, 
  "gum": 67596, 
  "gul": 32491, 
  "alogue": 75632, 
  "Tulip": 38864, 
  "ain@@": 5429, 
  "Aussehen": 10723, 
  "gut": 192, 
  "Str@@": 9798, 
  "Szenen": 10453, 
  "Hilfsprogramme": 43958, 
  "FlexRay": 65805, 
  "Gior@@": 55743, 
  "Eid@@": 38858, 
  "": 81337, 
  "cose": 69502, 
  "gef@@": 4748, 
  "formelle": 22575, 
  "Gebiete": 2696, 
  "cosa": 69950, 
  "Lobby-@@": 31925, 
  "ship@@": 68006, 
  "ekte": 27593, 
  "CMC": 49094, 
  "ง@@": 74774, 
  "park@@": 17283, 
  "Wasserfälle": 32090, 
  "на": 27769, 
  "Müller": 17738, 
  "cost": 69951, 
  "не": 50856, 
  "": 75702, 
  "entsprechendes": 28953, 
  "Wan@@": 25813, 
  "Wy@@": 11837, 
  "Teilen": 2508, 
  "säure": 37871, 
  "Ziff": 50803, 
  "CMS": 26192, 
  "iors": 58918, 
  "cosy": 73547, 
  "но": 37516, 
  "iti@@": 9347, 
  "trans@@": 15480, 
  "raschen": 16132, 
  "Form": 590, 
  "zuladen": 48574, 
  "lators": 69000, 
  "-Tool": 47096, 
  "Ford": 4120, 
  "Cockpit": 32058, 
  "ermäßigte": 47142, 
  "BEST": 59062, 
  "": 75210, 
  "Mitgliedsland": 40257, 
  "rascher": 28257, 
  "oaks": 81338, 
  "verzauber@@": 62867, 
  "Nichtrau@@": 68414, 
  "": 81339, 
  "Renewable": 65174, 
  "Fort": 8855, 
  "giges": 25157, 
  "Vitam@@": 37921, 
  "Datenschutzbestimmungen": 31040, 
  "Fuhr@@": 41483, 
  "medizin": 19179, 
  "diensten": 8053, 
  "feld@@": 6623, 
  "boten": 16518, 
  "mechanische": 19283, 
  "TENs": 73548, 
  "Custom@@": 46972, 
  "Distribution": 10052, 
  "Gängen": 48237, 
  "VMware": 53567, 
  "knowledge": 73122, 
  "sending": 81340, 
  "box-@@": 51576, 
  "Portugal": 3849, 
  "Texte": 4963, 
  "heikel": 40258, 
  "noch@@": 55286, 
  "Durchblutung": 56734, 
  "Pres@@": 3176, 
  "versuch": 12914, 
  "Vertrieb@@": 13834, 
  "defiziten": 47474, 
  "möglich": 320, 
  "Fähn@@": 69503, 
  "sour@@": 39286, 
  "domains": 66227, 
  "Lin@@": 5255, 
  "erbärm@@": 25187, 
  "430": 40968, 
  "spekulieren": 26694, 
  "Element@@": 49220, 
  "Benalmádena": 65501, 
  "ineinander": 44855, 
  "ctions": 48670, 
  "extra": 12394, 
  "Privatstrand": 47057, 
  "Blut@@": 2703, 
  "lusion@@": 73099, 
  "Remo": 64007, 
  "verhängt": 8819, 
  "Isaak": 52822, 
  "gefunden": 659, 
  "Aufrufe": 16413, 
  "büßen": 51973, 
  "finanzierte": 11466, 
  "Lat@@": 6973, 
  "RS-@@": 51046, 
  "Isaac": 33968, 
  "rün@@": 28486, 
  "Pine": 44257, 
  "Beharrlichkeit": 32960, 
  "künstliche": 19920, 
  "Chats": 34138, 
  "ational@@": 72232, 
  "gelegene": 8604, 
  "antwortung": 71804, 
  "flüge": 12635, 
  "Arbeiten": 2704, 
  "Dies": 19092, 
  "reger": 44332, 
  "Fels": 27864, 
  "Diet": 56130, 
  "Legion": 30045, 
  "Fell": 30332, 
  "Arbeiter": 4011, 
  "Comm@@": 15683, 
  "Feld": 2585, 
  "wirtschaftspolitischen": 23477, 
  "bige": 19373, 
  "rainfall": 81341, 
  "zipation": 67921, 
  "beschleunigten": 34878, 
  "refres@@": 77923, 
  "Wirkung": 2178, 
  "neugierig": 25691, 
  "befristete": 30395, 
  "korrekten": 21247, 
  "lea@@": 46339, 
  "Orch@@": 26372, 
  "Polizisten": 7148, 
  "repar@@": 23508, 
  "Minderheitenrechte": 39673, 
  "Tomm@@": 56511, 
  "Cov@@": 52058, 
  "Sneaker": 53022, 
  "reagierte": 7719, 
  "abgerufen": 30364, 
  "Ki-moon": 44856, 
  "stelligen": 24073, 
  "Verfügbarkeit": 3998, 
  "zeuger": 25932, 
  "per-@@": 29908, 
  "unnötige": 17015, 
  "acon": 33992, 
  "decken": 6466, 
  "lichter": 29460, 
  "abyte": 54808, 
  "decker": 47653, 
  "Schatten": 6928, 
  "seriösen": 43311, 
  "zeugen": 12822, 
  "strittige": 45617, 
  "Setzen": 45046, 
  "torante": 66946, 
  "trans": 62959, 
  "beantrag@@": 46979, 
  "Archiv@@": 26760, 
  "Selbstvertrauen": 42744, 
  "ERP": 43247, 
  "ummer": 20236, 
  "gewohnt": 8528, 
  "Treviso": 46701, 
  "chip": 45719, 
  "et-style": 81343, 
  "chiv": 62284, 
  "rushed": 81344, 
  "set-@@": 41302, 
  "chin": 33794, 
  "zaht@@": 66520, 
  "entspannter": 33724, 
  "h-@@": 21906, 
  "In@@": 664, 
  "Haftbefeh@@": 36430, 
  "chia": 44801, 
  "schutzmittel": 47753, 
  "occur": 81345, 
  "schrei@@": 12236, 
  "Pizza": 15365, 
  "NPCs": 69001, 
  "pret@@": 66625, 
  "Weggen": 76285, 
  "Christi@@": 8463, 
  "abzubauen": 14878, 
  "ray-@@": 39529, 
  "Is@@": 5168, 
  "sillon": 61459, 
  "lounge": 47227, 
  "Standpunkten": 36001, 
  "keineswegs": 9436, 
  "Reben": 50274, 
  "Gent@@": 17821, 
  "ausführte": 39861, 
  "sischen": 17857, 
  "AIR@@": 60625, 
  "Schir@@": 39630, 
  "City-@@": 34988, 
  "Islamisten": 14581, 
  "Frag@@": 48298, 
  "angeführte": 50921, 
  "energiespar@@": 43390, 
  "-ups": 42745, 
  "Ausrüstungen": 24577, 
  "ψ@@": 75213, 
  "P.@@": 13835, 
  "DN@@": 16102, 
  "britann@@": 69706, 
  "Blö@@": 65701, 
  "adel": 35139, 
  "Hochebene": 43391, 
  "produce": 76286, 
  "Wenz@@": 55179, 
  "Martin": 2003, 
  "Publish@@": 32188, 
  "pe@@": 8017, 
  "Model": 22825, 
  "Modem": 34139, 
  "Keynes": 32305, 
  "Geldpolitik": 11071, 
  "LAB@@": 56465, 
  "günstigste": 42040, 
  "niedrig@@": 21121, 
  "Dieter": 35865, 
  "grandson": 81348, 
  "Nephiten": 38984, 
  "Unwissenheit": 45574, 
  "vorher@@": 9714, 
  "Shia": 64760, 
  "freund@@": 20108, 
  "duc@@": 27136, 
  "you-@@": 61297, 
  "Neuschwanstein": 66626, 
  "Radio": 3460, 
  "Überstunden": 15766, 
  "behör": 76287, 
  "Computer-@@": 18155, 
  "Gemeinschaftsflotte": 59890, 
  "Ship": 55065, 
  "Seeb@@": 27865, 
  "kurs": 8073, 
  "respek@@": 23383, 
  "QLA": 64130, 
  "polation": 63521, 
  "endet": 4068, 
  "approx": 77924, 
  "serving": 80658, 
  "stils": 34372, 
  "endes": 2458, 
  "Hall@@": 17173, 
  "äqu@@": 63783, 
  "Mechanical": 64561, 
  "raised": 75232, 
  "betraut": 22940, 
  "verdi@@": 21696, 
  "Jan": 7154, 
  "Re": 41815, 
  "stile": 37970, 
  "Jam": 41371, 
  "tablets": 81349, 
  "api@@": 47228, 
  "Qui@@": 38022, 
  "endem": 16025, 
  "onien": 21029, 
  "enden": 497, 
  "otismus": 36153, 
  "Mandela": 13756, 
  "RT": 31099, 
  "entschuldige": 33657, 
  "wirkungsvoll": 33146, 
  "RP": 38129, 
  "Beschäftigungsquote": 53888, 
  "RS": 31100, 
  "Anregungen": 11294, 
  "resse": 46802, 
  "Privat@@": 2675, 
  "ausser@@": 26258, 
  "entschuldigt": 14223, 
  "alisierung": 5329, 
  "RF": 48575, 
  "Ski-": 40487, 
  "RA": 16057, 
  "RC": 22941, 
  "trenn@@": 12848, 
  "RM": 48827, 
  "EU-Mitgliedstaaten": 7890, 
  "RO": 9418, 
  "RH": 60626, 
  "RI": 17724, 
  "Satur@@": 47391, 
  "RK": 34968, 
  "unauf@@": 33921, 
  "nom": 41545, 
  "non": 22305, 
  "TRAN@@": 49373, 
  "nod": 54000, 
  "som": 19580, 
  "willige": 33048, 
  "nog": 46624, 
  "alist": 14784, 
  "Patentan@@": 39184, 
  "sol": 31241, 
  "Ost-": 24197, 
  "-Scott": 81352, 
  "alism": 36756, 
  "Brenta": 63047, 
  "Dok@@": 36002, 
  "besichtigt": 44004, 
  "R.": 8088, 
  "now": 49346, 
  "erledigen": 14305, 
  "alise": 51676, 
  "nor": 70530, 
  "nos": 23033, 
  "道@@": 77925, 
  "formulierten": 33362, 
  "Menschenrechtsrat": 38694, 
  "itze": 48304, 
  "spielen": 404, 
  "Hollywood": 6959, 
  "drop": 63882, 
  "einigung": 39052, 
  "beings": 81561, 
  "Pocket@@": 63238, 
  "Annul@@": 39731, 
  "magazin": 26933, 
  "Klasse": 2566, 
  "Lieferanten@@": 34735, 
  "dron": 58893, 
  "Mushar@@": 41253, 
  "Skin": 40032, 
  "ARPRO": 61298, 
  "Agricultural": 55180, 
  "spieler": 2861, 
  "Jeff@@": 22638, 
  "Passes": 54346, 
  "narr@@": 71939, 
  "stetigen": 27188, 
  "Attersee": 66725, 
  "Museum": 2188, 
  "ächte": 44258, 
  "begraben": 11529, 
  "ungstechnologie": 45077, 
  "Einwohner@@": 62773, 
  "Frühwarnsystem": 49566, 
  "stabilität": 28921, 
  "fs": 6769, 
  "beliebige": 17899, 
  "onies": 67418, 
  "wiederaufgenommen": 30456, 
  "naming": 74775, 
  "Dekret": 33705, 
  "monitors": 74776, 
  "Petition": 11266, 
  "Gil": 43516, 
  "си@@": 46109, 
  "Target@@": 47001, 
  "umris@@": 56395, 
  "ehnten": 27189, 
  "fixen": 60008, 
  "ron@@": 9402, 
  "Energiepaket": 57983, 
  "zähle": 21691, 
  "Kontra@@": 17778, 
  "Norwegian": 68958, 
  "León": 50768, 
  "wholeheartedly": 81355, 
  "fy": 22544, 
  "Bekanntgabe": 16558, 
  "бо@@": 49957, 
  "Tarifa": 20594, 
  "Netzwerks": 16026, 
  "ebuil@@": 36460, 
  "zählt": 3388, 
  "glück": 69504, 
  "Ausrede": 21402, 
  "im@@": 3047, 
  "advantaged": 76384, 
  "gesorgt": 11886, 
  "Kön@@": 39682, 
  "ин@@": 44259, 
  "諸@@": 77926, 
  "diagnostic": 77927, 
  "mieten": 8713, 
  "Regim@@": 25743, 
  "unwanted": 81356, 
  "ir@@": 2092, 
  "hegemoni@@": 59749, 
  "Pumpen": 29105, 
  "Europe@@": 62504, 
  "fabric": 75679, 
  "on-@@": 2332, 
  "liefert": 4060, 
  "Flagge": 9617, 
  "fa": 11721, 
  "Devisen@@": 23678, 
  "ationsh@@": 55109, 
  "Reis@@": 24266, 
  "Harbour": 21183, 
  "Ministerpräsidenten": 6968, 
  "itzer": 34114, 
  "ro-@@": 23240, 
  "frieden": 40775, 
  "Erik": 27817, 
  "hinausgehende": 51864, 
  "510": 43016, 
  "Außen": 47761, 
  "Erinnerung": 3335, 
  "Thessalon@@": 66523, 
  "Eric": 5594, 
  "Super-@@": 23653, 
  "fe": 3537, 
  "blind": 20117, 
  "gegenstände": 25368, 
  "schließungen": 39100, 
  "hell@@": 16357, 
  "zurückzu@@": 3571, 
  "ff": 2676, 
  "ዓ@@": 76288, 
  "Stainless": 63284, 
  "Schengen-R@@": 68176, 
  "Ч@@": 70121, 
  "Sklaverei": 19114, 
  "Tec@@": 38130, 
  "zweijährigen": 18954, 
  "anonymen": 28976, 
  "Pure": 52823, 
  "bibliothek": 19405, 
  "Medicine": 15577, 
  "inszeniert": 21410, 
  "ring": 12744, 
  "konzepten": 49188, 
  "rina": 46495, 
  "tomorrow": 77928, 
  "к@@": 16737, 
  "Pubs": 24658, 
  "inie": 39910, 
  "gutgeschrieben": 24369, 
  "Analysen": 10230, 
  "-Rep@@": 21219, 
  "Blottnitz": 62414, 
  "caught": 79237, 
  "aufheben": 19770, 
  "Kosov@@": 55525, 
  "Abruzzo": 68921, 
  "fm": 34789, 
  "Busse": 10325, 
  "Lieutenant": 26419, 
  "Gibr@@": 56974, 
  "Formaten": 25562, 
  "aufgenommenen": 42875, 
  "restriktiven": 39339, 
  "Voggen@@": 76289, 
  "beklagt": 19492, 
  "länder": 10170, 
  "daneben": 12955, 
  "a": 163, 
  "Erreichte": 55288, 
  "Feuer": 2788, 
  "brains": 83002, 
  "schlecht": 2221, 
  "Wechselkurs": 20144, 
  "BN@@": 31338, 
  "diebstahl": 19020, 
  "cré@@": 44803, 
  "Bugzilla": 64952, 
  "soren": 52718, 
  "schi@@": 6090, 
  "Gahrton": 63432, 
  "Poker@@": 17086, 
  "bemerken": 10586, 
  "Led@@": 28993, 
  "kriminellen": 12490, 
  "ff-@@": 63522, 
  "png": 62161, 
  "ev@@": 4649, 
  "professionals": 79238, 
  "Brüssel@@": 45806, 
  "Ruck@@": 27262, 
  "Inselgruppe": 34831, 
  "Komplizen": 42331, 
  "geschmückt": 41039, 
  "CrypTool": 64095, 
  "ganz@@": 16331, 
  "transferred": 81358, 
  "Pension@@": 15345, 
  "ec@@": 3580, 
  "applet": 73318, 
  "text@@": 36025, 
  "Asy@@": 62591, 
  "einfel@@": 60009, 
  "Kill@@": 30562, 
  "Applikation": 17099, 
  "missbrauch": 10607, 
  "Settlement": 55981, 
  "Umweltzerstörung": 54476, 
  "vernetzten": 43312, 
  "gereicht": 28174, 
  "Freer@@": 64394, 
  "Gär@@": 26117, 
  "Marcos": 35354, 
  "Eugen@@": 43641, 
  "Anfänger": 18538, 
  "Chau@@": 33969, 
  "Demet@@": 45888, 
  "bugs": 57840, 
  "einnimmt": 23816, 
  "Letztere": 36201, 
  "Deep": 15145, 
  "ー@@": 71172, 
  "Heal@@": 35117, 
  "蜀": 81762, 
  "Parlaments@@": 7680, 
  "oleum": 63981, 
  "Dorint": 63240, 
  "Commune": 67048, 
  "Audiodateien": 49510, 
  "freigestellt": 55982, 
  "Kfz-@@": 39163, 
  "kreative": 10331, 
  "Jet@@": 12266, 
  "auswählen": 8250, 
  "Opi@@": 27962, 
  "Aneignung": 47392, 
  "hinweise": 38023, 
  "schreibe": 20134, 
  "equipment": 54924, 
  "Januar": 789, 
  "Seehöhe": 56736, 
  "vereinigten": 40905, 
  "zuge@@": 21692, 
  "珠@@": 80084, 
  "hinweist": 20459, 
  "äumt": 23452, 
  "healing": 77782, 
  "Kommando@@": 29902, 
  "festlegen": 7503, 
  "sü@@": 8200, 
  "雅@@": 81360, 
  "modifizierte": 44107, 
  "lehne": 22306, 
  "vorbildlich": 46264, 
  "teach@@": 74778, 
  "äume": 30912, 
  "momentane": 48940, 
  "Grenzkontrollen": 26067, 
  "verzö@@": 12890, 
  "Rad@@": 4514, 
  "biotechn@@": 37556, 
  "Break@@": 11940, 
  "lehnt": 10967, 
  "Pak@@": 28841, 
  "gemeinsame": 948, 
  "Neapel": 17739, 
  "bot@@": 4849, 
  "-Restaurant": 23384, 
  "Kollektiv@@": 33100, 
  "Ensem@@": 57616, 
  "Toren": 23858, 
  "Devise": 44675, 
  "holländischen": 36757, 
  "fremd": 29700, 
  "comple@@": 76679, 
  "Module": 10481, 
  "Lösungsansätze": 50249, 
  "expliz@@": 31626, 
  "verdächtig": 25382, 
  "CAC@@": 59476, 
  "onium": 66235, 
  "Moduls": 45576, 
  "ausstoß": 51047, 
  "Redaktions@@": 39306, 
  "ökologisch": 20690, 
  "befand": 19725, 
  "nannten": 21367, 
  "Web": 4363, 
  "Bedeutungs@@": 51048, 
  "Weg": 276, 
  "colum@@": 81361, 
  "Wei": 46041, 
  "scoreboard": 63982, 
  "Wen": 30117, 
  "sible": 38211, 
  "Qualitätsmanagement": 44009, 
  "Schnees@@": 47229, 
  "Wer": 24068, 
  "sibly": 81363, 
  "Vergü@@": 75214, 
  "gletscher": 56350, 
  "30-40": 61900, 
  "perfekt": 3735, 
  "満": 81364, 
  "TA@@": 24474, 
  "schlägt": 2994, 
  "Woman": 31451, 
  "se-@@": 6143, 
  "GRUB": 60161, 
  "dana": 37013, 
  "HSH": 63983, 
  "Mitgliedern": 2351, 
  "ARA": 57340, 
  "Beweg@@": 33660, 
  "ationalen": 45087, 
  "lesbar": 38778, 
  "schläge": 7628, 
  "enriched": 81365, 
  "Konstantin@@": 56880, 
  "Tschechoslowak@@": 69243, 
  "öfen": 20684, 
  "amera": 51968, 
  "stain": 73811, 
  "entsprechen": 3404, 
  "amtier@@": 74416, 
  "datenspeicherung": 75216, 
  "verlegen": 20559, 
  "Luther": 27455, 
  "Africans": 82992, 
  "Weltkulturerbe": 27594, 
  "anzuerkennen": 12151, 
  "bilities": 76290, 
  "agentur": 3105, 
  "Legalisierung": 22413, 
  "brushes": 76886, 
  "schreibung": 19223, 
  "früchte": 33518, 
  "Landesgrenzen": 47754, 
  "Weiterverarbeitung": 38183, 
  "SCH@@": 14865, 
  "interregional": 79154, 
  "Interie@@": 39631, 
  "Kommunikation": 2624, 
  "SYN@@": 61710, 
  "Ausschüsse": 10258, 
  "jeher": 18159, 
  "hing": 14572, 
  "egment": 32324, 
  "Costasur": 38865, 
  "arly": 30150, 
  "barocke": 47230, 
  "Eigen@@": 5192, 
  "ammlung": 48576, 
  "azo": 62774, 
  "Werften": 17227, 
  "Intellectual": 63335, 
  "Baustellen": 57425, 
  "Bethleh@@": 73812, 
  "gründete": 9021, 
  "21.@@": 20632, 
  "reven@@": 75366, 
  "Fischereitätigkeit": 53140, 
  "DÜ@@": 61811, 
  "ierbarkeit": 43168, 
  "vorhandenen": 5882, 
  "Salz@@": 15295, 
  "EMF": 63523, 
  "EMA": 25933, 
  "EMC": 49670, 
  "burst": 74926, 
  "Tamp@@": 11781, 
  "angebaut": 19434, 
  "aufstrebenden": 9884, 
  "Apps": 12406, 
  "kop@@": 11842, 
  "EMU": 71280, 
  "公": 81367, 
  "Gasversorgung": 54247, 
  "Lotterie": 29339, 
  "ägyptischen": 10532, 
  "EMS": 45969, 
  "dbar": 30457, 
  "dial@@": 30385, 
  "oberen": 7359, 
  "Belichtungs@@": 43959, 
  "wahrheits@@": 38985, 
  "attraktive": 12352, 
  "erweiter@@": 31512, 
  "Lächeln": 11344, 
  "suspects": 81368, 
  "schreien": 12884, 
  "anzugleichen": 45413, 
  "Meisterschaft": 9317, 
  "nachfolgend": 3202, 
  "Kriegen": 22449, 
  "colours": 81369, 
  "Lithu@@": 81087, 
  "Krieger": 18331, 
  "Krieges": 4230, 
  "wechsel": 7709, 
  "club@@": 54898, 
  "Members": 62505, 
  "NO@@": 18171, 
  "Compan@@": 56180, 
  "berechnet": 7126, 
  "Journalis@@": 30844, 
  "therapies": 79127, 
  "conferencing": 72295, 
  "zweif@@": 71658, 
  "verfügbarer": 56351, 
  "Wert": 897, 
  "Langstrecken@@": 19185, 
  "Kashmir": 62775, 
  "filter": 21478, 
  "Nächten": 29207, 
  "broch@@": 67878, 
  "AKP-Länder": 34695, 
  "königliche": 12392, 
  "饮@@": 79239, 
  "Tu@@": 4542, 
  "männer": 34325, 
  "Team": 610, 
  "verfügbaren": 5396, 
  "MI@@": 18500, 
  "Ermöglich@@": 47616, 
  "ambiente": 56817, 
  "Gesch@@": 5551, 
  "erneuerbaren": 9301, 
  "cor@@": 8036, 
  "grimm@@": 67326, 
  "気": 80777, 
  "Stockholmer": 32658, 
  "Klee": 41879, 
  "MF@@": 45647, 
  "sper@@": 16311, 
  "finder@@": 27190, 
  "ł@@": 21584, 
  "Strateg@@": 24121, 
  "enland": 39491, 
  "Unicode": 50173, 
  "Escape": 47058, 
  "ehrten": 35855, 
  "Screenshots": 38866, 
  "Kongresszentrum": 29300, 
  "Tutorial": 35500, 
  "Handy@@": 11714, 
  "Flugverkehr": 37135, 
  "zab@@": 54792, 
  "amins": 57666, 
  "madness": 76291, 
  "esens": 58769, 
  "Katastrophen@@": 14284, 
  "jeans": 70222, 
  "esische": 10981, 
  "arsen@@": 45493, 
  "Oberhand": 24792, 
  "exploit": 77840, 
  "GHz": 42903, 
  "aming": 37923, 
  "täglichen": 5062, 
  "perpetrators": 81372, 
  "Bereitschafts@@": 21999, 
  "Sache": 989, 
  "Diversifizierung": 20521, 
  "Kreditn@@": 31772, 
  "FEKO": 67240, 
  "emart": 79241, 
  "Disc@@": 45648, 
  "weibliche": 6382, 
  "adt@@": 53568, 
  "Brems@@": 23888, 
  "Gebäude@@": 24598, 
  "tropical": 76966, 
  "Personal": 1796, 
  "Absichtserklärung": 36267, 
  "Phon@@": 46488, 
  "outsi@@": 70122, 
  "sinvestitionen": 62593, 
  "Entsendung": 15711, 
  "pomm@@": 58919, 
  "Revisionen": 38405, 
  "erhalte": 30734, 
  "Magier": 30882, 
  "apier": 32013, 
  "dr@@": 5740, 
  "Entwicklungsstand": 50062, 
  "Telekom": 30118, 
  "make-@@": 71940, 
  "Instandsetzung": 49865, 
  "Vincent": 15261, 
  "Spybot": 61554, 
  "n@@": 537, 
  "Papier@@": 8204, 
  "Ermessens@@": 32358, 
  "protokoll@@": 48814, 
  "line-@@": 25989, 
  "Südkorea": 6558, 
  "bereiten": 6166, 
  "ide-@@": 50275, 
  "anski": 35080, 
  "Bowling": 27179, 
  "Direc": 81197, 
  "Fujimori": 64552, 
  "fines": 77231, 
  "bereiter": 64185, 
  "joke": 77931, 
  "眼@@": 79243, 
  "sigkeit": 49280, 
  "Fiji": 67241, 
  "Außen-": 8686, 
  "Anth@@": 31371, 
  "Pilotprojekt": 36592, 
  "lang@@": 7402, 
  "97-@@": 42950, 
  "Ravenna": 46574, 
  "GNU": 11208, 
  "GAP@@": 65286, 
  "metric": 69674, 
  "Betten": 6469, 
  "FS@@": 29106, 
  "ällen": 20999, 
  "Better": 29068, 
  "polic@@": 58361, 
  "Verhältnisses": 36432, 
  "Haustür": 19828, 
  "Gandia": 64645, 
  "ultr@@": 45649, 
  "sivität": 31372, 
  "Bundesrepublik": 15925, 
  "schwarzer": 12934, 
  "schwarzes": 54347, 
  "develop": 81378, 
  "Treffer": 7584, 
  "Releas@@": 64474, 
  "Citadines": 65267, 
  "alifornien": 71050, 
  "Kenntnis@@": 58779, 
  "einseitig": 17545, 
  "ausgebildeten": 22921, 
  "Hemmnisse": 30311, 
  "Indonesien": 7253, 
  "besitzt": 2286, 
  "Treffen": 1420, 
  "unnels": 55290, 
  "schwarzem": 28011, 
  "schwarzen": 3966, 
  "k@@": 273, 
  "bedarf": 2967, 
  "Feste": 21014, 
  "Wohlbefin@@": 74780, 
  "Kompliment": 31064, 
  "verschluss": 39340, 
  "pancre@@": 79246, 
  "tzei@@": 43087, 
  "dryers": 82000, 
  "bewaffnet": 15891, 
  "anischen": 4052, 
  "Arbeitssicherheit": 59196, 
  "teb@@": 48122, 
  "Degra": 63699, 
  "gefordert": 2244, 
  "ह@@": 75878, 
  "leer": 11578, 
  "Glä@@": 43355, 
  "europaweit": 17943, 
  "Quest@@": 48787, 
  "wärmstens": 51766, 
  "Mafia": 28476, 
  "hochkarätige": 35892, 
  "Weltöffentlichkeit": 54477, 
  "kontinent@@": 34374, 
  "enttäuschen": 32780, 
  "Budweiser": 52163, 
  "Freed@@": 46762, 
  "Oomen-Ruijten": 35223, 
  "gerechte": 9897, 
  "ELDR-Fraktion": 30819, 
  "fres@@": 24185, 
  "Verwaltungs@@": 3593, 
  "kri@@": 10329, 
  "hier@@": 26512, 
  "Presti@@": 44475, 
  "SDL": 18751, 
  "aktuelle": 1598, 
  "loy@@": 8908, 
  "saisonalen": 32145, 
  "taxi": 54793, 
  "Strafgesetz@@": 40567, 
  "Vorspeisen": 40642, 
  "ski-@@": 43547, 
  "Service": 819, 
  "geograph@@": 44398, 
  "Luxus-@@": 21312, 
  "Geräusch": 53234, 
  "taxe": 60699, 
  "Erzeugnissen": 17677, 
  "deh@@": 29802, 
  "Energieeffizienz@@": 37822, 
  "Simbabwe": 10216, 
  "vielversprechende": 27568, 
  "Pump": 62162, 
  "Gasen": 48616, 
  "Zweite": 22850, 
  "Variationen": 21926, 
  "richten@@": 71659, 
  "Start-": 20558, 
  "Vidal-Quadras": 61299, 
  "Fakult@@": 32696, 
  "Touren": 9909, 
  "Ha@@": 4020, 
  "Ahti@@": 76968, 
  "sal@@": 7002, 
  "Rechnungen": 7754, 
  "death": 76293, 
  "europ": 71941, 
  "Geschäftsfelder": 50949, 
  "euros": 38150, 
  "Solana": 17831, 
  "Spot": 14435, 
  "elia": 30328, 
  "herausragender": 43538, 
  "ismus@@": 30952, 
  "versa": 67369, 
  "Deleg@@": 16133, 
  "aleren": 60627, 
  "professionelles": 23135, 
  "professioneller": 15722, 
  "versi": 73319, 
  "Laur@@": 10917, 
  "ami": 15870, 
  "Ehem@@": 16440, 
  "amm": 18344, 
  "VEN@@": 60628, 
  "amo": 33258, 
  "Melia": 62594, 
  "ama": 9178, 
  "stung": 49044, 
  "kurse": 10471, 
  "ame": 8951, 
  "Experi@@": 54478, 
  "amy": 29047, 
  "allererst": 57617, 
  "makes": 75344, 
  "wohnten": 42876, 
  "inets": 69675, 
  "amp": 7389, 
  "ams": 6386, 
  "hörten": 11233, 
  "sah@@": 35810, 
  "amt": 6520, 
  "unglaublich": 5606, 
  "Marburg": 64853, 
  "Urheberrecht": 20443, 
  "fortune": 76969, 
  "Colum@@": 62253, 
  "sa-@@": 39223, 
  "Brüsseler": 23938, 
  "unspoiled": 81508, 
  "vedere": 76970, 
  "e.ch": 57740, 
  "fully": 71475, 
  "Musica": 62191, 
  "kommand@@": 22063, 
  "Batzeli": 67242, 
  "Republi@@": 3499, 
  "noti@@": 18212, 
  "Polem@@": 67773, 
  "oble": 68007, 
  "Lissabon-Vertrag": 42041, 
  "verbal": 51361, 
  "apartments": 58846, 
  "wahres": 29767, 
  "wahrer": 17429, 
  "Parall@@": 33488, 
  "Frank@@": 12811, 
  "search@@": 65288, 
  "Swiss@@": 42606, 
  "Ŀ@@": 83996, 
  "Ī@@": 75220, 
  "ă@@": 47755, 
  "langwei@@": 26908, 
  "wahren": 4876, 
  "Haushalts-": 45970, 
  "entschul@@": 14381, 
  "durfte": 25371, 
  "hav@@": 61520, 
  "1859": 59197, 
  "Vetorecht": 41227, 
  "Symantec": 57618, 
  "versicherte": 36433, 
  "appe@@": 70734, 
  "Tourisme": 63048, 
  "1852": 61813, 
  "1853": 61428, 
  "1854": 62415, 
  "manipuliert": 20086, 
  "punk@@": 8320, 
  "Reka-@@": 63837, 
  "rum@@": 15718, 
  "Verst@@": 17832, 
  "od@@": 7039, 
  "übliche": 14352, 
  "Grippe": 18299, 
  "Nyl@@": 42535, 
  "ACROSS": 64360, 
  "spraxis": 43064, 
  "enzen": 15363, 
  "enzel": 62079, 
  "Löhne": 8851, 
  "GV@@": 51893, 
  "Busquin": 50660, 
  "HI-@@": 51677, 
  "privat@@": 32224, 
  "1975": 12923, 
  "Goth@@": 42808, 
  "bereuen": 40532, 
  "Panorama-@@": 43960, 
  "nisse": 12410, 
  "egeleg@@": 75222, 
  "Leonardo": 19609, 
  "enzer": 48828, 
  "rak@@": 10398, 
  "Konfliktverhütung": 47059, 
  "Bestech@@": 16367, 
  "Glaubens": 17822, 
  "gär@@": 39053, 
  "Tochtergesellschaften": 17699, 
  "ér@@": 11559, 
  "entzück@@": 35050, 
  "Krankenh@@": 21293, 
  "Tet@@": 29415, 
  "angerechnet": 41157, 
  "jet@@": 28796, 
  "atisierung": 39570, 
  "Rückschritte": 46341, 
  "backup": 71051, 
  "Intergovernmental": 71394, 
  "einzugreifen": 23084, 
  "oben@@": 61300, 
  "Prozesse": 5424, 
  "begannen": 4426, 
  "Romanti@@": 40712, 
  "Ronda": 46765, 
  "inständig": 53000, 
  "Nachhal@@": 49282, 
  "W@@": 291, 
  "Julie": 15632, 
  "Gewichts": 40139, 
  "trafen": 8213, 
  "Gold": 2798, 
  "stabilisation": 76294, 
  "ር": 81385, 
  "shrinking": 79248, 
  "Etikettierung": 23522, 
  "intervention": 60131, 
  "unheimlich": 32059, 
  "Vill@@": 23058, 
  "hon@@": 11706, 
  "Schnittstellen": 19519, 
  "starb": 2002, 
  "anwender@@": 49959, 
  "Elektro-": 33147, 
  "mit@@": 1907, 
  "Tschechoslowakei": 41546, 
  "specific@@": 76972, 
  "stark": 753, 
  "Raumordnung": 47869, 
  "chinesische": 2365, 
  "viktori@@": 21254, 
  "Check-In": 43895, 
  "stars": 11638, 
  "Stick@@": 30047, 
  "Piave": 62636, 
  "Preman@@": 66724, 
  "eingegebenen": 47756, 
  "virtu@@": 33695, 
  "kurzfristiger": 34048, 
  "shower": 72723, 
  "kunft@@": 45334, 
  "OF@@": 42536, 
  "Euroland": 65702, 
  "forcieren": 51158, 
  "fünf": 345, 
  "Eingabe": 16009, 
  "zei@@": 7801, 
  "Zertifikat": 18463, 
  "know-how": 70827, 
  "igen": 2421, 
  "gesteuer@@": 57559, 
  "podcast": 79249, 
  "kurzfristigen": 13609, 
  "Original": 9410, 
  "Kennzeichnung": 9642, 
  "fraud": 76295, 
  "Verfolgung": 6162, 
  "embedded": 63011, 
  "default": 63143, 
  "äki": 65907, 
  "ΕU": 79250, 
  "Verhaltenskodi@@": 75706, 
  "Belarusian": 80159, 
  "Nieren": 35452, 
  "tiv@@": 6913, 
  "az.org": 63883, 
  "uch@@": 34253, 
  "Konzernen": 31041, 
  "perioden": 37741, 
  "Erträgen": 40898, 
  "zusammengetragen": 30908, 
  "Arktis": 20560, 
  "Charles": 3757, 
  "600": 3457, 
  "transporters": 74417, 
  "FER@@": 42877, 
  "ho@@": 2371, 
  "stress@@": 47232, 
  "Übel@@": 17313, 
  "unternehmens@@": 33101, 
  "lower@@": 69752, 
  "Vertrau@@": 19738, 
  "haw@@": 15485, 
  "Lieferumfang": 40561, 
  "Ferdinand": 21049, 
  "60.": 31067, 
  "hr@@": 7273, 
  "Magen": 18898, 
  "Erfindung": 15816, 
  "erfolgreich": 1504, 
  "Annex": 68095, 
  "riesig": 51767, 
  "Kofinanzierung": 23304, 
  "einst@@": 19284, 
  "zoll@@": 25744, 
  "Rechnung": 1954, 
  "terminating": 81389, 
  "Chur": 63884, 
  "Bekannte": 44108, 
  "spunkt": 29181, 
  "Smi@@": 51865, 
  "Erk@@": 53890, 
  "Gremiums": 49673, 
  "vereto": 65806, 
  "aufführung": 46980, 
  "Engine": 18752, 
  "Sauerstoff": 22754, 
  "ద@@": 81117, 
  "nummern": 17176, 
  "60s": 73320, 
  "Porträt": 22361, 
  "Best@@": 7259, 
  "sky@@": 42630, 
  "Installationsprogramm": 47956, 
  "Chá@@": 66435, 
  "unzufrieden": 23699, 
  "Minsk": 35822, 
  "registry": 77530, 
  "Hütte": 19771, 
  "gefälschten": 24714, 
  "Nations": 20182, 
  "fliegen": 3827, 
  "pool": 13928, 
  "est@@": 2937, 
  "Cascais": 67147, 
  "Fluß": 33847, 
  "Erwägung": 5032, 
  "urgie": 52707, 
  "CD-R": 67922, 
  "Zeitraums": 25299, 
  "dünne": 22458, 
  "Kultur@@": 2885, 
  "Bru": 74782, 
  "Finanzsystems": 30030, 
  "brochen": 66337, 
  "Energiear@@": 57229, 
  "Anast@@": 65066, 
  "sender@@": 61301, 
  "Plugin": 17651, 
  "Interviews": 6638, 
  "ghters": 63887, 
  "Unterrichts": 57742, 
  "dlichkeiten": 26068, 
  "overseas": 73321, 
  "Party@@": 24069, 
  "Aufbruch": 44260, 
  "Verkehr": 2753, 
  "inspirierte": 14077, 
  "beschloss": 8675, 
  "eigenständigen": 31651, 
  "AU@@": 15790, 
  "änderte": 11916, 
  "Energieeinsparung": 39975, 
  "Essenz": 33102, 
  "Soldaten": 1738, 
  "eholders": 73550, 
  "ги@@": 61146, 
  "metal-@@": 77932, 
  "month": 73551, 
  "wachsenden": 3149, 
  "espiel": 54674, 
  "Take": 24435, 
  "Professional": 16705, 
  "unsch": 39683, 
  "religious": 81394, 
  "etik@@": 32961, 
  "leite": 58496, 
  "Pflanzenarten": 39209, 
  "fehlt": 4226, 
  "verfügbare": 21238, 
  "hindurch": 29044, 
  "orische": 29045, 
  "chain": 64854, 
  "Renaissance": 18402, 
  "ه@@": 68922, 
  "zynisch": 35950, 
  "Compet@@": 77934, 
  "freiheiten": 57110, 
  "Pakets": 16381, 
  "Rit@@": 20172, 
  "schrittweisen": 28843, 
  "verweise": 25115, 
  "Pakete": 5658, 
  "Lok@@": 16535, 
  "ektions@@": 35721, 
  "oss": 42117, 
  "Inhaftierung": 12467, 
  "Stämmen": 36154, 
  "Dir@@": 28147, 
  "kognitive": 32697, 
  "Ghetto": 46331, 
  "20.000": 7995, 
  "ो@@": 79252, 
  "Wiederverkäufer": 53891, 
  "horror": 75708, 
  "Pyth@@": 46803, 
  "solidarische": 51980, 
  "Recru@@": 40163, 
  "26@@": 10966, 
  "fassa@@": 60774, 
  "ziele": 5952, 
  "Cappato": 55068, 
  "decide": 79253, 
  "liges": 15100, 
  "beruhenden": 40503, 
  "ַ@@": 79254, 
  "Obamas": 2633, 
  "Selb@@": 37485, 
  "Missverständnis": 31291, 
  "Retiro": 66848, 
  "fertigung": 25988, 
  "tivi@@": 31416, 
  "Korruption": 3625, 
  "Stoffes": 59066, 
  "irl@@": 67681, 
  "ausgeschlossen": 3442, 
  "zuzuwenden": 54126, 
  "Canary": 54248, 
  "pflicht@@": 46381, 
  "evolent": 80174, 
  "Realitäts@@": 51259, 
  "Steuereinnahmen": 21146, 
  "es.com": 8481, 
  "ồ@@": 76296, 
  "anan": 61029, 
  "Stoffen": 14990, 
  "Hobby@@": 34206, 
  "herum@@": 9832, 
  "Mariah@@": 74783, 
  "Benutzung": 8359, 
  "Algh@@": 77421, 
  "Produkt-": 28363, 
  "Mail@@": 11794, 
  "atore": 54572, 
  "Balkon": 5832, 
  "GUE": 18160, 
  "diment": 61433, 
  "atori": 64391, 
  "Mainstreaming": 45650, 
  "GUI": 46271, 
  "streets": 79255, 
  "Kolleg@@": 32482, 
  "Binnenmarktes": 7577, 
  "osexu@@": 39101, 
  "GUS": 57619, 
  "Films": 7672, 
  "ators": 8998, 
  "陶@@": 83203, 
  "atory": 45807, 
  "Beileid": 26508, 
  "Mangels": 24881, 
  "ar@@": 697, 
  "inert": 70826, 
  "prämie": 38491, 
  "ails": 40033, 
  "Dienstleistungsrichtlinie": 18367, 
  "Patient": 12120, 
  "Mash@@": 60258, 
  "Releases": 34718, 
  "infiziert": 16676, 
  "investing": 79256, 
  "mathematischen": 38850, 
  "sachdien@@": 56380, 
  "Lösungs@@": 22473, 
  "führende": 2277, 
  "Elo@@": 47393, 
  "Black@@": 4826, 
  "Camaiore": 66103, 
  "Fingerab@@": 34716, 
  "learned": 76298, 
  "Bildverarbeitungs@@": 47582, 
  "asy": 61740, 
  "Herbst@@": 15062, 
  "Plaza": 8480, 
  "zeichn@@": 41026, 
  "oti@@": 10647, 
  "wettbewer@@": 25930, 
  "Nachbar@@": 12445, 
  "kontinuierlich": 9448, 
  "Produkte": 596, 
  "Reiseziele": 41484, 
  "ballet": 75224, 
  "Bekanntschaft": 56213, 
  "tracks": 62673, 
  "Arabisch": 31666, 
  "utz@@": 17413, 
  "gnung": 32219, 
  "Design-@@": 22307, 
  "Produkts": 17970, 
  "subscri@@": 72093, 
  "tismus": 14361, 
  "Espanya": 67431, 
  "šek": 64392, 
  "Biom@@": 22551, 
  "Doll": 44756, 
  "produkts": 49283, 
  "losses": 69857, 
  "Ter@@": 6616, 
  "asa": 23241, 
  "Messe@@": 31138, 
  "enstrah@@": 61640, 
  "Führerschein": 28364, 
  "Herzog@@": 13617, 
  "advertising": 72726, 
  "Nev@@": 18672, 
  "Treff@@": 41828, 
  "seriös": 46249, 
  "legen@@": 46121, 
  "Nec@@": 60775, 
  "Joan": 19237, 
  "freelance": 77050, 
  "Grausamkeiten": 47635, 
  "image@@": 68096, 
  "Erweiterungsprozesses": 51679, 
  "forderte": 2808, 
  "drück@@": 34326, 
  "S1": 62163, 
  "S7": 55983, 
  "S5": 60370, 
  "schmu@@": 46042, 
  "Okin@@": 66675, 
  "qu@@": 1781, 
  "onalen": 42268, 
  "S.": 5004, 
  "S-": 56093, 
  "merchants": 80592, 
  "zunutze": 38131, 
  "aufgibt": 49960, 
  "gebiets": 18064, 
  "Kreditkarte": 6865, 
  "Gas@@": 2305, 
  "fahrungen": 51866, 
  "Bildhau@@": 38695, 
  "1971": 16086, 
  "ifications": 81402, 
  "verkün@@": 31101, 
  "letztens": 56824, 
  "card@@": 63524, 
  "Olivenöl": 15670, 
  "wöchentliche": 13598, 
  "Editoren": 52484, 
  "streiten": 12919, 
  "Barrieren": 18573, 
  "gebiete": 4947, 
  "Connor": 17790, 
  "basi": 68345, 
  "Visier": 9867, 
  "Intellec@@": 78667, 
  "entgegengesetzten": 30735, 
  "vertrieben": 9568, 
  "instruc@@": 75868, 
  "schwer@@": 9371, 
  "Limits": 54675, 
  "geschäf@@": 12107, 
  "dion": 57362, 
  "Sp": 63241, 
  "abzuschwächen": 55984, 
  "Su": 57743, 
  "St": 5543, 
  "Them@@": 24141, 
  "Banking": 16932, 
  "gigantischen": 27800, 
  "So": 24732, 
  "Europol": 13316, 
  "Fischfang@@": 51049, 
  "serbische": 22172, 
  "7000": 32543, 
  "ziel@@": 12152, 
  "blut@@": 15979, 
  "krimin@@": 13032, 
  "IU@@": 49809, 
  "Browser": 7480, 
  "lamp@@": 63627, 
  "beruhig@@": 37079, 
  "örtlichen": 6523, 
  "sorgsam": 48470, 
  "imperialistischen": 35907, 
  "forst@@": 28258, 
  "SS": 19997, 
  "SR": 49375, 
  "Fünf": 34543, 
  "SP": 34639, 
  "SW": 6935, 
  "SV": 11429, 
  "psychischen": 16491, 
  "ST": 23249, 
  "SK": 14932, 
  "aufzurufen": 38235, 
  "SI": 32492, 
  "bekämpft": 11876, 
  "SO": 31984, 
  "budgets": 24045, 
  "SM": 40713, 
  "SL": 21024, 
  "SC": 22964, 
  "SB": 29885, 
  "SA": 5651, 
  "Straßen": 1772, 
  "SG": 44399, 
  "SF": 30186, 
  "SE": 6562, 
  "SD": 20811, 
  "Bitten": 25563, 
  "pri@@": 5931, 
  "IBM": 13300, 
  "Auss@@": 46664, 
  "747": 47233, 
  "IBA": 58920, 
  "IBB": 69676, 
  "Sn@@": 13799, 
  "endlosen": 25872, 
  "Börsen@@": 6149, 
  "Jungfrau@@": 61769, 
  "downloading": 78699, 
  "widersprüchlich": 30087, 
  "Augenblicke": 22588, 
  "phrase": 74418, 
  "arti@@": 33489, 
  "ausgewiesen": 18002, 
  "Kampf@@": 5402, 
  "Guatem@@": 47757, 
  "Counter-@@": 69199, 
  "Einbruch": 17547, 
  "bürokratischen": 20691, 
  "Mindestaufenthalt": 53665, 
  "Opening": 59187, 
  "römische": 23179, 
  "abgegebene": 57495, 
  "extremistische": 37263, 
  "Lieferkette": 30064, 
  "undenkbar": 26634, 
  "Falk": 56352, 
  "weiche": 19040, 
  "Denkm@@": 71173, 
  "Fall": 246, 
  "unglaubliche": 12465, 
  "bürokratischer": 46424, 
  "äht": 41819, 
  "vorhersehbar": 25764, 
  "assimil@@": 75225, 
  "Colleg@@": 17448, 
  "ieder@@": 40071, 
  "Television": 20427, 
  "esysteme": 57984, 
  "communicating": 81406, 
  "verantwortungsbewusste": 45243, 
  "9001": 19799, 
  "Industriezweig": 52265, 
  "Sni@@": 27251, 
  "volks@@": 28894, 
  "Rel@@": 12127, 
  "Emirates": 25417, 
  "scout24.@@": 79262, 
  "horizontal": 40577, 
  "choice": 71052, 
  "stein@@": 7929, 
  "Meditation": 27422, 
  "Juschtschenko": 46575, 
  "UDP": 65289, 
  "glaubwürdige": 24186, 
  "Sofort@@": 40098, 
  "Mexico": 14526, 
  "high-precision": 84796, 
  "Perk@@": 23008, 
  "unterhalb": 8548, 
  "anytime": 79264, 
  "Erwäh@@": 66228, 
  "verteidigt": 8310, 
  "entfernt": 458, 
  "Gerichten": 9393, 
  "Sik@@": 27704, 
  "Nachmittag": 4626, 
  "Ausschreibungen": 26537, 
  "Marathon": 15396, 
  "atur@@": 14228, 
  "pflichtigen": 34522, 
  "soll@@": 44445, 
  "aufbauend": 44400, 
  "exempl@@": 49899, 
  "remnants": 81408, 
  "sha@@": 11042, 
  "Aufforderungen": 44178, 
  "stays": 81353, 
  "Rechtsordnung": 32449, 
  "MBA": 39607, 
  "Refer@@": 22064, 
  "physisch": 25873, 
  "thermal": 72894, 
  "uung": 17919, 
  "12,@@": 9164, 
  "Präsentationen": 18955, 
  "Istanbul": 13989, 
  "Atlas": 28862, 
  "leichte": 5428, 
  "Ärmsten": 27741, 
  "GAP": 9700, 
  "mim@@": 40907, 
  "Hotell@@": 61642, 
  "Ausgangs@@": 13011, 
  "Konsolidi@@": 42202, 
  "systeme": 2627, 
  "His@@": 13720, 
  "Universität": 1081, 
  "Koalition": 4255, 
  "Logon": 58950, 
  "Märkten": 3780, 
  "man-@@": 17879, 
  "meinung": 53686, 
  "Gewichte": 45849, 
  "Hüft@@": 28707, 
  "territorial": 67598, 
  "Ägyp@@": 31864, 
  "systems": 3245, 
  "hine": 24795, 
  "Asset": 16437, 
  "mise": 48985, 
  "konfrontieren": 33970, 
  "Dirig@@": 63242, 
  "ced": 51481, 
  "trotz@@": 38986, 
  "Progressiven": 42165, 
  "nehmer": 16446, 
  "Rand": 4941, 
  "Früh@@": 6431, 
  "cen": 46272, 
  "gebogen": 38450, 
  "cel": 48306, 
  "疆@@": 81945, 
  "Bournemouth": 42607, 
  "BG": 24908, 
  "FAM@@": 61122, 
  "MAN": 26996, 
  "Protag@@": 34417, 
  "ces": 8905, 
  "cer": 43838, 
  "nachgekommen": 33402, 
  "Geschäftsordnungs@@": 44858, 
  "ängt": 46145, 
  "Tosc@@": 58636, 
  "Night@@": 25479, 
  "faire": 8958, 
  "elder": 63649, 
  "Anhaltsp@@": 50377, 
  "}": 3965, 
  "Mindeststandards": 34140, 
  "fairs": 75710, 
  "hochqualifizierte": 42952, 
  "unklar": 5343, 
  "Kontinu@@": 47467, 
  "definieren": 6763, 
  "Flash@@": 31326, 
  "stilis@@": 26827, 
  "teilnehmenden": 15472, 
  "fügte": 759, 
  "insky": 25218, 
  "130@@": 44551, 
  "barrels": 81413, 
  "Tätigkeiten": 6772, 
  "kritischen": 6714, 
  "Stockhausen": 61711, 
  "Östliche": 45415, 
  "LO@@": 12669, 
  "Zusammenkünfte": 35557, 
  "1871": 53603, 
  "BA": 9729, 
  "Week@@": 43560, 
  "Umsetz@@": 43377, 
  "BSE@@": 59892, 
  "artikulieren": 42203, 
  "Andal@@": 58171, 
  "punitive": 77936, 
  "künstlerische": 16716, 
  "Mittelalter": 19435, 
  "Guillaume": 55730, 
  "befäh@@": 68486, 
  "Lu@@": 3529, 
  "kritischer": 20047, 
  "vil@@": 17131, 
  "Ey@@": 26909, 
  "esen@@": 39791, 
  "OSZ@@": 72388, 
  "makroökonomische": 27160, 
  "Mas@@": 3764, 
  "Oberland": 61551, 
  "Marmor@@": 21119, 
  "Katrina": 21462, 
  "Küstenstreifen": 54684, 
  "Ef@@": 42810, 
  "7": 544, 
  "Ungarns": 30736, 
  "änge": 11772, 
  "Sicherheitsniveau": 48123, 
  "vorteilhaft": 20371, 
  "thou@@": 63009, 
  "Bahr@@": 56845, 
  "Town": 17855, 
  "räume": 7172, 
  "mei@@": 16541, 
  "effekte": 13115, 
  "earns": 31118, 
  "Dieselkraft@@": 42269, 
  "Buchstabe": 24733, 
  "UNIT@@": 64202, 
  "BC": 7737, 
  "betreffende": 18185, 
  "individuell": 6438, 
  "Vallelersundi": 63525, 
  "Korn@@": 28386, 
  "schulungen": 55860, 
  "ˇ@@": 79266, 
  "Natura": 32788, 
  "Priv@@": 35951, 
  "cac@@": 66525, 
  "Curricul@@": 36958, 
  "黮@@": 81416, 
  "phy@@": 41094, 
  "oli@@": 28387, 
  "ज@@": 83835, 
  "Weiterentwicklungen": 52375, 
  "gerufenen": 47871, 
  "Schadener@@": 73766, 
  "ese-@@": 69002, 
  "Boston": 3816, 
  "aschen": 37129, 
  "Urlaubsziel": 51811, 
  "黡@@": 79268, 
  "Accession": 81417, 
  "evision": 70038, 
  "Tai": 49866, 
  "irren": 36209, 
  "american": 70942, 
  "򮮥": 82196, 
  "Brok": 20774, 
  "Passi@@": 43961, 
  "Brod": 66005, 
  "ов@@": 30154, 
  "Cast@@": 17900, 
  "schwim@@": 17837, 
  "Vorbild": 9100, 
  "Samba": 44179, 
  "BM": 47432, 
  "Strukturfonds": 5642, 
  "Handel": 1061, 
  "inter-@@": 68008, 
  "reizvolle": 35355, 
  "warte": 23707, 
  "Unternehmenskultur": 48673, 
  "hre": 27378, 
  "Businesscenter": 23789, 
  "zili@@": 71806, 
  "Principles": 66615, 
  "abgeholt": 17399, 
  "Intranet": 48130, 
  "IS-@@": 23939, 
  "condition@@": 78151, 
  "Modalitäten": 25920, 
  "herausgearbeitet": 50950, 
  "ecommerce": 77937, 
  "く": 76686, 
  "Git@@": 31491, 
  "Autor": 2835, 
  "Riker": 44436, 
  "Geschmack@@": 47060, 
  "Klar@@": 28115, 
  "räumt": 10141, 
  "Sozialdumping": 36703, 
  "leservice": 69773, 
  "ة@@": 77938, 
  "Olympus": 17662, 
  "effekts": 54937, 
  "anziehen": 16977, 
  "korrek@@": 45382, 
  "station": 5761, 
  "funktionieren": 2505, 
  "Südost@@": 35608, 
  "wußten": 30858, 
  "Malware": 24070, 
  "Assu@@": 67682, 
  "hundred": 80227, 
  "返": 81419, 
  "Gebote": 16148, 
  "Tauf@@": 40427, 
  "trapped": 83265, 
  "Verkün@@": 45244, 
  "reichenden": 33259, 
  "Rechten": 6076, 
  "besei@@": 63144, 
  "1919": 32083, 
  "1918": 27084, 
  "asco": 46496, 
  "promp@@": 37162, 
  "Rußlands": 45287, 
  "EM@@": 9459, 
  "1911": 37080, 
  "aufwand": 19094, 
  "tive": 5261, 
  "beg@@": 9862, 
  "1915": 36155, 
  "1914": 29216, 
  "1917": 29803, 
  "1916": 39948, 
  "poor@@": 71943, 
  "oligo@@": 69226, 
  "≪": 72287, 
  "Residenz": 14927, 
  "M4": 51472, 
  "Zufriedenheit": 10351, 
  "Puer@@": 69145, 
  "Abfolge": 25589, 
  "beh@@": 12998, 
  "Regeneration": 33613, 
  "≠": 81421, 
  "pa@@": 10489, 
  "Bedürfnis": 23708, 
  "gree": 68564, 
  "pflichten": 45971, 
  "deutlichere": 53782, 
  "verdienst@@": 37273, 
  "ґ": 84666, 
  "cr@@": 17298, 
  "Zentralregierung": 46122, 
  "gren": 31947, 
  "toward": 81422, 
  "tritt@@": 37872, 
  "grei": 79270, 
  "tri@@": 4412, 
  "Communities": 41228, 
  "ahnhof": 51768, 
  "shifted": 81423, 
  "in-": 33465, 
  "880": 54794, 
  "ichtlin@@": 54677, 
  "Zeitrahmen": 26633, 
  "contraception": 81424, 
  "oppon@@": 67774, 
  "welen": 54480, 
  "restauriert": 18014, 
  "organe": 24734, 
  "beäng@@": 78132, 
  "SAR@@": 44977, 
  "Late": 30365, 
  "fehler": 8502, 
  "Window": 49466, 
  "Penn": 14770, 
  "spannungs@@": 25034, 
  "null": 16492, 
  "organs": 37664, 
  "Konfli@@": 83399, 
  "Grenzregionen": 36866, 
  "apologi@@": 83337, 
  "ausgewogener": 32060, 
  "ausgewogenes": 23975, 
  "qualitativ": 6842, 
  "opt-in": 71174, 
  "Price": 14805, 
  "euch": 2573, 
  "Prozentpunkte": 16327, 
  "otom@@": 50175, 
  "Bearbeitung": 2805, 
  "past@@": 34300, 
  "-Log@@": 37219, 
  "aBDE": 65807, 
  "offensicht@@": 55528, 
  "archa@@": 47306, 
  "Schlüsselelement": 40164, 
  "arkt": 15233, 
  "Solar": 22807, 
  "läufiger": 47758, 
  "ausgewogenen": 12037, 
  "arks": 14257, 
  "Wochenende": 1629, 
  "Kontos": 38840, 
  "verschuldet": 44334, 
  "Bau@@": 1418, 
  "sektor": 4484, 
  "Widerstands": 29739, 
  "multilingual": 72895, 
  "Wirtschaftsgemeinschaft": 52792, 
  "republikanischen": 5189, 
  "Musikern": 27191, 
  "port-@@": 35051, 
  "Chief": 1853, 
  "aires": 20145, 
  "Sitges": 55985, 
  "Hague": 24803, 
  "organischer": 43459, 
  "fachliche": 33956, 
  "Vatikan": 16332, 
  "bzw": 50465, 
  "enswerter": 36003, 
  "enswertes": 26711, 
  "König@@": 11483, 
  "inqu@@": 41013, 
  "Verschmutzung": 13123, 
  "Abschlus@@": 36593, 
  "fizierter": 41303, 
  "wind-@@": 73791, 
  "asters": 65175, 
  "einzuwenden": 49569, 
  "27.@@": 21963, 
  "astern": 66849, 
  "SketchUp": 66726, 
  "Boll@@": 18704, 
  "velocity": 75226, 
  "Werte": 1938, 
  "vgl.": 22242, 
  "tubes": 74819, 
  "Vorausschau": 7697, 
  "enswerten": 22698, 
  "Individuums": 52825, 
  "Venture": 13973, 
  "Bedingungen": 667, 
  "weht": 29340, 
  "Erfolg": 720, 
  "NES@@": 59750, 
  "Beauftragten": 40578, 
  "wehr": 49961, 
  "Verbün@@": 67421, 
  "resol@@": 39792, 
  "Mathi@@": 65252, 
  "Nachfra@@": 46120, 
  "ütz@@": 26695, 
  "Kreatur@@": 47647, 
  "erwachsen@@": 68770, 
  "atisches": 21294, 
  "atischer": 19711, 
  "jung@@": 36311, 
  "accreditation": 82776, 
  "Rez@@": 16210, 
  "CMYK": 68204, 
  "fälschlicherweise": 18288, 
  "nehme": 6383, 
  "Fic@@": 32845, 
  "justice": 72389, 
  "Cai@@": 43687, 
  "schlugen": 10066, 
  "smechan@@": 70639, 
  "Cruz": 12688, 
  "French": 65705, 
  "EU-Mitgliedstaat": 49886, 
  "sym@@": 60074, 
  "ques": 11022, 
  "quer": 8874, 
  "einkommen": 7213, 
  "abend": 1253, 
  "entren@@": 81429, 
  "ckte": 23523, 
  "bungs@@": 31173, 
  "quez": 20923, 
  "sherr@@": 21581, 
  "US-Bundes@@": 24384, 
  "Michelle": 9274, 
  "utting": 45616, 
  "us@@": 1177, 
  "bereiches": 36332, 
  "Empfehlungen": 3108, 
  "Casaca": 56468, 
  "beeindruckenden": 13805, 
  "Fahrzeug": 4302, 
  "Greco": 61123, 
  "bereichen": 8108, 
  "strum": 54249, 
  "UNESCO-@@": 34237, 
  "combinations": 81430, 
  "Maxime": 42608, 
  "alledem": 46043, 
  "Empfänge": 44335, 
  "konzert": 26679, 
  "vings": 75227, 
  "erbaute": 24694, 
  "煮@@": 83439, 
  "Themen": 996, 
  "ränktes": 46123, 
  "winkeln": 47957, 
  "beruhigen": 11732, 
  "ränkten": 53457, 
  "Schwangerschaft": 10908, 
  "Zentralheizung": 39046, 
  "Ill@@": 31461, 
  "Afrika-@@": 38406, 
  "konzern": 31102, 
  "Haftbefehl": 12539, 
  "Nissan": 21595, 
  "obi@@": 52060, 
  "Paradox": 42118, 
  "Essentials": 62809, 
  "twel@@": 78133, 
  "éon": 57858, 
  "locale": 68097, 
  "Nahrung": 9353, 
  "Mutter@@": 9607, 
  "kitesur@@": 73814, 
  "France": 6753, 
  "culture": 68842, 
  "面": 81432, 
  "errichteten": 31452, 
  "abbau@@": 37477, 
  "Mama": 13676, 
  "Westphal@@": 72577, 
  "n-@@": 14362, 
  "gebrauchte": 30528, 
  "Lösung": 601, 
  "kunft": 45416, 
  "Jacob@@": 32759, 
  "berechtigt": 5077, 
  "Ser@@": 5205, 
  "englische": 6929, 
  "erfolg": 46609, 
  "Iraker": 19785, 
  "utopia": 77779, 
  "opped": 76979, 
  "Geschäftsverkehrs": 52603, 
  "FACULTAD": 66850, 
  "Juden@@": 59477, 
  "tolle": 8254, 
  "feststellte": 39102, 
  "forman@@": 20561, 
  "Job@@": 8315, 
  "Eingreifen": 16738, 
  "order@@": 62080, 
  "stagnation": 74419, 
  "Isabella": 50176, 
  "Stückchen": 57111, 
  "jeden": 512, 
  "Geldstrafen": 20360, 
  "missing": 73816, 
  "wai@@": 38079, 
  "hierdurch": 26420, 
  "markante": 40812, 
  "Überlieferung": 54250, 
  "vielseitig": 29754, 
  "spray": 39684, 
  "spirale": 36135, 
  "话": 80361, 
  "jedes": 585, 
  "ranken": 51435, 
  "einzelstaatlichen": 13693, 
  "zipper": 71541, 
  "Gregor": 25782, 
  "turbin@@": 49765, 
  "asser@@": 28584, 
  "Erdbeben": 6005, 
  "77@@": 18732, 
  "glied": 64393, 
  "verbietet": 12983, 
  "urbanisation": 84914, 
  "CE-Kennzeichnung": 56986, 
  "MDGs": 67775, 
  "Steve": 3283, 
  "Provinzen": 13097, 
  "Hamp@@": 25311, 
  "subsidiar@@": 76980, 
  "assem@@": 69426, 
  "brillante": 32225, 
  "Napo@@": 64294, 
  "Handlungsbedarf": 34171, 
  "experimental": 68193, 
  "counsel@@": 81434, 
  "Absenden": 54729, 
  "fenen": 62333, 
  "Veredel@@": 31284, 
  "Entwicklungspolitik": 15828, 
  "Quästoren": 46576, 
  "SIN@@": 49467, 
  "eröffnete": 8960, 
  "WARR@@": 81435, 
  "gro@@": 7596, 
  "Datei": 2293, 
  "Booger@@": 75485, 
  "Beschränkungen": 6205, 
  "Abra@@": 57500, 
  "Absender": 37971, 
  "Abonnement": 24475, 
  "indik@@": 37373, 
  "Saudis": 37716, 
  "289": 58233, 
  "ou@@": 2230, 
  "zurückzieht": 45992, 
  "Pain@@": 34141, 
  "ereign@@": 40504, 
  "schwerwiegenden": 24599, 
  "Reise-": 55969, 
  "lier@@": 11922, 
  "schwieriger": 5054, 
  "benutzerdefinierte": 43169, 
  "gile": 63945, 
  "Protection": 20162, 
  "Portal": 10913, 
  "schwerwiegender": 46044, 
  "ppchen": 22764, 
  "ebel@@": 42672, 
  "fession": 60371, 
  "Gott": 2497, 
  "Tunn@@": 43088, 
  "indonesischen": 23957, 
  "appetiz@@": 74101, 
  "wohlhabende": 27569, 
  "EST@@": 35480, 
  "Sternenfl@@": 71807, 
  "hilfsberei@@": 70828, 
  "Thematik": 20399, 
  "ada": 6109, 
  "Wegbereiter": 44034, 
  "modelling": 83489, 
  "N": 3131, 
  "Switch": 51867, 
  "Broadcasting": 32620, 
  "lives": 75713, 
  "Donna": 29164, 
  "Willkü@@": 71661, 
  "Hassan": 19720, 
  "BAL@@": 55858, 
  "affirmative": 74897, 
  "BY": 67244, 
  "Naturlandschaft": 46425, 
  "richten": 3450, 
  "Sinnes@@": 44195, 
  "stagniert": 47958, 
  "interaktive": 16746, 
  "ausgaben": 5685, 
  "Gemüt@@": 72102, 
  "Nach": 13563, 
  "Fachleuten": 19605, 
  "08@@": 13808, 
  "Brad@@": 8949, 
  "peti@@": 29341, 
  "Degu@@": 41933, 
  "Maus@@": 27930, 
  "pace": 81689, 
  "tionen": 3531, 
  "287": 52153, 
  "Bewirtschaf@@": 72712, 
  "leys": 14704, 
  "richtet": 6082, 
  "adi": 24800, 
  "richter": 9190, 
  "MO": 49243, 
  "pack": 28585, 
  "Qatar": 35403, 
  "geheimen": 10730, 
  "dol@@": 20541, 
  "ël": 36434, 
  "00h": 39288, 
  "philipp@@": 26299, 
  "00m": 47144, 
  "00s": 81436, 
  "Papayannakis": 57231, 
  "Absatzes": 50363, 
  "verursachten": 13397, 
  "payers": 81437, 
  "raffin@@": 18794, 
  "AG": 2087, 
  "einheitliche": 6798, 
  "einher@@": 40844, 
  "communal": 79275, 
  "Esther": 46733, 
  "sump@@": 68098, 
  "Vallés": 63134, 
  "Luke": 9622, 
  "Verheugen": 18345, 
  "molding": 77944, 
  "einschränkt": 40392, 
  "Luka": 50364, 
  "issi@@": 57814, 
  "muslimischen": 9064, 
  "Obergrenzen": 38132, 
  "Extraordinary": 75228, 
  "MV": 42081, 
  "egel@@": 10464, 
  "geographischen": 20984, 
  "Maske": 22869, 
  "throughput": 79276, 
  "gr@@": 3003, 
  "Reformprozesses": 58362, 
  "Faith": 52072, 
  "awar@@": 42293, 
  "liebhaber": 22683, 
  "Wochenend@@": 15679, 
  "hinab@@": 59614, 
  "Menschenwürde": 24540, 
  "geschi@@": 70429, 
  "Gemeinschaftshaushalt": 27595, 
  "holte": 6268, 
  "verlässt": 9505, 
  "Frei@@": 2435, 
  "Movies": 37730, 
  "001": 32660, 
  "000": 1555, 
  "tendiert": 39128, 
  "erhebliche": 4166, 
  "zerin": 19772, 
  "Zakynthos": 64954, 
  "Sicherheitsrates": 16464, 
  "mobi": 70656, 
  "lib": 31361, 
  "Energieversorgung": 11867, 
  "ר@@": 71430, 
  "verursachte": 9270, 
  "Fan@@": 10681, 
  "-Skri@@": 40611, 
  "Mord@@": 9497, 
  "MX": 62214, 
  "Stabilitätspaktes": 51482, 
  "militär@@": 34801, 
  "sofortige": 9403, 
  "verwundert": 36587, 
  "ос@@": 56739, 
  "Seehäfen": 49189, 
  "antine": 63336, 
  "Rechtsstatus": 58921, 
  "Ufer": 8363, 
  "lin": 5989, 
  "Kenntnis": 2380, 
  "Fas@@": 18850, 
  "Steuerzahler": 5083, 
  "lio": 14614, 
  "exploits": 81439, 
  "High": 2913, 
  "rechts": 2151, 
  "Finanzpolitik": 37048, 
  "nachfragen": 53570, 
  "technicians": 81440, 
  "Subvention@@": 69866, 
  "rechte": 2667, 
  "will@@": 23394, 
  "schriftlicher": 29254, 
  "Witz": 13221, 
  "Reconstruction": 70123, 
  "ersuchen": 15665, 
  "demag@@": 77945, 
  "makroökonomischen": 24207, 
  "hob@@": 71411, 
  "Giulio": 61713, 
  "Kaffee-": 49378, 
  "lit": 27479, 
  "Guz@@": 36137, 
  "PIM": 66996, 
  "PIN": 54795, 
  "Klaren": 15458, 
  "informal": 81441, 
  "Strandnähe": 57497, 
  "PIC": 45889, 
  "PID": 67050, 
  "sanft": 17109, 
  "shortcut": 81442, 
  "loqui@@": 57112, 
  "specialised": 84084, 
  "dies@@": 27691, 
  "Landschafts@@": 19790, 
  "Psy@@": 63527, 
  "Commodore": 42609, 
  "Berkeley": 20343, 
  "wy@@": 7970, 
  "terungs@@": 48390, 
  "Brig@@": 23242, 
  "Besitz": 3085, 
  "do-@@": 21816, 
  "Graphic": 64296, 
  "ight": 11477, 
  "beruhen": 8154, 
  "Sicherheitssystem": 51868, 
  "NAV@@": 51869, 
  "showcases": 81659, 
  "rufe": 11209, 
  "toll@@": 61442, 
  "künftigen": 4373, 
  "jour@@": 22537, 
  "Lower": 27192, 
  "Usern": 46300, 
  "Diesel@@": 26696, 
  "kohärent": 33256, 
  "Marktseg@@": 51771, 
  "Antigua": 43460, 
  "danke": 2086, 
  "Madeleine": 26934, 
  "gbar": 52154, 
  "ruft": 8917, 
  "Auffassungen": 20334, 
  "Anschrift": 30013, 
  "ASEAN-@@": 42602, 
  "Heim@@": 2239, 
  "engarten": 60629, 
  "ees": 20676, 
  "eer": 36211, 
  "eel": 41421, 
  "een": 8812, 
  "anony@@": 37374, 
  "fizierungen": 39504, 
  "taurant": 64554, 
  "eed": 22711, 
  "astronom@@": 29265, 
  "Batteri@@": 41396, 
  "Gebrauchs": 57985, 
  "pt@@": 13394, 
  "sketch": 79281, 
  "ungestraft": 35444, 
  "cones": 66728, 
  "Dancing": 23848, 
  "Geschäftsmann": 13082, 
  "Pattern": 66729, 
  "moo@@": 61556, 
  "Flächenstil@@": 57498, 
  "babwes": 79282, 
  "glav@@": 66117, 
  "Vorschläge": 920, 
  "Umweltbelastung": 43664, 
  "Zappalà": 66526, 
  "Promo@@": 19156, 
  "dnissen": 35952, 
  "Laos": 28487, 
  "Herrschaft": 5508, 
  "äler": 52376, 
  "沛@@": 81445, 
  "mor@@": 3545, 
  "Butterfly": 61304, 
  "kodex": 29131, 
  "ed.net": 75714, 
  "ѓ@@": 73549, 
  "Beschuldigungen": 20607, 
  "schön": 2459, 
  "AMA": 29768, 
  "AME": 51578, 
  "AMD": 39732, 
  "AMG": 61714, 
  "competitions": 77946, 
  "Verarbeitung": 6643, 
  "Root@@": 47145, 
  "depres@@": 16461, 
  "97@@": 26513, 
  "AMP": 54796, 
  "AMS": 60372, 
  "schriftlichen": 11336, 
  "shotels": 58638, 
  "straße": 5765, 
  "Antlitz": 36595, 
  "folios": 70430, 
  "spannenden": 23657, 
  "Bild": 796, 
  "Strategien": 3634, 
  "erzieh@@": 19493, 
  "mittelfristig": 22745, 
  "Shalit": 49190, 
  "negativen": 5483, 
  "Sicherheitsgur@@": 44609, 
  "Bill": 2757, 
  "Scherz": 26010, 
  "obst@@": 68327, 
  "Union-@@": 61699, 
  "negativer": 32226, 
  "negatives": 33922, 
  "14,@@": 10394, 
  "spannender": 57363, 
  "spannendes": 36435, 
  "Mekka": 35558, 
  "promenade": 34452, 
  "Taylor": 5044, 
  "Kell@@": 14412, 
  "岩@@": 81446, 
  "langsamen": 16127, 
  "samkeiten": 66338, 
  "sive-@@": 60011, 
  "beschlagnahmt": 11411, 
  "langsamer": 13518, 
  "Phänomene": 31473, 
  "ure@@": 30032, 
  "for@@": 3541, 
  "Spendern": 31604, 
  "Distanz": 13322, 
  "Vordergrund": 7891, 
  "silence": 74788, 
  "führen": 318, 
  "efel@@": 38511, 
  "Produktinformationen": 47490, 
  "ichtern": 72097, 
  "auskennen": 60206, 
  "Baron": 29741, 
  "anzutreffen": 39733, 
  "vorzulegen": 6506, 
  "würdige": 12411, 
  "Staatlichen": 52719, 
  "Schütz@@": 20663, 
  "vereinbarung": 19426, 
  "Koalitions@@": 16621, 
  "investor": 48857, 
  "Steh@@": 30845, 
  "zu-@@": 14504, 
  "tzahl": 11646, 
  "Gershwin": 60915, 
  "würdigt": 40393, 
  "Tä": 78717, 
  "LIMIT@@": 69953, 
  "Arten": 2097, 
  "institut": 27046, 
  "Norman": 15135, 
  "Normal": 53784, 
  "tatsächliche": 9031, 
  "desweiteren": 34774, 
  "Steg@@": 57859, 
  "Überlegungen": 5999, 
  "Basilika": 30761, 
  "visas": 82164, 
  "getra@@": 62417, 
  "G8-Gipfel": 46867, 
  "Koch": 11925, 
  "Raums": 9538, 
  "Anfang@@": 51503, 
  "Β@@": 73103, 
  "swi@@": 2845, 
  "ps@@": 41304, 
  "Comfort": 29630, 
  "ค": 84713, 
  "ionage": 33881, 
  "Storm": 25500, 
  "komfortable": 7447, 
  "Fragmente": 39605, 
  "eingef@@": 19998, 
  "tober": 72579, 
  "abstrakte": 41336, 
  "standardisierte": 33004, 
  "erlangen": 7381, 
  "arithme@@": 61395, 
  "Präsident": 112, 
  "tobel": 62876, 
  "BS@@": 13202, 
  "injection": 81447, 
  "öpf@@": 17104, 
  "Hob@@": 13597, 
  "nepo@@": 72896, 
  "SUN@@": 54348, 
  "zul@@": 35242, 
  "unberührten": 34074, 
  "hero@@": 35211, 
  "Lay@@": 26671, 
  "Fragestell@@": 58922, 
  "Beibehaltung": 13488, 
  "Textform": 55529, 
  "uer@@": 63169, 
  "verantwortliche": 28956, 
  "Rush@@": 36959, 
  "gerät": 4852, 
  "Laf@@": 44109, 
  "gefüllten": 46887, 
  "Sportanlagen": 54782, 
  "politik": 1725, 
  "skandalöse": 50769, 
  "Szen@@": 18965, 
  "assassin@@": 80330, 
  "Bap@@": 73953, 
  "acro@@": 40100, 
  "Tv": 65706, 
  "Asyl@@": 20945, 
  "auszeichnet": 29903, 
  "accessibility": 75339, 
  "Gerücht": 28325, 
  "Aviv": 24358, 
  "To": 11920, 
  "clean@@": 70295, 
  "Edward": 7909, 
  "dding": 35501, 
  "auszeichnen": 36099, 
  "RM@@": 42673, 
  "evocative": 75150, 
  "PRIN@@": 62418, 
  "Redner": 6022, 
  "incen@@": 69954, 
  "Schwerpunkt": 3824, 
  "acceler@@": 79286, 
  "TX": 55687, 
  "TY": 64955, 
  "TV": 2120, 
  "thematisiert": 39632, 
  "TT": 41759, 
  "TU": 40714, 
  "TS": 15101, 
  "TP": 39289, 
  "Siddharta": 61208, 
  "ega-@@": 44933, 
  "TO": 25934, 
  "TL": 31507, 
  "TM": 12469, 
  "glichkeitsp@@": 68646, 
  "tlich": 17733, 
  "Werkzeuge": 7228, 
  "TI": 51696, 
  "TF": 60559, 
  "Versicherung": 7270, 
  "Jaz@@": 61209, 
  "TE": 17119, 
  "erholt": 8681, 
  "Hemm@@": 31817, 
  "TA": 17505, 
  "Customer": 33940, 
  "happens": 77947, 
  "Stanford": 12303, 
  "verfallen": 18300, 
  "23@@": 7549, 
  "wohl": 1024, 
  "；": 81229, 
  "beschul@@": 6136, 
  "T1": 64475, 
  "T.": 12257, 
  "Menschenhandel": 12231, 
  "Keim@@": 46342, 
  "Überflut@@": 27427, 
  "leisten": 1124, 
  "Schu@@": 11845, 
  "jed@@": 39571, 
  "）": 75287, 
  "＊": 81451, 
  "ausfüllen": 20633, 
  "，": 74104, 
  "－": 74422, 
  "．": 81452, 
  "gänger@@": 63785, 
  "ή@@": 63337, 
  "ausländische": 3399, 
  "e": 279, 
  "jurisprudence": 79289, 
  "Maßnahmenpaket": 38988, 
  "jud@@": 69138, 
  "Nennung": 39793, 
  "orbit": 77950, 
  "iller@@": 26118, 
  "Per@@": 1863, 
  "frü": 80341, 
  "eville": 35559, 
  "lösen": 1651, 
  "hilosop@@": 68925, 
  "opp@@": 10944, 
  "dän@@": 34737, 
  "estnischen": 56596, 
  "Ernährungssicherheit": 21944, 
  "Widerstandes": 40777, 
  "oberhalb": 12530, 
  "Tochter@@": 38867, 
  "zögerlich": 31268, 
  "Investitionsbank": 19786, 
  "Gourmet@@": 23422, 
  "Infrastruktur@@": 11616, 
  "standort": 29948, 
  "Novi@@": 53025, 
  "hinweisen": 2706, 
  "umm@@": 13538, 
  "schicht@@": 50366, 
  "upstream": 76982, 
  "two@@": 62507, 
  "compact": 71175, 
  "Beitritts@@": 11554, 
  "Non": 61396, 
  "ück": 24425, 
  "100@@": 12697, 
  "flü@@": 5887, 
  "Nog": 63045, 
  "Schadenersatz@@": 36490, 
  "Ritter@@": 42398, 
  "olische": 36915, 
  "Republiken": 44477, 
  "Südafrikas": 52486, 
  "ereignet": 9498, 
  "Absichtserklärungen": 42332, 
  "lichkeit": 2688, 
  "Not": 8617, 
  "Nou": 45245, 
  "Nov": 10812, 
  "Now": 19447, 
  "ppeln": 27856, 
  "friendly": 71662, 
  "Nor": 57860, 
  "warnung": 17134, 
  "chts@@": 44677, 
  "Stress": 8938, 
  "les-@@": 53571, 
  "Komponisten": 17220, 
  "KM@@": 27047, 
  "luxuriösen": 15355, 
  "siebzig": 39794, 
  "spielerisch": 57986, 
  "Fiasko": 41339, 
  "pot@@": 17367, 
  "Solidarität": 2501, 
  "luxuriöses": 42610, 
  "Großen": 6806, 
  "Berufen": 36530, 
  "subver@@": 70615, 
  "Wimble@@": 19791, 
  "denomin@@": 63243, 
  "Acquisition": 60012, 
  "südafrikanischen": 20118, 
  "Embryo": 47960, 
  "2020-Strategie": 48926, 
  "ey-@@": 26959, 
  "Produc@@": 35445, 
  "zugesch@@": 31007, 
  "資": 81456, 
  "beliebt": 10161, 
  "Interessierte": 49674, 
  "positions": 67683, 
  "-Rück@@": 35039, 
  "invari@@": 71176, 
  "angriff": 9545, 
  "Saga": 36100, 
  "Monopo@@": 38989, 
  "sechs@@": 8197, 
  "standard@@": 28509, 
  "Aktivierungs@@": 45721, 
  "gekennzeichneten": 31206, 
  "Fürst": 44759, 
  "ausführt": 37130, 
  "enforce": 81458, 
  "bean@@": 24801, 
  "Index": 3431, 
  "touristischen": 14122, 
  "formalen": 28102, 
  "Inder": 24046, 
  "Haartrockner": 21817, 
  "vas@@": 52604, 
  "jump": 75229, 
  "pulver": 26154, 
  "Camera": 45246, 
  "faßte": 57113, 
  "ò@@": 29315, 
  "Mod@@": 27827, 
  "touristischer": 60013, 
  "Patch@@": 41095, 
  "橿@@": 80538, 
  "einigt": 28116, 
  "pper@@": 40259, 
  "lück": 59752, 
  "Mönch": 37081, 
  "entiertes": 48273, 
  "neighbour@@": 73555, 
  "Sté@@": 80358, 
  "Geburtstag": 6715, 
  "legisl@@": 62334, 
  "Befürworter": 8687, 
  "einige": 131, 
  "Grid": 45772, 
  "Totalit@@": 71754, 
  "Etagen@@": 50770, 
  "troly@@": 52926, 
  "Î@@": 65189, 
  "stru@@": 17950, 
  "schätzen": 4203, 
  "agra@@": 54252, 
  "Steuer": 5513, 
  "Publisher": 35173, 
  "bi@@": 2468, 
  "Freigabe": 13765, 
  "anzukurbeln": 10834, 
  "ث": 81252, 
  "Ausbildung": 1662, 
  "traurigen": 28343, 
  "Wohnhäuser": 59753, 
  "verbleibt": 41229, 
  "budd@@": 70640, 
  "übertraf": 30111, 
  "verdeut@@": 69509, 
  "following": 77872, 
  "zügel@@": 33472, 
  "Fish@@": 27457, 
  "Schiedsrichter": 9184, 
  "signposted": 81460, 
  "glaubhaft": 40505, 
  "vereinbart": 4292, 
  "veranlasst": 10000, 
  "amtierende": 15829, 
  "Scen@@": 59070, 
  "convert": 73323, 
  "genz": 38080, 
  "entn@@": 67149, 
  "Palace": 8665, 
  "黒": 81461, 
  "Anwendungs@@": 9338, 
  "Fell@@": 35981, 
  "gent": 36312, 
  "net.@@": 63145, 
  "Back": 17815, 
  "berühm@@": 22362, 
  "blumen@@": 40034, 
  "Enhes@@": 73556, 
  "Freier": 38784, 
  "bereichs@@": 52377, 
  "erwirtschaftet": 45651, 
  "Inhaber": 8074, 
  "gend": 4645, 
  "gene": 8268, 
  "körperliche": 11778, 
  "Constantin@@": 70532, 
  "patents": 76985, 
  "Tschetschenien": 14625, 
  "Myst@@": 23539, 
  "ء": 73264, 
  "airspace": 81463, 
  "Doctor": 27252, 
  "subsidi@@": 53303, 
  "Assistance": 53026, 
  "manage": 73106, 
  "Melan@@": 26480, 
  "Pionier": 23709, 
  "empfindliche": 28166, 
  "gut@@": 8813, 
  "erhoffen": 29698, 
  "sunn@@": 16106, 
  "blog": 26115, 
  "Cornillet": 62675, 
  "By": 15634, 
  "wür@@": 4883, 
  "華@@": 81464, 
  "Zapp@@": 63836, 
  "Fribourg": 67150, 
  "konzentri@@": 38452, 
  "iration": 79291, 
  "aliforn@@": 11388, 
  "überwachung": 16530, 
  "Herunter@@": 46409, 
  "deskt@@": 71177, 
  "Reiseveranstalter": 27077, 
  "symbolische": 25935, 
  "Pau@@": 16278, 
  "tik": 4931, 
  "Unionsbürger": 24406, 
  "Bou@@": 7043, 
  "awesome": 29392, 
  "Steuerung": 7033, 
  "Wellness@@": 17548, 
  "formally": 81467, 
  "stätter": 60631, 
  "konkurri@@": 12852, 
  "Markus": 26991, 
  "advis@@": 73324, 
  "about": 64816, 
  "Jahrestag": 7649, 
  "charming": 79292, 
  "Dj@@": 9443, 
  "Direkt@@": 10909, 
  "Satzung": 27296, 
  "stätten": 14294, 
  "Run@@": 15296, 
  "weitergehende": 33403, 
  "revol@@": 27755, 
  "resize": 74791, 
  "boards": 28044, 
  "fängt": 13444, 
  "Geschenke": 12313, 
  "ر": 65775, 
  "poin@@": 29832, 
  "Polyprop@@": 53914, 
  "е@@": 17880, 
  "lapse": 81468, 
  "eto@@": 60929, 
  "leitenden": 14400, 
  "gebührende": 41487, 
  "Schwar@@": 20225, 
  "fänge": 42615, 
  "easier": 79293, 
  "elim@@": 70829, 
  "Birmingham": 8788, 
  "VIII": 40441, 
  "Caravan": 54306, 
  "Sain@@": 23097, 
  "Patientinnen": 39505, 
  "hinterfragen": 33835, 
  "ص": 83392, 
  "verfahrens": 10162, 
  "stiegs@@": 37432, 
  "All-In-One": 72556, 
  "Beschäftigten": 7787, 
  "fung@@": 52378, 
  "linkt": 73350, 
  "Israeli": 70431, 
  "Notfall@@": 7962, 
  "links": 1559, 
  "fallenen": 17392, 
  "Vortrag": 11659, 
  "Fahrten": 14290, 
  "tseller": 75230, 
  "PayPal": 25862, 
  "entscheid": 33246, 
  "Nou@@": 31303, 
  "linke": 13778, 
  "234": 48614, 
  "Mr.": 3255, 
  "pulling": 75511, 
  "ieves": 58640, 
  "getauscht": 30434, 
  "Israels": 5570, 
  "geziel@@": 52341, 
  "Giard@@": 71542, 
  "Reifen": 13430, 
  "Karos@@": 41694, 
  "Eindämmung": 17148, 
  "Apartament@@": 71543, 
  "auftaucht": 44859, 
  "bewach@@": 31103, 
  "Tsvangi@@": 27692, 
  "empfehlen": 3260, 
  "idemissionen": 68416, 
  "SCO@@": 52487, 
  "freigelassen": 6630, 
  "Beitritt@@": 44760, 
  "Wit@@": 7109, 
  "sentiments": 79334, 
  "genügt": 13569, 
  "verlor": 3498, 
  "Energief@@": 51580, 
  "Reservation": 53240, 
  "Gebäck": 31229, 
  "Beauty-@@": 43089, 
  "Lionel": 28844, 
  "Tha@@": 15069, 
  "wickelt": 13255, 
  "führ@@": 15657, 
  "Strategi@@": 51483, 
  "Bushill-@@": 77952, 
  "farm": 35174, 
  "peeling": 68183, 
  "Parallelen": 31843, 
  "ires": 19647, 
  "Mrs": 70545, 
  "iren": 14940, 
  "Roman": 6420, 
  "Beitritts": 23385, 
  "trees": 74424, 
  "tland": 52605, 
  "Mrd": 36364, 
  "ired": 81472, 
  "entre": 25064, 
  "EU-Erweiterung": 40298, 
  "merklich": 32862, 
  "eufer": 66436, 
  "angesichts": 910, 
  "hinauslaufen": 45722, 
  "Cabo": 50427, 
  "Umständen": 3656, 
  "gesetzgeberischen": 54001, 
  "sigen": 20600, 
  "gebliebene": 55154, 
  "streifen": 18164, 
  "flege": 45338, 
  "Arzneimittel@@": 17652, 
  "Guard": 17198, 
  "Arrangements": 24777, 
  "fill@@": 72820, 
  "siger": 42674, 
  "favourites": 77953, 
  "Versprechungen": 19683, 
  "akzeptierten": 30680, 
  "insofern": 7091, 
  "interruption": 80787, 
  "Wachsamkeit": 27912, 
  "gratulieren": 5232, 
  "erkannte": 9339, 
  "Activ@@": 32647, 
  "fälle": 5257, 
  "Suanzes-Carpegna": 66231, 
  "klassi@@": 7735, 
  "usch@@": 40944, 
  "krist@@": 44740, 
  "ens": 704, 
  "mehrheit": 24600, 
  "Glasgo@@": 16134, 
  "ms@@": 21230, 
  "dorfer": 51581, 
  "costume": 79294, 
  "fällt": 2539, 
  "überwältigender": 25925, 
  "Ord@@": 31396, 
  "gion": 23201, 
  "pol@@": 8068, 
  "63@@": 32544, 
  "Nichteinhaltung": 32147, 
  "Distri@@": 16083, 
  "Vorfälle": 14996, 
  "sagen@@": 29172, 
  "freigegeben": 9586, 
  "asi@@": 4548, 
  "RAC": 58498, 
  "ourn@@": 68927, 
  "thank@@": 75716, 
  "RAL": 47656, 
  "Zusammenarbeit": 409, 
  "objektiv": 17803, 
  "innovativsten": 41968, 
  "Jähr@@": 28414, 
  "RAI": 60856, 
  "RAW": 45972, 
  "nordöstlichen": 33706, 
  "ser@@": 1975, 
  "Genossen@@": 63050, 
  "Seri@@": 22173, 
  "backpackers": 79295, 
  "bin": 178, 
  "emark@@": 46107, 
  "Avail@@": 68771, 
  "stitut": 42680, 
  "iertesten": 51682, 
  "-Station": 56354, 
  "sammelten": 63964, 
  "dź": 68488, 
  "articulation": 77955, 
  "frontal": 66730, 
  "klassischen": 5700, 
  "Kosmetik": 42954, 
  "progres@@": 36758, 
  "gewaltsam": 22808, 
  "ffle": 34327, 
  "wohnte": 22539, 
  "Solarzellen": 33884, 
  "Sohn@@": 73557, 
  "gelt": 7693, 
  "Venus": 22530, 
  "Wörtern": 45577, 
  "Seminars": 53758, 
  "erleiden": 14147, 
  "instrumenten": 52379, 
  "projekte": 7140, 
  "kilometres": 81465, 
  "Layer": 38281, 
  "Products": 25452, 
  "laun@@": 50831, 
  "Tinten@@": 24047, 
  "INBEGRIFFEN": 51959, 
  "university": 75231, 
  "enk@@": 2485, 
  "bräuchten": 51484, 
  "Staes": 51489, 
  "projekts": 27866, 
  "taschen": 20634, 
  "TD@@": 54002, 
  "Käufer": 3807, 
  "erschwert": 11622, 
  "Statistics": 34465, 
  "attachments": 76292, 
  "ener@@": 30593, 
  "Schlach@@": 25745, 
  "Bertrand": 43962, 
  "Resolutionen": 26495, 
  "Karne@@": 35677, 
  "stigem": 65589, 
  "stigen": 20163, 
  "übertra@@": 59109, 
  "unterstützte": 8622, 
  "stiger": 67519, 
  "investigative": 38457, 
  "beharr@@": 14338, 
  "Dire@@": 67766, 
  "multiple-@@": 81479, 
  "transitions": 81480, 
  "Wettbewerbsvorteile": 47872, 
  "Gegenleistung": 26960, 
  "wartet": 5956, 
  "zione": 50064, 
  "CEE": 56355, 
  "zubehör": 37666, 
  "hervorragenden": 6644, 
  "sprinzip": 35141, 
  "Wol@@": 8388, 
  "CEO": 3382, 
  "bewegt": 3783, 
  "mazed@@": 49096, 
  "Anreize": 7208, 
  "ink@@": 7499, 
  "gepackt": 28586, 
  "CET": 48308, 
  "CES": 47146, 
  "1.4@@": 36534, 
  "usability": 77956, 
  "hervorragender": 21369, 
  "hervorragendes": 27273, 
  "charakterisiert": 26961, 
  "termine": 32747, 
  "cause": 76302, 
  "exo@@": 64761, 
  "Brüdern": 23292, 
  "einsparungen": 60136, 
  "interc@@": 80208, 
  "reichhal@@": 47166, 
  "mois@@": 81483, 
  "Gästeh@@": 62676, 
  "Hauptbahn@@": 53644, 
  "ế": 77467, 
  "daf@@": 18956, 
  "Europ@@": 14925, 
  "LAU@@": 64297, 
  "hihostels.com": 62962, 
  "Irr@@": 35698, 
  "x": 1051, 
  "facetten@@": 45248, 
  "kommunale": 27078, 
  "Barceloneta": 63051, 
  "Blasen": 27540, 
  "Vilam@@": 75644, 
  "Vorschrift": 20677, 
  "bestmögliche": 16846, 
  "auszustatten": 26238, 
  "Formosa": 63323, 
  "Owen": 15906, 
  "stiftung": 17247, 
  "timer": 45778, 
  "times": 29343, 
  "Ruhe@@": 30953, 
  "timen": 70533, 
  "geln": 5937, 
  "zuzüglich": 28365, 
  "timed": 76303, 
  "59-@@": 35485, 
  "Kontakten": 20997, 
  "Reproduktion": 30093, 
  "praxis": 27458, 
  "äthiop@@": 30384, 
  "Fett": 13273, 
  "Südostasien": 23305, 
  "Prophet": 35156, 
  "Wiesen": 26228, 
  "peruanischen": 47717, 
  "Personen-": 45494, 
  "MEN@@": 48690, 
  "consi@@": 65726, 
  "KEY@@": 61030, 
  "Ide@@": 20460, 
  "Pufferüber@@": 63759, 
  "lebhafte": 26274, 
  "Mehrwertsteuer@@": 22174, 
  "geführten": 7328, 
  "folge": 6719, 
  "Präambel": 43546, 
  "Ced@@": 30065, 
  "Contracts": 69079, 
  "ritts@@": 51970, 
  "orthop@@": 70946, 
  "sozio@@": 45973, 
  "Wirtschaftspartner@@": 68928, 
  "Staatsangehörigen": 26992, 
  "Vermittlung": 9743, 
  "erschienen": 4683, 
  "Frau": 126, 
  "folgt": 1884, 
  "Fachrichtungen": 59865, 
  "ankle": 77957, 
  "Marketing-@@": 13323, 
  "survi@@": 79297, 
  "forderten": 10125, 
  "unerträglich": 30635, 
  "Zustellbetten": 16176, 
  "manker@@": 76002, 
  "Staus": 33614, 
  "big": 12421, 
  "parap@@": 75123, 
  "Bildergalerie": 60632, 
  "untrennbar": 30366, 
  "Kabel@@": 8697, 
  "och@@": 19213, 
  "lists": 66010, 
  "Arbeitsteilung": 43757, 
  "Staub": 14997, 
  "Hausnummer": 58781, 
  "막@@": 81486, 
  "beipflichten": 41488, 
  "liste": 4550, 
  "Fliesen": 39533, 
  "Hauptanliegen": 36436, 
  "Ungerechtigkeiten": 37584, 
  "zag@@": 26119, 
  "Instrumente": 2873, 
  "überdachte": 48928, 
  "Urlaub": 1650, 
  "bedienungs@@": 52607, 
  "groes@@": 51683, 
  "verbinden": 3975, 
  "ungestör@@": 55745, 
  "Gastgeber@@": 30257, 
  "Erlass": 29423, 
  "pun@@": 21735, 
  "ss": 2896, 
  "Djibouti": 69588, 
  "при@@": 46729, 
  "Schale": 29237, 
  "zugeben": 11154, 
  "Aserbaidschan": 20817, 
  "verbindet": 4147, 
  "ruiniert": 26538, 
  "Tok@@": 21213, 
  "Zukunftsperspektiven": 53198, 
  "Probe": 13063, 
  "boykot@@": 22851, 
  "zeitgemäß": 49579, 
  "Unfall": 6226, 
  "Flying": 31242, 
  "algorith@@": 42467, 
  "Mittelmeerraum": 12336, 
  "behaupt@@": 71282, 
  "spezifischen": 4621, 
  "TRIPS": 68146, 
  "Kilometer": 4046, 
  "su": 18923, 
  "Kaninchen": 26566, 
  "Interview": 2115, 
  "Editions": 63886, 
  "Münzen": 14262, 
  "CLE@@": 61124, 
  "Inland": 16171, 
  "Administrator": 17669, 
  "besto@@": 38047, 
  "SIGN@@": 66437, 
  "herkömmlichen": 13721, 
  "Zwang@@": 25399, 
  "betreffen": 3839, 
  "grundsätzlicher": 55293, 
  "versandt": 32212, 
  "McKin@@": 30226, 
  "Blau@@": 19042, 
  "relativen": 21736, 
  "Schuman": 55243, 
  "816": 68538, 
  "Erreichbarkeit": 37667, 
  "Gräben": 36270, 
  "grundsätzlichen": 26993, 
  "könig": 52207, 
[...]
