{
  "eos": 0, 
  "UNK": 1, 
  "(NP": 2, 
  ")NP": 3, 
  "(VP": 4, 
  ")VP": 5, 
  "(S": 6, 
  ")S": 7, 
  "(PP": 8, 
  ")PP": 9, 
  "the": 10, 
  ",": 11, 
  ".": 12, 
  "(S1": 13, 
  ")S1": 14, 
  ")SBAR": 15, 
  "(SBAR": 16, 
  ")ADVP": 17, 
  "(ADVP": 18, 
  "of": 19, 
  "to": 20, 
  "and": 21, 
  "(ADJP": 22, 
  ")ADJP": 23, 
  "in": 24, 
  "a": 25, 
  "'@@": 26, 
  "is": 27, 
  "that": 28, 
  "s": 29, 
  ")WHNP": 30, 
  "(WHNP": 31, 
  "for": 32, 
  "it": 33, 
  "as": 34, 
  "be": 35, 
  "not": 36, 
  "are": 37, 
  "but": 38, 
  "on": 39, 
  "with": 40, 
  "by": 41, 
  "-": 42, 
  "'": 43, 
  "this": 44, 
  "has": 45, 
  "have": 46, 
  "will": 47, 
  "``": 48, 
  "its": 49, 
  "their": 50, 
  "from": 51, 
  "an": 52, 
  "(WHADVP": 53, 
  ")WHADVP": 54, 
  "was": 55, 
  "more": 56, 
  "they": 57, 
  "at": 58, 
  ")PRN": 59, 
  "(PRN": 60, 
  "or": 61, 
  ")PRT": 62, 
  "(PRT": 63, 
  "can": 64, 
  "would": 65, 
  "countries": 66, 
  "US": 67, 
  "world": 68, 
  "than": 69, 
  "we": 70, 
  "which": 71, 
  "all": 72, 
  "if": 73, 
  "(QP": 74, 
  ")QP": 75, 
  "one": 76, 
  "been": 77, 
  "so": 78, 
  "his": 79, 
  "only": 80, 
  "there": 81, 
  "new": 82, 
  "economic": 83, 
  "no": 84, 
  "China": 85, 
  "political": 86, 
  "should": 87, 
  "government": 88, 
  "now": 89, 
  "about": 90, 
  "Europe": 91, 
  "other": 92, 
  "?": 93, 
  "even": 94, 
  "these": 95, 
  ":": 96, 
  "what": 97, 
  "also": 98, 
  "were": 99, 
  "he": 100, 
  "when": 101, 
  "such": 102, 
  "who": 103, 
  "most": 104, 
  "many": 105, 
  "people": 106, 
  ")SQ": 107, 
  "(SQ": 108, 
  "-RRB-": 109, 
  "-LRB-": 110, 
  "do": 111, 
  "%": 112, 
  "years": 113, 
  "some": 114, 
  "global": 115, 
  "European": 116, 
  "could": 117, 
  "country": 118, 
  "must": 119, 
  "into": 120, 
  "America": 121, 
  "power": 122, 
  "financial": 123, 
  "may": 124, 
  "because": 125, 
  "time": 126, 
  "had": 127, 
  ";": 128, 
  "much": 129, 
  "growth": 130, 
  "over": 131, 
  "out": 132, 
  "them": 133, 
  "policy": 134, 
  ")CONJP": 135, 
  "(CONJP": 136, 
  "I": 137, 
  "economy": 138, 
  "between": 139, 
  "after": 140, 
  "EU": 141, 
  "international": 142, 
  "crisis": 143, 
  "up": 144, 
  "first": 145, 
  "our": 146, 
  "Russia": 147, 
  "those": 148, 
  "like": 149, 
  "two": 150, 
  "while": 151, 
  "both": 152, 
  "any": 153, 
  "how": 154, 
  "against": 155, 
  "indeed": 156, 
  "t": 157, 
  "today": 158, 
  "public": 159, 
  "well": 160, 
  "way": 161, 
  "military": 162, 
  "(SBARQ": 163, 
  ")SBARQ": 164, 
  "n@@": 165, 
  "year": 166, 
  "need": 167, 
  "war": 168, 
  "market": 169, 
  "American": 170, 
  "does": 171, 
  "United": 172, 
  "system": 173, 
  ")WHPP": 174, 
  "(WHPP": 175, 
  "state": 176, 
  "make": 177, 
  "too": 178, 
  "change": 179, 
  "own": 180, 
  "less": 181, 
  "un@@": 182, 
  "since": 183, 
  "become": 184, 
  "leaders": 185, 
  "just": 186, 
  "last": 187, 
  "markets": 188, 
  "yet": 189, 
  "President": 190, 
  "without": 191, 
  "where": 192, 
  "far": 193, 
  "Iran": 194, 
  "support": 195, 
  "foreign": 196, 
  "still": 197, 
  "did": 198, 
  "being": 199, 
  "long": 200, 
  "Iraq": 201, 
  "national": 202, 
  "trade": 203, 
  "important": 204, 
  "same": 205, 
  "nuclear": 206, 
  "Israel": 207, 
  "governments": 208, 
  "Japan": 209, 
  "-@@": 210, 
  ")FRAG": 211, 
  "(FRAG": 212, 
  "then": 213, 
  "democracy": 214, 
  "might": 215, 
  "future": 216, 
  "us": 217, 
  "end": 218, 
  "through": 219, 
  "security": 220, 
  "example": 221, 
  "recent": 222, 
  "course": 223, 
  "made": 224, 
  "however": 225, 
  "good": 226, 
  "social": 227, 
  "Bush": 228, 
  "India": 229, 
  "right": 230, 
  "real": 231, 
  "take": 232, 
  "States": 233, 
  "another": 234, 
  "re@@": 235, 
  "high": 236, 
  "current": 237, 
  "policies": 238, 
  "under": 239, 
  "part": 240, 
  "banks": 241, 
  "likely": 242, 
  "before": 243, 
  "$": 244, 
  "Germany": 245, 
  "Union": 246, 
  "oil": 247, 
  "prices": 248, 
  "past": 249, 
  "very": 250, 
  "states": 251, 
  "development": 252, 
  "human": 253, 
  "interest": 254, 
  "work": 255, 
  "Chinese": 256, 
  "problem": 257, 
  "region": 258, 
  "rates": 259, 
  "why": 260, 
  ")UCP": 261, 
  "(UCP": 262, 
  "West": 263, 
  "better": 264, 
  "you": 265, 
  "result": 266, 
  "rather": 267, 
  "often": 268, 
  "East": 269, 
  "able": 270, 
  "large": 271, 
  "debt": 272, 
  "capital": 273, 
  "ing": 274, 
  "help": 275, 
  "use": 276, 
  "during": 277, 
  "in@@": 278, 
  "Asia": 279, 
  "major": 280, 
  "risk": 281, 
  "fact": 282, 
  "problems": 283, 
  "moreover": 284, 
  "process": 285, 
  "among": 286, 
  "little": 287, 
  "few": 288, 
  ")SINV": 289, 
  "(SINV": 290, 
  "three": 291, 
  "poor": 292, 
  "energy": 293, 
  "around": 294, 
  "democratic": 295, 
  "means": 296, 
  "role": 297, 
  "order": 298, 
  "France": 299, 
  "institutions": 300, 
  "given": 301, 
  "already": 302, 
  "within": 303, 
  "back": 304, 
  "Obama": 305, 
  "including": 306, 
  "rate": 307, 
  "rights": 308, 
  "peace": 309, 
  "second": 310, 
  "thus": 311, 
  "investment": 312, 
  "money": 313, 
  "whether": 314, 
  "clear": 315, 
  "different": 316, 
  "ed": 317, 
  "reform": 318, 
  "almost": 319, 
  "come": 320, 
  "case": 321, 
  "others": 322, 
  "members": 323, 
  "fiscal": 324, 
  "ago": 325, 
  "history": 326, 
  "down": 327, 
  "developing": 328, 
  "itself": 329, 
  "needs": 330, 
  "law": 331, 
  "central": 332, 
  "--": 333, 
  "economies": 334, 
  "er": 335, 
  "politics": 336, 
  "regime": 337, 
  "never": 338, 
  "seems": 339, 
  "Africa": 340, 
  "billion": 341, 
  "remains": 342, 
  "least": 343, 
  "next": 344, 
  ")NX": 345, 
  "(NX": 346, 
  "perhaps": 347, 
  "point": 348, 
  "strong": 349, 
  "led": 350, 
  "each": 351, 
  "see": 352, 
  "needed": 353, 
  "once": 354, 
  "president": 355, 
  "him": 356, 
  "IMF": 357, 
  "Bank": 358, 
  "free": 359, 
  "Turkey": 360, 
  "interests": 361, 
  "domestic": 362, 
  "million": 363, 
  "society": 364, 
  "life": 365, 
  "true": 366, 
  "every": 367, 
  "remain": 368, 
  "election": 369, 
  "price": 370, 
  "es": 371, 
  "difficult": 372, 
  "themselves": 373, 
  "put": 374, 
  "women": 375, 
  "great": 376, 
  "increase": 377, 
  "demand": 378, 
  "administration": 379, 
  "common": 380, 
  "possible": 381, 
  "question": 382, 
  "greater": 383, 
  "ated": 384, 
  "place": 385, 
  "currency": 386, 
  "s@@": 387, 
  "force": 388, 
  "tax": 389, 
  "higher": 390, 
  "continue": 391, 
  "want": 392, 
  "despite": 393, 
  "South": 394, 
  "instead": 395, 
  "Western": 396, 
  "longer": 397, 
  "again": 398, 
  "my": 399, 
  "private": 400, 
  "French": 401, 
  "off": 402, 
  "forces": 403, 
  "best": 404, 
  "go": 405, 
  "World": 406, 
  "Middle": 407, 
  "ever": 408, 
  "Arab": 409, 
  "GDP": 410, 
  "further": 411, 
  "control": 412, 
  "population": 413, 
  "former": 414, 
  "UN": 415, 
  "Korea": 416, 
  "growing": 417, 
  "ate": 418, 
  "climate": 419, 
  "dis@@": 420, 
  "used": 421, 
  "ation": 422, 
  "elections": 423, 
  "old": 424, 
  "century": 425, 
  "stability": 426, 
  "say": 427, 
  "regional": 428, 
  "get": 429, 
  "euro": 430, 
  "rule": 431, 
  "know": 432, 
  "based": 433, 
  "sense": 434, 
  "leadership": 435, 
  "set": 436, 
  "especially": 437, 
  "business": 438, 
  "decades": 439, 
  "S@@": 440, 
  "believe": 441, 
  "number": 442, 
  "inflation": 443, 
  "costs": 444, 
  "member": 445, 
  "rise": 446, 
  "always": 447, 
  "dollar": 448, 
  "War": 449, 
  "key": 450, 
  "left": 451, 
  "face": 452, 
  "relations": 453, 
  "issues": 454, 
  "North": 455, 
  "enough": 456, 
  "small": 457, 
  "ers": 458, 
  "efforts": 459, 
  "income": 460, 
  "conflict": 461, 
  "companies": 462, 
  "resources": 463, 
  "recently": 464, 
  "spending": 465, 
  "Americans": 466, 
  "citizens": 467, 
  "Putin": 468, 
  "serious": 469, 
  "lead": 470, 
  "issue": 471, 
  "community": 472, 
  "poverty": 473, 
  "simply": 474, 
  "strategy": 475, 
  "(INTJ": 476, 
  ")INTJ": 477, 
  "level": 478, 
  "terms": 479, 
  "reason": 480, 
  "though": 481, 
  "The": 482, 
  "provide": 483, 
  "Russian": 484, 
  "health": 485, 
  "rich": 486, 
  "said": 487, 
  "reforms": 488, 
  "Palestinian": 489, 
  "NATO": 490, 
  "hard": 491, 
  "particularly": 492, 
  "making": 493, 
  "party": 494, 
  "big": 495, 
  "view": 496, 
  "until": 497, 
  "early": 498, 
  "find": 499, 
  "increasingly": 500, 
  "Pakistan": 501, 
  "exchange": 502, 
  "Afghanistan": 503, 
  "p@@": 504, 
  "although": 505, 
  "emerging": 506, 
  "open": 507, 
  "nor": 508, 
  "Council": 509, 
  "parties": 510, 
  "monetary": 511, 
  "hope": 512, 
  "per": 513, 
  "her": 514, 
  "success": 515, 
  "times": 516, 
  "threat": 517, 
  "opposition": 518, 
  "turn": 519, 
  "violence": 520, 
  "home": 521, 
  "weapons": 522, 
  "children": 523, 
  "seen": 524, 
  "benefits": 525, 
  "t@@": 526, 
  "local": 527, 
  "seem": 528, 
  "B@@": 529, 
  "day": 530, 
  "Latin": 531, 
  "long-term": 532, 
  "T@@": 533, 
  "action": 534, 
  "sector": 535, 
  "create": 536, 
  "d@@": 537, 
  "y": 538, 
  "r@@": 539, 
  "investors": 540, 
  "labor": 541, 
  "here": 542, 
  "nothing": 543, 
  "think": 544, 
  "done": 545, 
  "Minister": 546, 
  "L@@": 547, 
  "information": 548, 
  "ways": 549, 
  "cost": 550, 
  "approach": 551, 
  "Soviet": 552, 
  "politicians": 553, 
  "together": 554, 
  "education": 555, 
  "ating": 556, 
  "form": 557, 
  "&": 558, 
  "value": 559, 
  "several": 560, 
  "called": 561, 
  "failed": 562, 
  "Ukraine": 563, 
  "effective": 564, 
  "M@@": 565, 
  "D@@": 566, 
  "al": 567, 
  "decade": 568, 
  "share": 569, 
  "challenge": 570, 
  "bank": 571, 
  "R@@": 572, 
  "b@@": 573, 
  "low": 574, 
  "Party": 575, 
  "similar": 576, 
  "taken": 577, 
  "across": 578, 
  "run": 579, 
  "over@@": 580, 
  "risks": 581, 
  "position": 582, 
  "away": 583, 
  "agreement": 584, 
  "changes": 585, 
  "deal": 586, 
  "fall": 587, 
  "budget": 588, 
  "majority": 589, 
  "Europeans": 590, 
  "idea": 591, 
  "failure": 592, 
  "whose": 593, 
  "unemployment": 594, 
  "necessary": 595, 
  "rising": 596, 
  "k@@": 597, 
  "increased": 598, 
  "non-@@": 599, 
  "toward": 600, 
  "age": 601, 
  "workers": 602, 
  "y@@": 603, 
  "l@@": 604, 
  "look": 605, 
  "makes": 606, 
  "really": 607, 
  "reduce": 608, 
  "officials": 609, 
  "became": 610, 
  "influence": 611, 
  "groups": 612, 
  "lack": 613, 
  "c@@": 614, 
  "credit": 615, 
  "strategic": 616, 
  "return": 617, 
  "services": 618, 
  "cause": 619, 
  "powerful": 620, 
  "eurozone": 621, 
  "give": 622, 
  "values": 623, 
  "ted": 624, 
  "months": 625, 
  "half": 626, 
  "freedom": 627, 
  "aid": 628, 
  "program": 629, 
  "terrorism": 630, 
  "modern": 631, 
  "bring": 632, 
  "began": 633, 
  "rules": 634, 
  "potential": 635, 
  "something": 636, 
  "debate": 637, 
  "finance": 638, 
  "E@@": 639, 
  "conditions": 640, 
  "main": 641, 
  "huge": 642, 
  "ting": 643, 
  "Japanese": 644, 
  "en@@": 645, 
  "developed": 646, 
  "progress": 647, 
  "research": 648, 
  "e": 649, 
  "later": 650, 
  "leader": 651, 
  "requires": 652, 
  "o@@": 653, 
  "matter": 654, 
  "German": 655, 
  "levels": 656, 
  "g@@": 657, 
  "pay": 658, 
  "rest": 659, 
  "consequences": 660, 
  "start": 661, 
  "C@@": 662, 
  "situation": 663, 
  "Asian": 664, 
  "religious": 665, 
  "P@@": 666, 
  "short": 667, 
  "balance": 668, 
  "beyond": 669, 
  "o": 670, 
  "bad": 671, 
  ")X": 672, 
  "(X": 673, 
  "Hamas": 674, 
  "lost": 675, 
  "challenges": 676, 
  "found": 677, 
  "lower": 678, 
  "20": 679, 
  "things": 680, 
  "opportunity": 681, 
  "live": 682, 
  "A@@": 683, 
  "having": 684, 
  "Central": 685, 
  "f@@": 686, 
  "civil": 687, 
  "H@@": 688, 
  "food": 689, 
  "either": 690, 
  "technology": 691, 
  "Muslim": 692, 
  "jobs": 693, 
  "fear": 694, 
  "globalization": 695, 
  "young": 696, 
  "nations": 697, 
  "play": 698, 
  "h@@": 699, 
  "i": 700, 
  "response": 701, 
  "pressure": 702, 
  "keep": 703, 
  "consider": 704, 
  "measures": 705, 
  "alone": 706, 
  "water": 707, 
  "move": 708, 
  "British": 709, 
  "five": 710, 
  "e@@": 711, 
  "probably": 712, 
  "systems": 713, 
  "act": 714, 
  "finally": 715, 
  "im@@": 716, 
  "clearly": 717, 
  "third": 718, 
  "hand": 719, 
  "leading": 720, 
  "cooperation": 721, 
  "created": 722, 
  "presidential": 723, 
  "worse": 724, 
  "man": 725, 
  "according": 726, 
  "solution": 727, 
  "negotiations": 728, 
  "single": 729, 
  "let": 730, 
  "integration": 731, 
  "successful": 732, 
  "corruption": 733, 
  "side": 734, 
  "behind": 735, 
  "soon": 736, 
  "media": 737, 
  "model": 738, 
  "anti-@@": 739, 
  "popular": 740, 
  "term": 741, 
  "firms": 742, 
  "Islamic": 743, 
  "Israeli": 744, 
  "doing": 745, 
  "legal": 746, 
  "deficit": 747, 
  "al@@": 748, 
  "mean": 749, 
  "significant": 750, 
  "F@@": 751, 
  "Britain": 752, 
  "prevent": 753, 
  "powers": 754, 
  "decision": 755, 
  "group": 756, 
  "wrong": 757, 
  "N@@": 758, 
  "recession": 759, 
  "vote": 760, 
  "came": 761, 
  "natural": 762, 
  "four": 763, 
  "massive": 764, 
  "defense": 765, 
  "ch@@": 766, 
  "she": 767, 
  "production": 768, 
  "ensure": 769, 
  "impact": 770, 
  "Prime": 771, 
  "Palestinians": 772, 
  "close": 773, 
  "effort": 774, 
  "Egypt": 775, 
  "increasing": 776, 
  "Brazil": 777, 
  "1990": 778, 
  "took": 779, 
  "official": 780, 
  "ability": 781, 
  "areas": 782, 
  "period": 783, 
  "taking": 784, 
  "ates": 785, 
  "lives": 786, 
  "fundamental": 787, 
  "effect": 788, 
  "/@@": 789, 
  "individual": 790, 
  "G@@": 791, 
  "require": 792, 
  "following": 793, 
  "everyone": 794, 
  "exports": 795, 
  "full": 796, 
  "decline": 797, 
  "comes": 798, 
  "access": 799, 
  "step": 800, 
  "late": 801, 
  "science": 802, 
  "confidence": 803, 
  "Commission": 804, 
  "Security": 805, 
  "understand": 806, 
  "coming": 807, 
  "Mexico": 808, 
  "held": 809, 
  "reality": 810, 
  "call": 811, 
  "land": 812, 
  "competition": 813, 
  "men": 814, 
  "experience": 815, 
  "K@@": 816, 
  "er@@": 817, 
  "working": 818, 
  "job": 819, 
  "traditional": 820, 
  "collapse": 821, 
  "ECB": 822, 
  "living": 823, 
  "total": 824, 
  "minister": 825, 
  "campaign": 826, 
  "average": 827, 
  "responsibility": 828, 
  "moral": 829, 
  "reasons": 830, 
  "ts": 831, 
  "hold": 832, 
  "focus": 833, 
  "me": 834, 
  "culture": 835, 
  "decisions": 836, 
  "actually": 837, 
  "advanced": 838, 
  "African": 839, 
  "assets": 840, 
  "wealth": 841, 
  "line": 842, 
  "i@@": 843, 
  "self-@@": 844, 
  "particular": 845, 
  "allow": 846, 
  "w@@": 847, 
  "brought": 848, 
  "funds": 849, 
  "attention": 850, 
  "era": 851, 
  "kind": 852, 
  "banking": 853, 
  "expected": 854, 
  "largest": 855, 
  "throughout": 856, 
  "independent": 857, 
  "death": 858, 
  "thing": 859, 
  "revolution": 860, 
  "stock": 861, 
  "neither": 862, 
  "certainly": 863, 
  "cut": 864, 
  "achieve": 865, 
  "an@@": 866, 
  "largely": 867, 
  "status": 868, 
  "Fund": 869, 
  "thought": 870, 
  "evidence": 871, 
  "2008": 872, 
  "attacks": 873, 
  "m@@": 874, 
  "outside": 875, 
  "accept": 876, 
  "building": 877, 
  "O@@": 878, 
  "basic": 879, 
  "plan": 880, 
  "de@@": 881, 
  "Nations": 882, 
  "sure": 883, 
  "capacity": 884, 
  "v@@": 885, 
  "10": 886, 
  "International": 887, 
  "governance": 888, 
  "independence": 889, 
  "towards": 890, 
  "j@@": 891, 
  "avoid": 892, 
  "show": 893, 
  "re-@@": 894, 
  "limited": 895, 
  "answer": 896, 
  "behavior": 897, 
  "e-@@": 898, 
  "50": 899, 
  "New": 900, 
  "using": 901, 
  "consumption": 902, 
  "stop": 903, 
  "programs": 904, 
  "care": 905, 
  "moment": 906, 
  "Italy": 907, 
  "words": 908, 
  "easy": 909, 
  "cases": 910, 
  "above": 911, 
  "direct": 912, 
  "voters": 913, 
  "effects": 914, 
  "ations": 915, 
  "ar@@": 916, 
  "gas": 917, 
  "nation": 918, 
  "W@@": 919, 
  "membership": 920, 
  "agenda": 921, 
  "es@@": 922, 
  "becoming": 923, 
  "fight": 924, 
  "employment": 925, 
  "deficits": 926, 
  "u@@": 927, 
  "ac@@": 928, 
  "contrast": 929, 
  "respect": 930, 
  "ic": 931, 
  "appears": 932, 
  "emissions": 933, 
  "top": 934, 
  "goods": 935, 
  "benefit": 936, 
  "days": 937, 
  "liberal": 938, 
  "relationship": 939, 
  "general": 940, 
  "a@@": 941, 
  "unfortunately": 942, 
  "Syria": 943, 
  "attack": 944, 
  "whole": 945, 
  "concerns": 946, 
  "standards": 947, 
  "on@@": 948, 
  "sometimes": 949, 
  "meeting": 950, 
  "certain": 951, 
  "environment": 952, 
  "dangerous": 953, 
  "alternative": 954, 
  "allowed": 955, 
  "1": 956, 
  "merely": 957, 
  "events": 958, 
  "crises": 959, 
  "going": 960, 
  "unlikely": 961, 
  "results": 962, 
  "recovery": 963, 
  "protect": 964, 
  "elected": 965, 
  "movement": 966, 
  "weak": 967, 
  "rapid": 968, 
  "ten": 969, 
  "societies": 970, 
  "cultural": 971, 
  "produce": 972, 
  "nature": 973, 
  "st@@": 974, 
  "supply": 975, 
  "known": 976, 
  "helped": 977, 
  "chance": 978, 
  "am@@": 979, 
  "intervention": 980, 
  "nearly": 981, 
  "2001": 982, 
  "Poland": 983, 
  "wants": 984, 
  "victory": 985, 
  "as@@": 986, 
  "news": 987, 
  "am": 988, 
  "infrastructure": 989, 
  "Gaza": 990, 
  "address": 991, 
  "elsewhere": 992, 
  "mis@@": 993, 
  "Greece": 994, 
  "September": 995, 
  "creating": 996, 
  "Islam": 997, 
  "industrial": 998, 
  "outcome": 999, 
  "changed": 1000, 
  "ent": 1001, 
  "George": 1002, 
  "reach": 1003, 
  "therefore": 1004, 
  "followed": 1005, 
  "highly": 1006, 
  "beginning": 1007, 
  "authorities": 1008, 
  "mass": 1009, 
  "office": 1010, 
  "at@@": 1011, 
  "questions": 1012, 
  "en": 1013, 
  "turned": 1014, 
  "ad@@": 1015, 
  "deep": 1016, 
  "established": 1017, 
  "relatively": 1018, 
  "em@@": 1019, 
  "talks": 1020, 
  "build": 1021, 
  "Treaty": 1022, 
  "maintain": 1023, 
  "army": 1024, 
  "parts": 1025, 
  "economists": 1026, 
  "simple": 1027, 
  "begin": 1028, 
  "trying": 1029, 
  "actions": 1030, 
  "millions": 1031, 
  "entire": 1032, 
  "offer": 1033, 
  "Kosovo": 1034, 
  "Sarkozy": 1035, 
  "thinking": 1036, 
  "commitment": 1037, 
  "family": 1038, 
  "de": 1039, 
  "ant": 1040, 
  "fully": 1041, 
  "environmental": 1042, 
  "police": 1043, 
  "J@@": 1044, 
  "ir@@": 1045, 
  "along": 1046, 
  "critical": 1047, 
  "goal": 1048, 
  "internal": 1049, 
  "el@@": 1050, 
  "quickly": 1051, 
  "sanctions": 1052, 
  "or@@": 1053, 
  "choice": 1054, 
  "V@@": 1055, 
  "prime": 1056, 
  "productivity": 1057, 
  "economics": 1058, 
  "annual": 1059, 
  "di@@": 1060, 
  "scientific": 1061, 
  "dollars": 1062, 
  "justice": 1063, 
  "30": 1064, 
  "k": 1065, 
  "sh@@": 1066, 
  "larger": 1067, 
  "ideas": 1068, 
  "taxes": 1069, 
  "sides": 1070, 
  "le": 1071, 
  "legitimacy": 1072, 
  "warming": 1073, 
  "area": 1074, 
  "Argentina": 1075, 
  "claim": 1076, 
  "historical": 1077, 
  "month": 1078, 
  "Saudi": 1079, 
  "cuts": 1080, 
  "#": 1081, 
  "investments": 1082, 
  "assistance": 1083, 
  "forward": 1084, 
  "himself": 1085, 
  "personal": 1086, 
  "anything": 1087, 
  "feel": 1088, 
  "reserves": 1089, 
  "argue": 1090, 
  "head": 1091, 
  "terrorist": 1092, 
  "due": 1093, 
  "organizations": 1094, 
  "out@@": 1095, 
  "institutional": 1096, 
  "vision": 1097, 
  "allies": 1098, 
  "recognize": 1099, 
  "basis": 1100, 
  "opinion": 1101, 
  "differences": 1102, 
  "diplomatic": 1103, 
  "required": 1104, 
  "ar": 1105, 
  "industry": 1106, 
  "forced": 1107, 
  "positive": 1108, 
  "Iranian": 1109, 
  "try": 1110, 
  "story": 1111, 
  "your": 1112, 
  "Eastern": 1113, 
  "it@@": 1114, 
  "essential": 1115, 
  "impossible": 1116, 
  "concern": 1117, 
  "ab@@": 1118, 
  "consensus": 1119, 
  "provided": 1120, 
  "happen": 1121, 
  "Muslims": 1122, 
  "meet": 1123, 
  "seek": 1124, 
  "fail": 1125, 
  "le@@": 1126, 
  "policymakers": 1127, 
  "Cold": 1128, 
  "easily": 1129, 
  "transition": 1130, 
  "2": 1131, 
  "shift": 1132, 
  "corporate": 1133, 
  "Lebanon": 1134, 
  "neighbors": 1135, 
  "performance": 1136, 
  "currently": 1137, 
  "account": 1138, 
  "include": 1139, 
  "doubt": 1140, 
  "London": 1141, 
  "source": 1142, 
  "ethnic": 1143, 
  "th": 1144, 
  "management": 1145, 
  "regions": 1146, 
  "2007": 1147, 
  "authority": 1148, 
  "relative": 1149, 
  "1980": 1150, 
  "matters": 1151, 
  "Spain": 1152, 
  "constitution": 1153, 
  "knowledge": 1154, 
  "grow": 1155, 
  "loss": 1156, 
  "troops": 1157, 
  "summit": 1158, 
  "happened": 1159, 
  "Great": 1160, 
  "eventually": 1161, 
  "obvious": 1162, 
  "generation": 1163, 
  "politically": 1164, 
  "wars": 1165, 
  "willing": 1166, 
  "Washington": 1167, 
  "upon": 1168, 
  "complex": 1169, 
  "z@@": 1170, 
  "coalition": 1171, 
  "Georgia": 1172, 
  "committed": 1173, 
  "laws": 1174, 
  "Indian": 1175, 
  "individuals": 1176, 
  "importance": 1177, 
  "al-@@": 1178, 
  "capitalism": 1179, 
  "report": 1180, 
  "continued": 1181, 
  "scale": 1182, 
  "increases": 1183, 
  "everything": 1184, 
  "!": 1185, 
  "bonds": 1186, 
  "stimulus": 1187, 
  "follow": 1188, 
  "similarly": 1189, 
  "ly": 1190, 
  "creation": 1191, 
  "Y@@": 1192, 
  "ism": 1193, 
  "path": 1194, 
  "be@@": 1195, 
  "opportunities": 1196, 
  "ally": 1197, 
  "available": 1198, 
  "protection": 1199, 
  "2009": 1200, 
  "2005": 1201, 
  "promote": 1202, 
  "improve": 1203, 
  "press": 1204, 
  "Barack": 1205, 
  "lose": 1206, 
  "continues": 1207, 
  "develop": 1208, 
  "ground": 1209, 
  "insurance": 1210, 
  "2000": 1211, 
  "carbon": 1212, 
  "demands": 1213, 
  "presidency": 1214, 
  "won": 1215, 
  "caused": 1216, 
  "soft": 1217, 
  "present": 1218, 
  "ti@@": 1219, 
  "under@@": 1220, 
  "prosperity": 1221, 
  "Saddam": 1222, 
  "2004": 1223, 
  "whatever": 1224, 
  "seemed": 1225, 
  "ine": 1226, 
  "contrary": 1227, 
  "Republic": 1228, 
  "Congress": 1229, 
  "spread": 1230, 
  "steps": 1231, 
  "sustainable": 1232, 
  "co@@": 1233, 
  "40": 1234, 
  "none": 1235, 
  "appear": 1236, 
  "I@@": 1237, 
  "3": 1238, 
  "understanding": 1239, 
  "democracies": 1240, 
  "vast": 1241, 
  "union": 1242, 
  "direction": 1243, 
  "ahead": 1244, 
  "Iraqi": 1245, 
  "truth": 1246, 
  "principle": 1247, 
  ")WHADJP": 1248, 
  "(WHADJP": 1249, 
  "housing": 1250, 
  "gain": 1251, 
  "parliament": 1252, 
  "owing": 1253, 
  "external": 1254, 
  "Taiwan": 1255, 
  "trust": 1256, 
  "structural": 1257, 
  "el": 1258, 
  "stable": 1259, 
  "leave": 1260, 
  "framework": 1261, 
  "is@@": 1262, 
  "special": 1263, 
  "struggle": 1264, 
  "size": 1265, 
  "victims": 1266, 
  "damage": 1267, 
  "task": 1268, 
  "11": 1269, 
  "facing": 1270, 
  "reducing": 1271, 
  "qu@@": 1272, 
  "General": 1273, 
  "2006": 1274, 
  "expect": 1275, 
  "regulation": 1276, 
  "boom": 1277, 
  "suggests": 1278, 
  "project": 1279, 
  "responsible": 1280, 
  "roughly": 1281, 
  "II": 1282, 
  "save": 1283, 
  "15": 1284, 
  "achieved": 1285, 
  "25": 1286, 
  "went": 1287, 
  "usually": 1288, 
  "asked": 1289, 
  "agreed": 1290, 
  "worldwide": 1291, 
  "factors": 1292, 
  "anyone": 1293, 
  "products": 1294, 
  "unless": 1295, 
  "tried": 1296, 
  "theory": 1297, 
  "game": 1298, 
  "class": 1299, 
  "tr@@": 1300, 
  "thousands": 1301, 
  "reached": 1302, 
  "ultimately": 1303, 
  "threats": 1304, 
  "talk": 1305, 
  "ic@@": 1306, 
  "ties": 1307, 
  "ag@@": 1308, 
  "ist": 1309, 
  "exist": 1310, 
  "incentives": 1311, 
  "goes": 1312, 
  "stand": 1313, 
  "om@@": 1314, 
  "technologies": 1315, 
  "else": 1316, 
  "paid": 1317, 
  "drug": 1318, 
  "center": 1319, 
  "ordinary": 1320, 
  "disease": 1321, 
  "agree": 1322, 
  "so-called": 1323, 
  "told": 1324, 
  "th@@": 1325, 
  "unlike": 1326, 
  "borders": 1327, 
  "favor": 1328, 
  "reduced": 1329, 
  "2010": 1330, 
  "principles": 1331, 
  "mostly": 1332, 
  "YORK": 1333, 
  "difference": 1334, 
  "six": 1335, 
  "candidate": 1336, 
  "vital": 1337, 
  "company": 1338, 
  "built": 1339, 
  "crimes": 1340, 
  "m": 1341, 
  "slow": 1342, 
  "core": 1343, 
  "immediate": 1344, 
  "li@@": 1345, 
  "limits": 1346, 
  "raise": 1347, 
  "tion": 1348, 
  "directly": 1349, 
  "ap@@": 1350, 
  "suggest": 1351, 
  "constitutional": 1352, 
  "shown": 1353, 
  "aimed": 1354, 
  "crucial": 1355, 
  "extreme": 1356, 
  "calls": 1357, 
  "name": 1358, 
  "started": 1359, 
  "identity": 1360, 
  "shows": 1361, 
  "prove": 1362, 
  "conflicts": 1363, 
  "widely": 1364, 
  "fighting": 1365, 
  "giving": 1366, 
  "ter": 1367, 
  "stronger": 1368, 
  "radical": 1369, 
  "compared": 1370, 
  "provides": 1371, 
  "severe": 1372, 
  "terrorists": 1373, 
  "diplomacy": 1374, 
  "otherwise": 1375, 
  "rapidly": 1376, 
  "win": 1377, 
  "armed": 1378, 
  "attempt": 1379, 
  "ones": 1380, 
  "National": 1381, 
  "round": 1382, 
  "test": 1383, 
  "earlier": 1384, 
  "Clinton": 1385, 
  "als": 1386, 
  "proposed": 1387, 
  "meanwhile": 1388, 
  "con@@": 1389, 
  "Fed": 1390, 
  "claims": 1391, 
  "est": 1392, 
  "existing": 1393, 
  "December": 1394, 
  "inequality": 1395, 
  "arms": 1396, 
  "abroad": 1397, 
  "ia": 1398, 
  "hundreds": 1399, 
  "farmers": 1400, 
  "W.": 1401, 
  "worst": 1402, 
  "il@@": 1403, 
  "competitive": 1404, 
  "negative": 1405, 
  "candidates": 1406, 
  "ro@@": 1407, 
  "enormous": 1408, 
  "ous": 1409, 
  "secure": 1410, 
  "export": 1411, 
  "alliance": 1412, 
  "45": 1413, 
  "various": 1414, 
  "establish": 1415, 
  "effectively": 1416, 
  "us@@": 1417, 
  "regimes": 1418, 
  "learned": 1419, 
  "parliamentary": 1420, 
  "hit": 1421, 
  "inter@@": 1422, 
  "loans": 1423, 
  "expectations": 1424, 
  "depends": 1425, 
  "ized": 1426, 
  "ves": 1427, 
  "asset": 1428, 
  "Communist": 1429, 
  "ruling": 1430, 
  "buy": 1431, 
  "per@@": 1432, 
  "sought": 1433, 
  "everywhere": 1434, 
  "Blair": 1435, 
  "biggest": 1436, 
  "nevertheless": 1437, 
  "serve": 1438, 
  "red": 1439, 
  "lending": 1440, 
  "currencies": 1441, 
  "widespread": 1442, 
  "quality": 1443, 
  "points": 1444, 
  "lo@@": 1445, 
  "net": 1446, 
  "involved": 1447, 
  "short-term": 1448, 
  "Internet": 1449, 
  "argument": 1450, 
  "takes": 1451, 
  "extent": 1452, 
  "permanent": 1453, 
  "Secretary": 1454, 
  "ies": 1455, 
  "activities": 1456, 
  "Al": 1457, 
  "fair": 1458, 
  "becomes": 1459, 
  "supposed": 1460, 
  "danger": 1461, 
  "destruction": 1462, 
  "ended": 1463, 
  "reflect": 1464, 
  "goals": 1465, 
  "output": 1466, 
  "body": 1467, 
  "views": 1468, 
  "G-20": 1469, 
  "reflects": 1470, 
  "supported": 1471, 
  "person": 1472, 
  "ness": 1473, 
  "scientists": 1474, 
  "concerned": 1475, 
  "structure": 1476, 
  "amount": 1477, 
  "losses": 1478, 
  "king": 1479, 
  "absence": 1480, 
  "ings": 1481, 
  "join": 1482, 
  "ask": 1483, 
  "electoral": 1484, 
  "near": 1485, 
  "getting": 1486, 
  "4": 1487, 
  "cities": 1488, 
  "providing": 1489, 
  "record": 1490, 
  "welfare": 1491, 
  "lesson": 1492, 
  "ons": 1493, 
  "Indonesia": 1494, 
  "week": 1495, 
  "plans": 1496, 
  "poorest": 1497, 
  "innovation": 1498, 
  "seriously": 1499, 
  "specific": 1500, 
  "lot": 1501, 
  "violent": 1502, 
  "5": 1503, 
  "sovereignty": 1504, 
  "border": 1505, 
  "circumstances": 1506, 
  "designed": 1507, 
  "looks": 1508, 
  "met": 1509, 
  "November": 1510, 
  "liquidity": 1511, 
  "affairs": 1512, 
  "Kremlin": 1513, 
  "tions": 1514, 
  "data": 1515, 
  "active": 1516, 
  "g": 1517, 
  "advantage": 1518, 
  "space": 1519, 
  "d": 1520, 
  "Hezbollah": 1521, 
  "rhetoric": 1522, 
  "forms": 1523, 
  "lies": 1524, 
  "killed": 1525, 
  "peaceful": 1526, 
  "sign": 1527, 
  "whom": 1528, 
  "quite": 1529, 
  "gave": 1530, 
  "practice": 1531, 
  "service": 1532, 
  "Korean": 1533, 
  "Serbia": 1534, 
  "pre@@": 1535, 
  "treatment": 1536, 
  "reduction": 1537, 
  "falling": 1538, 
  "managed": 1539, 
  "study": 1540, 
  "drugs": 1541, 
  "mind": 1542, 
  "standard": 1543, 
  "Federal": 1544, 
  "priority": 1545, 
  "collective": 1546, 
  "running": 1547, 
  "faces": 1548, 
  "2003": 1549, 
  "savings": 1550, 
  "blame": 1551, 
  "faced": 1552, 
  "factor": 1553, 
  "promises": 1554, 
  "ical": 1555, 
  "Taliban": 1556, 
  "remained": 1557, 
  "solidarity": 1558, 
  "John": 1559, 
  "saw": 1560, 
  "disaster": 1561, 
  "normal": 1562, 
  "unable": 1563, 
  "spent": 1564, 
  "argued": 1565, 
  "weeks": 1566, 
  "A": 1567, 
  "equal": 1568, 
  "intelligence": 1569, 
  "competitiveness": 1570, 
  "saving": 1571, 
  "Court": 1572, 
  "substantial": 1573, 
  "expansion": 1574, 
  "1970": 1575, 
  "type": 1576, 
  "below": 1577, 
  "treaty": 1578, 
  "overall": 1579, 
  "continent": 1580, 
  "middle": 1581, 
  "previous": 1582, 
  "seeking": 1583, 
  "shared": 1584, 
  "nowadays": 1585, 
  "students": 1586, 
  "Turkish": 1587, 
  "produced": 1588, 
  "improved": 1589, 
  "ready": 1590, 
  "believed": 1591, 
  "post-@@": 1592, 
  "instability": 1593, 
  "language": 1594, 
  "1989": 1595, 
  "worked": 1596, 
  "solutions": 1597, 
  "communities": 1598, 
  "po@@": 1599, 
  "hands": 1600, 
  "school": 1601, 
  "fell": 1602, 
  "greatest": 1603, 
  "ans": 1604, 
  "2@@": 1605, 
  "imposed": 1606, 
  "closer": 1607, 
  "bilateral": 1608, 
  "tend": 1609, 
  "burden": 1610, 
  "possibility": 1611, 
  "changing": 1612, 
  "causes": 1613, 
  "regulatory": 1614, 
  "elite": 1615, 
  "hardly": 1616, 
  "nationalism": 1617, 
  "related": 1618, 
  "60": 1619, 
  "excessive": 1620, 
  "learn": 1621, 
  "addition": 1622, 
  "initiative": 1623, 
  "organization": 1624, 
  "ists": 1625, 
  "visit": 1626, 
  "final": 1627, 
  "additional": 1628, 
  "wanted": 1629, 
  "Arabia": 1630, 
  "adopted": 1631, 
  "boost": 1632, 
  "recognized": 1633, 
  "credibility": 1634, 
  "ors": 1635, 
  "speech": 1636, 
  "promise": 1637, 
  "protests": 1638, 
  "projects": 1639, 
  "safety": 1640, 
  "stage": 1641, 
  "strength": 1642, 
  "equally": 1643, 
  "prospects": 1644, 
  "decided": 1645, 
  "spend": 1646, 
  "defeat": 1647, 
  "declared": 1648, 
  "opening": 1649, 
  "Z@@": 1650, 
  "terror": 1651, 
  "played": 1652, 
  "up@@": 1653, 
  "intellectual": 1654, 
  "worth": 1655, 
  "property": 1656, 
  "occupation": 1657, 
  "enlargement": 1658, 
  "movements": 1659, 
  "inevitable": 1660, 
  "trillion": 1661, 
  "option": 1662, 
  "efficient": 1663, 
  "ence": 1664, 
  "explain": 1665, 
  "ne@@": 1666, 
  "prepared": 1667, 
  "precisely": 1668, 
  "city": 1669, 
  "Israelis": 1670, 
  "communism": 1671, 
  "strengthen": 1672, 
  "mainly": 1673, 
  "message": 1674, 
  "lines": 1675, 
  "Ireland": 1676, 
  "house": 1677, 
  "flows": 1678, 
  "consumers": 1679, 
  "subsidies": 1680, 
  "presence": 1681, 
  "afford": 1682, 
  "Libya": 1683, 
  "partners": 1684, 
  "focused": 1685, 
  "places": 1686, 
  "ering": 1687, 
  "fears": 1688, 
  "households": 1689, 
  "regard": 1690, 
  "compromise": 1691, 
  "thereby": 1692, 
  "fuel": 1693, 
  "ministers": 1694, 
  "received": 1695, 
  "belief": 1696, 
  "air": 1697, 
  "deeply": 1698, 
  "fl@@": 1699, 
  "target": 1700, 
  "heart": 1701, 
  "rural": 1702, 
  "manage": 1703, 
  "ending": 1704, 
  "bl@@": 1705, 
  "businesses": 1706, 
  "fast": 1707, 
  "prospect": 1708, 
  "Russians": 1709, 
  "January": 1710, 
  "raised": 1711, 
  "conservative": 1712, 
  "partly": 1713, 
  "macroeconomic": 1714, 
  "lessons": 1715, 
  "religion": 1716, 
  "March": 1717, 
  "encourage": 1718, 
  "ol@@": 1719, 
  "sources": 1720, 
  "vulnerable": 1721, 
  "imbalances": 1722, 
  "gap": 1723, 
  "knows": 1724, 
  "ded": 1725, 
  "Monetary": 1726, 
  "court": 1727, 
  "suffering": 1728, 
  "generally": 1729, 
  "agricultural": 1730, 
  "numbers": 1731, 
  "context": 1732, 
  "100": 1733, 
  "positions": 1734, 
  "operations": 1735, 
  "looking": 1736, 
  "meant": 1737, 
  "ex@@": 1738, 
  "gone": 1739, 
  "sovereign": 1740, 
  "Greek": 1741, 
  "bo@@": 1742, 
  "sp@@": 1743, 
  "whereas": 1744, 
  "n": 1745, 
  "imports": 1746, 
  "models": 1747, 
  "respond": 1748, 
  "communist": 1749, 
  "Berlin": 1750, 
  "promised": 1751, 
  "ity": 1752, 
  "liberalization": 1753, 
  "financing": 1754, 
  "succeed": 1755, 
  "ge": 1756, 
  "ra@@": 1757, 
  "trading": 1758, 
  "likewise": 1759, 
  "for@@": 1760, 
  "accounts": 1761, 
  "guarantee": 1762, 
  "southern": 1763, 
  "push": 1764, 
  "activity": 1765, 
  "ri@@": 1766, 
  "pe@@": 1767, 
  "bubble": 1768, 
  "safe": 1769, 
  "authoritarian": 1770, 
  "uncertainty": 1771, 
  "divided": 1772, 
  "ary": 1773, 
  "crime": 1774, 
  "smaller": 1775, 
  "dialogue": 1776, 
  "depend": 1777, 
  "sufficient": 1778, 
  "faster": 1779, 
  "road": 1780, 
  "default": 1781, 
  "May": 1782, 
  "wages": 1783, 
  "trend": 1784, 
  "unity": 1785, 
  "ance": 1786, 
  "demonstrated": 1787, 
  "U@@": 1788, 
  "decide": 1789, 
  "book": 1790, 
  "alized": 1791, 
  "he@@": 1792, 
  "Kim": 1793, 
  "ks": 1794, 
  "break": 1795, 
  "gains": 1796, 
  "Hong": 1797, 
  "June": 1798, 
  "entirely": 1799, 
  "civilian": 1800, 
  "families": 1801, 
  "Moscow": 1802, 
  "faith": 1803, 
  "light": 1804, 
  "continuing": 1805, 
  "accepted": 1806, 
  "tensions": 1807, 
  "wo": 1808, 
  "ization": 1809, 
  "team": 1810, 
  "considered": 1811, 
  "nbsp": 1812, 
  "y-@@": 1813, 
  "medical": 1814, 
  "helping": 1815, 
  "Cambridge": 1816, 
  "par@@": 1817, 
  "se@@": 1818, 
  "driven": 1819, 
  "understood": 1820, 
  "equity": 1821, 
  "appropriate": 1822, 
  "Wall": 1823, 
  "multilateral": 1824, 
  "limit": 1825, 
  "Revolution": 1826, 
  "wage": 1827, 
  "sort": 1828, 
  "proposal": 1829, 
  "combined": 1830, 
  "base": 1831, 
  "agreements": 1832, 
  "speak": 1833, 
  "participation": 1834, 
  "agencies": 1835, 
  "controls": 1836, 
  "impose": 1837, 
  "ca": 1838, 
  "ingly": 1839, 
  "moderate": 1840, 
  "8": 1841, 
  "Beijing": 1842, 
  "2002": 1843, 
  "defined": 1844, 
  "desire": 1845, 
  "profits": 1846, 
  "Palestine": 1847, 
  "ying": 1848, 
  "experts": 1849, 
  "rec@@": 1850, 
  "works": 1851, 
  "Kingdom": 1852, 
  "Abbas": 1853, 
  "degree": 1854, 
  "latest": 1855, 
  "raising": 1856, 
  "aim": 1857, 
  "sound": 1858, 
  "yes": 1859, 
  "man@@": 1860, 
  "Copenhagen": 1861, 
  "resolution": 1862, 
  "emerged": 1863, 
  "range": 1864, 
  "significantly": 1865, 
  "transparency": 1866, 
  "sectors": 1867, 
  "sharply": 1868, 
  "offers": 1869, 
  "et@@": 1870, 
  "op@@": 1871, 
  "expensive": 1872, 
  "announced": 1873, 
  "·": 1874, 
  "invest": 1875, 
  "ently": 1876, 
  "immediately": 1877, 
  "determined": 1878, 
  "sustained": 1879, 
  "ideological": 1880, 
  "la@@": 1881, 
  "born": 1882, 
  "structures": 1883, 
  "drive": 1884, 
  "1999": 1885, 
  "rulers": 1886, 
  "style": 1887, 
  "and@@": 1888, 
  "l": 1889, 
  "sub@@": 1890, 
  "Kong": 1891, 
  "restore": 1892, 
  "says": 1893, 
  "rely": 1894, 
  "immigration": 1895, 
  "surplus": 1896, 
  "surely": 1897, 
  "eight": 1898, 
  "consumer": 1899, 
  "possibly": 1900, 
  "solve": 1901, 
  "subject": 1902, 
  ".@@": 1903, 
  "ou@@": 1904, 
  "imagine": 1905, 
  "mistake": 1906, 
  "ably": 1907, 
  "occur": 1908, 
  "occurred": 1909, 
  "Development": 1910, 
  "legitimate": 1911, 
  "virtually": 1912, 
  "sharp": 1913, 
  "revenues": 1914, 
  "ens": 1915, 
  "bu@@": 1916, 
  "dramatic": 1917, 
  "importantly": 1918, 
  "universal": 1919, 
  "scenario": 1920, 
  "zone": 1921, 
  "obviously": 1922, 
  "Reserve": 1923, 
  "cutting": 1924, 
  "ec@@": 1925, 
  "defend": 1926, 
  "6": 1927, 
  "settlement": 1928, 
  "objective": 1929, 
  "battle": 1930, 
  "easier": 1931, 
  "corrupt": 1932, 
  "schools": 1933, 
  "implies": 1934, 
  "truly": 1935, 
  "high-@@": 1936, 
  "October": 1937, 
  "populations": 1938, 
  "players": 1939, 
  "et": 1940, 
  "associated": 1941, 
  "bankers": 1942, 
  "moving": 1943, 
  "pursue": 1944, 
  "holding": 1945, 
  "choose": 1946, 
  "br@@": 1947, 
  "Paris": 1948, 
  "bringing": 1949, 
  "no@@": 1950, 
  "broad": 1951, 
  "friends": 1952, 
  ")NAC": 1953, 
  "signs": 1954, 
  "(NAC": 1955, 
  "highest": 1956, 
  "invasion": 1957, 
  "chief": 1958, 
  "contribute": 1959, 
  "si@@": 1960, 
  "technological": 1961, 
  "Organization": 1962, 
  "pl@@": 1963, 
  "determine": 1964, 
  "ul@@": 1965, 
  "resistance": 1966, 
  "well-@@": 1967, 
  "son": 1968, 
  "secular": 1969, 
  "Jews": 1970, 
  "represent": 1971, 
  "State": 1972, 
  "z": 1973, 
  "stake": 1974, 
  "happens": 1975, 
  "tradition": 1976, 
  "over-@@": 1977, 
  "opponents": 1978, 
  "str@@": 1979, 
  "ongoing": 1980, 
  "wide": 1981, 
  "legacy": 1982, 
  "options": 1983, 
  "1@@": 1984, 
  "payments": 1985, 
  "comprehensive": 1986, 
  "efficiency": 1987, 
  "mere": 1988, 
  "7": 1989, 
  "ment": 1990, 
  "bear": 1991, 
  "closed": 1992, 
  "training": 1993, 
  "surprise": 1994, 
  "pace": 1995, 
  "playing": 1996, 
  "proved": 1997, 
  "economically": 1998, 
  "hopes": 1999, 
  "supporters": 2000, 
  "Chávez": 2001, 
  "construction": 2002, 
  "commercial": 2003, 
  "establishment": 2004, 
  "room": 2005, 
  "In@@": 2006, 
  "list": 2007, 
  "commodity": 2008, 
  "necessarily": 2009, 
  "trial": 2010, 
  "Nigeria": 2011, 
  "acts": 2012, 
  "worry": 2013, 
  "controlled": 2014, 
  "dr@@": 2015, 
  "child": 2016, 
  "York": 2017, 
  "ideology": 2018, 
  "father": 2019, 
  "Venezuela": 2020, 
  "dictatorship": 2021, 
  "unprecedented": 2022, 
  "id@@": 2023, 
  "territory": 2024, 
  "ent@@": 2025, 
  "stands": 2026, 
  "tell": 2027, 
  "flow": 2028, 
  "3@@": 2029, 
  "turning": 2030, 
  "uses": 2031, 
  "realize": 2032, 
  "Jewish": 2033, 
  "combination": 2034, 
  "unique": 2035, 
  "die": 2036, 
  "ends": 2037, 
  "mission": 2038, 
  "kept": 2039, 
  "capita": 2040, 
  "trouble": 2041, 
  "carry": 2042, 
  "h": 2043, 
  "ch": 2044, 
  "leaving": 2045, 
  "Nobel": 2046, 
  "18@@": 2047, 
  "resolve": 2048, 
  "enemy": 2049, 
  "suffer": 2050, 
  "minority": 2051, 
  "broader": 2052, 
  "someone": 2053, 
  "remarkable": 2054, 
  "launched": 2055, 
  "event": 2056, 
  "industries": 2057, 
  "soldiers": 2058, 
  "fund": 2059, 
  "senior": 2060, 
  "fallen": 2061, 
  "sell": 2062, 
  "practical": 2063, 
  "manufacturing": 2064, 
  "gr@@": 2065, 
  "nationalist": 2066, 
  "Democratic": 2067, 
  "ling": 2068, 
  "humanity": 2069, 
  "12": 2070, 
  "universities": 2071, 
  "dramatically": 2072, 
  "Cuba": 2073, 
  "implement": 2074, 
  "malaria": 2075, 
  "ed@@": 2076, 
  "summer": 2077, 
  "television": 2078, 
  "attempts": 2079, 
  "survive": 2080, 
  "Christian": 2081, 
  "Islamist": 2082, 
  "primary": 2083, 
  "undermine": 2084, 
  "ian": 2085, 
  "tive": 2086, 
  "concept": 2087, 
  "tic": 2088, 
  "u": 2089, 
  "historic": 2090, 
  "image": 2091, 
  "July": 2092, 
  "Colombia": 2093, 
  "se": 2094, 
  "cr@@": 2095, 
  "represents": 2096, 
  "estimates": 2097, 
  "recognition": 2098, 
  "deeper": 2099, 
  "ants": 2100, 
  "emerge": 2101, 
  "gives": 2102, 
  "ev@@": 2103, 
  "charge": 2104, 
  "proposals": 2105, 
  "starting": 2106, 
  "considerable": 2107, 
  "ph@@": 2108, 
  "critics": 2109, 
  "immigrants": 2110, 
  "pro@@": 2111, 
  "Treasury": 2112, 
  "legislation": 2113, 
  "Merkel": 2114, 
  "engage": 2115, 
  "underlying": 2116, 
  "supplies": 2117, 
  "threatened": 2118, 
  "strategies": 2119, 
  "conventional": 2120, 
  "suffered": 2121, 
  "technical": 2122, 
  "ator": 2123, 
  "field": 2124, 
  "commitments": 2125, 
  "9": 2126, 
  "dealing": 2127, 
  "Musharraf": 2128, 
  "measure": 2129, 
  "av@@": 2130, 
  "ot@@": 2131, 
  "Republican": 2132, 
  "developments": 2133, 
  "genuine": 2134, 
  "institution": 2135, 
  "temporary": 2136, 
  "potentially": 2137, 
  "referendum": 2138, 
  "transformation": 2139, 
  "Al@@": 2140, 
  "experienced": 2141, 
  "choices": 2142, 
  "signed": 2143, 
  "mon@@": 2144, 
  "funding": 2145, 
  "AIDS": 2146, 
  "ered": 2147, 
  "def@@": 2148, 
  "estimated": 2149, 
  "survival": 2150, 
  "urban": 2151, 
  "wider": 2152, 
  "regulations": 2153, 
  "double": 2154, 
  "agriculture": 2155, 
  "bound": 2156, 
  "criticism": 2157, 
  "mechanism": 2158, 
  "losing": 2159, 
  "80": 2160, 
  "observers": 2161, 
  "conference": 2162, 
  "word": 2163, 
  "ked": 2164, 
  "extremely": 2165, 
  "urgent": 2166, 
  "enemies": 2167, 
  "promoting": 2168, 
  "deliver": 2169, 
  "relief": 2170, 
  "mechanisms": 2171, 
  "ve": 2172, 
  "overcome": 2173, 
  "race": 2174, 
  "regardless": 2175, 
  "appeared": 2176, 
  "united": 2177, 
  "complete": 2178, 
  "leads": 2179, 
  "strengthening": 2180, 
  "seven": 2181, 
  "front": 2182, 
  "useful": 2183, 
  "Ch@@": 2184, 
  "federal": 2185, 
  "implications": 2186, 
  "offered": 2187, 
  "generations": 2188, 
  "twentieth": 2189, 
  "backed": 2190, 
  "cycle": 2191, 
  "product": 2192, 
  "regulators": 2193, 
  "practices": 2194, 
  "les": 2195, 
  "ter@@": 2196, 
  "perceived": 2197, 
  "Fatah": 2198, 
  "end@@": 2199, 
  "perspective": 2200, 
  "dependent": 2201, 
  "resulting": 2202, 
  "inevitably": 2203, 
  "mar@@": 2204, 
  "standing": 2205, 
  "alism": 2206, 
  "welcome": 2207, 
  "physical": 2208, 
  "revolutionary": 2209, 
  "accession": 2210, 
  "affect": 2211, 
  "ur@@": 2212, 
  "generate": 2213, 
  "ut@@": 2214, 
  "engaged": 2215, 
  "partner": 2216, 
  "targets": 2217, 
  "nonetheless": 2218, 
  "viable": 2219, 
  "withdrawal": 2220, 
  "paying": 2221, 
  "died": 2222, 
  "Brussels": 2223, 
  "ely": 2224, 
  "fate": 2225, 
  "purpose": 2226, 
  "Parliament": 2227, 
  "confrontation": 2228, 
  "C": 2229, 
  "household": 2230, 
  "criminal": 2231, 
  "journalists": 2232, 
  "Burma": 2233, 
  "barriers": 2234, 
  "shape": 2235, 
  "Mubarak": 2236, 
  "studies": 2237, 
  "id": 2238, 
  "woman": 2239, 
  "contributed": 2240, 
  "declining": 2241, 
  "economist": 2242, 
  "on-@@": 2243, 
  "debates": 2244, 
  "exists": 2245, 
  "begun": 2246, 
  "t-@@": 2247, 
  "ing@@": 2248, 
  "enter": 2249, 
  "gained": 2250, 
  "Vietnam": 2251, 
  "to@@": 2252, 
  "remember": 2253, 
  "borrowing": 2254, 
  "unions": 2255, 
  "debts": 2256, 
  "marked": 2257, 
  "ha@@": 2258, 
  "modernization": 2259, 
  "D": 2260, 
  "viewed": 2261, 
  "proven": 2262, 
  "Democrats": 2263, 
  "pre-@@": 2264, 
  "supporting": 2265, 
  "exactly": 2266, 
  "ma@@": 2267, 
  "grew": 2268, 
  "Euro": 2269, 
  "productive": 2270, 
  "knew": 2271, 
  "keeping": 2272, 
  "aging": 2273, 
  "planet": 2274, 
  "dream": 2275, 
  "Milosevic": 2276, 
  "capable": 2277, 
  "ruled": 2278, 
  "eyes": 2279, 
  "ative": 2280, 
  "Dutch": 2281, 
  "modest": 2282, 
  "incomes": 2283, 
  "weight": 2284, 
  "treated": 2285, 
  "Hussein": 2286, 
  "advance": 2287, 
  "Gulf": 2288, 
  "billions": 2289, 
  "failures": 2290, 
  "University": 2291, 
  "host": 2292, 
  "opposed": 2293, 
  "ver@@": 2294, 
  "polls": 2295, 
  "skills": 2296, 
  "ality": 2297, 
  "a-@@": 2298, 
  "allowing": 2299, 
  "Ahmadinejad": 2300, 
  "centuries": 2301, 
  "ble": 2302, 
  "strike": 2303, 
  "dead": 2304, 
  "corporations": 2305, 
  "160": 2306, 
  "completely": 2307, 
  "Vladimir": 2308, 
  "replaced": 2309, 
  "killing": 2310, 
  "cancer": 2311, 
  "inside": 2312, 
  "izing": 2313, 
  "organized": 2314, 
  "firm": 2315, 
  "described": 2316, 
  "reasonable": 2317, 
  "...": 2318, 
  "transfer": 2319, 
  "confront": 2320, 
  "1991": 2321, 
  "felt": 2322, 
  "rejected": 2323, 
  "dec@@": 2324, 
  "aggressive": 2325, 
  "Mar@@": 2326, 
  "pressures": 2327, 
  "mo@@": 2328, 
  "heavily": 2329, 
  "Kyoto": 2330, 
  "votes": 2331, 
  "Depression": 2332, 
  "strongly": 2333, 
  "holds": 2334, 
  "pushed": 2335, 
  "arguments": 2336, 
  "improving": 2337, 
  "initiatives": 2338, 
  "hours": 2339, 
  "costly": 2340, 
  "linked": 2341, 
  "board": 2342, 
  "homes": 2343, 
  "Thailand": 2344, 
  "weakness": 2345, 
  "analysis": 2346, 
  "August": 2347, 
  "ters": 2348, 
  "black": 2349, 
  "acting": 2350, 
  "70": 2351, 
  "species": 2352, 
  "1960": 2353, 
  "mer@@": 2354, 
  "Chancellor": 2355, 
  "Street": 2356, 
  "elites": 2357, 
  "distribution": 2358, 
  "except": 2359, 
  "saying": 2360, 
  "cl@@": 2361, 
  "ad": 2362, 
  "got": 2363, 
  "bottom": 2364, 
  "adopt": 2365, 
  "willingness": 2366, 
  "Sweden": 2367, 
  "restructuring": 2368, 
  "ize": 2369, 
  "chaos": 2370, 
  "mutual": 2371, 
  "convinced": 2372, 
  "profound": 2373, 
  "discussion": 2374, 
  "ue": 2375, 
  "quarter": 2376, 
  "humanitarian": 2377, 
  "Constitution": 2378, 
  "An@@": 2379, 
  "root": 2380, 
  "dominant": 2381, 
  "objectives": 2382, 
  "figure": 2383, 
  "allows": 2384, 
  "putting": 2385, 
  "dominated": 2386, 
  "pattern": 2387, 
  "typically": 2388, 
  "ial": 2389, 
  "cheap": 2390, 
  "dynamic": 2391, 
  "joint": 2392, 
  "reports": 2393, 
  "diseases": 2394, 
  "suddenly": 2395, 
  "calling": 2396, 
  "ious": 2397, 
  "applied": 2398, 
  "closely": 2399, 
  "Qaeda": 2400, 
  "wish": 2401, 
  "clean": 2402, 
  "publicly": 2403, 
  "surprising": 2404, 
  "replace": 2405, 
  "ators": 2406, 
  "served": 2407, 
  "meaning": 2408, 
  "April": 2409, 
  "establishing": 2410, 
  "refused": 2411, 
  "enable": 2412, 
  "grown": 2413, 
  "quo": 2414, 
  "exposed": 2415, 
  "ish": 2416, 
  "showed": 2417, 
  "peoples": 2418, 
  "figures": 2419, 
  "pro-@@": 2420, 
  "actual": 2421, 
  "Yeltsin": 2422, 
  "aside": 2423, 
  "supposedly": 2424, 
  "cells": 2425, 
  "att@@": 2426, 
  "joined": 2427, 
  "Mao": 2428, 
  "Arabs": 2429, 
  "daily": 2430, 
  "wrote": 2431, 
  "successfully": 2432, 
  "austerity": 2433, 
  "Economic": 2434, 
  "ho@@": 2435, 
  "Ar@@": 2436, 
  "implemented": 2437, 
  "receive": 2438, 
  "assume": 2439, 
  "prison": 2440, 
  "published": 2441, 
  "we@@": 2442, 
  "heads": 2443, 
  "setting": 2444, 
  "presidents": 2445, 
  "existence": 2446, 
  "ite": 2447, 
  "restrictions": 2448, 
  "ins": 2449, 
  "ously": 2450, 
  "correct": 2451, 
  "alize": 2452, 
  "table": 2453, 
  "fewer": 2454, 
  "cash": 2455, 
  "embrace": 2456, 
  "pension": 2457, 
  "attractive": 2458, 
  "planning": 2459, 
  "happening": 2460, 
  "maintaining": 2461, 
  "moved": 2462, 
  "ke": 2463, 
  "reaction": 2464, 
  "northern": 2465, 
  "gold": 2466, 
  "voting": 2467, 
  "priorities": 2468, 
  "alization": 2469, 
  "partnership": 2470, 
  "passed": 2471, 
  "Polish": 2472, 
  "depression": 2473, 
  "Pakistani": 2474, 
  "affected": 2475, 
  "charges": 2476, 
  "educated": 2477, 
  "protectionism": 2478, 
  "compete": 2479, 
  "securities": 2480, 
  "cor@@": 2481, 
  "university": 2482, 
  "deaths": 2483, 
  "protest": 2484, 
  "Chile": 2485, 
  "threaten": 2486, 
  "fortunately": 2487, 
  "Hu": 2488, 
  "sustain": 2489, 
  "aware": 2490, 
  "gu@@": 2491, 
  "18": 2492, 
  "decisive": 2493, 
  "green": 2494, 
  "9@@": 2495, 
  "addressed": 2496, 
  "apply": 2497, 
  "bodies": 2498, 
  "populist": 2499, 
  "ep@@": 2500, 
  "streets": 2501, 
  "consequence": 2502, 
  "fire": 2503, 
  "empire": 2504, 
  "Afghan": 2505, 
  "tools": 2506, 
  "threatening": 2507, 
  "CO2": 2508, 
  "5@@": 2509, 
  "decision-making": 2510, 
  "mistakes": 2511, 
  "believes": 2512, 
  "one-@@": 2513, 
  "demonstrate": 2514, 
  "ak@@": 2515, 
  "patients": 2516, 
  "actors": 2517, 
  "thanks": 2518, 
  "includes": 2519, 
  "granted": 2520, 
  "Germans": 2521, 
  "2011": 2522, 
  "Defense": 2523, 
  "om": 2524, 
  "go@@": 2525, 
  "Committee": 2526, 
  "opened": 2527, 
  "fa@@": 2528, 
  "renewed": 2529, 
  "me@@": 2530, 
  "weakened": 2531, 
  "headed": 2532, 
  "electricity": 2533, 
  "divide": 2534, 
  "package": 2535, 
  "wave": 2536, 
  "expanding": 2537, 
  "1998": 2538, 
  "Chirac": 2539, 
  "amounts": 2540, 
  "geopolitical": 2541, 
  "Shia": 2542, 
  "credible": 2543, 
  "1997": 2544, 
  "professional": 2545, 
  "ru@@": 2546, 
  "accounting": 2547, 
  "discipline": 2548, 
  "intended": 2549, 
  "slowdown": 2550, 
  "percentage": 2551, 
  "causing": 2552, 
  "ber@@": 2553, 
  "managers": 2554, 
  "Paul": 2555, 
  "anniversary": 2556, 
  "1930": 2557, 
  "migration": 2558, 
  "x": 2559, 
  "civilians": 2560, 
  "WTO": 2561, 
  "arrangements": 2562, 
  "Haiti": 2563, 
  "latter": 2564, 
  "stance": 2565, 
  "Romania": 2566, 
  "ov@@": 2567, 
  "ty": 2568, 
  "expressed": 2569, 
  "Sunni": 2570, 
  "opposite": 2571, 
  "bi@@": 2572, 
  "mandate": 2573, 
  "brain": 2574, 
  "Trade": 2575, 
  "February": 2576, 
  "outcomes": 2577, 
  "complicated": 2578, 
  "heard": 2579, 
  "wh@@": 2580, 
  "returns": 2581, 
  "Atlantic": 2582, 
  "emergence": 2583, 
  "min@@": 2584, 
  "um": 2585, 
  "returned": 2586, 
  "f": 2587, 
  "integrated": 2588, 
  "courts": 2589, 
  "issued": 2590, 
  "examples": 2591, 
  "shocks": 2592, 
  "destroy": 2593, 
  "speed": 2594, 
  "TV": 2595, 
  "picture": 2596, 
  "healthy": 2597, 
  "reflected": 2598, 
  "anti@@": 2599, 
  "exception": 2600, 
  "elements": 2601, 
  "mark": 2602, 
  "mortgage": 2603, 
  "encouraging": 2604, 
  "kill": 2605, 
  "ang@@": 2606, 
  "sent": 2607, 
  "openly": 2608, 
  "ses": 2609, 
  "educational": 2610, 
  "expenditures": 2611, 
  "primarily": 2612, 
  "failing": 2613, 
  "computer": 2614, 
  "downturn": 2615, 
  "Berlusconi": 2616, 
  "shareholders": 2617, 
  "ov": 2618, 
  "contracts": 2619, 
  "illegal": 2620, 
  "judges": 2621, 
  "Egyptian": 2622, 
  "shock": 2623, 
  "ud@@": 2624, 
  "ats": 2625, 
  "ry": 2626, 
  "fragile": 2627, 
  "link": 2628, 
  "sea": 2629, 
  "pr@@": 2630, 
  "ill": 2631, 
  "UK": 2632, 
  "difficulties": 2633, 
  "bel@@": 2634, 
  "wonder": 2635, 
  "har@@": 2636, 
  "carried": 2637, 
  "posed": 2638, 
  "Re@@": 2639, 
  "added": 2640, 
  "pushing": 2641, 
  "4@@": 2642, 
  "rescue": 2643, 
  "stay": 2644, 
  "amp": 2645, 
  "condition": 2646, 
  "s-@@": 2647, 
  "fourth": 2648, 
  "genes": 2649, 
  "regarded": 2650, 
  "realistic": 2651, 
  "appreciation": 2652, 
  "essentially": 2653, 
  "remaining": 2654, 
  "7@@": 2655, 
  "ass@@": 2656, 
  "House": 2657, 
  "strengthened": 2658, 
  "adjustment": 2659, 
  "ages": 2660, 
  "rarely": 2661, 
  "equality": 2662, 
  "concerning": 2663, 
  "humans": 2664, 
  "send": 2665, 
  "Assembly": 2666, 
  "inf@@": 2667, 
  "genetic": 2668, 
  "ownership": 2669, 
  "constraints": 2670, 
  "ited": 2671, 
  "plants": 2672, 
  "secret": 2673, 
  "guarantees": 2674, 
  "ban": 2675, 
  "notion": 2676, 
  "Netherlands": 2677, 
  "birth": 2678, 
  "tough": 2679, 
  "Italian": 2680, 
  "stories": 2681, 
  "eliminate": 2682, 
  "series": 2683, 
  "bond": 2684, 
  "reaching": 2685, 
  "ultimate": 2686, 
  "revenue": 2687, 
  "ignore": 2688, 
  "systemic": 2689, 
  "S": 2690, 
  "barely": 2691, 
  "contribution": 2692, 
  "mid-@@": 2693, 
  "animals": 2694, 
  "paper": 2695, 
  "expand": 2696, 
  "missile": 2697, 
  "requirements": 2698, 
  "accountability": 2699, 
  "R": 2700, 
  "encouraged": 2701, 
  "incentive": 2702, 
  "Czech": 2703, 
  "enterprises": 2704, 
  "trends": 2705, 
  "facts": 2706, 
  "liberty": 2707, 
  "Tunisia": 2708, 
  "um@@": 2709, 
  "heavy": 2710, 
  "finding": 2711, 
  "undoubtedly": 2712, 
  "We": 2713, 
  "blood": 2714, 
  "spirit": 2715, 
  "ians": 2716, 
  "ard": 2717, 
  "inflows": 2718, 
  "risky": 2719, 
  "Supreme": 2720, 
  "au@@": 2721, 
  "low-@@": 2722, 
  "engagement": 2723, 
  "appeal": 2724, 
  "mortgages": 2725, 
  "un": 2726, 
  "conduct": 2727, 
  "exercise": 2728, 
  "all@@": 2729, 
  "logic": 2730, 
  "design": 2731, 
  "represented": 2732, 
  "ically": 2733, 
  "te": 2734, 
  "version": 2735, 
  "explanation": 2736, 
  "zero": 2737, 
  "suggested": 2738, 
  "proliferation": 2739, 
  "Stability": 2740, 
  "aries": 2741, 
  "unsustainable": 2742, 
  "employees": 2743, 
  "network": 2744, 
  "material": 2745, 
  "ambitions": 2746, 
  "formal": 2747, 
  "promising": 2748, 
  "ade": 2749, 
  "re": 2750, 
  "equivalent": 2751, 
  "ob@@": 2752, 
  "Bolivia": 2753, 
  "interested": 2754, 
  "voice": 2755, 
  "neighboring": 2756, 
  "ambitious": 2757, 
  "cover": 2758, 
  "pres@@": 2759, 
  "G-8": 2760, 
  "deflation": 2761, 
  "p": 2762, 
  "introduced": 2763, 
  "popularity": 2764, 
  "stress": 2765, 
  "claimed": 2766, 
  "function": 2767, 
  "attitude": 2768, 
  "instruments": 2769, 
  "ents": 2770, 
  "robust": 2771, 
  "achieving": 2772, 
  "notably": 2773, 
  "tu@@": 2774, 
  "managing": 2775, 
  "fin@@": 2776, 
  "apart": 2777, 
  "acceptable": 2778, 
  "d-@@": 2779, 
  "relevant": 2780, 
  "usual": 2781, 
  "executive": 2782, 
  "Syrian": 2783, 
  "south": 2784, 
  "initially": 2785, 
  "gradually": 2786, 
  "ast@@": 2787, 
  "ning": 2788, 
  "abandon": 2789, 
  "badly": 2790, 
  "der": 2791, 
  "lie": 2792, 
  "oned": 2793, 
  "cur@@": 2794, 
  "demanding": 2795, 
  "ship": 2796, 
  "extended": 2797, 
  "previously": 2798, 
  "newly": 2799, 
  "Singapore": 2800, 
  "minds": 2801, 
  "operate": 2802, 
  "included": 2803, 
  "cell": 2804, 
  "ful": 2805, 
  "responses": 2806, 
  "frequently": 2807, 
  "gets": 2808, 
  "war@@": 2809, 
  "internationally": 2810, 
  "It": 2811, 
  "surprisingly": 2812, 
  "manner": 2813, 
  "isolation": 2814, 
  "justified": 2815, 
  "successor": 2816, 
  "conclusion": 2817, 
  "happy": 2818, 
  "budgets": 2819, 
  "read": 2820, 
  "Australia": 2821, 
  "wisdom": 2822, 
  "reconstruction": 2823, 
  "taxpayers": 2824, 
  "acted": 2825, 
  "Con@@": 2826, 
  "fundamentally": 2827, 
  "alike": 2828, 
  "ensuring": 2829, 
  "voted": 2830, 
  "current-account": 2831, 
  "twice": 2832, 
  "leverage": 2833, 
  "back@@": 2834, 
  "coal": 2835, 
  "sexual": 2836, 
  "reconciliation": 2837, 
  "apparent": 2838, 
  "launch": 2839, 
  "reported": 2840, 
  "Netanyahu": 2841, 
  "add": 2842, 
  "und@@": 2843, 
  "fixed": 2844, 
  "od@@": 2845, 
  "twenty-first": 2846, 
  "staff": 2847, 
  "the@@": 2848, 
  "repeatedly": 2849, 
  "F": 2850, 
  "ta@@": 2851, 
  "res@@": 2852, 
  "pain": 2853, 
  "Robert": 2854, 
  "evil": 2855, 
  "contain": 2856, 
  "significance": 2857, 
  "brings": 2858, 
  "ke@@": 2859, 
  "driving": 2860, 
  "door": 2861, 
  "harm": 2862, 
  "resource": 2863, 
  "stopped": 2864, 
  "uncertain": 2865, 
  "resulted": 2866, 
  "nobody": 2867, 
  "politician": 2868, 
  "x@@": 2869, 
  "dly": 2870, 
  "harder": 2871, 
  "accompanied": 2872, 
  "spring": 2873, 
  "justify": 2874, 
  "sen@@": 2875, 
  "producers": 2876, 
  "weakening": 2877, 
  "oc@@": 2878, 
  "exchange-rate": 2879, 
  "drawn": 2880, 
  "ities": 2881, 
  "approaches": 2882, 
  "Yemen": 2883, 
  "ement": 2884, 
  "prefer": 2885, 
  "addressing": 2886, 
  "transparent": 2887, 
  "Yugoslavia": 2888, 
  "winning": 2889, 
  "repression": 2890, 
  "alternatives": 2891, 
  "ned": 2892, 
  "refugees": 2893, 
  "flexibility": 2894, 
  "af@@": 2895, 
  "kinds": 2896, 
  "narrow": 2897, 
  "destroyed": 2898, 
  "painful": 2899, 
  "rational": 2900, 
  "P": 2901, 
  "buying": 2902, 
  "transatlantic": 2903, 
  "diversity": 2904, 
  "Sudan": 2905, 
  "ignored": 2906, 
  "seemingly": 2907, 
  "perfect": 2908, 
  "ay": 2909, 
  "In": 2910, 
  "predict": 2911, 
  "collapsed": 2912, 
  "generated": 2913, 
  "facilities": 2914, 
  "Jordan": 2915, 
  "succeeded": 2916, 
  "reserve": 2917, 
  "street": 2918, 
  "stocks": 2919, 
  "weaker": 2920, 
  "tor@@": 2921, 
  "lived": 2922, 
  "activists": 2923, 
  "accused": 2924, 
  "resort": 2925, 
  "placed": 2926, 
  "creditors": 2927, 
  "advantages": 2928, 
  "negotiate": 2929, 
  "trans@@": 2930, 
  "original": 2931, 
  "Mediterranean": 2932, 
  "God": 2933, 
  "ig@@": 2934, 
  "overwhelming": 2935, 
  "Khamenei": 2936, 
  "bed": 2937, 
  "caught": 2938, 
  "comm@@": 2939, 
  "measured": 2940, 
  "links": 2941, 
  "hence": 2942, 
  "é": 2943, 
  "draw": 2944, 
  "producing": 2945, 
  "bold": 2946, 
  "capabilities": 2947, 
  "participate": 2948, 
  "sing": 2949, 
  "football": 2950, 
  "King": 2951, 
  "ening": 2952, 
  "foundation": 2953, 
  "leaves": 2954, 
  "Hungary": 2955, 
  "presented": 2956, 
  "processes": 2957, 
  "seeing": 2958, 
  "€": 2959, 
  "hand@@": 2960, 
  "advice": 2961, 
  "az@@": 2962, 
  "compensation": 2963, 
  "com@@": 2964, 
  "du@@": 2965, 
  "ist@@": 2966, 
  "attitudes": 2967, 
  "simultaneously": 2968, 
  "crash": 2969, 
  "gi@@": 2970, 
  "initial": 2971, 
  "participants": 2972, 
  "avoided": 2973, 
  "enting": 2974, 
  "ourselves": 2975, 
  "cre@@": 2976, 
  "sts": 2977, 
  "emergency": 2978, 
  "ow@@": 2979, 
  "hundred": 2980, 
  "Laden": 2981, 
  "threatens": 2982, 
  "circle": 2983, 
  "reputation": 2984, 
  "track": 2985, 
  "dependence": 2986, 
  "seeks": 2987, 
  "fi@@": 2988, 
  "Nicolas": 2989, 
  "escape": 2990, 
  "sensitive": 2991, 
  "concrete": 2992, 
  "Iraqis": 2993, 
  "meetings": 2994, 
  "wait": 2995, 
  "ps": 2996, 
  "vi@@": 2997, 
  "poorer": 2998, 
  "Pact": 2999, 
  "iting": 3000, 
  "extremists": 3001, 
  "division": 3002, 
  "People": 3003, 
  "eye": 3004, 
  "surpluses": 3005, 
  "assumed": 3006, 
  "ethical": 3007, 
  "turmoil": 3008, 
  "networks": 3009, 
  "apparently": 3010, 
  "Social": 3011, 
  "effectiveness": 3012, 
  "mal@@": 3013, 
  "alist": 3014, 
  "90": 3015, 
  "ant@@": 3016, 
  "targeted": 3017, 
  "ess": 3018, 
  "enjoy": 3019, 
  "parents": 3020, 
  "St@@": 3021, 
  "statement": 3022, 
  "su@@": 3023, 
  "genocide": 3024, 
  "famous": 3025, 
  "expression": 3026, 
  "search": 3027, 
  "os": 3028, 
  "fueled": 3029, 
  "ze": 3030, 
  "moves": 3031, 
  "released": 3032, 
  "discrimination": 3033, 
  "written": 3034, 
  "del@@": 3035, 
  "responded": 3036, 
  "Hitler": 3037, 
  "sales": 3038, 
  "car@@": 3039, 
  "aw@@": 3040, 
  "memory": 3041, 
  "ati@@": 3042, 
  "plays": 3043, 
  "expense": 3044, 
  "unilateral": 3045, 
  "sooner": 3046, 
  "date": 3047, 
  "block": 3048, 
  "extraordinary": 3049, 
  "lasting": 3050, 
  "wake": 3051, 
  "Portugal": 3052, 
  "bailout": 3053, 
  "revealed": 3054, 
  "Medvedev": 3055, 
  "abandoned": 3056, 
  "purposes": 3057, 
  "enhance": 3058, 
  "abuse": 3059, 
  "helps": 3060, 
  "Mahmoud": 3061, 
  "profit": 3062, 
  "Sea": 3063, 
  "creates": 3064, 
  "Canada": 3065, 
  "co-@@": 3066, 
  "chosen": 3067, 
  "panic": 3068, 
  "ak": 3069, 
  "der@@": 3070, 
  "hunger": 3071, 
  "adequate": 3072, 
  "atmosphere": 3073, 
  "minorities": 3074, 
  "travel": 3075, 
  "ments": 3076, 
  "intellectuals": 3077, 
  "judge": 3078, 
  "absolute": 3079, 
  "obligations": 3080, 
  "representatives": 3081, 
  "te@@": 3082, 
  "ASEAN": 3083, 
  "directed": 3084, 
  "somewhat": 3085, 
  "underway": 3086, 
  "emerging-market": 3087, 
  "identify": 3088, 
  "stood": 3089, 
  "bubbles": 3090, 
  "alizing": 3091, 
  "review": 3092, 
  "Authority": 3093, 
  "devastating": 3094, 
  "proportion": 3095, 
  "discussions": 3096, 
  "mental": 3097, 
  "equ@@": 3098, 
  "surge": 3099, 
  "ics": 3100, 
  "openness": 3101, 
  "er-@@": 3102, 
  "14": 3103, 
  "torture": 3104, 
  "dispute": 3105, 
  "demographic": 3106, 
  "feeling": 3107, 
  "concluded": 3108, 
  "transformed": 3109, 
  "oppose": 3110, 
  "reverse": 3111, 
  "US-@@": 3112, 
  "delivered": 3113, 
  "Thaksin": 3114, 
  "ratio": 3115, 
  "conducted": 3116, 
  "pose": 3117, 
  "inv@@": 3118, 
  "w": 3119, 
  "visible": 3120, 
  "cont@@": 3121, 
  "6@@": 3122, 
  "invested": 3123, 
  "fresh": 3124, 
  "command": 3125, 
  "renminbi": 3126, 
  "combat": 3127, 
  "bas@@": 3128, 
  "istic": 3129, 
  "disarmament": 3130, 
  "de-@@": 3131, 
  "missiles": 3132, 
  "sw@@": 3133, 
  "impressive": 3134, 
  "ding": 3135, 
  "preserve": 3136, 
  "rival": 3137, 
  "ged": 3138, 
  "do@@": 3139, 
  "zed": 3140, 
  "Southeast": 3141, 
  "ened": 3142, 
  "shares": 3143, 
  "selling": 3144, 
  "improvement": 3145, 
  "16": 3146, 
  "os@@": 3147, 
  "marks": 3148, 
  "historically": 3149, 
  "volatility": 3150, 
  "ge@@": 3151, 
  "an-@@": 3152, 
  "realities": 3153, 
  "exp@@": 3154, 
  "expanded": 3155, 
  "weaken": 3156, 
  "stagnation": 3157, 
  "long-@@": 3158, 
  "ay@@": 3159, 
  "scope": 3160, 
  "Stalin": 3161, 
  "flexible": 3162, 
  "earnings": 3163, 
  "500": 3164, 
  "worried": 3165, 
  "bigger": 3166, 
  "catastrophe": 3167, 
  "proper": 3168, 
  "pursued": 3169, 
  "negotiating": 3170, 
  "somehow": 3171, 
  "youth": 3172, 
  "officers": 3173, 
  "evolution": 3174, 
  "protecting": 3175, 
  "27": 3176, 
  "drop": 3177, 
  "tests": 3178, 
  "approval": 3179, 
  "democratization": 3180, 
  "bombing": 3181, 
  "post@@": 3182, 
  "13": 3183, 
  "phase": 3184, 
  "ines": 3185, 
  "fish": 3186, 
  "sharing": 3187, 
  "Darfur": 3188, 
  "divisions": 3189, 
  "reliable": 3190, 
  "treat": 3191, 
  "insist": 3192, 
  "conservatives": 3193, 
  "super@@": 3194, 
  "transport": 3195, 
  "tribal": 3196, 
  "rightly": 3197, 
  "ches": 3198, 
  "Greenspan": 3199, 
  "ang": 3200, 
  "accountable": 3201, 
  "ish@@": 3202, 
  "coordination": 3203, 
  "forever": 3204, 
  "books": 3205, 
  "define": 3206, 
  "donors": 3207, 
  "diverse": 3208, 
  "sions": 3209, 
  "sophisticated": 3210, 
  "falls": 3211, 
  "Per@@": 3212, 
  "raises": 3213, 
  "borrow": 3214, 
  "b": 3215, 
  "ise": 3216, 
  "atory": 3217, 
  "Bosnia": 3218, 
  "stem": 3219, 
  "norms": 3220, 
  "entry": 3221, 
  "imperial": 3222, 
  "coup": 3223, 
  "fought": 3224, 
  "ched": 3225, 
  "grounds": 3226, 
  "iz@@": 3227, 
  "ys": 3228, 
  "arrest": 3229, 
  "learning": 3230, 
  "equipment": 3231, 
  "ah@@": 3232, 
  "rare": 3233, 
  "Sharon": 3234, 
  "seats": 3235, 
  "quick": 3236, 
  "resist": 3237, 
  "privatization": 3238, 
  "large-scale": 3239, 
  "western": 3240, 
  "inflationary": 3241, 
  "regarding": 3242, 
  "weapon": 3243, 
  "bomb": 3244, 
  "sur@@": 3245, 
  "prisoners": 3246, 
  "Roma": 3247, 
  "brutal": 3248, 
  "Zimbabwe": 3249, 
  "pressing": 3250, 
  "recover": 3251, 
  "Financial": 3252, 
  "methods": 3253, 
  "predicted": 3254, 
  "valuable": 3255, 
  "advocates": 3256, 
  "newspapers": 3257, 
  "stated": 3258, 
  "match": 3259, 
  "hostile": 3260, 
  "dangers": 3261, 
  "import": 3262, 
  "Peace": 3263, 
  "0.@@": 3264, 
  "fails": 3265, 
  "excess": 3266, 
  "showing": 3267, 
  "warning": 3268, 
  "Islamists": 3269, 
  "protected": 3270, 
  "stimulate": 3271, 
  "dem@@": 3272, 
  "answers": 3273, 
  "Denmark": 3274, 
  "neo-@@": 3275, 
  "formed": 3276, 
  "centers": 3277, 
  "contributions": 3278, 
  "false": 3279, 
  "broken": 3280, 
  "Alliance": 3281, 
  "phenomenon": 3282, 
  "ching": 3283, 
  "preventing": 3284, 
  "saved": 3285, 
  "retirement": 3286, 
  "repeated": 3287, 
  "Rights": 3288, 
  "governing": 3289, 
  "surveillance": 3290, 
  "200": 3291, 
  "hi@@": 3292, 
  "Army": 3293, 
  "reject": 3294, 
  "slowly": 3295, 
  "tragedy": 3296, 
  "medicine": 3297, 
  "eastern": 3298, 
  "ie@@": 3299, 
  "newspaper": 3300, 
  "Foreign": 3301, 
  "perception": 3302, 
  "bin": 3303, 
  "dominance": 3304, 
  "down@@": 3305, 
  "ca@@": 3306, 
  "Irish": 3307, 
  "users": 3308, 
  "settlements": 3309, 
  "ley": 3310, 
  "hear": 3311, 
  "separate": 3312, 
  "territorial": 3313, 
  "Arafat": 3314, 
  "exit": 3315, 
  "gar@@": 3316, 
  "ented": 3317, 
  "operation": 3318, 
  "pat@@": 3319, 
  "Deng": 3320, 
  "responsibilities": 3321, 
  "tolerance": 3322, 
  "cultures": 3323, 
  "estate": 3324, 
  "cars": 3325, 
  "ites": 3326, 
  "hidden": 3327, 
  "transform": 3328, 
  "fossil": 3329, 
  "financed": 3330, 
  "Protocol": 3331, 
  "urgently": 3332, 
  "ach@@": 3333, 
  "24": 3334, 
  "bit": 3335, 
  "pass": 3336, 
  "rose": 3337, 
  "enti@@": 3338, 
  "materials": 3339, 
  "easing": 3340, 
  "Ab@@": 3341, 
  "doctrine": 3342, 
  "hegemony": 3343, 
  "female": 3344, 
  "investing": 3345, 
  "extend": 3346, 
  "2012": 3347, 
  "realized": 3348, 
  "ped": 3349, 
  "territories": 3350, 
  "involvement": 3351, 
  "experiences": 3352, 
  "amp@@": 3353, 
  "maybe": 3354, 
  "disputes": 3355, 
  "Republicans": 3356, 
  "fuels": 3357, 
  "prevented": 3358, 
  "sites": 3359, 
  "Cyprus": 3360, 
  "reluctant": 3361, 
  "variety": 3362, 
  "tes": 3363, 
  "suicide": 3364, 
  "comparable": 3365, 
  "element": 3366, 
  "17": 3367, 
  "hoped": 3368, 
  "resolved": 3369, 
  "ars": 3370, 
  "waiting": 3371, 
  "OECD": 3372, 
  "DC": 3373, 
  "English": 3374, 
  "alists": 3375, 
  "ice": 3376, 
  "enterprise": 3377, 
  "love": 3378, 
  "subsequent": 3379, 
  "backing": 3380, 
  "emphasis": 3381, 
  "plant": 3382, 
  "careful": 3383, 
  "criteria": 3384, 
  "lawyers": 3385, 
  "aftermath": 3386, 
  "draft": 3387, 
  "island": 3388, 
  "ot": 3389, 
  "colonial": 3390, 
  "unemployed": 3391, 
  "slightly": 3392, 
  "two-@@": 3393, 
  "maintained": 3394, 
  "warned": 3395, 
  "ancient": 3396, 
  "sc@@": 3397, 
  "discuss": 3398, 
  "wealthy": 3399, 
  "doubts": 3400, 
  "victim": 3401, 
  "dignity": 3402, 
  "generals": 3403, 
  "declaration": 3404, 
  "consistent": 3405, 
  "component": 3406, 
  "traditions": 3407, 
  "wi@@": 3408, 
  "computers": 3409, 
  "mor@@": 3410, 
  "ong@@": 3411, 
  "Sh@@": 3412, 
  "scheme": 3413, 
  "tic@@": 3414, 
  "yield": 3415, 
  "hedge": 3416, 
  "ana": 3417, 
  "numerous": 3418, 
  "unrest": 3419, 
  "protectionist": 3420, 
  "ils": 3421, 
  "Northern": 3422, 
  "entrepreneurs": 3423, 
  "mother": 3424, 
  "planned": 3425, 
  "capitalist": 3426, 
  "Bill": 3427, 
  "multi@@": 3428, 
  "aims": 3429, 
  "inadequate": 3430, 
  "types": 3431, 
  "Lula": 3432, 
  "imperative": 3433, 
  "earth": 3434, 
  "ns": 3435, 
  "David": 3436, 
  "sees": 3437, 
  "monitoring": 3438, 
  "optimism": 3439, 
  "og@@": 3440, 
  "Tibet": 3441, 
  "o-@@": 3442, 
  "talking": 3443, 
  "judiciary": 3444, 
  "Senate": 3445, 
  "definition": 3446, 
  "colleagues": 3447, 
  "Plan": 3448, 
  "richest": 3449, 
  "1950": 3450, 
  "superpower": 3451, 
  "ds": 3452, 
  "murder": 3453, 
  "art": 3454, 
  "looked": 3455, 
  "McCain": 3456, 
  "deals": 3457, 
  "minimum": 3458, 
  "mobility": 3459, 
  "fields": 3460, 
  "unwilling": 3461, 
  "ishing": 3462, 
  "grave": 3463, 
  "ls": 3464, 
  "Malaysia": 3465, 
  "via": 3466, 
  "innocent": 3467, 
  "Balkans": 3468, 
  "alive": 3469, 
  "pursuing": 3470, 
  "white": 3471, 
  "consolidation": 3472, 
  "breaking": 3473, 
  "prosperous": 3474, 
  "Qaddafi": 3475, 
  "bureaucracy": 3476, 
  "fe@@": 3477, 
  "sed": 3478, 
  "tens": 3479, 
  "occupied": 3480, 
  "focusing": 3481, 
  "1995": 3482, 
  "monopoly": 3483, 
  "aspects": 3484, 
  "thousand": 3485, 
  "engineering": 3486, 
  "Keynes": 3487, 
  "multi-@@": 3488, 
  "offering": 3489, 
  "communication": 3490, 
  "socialist": 3491, 
  "sets": 3492, 
  "count": 3493, 
  "sufficiently": 3494, 
  "houses": 3495, 
  "triumph": 3496, 
  "forget": 3497, 
  "ir": 3498, 
  "ought": 3499, 
  "voices": 3500, 
  "anger": 3501, 
  "ci@@": 3502, 
  "her@@": 3503, 
  "sl@@": 3504, 
  "joining": 3505, 
  "intense": 3506, 
  "counter@@": 3507, 
  "coordinated": 3508, 
  "grand": 3509, 
  "damaged": 3510, 
  "aggregate": 3511, 
  "tactics": 3512, 
  "ements": 3513, 
  "triggered": 3514, 
  "England": 3515, 
  "tor": 3516, 
  "Reagan": 3517, 
  "arrested": 3518, 
  "so@@": 3519, 
  "concentrated": 3520, 
  "avoiding": 3521, 
  "state-owned": 3522, 
  "ren@@": 3523, 
  "friendly": 3524, 
  "asking": 3525, 
  "dominate": 3526, 
  "write": 3527, 
  "extremism": 3528, 
  "carefully": 3529, 
  "Global": 3530, 
  "sheets": 3531, 
  "sk@@": 3532, 
  "insufficient": 3533, 
  "entered": 3534, 
  "19": 3535, 
  "consistently": 3536, 
  "pride": 3537, 
  "re-election": 3538, 
  "one-third": 3539, 
  "ging": 3540, 
  "car": 3541, 
  "chose": 3542, 
  "discovered": 3543, 
  "right-wing": 3544, 
  "enforcement": 3545, 
  "int@@": 3546, 
  "off@@": 3547, 
  "bankruptcy": 3548, 
  "forgotten": 3549, 
  "des": 3550, 
  "obstacles": 3551, 
  "HI@@": 3552, 
  "ur": 3553, 
  "fit": 3554, 
  "sold": 3555, 
  "agency": 3556, 
  "air@@": 3557, 
  "images": 3558, 
  "retain": 3559, 
  "lacks": 3560, 
  "extra": 3561, 
  "onto": 3562, 
  "transactions": 3563, 
  "achievement": 3564, 
  "interesting": 3565, 
  "stabilize": 3566, 
  "hal@@": 3567, 
  "indicate": 3568, 
  "aspirations": 3569, 
  "constant": 3570, 
  "tool": 3571, 
  "Tony": 3572, 
  "express": 3573, 
  "gl@@": 3574, 
  "intervene": 3575, 
  "speculation": 3576, 
  "fundamentals": 3577, 
  "ory": 3578, 
  "revolutions": 3579, 
  "giant": 3580, 
  "electorate": 3581, 
  "statements": 3582, 
  "attract": 3583, 
  "tics": 3584, 
  "gaining": 3585, 
  "Serbs": 3586, 
  "res": 3587, 
  "explains": 3588, 
  "sion": 3589, 
  "momentum": 3590, 
  "rooted": 3591, 
  "yen": 3592, 
  "edge": 3593, 
  "Doha": 3594, 
  "familiar": 3595, 
  "Sch@@": 3596, 
  "foundations": 3597, 
  "mention": 3598, 
  "75": 3599, 
  "abuses": 3600, 
  "advances": 3601, 
  "prominent": 3602, 
  "attacked": 3603, 
  "Iranians": 3604, 
  "demonstrations": 3605, 
  "innovative": 3606, 
  "distant": 3607, 
  "autonomy": 3608, 
  "negotiated": 3609, 
  "doctors": 3610, 
  "meaningful": 3611, 
  "chances": 3612, 
  "finances": 3613, 
  "acc@@": 3614, 
  "identified": 3615, 
  "eding": 3616, 
  "22": 3617, 
  "pay@@": 3618, 
  "tackle": 3619, 
  "ture": 3620, 
  "donor": 3621, 
  "roots": 3622, 
  "imposing": 3623, 
  "aspect": 3624, 
  "smart": 3625, 
  "1994": 3626, 
  "ton": 3627, 
  "T": 3628, 
  "Spanish": 3629, 
  "speaking": 3630, 
  "demanded": 3631, 
  "acknowledge": 3632, 
  "substantially": 3633, 
  "judgment": 3634, 
  "Nazi": 3635, 
  "NPT": 3636, 
  "trip": 3637, 
  "hour": 3638, 
  "E": 3639, 
  "protesters": 3640, 
  "adapt": 3641, 
  "civilization": 3642, 
  "confronted": 3643, 
  "Mon@@": 3644, 
  "med": 3645, 
  "Austria": 3646, 
  "earthquake": 3647, 
  "gen@@": 3648, 
  "Jerusalem": 3649, 
  "balanced": 3650, 
  "Ali": 3651, 
  "stakes": 3652, 
  "argues": 3653, 
  "foremost": 3654, 
  "accomplished": 3655, 
  "ery": 3656, 
  "globally": 3657, 
  "analysts": 3658, 
  "Summit": 3659, 
  "benefited": 3660, 
  "integrity": 3661, 
  "Br@@": 3662, 
  "classes": 3663, 
  "watch": 3664, 
  "ever-@@": 3665, 
  "communications": 3666, 
  "Pacific": 3667, 
  "parallel": 3668, 
  "periphery": 3669, 
  "migrants": 3670, 
  "couple": 3671, 
  "naturally": 3672, 
  "release": 3673, 
  "ths": 3674, 
  "deny": 3675, 
  "judicial": 3676, 
  "removed": 3677, 
  "academic": 3678, 
  "waste": 3679, 
  "ash": 3680, 
  "honest": 3681, 
  "wall": 3682, 
  "admit": 3683, 
  "dictator": 3684, 
  "els": 3685, 
  "inspired": 3686, 
  "League": 3687, 
  "interventions": 3688, 
  "pragmatic": 3689, 
  "functioning": 3690, 
  "sentiment": 3691, 
  "successes": 3692, 
  "village": 3693, 
  "involving": 3694, 
  "administrative": 3695, 
  "isolated": 3696, 
  "refuse": 3697, 
  "Pro@@": 3698, 
  "Board": 3699, 
  "FDI": 3700, 
  "Jacques": 3701, 
  "inefficient": 3702, 
  "Com@@": 3703, 
  "operating": 3704, 
  "refusal": 3705, 
  "fairly": 3706, 
  "ran": 3707, 
  "blamed": 3708, 
  "Mexican": 3709, 
  "instrument": 3710, 
  "prepare": 3711, 
  "runs": 3712, 
  "Brown": 3713, 
  "older": 3714, 
  "puts": 3715, 
  "Square": 3716, 
  "punishment": 3717, 
  "19@@": 3718, 
  "inability": 3719, 
  "honor": 3720, 
  "guaranteed": 3721, 
  "involve": 3722, 
  "ce": 3723, 
  "ing-@@": 3724, 
  "greatly": 3725, 
  "contract": 3726, 
  "mixed": 3727, 
  "20@@": 3728, 
  "No": 3729, 
  "recognizing": 3730, 
  "ving": 3731, 
  "halt": 3732, 
  "Myanmar": 3733, 
  "est@@": 3734, 
  "annually": 3735, 
  "Holocaust": 3736, 
  "disastrous": 3737, 
  "principal": 3738, 
  "researchers": 3739, 
  "hot": 3740, 
  "delay": 3741, 
  "understandable": 3742, 
  "pursuit": 3743, 
  "unstable": 3744, 
  "suspicion": 3745, 
  "rejection": 3746, 
  "yields": 3747, 
  "bloody": 3748, 
  "properly": 3749, 
  "declined": 3750, 
  "challenging": 3751, 
  "ker": 3752, 
  "legislative": 3753, 
  "flawed": 3754, 
  "surface": 3755, 
  "feared": 3756, 
  "expertise": 3757, 
  "courage": 3758, 
  "1967": 3759, 
  "acceptance": 3760, 
  "constitute": 3761, 
  "wife": 3762, 
  "enc@@": 3763, 
  "Bernanke": 3764, 
  "bureaucratic": 3765, 
  "finds": 3766, 
  "Th@@": 3767, 
  "discussed": 3768, 
  "Chairman": 3769, 
  "albeit": 3770, 
  "Constitutional": 3771, 
  "fellow": 3772, 
  "implementing": 3773, 
  "cross-border": 3774, 
  "Lebanese": 3775, 
  "imp@@": 3776, 
  "approved": 3777, 
  "ships": 3778, 
  "influential": 3779, 
  "zing": 3780, 
  "withdraw": 3781, 
  "imply": 3782, 
  "rel@@": 3783, 
  "1996": 3784, 
  "pur@@": 3785, 
  "sensible": 3786, 
  "intention": 3787, 
  "fr@@": 3788, 
  "trials": 3789, 
  "ades": 3790, 
  "sex": 3791, 
  "35": 3792, 
  "difficulty": 3793, 
  "mainstream": 3794, 
  "representative": 3795, 
  "prof@@": 3796, 
  "facto": 3797, 
  "undermining": 3798, 
  "bill": 3799, 
  "coherent": 3800, 
  "lay": 3801, 
  "silence": 3802, 
  "comparison": 3803, 
  "instance": 3804, 
  "commit": 3805, 
  "heat": 3806, 
  "greenhouse": 3807, 
  "supervision": 3808, 
  "17@@": 3809, 
  "il": 3810, 
  "adopting": 3811, 
  "shifted": 3812, 
  "writing": 3813, 
  "richer": 3814, 
  "ass": 3815, 
  "sphere": 3816, 
  "reg@@": 3817, 
  "expenditure": 3818, 
  "looming": 3819, 
  "ban@@": 3820, 
  "propaganda": 3821, 
  "intentions": 3822, 
  "generous": 3823, 
  "strikes": 3824, 
  "contemporary": 3825, 
  "DPJ": 3826, 
  "situations": 3827, 
  "Baghdad": 3828, 
  "improvements": 3829, 
  "unfair": 3830, 
  "owed": 3831, 
  "state-@@": 3832, 
  "poses": 3833, 
  "White": 3834, 
  "ath@@": 3835, 
  "documents": 3836, 
  "ah": 3837, 
  "turns": 3838, 
  "dark": 3839, 
  "Africans": 3840, 
  "atic": 3841, 
  "shaped": 3842, 
  "log@@": 3843, 
  "counter": 3844, 
  "assessment": 3845, 
  "ve@@": 3846, 
  "vis@@": 3847, 
  "Catholic": 3848, 
  "two-thirds": 3849, 
  "north": 3850, 
  "appointed": 3851, 
  "nowhere": 3852, 
  "character": 3853, 
  "leg@@": 3854, 
  "ping": 3855, 
  "ste@@": 3856, 
  "-LSB-": 3857, 
  "features": 3858, 
  "-RSB-": 3859, 
  "Gu@@": 3860, 
  "defending": 3861, 
  "defeated": 3862, 
  "Belarus": 3863, 
  "undermined": 3864, 
  "Department": 3865, 
  "procedures": 3866, 
  "liberals": 3867, 
  "Indians": 3868, 
  "shifting": 3869, 
  "functions": 3870, 
  "convince": 3871, 
  "founded": 3872, 
  "philosophy": 3873, 
  "Su@@": 3874, 
  "ms": 3875, 
  "patterns": 3876, 
  "dilemma": 3877, 
  "respected": 3878, 
  "solid": 3879, 
  "ity-@@": 3880, 
  "Spring": 3881, 
  "unknown": 3882, 
  "unacceptable": 3883, 
  "la": 3884, 
  "implementation": 3885, 
  "Israeli-Palestinian": 3886, 
  "ile": 3887, 
  "explained": 3888, 
  "visited": 3889, 
  "kes": 3890, 
  "socialism": 3891, 
  "ges": 3892, 
  "Justice": 3893, 
  "conf@@": 3894, 
  "struck": 3895, 
  "chain": 3896, 
  "counter-@@": 3897, 
  "provisions": 3898, 
  "receiving": 3899, 
  "achievements": 3900, 
  "1992": 3901, 
  "constructive": 3902, 
  "Rome": 3903, 
  "tly": 3904, 
  "weaknesses": 3905, 
  "forests": 3906, 
  "peak": 3907, 
  "ology": 3908, 
  "nineteenth": 3909, 
  "ain@@": 3910, 
  "Human": 3911, 
  "ideal": 3912, 
  "experiencing": 3913, 
  "missing": 3914, 
  "perform": 3915, 
  "signal": 3916, 
  "competing": 3917, 
  "reductions": 3918, 
  "contained": 3919, 
  "Kenya": 3920, 
  "deserve": 3921, 
  "eliminated": 3922, 
  "300": 3923, 
  "denied": 3924, 
  "enabled": 3925, 
  "noted": 3926, 
  "Lisbon": 3927, 
  "ational": 3928, 
  "relationships": 3929, 
  "guide": 3930, 
  "interest-rate": 3931, 
  "connected": 3932, 
  "night": 3933, 
  "severely": 3934, 
  "desperate": 3935, 
  "Le@@": 3936, 
  "criticized": 3937, 
  "transfers": 3938, 
  "AKP": 3939, 
  "foreigners": 3940, 
  "half-@@": 3941, 
  "younger": 3942, 
  "wor@@": 3943, 
  "volatile": 3944, 
  "sustainability": 3945, 
  "traditionally": 3946, 
  "logical": 3947, 
  "De@@": 3948, 
  "regular": 3949, 
  "friend": 3950, 
  "twenty": 3951, 
  "Web": 3952, 
  "taxation": 3953, 
  "striking": 3954, 
  "spoke": 3955, 
  "prior": 3956, 
  "creative": 3957, 
  "worrying": 3958, 
  "owned": 3959, 
  "predictable": 3960, 
  "neighbor": 3961, 
  "ancy": 3962, 
  "shot": 3963, 
  "200@@": 3964, 
  "tends": 3965, 
  "ironically": 3966, 
  "owners": 3967, 
  "mounting": 3968, 
  "grows": 3969, 
  "charged": 3970, 
  "ack": 3971, 
  "fo@@": 3972, 
  "condemned": 3973, 
  "blow": 3974, 
  "commentators": 3975, 
  "alliances": 3976, 
  "exploit": 3977, 
  "regularly": 3978, 
  "Kuchma": 3979, 
  "euro-zone": 3980, 
  "wr@@": 3981, 
  "bureaucrats": 3982, 
  "fu@@": 3983, 
  "Administration": 3984, 
  "Energy": 3985, 
  "uni@@": 3986, 
  "pol@@": 3987, 
  "considerations": 3988, 
  "tendency": 3989, 
  "returning": 3990, 
  "rating": 3991, 
  "resolving": 3992, 
  "sudden": 3993, 
  "bailouts": 3994, 
  "ances": 3995, 
  "roads": 3996, 
  "Ex@@": 3997, 
  "worthy": 3998, 
  "player": 3999, 
  "commodities": 4000, 
  "governed": 4001, 
  "obtain": 4002, 
  "toxic": 4003, 
  "cer@@": 4004, 
  "firmly": 4005, 
  "oning": 4006, 
  "depreciation": 4007, 
  "DNA": 4008, 
  "boundaries": 4009, 
  "land@@": 4010, 
  "comp@@": 4011, 
  "burdens": 4012, 
  "follows": 4013, 
  "entering": 4014, 
  "embraced": 4015, 
  "cas@@": 4016, 
  "ore": 4017, 
  "rage": 4018, 
  "hard-@@": 4019, 
  "Par@@": 4020, 
  "bid": 4021, 
  "Schröder": 4022, 
  "Gorbachev": 4023, 
  "reinforced": 4024, 
  "differently": 4025, 
  "vicious": 4026, 
  "dynamism": 4027, 
  "vers": 4028, 
  "obstacle": 4029, 
  "indigenous": 4030, 
  "breakthrough": 4031, 
  "cu@@": 4032, 
  "article": 4033, 
  "enhanced": 4034, 
  "outlook": 4035, 
  "gradual": 4036, 
  "antly": 4037, 
  "controversial": 4038, 
  "claiming": 4039, 
  "engine": 4040, 
  "innovations": 4041, 
  "declines": 4042, 
  "tur@@": 4043, 
  "stick": 4044, 
  "Gaulle": 4045, 
  "whenever": 4046, 
  "devaluation": 4047, 
  "demise": 4048, 
  "reliance": 4049, 
  "sha@@": 4050, 
  "As": 4051, 
  "tied": 4052, 
  "tasks": 4053, 
  "insurgency": 4054, 
  "decent": 4055, 
  "1990s": 4056, 
  "arguing": 4057, 
  "Angela": 4058, 
  "understands": 4059, 
  "sit": 4060, 
  "speculative": 4061, 
  "bar@@": 4062, 
  "confident": 4063, 
  "promoted": 4064, 
  "contr@@": 4065, 
  "des@@": 4066, 
  "mood": 4067, 
  "0-@@": 4068, 
  "map": 4069, 
  "serves": 4070, 
  "trigger": 4071, 
  "Abdullah": 4072, 
  "Harvard": 4073, 
  "1945": 4074, 
  "animal": 4075, 
  "renewable": 4076, 
  "midst": 4077, 
  "que": 4078, 
  "mil@@": 4079, 
  "absent": 4080, 
  "actively": 4081, 
  "surrounding": 4082, 
  "factions": 4083, 
  "serving": 4084, 
  "fashion": 4085, 
  "employers": 4086, 
  "gender": 4087, 
  "shadow": 4088, 
  "desirable": 4089, 
  "plausible": 4090, 
  "software": 4091, 
  "meltdown": 4092, 
  "year-old": 4093, 
  "statistics": 4094, 
  "orders": 4095, 
  "evident": 4096, 
  "director": 4097, 
  "tively": 4098, 
  "uranium": 4099, 
  "Castro": 4100, 
  "iled": 4101, 
  "undertaken": 4102, 
  "normally": 4103, 
  "accident": 4104, 
  "impoverished": 4105, 
  "damaging": 4106, 
  "Uribe": 4107, 
  "informal": 4108, 
  "Microsoft": 4109, 
  "ath": 4110, 
  "involves": 4111, 
  "recall": 4112, 
  "provision": 4113, 
  "distinct": 4114, 
  "ire": 4115, 
  "aff@@": 4116, 
  "Convention": 4117, 
  "blind": 4118, 
  "soaring": 4119, 
  "informed": 4120, 
  "site": 4121, 
  "Ghana": 4122, 
  "freely": 4123, 
  "cast": 4124, 
  "selection": 4125, 
  "persistent": 4126, 
  "silent": 4127, 
  "fied": 4128, 
  "eventual": 4129, 
  "15@@": 4130, 
  "struggling": 4131, 
  "Agency": 4132, 
  "typical": 4133, 
  "appreciate": 4134, 
  "ess@@": 4135, 
  "consideration": 4136, 
  "Cairo": 4137, 
  "committee": 4138, 
  "enrichment": 4139, 
  "nine": 4140, 
  "Mr.": 4141, 
  "8@@": 4142, 
  "destructive": 4143, 
  "0@@": 4144, 
  "lend": 4145, 
  "likelihood": 4146, 
  "introduce": 4147, 
  "storm": 4148, 
  "thinks": 4149, 
  "favorable": 4150, 
  "deregulation": 4151, 
  "scene": 4152, 
  "private-sector": 4153, 
  "govern": 4154, 
  "girls": 4155, 
  "quantitative": 4156, 
  "tional": 4157, 
  "arise": 4158, 
  "Prize": 4159, 
  "Socialist": 4160, 
  "bled": 4161, 
  "conclude": 4162, 
  "integrate": 4163, 
  "unpopular": 4164, 
  "multiple": 4165, 
  "lands": 4166, 
  "ani": 4167, 
  "lim@@": 4168, 
  "ders": 4169, 
  "mobilize": 4170, 
  "considering": 4171, 
  "23": 4172, 
  "bridge": 4173, 
  "EMU": 4174, 
  "quest": 4175, 
  "ill-@@": 4176, 
  "ver": 4177, 
  "fill": 4178, 
  "worries": 4179, 
  "assuming": 4180, 
  "tered": 4181, 
  "generating": 4182, 
  "keeps": 4183, 
  "cap@@": 4184, 
  "ear@@": 4185, 
  "lowest": 4186, 
  "drawing": 4187, 
  "bul@@": 4188, 
  "extensive": 4189, 
  "spreading": 4190, 
  "error": 4191, 
  "morality": 4192, 
  "applies": 4193, 
  "passing": 4194, 
  "hom@@": 4195, 
  "taught": 4196, 
  "reversed": 4197, 
  "bling": 4198, 
  "Chen": 4199, 
  "postcommunist": 4200, 
  "virtual": 4201, 
  "supports": 4202, 
  "Caucasus": 4203, 
  "ranks": 4204, 
  "fine": 4205, 
  "Philippines": 4206, 
  "euros": 4207, 
  "magnitude": 4208, 
  "duty": 4209, 
  "tiny": 4210, 
  "inter-@@": 4211, 
  "convergence": 4212, 
  "sec@@": 4213, 
  "hu@@": 4214, 
  "sight": 4215, 
  "Pope": 4216, 
  "Assad": 4217, 
  "Asians": 4218, 
  "immense": 4219, 
  "irrational": 4220, 
  "terrible": 4221, 
  "doomed": 4222, 
  "Third": 4223, 
  "farm": 4224, 
  "ental": 4225, 
  "ex-@@": 4226, 
  "ra": 4227, 
  "balances": 4228, 
  "fac@@": 4229, 
  "form@@": 4230, 
  "purchase": 4231, 
  "dire": 4232, 
  "ane": 4233, 
  "sub-prime": 4234, 
  "Romney": 4235, 
  "proof": 4236, 
  "offensive": 4237, 
  "can@@": 4238, 
  "M": 4239, 
  "survey": 4240, 
  "constrained": 4241, 
  "acknowledged": 4242, 
  "everybody": 4243, 
  "2015": 4244, 
  "aud@@": 4245, 
  "earn": 4246, 
  "memories": 4247, 
  "sting": 4248, 
  "counterparts": 4249, 
  "convincing": 4250, 
  "al-Qaeda": 4251, 
  "fold": 4252, 
  "por@@": 4253, 
  "i.e.": 4254, 
  "motivated": 4255, 
  "Chechnya": 4256, 
  "content": 4257, 
  "bitter": 4258, 
  "uc@@": 4259, 
  "produces": 4260, 
  "witnessed": 4261, 
  "bre@@": 4262, 
  "troubled": 4263, 
  "binding": 4264, 
  "begins": 4265, 
  "raw": 4266, 
  "defining": 4267, 
  "Earth": 4268, 
  "minor": 4269, 
  "ordered": 4270, 
  "stabilization": 4271, 
  "arch@@": 4272, 
  "sub-Saharan": 4273, 
  "longer-term": 4274, 
  "estimate": 4275, 
  "displaced": 4276, 
  "sel@@": 4277, 
  "futures": 4278, 
  "16@@": 4279, 
  "periods": 4280, 
  "connection": 4281, 
  "weather": 4282, 
  "film": 4283, 
  "hum@@": 4284, 
  "gra@@": 4285, 
  "tariffs": 4286, 
  "method": 4287, 
  "sole": 4288, 
  "Belgium": 4289, 
  "kers": 4290, 
  "hatred": 4291, 
  "male": 4292, 
  "revive": 4293, 
  "feed": 4294, 
  "oriented": 4295, 
  "surprised": 4296, 
  "imported": 4297, 
  "ency": 4298, 
  "sake": 4299, 
  "cul@@": 4300, 
  "investor": 4301, 
  "telling": 4302, 
  "background": 4303, 
  "emotional": 4304, 
  "deterrence": 4305, 
  "details": 4306, 
  "He@@": 4307, 
  "exposure": 4308, 
  "feelings": 4309, 
  "Community": 4310, 
  "populism": 4311, 
  "post": 4312, 
  "Kurds": 4313, 
  "En@@": 4314, 
  "hy@@": 4315, 
  "nu@@": 4316, 
  "precedent": 4317, 
  "desperately": 4318, 
  "pointed": 4319, 
  "insul@@": 4320, 
  "under-@@": 4321, 
  "che@@": 4322, 
  "existed": 4323, 
  "targeting": 4324, 
  "engineers": 4325, 
  "veto": 4326, 
  "excluded": 4327, 
  "Policy": 4328, 
  "-based": 4329, 
  "fix": 4330, 
  "persuade": 4331, 
  "ef@@": 4332, 
  "don@@": 4333, 
  "eng@@": 4334, 
  "dozens": 4335, 
  "Shanghai": 4336, 
  "outs": 4337, 
  "Madrid": 4338, 
  "Agreement": 4339, 
  "repeat": 4340, 
  "O": 4341, 
  "representing": 4342, 
  "settle": 4343, 
  "lowering": 4344, 
  "Conference": 4345, 
  "ured": 4346, 
  "strongest": 4347, 
  "ta": 4348, 
  "starts": 4349, 
  "ann@@": 4350, 
  "1.5": 4351, 
  "lam@@": 4352, 
  "Obasanjo": 4353, 
  "ni@@": 4354, 
  "patient": 4355, 
  "Gazprom": 4356, 
  "investigation": 4357, 
  "student": 4358, 
  "beings": 4359, 
  "downward": 4360, 
  "pen@@": 4361, 
  "lenders": 4362, 
  "traders": 4363, 
  "theories": 4364, 
  "prevail": 4365, 
  "uring": 4366, 
  "index": 4367, 
  "signals": 4368, 
  "medium": 4369, 
  "solved": 4370, 
  "skilled": 4371, 
  "conviction": 4372, 
  "compelling": 4373, 
  "hostility": 4374, 
  "oper@@": 4375, 
  "restoring": 4376, 
  "winners": 4377, 
  "professionals": 4378, 
  "biological": 4379, 
  "ease": 4380, 
  "restored": 4381, 
  "recognizes": 4382, 
  "wa@@": 4383, 
  "parliaments": 4384, 
  "disappeared": 4385, 
  "near-@@": 4386, 
  "beliefs": 4387, 
  "nominal": 4388, 
  "Tokyo": 4389, 
  "concessions": 4390, 
  "tragic": 4391, 
  "deepening": 4392, 
  "sadly": 4393, 
  "proud": 4394, 
  "choosing": 4395, 
  "oll@@": 4396, 
  "disorder": 4397, 
  "cope": 4398, 
  "rever@@": 4399, 
  "loyalty": 4400, 
  "public-@@": 4401, 
  "alongside": 4402, 
  "controlling": 4403, 
  "confined": 4404, 
  "solely": 4405, 
  "criminals": 4406, 
  "eager": 4407, 
  "fired": 4408, 
  "essence": 4409, 
  "foreign-policy": 4410, 
  "strange": 4411, 
  "globalized": 4412, 
  "ished": 4413, 
  "ap": 4414, 
  "st": 4415, 
  "eliminating": 4416, 
  "2020": 4417, 
  "capture": 4418, 
  "tion@@": 4419, 
  "assault": 4420, 
  "holders": 4421, 
  "limiting": 4422, 
  "Mugabe": 4423, 
  "grasp": 4424, 
  "advocate": 4425, 
  "destroying": 4426, 
  "mat@@": 4427, 
  "sal@@": 4428, 
  "safer": 4429, 
  "ext@@": 4430, 
  "forest": 4431, 
  "dynamics": 4432, 
  "declare": 4433, 
  "route": 4434, 
  "tension": 4435, 
  "outright": 4436, 
  "plus": 4437, 
  "aling": 4438, 
  "combine": 4439, 
  "in-@@": 4440, 
  "interpretation": 4441, 
  "solar": 4442, 
  "cheaper": 4443, 
  "ell@@": 4444, 
  "peacekeeping": 4445, 
  "illness": 4446, 
  "accurate": 4447, 
  "diminished": 4448, 
  "rep@@": 4449, 
  "Olympic": 4450, 
  "break@@": 4451, 
  "succession": 4452, 
  "schemes": 4453, 
  "denial": 4454, 
  "capability": 4455, 
  "1.@@": 4456, 
  "anywhere": 4457, 
  "ring": 4458, 
  "contributing": 4459, 
  "regulated": 4460, 
  "offset": 4461, 
  "founding": 4462, 
  "Charles": 4463, 
  "HIV": 4464, 
  "adoption": 4465, 
  "wind": 4466, 
  "entitled": 4467, 
  "ballot": 4468, 
  "vacuum": 4469, 
  "hol@@": 4470, 
  "far-reaching": 4471, 
  "harsh": 4472, 
  "disasters": 4473, 
  "vulnerability": 4474, 
  "non@@": 4475, 
  "Church": 4476, 
  "forcing": 4477, 
  "explosion": 4478, 
  "poorly": 4479, 
  "free-trade": 4480, 
  "ranging": 4481, 
  "predecessor": 4482, 
  "Bo@@": 4483, 
  "atively": 4484, 
  "furthermore": 4485, 
  "This": 4486, 
  "ame": 4487, 
  "Brazilian": 4488, 
  "completed": 4489, 
  "Gates": 4490, 
  "th-@@": 4491, 
  "racial": 4492, 
  "Thai": 4493, 
  "psychological": 4494, 
  "purely": 4495, 
  "bur@@": 4496, 
  "sky": 4497, 
  "sending": 4498, 
  "mortality": 4499, 
  "camps": 4500, 
  "accepting": 4501, 
  "unified": 4502, 
  "tide": 4503, 
  "foreseeable": 4504, 
  "mobile": 4505, 
  "Switzerland": 4506, 
  "ight": 4507, 
  "biology": 4508, 
  "work@@": 4509, 
  "Car@@": 4510, 
  "calculations": 4511, 
  "reinforce": 4512, 
  "sto@@": 4513, 
  "insecurity": 4514, 
  "confronting": 4515, 
  "ets": 4516, 
  "squ@@": 4517, 
  "ten@@": 4518, 
  "invited": 4519, 
  "loan": 4520, 
  "favored": 4521, 
  "k-@@": 4522, 
  "fairness": 4523, 
  "fulfill": 4524, 
  "shifts": 4525, 
  "timing": 4526, 
  "Shi@@": 4527, 
  "distributed": 4528, 
  "describe": 4529, 
  "stabilizing": 4530, 
  "implied": 4531, 
  "ure": 4532, 
  "pipeline": 4533, 
  "inc@@": 4534, 
  "testing": 4535, 
  "tri@@": 4536, 
  "tically": 4537, 
  "diplomats": 4538, 
  "trained": 4539, 
  "Serbian": 4540, 
  "note": 4541, 
  "competitors": 4542, 
  "conc@@": 4543, 
  "dimension": 4544, 
  "5-@@": 4545, 
  "determination": 4546, 
  "broke": 4547, 
  "liberation": 4548, 
  "projected": 4549, 
  "reduces": 4550, 
  "manipulation": 4551, 
  "Solidarity": 4552, 
  "ib@@": 4553, 
  "poised": 4554, 
  "ineffective": 4555, 
  "doubled": 4556, 
  "knowing": 4557, 
  "symbol": 4558, 
  "arrived": 4559, 
  "followers": 4560, 
  "games": 4561, 
  "survived": 4562, 
  "tomorrow": 4563, 
  "steel": 4564, 
  "alleged": 4565, 
  "explicitly": 4566, 
  "watching": 4567, 
  "seat": 4568, 
  "mod@@": 4569, 
  "suspect": 4570, 
  "demonstrates": 4571, 
  "Mikhail": 4572, 
  "containment": 4573, 
  "steady": 4574, 
  "Cup": 4575, 
  "association": 4576, 
  "What": 4577, 
  "underground": 4578, 
  "characterized": 4579, 
  "unite": 4580, 
  "Baltic": 4581, 
  "foster": 4582, 
  "anxiety": 4583, 
  "purchasing": 4584, 
  "behave": 4585, 
  "guilty": 4586, 
  "Leader": 4587, 
  "transnational": 4588, 
  "villages": 4589, 
  "short@@": 4590, 
  "impression": 4591, 
  "dismissed": 4592, 
  "code": 4593, 
  "tsunami": 4594, 
  "ya": 4595, 
  "keen": 4596, 
  "locked": 4597, 
  "aged": 4598, 
  "gross": 4599, 
  "box": 4600, 
  "formula": 4601, 
  "secondary": 4602, 
  "Sri": 4603, 
  "deb@@": 4604, 
  "ishes": 4605, 
  "scenarios": 4606, 
  "pun@@": 4607, 
  "soared": 4608, 
  "paradox": 4609, 
  "GNP": 4610, 
  "half-century": 4611, 
  "enjoyed": 4612, 
  "prevailing": 4613, 
  "Co@@": 4614, 
  "tim@@": 4615, 
  "waves": 4616, 
  "physics": 4617, 
  "reference": 4618, 
  "Millennium": 4619, 
  "pollution": 4620, 
  "revival": 4621, 
  "Un@@": 4622, 
  "dropped": 4623, 
  "named": 4624, 
  "exclusively": 4625, 
  "ju@@": 4626, 
  "Brothers": 4627, 
  "customers": 4628, 
  "cooperative": 4629, 
  "stems": 4630, 
  "introduction": 4631, 
  "undertake": 4632, 
  "split": 4633, 
  "bet": 4634, 
  "ign@@": 4635, 
  "dying": 4636, 
  "makers": 4637, 
  "ank": 4638, 
  "discourse": 4639, 
  "free-market": 4640, 
  "seized": 4641, 
  "ong": 4642, 
  "ill@@": 4643, 
  "cabinet": 4644, 
  "ward": 4645, 
  "tro@@": 4646, 
  "winner": 4647, 
  "residents": 4648, 
  "1979": 4649, 
  "countless": 4650, 
  "commission": 4651, 
  "reporting": 4652, 
  "sectarian": 4653, 
  "emerges": 4654, 
  "occurs": 4655, 
  "check": 4656, 
  "pe": 4657, 
  "handed": 4658, 
  "Peru": 4659, 
  "piece": 4660, 
  "guard": 4661, 
  "thr@@": 4662, 
  "sum": 4663, 
  "shut": 4664, 
  "performed": 4665, 
  "Royal": 4666, 
  "qualified": 4667, 
  "formation": 4668, 
  "captured": 4669, 
  "narrative": 4670, 
  "skepticism": 4671, 
  "accelerate": 4672, 
  "facilitate": 4673, 
  "ff@@": 4674, 
  "suffers": 4675, 
  "Di@@": 4676, 
  "flight": 4677, 
  "Col@@": 4678, 
  "ums": 4679, 
  "Qu@@": 4680, 
  "Prague": 4681, 
  "adding": 4682, 
  "punished": 4683, 
  "arguably": 4684, 
  "dictators": 4685, 
  "ination": 4686, 
  "Yushchenko": 4687, 
  "bloc": 4688, 
  "namely": 4689, 
  "awareness": 4690, 
  "peasants": 4691, 
  "r": 4692, 
  "slower": 4693, 
  "secured": 4694, 
  "coverage": 4695, 
  "gene": 4696, 
  "assess": 4697, 
  "employed": 4698, 
  "ase": 4699, 
  "stat@@": 4700, 
  "law@@": 4701, 
  "disappear": 4702, 
  "Somalia": 4703, 
  "feature": 4704, 
  "ina": 4705, 
  "-led": 4706, 
  "concentration": 4707, 
  "preparing": 4708, 
  "itation": 4709, 
  "fur@@": 4710, 
  "explicit": 4711, 
  "150": 4712, 
  "permit": 4713, 
  "reformers": 4714, 
  "confirmed": 4715, 
  "province": 4716, 
  "fil@@": 4717, 
  "interference": 4718, 
  "skeptics": 4719, 
  "exporters": 4720, 
  "plenty": 4721, 
  "representation": 4722, 
  "hurt": 4723, 
  "request": 4724, 
  "blocked": 4725, 
  "brief": 4726, 
  "ots": 4727, 
  "poll": 4728, 
  "tors": 4729, 
  "steadily": 4730, 
  "complexity": 4731, 
  "yed": 4732, 
  "bombs": 4733, 
  "warfare": 4734, 
  "second-@@": 4735, 
  "rebuild": 4736, 
  "Ad@@": 4737, 
  "Ne@@": 4738, 
  "PLO": 4739, 
  "our@@": 4740, 
  "Chicago": 4741, 
  "ast": 4742, 
  "remove": 4743, 
  "rampant": 4744, 
  "lin@@": 4745, 
  "ratings": 4746, 
  "fed": 4747, 
  "misguided": 4748, 
  "outsiders": 4749, 
  "When": 4750, 
  "approximately": 4751, 
  "distance": 4752, 
  "Ukrainians": 4753, 
  "redistribution": 4754, 
  "ed-@@": 4755, 
  "ol": 4756, 
  "filled": 4757, 
  "famously": 4758, 
  "ners": 4759, 
  "chronic": 4760, 
  "architecture": 4761, 
  "Rwanda": 4762, 
  "to-@@": 4763, 
  "ony": 4764, 
  "consul@@": 4765, 
  "customs": 4766, 
  "experiment": 4767, 
  "mix": 4768, 
  "fighters": 4769, 
  "enduring": 4770, 
  "nation@@": 4771, 
  "neighborhood": 4772, 
  "government-@@": 4773, 
  "equilibrium": 4774, 
  "adverse": 4775, 
  "cautious": 4776, 
  "voluntary": 4777, 
  "catch": 4778, 
  "buildings": 4779, 
  "potent": 4780, 
  "ther": 4781, 
  "sheer": 4782, 
  "of@@": 4783, 
  "losers": 4784, 
  "opposing": 4785, 
  "channels": 4786, 
  "specifically": 4787, 
  "town": 4788, 
  "cold": 4789, 
  "ills": 4790, 
  "Hatoyama": 4791, 
  "names": 4792, 
  "acy": 4793, 
  "proclaimed": 4794, 
  "Sunnis": 4795, 
  "judged": 4796, 
  "violations": 4797, 
  "Me@@": 4798, 
  "SCO": 4799, 
  "health-care": 4800, 
  "frustration": 4801, 
  "professor": 4802, 
  "Warsaw": 4803, 
  "frequent": 4804, 
  "myth": 4805, 
  "Ecuador": 4806, 
  "Man@@": 4807, 
  "practically": 4808, 
  "attempted": 4809, 
  "199@@": 4810, 
  "fraud": 4811, 
  "irrelevant": 4812, 
  "decisively": 4813, 
  "encies": 4814, 
  "pull": 4815, 
  "ids": 4816, 
  "grade": 4817, 
  "Ma@@": 4818, 
  "Trichet": 4819, 
  "ther@@": 4820, 
  "originally": 4821, 
  "formidable": 4822, 
  "liabilities": 4823, 
  "burst": 4824, 
  "1993": 4825, 
  "forecast": 4826, 
  "Communists": 4827, 
  "tightening": 4828, 
  "Annan": 4829, 
  "seize": 4830, 
  "beneficial": 4831, 
  "decrease": 4832, 
  "connections": 4833, 
  "resentment": 4834, 
  "ys@@": 4835, 
  "peacefully": 4836, 
  "funded": 4837, 
  "Chechen": 4838, 
  "iness": 4839, 
  "exclusion": 4840, 
  "Institute": 4841, 
  "origin": 4842, 
  "recessions": 4843, 
  "tells": 4844, 
  "remarkably": 4845, 
  "ires": 4846, 
  "Forum": 4847, 
  "complain": 4848, 
  "Yanukovich": 4849, 
  "10@@": 4850, 
  "City": 4851, 
  "career": 4852, 
  "audience": 4853, 
  "overnight": 4854, 
  "constantly": 4855, 
  "den@@": 4856, 
  "pain@@": 4857, 
  "IC@@": 4858, 
  "well-being": 4859, 
  "extension": 4860, 
  "altogether": 4861, 
  "tolerate": 4862, 
  "assumption": 4863, 
  "ret@@": 4864, 
  "col@@": 4865, 
  "illusion": 4866, 
  "bias": 4867, 
  "Center": 4868, 
  "cohesion": 4869, 
  "versus": 4870, 
  "ick@@": 4871, 
  "Khrushchev": 4872, 
  "26": 4873, 
  "ample": 4874, 
  "machine": 4875, 
  "regulate": 4876, 
  "wise": 4877, 
  "risen": 4878, 
  "ashed": 4879, 
  "challenged": 4880, 
  "brink": 4881, 
  "acquire": 4882, 
  "clash": 4883, 
  "unit": 4884, 
  "ball": 4885, 
  "chairman": 4886, 
  "notice": 4887, 
  "miracle": 4888, 
  "prolonged": 4889, 
  "undermines": 4890, 
  "le-@@": 4891, 
  "suit": 4892, 
  "treaties": 4893, 
  "marginal": 4894, 
  "bor@@": 4895, 
  "U.S.": 4896, 
  "wishes": 4897, 
  "2050": 4898, 
  "anc@@": 4899, 
  "budgetary": 4900, 
  "affair": 4901, 
  "spoken": 4902, 
  "anticipated": 4903, 
  "closing": 4904, 
  "pensions": 4905, 
  "diagnosis": 4906, 
  "scandals": 4907, 
  "odds": 4908, 
  "scarce": 4909, 
  "carrying": 4910, 
  "Kurdish": 4911, 
  "ate@@": 4912, 
  "Q@@": 4913, 
  "occasion": 4914, 
  "borrowers": 4915, 
  "chemical": 4916, 
  "cyclical": 4917, 
  "head@@": 4918, 
  "Government": 4919, 
  "bought": 4920, 
  "ute": 4921, 
  "inaction": 4922, 
  "departure": 4923, 
  "dubious": 4924, 
  "ris@@": 4925, 
  "ber": 4926, 
  "affecting": 4927, 
  "cooperate": 4928, 
  "perfectly": 4929, 
  "alistic": 4930, 
  "extremist": 4931, 
  "Google": 4932, 
  "agents": 4933, 
  "deemed": 4934, 
  "deposits": 4935, 
  "bio@@": 4936, 
  "angry": 4937, 
  "dealt": 4938, 
  "margin": 4939, 
  "arises": 4940, 
  "Kazakhstan": 4941, 
  "entr@@": 4942, 
  "freedoms": 4943, 
  "epidemic": 4944, 
  "trap": 4945, 
  "deserves": 4946, 
  "Chernobyl": 4947, 
  "ung": 4948, 
  "first-@@": 4949, 
  "low@@": 4950, 
  "assassination": 4951, 
  "welcomed": 4952, 
  "cra@@": 4953, 
  "ka": 4954, 
  "stations": 4955, 
  "q@@": 4956, 
  "Nuclear": 4957, 
  "indifference": 4958, 
  "ashing": 4959, 
  "enforce": 4960, 
  "-year": 4961, 
  "21": 4962, 
  "Declaration": 4963, 
  "Osama": 4964, 
  "calm": 4965, 
  "dic@@": 4966, 
  "despair": 4967, 
  "alter": 4968, 
  "boosting": 4969, 
  "ved": 4970, 
  "optimistic": 4971, 
  "eg@@": 4972, 
  "contagion": 4973, 
  "Ban": 4974, 
  "retreat": 4975, 
  "orientation": 4976, 
  "Olympics": 4977, 
  "bases": 4978, 
  "reading": 4979, 
  "Health": 4980, 
  "devoted": 4981, 
  "lacking": 4982, 
  "roles": 4983, 
  "partial": 4984, 
  "ide@@": 4985, 
  "Saudis": 4986, 
  "laid": 4987, 
  "virus": 4988, 
  "hide": 4989, 
  "overseas": 4990, 
  "emphasized": 4991, 
  "observed": 4992, 
  "application": 4993, 
  "and-@@": 4994, 
  "sign@@": 4995, 
  "mess": 4996, 
  "online": 4997, 
  "pu@@": 4998, 
  "officially": 4999, 
  "unnecessary": 5000, 
  "differ": 5001, 
  "ese": 5002, 
  "obligation": 5003, 
  "sad": 5004, 
  "implicit": 5005, 
  "entrenched": 5006, 
  "symbolic": 5007, 
  "expert": 5008, 
  "crop": 5009, 
  "FARC": 5010, 
  "ose": 5011, 
  "totalitarian": 5012, 
  "é@@": 5013, 
  "Euro@@": 5014, 
  "fraction": 5015, 
  "Olmert": 5016, 
  "presents": 5017, 
  "vested": 5018, 
  "Chief": 5019, 
  "units": 5020, 
  "ok": 5021, 
  "prevention": 5022, 
  "volume": 5023, 
  "announcement": 5024, 
  "three-@@": 5025, 
  "classical": 5026, 
  "Geneva": 5027, 
  "arrangement": 5028, 
  "ideals": 5029, 
  "industrialized": 5030, 
  "constitutes": 5031, 
  "studied": 5032, 
  "1,000": 5033, 
  "speci@@": 5034, 
  "sports": 5035, 
  "reward": 5036, 
  "Association": 5037, 
  "ner": 5038, 
  "takeover": 5039, 
  "determining": 5040, 
  "thrown": 5041, 
  "conservation": 5042, 
  "tremendous": 5043, 
  "rice": 5044, 
  "profitable": 5045, 
  "favorite": 5046, 
  "ming": 5047, 
  "globe": 5048, 
  "izes": 5049, 
  "Ben": 5050, 
  "democrats": 5051, 
  "overwhelmingly": 5052, 
  "stark": 5053, 
  "paralysis": 5054, 
  "enthusiasm": 5055, 
  "campaigns": 5056, 
  "Fr@@": 5057, 
  "Koreans": 5058, 
  "liberalism": 5059, 
  "ric@@": 5060, 
  "intensive": 5061, 
  "motives": 5062, 
  "impunity": 5063, 
  "top@@": 5064, 
  "neglect": 5065, 
  "exceed": 5066, 
  "ily": 5067, 
  "ee": 5068, 
  "inclusion": 5069, 
  "Nor@@": 5070, 
  "incapable": 5071, 
  "requiring": 5072, 
  "stuck": 5073, 
  "ards": 5074, 
  "run-up": 5075, 
  "farming": 5076, 
  "abandoning": 5077, 
  "with@@": 5078, 
  "Hillary": 5079, 
  "tical": 5080, 
  "parity": 5081, 
  "Schroeder": 5082, 
  "0,000": 5083, 
  "upper": 5084, 
  "forecasts": 5085, 
  "ler": 5086, 
  "exceptions": 5087, 
  "teams": 5088, 
  "tries": 5089, 
  "partnerships": 5090, 
  "grand@@": 5091, 
  "tanks": 5092, 
  "Gore": 5093, 
  "skeptical": 5094, 
  "assumes": 5095, 
  "backlash": 5096, 
  "Swedish": 5097, 
  "bra@@": 5098, 
  "ological": 5099, 
  "fore@@": 5100, 
  "packages": 5101, 
  "Si@@": 5102, 
  "sti@@": 5103, 
  "If": 5104, 
  "crops": 5105, 
  "executives": 5106, 
  "irresponsible": 5107, 
  "endorsed": 5108, 
  "civilized": 5109, 
  "mus@@": 5110, 
  "rivals": 5111, 
  "ple@@": 5112, 
  "wins": 5113, 
  "teachers": 5114, 
  "Day": 5115, 
  "foot@@": 5116, 
  "camp": 5117, 
  "Charter": 5118, 
  "extending": 5119, 
  "window": 5120, 
  "broadly": 5121, 
  "debt-@@": 5122, 
  "assist": 5123, 
  "accomplish": 5124, 
  "solving": 5125, 
  "citizen": 5126, 
  "rigid": 5127, 
  "object": 5128, 
  "Morocco": 5129, 
  "traded": 5130, 
  "USSR": 5131, 
  "totally": 5132, 
  "suppose": 5133, 
  "Kashmir": 5134, 
  "aircraft": 5135, 
  "heading": 5136, 
  "massacre": 5137, 
  "bing": 5138, 
  "purchases": 5139, 
  "Games": 5140, 
  "phrase": 5141, 
  "progressive": 5142, 
  "bles": 5143, 
  "feet": 5144, 
  "wary": 5145, 
  "shortcomings": 5146, 
  "islands": 5147, 
  "destabilizing": 5148, 
  "TB": 5149, 
  "pal@@": 5150, 
  "genuinely": 5151, 
  "pure": 5152, 
  "militias": 5153, 
  "consolidate": 5154, 
  "deputy": 5155, 
  "relies": 5156, 
  "misleading": 5157, 
  "bargain": 5158, 
  "fundamentalism": 5159, 
  "checks": 5160, 
  "democratically": 5161, 
  "regain": 5162, 
  "preventive": 5163, 
  "besides": 5164, 
  "responding": 5165, 
  "Norway": 5166, 
  "empty": 5167, 
  "fifth": 5168, 
  "-up": 5169, 
  "tra@@": 5170, 
  "ation@@": 5171, 
  "ide": 5172, 
  "N": 5173, 
  "Georgian": 5174, 
  "Ethiopia": 5175, 
  "indicators": 5176, 
  "alities": 5177, 
  "location": 5178, 
  "Ukrainian": 5179, 
  "ref@@": 5180, 
  "reveal": 5181, 
  "preferred": 5182, 
  "ash@@": 5183, 
  "28": 5184, 
  "artificial": 5185, 
  "masses": 5186, 
  "citizenship": 5187, 
  "formally": 5188, 
  "contains": 5189, 
  "Article": 5190, 
  "booming": 5191, 
  "affordable": 5192, 
  "Ro@@": 5193, 
  "Tiananmen": 5194, 
  "sentiments": 5195, 
  "erupted": 5196, 
  "Lehman": 5197, 
  "engaging": 5198, 
  "foreign-exchange": 5199, 
  "spe@@": 5200, 
  "attempting": 5201, 
  "sav@@": 5202, 
  "post-war": 5203, 
  "electronic": 5204, 
  "stri@@": 5205, 
  "Guantánamo": 5206, 
  "Egyptians": 5207, 
  "located": 5208, 
  "cotton": 5209, 
  "casualties": 5210, 
  "all-@@": 5211, 
  "distinction": 5212, 
  "radio": 5213, 
  "propose": 5214, 
  "l-@@": 5215, 
  "banned": 5216, 
  "throwing": 5217, 
  "missions": 5218, 
  "consent": 5219, 
  "east": 5220, 
  "Green": 5221, 
  "star@@": 5222, 
  "negotiation": 5223, 
  "bonuses": 5224, 
  "persist": 5225, 
  "subjects": 5226, 
  "dioxide": 5227, 
  "findings": 5228, 
  "Gandhi": 5229, 
  "absorb": 5230, 
  "Christians": 5231, 
  "Maastricht": 5232, 
  "freeze": 5233, 
  "ples": 5234, 
  "dozen": 5235, 
  "discredited": 5236, 
  "Law": 5237, 
  "disintegration": 5238, 
  "equipped": 5239, 
  "aggression": 5240, 
  "Lee": 5241, 
  "Cooperation": 5242, 
  "ust@@": 5243, 
  "Friedman": 5244, 
  "unclear": 5245, 
  "belong": 5246, 
  "Pr@@": 5247, 
  "automatically": 5248, 
  "evolutionary": 5249, 
  "organize": 5250, 
  "absurd": 5251, 
  "classic": 5252, 
  "inclusive": 5253, 
  "internet": 5254, 
  "indispensable": 5255, 
  "star": 5256, 
  "roll": 5257, 
  "em": 5258, 
  "KGB": 5259, 
  "subsequently": 5260, 
  "document": 5261, 
  "witness": 5262, 
  "initiated": 5263, 
  "Ba@@": 5264, 
  "Ber@@": 5265, 
  "reactions": 5266, 
  "semi-@@": 5267, 
  "worker": 5268, 
  "medicines": 5269, 
  "train": 5270, 
  "hazard": 5271, 
  "pick": 5272, 
  "enabling": 5273, 
  "dictatorships": 5274, 
  "port": 5275, 
  "Rumsfeld": 5276, 
  "6.@@": 5277, 
  "iti@@": 5278, 
  "inherited": 5279, 
  "Keynesian": 5280, 
  "prevailed": 5281, 
  "indicates": 5282, 
  "dreams": 5283, 
  "censorship": 5284, 
  "inner": 5285, 
  "institu@@": 5286, 
  "securing": 5287, 
  "rig@@": 5288, 
  "deliberately": 5289, 
  "Initiative": 5290, 
  "bail": 5291, 
  "rebels": 5292, 
  "jo@@": 5293, 
  "confusion": 5294, 
  "sounds": 5295, 
  "factories": 5296, 
  "shortages": 5297, 
  "Labour": 5298, 
  "characteristics": 5299, 
  "Abu": 5300, 
  "comfortable": 5301, 
  "Duma": 5302, 
  "ately": 5303, 
  "interdependence": 5304, 
  "fueling": 5305, 
  "holdings": 5306, 
  "systematic": 5307, 
  "reflection": 5308, 
  "collectively": 5309, 
  "impe@@": 5310, 
  "novel": 5311, 
  "California": 5312, 
  "Sal@@": 5313, 
  "beat": 5314, 
  "cha@@": 5315, 
  "excuse": 5316, 
  "ports": 5317, 
  "adjustments": 5318, 
  "militants": 5319, 
  "Ac@@": 5320, 
  "restraint": 5321, 
  "trapped": 5322, 
  "exc@@": 5323, 
  "assured": 5324, 
  "wel@@": 5325, 
  "meantime": 5326, 
  "feasible": 5327, 
  "sub-@@": 5328, 
  "quiet": 5329, 
  "soccer": 5330, 
  "contraction": 5331, 
  "affects": 5332, 
  "1973": 5333, 
  ",000": 5334, 
  "iling": 5335, 
  "radicals": 5336, 
  "derivatives": 5337, 
  "unification": 5338, 
  "forth": 5339, 
  "Hu@@": 5340, 
  "believing": 5341, 
  "elect": 5342, 
  "mu@@": 5343, 
  "spec@@": 5344, 
  "incident": 5345, 
  "prop@@": 5346, 
  "nationalists": 5347, 
  "barrel": 5348, 
  "Calderón": 5349, 
  "ip@@": 5350, 
  "react": 5351, 
  "ach": 5352, 
  "brand": 5353, 
  "Orange": 5354, 
  "sters": 5355, 
  "intent": 5356, 
  "curb": 5357, 
  "ali@@": 5358, 
  "retail": 5359, 
  "upcoming": 5360, 
  "policymaking": 5361, 
  "exporting": 5362, 
  "temptation": 5363, 
  "distrust": 5364, 
  "spectacular": 5365, 
  "promotion": 5366, 
  "abilities": 5367, 
  "multinational": 5368, 
  "syn@@": 5369, 
  "station": 5370, 
  "missed": 5371, 
  "mothers": 5372, 
  "Lanka": 5373, 
  "OSCE": 5374, 
  "factory": 5375, 
  "ern@@": 5376, 
  "rap@@": 5377, 
  "rally": 5378, 
  "Saleh": 5379, 
  "visions": 5380, 
  "Jazeera": 5381, 
  "sou@@": 5382, 
  "provoked": 5383, 
  "accustomed": 5384, 
  "bol@@": 5385, 
  "pervasive": 5386, 
  "fication": 5387, 
  "rac@@": 5388, 
  "homeowners": 5389, 
  "Act": 5390, 
  "Hugo": 5391, 
  "ised": 5392, 
  "Moldova": 5393, 
  "cards": 5394, 
  "5.@@": 5395, 
  "mentioned": 5396, 
  "relying": 5397, 
  "Socialists": 5398, 
  "recovered": 5399, 
  "repressive": 5400, 
  "long-run": 5401, 
  "master": 5402, 
  "throw": 5403, 
  "forge": 5404, 
  "card": 5405, 
  "i-@@": 5406, 
  "combating": 5407, 
  "ff": 5408, 
  "_@@": 5409, 
  "El": 5410, 
  "accumulation": 5411, 
  "booms": 5412, 
  "ultra-@@": 5413, 
  "utterly": 5414, 
  "militarily": 5415, 
  "interim": 5416, 
  "construct": 5417, 
  "vastly": 5418, 
  "ures": 5419, 
  "attend": 5420, 
  "Congo": 5421, 
  "unilaterally": 5422, 
  "pays": 5423, 
  "El@@": 5424, 
  "Richard": 5425, 
  "religions": 5426, 
  "indirect": 5427, 
  "2013": 5428, 
  "dissidents": 5429, 
  "high-tech": 5430, 
  "widening": 5431, 
  "fying": 5432, 
  "collaboration": 5433, 
  "components": 5434, 
  "-to-@@": 5435, 
  "kin@@": 5436, 
  "remembered": 5437, 
  "degradation": 5438, 
  "assumptions": 5439, 
  "salaries": 5440, 
  "insisted": 5441, 
  "enforced": 5442, 
  "spends": 5443, 
  "1981": 5444, 
  "zes": 5445, 
  "invariably": 5446, 
  "Or@@": 5447, 
  "path@@": 5448, 
  "hospitals": 5449, 
  "infl@@": 5450, 
  "WWII": 5451, 
  "minimal": 5452, 
  "cal@@": 5453, 
  "Sa@@": 5454, 
  "behalf": 5455, 
  "Algeria": 5456, 
  "sun@@": 5457, 
  "likes": 5458, 
  "nets": 5459, 
  "IPCC": 5460, 
  "minimize": 5461, 
  "ous@@": 5462, 
  "relevance": 5463, 
  "messages": 5464, 
  "Havel": 5465, 
  "Koizumi": 5466, 
  "non-proliferation": 5467, 
  "induced": 5468, 
  "entity": 5469, 
  "cynical": 5470, 
  "Premier": 5471, 
  "letter": 5472, 
  "emotions": 5473, 
  "Nixon": 5474, 
  "unpredictable": 5475, 
  "greed": 5476, 
  "examine": 5477, 
  "moderates": 5478, 
  "ster@@": 5479, 
  "traffic": 5480, 
  "settlers": 5481, 
  "-and-@@": 5482, 
  "Hague": 5483, 
  "compare": 5484, 
  "ining": 5485, 
  "Turks": 5486, 
  "favors": 5487, 
  "For@@": 5488, 
  "the-@@": 5489, 
  "substitute": 5490, 
  "domestically": 5491, 
  "strict": 5492, 
  "conscious": 5493, 
  "acute": 5494, 
  "oversight": 5495, 
  "Tibetan": 5496, 
  "Ayatollah": 5497, 
  "single-@@": 5498, 
  "errors": 5499, 
  "Red": 5500, 
  "justification": 5501, 
  "satellite": 5502, 
  "io": 5503, 
  "bon@@": 5504, 
  "approaching": 5505, 
  "1-@@": 5506, 
  "Her@@": 5507, 
  "Pinochet": 5508, 
  "portfolio": 5509, 
  "Cambodia": 5510, 
  "Alan": 5511, 
  "Secretary-General": 5512, 
  "Viktor": 5513, 
  "celebrate": 5514, 
  "ao": 5515, 
  "attracted": 5516, 
  "allocation": 5517, 
  "bargaining": 5518, 
  "admitted": 5519, 
  "Guard": 5520, 
  "Brotherhood": 5521, 
  "ez": 5522, 
  "stone": 5523, 
  "life-@@": 5524, 
  "satisfy": 5525, 
  "are@@": 5526, 
  "Princeton": 5527, 
  "habits": 5528, 
  "Round": 5529, 
  "Khodorkovsky": 5530, 
  "predecessors": 5531, 
  "controversy": 5532, 
  "app@@": 5533, 
  "gener@@": 5534, 
  "Mo@@": 5535, 
  "counts": 5536, 
  "marriage": 5537, 
  "carries": 5538, 
  "row": 5539, 
  "new@@": 5540, 
  "rivalry": 5541, 
  "platform": 5542, 
  "misery": 5543, 
  "LDP": 5544, 
  "revived": 5545, 
  "bankrupt": 5546, 
  "exchanges": 5547, 
  "restricted": 5548, 
  "discovery": 5549, 
  "zz@@": 5550, 
  "aps": 5551, 
  "wild": 5552, 
  "availability": 5553, 
  "possibilities": 5554, 
  "discover": 5555, 
  "channel": 5556, 
  "vis-à-vis": 5557, 
  "struggles": 5558, 
  "autumn": 5559, 
  "swing": 5560, 
  "hor@@": 5561, 
  "arian": 5562, 
  "techniques": 5563, 
  "touch": 5564, 
  "2-@@": 5565, 
  "reflecting": 5566, 
  "speaks": 5567, 
  "unt@@": 5568, 
  "necessity": 5569, 
  "spo@@": 5570, 
  "slowing": 5571, 
  "Libyan": 5572, 
  "im": 5573, 
  "scores": 5574, 
  "catastrophic": 5575, 
  "hero": 5576, 
  "merit": 5577, 
  "65": 5578, 
  "admittedly": 5579, 
  "earned": 5580, 
  "sale": 5581, 
  "Program": 5582, 
  "contest": 5583, 
  "respects": 5584, 
  "remote": 5585, 
  "emb@@": 5586, 
  "Bulgaria": 5587, 
  "Criminal": 5588, 
  "burning": 5589, 
  "There": 5590, 
  "scholars": 5591, 
  "Revolutionary": 5592, 
  "ski": 5593, 
  "hard@@": 5594, 
  "unresolved": 5595, 
  "mistaken": 5596, 
  "considerably": 5597, 
  "Bar@@": 5598, 
  "Finland": 5599, 
  "Movement": 5600, 
  "consuming": 5601, 
  "helpful": 5602, 
  "mir@@": 5603, 
  "eling": 5604, 
  "psychology": 5605, 
  "two-state": 5606, 
  "dist@@": 5607, 
  "uncertainties": 5608, 
  "possess": 5609, 
  "preserving": 5610, 
  "pi@@": 5611, 
  "ale": 5612, 
  "itt@@": 5613, 
  "resignation": 5614, 
  "inflicted": 5615, 
  "relied": 5616, 
  "3.@@": 5617, 
  "tourism": 5618, 
  "flaws": 5619, 
  "civic": 5620, 
  "ailing": 5621, 
  "hospital": 5622, 
  "invented": 5623, 
  "Caribbean": 5624, 
  "naval": 5625, 
  "compensate": 5626, 
  "Forces": 5627, 
  "dy": 5628, 
  "paradoxically": 5629, 
  "wing": 5630, 
  "defensive": 5631, 
  "exaggerated": 5632, 
  "Thatcher": 5633, 
  "hydro@@": 5634, 
  "20th": 5635, 
  "accounted": 5636, 
  "letting": 5637, 
  "pluralism": 5638, 
  "crowd": 5639, 
  "covered": 5640, 
  "bust": 5641, 
  "hon@@": 5642, 
  "Fox": 5643, 
  "listen": 5644, 
  "swings": 5645, 
  "igh@@": 5646, 
  "comfort": 5647, 
  "lock": 5648, 
  "vague": 5649, 
  "authoritarianism": 5650, 
  "actor": 5651, 
  "display": 5652, 
  "zones": 5653, 
  "battles": 5654, 
  "alarming": 5655, 
  "monitor": 5656, 
  "Consensus": 5657, 
  "righ@@": 5658, 
  "sm@@": 5659, 
  "prone": 5660, 
  "Kuwait": 5661, 
  "gun": 5662, 
  "upward": 5663, 
  "tested": 5664, 
  "geo@@": 5665, 
  "music": 5666, 
  "morally": 5667, 
  "episodes": 5668, 
  "depth": 5669, 
  "gases": 5670, 
  "8-@@": 5671, 
  "treating": 5672, 
  "statehood": 5673, 
  "au": 5674, 
  "internally": 5675, 
  "wards": 5676, 
  "soci@@": 5677, 
  "urged": 5678, 
  "supervisory": 5679, 
  "appointment": 5680, 
  "inhib@@": 5681, 
  "Argentine": 5682, 
  "personnel": 5683, 
  "systematically": 5684, 
  "violation": 5685, 
  "readily": 5686, 
  "reforming": 5687, 
  "ambition": 5688, 
  "ven@@": 5689, 
  "Li@@": 5690, 
  "biodiversity": 5691, 
  "shr@@": 5692, 
  "premium": 5693, 
  "performing": 5694, 
  "facility": 5695, 
  "ours": 5696, 
  "reasonably": 5697, 
  "unusual": 5698, 
  "enacted": 5699, 
  "wo@@": 5700, 
  "imagination": 5701, 
  "happiness": 5702, 
  "humiliation": 5703, 
  "electric": 5704, 
  "prohib@@": 5705, 
  "Communism": 5706, 
  "shortage": 5707, 
  "entary": 5708, 
  "alas": 5709, 
  "ium": 5710, 
  "separation": 5711, 
  "radically": 5712, 
  "author": 5713, 
  "Strip": 5714, 
  "injustice": 5715, 
  "remittances": 5716, 
  "Arab-Israeli": 5717, 
  "civilizations": 5718, 
  "emp@@": 5719, 
  "bal@@": 5720, 
  "crude": 5721, 
  "obs@@": 5722, 
  "Mus@@": 5723, 
  "repair": 5724, 
  "valued": 5725, 
  "expose": 5726, 
  "efficiently": 5727, 
  "prudent": 5728, 
  "iv@@": 5729, 
  "ev": 5730, 
  "ain": 5731, 
  "boards": 5732, 
  "Office": 5733, 
  "wasted": 5734, 
  "clout": 5735, 
  "exacerbated": 5736, 
  "breakdown": 5737, 
  "Roosevelt": 5738, 
  "analogy": 5739, 
  "origins": 5740, 
  "militant": 5741, 
  "author@@": 5742, 
  "respectively": 5743, 
  "di": 5744, 
  "1980s": 5745, 
  "pundits": 5746, 
  "pressed": 5747, 
  "hot@@": 5748, 
  "post-Soviet": 5749, 
  "symbols": 5750, 
  "contradictory": 5751, 
  "percent": 5752, 
  "char@@": 5753, 
  "occurring": 5754, 
  "85": 5755, 
  "pointing": 5756, 
  "shame": 5757, 
  "Cheney": 5758, 
  "refugee": 5759, 
  "irony": 5760, 
  "vice": 5761, 
  "arr@@": 5762, 
  "ace": 5763, 
  "theoretical": 5764, 
  "superior": 5765, 
  "disturbing": 5766, 
  "bosses": 5767, 
  "incumbent": 5768, 
  "literally": 5769, 
  "ratios": 5770, 
  "elec@@": 5771, 
  "refuses": 5772, 
  "surrender": 5773, 
  "tribunal": 5774, 
  "gaps": 5775, 
  "sing@@": 5776, 
  "Boris": 5777, 
  "acquired": 5778, 
  "episode": 5779, 
  "cler@@": 5780, 
  "indication": 5781, 
  "ion": 5782, 
  "reportedly": 5783, 
  "apped": 5784, 
  "encourages": 5785, 
  "mut@@": 5786, 
  "wherever": 5787, 
  "aring": 5788, 
  "ich": 5789, 
  "store": 5790, 
  "mutually": 5791, 
  "afraid": 5792, 
  "Bhutto": 5793, 
  "speeches": 5794, 
  "luxury": 5795, 
  "inspire": 5796, 
  "transforming": 5797, 
  "processing": 5798, 
  "acks": 5799, 
  "exemp@@": 5800, 
  "cle@@": 5801, 
  "crackdown": 5802, 
  "bearing": 5803, 
  "Oslo": 5804, 
  "rape": 5805, 
  "elled": 5806, 
  "ored": 5807, 
  "Ronald": 5808, 
  "radicalism": 5809, 
  "landscape": 5810, 
  "sacrifice": 5811, 
  "resisted": 5812, 
  "ains": 5813, 
  "tru@@": 5814, 
  "hood": 5815, 
  "provinces": 5816, 
  "spur": 5817, 
  "clo@@": 5818, 
  "ranking": 5819, 
  "pan@@": 5820, 
  "homeland": 5821, 
  "advisers": 5822, 
  "ect": 5823, 
  "safeguard": 5824, 
  "entails": 5825, 
  "cat@@": 5826, 
  "symptoms": 5827, 
  "constituencies": 5828, 
  "mul@@": 5829, 
  "mindset": 5830, 
  "public-sector": 5831, 
  "perpetrators": 5832, 
  "Kennedy": 5833, 
  "for-@@": 5834, 
  "rises": 5835, 
  "dissent": 5836, 
  "prosecutors": 5837, 
  "temperature": 5838, 
  "gs": 5839, 
  "sive": 5840, 
  "shaping": 5841, 
  "itate": 5842, 
  "aled": 5843, 
  "accordingly": 5844, 
  "`": 5845, 
  "delayed": 5846, 
  "Jong-il": 5847, 
  "satisfied": 5848, 
  "creativity": 5849, 
  "wrong@@": 5850, 
  "communists": 5851, 
  "ft": 5852, 
  "Times": 5853, 
  "partisan": 5854, 
  "delivering": 5855, 
  "cour@@": 5856, 
  "2.5": 5857, 
  "Seoul": 5858, 
  "exile": 5859, 
  "Morales": 5860, 
  "flowing": 5861, 
  "pillar": 5862, 
  "oligarchs": 5863, 
  "Armenia": 5864, 
  "bs": 5865, 
  "vibrant": 5866, 
  "urge": 5867, 
  "businessmen": 5868, 
  "deterioration": 5869, 
  "ck": 5870, 
  "Southern": 5871, 
  "scrutiny": 5872, 
  "hin@@": 5873, 
  "Group": 5874, 
  "berg": 5875, 
  "ik@@": 5876, 
  "postwar": 5877, 
  "G-7": 5878, 
  "ek": 5879, 
  "ligh@@": 5880, 
  "Wen": 5881, 
  "deployed": 5882, 
  "2,000": 5883, 
  "Governing": 5884, 
  "emission": 5885, 
  "eat": 5886, 
  "certainty": 5887, 
  "til@@": 5888, 
  "amm@@": 5889, 
  "imagined": 5890, 
  "governmental": 5891, 
  "founder": 5892, 
  "pped": 5893, 
  "arbitrary": 5894, 
  "fertility": 5895, 
  "geography": 5896, 
  "marine": 5897, 
  "San": 5898, 
  "hearts": 5899, 
  "Saakashvili": 5900, 
  "harmful": 5901, 
  "NGOs": 5902, 
  "Is@@": 5903, 
  "B": 5904, 
  "Mal@@": 5905, 
  "walk": 5906, 
  "4.@@": 5907, 
  "reformist": 5908, 
  "ables": 5909, 
  "talent": 5910, 
  "disputed": 5911, 
  "defended": 5912, 
  "scandal": 5913, 
  "mitigate": 5914, 
  "explosive": 5915, 
  "anim@@": 5916, 
  "Jintao": 5917, 
  "sport": 5918, 
  "liquid": 5919, 
  "Hollande": 5920, 
  "diminish": 5921, 
  "removing": 5922, 
  "yn@@": 5923, 
  "inherently": 5924, 
  "regulating": 5925, 
  "apparatus": 5926, 
  "identities": 5927, 
  "resolutions": 5928, 
  "excellent": 5929, 
  "pricing": 5930, 
  "doors": 5931, 
  "writer": 5932, 
  "ual": 5933, 
  "dog": 5934, 
  "men@@": 5935, 
  "allocated": 5936, 
  "31": 5937, 
  "dogs": 5938, 
  "cure": 5939, 
  "urgency": 5940, 
  "buried": 5941, 
  "tual": 5942, 
  "march": 5943, 
  "payment": 5944, 
  "evolved": 5945, 
  "comparative": 5946, 
  "tariff": 5947, 
  "discontent": 5948, 
  "it-@@": 5949, 
  "confused": 5950, 
  "bills": 5951, 
  "prize": 5952, 
  "abound": 5953, 
  "luck": 5954, 
  "ail@@": 5955, 
  "driver": 5956, 
  "statistical": 5957, 
  "3-@@": 5958, 
  "Ministry": 5959, 
  "tempted": 5960, 
  "caste": 5961, 
  "ie": 5962, 
  "buyers": 5963, 
  "detailed": 5964, 
  "ministries": 5965, 
  "prestige": 5966, 
  "coupled": 5967, 
  "launching": 5968, 
  "Growth": 5969, 
  "reunification": 5970, 
  "vel@@": 5971, 
  "incite": 5972, 
  "records": 5973, 
  "deepen": 5974, 
  "precise": 5975, 
  "creditor": 5976, 
  "insurgents": 5977, 
  "ignoring": 5978, 
  "breast": 5979, 
  "imbalance": 5980, 
  "stalemate": 5981, 
  "proceed": 5982, 
  "rests": 5983, 
  "suggesting": 5984, 
  "concentrate": 5985, 
  "Franco-German": 5986, 
  "Poles": 5987, 
  "guided": 5988, 
  "operational": 5989, 
  "contact": 5990, 
  "hungry": 5991, 
  "Finance": 5992, 
  "highlighted": 5993, 
  "lesser": 5994, 
  "ater@@": 5995, 
  "person@@": 5996, 
  "virtue": 5997, 
  "integrating": 5998, 
  "unrealistic": 5999, 
  "endless": 6000, 
  "distinguish": 6001, 
  "counterproductive": 6002, 
  "seeming": 6003, 
  "1987": 6004, 
  "balancing": 6005, 
  "preferences": 6006, 
  "fundamentalist": 6007, 
  "inspectors": 6008, 
  "orderly": 6009, 
  "adaptation": 6010, 
  "exceptional": 6011, 
  "soil": 6012, 
  "ham@@": 6013, 
  "fierce": 6014, 
  "tou@@": 6015, 
  "Bu@@": 6016, 
  "handled": 6017, 
  "rebellion": 6018, 
  "consume": 6019, 
  "lu@@": 6020, 
  "adjust": 6021, 
  "lacked": 6022, 
  "sustaining": 6023, 
  "pact": 6024, 
  "mainland": 6025, 
  "medium-term": 6026, 
  "militia": 6027, 
  "profession": 6028, 
  "phone": 6029, 
  "tun@@": 6030, 
  "chi@@": 6031, 
  "appearance": 6032, 
  "incomplete": 6033, 
  "aver@@": 6034, 
  "routinely": 6035, 
  "forthcoming": 6036, 
  "lif@@": 6037, 
  "allegedly": 6038, 
  "CEO": 6039, 
  "inst@@": 6040, 
  "eable": 6041, 
  "perceive": 6042, 
  "highlights": 6043, 
  "recorded": 6044, 
  "reasoning": 6045, 
  "Ehud": 6046, 
  "consists": 6047, 
  "conclusions": 6048, 
  "ests": 6049, 
  "sons": 6050, 
  "X@@": 6051, 
  "iously": 6052, 
  "rebuilding": 6053, 
  "insistence": 6054, 
  "therapy": 6055, 
  "tionally": 6056, 
  "restoration": 6057, 
  "ides": 6058, 
  "pin": 6059, 
  "crimin@@": 6060, 
  "provincial": 6061, 
  "multilateralism": 6062, 
  "admission": 6063, 
  "offs": 6064, 
  "ll": 6065, 
  "miss": 6066, 
  "concepts": 6067, 
  "deployment": 6068, 
  "bears": 6069, 
  "DELHI": 6070, 
  "ruler": 6071, 
  "ases": 6072, 
  "governor": 6073, 
  "ratified": 6074, 
  "overthrow": 6075, 
  "Ku@@": 6076, 
  "tended": 6077, 
  "strictly": 6078, 
  "marginalized": 6079, 
  "socially": 6080, 
  "contacts": 6081, 
  "400": 6082, 
  "Wolfowitz": 6083, 
  "degrees": 6084, 
  "fluctuations": 6085, 
  "machines": 6086, 
  "fled": 6087, 
  "recipe": 6088, 
  "spiritual": 6089, 
  "insolvent": 6090, 
  "malaise": 6091, 
  "recommendations": 6092, 
  "mag@@": 6093, 
  "probability": 6094, 
  "markedly": 6095, 
  "embargo": 6096, 
  "mas@@": 6097, 
  "bil@@": 6098, 
  "liber@@": 6099, 
  "immigrant": 6100, 
  "spectrum": 6101, 
  "vehicles": 6102, 
  "straightforward": 6103, 
  "waters": 6104, 
  "val@@": 6105, 
  "worsen": 6106, 
  "fruit": 6107, 
  "Report": 6108, 
  "exclusive": 6109, 
  "arm@@": 6110, 
  "elderly": 6111, 
  "perceptions": 6112, 
  "patent": 6113, 
  "notable": 6114, 
  "personality": 6115, 
  "prosecution": 6116, 
  "unleashed": 6117, 
  "gg@@": 6118, 
  "ignorance": 6119, 
  "interpreted": 6120, 
  "defaults": 6121, 
  "lift": 6122, 
  "offices": 6123, 
  "picked": 6124, 
  "benign": 6125, 
  "mid@@": 6126, 
  "IAEA": 6127, 
  "shortly": 6128, 
  "hoping": 6129, 
  "Free": 6130, 
  "cyber": 6131, 
  "eness": 6132, 
  "transitions": 6133, 
  "jail": 6134, 
  "spreads": 6135, 
  "real-estate": 6136, 
  "conspiracy": 6137, 
  "vo@@": 6138, 
  "imminent": 6139, 
  "believers": 6140, 
  "neutral": 6141, 
  "suspected": 6142, 
  "nervous": 6143, 
  "lets": 6144, 
  "aggressively": 6145, 
  "warnings": 6146, 
  "pul@@": 6147, 
  "headlines": 6148, 
  "downs": 6149, 
  "rewards": 6150, 
  "reveals": 6151, 
  "monarchy": 6152, 
  "temporarily": 6153, 
  "Karzai": 6154, 
  "unilateralism": 6155, 
  "Gerhard": 6156, 
  "clim@@": 6157, 
  "ins@@": 6158, 
  "pling": 6159, 
  "ail": 6160, 
  "Valley": 6161, 
  "surveys": 6162, 
  "precious": 6163, 
  "Ph@@": 6164, 
  "acked": 6165, 
  "accelerating": 6166, 
  "ows": 6167, 
  "moon": 6168, 
  "sch@@": 6169, 
  "nur@@": 6170, 
  "Labor": 6171, 
  "witnessing": 6172, 
  "ural": 6173, 
  "complained": 6174, 
  "arena": 6175, 
  "useless": 6176, 
  "FTA": 6177, 
  "ma": 6178, 
  "minded": 6179, 
  "indefinitely": 6180, 
  "boys": 6181, 
  "Liu": 6182, 
  "1929": 6183, 
  "generates": 6184, 
  "Croatia": 6185, 
  "cross": 6186, 
  "stunning": 6187, 
  "Strategy": 6188, 
  "Ministers": 6189, 
  "Slovakia": 6190, 
  "personally": 6191, 
  "ly-@@": 6192, 
  "pleasure": 6193, 
  "distress": 6194, 
  "feels": 6195, 
  "human@@": 6196, 
  "imm@@": 6197, 
  "Tribunal": 6198, 
  "ification": 6199, 
  "eful": 6200, 
  "Australian": 6201, 
  "continental": 6202, 
  "Cuban": 6203, 
  "gathered": 6204, 
  "forming": 6205, 
  "incited": 6206, 
  "fan@@": 6207, 
  "Lu@@": 6208, 
  "scientist": 6209, 
  "Romanian": 6210, 
  "tight": 6211, 
  "influenced": 6212, 
  "James": 6213, 
  "temperatures": 6214, 
  "stages": 6215, 
  "Er@@": 6216, 
  "accelerated": 6217, 
  "orthodoxy": 6218, 
  "termin@@": 6219, 
  "by@@": 6220, 
  "100,000": 6221, 
  "dismiss": 6222, 
  "Danish": 6223, 
  "repe@@": 6224, 
  "Str@@": 6225, 
  "thirty": 6226, 
  "ethics": 6227, 
  "myself": 6228, 
  "roc@@": 6229, 
  "ride": 6230, 
  "winter": 6231, 
  "pillars": 6232, 
  "oun@@": 6233, 
  "ari@@": 6234, 
  "flat": 6235, 
  "Gordon": 6236, 
  "devices": 6237, 
  "trafficking": 6238, 
  "10,000": 6239, 
  "genome": 6240, 
  "explo@@": 6241, 
  "modernity": 6242, 
  "cry": 6243, 
  "adjusted": 6244, 
  "realization": 6245, 
  "loses": 6246, 
  "enlightened": 6247, 
  "basically": 6248, 
  "axis": 6249, 
  "intensity": 6250, 
  "justi@@": 6251, 
  "Hindu": 6252, 
  "sick": 6253, 
  "centr@@": 6254, 
  "pragmatism": 6255, 
  "pledged": 6256, 
  "chair": 6257, 
  "cli@@": 6258, 
  "answered": 6259, 
  "prim@@": 6260, 
  "liberties": 6261, 
  "handle": 6262, 
  "champion": 6263, 
  "Bahrain": 6264, 
  "page": 6265, 
  "eless": 6266, 
  "shrinking": 6267, 
  "academics": 6268, 
  "adversaries": 6269, 
  "thin": 6270, 
  "8.@@": 6271, 
  "disagree": 6272, 
  "backs": 6273, 
  "anti-Americanism": 6274, 
  "substance": 6275, 
  "mired": 6276, 
  "aches": 6277, 
  "continuity": 6278, 
  "Franc@@": 6279, 
  "revolt": 6280, 
  "1,@@": 6281, 
  "Persian": 6282, 
  "American-@@": 6283, 
  "left-wing": 6284, 
  "akin": 6285, 
  "towns": 6286, 
  "14@@": 6287, 
  "existential": 6288, 
  "hypocrisy": 6289, 
  "Jiang": 6290, 
  "Orthodox": 6291, 
  "pit@@": 6292, 
  "transportation": 6293, 
  "maneuver": 6294, 
  "transmission": 6295, 
  "assert": 6296, 
  "guar@@": 6297, 
  "ams": 6298, 
  "rein": 6299, 
  "participating": 6300, 
  "carbon-@@": 6301, 
  "settled": 6302, 
  "ences": 6303, 
  "grip": 6304, 
  "searching": 6305, 
  "exacerbate": 6306, 
  "ard@@": 6307, 
  "Joseph": 6308, 
  "ection": 6309, 
  "sympathy": 6310, 
  "remind": 6311, 
  "­-": 6312, 
  "deadly": 6313, 
  "incidents": 6314, 
  "circles": 6315, 
  "downside": 6316, 
  "extraordinarily": 6317, 
  "grain": 6318, 
  "specter": 6319, 
  "healthcare": 6320, 
  "ty-@@": 6321, 
  "heroic": 6322, 
  "yourself": 6323, 
  "antagon@@": 6324, 
  "placing": 6325, 
  "exploited": 6326, 
  "reluctance": 6327, 
  "presumably": 6328, 
  "iron": 6329, 
  "legally": 6330, 
  "ack@@": 6331, 
  "ney": 6332, 
  "Inter@@": 6333, 
  "considers": 6334, 
  "Cor@@": 6335, 
  "contributes": 6336, 
  "Common": 6337, 
  "unexpected": 6338, 
  "retains": 6339, 
  "experiments": 6340, 
  "club": 6341, 
  "destiny": 6342, 
  "threshold": 6343, 
  "ve-@@": 6344, 
  "or-@@": 6345, 
  "grant": 6346, 
  "Taiwanese": 6347, 
  "confirm": 6348, 
  "loyal": 6349, 
  "clients": 6350, 
  "immune": 6351, 
  "opted": 6352, 
  "disparities": 6353, 
  "ES": 6354, 
  "kilometers": 6355, 
  "dysfunctional": 6356, 
  "Im@@": 6357, 
  "questioning": 6358, 
  "ecting": 6359, 
  "run@@": 6360, 
  "drought": 6361, 
  "occasionally": 6362, 
  "appeals": 6363, 
  "majorities": 6364, 
  "print": 6365, 
  "corner": 6366, 
  "lender": 6367, 
  "demonstration": 6368, 
  "stepped": 6369, 
  "expectation": 6370, 
  "Latvia": 6371, 
  "ition": 6372, 
  "arrival": 6373, 
  "hate": 6374, 
  "signing": 6375, 
  "text": 6376, 
  "long-standing": 6377, 
  "commerce": 6378, 
  "predictions": 6379, 
  "strang@@": 6380, 
  "stagnant": 6381, 
  "strategically": 6382, 
  "native": 6383, 
  "Hosni": 6384, 
  "organizing": 6385, 
  "Uruguay": 6386, 
  "Islam@@": 6387, 
  "endured": 6388, 
  "margins": 6389, 
  "embarked": 6390, 
  "belongs": 6391, 
  "Nazis": 6392, 
  "tw@@": 6393, 
  "federation": 6394, 
  "attributed": 6395, 
  "-minded": 6396, 
  "outsourcing": 6397, 
  "borne": 6398, 
  "domination": 6399, 
  "plight": 6400, 
  "tactical": 6401, 
  "automatic": 6402, 
  "deciding": 6403, 
  "Am@@": 6404, 
  "guilt": 6405, 
  "deliberate": 6406, 
  "anti-American": 6407, 
  "Morsi": 6408, 
  "tl@@": 6409, 
  "triumph@@": 6410, 
  "sized": 6411, 
  "Min@@": 6412, 
  "10-@@": 6413, 
  "Trans@@": 6414, 
  "stars": 6415, 
  "grants": 6416, 
  "fix@@": 6417, 
  "sum@@": 6418, 
  "aking": 6419, 
  "tig@@": 6420, 
  "suppression": 6421, 
  "Big": 6422, 
  "manufactured": 6423, 
  "absolutely": 6424, 
  "motion": 6425, 
  "servants": 6426, 
  "Bas@@": 6427, 
  "�": 6428, 
  "pool": 6429, 
  "occupying": 6430, 
  "accord": 6431, 
  "protracted": 6432, 
  "minim@@": 6433, 
  "low-cost": 6434, 
  "dness": 6435, 
  "middle-class": 6436, 
  "Balkan": 6437, 
  "radiation": 6438, 
  "heroes": 6439, 
  "idity": 6440, 
  "flu": 6441, 
  "Senator": 6442, 
  "nightmare": 6443, 
  "horizon": 6444, 
  "deeds": 6445, 
  "fishing": 6446, 
  "ene@@": 6447, 
  "premier": 6448, 
  "movie": 6449, 
  "inherent": 6450, 
  "commonly": 6451, 
  "historians": 6452, 
  "prudential": 6453, 
  "colonialism": 6454, 
  "Woods": 6455, 
  "hole": 6456, 
  "clinical": 6457, 
  "capital-@@": 6458, 
  "panel": 6459, 
  "after@@": 6460, 
  "seeds": 6461, 
  "quotas": 6462, 
  "asts": 6463, 
  "eman": 6464, 
  "norm@@": 6465, 
  "cen@@": 6466, 
  "anymore": 6467, 
  "port@@": 6468, 
  "iy@@": 6469, 
  "inj@@": 6470, 
  "brave": 6471, 
  "toll": 6472, 
  "clarity": 6473, 
  "depending": 6474, 
  "ention": 6475, 
  "provoke": 6476, 
  "sentence": 6477, 
  "ai": 6478, 
  "malnutrition": 6479, 
  "floating": 6480, 
  "Cultural": 6481, 
  "capitals": 6482, 
  "forged": 6483, 
  "í@@": 6484, 
  "Lama": 6485, 
  "troubles": 6486, 
  "Sp@@": 6487, 
  "nor@@": 6488, 
  "permitted": 6489, 
  "faction": 6490, 
  "Abkhazia": 6491, 
  "ada": 6492, 
  "-style": 6493, 
  "attraction": 6494, 
  "financially": 6495, 
  "blocks": 6496, 
  "adults": 6497, 
  "Ossetia": 6498, 
  "FSB": 6499, 
  "disappearance": 6500, 
  "Xiaoping": 6501, 
  "extr@@": 6502, 
  "moments": 6503, 
  "trees": 6504, 
  "4-@@": 6505, 
  "reminded": 6506, 
  "G": 6507, 
  "arg@@": 6508, 
  "bombings": 6509, 
  "reconcile": 6510, 
  "indirectly": 6511, 
  "notwithstanding": 6512, 
  "laureate": 6513, 
  "industrialization": 6514, 
  "imperialism": 6515, 
  "assertive": 6516, 
  "bondholders": 6517, 
  "by-@@": 6518, 
  "slowed": 6519, 
  "spl@@": 6520, 
  "op": 6521, 
  "ands": 6522, 
  "enhancing": 6523, 
  "Azerbaijan": 6524, 
  "fundamentalists": 6525, 
  "Liberation": 6526, 
  "Continent": 6527, 
  "resilience": 6528, 
  "chains": 6529, 
  "borrowed": 6530, 
  "stream": 6531, 
  "Erdoğan": 6532, 
  "replacement": 6533, 
  "Swiss": 6534, 
  "cycles": 6535, 
  "1968": 6536, 
  "reas@@": 6537, 
  "ratification": 6538, 
  "incompetence": 6539, 
  "assessing": 6540, 
  "coun@@": 6541, 
  "ro": 6542, 
  "centralized": 6543, 
  "sensitivity": 6544, 
  "Greeks": 6545, 
  "Director": 6546, 
  "gotten": 6547, 
  "hikes": 6548, 
  "origin@@": 6549, 
  "lasted": 6550, 
  "fic@@": 6551, 
  "constructed": 6552, 
  "explanations": 6553, 
  "quietly": 6554, 
  "Sino-@@": 6555, 
  "permanently": 6556, 
  "overly": 6557, 
  "Climate": 6558, 
  "neglected": 6559, 
  "imperfect": 6560, 
  "First": 6561, 
  "slogan": 6562, 
  "Estonia": 6563, 
  "fits": 6564, 
  "tons": 6565, 
  "ent-@@": 6566, 
  "0.5": 6567, 
  "atrocities": 6568, 
  "distr@@": 6569, 
  "gathering": 6570, 
  "flourish": 6571, 
  "Marx": 6572, 
  "hosts": 6573, 
  "scheduled": 6574, 
  "precipit@@": 6575, 
  "tion-@@": 6576, 
  "Special": 6577, 
  "debacle": 6578, 
  "anxious": 6579, 
  "Empire": 6580, 
  "ier": 6581, 
  "grievances": 6582, 
  "US@@": 6583, 
  "portion": 6584, 
  "Freedom": 6585, 
  "somewhere": 6586, 
  "arly": 6587, 
  "ales": 6588, 
  "readiness": 6589, 
  "Fischer": 6590, 
  "credits": 6591, 
  "ara": 6592, 
  "Bretton": 6593, 
  "7-@@": 6594, 
  "assembly": 6595, 
  "sta@@": 6596, 
  "futile": 6597, 
  "sol@@": 6598, 
  "possession": 6599, 
  "evidently": 6600, 
  "ser@@": 6601, 
  "tangible": 6602, 
  "riots": 6603, 
  "ment@@": 6604, 
  "calculated": 6605, 
  "collabor@@": 6606, 
  "paradigm": 6607, 
  "Ottoman": 6608, 
  "staggering": 6609, 
  "scr@@": 6610, 
  "west": 6611, 
  "dividing": 6612, 
  "asing": 6613, 
  "ug@@": 6614, 
  "title": 6615, 
  "eag@@": 6616, 
  "automobile": 6617, 
  "eded": 6618, 
  "rebalancing": 6619, 
  "elimination": 6620, 
  "ify": 6621, 
  "9-@@": 6622, 
  "lifetime": 6623, 
  "arians": 6624, 
  "but@@": 6625, 
  "River": 6626, 
  "trade-@@": 6627, 
  "Singh": 6628, 
  "ined": 6629, 
  "debated": 6630, 
  "dismal": 6631, 
  "resistant": 6632, 
  "languages": 6633, 
  "super-@@": 6634, 
  "superiority": 6635, 
  "arrive": 6636, 
  "fortune": 6637, 
  "persons": 6638, 
  "Har@@": 6639, 
  "Ahmedinejad": 6640, 
  "wil@@": 6641, 
  "self-interest": 6642, 
  "Donald": 6643, 
  "deter": 6644, 
  "Vol@@": 6645, 
  "Ed@@": 6646, 
  "emphasize": 6647, 
  "rev@@": 6648, 
  "discussing": 6649, 
  "smooth": 6650, 
  "ender": 6651, 
  "ceiling": 6652, 
  "watched": 6653, 
  "agendas": 6654, 
  "tering": 6655, 
  "coordinate": 6656, 
  "nuclear-@@": 6657, 
  "violated": 6658, 
  "composition": 6659, 
  "frustrated": 6660, 
  "uprising": 6661, 
  "expectancy": 6662, 
  "Park": 6663, 
  "Left": 6664, 
  "zation": 6665, 
  "lat@@": 6666, 
  "treatments": 6667, 
  "chess": 6668, 
  "workforce": 6669, 
  "conservatism": 6670, 
  "lab@@": 6671, 
  "daunting": 6672, 
  "killings": 6673, 
  "arity": 6674, 
  "Bangladesh": 6675, 
  "communal": 6676, 
  "Bi@@": 6677, 
  "bud@@": 6678, 
  "maintains": 6679, 
  "etc": 6680, 
  "consciousness": 6681, 
  "curse": 6682, 
  "Smith": 6683, 
  "convicted": 6684, 
  "Ko@@": 6685, 
  "inequalities": 6686, 
  "ounds": 6687, 
  "Front": 6688, 
  "profoundly": 6689, 
  "dev@@": 6690, 
  "deprived": 6691, 
  "finished": 6692, 
  "Au@@": 6693, 
  "aces": 6694, 
  "den": 6695, 
  "treason": 6696, 
  "requirement": 6697, 
  "da": 6698, 
  "sacred": 6699, 
  "adds": 6700, 
  "coalitions": 6701, 
  "maximum": 6702, 
  "legislators": 6703, 
  "soul": 6704, 
  "tures": 6705, 
  "conv@@": 6706, 
  "Austrian": 6707, 
  "ze@@": 6708, 
  "tougher": 6709, 
  "items": 6710, 
  "Manuel": 6711, 
  "convention": 6712, 
  "owe": 6713, 
  "hurricanes": 6714, 
  "successive": 6715, 
  "teach": 6716, 
  "interpret": 6717, 
  "branch": 6718, 
  "satisfaction": 6719, 
  "legislature": 6720, 
  "ads": 6721, 
  "breaks": 6722, 
  "exploitation": 6723, 
  "baby": 6724, 
  "G8": 6725, 
  "distorted": 6726, 
  "intr@@": 6727, 
  "UN@@": 6728, 
  "ential": 6729, 
  "dri@@": 6730, 
  "fees": 6731, 
  "procedure": 6732, 
  "rationale": 6733, 
  "advertising": 6734, 
  "oil-@@": 6735, 
  "sovereign-debt": 6736, 
  "Tymoshenko": 6737, 
  "bright": 6738, 
  "ially": 6739, 
  "leftist": 6740, 
  "manship": 6741, 
  "focuses": 6742, 
  "autocratic": 6743, 
  "School": 6744, 
  "skill": 6745, 
  "1920": 6746, 
  "fault": 6747, 
  "sor@@": 6748, 
  "aj@@": 6749, 
  "Hor@@": 6750, 
  "stimul@@": 6751, 
  "continuous": 6752, 
  "floods": 6753, 
  "pound": 6754, 
  "-in-@@": 6755, 
  "Yukos": 6756, 
  "Kan": 6757, 
  "covering": 6758, 
  "lers": 6759, 
  "avert": 6760, 
  "sul@@": 6761, 
  "financiers": 6762, 
  "conceived": 6763, 
  "husband": 6764, 
  "CD@@": 6765, 
  "orchestr@@": 6766, 
  "Em@@": 6767, 
  "Chavez": 6768, 
  "teaching": 6769, 
  "overlooked": 6770, 
  "disagreements": 6771, 
  "negotiators": 6772, 
  "sponsored": 6773, 
  "Nice": 6774, 
  "clu@@": 6775, 
  "800": 6776, 
  "theme": 6777, 
  "ell": 6778, 
  "WHO": 6779, 
  "refrain": 6780, 
  "Cameron": 6781, 
  "rail@@": 6782, 
  "regi@@": 6783, 
  "lit@@": 6784, 
  "stopping": 6785, 
  "digital": 6786, 
  "lest": 6787, 
  "conscience": 6788, 
  "heritage": 6789, 
  "detention": 6790, 
  "ues": 6791, 
  "temp@@": 6792, 
  "Burmese": 6793, 
  "Dalai": 6794, 
  "pandemic": 6795, 
  "refusing": 6796, 
  "fat@@": 6797, 
  "Be@@": 6798, 
  "reckless": 6799, 
  "bleak": 6800, 
  "fly": 6801, 
  "Guatemala": 6802, 
  "IF@@": 6803, 
  "obliged": 6804, 
  "assure": 6805, 
  "Vienna": 6806, 
  "ICC": 6807, 
  "medi@@": 6808, 
  "Katrina": 6809, 
  "fulfilled": 6810, 
  "ner@@": 6811, 
  "insists": 6812, 
  "removal": 6813, 
  "proceedings": 6814, 
  "distortions": 6815, 
  "oms": 6816, 
  "clearer": 6817, 
  "Bashar": 6818, 
  "expects": 6819, 
  "outweigh": 6820, 
  "vigorous": 6821, 
  "Liberia": 6822, 
  "intermedi@@": 6823, 
  "sli@@": 6824, 
  "shar@@": 6825, 
  "eve": 6826, 
  "sitting": 6827, 
  "worsening": 6828, 
  "hel@@": 6829, 
  "respective": 6830, 
  "Non-Proliferation": 6831, 
  "opponent": 6832, 
  "Ham@@": 6833, 
  "600": 6834, 
  "unthinkable": 6835, 
  "troubling": 6836, 
  "Zhao": 6837, 
  "shattered": 6838, 
  "passive": 6839, 
  "plot": 6840, 
  "rene@@": 6841, 
  "opinions": 6842, 
  "caution": 6843, 
  "translate": 6844, 
  "trick@@": 6845, 
  "infected": 6846, 
  "Bashir": 6847, 
  "whoever": 6848, 
  "recipient": 6849, 
  "ugly": 6850, 
  "Atomic": 6851, 
  "Force": 6852, 
  "speculators": 6853, 
  "oring": 6854, 
  "anded": 6855, 
  "reacted": 6856, 
  "associations": 6857, 
  "shel@@": 6858, 
  "ached": 6859, 
  "Pentagon": 6860, 
  "revenge": 6861, 
  "contemplate": 6862, 
  "spir@@": 6863, 
  "pulled": 6864, 
  "outbreak": 6865, 
  "myriad": 6866, 
  "non-governmental": 6867, 
  "beneath": 6868, 
  "entities": 6869, 
  "centered": 6870, 
  "anyway": 6871, 
  "paralyzed": 6872, 
  "Bangkok": 6873, 
  "idly": 6874, 
  "tery": 6875, 
  "bat@@": 6876, 
  "closest": 6877, 
  "Sadat": 6878, 
  "Tr@@": 6879, 
  "reporters": 6880, 
  "excesses": 6881, 
  "privileged": 6882, 
  "lucky": 6883, 
  "derived": 6884, 
  "read@@": 6885, 
  "accusations": 6886, 
  "rid": 6887, 
  "entrepreneurship": 6888, 
  "repu@@": 6889, 
  "profile": 6890, 
  "Gl@@": 6891, 
  "Basel": 6892, 
  "directors": 6893, 
  "attacking": 6894, 
  "Kerry": 6895, 
  "empowered": 6896, 
  "lau@@": 6897, 
  "entrepreneurial": 6898, 
  "lifted": 6899, 
  "verdict": 6900, 
  "Istanbul": 6901, 
  "modernize": 6902, 
  "bolster": 6903, 
  "pessimism": 6904, 
  "broker": 6905, 
  "miles": 6906, 
  "François": 6907, 
  "naïve": 6908, 
  "suits": 6909, 
  "spiral": 6910, 
  "harb@@": 6911, 
  "unavoidable": 6912, 
  "reminds": 6913, 
  "reversal": 6914, 
  "outstanding": 6915, 
  "oppression": 6916, 
  "grim": 6917, 
  "agging": 6918, 
  "mining": 6919, 
  "US-led": 6920, 
  "proving": 6921, 
  "domin@@": 6922, 
  "reviving": 6923, 
  "1988": 6924, 
  "responds": 6925, 
  "bri@@": 6926, 
  "Coun@@": 6927, 
  "motivation": 6928, 
  "scarcity": 6929, 
  "handling": 6930, 
  "pledge": 6931, 
  "excessively": 6932, 
  "crowds": 6933, 
  "tone": 6934, 
  "connect": 6935, 
  "ko": 6936, 
  "mudd@@": 6937, 
  "ung@@": 6938, 
  "studying": 6939, 
  "agent": 6940, 
  "suppress": 6941, 
  "show@@": 6942, 
  "perpetu@@": 6943, 
  "cho@@": 6944, 
  "embodied": 6945, 
  "Je@@": 6946, 
  "Mor@@": 6947, 
  "republic": 6948, 
  "matched": 6949, 
  "ar-@@": 6950, 
  "Wor@@": 6951, 
  "sian": 6952, 
  "norm": 6953, 
  "privileges": 6954, 
  "Scotland": 6955, 
  "listed": 6956, 
  "stalled": 6957, 
  "reformed": 6958, 
  "Islamabad": 6959, 
  "integral": 6960, 
  "We@@": 6961, 
  "seed": 6962, 
  "collateral": 6963, 
  "renewal": 6964, 
  "reminder": 6965, 
  "discourage": 6966, 
  "Second": 6967, 
  "allied": 6968, 
  "everyday": 6969, 
  "penalty": 6970, 
  "frameworks": 6971, 
  "beautiful": 6972, 
  "crunch": 6973, 
  "engines": 6974, 
  "isolate": 6975, 
  "unfortunate": 6976, 
  "legitim@@": 6977, 
  "Mont@@": 6978, 
  "At@@": 6979, 
  "accumulate": 6980, 
  "mobilized": 6981, 
  "disorders": 6982, 
  "ny": 6983, 
  "gather": 6984, 
  "Nicaragua": 6985, 
  "defines": 6986, 
  "endangered": 6987, 
  "telecommunications": 6988, 
  "fifty": 6989, 
  "season": 6990, 
  "Christianity": 6991, 
  "populated": 6992, 
  "cling": 6993, 
  "replacing": 6994, 
  "punish": 6995, 
  "philosopher": 6996, 
  "alling": 6997, 
  "pretty": 6998, 
  "surrounded": 6999, 
  "atically": 7000, 
  "holy": 7001, 
  "power@@": 7002, 
  "reassuring": 7003, 
  "pac@@": 7004, 
  "Jo@@": 7005, 
  "astic": 7006, 
  "fer@@": 7007, 
  "tenure": 7008, 
  "premature": 7009, 
  "committing": 7010, 
  "sentenced": 7011, 
  "hang": 7012, 
  "celebrated": 7013, 
  "Three": 7014, 
  "anchor": 7015, 
  "shrink": 7016, 
  "advocated": 7017, 
  "sin@@": 7018, 
  "Maghreb": 7019, 
  "boosted": 7020, 
  "disappointed": 7021, 
  "market-@@": 7022, 
  "Partnership": 7023, 
  "Taylor": 7024, 
  "uries": 7025, 
  "guns": 7026, 
  "underestimated": 7027, 
  "La@@": 7028, 
  "isms": 7029, 
  "reactor": 7030, 
  "compromises": 7031, 
  "capacities": 7032, 
  "turing": 7033, 
  "embedded": 7034, 
  "resume": 7035, 
  "swept": 7036, 
  "selected": 7037, 
  "erosion": 7038, 
  "rush": 7039, 
  "ki": 7040, 
  "trusted": 7041, 
  "frozen": 7042, 
  "Dis@@": 7043, 
  "birds": 7044, 
  "drag": 7045, 
  "cents": 7046, 
  "ounded": 7047, 
  "defenses": 7048, 
  "enshrined": 7049, 
  "longstanding": 7050, 
  "obsolete": 7051, 
  "constitu@@": 7052, 
  "aining": 7053, 
  "sn@@": 7054, 
  "42": 7055, 
  "Executive": 7056, 
  "Colombian": 7057, 
  "fiable": 7058, 
  "Dr.": 7059, 
  "charisma": 7060, 
  "1940": 7061, 
  "tropical": 7062, 
  "five-year": 7063, 
  "ky": 7064, 
  "pos@@": 7065, 
  "plain": 7066, 
  "tendencies": 7067, 
  "arose": 7068, 
  "violate": 7069, 
  "CI@@": 7070, 
  "ili@@": 7071, 
  "criticize": 7072, 
  "ome@@": 7073, 
  "reb@@": 7074, 
  "if@@": 7075, 
  "Qatar": 7076, 
  "capit@@": 7077, 
  "enormously": 7078, 
  "00,000": 7079, 
  "moderation": 7080, 
  "exporter": 7081, 
  "repercussions": 7082, 
  "opt": 7083, 
  "autonomous": 7084, 
  "arrogance": 7085, 
  "secretary": 7086, 
  "hire": 7087, 
  "ocean": 7088, 
  "enact": 7089, 
  "blin@@": 7090, 
  "square": 7091, 
  "distinguished": 7092, 
  "vehicle": 7093, 
  "empowerment": 7094, 
  "Sharia": 7095, 
  "communicate": 7096, 
  "calculation": 7097, 
  "royal": 7098, 
  "-L@@": 7099, 
  "hurricane": 7100, 
  "honesty": 7101, 
  "optimal": 7102, 
  "traumatic": 7103, 
  "mad@@": 7104, 
  "van@@": 7105, 
  "elling": 7106, 
  "indebted": 7107, 
  "anch@@": 7108, 
  "embracing": 7109, 
  "insur@@": 7110, 
  "Uzbekistan": 7111, 
  "coast": 7112, 
  "possesses": 7113, 
  "administrations": 7114, 
  "appreciated": 7115, 
  "realizing": 7116, 
  "K": 7117, 
  "republics": 7118, 
  "please": 7119, 
  "pled": 7120, 
  "lifting": 7121, 
  "convenient": 7122, 
  "Nigerian": 7123, 
  "err@@": 7124, 
  "Costa": 7125, 
  "Wal@@": 7126, 
  "EFSF": 7127, 
  "inism": 7128, 
  "On": 7129, 
  "Goals": 7130, 
  "-of-@@": 7131, 
  "articles": 7132, 
  "referred": 7133, 
  "peasant": 7134, 
  "induce": 7135, 
  "pledges": 7136, 
  "self-defense": 7137, 
  "W": 7138, 
  "mixture": 7139, 
  "lawyer": 7140, 
  "reinforcing": 7141, 
  "develop@@": 7142, 
  "interaction": 7143, 
  "pages": 7144, 
  "walls": 7145, 
  "j": 7146, 
  "comments": 7147, 
  "SARS": 7148, 
  "sorts": 7149, 
  "conflicting": 7150, 
  "eu@@": 7151, 
  "sweeping": 7152, 
  "declaring": 7153, 
  "wit@@": 7154, 
  "activ@@": 7155, 
  "Munich": 7156, 
  "not@@": 7157, 
  "turnout": 7158, 
  "tail@@": 7159, 
  "fusion": 7160, 
  "venture": 7161, 
  "tissue": 7162, 
  "Rice": 7163, 
  "ata": 7164, 
  "modernizing": 7165, 
  "torn": 7166, 
  "ord@@": 7167, 
  "0.7": 7168, 
  "prudence": 7169, 
  "wast@@": 7170, 
  "underscores": 7171, 
  "quar@@": 7172, 
  "exported": 7173, 
  "clashes": 7174, 
  "projections": 7175, 
  "trauma": 7176, 
  "preceded": 7177, 
  "universe": 7178, 
  "introducing": 7179, 
  "700": 7180, 
  "junta": 7181, 
  "journalist": 7182, 
  "rejecting": 7183, 
  "sums": 7184, 
  "dre@@": 7185, 
  "Affairs": 7186, 
  "lied": 7187, 
  "fire@@": 7188, 
  "sanitation": 7189, 
  "conce@@": 7190, 
  "inging": 7191, 
  "lethal": 7192, 
  "bly": 7193, 
  "receives": 7194, 
  "drinking": 7195, 
  "marketplace": 7196, 
  "Se@@": 7197, 
  "armies": 7198, 
  "lists": 7199, 
  "neg@@": 7200, 
  "taste": 7201, 
  "ambassador": 7202, 
  "delivery": 7203, 
  "collapsing": 7204, 
  "essions": 7205, 
  "maturity": 7206, 
  "susceptible": 7207, 
  "abor@@": 7208, 
  "evolve": 7209, 
  "Henry": 7210, 
  "insisting": 7211, 
  "middle-income": 7212, 
  "inertia": 7213, 
  "ei@@": 7214, 
  "foods": 7215, 
  "ress": 7216, 
  "ine@@": 7217, 
  "heated": 7218, 
  "essness": 7219, 
  "suspended": 7220, 
  "advancing": 7221, 
  "warm": 7222, 
  "fun@@": 7223, 
  "privilege": 7224, 
  "transaction": 7225, 
  "hi": 7226, 
  "boy": 7227, 
  "holder": 7228, 
  "reck@@": 7229, 
  "Beirut": 7230, 
  "inflation-@@": 7231, 
  "Maynard": 7232, 
  "AI@@": 7233, 
  "doubtful": 7234, 
  "heightened": 7235, 
  "Kar@@": 7236, 
  "organizational": 7237, 
  "depressed": 7238, 
  "deteriorating": 7239, 
  "aint": 7240, 
  "Asia-Pacific": 7241, 
  "gro@@": 7242, 
  "dimensions": 7243, 
  "notorious": 7244, 
  "weakens": 7245, 
  "eradication": 7246, 
  "loc@@": 7247, 
  "ick": 7248, 
  "implying": 7249, 
  "hardest": 7250, 
  "Mc@@": 7251, 
  "worrisome": 7252, 
  "29": 7253, 
  "correctly": 7254, 
  "viewing": 7255, 
  "condemn": 7256, 
  "mismanagement": 7257, 
  "es-@@": 7258, 
  "routine": 7259, 
  "depositors": 7260, 
  "hawks": 7261, 
  "blown": 7262, 
  "ags": 7263, 
  "One": 7264, 
  "rocket": 7265, 
  "anti-Semitism": 7266, 
  "Bal@@": 7267, 
  "aligned": 7268, 
  "headquarters": 7269, 
  "exceeds": 7270, 
  "loose": 7271, 
  "contempt": 7272, 
  "2030": 7273, 
  "li": 7274, 
  "indicated": 7275, 
  "deleveraging": 7276, 
  "far@@": 7277, 
  "EU-@@": 7278, 
  "squeeze": 7279, 
  "accumulated": 7280, 
  "bent": 7281, 
  "nineteenth-century": 7282, 
  "transitional": 7283, 
  "acking": 7284, 
  "arm": 7285, 
  "writers": 7286, 
  "indicator": 7287, 
  "understandably": 7288, 
  "golden": 7289, 
  "entail": 7290, 
  "euphoria": 7291, 
  "guerrillas": 7292, 
  "Sierra": 7293, 
  "Che": 7294, 
  "resigned": 7295, 
  "activist": 7296, 
  "eth@@": 7297, 
  "Albania": 7298, 
  "video": 7299, 
  "priced": 7300, 
  "shi@@": 7301, 
  "siege": 7302, 
  "rejects": 7303, 
  "patience": 7304, 
  "consumed": 7305, 
  "qual@@": 7306, 
  "Leone": 7307, 
  "talked": 7308, 
  "doctor": 7309, 
  "cla@@": 7310, 
  "merits": 7311, 
  "NAFTA": 7312, 
  "undergoing": 7313, 
  "lying": 7314, 
  "fantasy": 7315, 
  "monopolies": 7316, 
  "militar@@": 7317, 
  "ster": 7318, 
  "approve": 7319, 
  "invisible": 7320, 
  "comparisons": 7321, 
  "high-quality": 7322, 
  "St.": 7323, 
  "Bin": 7324, 
  "neo-liberal": 7325, 
  "Sha@@": 7326, 
  "exercises": 7327, 
  "distribu@@": 7328, 
  "Wil@@": 7329, 
  "á@@": 7330, 
  "Pre@@": 7331, 
  "diversification": 7332, 
  "Pol@@": 7333, 
  "cent": 7334, 
  "problematic": 7335, 
  "patri@@": 7336, 
  "demograph@@": 7337, 
  "Czechoslovakia": 7338, 
  "5,000": 7339, 
  "length": 7340, 
  "drama": 7341, 
  "scar@@": 7342, 
  "ede": 7343, 
  "win@@": 7344, 
  "appetite": 7345, 
  "sia": 7346, 
  "appealing": 7347, 
  "strive": 7348, 
  "high-level": 7349, 
  "pollu@@": 7350, 
  "restrict": 7351, 
  "blessing": 7352, 
  "deser@@": 7353, 
  "sively": 7354, 
  "public@@": 7355, 
  "tainted": 7356, 
  "regards": 7357, 
  "frame": 7358, 
  "murdered": 7359, 
  "Serb": 7360, 
  "ust": 7361, 
  "debtor": 7362, 
  "maker": 7363, 
  "guidelines": 7364, 
  "proves": 7365, 
  "credentials": 7366, 
  "transferred": 7367, 
  "Marshall": 7368, 
  "colon@@": 7369, 
  "odd": 7370, 
  "Sachs": 7371, 
  "For": 7372, 
  "mentality": 7373, 
  "forum": 7374, 
  "literature": 7375, 
  "emulate": 7376, 
  "Prodi": 7377, 
  "NA@@": 7378, 
  "disposal": 7379, 
  "organisms": 7380, 
  "ana@@": 7381, 
  "historian": 7382, 
  ")RRC": 7383, 
  "victories": 7384, 
  "soldier": 7385, 
  "curtail": 7386, 
  "applying": 7387, 
  "six@@": 7388, 
  "lessness": 7389, 
  "(RRC": 7390, 
  "occasions": 7391, 
  "exclude": 7392, 
  "vian": 7393, 
  "dedicated": 7394, 
  "planes": 7395, 
  "My@@": 7396, 
  "ai@@": 7397, 
  "four@@": 7398, 
  "peer": 7399, 
  "atomic": 7400, 
  "trick": 7401, 
  "gn@@": 7402, 
  "web": 7403, 
  "continuation": 7404, 
  "populists": 7405, 
  "Sy@@": 7406, 
  "Yes": 7407, 
  "persuaded": 7408, 
  "acknowledging": 7409, 
  "refer": 7410, 
  "diminishing": 7411, 
  "viruses": 7412, 
  "tolerant": 7413, 
  "judgments": 7414, 
  "busy": 7415, 
  "popul@@": 7416, 
  "But": 7417, 
  "low-income": 7418, 
  "denying": 7419, 
  "best-@@": 7420, 
  "enlarged": 7421, 
  "magn@@": 7422, 
  "postponed": 7423, 
  "complaints": 7424, 
  "innov@@": 7425, 
  "practiced": 7426, 
  "undervalued": 7427, 
  "counterpart": 7428, 
  "hugely": 7429, 
  "Mac@@": 7430, 
  "daughter": 7431, 
  "remedy": 7432, 
  "skin": 7433, 
  "owner": 7434, 
  "unhappy": 7435, 
  "amb@@": 7436, 
  "idd@@": 7437, 
  "critically": 7438, 
  "bar": 7439, 
  "itable": 7440, 
  "ama": 7441, 
  "itions": 7442, 
  "gasoline": 7443, 
  "pping": 7444, 
  "Berkeley": 7445, 
  "equitable": 7446, 
  "realism": 7447, 
  "hegemonic": 7448, 
  "governors": 7449, 
  "deploy": 7450, 
  "ousness": 7451, 
  "Soviets": 7452, 
  "Davos": 7453, 
  "AR@@": 7454, 
  "containing": 7455, 
  "contradiction": 7456, 
  "tow@@": 7457, 
  "strong@@": 7458, 
  "starvation": 7459, 
  "delicate": 7460, 
  "modern@@": 7461, 
  "undertaking": 7462, 
  "OPEC": 7463, 
  "postpone": 7464, 
  "alarm": 7465, 
  "ears": 7466, 
  "dian": 7467, 
  "valid": 7468, 
  "Barroso": 7469, 
  "spur@@": 7470, 
  "sem@@": 7471, 
  "lessly": 7472, 
  "onset": 7473, 
  "ink": 7474, 
  "tiz@@": 7475, 
  "consequently": 7476, 
  "unc@@": 7477, 
  "38": 7478, 
  "defenders": 7479, 
  "beg@@": 7480, 
  "escalating": 7481, 
  "denounced": 7482, 
  "hear@@": 7483, 
  "portfolios": 7484, 
  "climate-change": 7485, 
  "preserved": 7486, 
  "fixing": 7487, 
  "flood": 7488, 
  "un-@@": 7489, 
  "revealing": 7490, 
  "spr@@": 7491, 
  "sid@@": 7492, 
  "Sum@@": 7493, 
  "escalation": 7494, 
  "You": 7495, 
  "ow": 7496, 
  "chan@@": 7497, 
  "tible": 7498, 
  "psychiatric": 7499, 
  "bizarre": 7500, 
  "scare": 7501, 
  "Ortega": 7502, 
  "breakthroughs": 7503, 
  "Change": 7504, 
  "Tehran": 7505, 
  "IT": 7506, 
  "Erdogan": 7507, 
  "risk-taking": 7508, 
  "exceptionally": 7509, 
  "onist": 7510, 
  "Europe@@": 7511, 
  "ran@@": 7512, 
  "adequately": 7513, 
  "apping": 7514, 
  "jointly": 7515, 
  "Petersburg": 7516, 
  "branches": 7517, 
  "ind@@": 7518, 
  "Dubai": 7519, 
  "nuclear-armed": 7520, 
  "printing": 7521, 
  "arsenal": 7522, 
  "resign": 7523, 
  "obsessed": 7524, 
  "extends": 7525, 
  "drew": 7526, 
  "Economy": 7527, 
  "compromised": 7528, 
  "aire": 7529, 
  "fascist": 7530, 
  "conditionality": 7531, 
  "calamity": 7532, 
  "sun": 7533, 
  "gh@@": 7534, 
  "adult": 7535, 
  "relatives": 7536, 
  "fre@@": 7537, 
  "ost": 7538, 
  "apo@@": 7539, 
  "edi@@": 7540, 
  "Lithuania": 7541, 
  "dominates": 7542, 
  "benefiting": 7543, 
  "identical": 7544, 
  "13@@": 7545, 
  "freer": 7546, 
  "Iron": 7547, 
  "guidance": 7548, 
  "pan-European": 7549, 
  "enjoys": 7550, 
  "tified": 7551, 
  "Prince": 7552, 
  "HAVEN": 7553, 
  "rebel": 7554, 
  "CF@@": 7555, 
  "mer": 7556, 
  "abundant": 7557, 
  "Sinai": 7558, 
  "mathematical": 7559, 
  "Ha@@": 7560, 
  "disruption": 7561, 
  "tle": 7562, 
  "giants": 7563, 
  "compounded": 7564, 
  "pric@@": 7565, 
  "Mad@@": 7566, 
  "labor-market": 7567, 
  "Black": 7568, 
  "duties": 7569, 
  "inward": 7570, 
  "WikiLeaks": 7571, 
  "mosque": 7572, 
  "manageable": 7573, 
  "battlefield": 7574, 
  "prosecutor": 7575, 
  "eroded": 7576, 
  "burdened": 7577, 
  "strip": 7578, 
  "ceasefire": 7579, 
  "height": 7580, 
  "enjoying": 7581, 
  "virtues": 7582, 
  "vac@@": 7583, 
  "phones": 7584, 
  "qualify": 7585, 
  "sist@@": 7586, 
  "empirical": 7587, 
  "childhood": 7588, 
  "SDRs": 7589, 
  "intelligent": 7590, 
  "raz@@": 7591, 
  "aming": 7592, 
  "fronts": 7593, 
  "reaches": 7594, 
  "lah": 7595, 
  "dependency": 7596, 
  "supportive": 7597, 
  "hyper@@": 7598, 
  "fli@@": 7599, 
  "Bay": 7600, 
  "ws": 7601, 
  "dot@@": 7602, 
  "Los": 7603, 
  "clam@@": 7604, 
  "deleg@@": 7605, 
  "stayed": 7606, 
  "za": 7607, 
  "obtained": 7608, 
  "José": 7609, 
  "amed": 7610, 
  "dose": 7611, 
  "1986": 7612, 
  "preference": 7613, 
  "proposing": 7614, 
  "clubs": 7615, 
  "invitation": 7616, 
  "detail": 7617, 
  "demonstrators": 7618, 
  "issuing": 7619, 
  "intervening": 7620, 
  "remarks": 7621, 
  "mature": 7622, 
  "supremacy": 7623, 
  "Slobodan": 7624, 
  "resembles": 7625, 
  "Il": 7626, 
  "mel@@": 7627, 
  "cocaine": 7628, 
  "Iceland": 7629, 
  "alizes": 7630, 
  "objec@@": 7631, 
  "ministry": 7632, 
  "high@@": 7633, 
  "evolving": 7634, 
  "succeeds": 7635, 
  "impede": 7636, 
  "harmony": 7637, 
  "jeopardize": 7638, 
  "ared": 7639, 
  "undercut": 7640, 
  "endorse": 7641, 
  "color": 7642, 
  "strains": 7643, 
  "retaliation": 7644, 
  "devise": 7645, 
  "micro@@": 7646, 
  "properties": 7647, 
  "alli@@": 7648, 
  "ander": 7649, 
  "deforestation": 7650, 
  "invention": 7651, 
  "exact": 7652, 
  "9.@@": 7653, 
  "mist@@": 7654, 
  "college": 7655, 
  "demag@@": 7656, 
  "Shiite": 7657, 
  "equals": 7658, 
  "tax@@": 7659, 
  "hostage": 7660, 
  "subsidy": 7661, 
  "safeguards": 7662, 
  "conditional": 7663, 
  "ecological": 7664, 
  "loos@@": 7665, 
  "livelihoods": 7666, 
  "Two": 7667, 
  "spin": 7668, 
  "peg": 7669, 
  "blood@@": 7670, 
  "combatants": 7671, 
  "vary": 7672, 
  "tyranny": 7673, 
  "desc@@": 7674, 
  "1.3": 7675, 
  "advocating": 7676, 
  "brother": 7677, 
  "Mexicans": 7678, 
  "commanders": 7679, 
  "outset": 7680, 
  "excluding": 7681, 
  "Salvador": 7682, 
  "comply": 7683, 
  "steep": 7684, 
  "contradic@@": 7685, 
  "ron@@": 7686, 
  "pet": 7687, 
  "plac@@": 7688, 
  "cool": 7689, 
  "feedback": 7690, 
  "prompted": 7691, 
  "strengths": 7692, 
  "al-Assad": 7693, 
  "demon@@": 7694, 
  "siveness": 7695, 
  "fearful": 7696, 
  "gangs": 7697, 
  "Boli@@": 7698, 
  "rewarded": 7699, 
  "locations": 7700, 
  "clever": 7701, 
  "scenes": 7702, 
  "shops": 7703, 
  "resilient": 7704, 
  "documented": 7705, 
  "drastic": 7706, 
  "Mbeki": 7707, 
  "producer": 7708, 
  "publish": 7709, 
  "thrive": 7710, 
  "bloodshed": 7711, 
  "6-@@": 7712, 
  "conferences": 7713, 
  "committees": 7714, 
  "grassroots": 7715, 
  "Islands": 7716, 
  "vulnerabilities": 7717, 
  "concerted": 7718, 
  "assurances": 7719, 
  "famine": 7720, 
  "shut@@": 7721, 
  "Mitterrand": 7722, 
  "qualities": 7723, 
  "indictment": 7724, 
  "ensured": 7725, 
  "Vice": 7726, 
  "sy@@": 7727, 
  "ped@@": 7728, 
  "mistrust": 7729, 
  "sequence": 7730, 
  "agrees": 7731, 
  "shocked": 7732, 
  "conver@@": 7733, 
  "Enron": 7734, 
  "jump": 7735, 
  "prohibition": 7736, 
  "liberalizing": 7737, 
  "intends": 7738, 
  "visits": 7739, 
  "notes": 7740, 
  "earning": 7741, 
  "jurisdiction": 7742, 
  "gy": 7743, 
  "translated": 7744, 
  "Des@@": 7745, 
  "supreme": 7746, 
  "Ju@@": 7747, 
  "brid@@": 7748, 
  "attracting": 7749, 
  "rock": 7750, 
  "outlets": 7751, 
  "inhabitants": 7752, 
  "dro@@": 7753, 
  "angle": 7754, 
  "redress": 7755, 
  "oz@@": 7756, 
  "rapprochement": 7757, 
  "brutality": 7758, 
  "essed": 7759, 
  "nonsense": 7760, 
  "burned": 7761, 
  "elusive": 7762, 
  "Val@@": 7763, 
  "array": 7764, 
  "devi@@": 7765, 
  "replied": 7766, 
  "20,000": 7767, 
  "onal": 7768, 
  "characteristic": 7769, 
  "banker": 7770, 
  "Do": 7771, 
  "obsession": 7772, 
  "slaughter": 7773, 
  "notions": 7774, 
  "nationality": 7775, 
  "tot@@": 7776, 
  "opium": 7777, 
  "ected": 7778, 
  "slow@@": 7779, 
  "profitability": 7780, 
  "Goldman": 7781, 
  "dismantling": 7782, 
  "taboo": 7783, 
  "advised": 7784, 
  "START": 7785, 
  "officer": 7786, 
  "passes": 7787, 
  "delegation": 7788, 
  "fans": 7789, 
  "evasion": 7790, 
  "grab@@": 7791, 
  "pre-crisis": 7792, 
  "tin@@": 7793, 
  "ene": 7794, 
  "motiv@@": 7795, 
  "disproportionate": 7796, 
  "cop@@": 7797, 
  "switch": 7798, 
  "Wahhabi": 7799, 
  "inputs": 7800, 
  "itting": 7801, 
  "warn": 7802, 
  "Belgrade": 7803, 
  "compliance": 7804, 
  "energy-@@": 7805, 
  "chemistry": 7806, 
  "ino": 7807, 
  "meat": 7808, 
  "shooting": 7809, 
  "deadlock": 7810, 
  "durable": 7811, 
  "tici@@": 7812, 
  "seldom": 7813, 
  "strain": 7814, 
  "ignores": 7815, 
  "hearing": 7816, 
  "slogans": 7817, 
  "broadcast@@": 7818, 
  "synthetic": 7819, 
  "narrowly": 7820, 
  "hab@@": 7821, 
  "thinkers": 7822, 
  "questioned": 7823, 
  "consultation": 7824, 
  "metaphor": 7825, 
  "oldest": 7826, 
  "collect": 7827, 
  "meth@@": 7828, 
  "ensible": 7829, 
  "rein@@": 7830, 
  "Karl": 7831, 
  "squandered": 7832, 
  "Fukushima": 7833, 
  "pharmaceutical": 7834, 
  "par": 7835, 
  "inal": 7836, 
  "insight": 7837, 
  "icks": 7838, 
  "exert": 7839, 
  "-out": 7840, 
  "composed": 7841, 
  "Silvio": 7842, 
  "investigations": 7843, 
  "infectious": 7844, 
  "exhausted": 7845, 
  "nation-state": 7846, 
  "Cha@@": 7847, 
  "equation": 7848, 
  "droughts": 7849, 
  "urbanization": 7850, 
  "verge": 7851, 
  "Cham@@": 7852, 
  "uk@@": 7853, 
  "fif@@": 7854, 
  "Jud@@": 7855, 
  "similarities": 7856, 
  "nostalgia": 7857, 
  "guess": 7858, 
  "š@@": 7859, 
  "95": 7860, 
  "landing": 7861, 
  "ays": 7862, 
  "shore": 7863, 
  "doubling": 7864, 
  "arts": 7865, 
  "rationality": 7866, 
  "Anwar": 7867, 
  "Roman": 7868, 
  "gged": 7869, 
  "compassion": 7870, 
  "add@@": 7871, 
  "ups": 7872, 
  "communic@@": 7873, 
  "cited": 7874, 
  "one-party": 7875, 
  "3.5": 7876, 
  "rounds": 7877, 
  "brothers": 7878, 
  "U": 7879, 
  "lobby": 7880, 
  "thro@@": 7881, 
  "masters": 7882, 
  "Palin": 7883, 
  "arising": 7884, 
  "persists": 7885, 
  "chem@@": 7886, 
  "category": 7887, 
  "uous": 7888, 
  "As@@": 7889, 
  "cit@@": 7890, 
  "polic@@": 7891, 
  "red@@": 7892, 
  "ility": 7893, 
  "aker": 7894, 
  "defin@@": 7895, 
  "connec@@": 7896, 
  "collected": 7897, 
  "1948": 7898, 
  "let@@": 7899, 
  "environmentally": 7900, 
  "praise": 7901, 
  "backward": 7902, 
  "conversation": 7903, 
  "ab": 7904, 
  "alleviate": 7905, 
  "whereby": 7906, 
  "EC@@": 7907, 
  "smo@@": 7908, 
  "logist": 7909, 
  "of-@@": 7910, 
  "prevails": 7911, 
  "wounded": 7912, 
  "avi@@": 7913, 
  "diver@@": 7914, 
  "center-right": 7915, 
  "Alexander": 7916, 
  "broad@@": 7917, 
  "proposition": 7918, 
  "anytime": 7919, 
  "Franklin": 7920, 
  "volunte@@": 7921, 
  "manufacturers": 7922, 
  "select": 7923, 
  "post-crisis": 7924, 
  "nal": 7925, 
  "polio": 7926, 
  "Aristide": 7927, 
  "laying": 7928, 
  "replic@@": 7929, 
  "Liber@@": 7930, 
  "agreeing": 7931, 
  "stature": 7932, 
  "adviser": 7933, 
  "non-state": 7934, 
  "grap@@": 7935, 
  "Fre@@": 7936, 
  "NTC": 7937, 
  "inspections": 7938, 
  "ank@@": 7939, 
  "ature": 7940, 
  "intact": 7941, 
  "infer@@": 7942, 
  "talents": 7943, 
  "assertion": 7944, 
  "judging": 7945, 
  "passage": 7946, 
  "shaky": 7947, 
  "old-@@": 7948, 
  "PA": 7949, 
  "slight": 7950, 
  "eration": 7951, 
  "cross-@@": 7952, 
  "opportun@@": 7953, 
  "predic@@": 7954, 
  "decides": 7955, 
  "ares": 7956, 
  "Abe": 7957, 
  "rivers": 7958, 
  "sle@@": 7959, 
  "atives": 7960, 
  "voter": 7961, 
  "attended": 7962, 
  "tier": 7963, 
  "tempting": 7964, 
  "compatible": 7965, 
  "categories": 7966, 
  "glob@@": 7967, 
  "1982": 7968, 
  "alarm@@": 7969, 
  "warrant": 7970, 
  "Sudanese": 7971, 
  "corporation": 7972, 
  "rem@@": 7973, 
  "minute": 7974, 
  "3,000": 7975, 
  "talented": 7976, 
  "eating": 7977, 
  "habit": 7978, 
  "kin": 7979, 
  "fathers": 7980, 
  "asi@@": 7981, 
  "boom@@": 7982, 
  "foreign-@@": 7983, 
  "fare": 7984, 
  "itors": 7985, 
  "vanished": 7986, 
  "Silicon": 7987, 
  "dangerously": 7988, 
  "haven": 7989, 
  "SDR": 7990, 
  "mathematics": 7991, 
  "bes@@": 7992, 
  "salary": 7993, 
  "motor": 7994, 
  "ims": 7995, 
  "0.0@@": 7996, 
  "Liberal": 7997, 
  "competent": 7998, 
  "Cal@@": 7999, 
  "directions": 8000, 
  "stores": 8001, 
  "Advis@@": 8002, 
  "est-@@": 8003, 
  "outrage": 8004, 
  "deepened": 8005, 
  "pulling": 8006, 
  "industri@@": 8007, 
  "unequal": 8008, 
  "herself": 8009, 
  "rumors": 8010, 
  "barrier": 8011, 
  "imprisoned": 8012, 
  "charismatic": 8013, 
  "magic": 8014, 
  "ens@@": 8015, 
  "as-@@": 8016, 
  "insights": 8017, 
  "oy@@": 8018, 
  "leap": 8019, 
  "wal@@": 8020, 
  "dar@@": 8021, 
  "hike": 8022, 
  "humiliating": 8023, 
  "shield": 8024, 
  "linking": 8025, 
  "Stat@@": 8026, 
  "Yale": 8027, 
  "constructing": 8028, 
  "murderous": 8029, 
  "scor@@": 8030, 
  "induc@@": 8031, 
  "crum@@": 8032, 
  "autom@@": 8033, 
  "constituted": 8034, 
  "scre@@": 8035, 
  "anism": 8036, 
  "lified": 8037, 
  "surr@@": 8038, 
  "Enlightenment": 8039, 
  "authorized": 8040, 
  "indicted": 8041, 
  "risk-@@": 8042, 
  "withdrawing": 8043, 
  "subjected": 8044, 
  "journalism": 8045, 
  "stolen": 8046, 
  "counted": 8047, 
  "repay": 8048, 
  "imposition": 8049, 
  "onally": 8050, 
  "unintended": 8051, 
  "Sin@@": 8052, 
  "irreversible": 8053, 
  "liability": 8054, 
  "37": 8055, 
  "interrup@@": 8056, 
  "efully": 8057, 
  "ey@@": 8058, 
  "limitations": 8059, 
  "implication": 8060, 
  "V-@@": 8061, 
  "micro-@@": 8062, 
  "scarcely": 8063, 
  "detainees": 8064, 
  "expedi@@": 8065, 
  "class@@": 8066, 
  "Barak": 8067, 
  "pipelines": 8068, 
  "gre@@": 8069, 
  "Tel": 8070, 
  "Tibetans": 8071, 
  "lower-@@": 8072, 
  "PR@@": 8073, 
  "examination": 8074, 
  "horrific": 8075, 
  "High": 8076, 
  "repudi@@": 8077, 
  "Ay@@": 8078, 
  "atism": 8079, 
  "graduate": 8080, 
  "handful": 8081, 
  "dissem@@": 8082, 
  "pas@@": 8083, 
  "papers": 8084, 
  "surpassed": 8085, 
  "hur@@": 8086, 
  "technocrats": 8087, 
  "even@@": 8088, 
  "Shin@@": 8089, 
  "predictability": 8090, 
  "extremes": 8091, 
  "ocratic": 8092, 
  "Mr": 8093, 
  "spill": 8094, 
  "reign": 8095, 
  "thoroughly": 8096, 
  "drops": 8097, 
  "independently": 8098, 
  "council": 8099, 
  "vel": 8100, 
  "geographical": 8101, 
  "cronies": 8102, 
  "illegitimate": 8103, 
  "investigate": 8104, 
  "ocracy": 8105, 
  "Sar@@": 8106, 
  "interact": 8107, 
  "sciences": 8108, 
  "How": 8109, 
  "ake": 8110, 
  "Buddhist": 8111, 
  "chemicals": 8112, 
  "mic@@": 8113, 
  "commander": 8114, 
  "asymmetric": 8115, 
  "Euro-@@": 8116, 
  "wearing": 8117, 
  "shine": 8118, 
  "Recession": 8119, 
  "disappointing": 8120, 
  "collapses": 8121, 
  "disagreement": 8122, 
  "passionate": 8123, 
  "separatist": 8124, 
  "deterrent": 8125, 
  "Raf@@": 8126, 
  "fostering": 8127, 
  "deposit": 8128, 
  "organs": 8129, 
  "deliber@@": 8130, 
  "dil@@": 8131, 
  "cosmopolitan": 8132, 
  "thoughts": 8133, 
  "imposes": 8134, 
  "ishment": 8135, 
  "self-confidence": 8136, 
  "Ocean": 8137, 
  "real@@": 8138, 
  "differ@@": 8139, 
  "imperatives": 8140, 
  "tan@@": 8141, 
  "unchanged": 8142, 
  "um-@@": 8143, 
  "human-@@": 8144, 
  "commun@@": 8145, 
  "value-added": 8146, 
  "clock": 8147, 
  "preferable": 8148, 
  "intractable": 8149, 
  "és": 8150, 
  "havoc": 8151, 
  "mirror": 8152, 
  "threw": 8153, 
  "anti-Western": 8154, 
  "edly": 8155, 
  "hitting": 8156, 
  "ified": 8157, 
  "Florida": 8158, 
  "voc@@": 8159, 
  "quantity": 8160, 
  "ICTY": 8161, 
  "Delhi": 8162, 
  "ressed": 8163, 
  "fications": 8164, 
  "sibility": 8165, 
  "hierarchy": 8166, 
  "grossly": 8167, 
  "To": 8168, 
  "twelve": 8169, 
  "reversing": 8170, 
  "dismis@@": 8171, 
  "Thomas": 8172, 
  "veget@@": 8173, 
  "obli@@": 8174, 
  "Med@@": 8175, 
  "enables": 8176, 
  "complacency": 8177, 
  "remedies": 8178, 
  "With": 8179, 
  "meets": 8180, 
  "ranked": 8181, 
  "school@@": 8182, 
  "rid@@": 8183, 
  "Libyans": 8184, 
  "L": 8185, 
  "2,@@": 8186, 
  "irrigation": 8187, 
  "Afghans": 8188, 
  "2.@@": 8189, 
  "psycho@@": 8190, 
  "dies": 8191, 
  "ood": 8192, 
  "addiction": 8193, 
  "penetr@@": 8194, 
  "193@@": 8195, 
  "employee": 8196, 
  "ratify": 8197, 
  "48": 8198, 
  "spokes@@": 8199, 
  "ingredients": 8200, 
  "elic@@": 8201, 
  "ami": 8202, 
  "Kofi": 8203, 
  "unlimited": 8204, 
  "abst@@": 8205, 
  "el-@@": 8206, 
  "survivors": 8207, 
  "Strauss-Kahn": 8208, 
  "bot@@": 8209, 
  "peripheral": 8210, 
  "ple": 8211, 
  "espo@@": 8212, 
  "illusions": 8213, 
  "ided": 8214, 
  "med@@": 8215, 
  "extinction": 8216, 
  "Pe@@": 8217, 
  "subsidized": 8218, 
  "champions": 8219, 
  "troop": 8220, 
  "yesterday": 8221, 
  "Rica": 8222, 
  "forging": 8223, 
  "infant": 8224, 
  "explore": 8225, 
  "lining": 8226, 
  "prefers": 8227, 
  "intensify": 8228, 
  "hiding": 8229, 
  "trivial": 8230, 
  "aires": 8231, 
  "bert": 8232, 
  "foot": 8233, 
  "restricting": 8234, 
  "attached": 8235, 
  "uphold": 8236, 
  "canc@@": 8237, 
  "shor@@": 8238, 
  "crip@@": 8239, 
  "goodwill": 8240, 
  "greeted": 8241, 
  "tobacco": 8242, 
  "Margaret": 8243, 
  "cruel": 8244, 
  "entation": 8245, 
  "third-@@": 8246, 
  "coercion": 8247, 
  "heter@@": 8248, 
  "fatal": 8249, 
  "lur@@": 8250, 
  "rendered": 8251, 
  "mankind": 8252, 
  "auc@@": 8253, 
  "resisting": 8254, 
  "Tea": 8255, 
  "invo@@": 8256, 
  "kno@@": 8257, 
  "progres@@": 8258, 
  "mayor": 8259, 
  "exciting": 8260, 
  "thri@@": 8261, 
  "rot@@": 8262, 
  "realm": 8263, 
  "partially": 8264, 
  "undemocratic": 8265, 
  "lobbying": 8266, 
  "tain@@": 8267, 
  "mount": 8268, 
  "q": 8269, 
  "jailed": 8270, 
  "overcoming": 8271, 
  "tivity": 8272, 
  "universally": 8273, 
  "-R@@": 8274, 
  "insured": 8275, 
  "prevents": 8276, 
  "circum@@": 8277, 
  "44": 8278, 
  "divides": 8279, 
  "intend": 8280, 
  "ck@@": 8281, 
  "unjust": 8282, 
  "anemic": 8283, 
  "would-be": 8284, 
  "mega-@@": 8285, 
  "yuan": 8286, 
  "Conservative": 8287, 
  "Adam": 8288, 
  "pockets": 8289, 
  "nationalization": 8290, 
  "registered": 8291, 
  "appoint": 8292, 
  "celebr@@": 8293, 
  "wounds": 8294, 
  "tighter": 8295, 
  "Ghraib": 8296, 
  "suppressed": 8297, 
  "shocking": 8298, 
  "Blix": 8299, 
  "Confucian": 8300, 
  "Euro-Atlantic": 8301, 
  "alls": 8302, 
  "vic@@": 8303, 
  "beneficiaries": 8304, 
  "conventions": 8305, 
  "fires": 8306, 
  "age-@@": 8307, 
  "Wilders": 8308, 
  "careers": 8309, 
  "turbulence": 8310, 
  "attractiveness": 8311, 
  "flag": 8312, 
  "specified": 8313, 
  "drug-@@": 8314, 
  "crossed": 8315, 
  "triple": 8316, 
  "Bro@@": 8317, 
  "sion@@": 8318, 
  "tortured": 8319, 
  "fra@@": 8320, 
  "ona": 8321, 
  "adhere": 8322, 
  "umbrella": 8323, 
  "recovering": 8324, 
  "H": 8325, 
  "ven": 8326, 
  "shareholder": 8327, 
  "ambiguous": 8328, 
  "awa@@": 8329, 
  "confronts": 8330, 
  "paramount": 8331, 
  "corrup@@": 8332, 
  "brilliant": 8333, 
  "farms": 8334, 
  "tolerated": 8335, 
  "Jos@@": 8336, 
  "demonstrating": 8337, 
  "compelled": 8338, 
  "Tahrir": 8339, 
  "struc@@": 8340, 
  "petro@@": 8341, 
  "activism": 8342, 
  "caud@@": 8343, 
  "converted": 8344, 
  "thu@@": 8345, 
  "exceeded": 8346, 
  "acious": 8347, 
  "desert": 8348, 
  "Sul@@": 8349, 
  "hubris": 8350, 
  "export-led": 8351, 
  "Rio": 8352, 
  "53": 8353, 
  "lier": 8354, 
  "destabilize": 8355, 
  "discount": 8356, 
  "accommodate": 8357, 
  "stor@@": 8358, 
  "addic@@": 8359, 
  "Kir@@": 8360, 
  "regulator": 8361, 
  "tation": 8362, 
  "Jiabao": 8363, 
  "enters": 8364, 
  "aving": 8365, 
  "akers": 8366, 
  "accommod@@": 8367, 
  "imprisonment": 8368, 
  "protections": 8369, 
  "ury": 8370, 
  "suggestion": 8371, 
  "self-determination": 8372, 
  "illustrates": 8373, 
  "ions": 8374, 
  "retired": 8375, 
  "war-@@": 8376, 
  "ala": 8377, 
  "publication": 8378, 
  "rooms": 8379, 
  "1956": 8380, 
  "elev@@": 8381, 
  "powerless": 8382, 
  "design@@": 8383, 
  "awarded": 8384, 
  "ecosystems": 8385, 
  "complement": 8386, 
  "maritime": 8387, 
  "desired": 8388, 
  "out-@@": 8389, 
  "simplistic": 8390, 
  "frontier": 8391, 
  "Patri@@": 8392, 
  "ans@@": 8393, 
  "dropping": 8394, 
  "drives": 8395, 
  "flu@@": 8396, 
  "hesit@@": 8397, 
  "feeding": 8398, 
  "FS@@": 8399, 
  "suspicious": 8400, 
  "undeniable": 8401, 
  "Science": 8402, 
  "physic@@": 8403, 
  "Ver@@": 8404, 
  "alienated": 8405, 
  "portrayed": 8406, 
  "beating": 8407, 
  "patriotism": 8408, 
  "sheet": 8409, 
  "ful@@": 8410, 
  "thir@@": 8411, 
  "cher": 8412, 
  "gravity": 8413, 
  "Krugman": 8414, 
  "proc@@": 8415, 
  "denies": 8416, 
  "re-elected": 8417, 
  "Bon@@": 8418, 
  "det@@": 8419, 
  "bridges": 8420, 
  "Ge@@": 8421, 
  "relation": 8422, 
  "compl@@": 8423, 
  "campaigning": 8424, 
  "Nepal": 8425, 
  "Cubans": 8426, 
  "Western@@": 8427, 
  "occupy": 8428, 
  "set@@": 8429, 
  "broadcast": 8430, 
  "odo@@": 8431, 
  "rank": 8432, 
  "loved": 8433, 
  "bonus": 8434, 
  "Market": 8435, 
  "Ram@@": 8436, 
  "organ@@": 8437, 
  "marketing": 8438, 
  "churches": 8439, 
  "ica": 8440, 
  "poppy": 8441, 
  "devised": 8442, 
  "ulation": 8443, 
  "sup@@": 8444, 
  "metic": 8445, 
  "character@@": 8446, 
  "Academy": 8447, 
  "ruthless": 8448, 
  "yard": 8449, 
  "magazine": 8450, 
  "Res@@": 8451, 
  "Ben@@": 8452, 
  "emphasizing": 8453, 
  "inefficiency": 8454, 
  "Corporation": 8455, 
  "supplier": 8456, 
  "met@@": 8457, 
  "euro@@": 8458, 
  "looms": 8459, 
  "narcotics": 8460, 
  "olf": 8461, 
  "reminiscent": 8462, 
  "desp@@": 8463, 
  "too-@@": 8464, 
  "shall": 8465, 
  "insiders": 8466, 
  "impressed": 8467, 
  "band@@": 8468, 
  "merit@@": 8469, 
  "Hollywood": 8470, 
  "1949": 8471, 
  "tackling": 8472, 
  "landslide": 8473, 
  "differenti@@": 8474, 
  "intu@@": 8475, 
  "utility": 8476, 
  "rolled": 8477, 
  "fruits": 8478, 
  "yielded": 8479, 
  "fascism": 8480, 
  "fro@@": 8481, 
  "angu@@": 8482, 
  "Le": 8483, 
  "cos@@": 8484, 
  "crushed": 8485, 
  "ros@@": 8486, 
  "Congressional": 8487, 
  "Muhammad": 8488, 
  "legality": 8489, 
  "BR@@": 8490, 
  "acity": 8491, 
  "eral": 8492, 
  "lap@@": 8493, 
  "watch@@": 8494, 
  "entertainment": 8495, 
  "inclined": 8496, 
  "overvalued": 8497, 
  "omed": 8498, 
  "Cypriot": 8499, 
  "sixth": 8500, 
  "countryside": 8501, 
  "SWFs": 8502, 
  "sca@@": 8503, 
  "sin": 8504, 
  "permits": 8505, 
  "disappointment": 8506, 
  "compulsory": 8507, 
  "inflated": 8508, 
  "convert": 8509, 
  "Muammar": 8510, 
  "coca": 8511, 
  "vit@@": 8512, 
  "Pakistanis": 8513, 
  "evaluate": 8514, 
  "Vatican": 8515, 
  "zero-sum": 8516, 
  "lic@@": 8517, 
  "yr@@": 8518, 
  "tribes": 8519, 
  "wholesale": 8520, 
  "speaker": 8521, 
  "manipulate": 8522, 
  "accessible": 8523, 
  "NE@@": 8524, 
  "cribed": 8525, 
  "gul@@": 8526, 
  "hopeful": 8527, 
  "spot": 8528, 
  "ton@@": 8529, 
  "tain": 8530, 
  "ails": 8531, 
  "stre@@": 8532, 
  "bribes": 8533, 
  "Khomeini": 8534, 
  "7.@@": 8535, 
  "QE": 8536, 
  "stock@@": 8537, 
  "consecutive": 8538, 
  "beauty": 8539, 
  "defl@@": 8540, 
  "Albanian": 8541, 
  "formerly": 8542, 
  "Ros@@": 8543, 
  "1974": 8544, 
  "CA@@": 8545, 
  "ressing": 8546, 
  "accordance": 8547, 
  "safely": 8548, 
  "separated": 8549, 
  "storms": 8550, 
  "pieces": 8551, 
  "endemic": 8552, 
  "peril": 8553, 
  "calcul@@": 8554, 
  "tives": 8555, 
  "drivers": 8556, 
  "socio@@": 8557, 
  "depic@@": 8558, 
  "ration@@": 8559, 
  "1.2": 8560, 
  "slump": 8561, 
  "competence": 8562, 
  "fortunes": 8563, 
  "agu@@": 8564, 
  "ush@@": 8565, 
  "Gre@@": 8566, 
  "aying": 8567, 
  "debt-to-GDP": 8568, 
  "take@@": 8569, 
  "fore": 8570, 
  "amid": 8571, 
  "prob@@": 8572, 
  "Civil": 8573, 
  "long@@": 8574, 
  "rela@@": 8575, 
  "promotes": 8576, 
  "•": 8577, 
  "Kur@@": 8578, 
  "esting": 8579, 
  "pretend": 8580, 
  "fragmented": 8581, 
  "ter-@@": 8582, 
  "may@@": 8583, 
  "stand@@": 8584, 
  "Uganda": 8585, 
  "describes": 8586, 
  "1.4": 8587, 
  "ension": 8588, 
  "invading": 8589, 
  "concep@@": 8590, 
  "deflationary": 8591, 
  "disap@@": 8592, 
  "transc@@": 8593, 
  "st-@@": 8594, 
  "predominantly": 8595, 
  "°": 8596, 
  "ip": 8597, 
  "rhetorical": 8598, 
  "row@@": 8599, 
  "disorderly": 8600, 
  "compu@@": 8601, 
  "interpretations": 8602, 
  "confrontations": 8603, 
  "instructions": 8604, 
  "Sw@@": 8605, 
  "black@@": 8606, 
  "immensely": 8607, 
  "Year": 8608, 
  "bird": 8609, 
  "recruit": 8610, 
  "impasse": 8611, 
  "responsive": 8612, 
  "breakup": 8613, 
  "fashionable": 8614, 
  "spike": 8615, 
  "ading": 8616, 
  "Pearl": 8617, 
  "rewarding": 8618, 
  "misrule": 8619, 
  "possessed": 8620, 
  "develops": 8621, 
  "low-carbon": 8622, 
  "curious": 8623, 
  "kings": 8624, 
  "testimony": 8625, 
  "50,000": 8626, 
  "surgery": 8627, 
  "polar": 8628, 
  "Tamil": 8629, 
  "Ceausescu": 8630, 
  "suited": 8631, 
  "Binyamin": 8632, 
  "waged": 8633, 
  "Pl@@": 8634, 
  "III": 8635, 
  "fastest": 8636, 
  "lag": 8637, 
  "incompetent": 8638, 
  "invent@@": 8639, 
  "Likud": 8640, 
  "ond": 8641, 
  "self-fulfilling": 8642, 
  "swe@@": 8643, 
  "ections": 8644, 
  "Fa@@": 8645, 
  "Fin@@": 8646, 
  "They": 8647, 
  "frac@@": 8648, 
  "elevated": 8649, 
  "assessed": 8650, 
  "yp@@": 8651, 
  "expressing": 8652, 
  "license": 8653, 
  "pile": 8654, 
  "ideologies": 8655, 
  "professors": 8656, 
  "infamous": 8657, 
  "well-known": 8658, 
  "rain": 8659, 
  "secularism": 8660, 
  "emigr@@": 8661, 
  "ñ@@": 8662, 
  "pot@@": 8663, 
  "empower": 8664, 
  "genetically": 8665, 
  "forefront": 8666, 
  "topic": 8667, 
  "preclud@@": 8668, 
  "irre@@": 8669, 
  "ordin@@": 8670, 
  "contributors": 8671, 
  "fence": 8672, 
  "Niger": 8673, 
  "uk": 8674, 
  "defer@@": 8675, 
  "ision": 8676, 
  "erup@@": 8677, 
  "sleep": 8678, 
  "colleague": 8679, 
  "Damascus": 8680, 
  "Po@@": 8681, 
  "stimulating": 8682, 
  "invite": 8683, 
  "quarters": 8684, 
  "competi@@": 8685, 
  "assist@@": 8686, 
  "Maliki": 8687, 
  "married": 8688, 
  "reap": 8689, 
  "cultiv@@": 8690, 
  "correc@@": 8691, 
  "absorbed": 8692, 
  "leveraged": 8693, 
  "aping": 8694, 
  "securitization": 8695, 
  "ense": 8696, 
  "logy": 8697, 
  "19th": 8698, 
  "coincidence": 8699, 
  "trum@@": 8700, 
  "tioning": 8701, 
  "rad@@": 8702, 
  "maj@@": 8703, 
  "West@@": 8704, 
  "provocative": 8705, 
  "hard-line": 8706, 
  "fallout": 8707, 
  "disruptive": 8708, 
  "expelled": 8709, 
  "shop": 8710, 
  "cong@@": 8711, 
  "decentralized": 8712, 
  "ini": 8713, 
  "correction": 8714, 
  "initiate": 8715, 
  "Governor": 8716, 
  "timely": 8717, 
  "privatized": 8718, 
  "journey": 8719, 
  "deepest": 8720, 
  "allegations": 8721, 
  "tie": 8722, 
  "v": 8723, 
  "mobilizing": 8724, 
  "interconnected": 8725, 
  "questionable": 8726, 
  "ti": 8727, 
  "CIA": 8728, 
  "si": 8729, 
  "shortfall": 8730, 
  "News": 8731, 
  "destination": 8732, 
  "ideally": 8733, 
  "self": 8734, 
  "Resolution": 8735, 
  "nomin@@": 8736, 
  "blocking": 8737, 
  "corresponding": 8738, 
  "Economics": 8739, 
  "traveled": 8740, 
  "interior": 8741, 
  "assurance": 8742, 
  "victorious": 8743, 
  "0th": 8744, 
  "oph@@": 8745, 
  "obscure": 8746, 
  "assi@@": 8747, 
  "prisons": 8748, 
  "ensures": 8749, 
  "patents": 8750, 
  "disdain": 8751, 
  "lex@@": 8752, 
  "cloning": 8753, 
  "achievable": 8754, 
  "contentious": 8755, 
  "ashes": 8756, 
  "1985": 8757, 
  "Italians": 8758, 
  "overdue": 8759, 
  "isation": 8760, 
  "classified": 8761, 
  "bank@@": 8762, 
  "anticipate": 8763, 
  "jihad": 8764, 
  "averaged": 8765, 
  "pin@@": 8766, 
  "open-@@": 8767, 
  "Koran": 8768, 
  "Club": 8769, 
  "gamble": 8770, 
  "sil@@": 8771, 
  "ifies": 8772, 
  "Nordic": 8773, 
  "Russian-@@": 8774, 
  "horrors": 8775, 
  "gun@@": 8776, 
  "sens@@": 8777, 
  "Kal@@": 8778, 
  "reckoning": 8779, 
  "dam": 8780, 
  "manipulated": 8781, 
  "ub@@": 8782, 
  "cast@@": 8783, 
  "parasites": 8784, 
  "pes": 8785, 
  "bombers": 8786, 
  "000-@@": 8787, 
  "1970s": 8788, 
  "divert": 8789, 
  "description": 8790, 
  "ey": 8791, 
  "nearby": 8792, 
  "Democrat": 8793, 
  "frequency": 8794, 
  "polling": 8795, 
  "stum@@": 8796, 
  "250": 8797, 
  "sequ@@": 8798, 
  "bipolar": 8799, 
  "dead@@": 8800, 
  "tations": 8801, 
  "aw": 8802, 
  "ush": 8803, 
  "urging": 8804, 
  "lights": 8805, 
  "fearing": 8806, 
  "fol@@": 8807, 
  "Phelps": 8808, 
  "CO@@": 8809, 
  "banning": 8810, 
  "best@@": 8811, 
  "Amsterdam": 8812, 
  "short-run": 8813, 
  "illiberal": 8814, 
  "proxy": 8815, 
  "inspiration": 8816, 
  "Ozawa": 8817, 
  "eas@@": 8818, 
  "decreased": 8819, 
  "Fidel": 8820, 
  "put@@": 8821, 
  "combining": 8822, 
  "offense": 8823, 
  "eping": 8824, 
  "comprise": 8825, 
  "secession": 8826, 
  "highlight": 8827, 
  "courageous": 8828, 
  "administered": 8829, 
  "generational": 8830, 
  "devastation": 8831, 
  "nutrition": 8832, 
  "nationalistic": 8833, 
  "military-@@": 8834, 
  "Is": 8835, 
  "employ": 8836, 
  "Milan": 8837, 
  "renegoti@@": 8838, 
  "dates": 8839, 
  "billion@@": 8840, 
  "resurgence": 8841, 
  "tist": 8842, 
  "detect": 8843, 
  "arrests": 8844, 
  "cease": 8845, 
  "barred": 8846, 
  "uneven": 8847, 
  "joke": 8848, 
  "mac@@": 8849, 
  "varied": 8850, 
  "clin@@": 8851, 
  "Mi@@": 8852, 
  "comfor@@": 8853, 
  "vil@@": 8854, 
  "enter@@": 8855, 
  "score": 8856, 
  "confid@@": 8857, 
  "ceremony": 8858, 
  "storage": 8859, 
  "Curtain": 8860, 
  "selective": 8861, 
  "NGO": 8862, 
  "ensuing": 8863, 
  "shed": 8864, 
  "disarray": 8865, 
  "noticed": 8866, 
  "installations": 8867, 
  "arsenals": 8868, 
  "drain": 8869, 
  "thered": 8870, 
  "Hungarian": 8871, 
  "ular": 8872, 
  "Research": 8873, 
  "continuously": 8874, 
  "duplic@@": 8875, 
  "The@@": 8876, 
  "predictably": 8877, 
  "waging": 8878, 
  "acies": 8879, 
  "compromising": 8880, 
  "so-@@": 8881, 
  "barbar@@": 8882, 
  "fifteen": 8883, 
  "Kissinger": 8884, 
  "incorpor@@": 8885, 
  "Zealand": 8886, 
  "ound@@": 8887, 
  "hun@@": 8888, 
  "newcomers": 8889, 
  "influences": 8890, 
  "aching": 8891, 
  "constitutions": 8892, 
  "Marxist": 8893, 
  "internation@@": 8894, 
  "requests": 8895, 
  "ambiguity": 8896, 
  "dissident": 8897, 
  "optim@@": 8898, 
  "strife": 8899, 
  "-Russian": 8900, 
  "suspension": 8901, 
  "overheating": 8902, 
  "multiplied": 8903, 
  "enriched": 8904, 
  "treasury": 8905, 
  "heed": 8906, 
  "shopping": 8907, 
  "1933": 8908, 
  "predicament": 8909, 
  "dare": 8910, 
  "Te@@": 8911, 
  "traits": 8912, 
  "municipal": 8913, 
  "tocr@@": 8914, 
  "session": 8915, 
  "engineer": 8916, 
  "duc@@": 8917, 
  "dam@@": 8918, 
  "wrec@@": 8919, 
  "ESDP": 8920, 
  "cumulative": 8921, 
  "invaded": 8922, 
  "foolish": 8923, 
  "narrow@@": 8924, 
  "Old": 8925, 
  "tune": 8926, 
  "lum@@": 8927, 
  "Yasukuni": 8928, 
  "unanimous": 8929, 
  "nationwide": 8930, 
  "smoke": 8931, 
  "proponents": 8932, 
  "pp@@": 8933, 
  "Texas": 8934, 
  "ero@@": 8935, 
  "trajectory": 8936, 
  "ray": 8937, 
  "ailed": 8938, 
  "identi@@": 8939, 
  "bang": 8940, 
  "rob@@": 8941, 
  "periodic": 8942, 
  "Milton": 8943, 
  "Americas": 8944, 
  "rivalries": 8945, 
  "emphasizes": 8946, 
  "friction": 8947, 
  "ment-@@": 8948, 
  "loaded": 8949, 
  "buff@@": 8950, 
  "Wilson": 8951, 
  "aug@@": 8952, 
  "distinc@@": 8953, 
  "trillions": 8954, 
  "fulfilling": 8955, 
  "G-@@": 8956, 
  "chooses": 8957, 
  "discretionary": 8958, 
  "drove": 8959, 
  "esome": 8960, 
  "woes": 8961, 
  "essing": 8962, 
  "castes": 8963, 
  "ote": 8964, 
  "proceeds": 8965, 
  "cryst@@": 8966, 
  "interfere": 8967, 
  "reactors": 8968, 
  "ariat": 8969, 
  "secrecy": 8970, 
  "friendship": 8971, 
  "conducive": 8972, 
  "Panel": 8973, 
  "ger@@": 8974, 
  "reinv@@": 8975, 
  "Karadzic": 8976, 
  "conducting": 8977, 
  "theirs": 8978, 
  "democr@@": 8979, 
  "subs@@": 8980, 
  "inated": 8981, 
  "unconditional": 8982, 
  "turnaround": 8983, 
  "thereafter": 8984, 
  "labor-intensive": 8985, 
  "cognitive": 8986, 
  "ink@@": 8987, 
  "bomb@@": 8988, 
  "pro-democracy": 8989, 
  "immunity": 8990, 
  "draws": 8991, 
  "denominated": 8992, 
  "soar": 8993, 
  "horror": 8994, 
  "lagging": 8995, 
  "cens@@": 8996, 
  "materi@@": 8997, 
  "Mul@@": 8998, 
  "leaning": 8999, 
  "cou@@": 9000, 
  "Turkmenistan": 9001, 
  "wear": 9002, 
  "rigorous": 9003, 
  "olds": 9004, 
  "conj@@": 9005, 
  "Armenian": 9006, 
  "utter": 9007, 
  "counting": 9008, 
  "dubbed": 9009, 
  "once-@@": 9010, 
  "vigorously": 9011, 
  "pre-emptive": 9012, 
  "Mario": 9013, 
  "capitalists": 9014, 
  "DP": 9015, 
  "literacy": 9016, 
  "Bosnian": 9017, 
  "longevity": 9018, 
  "upheaval": 9019, 
  "expansionary": 9020, 
  "racism": 9021, 
  "modified": 9022, 
  "oh@@": 9023, 
  "Yemeni": 9024, 
  "reconciled": 9025, 
  "suppressing": 9026, 
  "diet": 9027, 
  "crisis-@@": 9028, 
  "wid@@": 9029, 
  "wat@@": 9030, 
  "Ts@@": 9031, 
  "lion": 9032, 
  "Westerners": 9033, 
  "Ji@@": 9034, 
  "cons@@": 9035, 
  "Power": 9036, 
  "peso": 9037, 
  "purchased": 9038, 
  "subtle": 9039, 
  "adversary": 9040, 
  "breach": 9041, 
  "posts": 9042, 
  "warheads": 9043, 
  "fragmentation": 9044, 
  "facilitating": 9045, 
  "anj@@": 9046, 
  "Tu@@": 9047, 
  "suppliers": 9048, 
  "Protest@@": 9049, 
  "telephone": 9050, 
  "quot": 9051, 
  "laboratory": 9052, 
  "ally-@@": 9053, 
  "distressed": 9054, 
  "jihadi": 9055, 
  "itor@@": 9056, 
  "tal@@": 9057, 
  "unw@@": 9058, 
  "Fifth": 9059, 
  "slavery": 9060, 
  "Democracy": 9061, 
  "Exchange": 9062, 
  "Lukashenko": 9063, 
  "dry": 9064, 
  "anonymous": 9065, 
  "part@@": 9066, 
  "protects": 9067, 
  "amendments": 9068, 
  "posture": 9069, 
  "symboli@@": 9070, 
  "successors": 9071, 
  "Oxford": 9072, 
  "duration": 9073, 
  "girl": 9074, 
  "sa": 9075, 
  "gang": 9076, 
  "benchmark": 9077, 
  "hardship": 9078, 
  "contested": 9079, 
  "arrogant": 9080, 
  "dirty": 9081, 
  "cleansing": 9082, 
  "proclaim": 9083, 
  "Christ@@": 9084, 
  "Srebrenica": 9085, 
  "Delta": 9086, 
  "apartheid": 9087, 
  "stakeholders": 9088, 
  "assessments": 9089, 
  "wanting": 9090, 
  "pause": 9091, 
  "pret@@": 9092, 
  "attribute": 9093, 
  "neighborhoods": 9094, 
  "cut@@": 9095, 
  "progressively": 9096, 
  "Anglo-Saxon": 9097, 
  "subordin@@": 9098, 
  "20-@@": 9099, 
  "primacy": 9100, 
  "mandatory": 9101, 
  "nourished": 9102, 
  "my@@": 9103, 
  "Dominique": 9104, 
  "Chad": 9105, 
  "Mas@@": 9106, 
  "circulation": 9107, 
  "Mos@@": 9108, 
  "draw@@": 9109, 
  "ifying": 9110, 
  "blue": 9111, 
  "watershed": 9112, 
  "designs": 9113, 
  "2008-2009": 9114, 
  "unfolding": 9115, 
  "parallels": 9116, 
  "ective": 9117, 
  "ik": 9118, 
  "simp@@": 9119, 
  "toppled": 9120, 
  "blockade": 9121, 
  "uniform": 9122, 
  "anarchy": 9123, 
  "hair@@": 9124, 
  "miser@@": 9125, 
  "spots": 9126, 
  "crowded": 9127, 
  "flying": 9128, 
  "functional": 9129, 
  "William": 9130, 
  "holes": 9131, 
  "Vic@@": 9132, 
  "execution": 9133, 
  "apathy": 9134, 
  "revit@@": 9135, 
  "nurture": 9136, 
  "behaved": 9137, 
  "allow@@": 9138, 
  "Hou@@": 9139, 
  "boycott": 9140, 
  "teenth": 9141, 
  "ecosystem": 9142, 
  "silver": 9143, 
  "Investment": 9144, 
  "confin@@": 9145, 
  "advisors": 9146, 
  "providers": 9147, 
  "ridicul@@": 9148, 
  "normalization": 9149, 
  "je@@": 9150, 
  "glance": 9151, 
  "Albanians": 9152, 
  "plunged": 9153, 
  "substantive": 9154, 
  "perverse": 9155, 
  "complementary": 9156, 
  "social-welfare": 9157, 
  "Foundation": 9158, 
  "off-@@": 9159, 
  "supervis@@": 9160, 
  "individually": 9161, 
  "recommended": 9162, 
  "wind@@": 9163, 
  "neo@@": 9164, 
  "morning": 9165, 
  "satisfactory": 9166, 
  "iss": 9167, 
  "refin@@": 9168, 
  "domain": 9169, 
  "oppressive": 9170, 
  "30,000": 9171, 
  "crib@@": 9172, 
  "underpinned": 9173, 
  "ffs": 9174, 
  "instances": 9175, 
  "assertiveness": 9176, 
  "bus@@": 9177, 
  "someday": 9178, 
  "ops": 9179, 
  "revolts": 9180, 
  "2.3": 9181, 
  "embodies": 9182, 
  "havens": 9183, 
  "seriousness": 9184, 
  "novel@@": 9185, 
  "cartoons": 9186, 
  "wed": 9187, 
  "ten-@@": 9188, 
  "Ho@@": 9189, 
  "rough": 9190, 
  "horse": 9191, 
  "transcend": 9192, 
  "aggravated": 9193, 
  "Djindjic": 9194, 
  "Draghi": 9195, 
  "kov@@": 9196, 
  "realistically": 9197, 
  "reinvigor@@": 9198, 
  "sadd@@": 9199, 
  "tes@@": 9200, 
  "succumb": 9201, 
  "thwest": 9202, 
  "arming": 9203, 
  "soli@@": 9204, 
  "logically": 9205, 
  "underestimate": 9206, 
  "na": 9207, 
  "twin": 9208, 
  "disruptions": 9209, 
  "fragility": 9210, 
  "chil@@": 9211, 
  "osity": 9212, 
  "supervisors": 9213, 
  "intensified": 9214, 
  "movies": 9215, 
  "empires": 9216, 
  "withdrawn": 9217, 
  "dividends": 9218, 
  "rockets": 9219, 
  "rati@@": 9220, 
  "degrad@@": 9221, 
  "revised": 9222, 
  "abortion": 9223, 
  "beaten": 9224, 
  "sometime": 9225, 
  "gift": 9226, 
  "scant": 9227, 
  "criterion": 9228, 
  "wheat": 9229, 
  "year@@": 9230, 
  "ech": 9231, 
  "reson@@": 9232, 
  "Uni@@": 9233, 
  "hoc": 9234, 
  "ackers": 9235, 
  "steril@@": 9236, 
  "anticip@@": 9237, 
  "distur@@": 9238, 
  "depar@@": 9239, 
  "Bhutan": 9240, 
  "fig@@": 9241, 
  "nurtured": 9242, 
  "emit@@": 9243, 
  "identifying": 9244, 
  "accidents": 9245, 
  "indebtedness": 9246, 
  "designated": 9247, 
  "mitigation": 9248, 
  "U-@@": 9249, 
  "designing": 9250, 
  "Berezovsky": 9251, 
  "describing": 9252, 
  "topple": 9253, 
  "cynicism": 9254, 
  "observer": 9255, 
  "dir@@": 9256, 
  "compound": 9257, 
  "grace": 9258, 
  "endeav@@": 9259, 
  "linguistic": 9260, 
  "peacekeepers": 9261, 
  "55": 9262, 
  "ame@@": 9263, 
  "strained": 9264, 
  "collection": 9265, 
  "cru@@": 9266, 
  "belonging": 9267, 
  "brains": 9268, 
  "aya": 9269, 
  "neuro@@": 9270, 
  "fat": 9271, 
  "suitable": 9272, 
  "preoccupied": 9273, 
  "ingen@@": 9274, 
  "comprehend": 9275, 
  "electr@@": 9276, 
  "viewers": 9277, 
  "worsened": 9278, 
  "nerve": 9279, 
  "precarious": 9280, 
  "abduc@@": 9281, 
  "prosper": 9282, 
  "paths": 9283, 
  "dep@@": 9284, 
  "ye@@": 9285, 
  "0s": 9286, 
  "temptations": 9287, 
  "valuation": 9288, 
  "Comprehensive": 9289, 
  "hyper-@@": 9290, 
  "Mumbai": 9291, 
  "flee": 9292, 
  "privately": 9293, 
  "guiding": 9294, 
  "peculiar": 9295, 
  "exploiting": 9296, 
  "sey": 9297, 
  "materialize": 9298, 
  "distingu@@": 9299, 
  "eted": 9300, 
  "liberated": 9301, 
  "198@@": 9302, 
  "To@@": 9303, 
  "risking": 9304, 
  "na@@": 9305, 
  "fies": 9306, 
  "prosecuted": 9307, 
  "small@@": 9308, 
  "year-@@": 9309, 
  "flooding": 9310, 
  "analogies": 9311, 
  "sacrifices": 9312, 
  "stops": 9313, 
  "ees": 9314, 
  "rebel@@": 9315, 
  "Antarctic": 9316, 
  "inspiring": 9317, 
  "endure": 9318, 
  "fostered": 9319, 
  "occupations": 9320, 
  "peror": 9321, 
  "setbacks": 9322, 
  "revision": 9323, 
  "privati@@": 9324, 
  "bulk": 9325, 
  "eds": 9326, 
  "sym@@": 9327, 
  "ü@@": 9328, 
  "tism": 9329, 
  "refer@@": 9330, 
  "hij@@": 9331, 
  "perestroika": 9332, 
  "Mohammed": 9333, 
  "Solzhenitsyn": 9334, 
  "Rel@@": 9335, 
  "tum@@": 9336, 
  "reserved": 9337, 
  "icked": 9338, 
  "uncontrolled": 9339, 
  "yielding": 9340, 
  "99": 9341, 
  "AN@@": 9342, 
  "humane": 9343, 
  "unfettered": 9344, 
  "precondition": 9345, 
  "Orleans": 9346, 
  "drafting": 9347, 
  "conception": 9348, 
  "deterred": 9349, 
  "addresses": 9350, 
  "Bur@@": 9351, 
  "tribunals": 9352, 
  "delaying": 9353, 
  "protective": 9354, 
  "EA@@": 9355, 
  "fiction": 9356, 
  "infection": 9357, 
  "triggering": 9358, 
  "fy": 9359, 
  "enthusiastic": 9360, 
  "chapter": 9361, 
  "doub@@": 9362, 
  "ou": 9363, 
  "penalties": 9364, 
  "intransigence": 9365, 
  "render": 9366, 
  "disp@@": 9367, 
  "far-@@": 9368, 
  "colonies": 9369, 
  "aided": 9370, 
  "volumes": 9371, 
  "GM": 9372, 
  "spectacle": 9373, 
  "exercised": 9374, 
  "ologists": 9375, 
  "glut": 9376, 
  "Christmas": 9377, 
  "orm@@": 9378, 
  "compreh@@": 9379, 
  "Assange": 9380, 
  "inspection": 9381, 
  "heating": 9382, 
  "IR@@": 9383, 
  "zy": 9384, 
  "severity": 9385, 
  "taxpayer": 9386, 
  "stroke": 9387, 
  "timetable": 9388, 
  "sand": 9389, 
  "participated": 9390, 
  "Review": 9391, 
  "world-@@": 9392, 
  "homosexuality": 9393, 
  "anding": 9394, 
  "secret@@": 9395, 
  "boat": 9396, 
  "accommodation": 9397, 
  "behavioral": 9398, 
  "Tunisian": 9399, 
  "palace": 9400, 
  "onists": 9401, 
  "anti-Semitic": 9402, 
  "ani@@": 9403, 
  "adap@@": 9404, 
  "Brig@@": 9405, 
  "fal@@": 9406, 
  "­@@": 9407, 
  "ond@@": 9408, 
  "unifying": 9409, 
  "anced": 9410, 
  "unted": 9411, 
  "fights": 9412, 
  "underscored": 9413, 
  "32": 9414, 
  "summits": 9415, 
  "cartels": 9416, 
  "build-up": 9417, 
  "flo@@": 9418, 
  "intra-@@": 9419, 
  "defaul@@": 9420, 
  "conceivable": 9421, 
  "dragged": 9422, 
  "denounce": 9423, 
  "flag@@": 9424, 
  "thorough": 9425, 
  "tracks": 9426, 
  "punitive": 9427, 
  "DDT": 9428, 
  "NATO@@": 9429, 
  "big@@": 9430, 
  "intim@@": 9431, 
  "acqu@@": 9432, 
  "discre@@": 9433, 
  "ject": 9434, 
  "workplace": 9435, 
  "generosity": 9436, 
  "upset": 9437, 
  "ura": 9438, 
  "proteins": 9439, 
  "proximity": 9440, 
  "ostensibly": 9441, 
  "indications": 9442, 
  "brutally": 9443, 
  "coastal": 9444, 
  "post-Cold": 9445, 
  "low-wage": 9446, 
  "30-@@": 9447, 
  "impulse": 9448, 
  "confirms": 9449, 
  "Indonesian": 9450, 
  "educ@@": 9451, 
  "copy": 9452, 
  "Why": 9453, 
  "instruc@@": 9454, 
  "mine": 9455, 
  "mild": 9456, 
  "offshore": 9457, 
  "church": 9458, 
  "invest@@": 9459, 
  "Peninsula": 9460, 
  "wives": 9461, 
  "submit": 9462, 
  "provoking": 9463, 
  "perpetual": 9464, 
  "dig@@": 9465, 
  "partition": 9466, 
  "illing": 9467, 
  "differs": 9468, 
  "comman@@": 9469, 
  "Malawi": 9470, 
  "vengeance": 9471, 
  "schol@@": 9472, 
  "ply": 9473, 
  "publishing": 9474, 
  "consolidated": 9475, 
  "technocratic": 9476, 
  "bloo@@": 9477, 
  "stressed": 9478, 
  "slide": 9479, 
  "Condoleezza": 9480, 
  "regained": 9481, 
  "circ@@": 9482, 
  "Golden": 9483, 
  "ante": 9484, 
  "reli@@": 9485, 
  "imperialist": 9486, 
  "mono@@": 9487, 
  "betrayal": 9488, 
  "1947": 9489, 
  "s.": 9490, 
  "galvan@@": 9491, 
  "inqu@@": 9492, 
  "quantities": 9493, 
  "adventure": 9494, 
  "Ol@@": 9495, 
  "hanging": 9496, 
  "footing": 9497, 
  "oting": 9498, 
  "glaciers": 9499, 
  "altered": 9500, 
  "oming": 9501, 
  "120": 9502, 
  "working-age": 9503, 
  "upside": 9504, 
  "Venezuelan": 9505, 
  "milit@@": 9506, 
  "Humala": 9507, 
  "ong-@@": 9508, 
  "ght": 9509, 
  "anom@@": 9510, 
  "servic@@": 9511, 
  "fabric": 9512, 
  "theater": 9513, 
  "sidelines": 9514, 
  "Toledo": 9515, 
  "Hab@@": 9516, 
  "kids": 9517, 
  "Mer@@": 9518, 
  "intimidation": 9519, 
  "ID@@": 9520, 
  "6.5": 9521, 
  "eigh@@": 9522, 
  "din@@": 9523, 
  "spell": 9524, 
  "Raj@@": 9525, 
  "voluntarily": 9526, 
  "embar@@": 9527, 
  "impending": 9528, 
  "olu@@": 9529, 
  "solvency": 9530, 
  "curtailing": 9531, 
  "MIT": 9532, 
  "amnesty": 9533, 
  "Mis@@": 9534, 
  "fted": 9535, 
  "cable": 9536, 
  "proposes": 9537, 
  "circul@@": 9538, 
  "financial-market": 9539, 
  "loser": 9540, 
  "divisive": 9541, 
  "grateful": 9542, 
  "philanthrop@@": 9543, 
  "erode": 9544, 
  "shoot": 9545, 
  "Einstein": 9546, 
  "analyses": 9547, 
  "firing": 9548, 
  "endgame": 9549, 
  "oceans": 9550, 
  "gam@@": 9551, 
  "prohibited": 9552, 
  "rebound": 9553, 
  "patern@@": 9554, 
  "surprises": 9555, 
  "ken": 9556, 
  "loy@@": 9557, 
  "Nuremberg": 9558, 
  "illicit": 9559, 
  "authors": 9560, 
  "Shell": 9561, 
  "sus": 9562, 
  "devastated": 9563, 
  "spra@@": 9564, 
  "better-@@": 9565, 
  "Michael": 9566, 
  "adequacy": 9567, 
  "Services": 9568, 
  "dogma": 9569, 
  "adapted": 9570, 
  "managerial": 9571, 
  "Zionism": 9572, 
  "1.6": 9573, 
  "heroin": 9574, 
  "custom@@": 9575, 
  "staying": 9576, 
  "IBM": 9577, 
  "weapon@@": 9578, 
  "cost-@@": 9579, 
  "bureaucracies": 9580, 
  "tuous": 9581, 
  "stresses": 9582, 
  "disciplined": 9583, 
  "somebody": 9584, 
  "essi@@": 9585, 
  "43": 9586, 
  "victim@@": 9587, 
  "bour@@": 9588, 
  "hec@@": 9589, 
  "know-how": 9590, 
  "coercive": 9591, 
  "individu@@": 9592, 
  "barrels": 9593, 
  "Churchill": 9594, 
  "old-fashioned": 9595, 
  "glory": 9596, 
  "alous": 9597, 
  "virtuous": 9598, 
  "Mladic": 9599, 
  "great@@": 9600, 
  "disgu@@": 9601, 
  "owes": 9602, 
  "load": 9603, 
  "Golan": 9604, 
  "mp@@": 9605, 
  "matches": 9606, 
  "iles": 9607, 
  "unwillingness": 9608, 
  "iliation": 9609, 
  "breath": 9610, 
  "deteriorated": 9611, 
  "premise": 9612, 
  "undergo": 9613, 
  "widened": 9614, 
  "mid-1990": 9615, 
  "pen": 9616, 
  "unimaginable": 9617, 
  "laud@@": 9618, 
  "ported": 9619, 
  "laugh@@": 9620, 
  "paved": 9621, 
  "anxieties": 9622, 
  "front-@@": 9623, 
  "combines": 9624, 
  "Ash@@": 9625, 
  "glor@@": 9626, 
  "aspire": 9627, 
  "mightily": 9628, 
  "publics": 9629, 
  "meager": 9630, 
  "sword": 9631, 
  "obtaining": 9632, 
  "revelations": 9633, 
  "astonishing": 9634, 
  "retained": 9635, 
  "esses": 9636, 
  "horrible": 9637, 
  "Carter": 9638, 
  "ben@@": 9639, 
  "walking": 9640, 
  "secular@@": 9641, 
  "pronounced": 9642, 
  "Hariri": 9643, 
  "hiring": 9644, 
  "chas@@": 9645, 
  "fool": 9646, 
  "pivotal": 9647, 
  "Cristina": 9648, 
  "cheating": 9649, 
  "observ@@": 9650, 
  "Confucianism": 9651, 
  "Marx@@": 9652, 
  "invoked": 9653, 
  "History": 9654, 
  "rupture": 9655, 
  "Mahathir": 9656, 
  "rug": 9657, 
  "kn@@": 9658, 
  "praised": 9659, 
  "1914": 9660, 
  "ames": 9661, 
  "toral": 9662, 
  "evo@@": 9663, 
  "manager": 9664, 
  "dou@@": 9665, 
  "Paulson": 9666, 
  "1978": 9667, 
  "sex@@": 9668, 
  "uneasy": 9669, 
  "Scandinavian": 9670, 
  "stretched": 9671, 
  "metals": 9672, 
  "grid": 9673, 
  "patriotic": 9674, 
  "analy@@": 9675, 
  "bers": 9676, 
  "assassin@@": 9677, 
  "eradicate": 9678, 
  "medieval": 9679, 
  "tles": 9680, 
  "examined": 9681, 
  "hybrid": 9682, 
  "mid-term": 9683, 
  "employ@@": 9684, 
  "ga@@": 9685, 
  "withstand": 9686, 
  "kes@@": 9687, 
  "proportions": 9688, 
  "culturally": 9689, 
  "extern@@": 9690, 
  "NA": 9691, 
  "ave": 9692, 
  "recourse": 9693, 
  "investig@@": 9694, 
  "sile": 9695, 
  "abstract": 9696, 
  "chaotic": 9697, 
  "exha@@": 9698, 
  "affluent": 9699, 
  "executed": 9700, 
  "Il@@": 9701, 
  "cab@@": 9702, 
  "pass@@": 9703, 
  "suspects": 9704, 
  "announcing": 9705, 
  "staged": 9706, 
  "themes": 9707, 
  "ert": 9708, 
  "persecution": 9709, 
  "Kosov@@": 9710, 
  "lows": 9711, 
  "conversion": 9712, 
  "manifest@@": 9713, 
  "4.5": 9714, 
  "Tim@@": 9715, 
  "Far": 9716, 
  "shake": 9717, 
  "encouragement": 9718, 
  "rol@@": 9719, 
  "asks": 9720, 
  "Peter": 9721, 
  "human-rights": 9722, 
  "divorce": 9723, 
  "Jean-Claude": 9724, 
  "immoral": 9725, 
  "edding": 9726, 
  "indicating": 9727, 
  "export@@": 9728, 
  "nomination": 9729, 
  "Pen": 9730, 
  "bro@@": 9731, 
  "search@@": 9732, 
  "accurately": 9733, 
  "explaining": 9734, 
  "depended": 9735, 
  "widen": 9736, 
  "0.1": 9737, 
  "camp@@": 9738, 
  "mosques": 9739, 
  "ols": 9740, 
  "stu@@": 9741, 
  "Conservatives": 9742, 
  "interview": 9743, 
  "premiums": 9744, 
  "sat": 9745, 
  "revaluation": 9746, 
  "ament": 9747, 
  "populous": 9748, 
  "nasty": 9749, 
  "rethink": 9750, 
  "od": 9751, 
  "inci@@": 9752, 
  "backdrop": 9753, 
  "finish": 9754, 
  "no-@@": 9755, 
  "blaming": 9756, 
  "forec@@": 9757, 
  "forgiveness": 9758, 
  "prog@@": 9759, 
  "Dar@@": 9760, 
  "migr@@": 9761, 
  "lowered": 9762, 
  "tar@@": 9763, 
  "wishful": 9764, 
  "inate": 9765, 
  "migrant": 9766, 
  "tification": 9767, 
  "savers": 9768, 
  "PA@@": 9769, 
  "urban@@": 9770, 
  "dumping": 9771, 
  "struggled": 9772, 
  "barr@@": 9773, 
  "manifest": 9774, 
  "Poor": 9775, 
  "theorists": 9776, 
  "Barcelona": 9777, 
  "Wh@@": 9778, 
  "charter": 9779, 
  "not-@@": 9780, 
  "depreci@@": 9781, 
  "rul@@": 9782, 
  "mineral": 9783, 
  "multiculturalism": 9784, 
  "envy": 9785, 
  "33": 9786, 
  "appeasement": 9787, 
  "abused": 9788, 
  "Ibrahim": 9789, 
  "outgoing": 9790, 
  "Wolfensohn": 9791, 
  "desires": 9792, 
  "mentally": 9793, 
  "quasi-@@": 9794, 
  "persistence": 9795, 
  "device": 9796, 
  "nice": 9797, 
  "So@@": 9798, 
  "noble": 9799, 
  "withdrew": 9800, 
  "itor": 9801, 
  "readers": 9802, 
  "violating": 9803, 
  "dimensional": 9804, 
  "ish-@@": 9805, 
  "swit@@": 9806, 
  "anic": 9807, 
  "ested": 9808, 
  "apes": 9809, 
  "agon": 9810, 
  "ate-@@": 9811, 
  "comment": 9812, 
  "1975": 9813, 
  "portray": 9814, 
  "anybody": 9815, 
  "allegiance": 9816, 
  "realignment": 9817, 
  "nan": 9818, 
  "bility": 9819, 
  "disposable": 9820, 
  "Islamism": 9821, 
  "ch-@@": 9822, 
  "expenses": 9823, 
  "parliament@@": 9824, 
  "sink": 9825, 
  "Iv@@": 9826, 
  "escaped": 9827, 
  "disciplines": 9828, 
  "asserted": 9829, 
  "ignorant": 9830, 
  "stret@@": 9831, 
  "plummeted": 9832, 
  "therapeutic": 9833, 
  "execu@@": 9834, 
  "occasional": 9835, 
  "amidst": 9836, 
  "hed@@": 9837, 
  "asylum": 9838, 
  "encounter": 9839, 
  "collectiv@@": 9840, 
  "dé@@": 9841, 
  "BP": 9842, 
  "operates": 9843, 
  "preparations": 9844, 
  "higher-@@": 9845, 
  "Pi@@": 9846, 
  "coups": 9847, 
  "escalate": 9848, 
  "celebrating": 9849, 
  "Soros": 9850, 
  "submitted": 9851, 
  "vowed": 9852, 
  "Pervez": 9853, 
  "itous": 9854, 
  "Benedict": 9855, 
  "Catholics": 9856, 
  "stock-market": 9857, 
  "full-scale": 9858, 
  "teen": 9859, 
  "gen": 9860, 
  "quarter-century": 9861, 
  "condemnation": 9862, 
  "à": 9863, 
  "ied": 9864, 
  "films": 9865, 
  "constraint": 9866, 
  "2007-@@": 9867, 
  "visa": 9868, 
  "kets": 9869, 
  "edy": 9870, 
  "oil-rich": 9871, 
  "recru@@": 9872, 
  "Pla@@": 9873, 
  "Economist": 9874, 
  "propag@@": 9875, 
  "implicitly": 9876, 
  "ano@@": 9877, 
  "ock": 9878, 
  "tale": 9879, 
  "unchecked": 9880, 
  "politicized": 9881, 
  "nit@@": 9882, 
  "tech": 9883, 
  "resp@@": 9884, 
  "embark": 9885, 
  "diffusion": 9886, 
  "repres@@": 9887, 
  "negligible": 9888, 
  "Stu@@": 9889, 
  "1960s": 9890, 
  "predicting": 9891, 
  "Malay@@": 9892, 
  "vaccine": 9893, 
  "endering": 9894, 
  "appl@@": 9895, 
  "artificially": 9896, 
  "highs": 9897, 
  "plane": 9898, 
  "instrumental": 9899, 
  "histories": 9900, 
  "tan": 9901, 
  "experimental": 9902, 
  "Khan": 9903, 
  "lith@@": 9904, 
  "orable": 9905, 
  "abrupt": 9906, 
  "tab@@": 9907, 
  "eng": 9908, 
  "shell": 9909, 
  "condemning": 9910, 
  "random": 9911, 
  "formulate": 9912, 
  "refuge": 9913, 
  "endanger": 9914, 
  "repeating": 9915, 
  "Go@@": 9916, 
  "straight": 9917, 
  "divergence": 9918, 
  "candidacy": 9919, 
  "roadmap": 9920, 
  "ethnically": 9921, 
  "short-lived": 9922, 
  "complicate": 9923, 
  "21st": 9924, 
  "nud@@": 9925, 
  "setback": 9926, 
  "prejudice": 9927, 
  "mergers": 9928, 
  "dictate": 9929, 
  "cam@@": 9930, 
  "picking": 9931, 
  "blog@@": 9932, 
  "prolong": 9933, 
  "unskilled": 9934, 
  "yearning": 9935, 
  "reassure": 9936, 
  "phenomena": 9937, 
  "pornography": 9938, 
  "heal": 9939, 
  "slack": 9940, 
  "que@@": 9941, 
  "mines": 9942, 
  "Lenin": 9943, 
  "cov@@": 9944, 
  "gar": 9945, 
  "Age": 9946, 
  "monetiz@@": 9947, 
  "hall@@": 9948, 
  "embassy": 9949, 
  "lax": 9950, 
  "vy": 9951, 
  "autocracy": 9952, 
  "crossing": 9953, 
  "guaranteeing": 9954, 
  "discriminate": 9955, 
  "time-@@": 9956, 
  "eline": 9957, 
  "justly": 9958, 
  "ok@@": 9959, 
  "sugar": 9960, 
  "Chinese-@@": 9961, 
  "leveraging": 9962, 
  "visitors": 9963, 
  "opaque": 9964, 
  "wild@@": 9965, 
  "2100": 9966, 
  "reinforces": 9967, 
  "suspicions": 9968, 
  "uniting": 9969, 
  "freed": 9970, 
  "sway": 9971, 
  "neo-conservative": 9972, 
  "winding": 9973, 
  "cham@@": 9974, 
  "business@@": 9975, 
  "X": 9976, 
  "alien@@": 9977, 
  "docum@@": 9978, 
  "AT@@": 9979, 
  "bit@@": 9980, 
  "2.7": 9981, 
  "anti-globalization": 9982, 
  "Strait": 9983, 
  "concert": 9984, 
  "Action": 9985, 
  "ule": 9986, 
  "Raúl": 9987, 
  "tackled": 9988, 
  "ori@@": 9989, 
  "displayed": 9990, 
  "disadvantage": 9991, 
  "Dick": 9992, 
  "pro-Western": 9993, 
  "cau@@": 9994, 
  "After": 9995, 
  "interestingly": 9996, 
  "smoking": 9997, 
  "omni@@": 9998, 
  "Napoleon": 9999, 
  "pable": 10000, 
  "enly": 10001, 
  "lifestyle": 10002, 
  "Commissioner": 10003, 
  "curiosity": 10004, 
  "Armstrong": 10005, 
  "debtors": 10006, 
  "c": 10007, 
  "accomplishments": 10008, 
  "manif@@": 10009, 
  "stig@@": 10010, 
  "detained": 10011, 
  "trump": 10012, 
  "ri": 10013, 
  "liked": 10014, 
  "forbidden": 10015, 
  "tenth": 10016, 
  "geographic": 10017, 
  "Ru@@": 10018, 
  "stemming": 10019, 
  "CCP": 10020, 
  "bombed": 10021, 
  "ble@@": 10022, 
  "x-@@": 10023, 
  "porting": 10024, 
  "sins": 10025, 
  "ancing": 10026, 
  "gay": 10027, 
  "34": 10028, 
  "atro@@": 10029, 
  "contradictions": 10030, 
  "green@@": 10031, 
  "intern@@": 10032, 
  "wisely": 10033, 
  "harassment": 10034, 
  "unanimity": 10035, 
  "ogues": 10036, 
  "US-China": 10037, 
  "truce": 10038, 
  "steam": 10039, 
  "whis@@": 10040, 
  "Soviet@@": 10041, 
  "tar": 10042, 
  "System": 10043, 
  "rais@@": 10044, 
  "pronouncements": 10045, 
  "pa@@": 10046, 
  "visiting": 10047, 
  "interdependent": 10048, 
  "behaving": 10049, 
  "Arthur": 10050, 
  "tedness": 10051, 
  "defiance": 10052, 
  "stun@@": 10053, 
  "dual": 10054, 
  "Kirchner": 10055, 
  "codes": 10056, 
  "band": 10057, 
  "transmitted": 10058, 
  "align": 10059, 
  "installed": 10060, 
  "interrupted": 10061, 
  "lian": 10062, 
  "thriving": 10063, 
  "51": 10064, 
  "tionalism": 10065, 
  "emis@@": 10066, 
  "petroleum": 10067, 
  "Sou@@": 10068, 
  "resumption": 10069, 
  "Kyrgyzstan": 10070, 
  "swaps": 10071, 
  "preced@@": 10072, 
  "ald": 10073, 
  "Fer@@": 10074, 
  "dra@@": 10075, 
  "Cypriots": 10076, 
  "igrate": 10077, 
  "che": 10078, 
  "contexts": 10079, 
  "genius": 10080, 
  "admitting": 10081, 
  "graded": 10082, 
  "petition": 10083, 
  "Len@@": 10084, 
  "extinc@@": 10085, 
  "variant": 10086, 
  "gent@@": 10087, 
  "Zedong": 10088, 
  "vivid": 10089, 
  "dividend": 10090, 
  "obedience": 10091, 
  "inist": 10092, 
  "cav@@": 10093, 
  "discretion": 10094, 
  "Sol@@": 10095, 
  "veto@@": 10096, 
  "aggres@@": 10097, 
  "uri": 10098, 
  "fai@@": 10099, 
  "failings": 10100, 
  "endorsement": 10101, 
  "manages": 10102, 
  "mobilization": 10103, 
  "trades": 10104, 
  "All": 10105, 
  "contend": 10106, 
  "itary": 10107, 
  "abundance": 10108, 
  "Ren@@": 10109, 
  "financial-sector": 10110, 
  "diplomat": 10111, 
  "dismantle": 10112, 
  "ises": 10113, 
  "mou@@": 10114, 
  "growth-@@": 10115, 
  "play@@": 10116, 
  "plagued": 10117, 
  "econom@@": 10118, 
  "villagers": 10119, 
  "hopeless": 10120, 
  "foreclosures": 10121, 
  "aka": 10122, 
  "Rev@@": 10123, 
  "assembled": 10124, 
  "polarization": 10125, 
  "antagonism": 10126, 
  "urs": 10127, 
  "photograph@@": 10128, 
  "infections": 10129, 
  "tank": 10130, 
  "ancestors": 10131, 
  "schooling": 10132, 
  "Nav@@": 10133, 
  "Pax": 10134, 
  "quota": 10135, 
  "oes": 10136, 
  "Politburo": 10137, 
  "contin@@": 10138, 
  "Pradesh": 10139, 
  "breath@@": 10140, 
  "0": 10141, 
  "dy@@": 10142, 
  "Holland": 10143, 
  "eh": 10144, 
  "cheaply": 10145, 
  "supplied": 10146, 
  "Jong-@@": 10147, 
  "institutionalized": 10148, 
  "pacif@@": 10149, 
  "discredit": 10150, 
  "versa": 10151, 
  "MD@@": 10152, 
  "alignment": 10153, 
  "nic@@": 10154, 
  "Ter@@": 10155, 
  "orthodox": 10156, 
  "fighter": 10157, 
  "Reinhart": 10158, 
  "multipolar": 10159, 
  "opens": 10160, 
  "motive": 10161, 
  "foresee": 10162, 
  "ef": 10163, 
  "Quartet": 10164, 
  "rated": 10165, 
  "rat@@": 10166, 
  "coffee": 10167, 
  "cures": 10168, 
  "entials": 10169, 
  "prescription": 10170, 
  "shortsighted": 10171, 
  "worlds": 10172, 
  "corrected": 10173, 
[...]
