{
  "eos": 0, 
  "UNK": 1, 
  ",": 2, 
  ".": 3, 
  "die": 4, 
  "der": 5, 
  "und": 6, 
  "in": 7, 
  "zu": 8, 
  "von": 9, 
  "den": 10, 
  "das": 11, 
  "ist": 12, 
  "für": 13, 
  "mit": 14, 
  "auf": 15, 
  "des": 16, 
  "eine": 17, 
  "wir": 18, 
  "im": 19, 
  "es": 20, 
  "Sie": 21, 
  "nicht": 22, 
  "ein": 23, 
  "ich": 24, 
  "werden": 25, 
  "dass": 26, 
  "dem": 27, 
  "sich": 28, 
  "&quot;": 29, 
  "auch": 30, 
  "-": 31, 
  "sind": 32, 
  "wird": 33, 
  "an": 34, 
  "als": 35, 
  "(": 36, 
  ")": 37, 
  "um": 38, 
  "oder": 39, 
  "wie": 40, 
  "über": 41, 
  "haben": 42, 
  "hat": 43, 
  "einer": 44, 
  "bei": 45, 
  "sie": 46, 
  ":": 47, 
  "zur": 48, 
  "diese": 49, 
  "aus": 50, 
  "einen": 51, 
  "können": 52, 
  "nach": 53, 
  "wenn": 54, 
  "zum": 55, 
  "einem": 56, 
  "durch": 57, 
  "nur": 58, 
  "uns": 59, 
  "dieser": 60, 
  "kann": 61, 
  "so": 62, 
  "aber": 63, 
  "er": 64, 
  "vor": 65, 
  "daß": 66, 
  "Kommission": 67, 
  "noch": 68, 
  "!": 69, 
  "wurde": 70, 
  "am": 71, 
  "Herr": 72, 
  "sehr": 73, 
  "sein": 74, 
  "müssen": 75, 
  "alle": 76, 
  "man": 77, 
  "?": 78, 
  "was": 79, 
  "diesem": 80, 
  "Union": 81, 
  "dieses": 82, 
  "mehr": 83, 
  "Europäischen": 84, 
  "/": 85, 
  "hier": 86, 
  "dies": 87, 
  "bis": 88, 
  "möchte": 89, 
  "ihre": 90, 
  "war": 91, 
  "unsere": 92, 
  "eines": 93, 
  "vom": 94, 
  "unter": 95, 
  "Präsident": 96, 
  "gibt": 97, 
  "sowie": 98, 
  "zwischen": 99, 
  "muss": 100, 
  "Bericht": 101, 
  "Hotel": 102, 
  "damit": 103, 
  "Parlament": 104, 
  "-@@": 105, 
  "da": 106, 
  "keine": 107, 
  "Ihnen": 108, 
  "dann": 109, 
  "Mitgliedstaaten": 110, 
  "anderen": 111, 
  "immer": 112, 
  "Europa": 113, 
  "diesen": 114, 
  "heute": 115, 
  "wurden": 116, 
  "gegen": 117, 
  "Frau": 118, 
  "seine": 119, 
  "unserer": 120, 
  ";": 121, 
  "jedoch": 122, 
  "habe": 123, 
  "Europäische": 124, 
  "Zeit": 125, 
  "sondern": 126, 
  "neue": 127, 
  "&apos;": 128, 
  "bereits": 129, 
  "Menschen": 130, 
  "sollte": 131, 
  "ohne": 132, 
  "Jahr": 133, 
  "mich": 134, 
  "sollten": 135, 
  "europäischen": 136, 
  "viele": 137, 
  "andere": 138, 
  "Ihre": 139, 
  "dazu": 140, 
  "ihrer": 141, 
  "EU": 142, 
  "neuen": 143, 
  "zwei": 144, 
  "Jahren": 145, 
  "ganz": 146, 
  "denn": 147, 
  "doch": 148, 
  "%": 149, 
  "Rat": 150, 
  "Frage": 151, 
  "finden": 152, 
  "jetzt": 153, 
  "Entwicklung": 154, 
  "denen": 155, 
  "einige": 156, 
  "machen": 157, 
  "meine": 158, 
  "seit": 159, 
  "während": 160, 
  "allen": 161, 
  "weil": 162, 
  "bietet": 163, 
  "liegt": 164, 
  "ihr": 165, 
  "dafür": 166, 
  "Unternehmen": 167, 
  "darauf": 168, 
  "Welt": 169, 
  "geht": 170, 
  "selbst": 171, 
  "wieder": 172, 
  "schon": 173, 
  "daher": 174, 
  "seiner": 175, 
  "nun": 176, 
  "Maßnahmen": 177, 
  "Informationen": 178, 
  "lassen": 179, 
  "Bereich": 180, 
  "ob": 181, 
  "Lage": 182, 
  "dabei": 183, 
  "Herrn": 184, 
  "mir": 185, 
  "ihren": 186, 
  "Arbeit": 187, 
  "wollen": 188, 
  "Jahre": 189, 
  "allem": 190, 
  "darüber": 191, 
  "bin": 192, 
  "deshalb": 193, 
  "ab": 194, 
  "unseren": 195, 
  "würde": 196, 
  "insbesondere": 197, 
  "viel": 198, 
  "unser": 199, 
  "wo": 200, 
  "sagen": 201, 
  "etwas": 202, 
  "beim": 203, 
  "Land": 204, 
  "gut": 205, 
  "&#93;": 206, 
  "möglich": 207, 
  "&#91;": 208, 
  "2": 209, 
  "geben": 210, 
  "waren": 211, 
  "also": 212, 
  "Länder": 213, 
  "Zimmer": 214, 
  "natürlich": 215, 
  "Unterstützung": 216, 
  "erhalten": 217, 
  "Parlaments": 218, 
  "Rahmen": 219, 
  "sehen": 220, 
  "welche": 221, 
  "Zusammenarbeit": 222, 
  "stehen": 223, 
  "wichtig": 224, 
  "un@@": 225, 
  "ersten": 226, 
  "Vorschlag": 227, 
  "soll": 228, 
  "Teil": 229, 
  "besteht": 230, 
  "steht": 231, 
  "stellen": 232, 
  "Fall": 233, 
  "wäre": 234, 
  "er@@": 235, 
  "Ländern": 236, 
  "tun": 237, 
  "s": 238, 
  "einfach": 239, 
  "einmal": 240, 
  "drei": 241, 
  "de": 242, 
  "meiner": 243, 
  "bitte": 244, 
  "Fragen": 245, 
  "Problem": 246, 
  "Bürger": 247, 
  "weitere": 248, 
  "Ziel": 249, 
  "seinen": 250, 
  "Kollegen": 251, 
  "Namen": 252, 
  "1": 253, 
  "vielen": 254, 
  "letzten": 255, 
  "große": 256, 
  "worden": 257, 
  "Stadt": 258, 
  "deren": 259, 
  "besonders": 260, 
  "großen": 261, 
  "Verfügung": 262, 
  "Bedeutung": 263, 
  "Recht": 264, 
  "kommen": 265, 
  "Daten": 266, 
  "Art": 267, 
  "Sicherheit": 268, 
  "weiter": 269, 
  "sowohl": 270, 
  "alles": 271, 
  "Seite": 272, 
  "kein": 273, 
  "Möglichkeit": 274, 
  "muß": 275, 
  "davon": 276, 
  "politischen": 277, 
  "ver@@": 278, 
  "a": 279, 
  "Thema": 280, 
  "bieten": 281, 
  "könnte": 282, 
  "Probleme": 283, 
  "Kommissar": 284, 
  "wissen": 285, 
  "innerhalb": 286, 
  "Weise": 287, 
  "Regierung": 288, 
  "zwar": 289, 
  "Kunden": 290, 
  "aller": 291, 
  "3": 292, 
  "ja": 293, 
  "erreichen": 294, 
  "Staaten": 295, 
  "unterstützen": 296, 
  "Ihrer": 297, 
  "Zukunft": 298, 
  "an@@": 299, 
  "en": 300, 
  "Politik": 301, 
  "jeder": 302, 
  "möchten": 303, 
  "befindet": 304, 
  "wirklich": 305, 
  "Ende": 306, 
  "Beispiel": 307, 
  "gegenüber": 308, 
  "hatte": 309, 
  "ihnen": 310, 
  "ab@@": 311, 
  "dort": 312, 
  "verschiedenen": 313, 
  "eigenen": 314, 
  "Rolle": 315, 
  "entfernt": 316, 
  "internationalen": 317, 
  "System": 318, 
  "Weg": 319, 
  "allerdings": 320, 
  "direkt": 321, 
  "Frauen": 322, 
  "führen": 323, 
  "europäische": 324, 
  "außerdem": 325, 
  "USA": 326, 
  "en@@": 327, 
  "ten": 328, 
  "Richtlinie": 329, 
  "&amp;": 330, 
  "erste": 331, 
  "Ihren": 332, 
  "te": 333, 
  "kommt": 334, 
  "bringen": 335, 
  "nehmen": 336, 
  "10": 337, 
  "Meinung": 338, 
  "Tag": 339, 
  "ein@@": 340, 
  "Artikel": 341, 
  "stellt": 342, 
  "Ihr": 343, 
  "Situation": 344, 
  "Euro": 345, 
  "beiden": 346, 
  "Zusammenhang": 347, 
  "politische": 348, 
  "Uhr": 349, 
  "unserem": 350, 
  "daran": 351, 
  "indem": 352, 
  "weniger": 353, 
  "Hilfe": 354, 
  "aufgrund": 355, 
  "Präsidentin": 356, 
  "gerade": 357, 
  "Lösung": 358, 
  "gehen": 359, 
  "sogar": 360, 
  "5": 361, 
  "Programm": 362, 
  "pro": 363, 
  "Mittel": 364, 
  "Produkte": 365, 
  "gesagt": 366, 
  "ebenfalls": 367, 
  "gilt": 368, 
  "4": 369, 
  "etwa": 370, 
  "darin": 371, 
  "bzw.": 372, 
  "Grund": 373, 
  "genau": 374, 
  "Europas": 375, 
  "nämlich": 376, 
  "Leben": 377, 
  "Schutz": 378, 
  "K@@": 379, 
  "Millionen": 380, 
  "weiterhin": 381, 
  "Haus": 382, 
  "vielleicht": 383, 
  "hinaus": 384, 
  "gemacht": 385, 
  "betrifft": 386, 
  "du": 387, 
  "darf": 388, 
  "Region": 389, 
  "gute": 390, 
  "unterstützt": 391, 
  "ins": 392, 
  "Aussprache": 393, 
  "dessen": 394, 
  "ihm": 395, 
  "Kinder": 396, 
  "sicher": 397, 
  "ihn": 398, 
  "aus@@": 399, 
  "Fraktion": 400, 
  "Punkt": 401, 
  "all": 402, 
  "Ver@@": 403, 
  "solche": 404, 
  "zusammen": 405, 
  "gleichzeitig": 406, 
  "neben": 407, 
  "einigen": 408, 
  "nichts": 409, 
  "seinem": 410, 
  "brauchen": 411, 
  "Rates": 412, 
  "glaube": 413, 
  "dürfen": 414, 
  "ebenso": 415, 
  "S@@": 416, 
  "Personen": 417, 
  "jeden": 418, 
  "Qualität": 419, 
  "auf@@": 420, 
  "Hotels": 421, 
  "Abstimmung": 422, 
  "öffentlichen": 423, 
  "sollen": 424, 
  "macht": 425, 
  "nationalen": 426, 
  "erst": 427, 
  "Gemeinschaft": 428, 
  "Deutschland": 429, 
  "Form": 430, 
  "handelt": 431, 
  "arbeiten": 432, 
  "Rechte": 433, 
  "keinen": 434, 
  "meisten": 435, 
  "m": 436, 
  "k@@": 437, 
  "ihrem": 438, 
  "nutzen": 439, 
  "2009": 440, 
  "Ebene": 441, 
  "Wirtschaft": 442, 
  "würden": 443, 
  "Ab@@": 444, 
  "zunächst": 445, 
  "obwohl": 446, 
  "bedeutet": 447, 
  "Bezug": 448, 
  "klar": 449, 
  "wichtige": 450, 
  "sei": 451, 
  "beispielsweise": 452, 
  "statt": 453, 
  "besser": 454, 
  "T@@": 455, 
  "20": 456, 
  "B@@": 457, 
  "deutlich": 458, 
  "P@@": 459, 
  "schnell": 460, 
  "Ort": 461, 
  "halten": 462, 
  "will": 463, 
  "G@@": 464, 
  "Dank": 465, 
  "s@@": 466, 
  "Zugang": 467, 
  "findet": 468, 
  "Kosten": 469, 
  "Gesellschaft": 470, 
  "besten": 471, 
  "Ansicht": 472, 
  "ge@@": 473, 
  "Menschenrechte": 474, 
  "nächsten": 475, 
  "Seiten": 476, 
  "Richtung": 477, 
  "Website": 478, 
  "Umsetzung": 479, 
  "darum": 480, 
  "schaffen": 481, 
  "weit": 482, 
  "hoffe": 483, 
  "e": 484, 
  "werde": 485, 
  "Markt": 486, 
  "Verantwortung": 487, 
  "Ziele": 488, 
  "notwendig": 489, 
  "jede": 490, 
  "Bedingungen": 491, 
  "30": 492, 
  "Verfahren": 493, 
  "Vorschläge": 494, 
  "gehört": 495, 
  "Demokratie": 496, 
  "schließlich": 497, 
  "bekannt": 498, 
  "gemeinsamen": 499, 
  "sprechen": 500, 
  "Interesse": 501, 
  "z@@": 502, 
  "jedes": 503, 
  "verwendet": 504, 
  "Grundlage": 505, 
  "Anwendung": 506, 
  "A@@": 507, 
  "D@@": 508, 
  "Herren": 509, 
  "könnten": 510, 
  "Gebiet": 511, 
  "Nähe": 512, 
  "erreicht": 513, 
  "sozialen": 514, 
  "An@@": 515, 
  "oft": 516, 
  "bleiben": 517, 
  "ung": 518, 
  "Debatte": 519, 
  "Möglichkeiten": 520, 
  "setzen": 521, 
  "kleinen": 522, 
  "verschiedene": 523, 
  "Die": 524, 
  "Ihrem": 525, 
  "Vertrag": 526, 
  "ter": 527, 
  "ent@@": 528, 
  "leider": 529, 
  "über@@": 530, 
  "wirtschaftlichen": 531, 
  "je": 532, 
  "Reihe": 533, 
  "China": 534, 
  "F@@": 535, 
  "hin": 536, 
  "Geschichte": 537, 
  "führt": 538, 
  "lange": 539, 
  "gemeinsame": 540, 
  "tatsächlich": 541, 
  "weltweit": 542, 
  "Berichterstatter": 543, 
  "M@@": 544, 
  "fast": 545, 
  "Damen": 546, 
  "Auswirkungen": 547, 
  "o": 548, 
  "H@@": 549, 
  "N@@": 550, 
  "Institutionen": 551, 
  "erforderlich": 552, 
  "wenig": 553, 
  "t@@": 554, 
  "ermöglicht": 555, 
  "zeigt": 556, 
  "zu@@": 557, 
  "verfügt": 558, 
  "gemeinsam": 559, 
  "Abkommen": 560, 
  "Hinblick": 561, 
  "Internet": 562, 
  "2010": 563, 
  "L@@": 564, 
  "Strategie": 565, 
  "wegen": 566, 
  "danken": 567, 
  "Service": 568, 
  "Version": 569, 
  "ern": 570, 
  "2008": 571, 
  "15": 572, 
  "vier": 573, 
  "Dienstleistungen": 574, 
  "hatten": 575, 
  "Tatsache": 576, 
  "angesichts": 577, 
  "R@@": 578, 
  "dadurch": 579, 
  "gesamten": 580, 
  "zudem": 581, 
  "Verhandlungen": 582, 
  "denke": 583, 
  "einzelnen": 584, 
  "Kolleginnen": 585, 
  "Ein@@": 586, 
  "internationale": 587, 
  "Software": 588, 
  "Regionen": 589, 
  "Minuten": 590, 
  "Mitglieder": 591, 
  "t": 592, 
  "warum": 593, 
  "entwickelt": 594, 
  "Schritt": 595, 
  "hätte": 596, 
  "ungs@@": 597, 
  "Änderungsanträge": 598, 
  "bereit": 599, 
  "ungen": 600, 
  "Entscheidung": 601, 
  "Ergebnis": 602, 
  "um@@": 603, 
  "jedem": 604, 
  "derzeit": 605, 
  "dar": 606, 
  "Änderungsantrag": 607, 
  "EU-@@": 608, 
  "enden": 609, 
  "Bereichen": 610, 
  "km": 611, 
  "gestellt": 612, 
  "6": 613, 
  "spielen": 614, 
  "el@@": 615, 
  "Beziehungen": 616, 
  "Vereinigten": 617, 
  "sch@@": 618, 
  "ischen": 619, 
  "Antwort": 620, 
  "W@@": 621, 
  "helfen": 622, 
  "hinsichtlich": 623, 
  "weiteren": 624, 
  "mein": 625, 
  "Bevölkerung": 626, 
  "Abgeordneten": 627, 
  "50": 628, 
  "n@@": 629, 
  "wer": 630, 
  "befinden": 631, 
  "konnte": 632, 
  "Erfolg": 633, 
  "Ausdruck": 634, 
  "gerne": 635, 
  "Gruppe": 636, 
  "mehrere": 637, 
  "falls": 638, 
  "al@@": 639, 
  "wichtigen": 640, 
  "Aufgabe": 641, 
  "i": 642, 
  "Zentrum": 643, 
  "unseres": 644, 
  "kleine": 645, 
  "meinen": 646, 
  "vor@@": 647, 
  "in@@": 648, 
  "weiß": 649, 
  "heißt": 650, 
  "E@@": 651, 
  "Türkei": 652, 
  "somit": 653, 
  "bleibt": 654, 
  "Blick": 655, 
  "liegen": 656, 
  "gestimmt": 657, 
  "meines": 658, 
  "Krise": 659, 
  "Geld": 660, 
  "Verordnung": 661, 
  "C@@": 662, 
  "Kontrolle": 663, 
  "neu": 664, 
  "Förderung": 665, 
  "gab": 666, 
  "bekommen": 667, 
  "Verbindung": 668, 
  "Einsatz": 669, 
  "Restaurant": 670, 
  "z.B.": 671, 
  "i@@": 672, 
  "Forschung": 673, 
  "2000": 674, 
  "Entschließung": 675, 
  "d@@": 676, 
  "e@@": 677, 
  "per": 678, 
  "rund": 679, 
  "richtig": 680, 
  "Platz": 681, 
  "Mal": 682, 
  "Aus@@": 683, 
  "Z@@": 684, 
  "Jahres": 685, 
  "Behörden": 686, 
  "Ausschuss": 687, 
  "Beitrag": 688, 
  "O@@": 689, 
  "ende": 690, 
  "V@@": 691, 
  "Preis": 692, 
  "ische": 693, 
  "wohl": 694, 
  "100": 695, 
  "voll": 696, 
  "2007": 697, 
  "Erweiterung": 698, 
  "gegeben": 699, 
  "enthalten": 700, 
  "zeigen": 701, 
  "verwenden": 702, 
  "Nutzung": 703, 
  "enthält": 704, 
  "wichtigsten": 705, 
  "bisher": 706, 
  "of": 707, 
  "Vor@@": 708, 
  "*": 709, 
  "später": 710, 
  "Ausschusses": 711, 
  "Projekt": 712, 
  "ermöglichen": 713, 
  "zurück": 714, 
  "Verbesserung": 715, 
  "lässt": 716, 
  "genießen": 717, 
  "wobei": 718, 
  "Verbraucher": 719, 
  "ganze": 720, 
  "recht": 721, 
  "7": 722, 
  "ganzen": 723, 
  "insgesamt": 724, 
  "trotz": 725, 
  "tes": 726, 
  "völlig": 727, 
  "Ergebnisse": 728, 
  "Schaffung": 729, 
  "f@@": 730, 
  "eigene": 731, 
  "Gelegenheit": 732, 
  "Wort": 733, 
  "verbessern": 734, 
  "Russland": 735, 
  "st@@": 736, 
  "wirtschaftliche": 737, 
  "dennoch": 738, 
  "soziale": 739, 
  "Landes": 740, 
  "gemäß": 741, 
  "fünf": 742, 
  "großer": 743, 
  "Verwendung": 744, 
  "verfügen": 745, 
  "zahlreiche": 746, 
  "bevor": 747, 
  "Lösungen": 748, 
  "nachdem": 749, 
  "Interessen": 750, 
  "Notwendigkeit": 751, 
  "tragen": 752, 
  "gleichen": 753, 
  "Woche": 754, 
  "leben": 755, 
  "2006": 756, 
  "guten": 757, 
  "angenommen": 758, 
  "Änderungen": 759, 
  "meinem": 760, 
  "8": 761, 
  "sorgen": 762, 
  "Zeitpunkt": 763, 
  "Angebot": 764, 
  "Themen": 765, 
  "gehören": 766, 
  "gebracht": 767, 
  "Mitarbeiter": 768, 
  "Regierungen": 769, 
  "lediglich": 770, 
  "&#124;": 771, 
  "klicken": 772, 
  "12": 773, 
  "bestehen": 774, 
  "fördern": 775, 
  "geführt": 776, 
  "Text": 777, 
  "Partner": 778, 
  "schriftlich": 779, 
  "Gesundheit": 780, 
  "e-@@": 781, 
  "Bild": 782, 
  "Wert": 783, 
  "äußerst": 784, 
  "alten": 785, 
  "+": 786, 
  "m@@": 787, 
  "Erfahrung": 788, 
  "Frankreich": 789, 
  "wählen": 790, 
  "verstehen": 791, 
  "be@@": 792, 
  "verbunden": 793, 
  ".@@": 794, 
  "ar@@": 795, 
  "Kultur": 796, 
  "Sch@@": 797, 
  "Person": 798, 
  "fest": 799, 
  "Einführung": 800, 
  "kurz": 801, 
  "bestimmte": 802, 
  "Anfang": 803, 
  "Umwelt": 804, 
  "gewährleisten": 805, 
  "Initiative": 806, 
  "gesamte": 807, 
  "hohen": 808, 
  "ziehen": 809, 
  "Familie": 810, 
  "Kampf": 811, 
  "Mitglied": 812, 
  "versuchen": 813, 
  "Tage": 814, 
  "Liste": 815, 
  "d": 816, 
  "Auswahl": 817, 
  "Anzahl": 818, 
  "Aktivitäten": 819, 
  "Haupt@@": 820, 
  "Herzen": 821, 
  "hohe": 822, 
  "Kommissarin": 823, 
  "Umgebung": 824, 
  "y@@": 825, 
  "wann": 826, 
  "Erachtens": 827, 
  "bereich": 828, 
  "anderer": 829, 
  "o@@": 830, 
  "Bekämpfung": 831, 
  "selbstverständlich": 832, 
  "your": 833, 
  "entwickeln": 834, 
  "Sprache": 835, 
  "Un@@": 836, 
  "bestimmten": 837, 
  "suchen": 838, 
  "Wahl": 839, 
  "Fortschritte": 840, 
  "zweite": 841, 
  "Juni": 842, 
  "Programme": 843, 
  "Zahl": 844, 
  "Dinge": 845, 
  "stark": 846, 
  "b@@": 847, 
  "zweitens": 848, 
  "Produktion": 849, 
  "®": 850, 
  "scheint": 851, 
  "ch@@": 852, 
  "Mai": 853, 
  "Gäste": 854, 
  "25": 855, 
  "Industrie": 856, 
  "g@@": 857, 
  "einschließlich": 858, 
  "et@@": 859, 
  "Bestimmungen": 860, 
  "Prozess": 861, 
  "l@@": 862, 
  "Erklärung": 863, 
  "Wasser": 864, 
  "eigentlich": 865, 
  "erster": 866, 
  "solchen": 867, 
  "allein": 868, 
  "ausgestattet": 869, 
  "Wachstum": 870, 
  "I@@": 871, 
  "ändern": 872, 
  "sten": 873, 
  "2005": 874, 
  "unternehmen": 875, 
  "Preise": 876, 
  "nie": 877, 
  "Meer": 878, 
  "beide": 879, 
  "Hand": 880, 
  "u@@": 881, 
  "as": 882, 
  "leicht": 883, 
  "sagte": 884, 
  "Mehrheit": 885, 
  "vergangenen": 886, 
  "Integration": 887, 
  "Stelle": 888, 
  "einzige": 889, 
  "Handel": 890, 
  "Entscheidungen": 891, 
  "Dialog": 892, 
  "Punkte": 893, 
  "Anforderungen": 894, 
  "n": 895, 
  "Gewalt": 896, 
  "diejenigen": 897, 
  "treffen": 898, 
  "Dezember": 899, 
  "zweiten": 900, 
  "Natur": 901, 
  "gleich": 902, 
  "bezüglich": 903, 
  "weder": 904, 
  "Jahrhundert": 905, 
  "Aufmerksamkeit": 906, 
  "Position": 907, 
  "September": 908, 
  "leisten": 909, 
  "öffentliche": 910, 
  "Gefahr": 911, 
  "Spiel": 912, 
  "Insel": 913, 
  "Vorschriften": 914, 
  "es@@": 915, 
  "größten": 916, 
  "fragen": 917, 
  "2004": 918, 
  "on": 919, 
  "Investitionen": 920, 
  "ca.": 921, 
  "wichtiger": 922, 
  "Projekte": 923, 
  "Bereiche": 924, 
  "1.": 925, 
  "bringt": 926, 
  "J@@": 927, 
  "Grenzen": 928, 
  "europäischer": 929, 
  "-S@@": 930, 
  "system": 931, 
  "aufgenommen": 932, 
  "sieht": 933, 
  "halte": 934, 
  "neuer": 935, 
  "Freiheit": 936, 
  "eingesetzt": 937, 
  "Energie": 938, 
  "el": 939, 
  "gar": 940, 
  "ens": 941, 
  "Beschäftigung": 942, 
  "Wettbewerb": 943, 
  "Standpunkt": 944, 
  "benötigen": 945, 
  "wenige": 946, 
  "März": 947, 
  "Folgen": 948, 
  "Landwirtschaft": 949, 
  "gen": 950, 
  "konnten": 951, 
  "Anfrage": 952, 
  "fahren": 953, 
  "durchgeführt": 954, 
  "Küche": 955, 
  "Raum": 956, 
  "Diskussion": 957, 
  "Arbeits@@": 958, 
  "genommen": 959, 
  "Auf@@": 960, 
  "erstens": 961, 
  "aktuellen": 962, 
  "ieren": 963, 
  "00": 964, 
  "Berichts": 965, 
  "Macht": 966, 
  "geschlossen": 967, 
  "Stunden": 968, 
  "Nationen": 969, 
  "40": 970, 
  "Transparenz": 971, 
  "at": 972, 
  "Bildung": 973, 
  "Gästebewertungen": 974, 
  "erwarten": 975, 
  "Strand": 976, 
  "begrüße": 977, 
  "Höhe": 978, 
  "erneut": 979, 
  "Präsidentschaft": 980, 
  "Präsidenten": 981, 
  "Gründen": 982, 
  "morgen": 983, 
  "Auffassung": 984, 
  "a@@": 985, 
  "p@@": 986, 
  "vergessen": 987, 
  "hinter": 988, 
  "2003": 989, 
  "gelten": 990, 
  "besondere": 991, 
  "ihres": 992, 
  "Sache": 993, 
  "eher": 994, 
  "Fehler": 995, 
  "Oktober": 996, 
  "Öffentlichkeit": 997, 
  "frei": 998, 
  "nahe": 999, 
  "nimmt": 1000, 
  "Sinne": 1001, 
  "Firma": 1002, 
  "liche": 1003, 
  "gefunden": 1004, 
  "l": 1005, 
  "Regeln": 1006, 
  "Januar": 1007, 
  "Bemühungen": 1008, 
  "Ansatz": 1009, 
  "sofort": 1010, 
  "or@@": 1011, 
  "getan": 1012, 
  "entsprechend": 1013, 
  "beitragen": 1014, 
  "fordern": 1015, 
  "hätten": 1016, 
  "In@@": 1017, 
  "entsprechenden": 1018, 
  "geworden": 1019, 
  "stimmen": 1020, 
  "Fällen": 1021, 
  "Linie": 1022, 
  "Finanz@@": 1023, 
  "behandelt": 1024, 
  "verhindern": 1025, 
  "on@@": 1026, 
  "häufig": 1027, 
  "Tagesordnung": 1028, 
  "Kraft": 1029, 
  "bar": 1030, 
  "Team": 1031, 
  "and": 1032, 
  "gern": 1033, 
  "lichen": 1034, 
  "erfolgt": 1035, 
  "Unter@@": 1036, 
  "genannten": 1037, 
  "Monaten": 1038, 
  "h@@": 1039, 
  "Frühstück": 1040, 
  "Druck": 1041, 
  "at@@": 1042, 
  "größte": 1043, 
  "Bar": 1044, 
  "2001": 1045, 
  "em": 1046, 
  "GmbH": 1047, 
  "9": 1048, 
  "Organisation": 1049, 
  "zumindest": 1050, 
  "Tat": 1051, 
  "Behandlung": 1052, 
  "Bürgerinnen": 1053, 
  "vertreten": 1054, 
  "Flughafen": 1055, 
  "Bürgern": 1056, 
  "Änderung": 1057, 
  "Lissabon": 1058, 
  "welches": 1059, 
  "Bilder": 1060, 
  "versucht": 1061, 
  "berücksichtigt": 1062, 
  "danke": 1063, 
  "überhaupt": 1064, 
  "ers": 1065, 
  "Tagen": 1066, 
  "hoch": 1067, 
  "4@@": 1068, 
  "technischen": 1069, 
  "richtige": 1070, 
  "freuen": 1071, 
  "Wasser@@": 1072, 
  "ter@@": 1073, 
  "Er@@": 1074, 
  "außerhalb": 1075, 
  "anderem": 1076, 
  "Sicht": 1077, 
  "Finanzierung": 1078, 
  "3@@": 1079, 
  "A": 1080, 
  "_": 1081, 
  "erklärt": 1082, 
  "Nr.": 1083, 
  "Juli": 1084, 
  "Atmosphäre": 1085, 
  "eben": 1086, 
  "zehn": 1087, 
  "freien": 1088, 
  "U@@": 1089, 
  "Konferenz": 1090, 
  "erfolgreich": 1091, 
  "verantwortlich": 1092, 
  "Beginn": 1093, 
  "erfüllen": 1094, 
  "Basis": 1095, 
  "Musik": 1096, 
  "Republik": 1097, 
  "zusätzlich": 1098, 
  "setzt": 1099, 
  "neues": 1100, 
  "schützen": 1101, 
  "v@@": 1102, 
  "politik": 1103, 
  "geschaffen": 1104, 
  "k": 1105, 
  "Vergangenheit": 1106, 
  "stets": 1107, 
  "jeweiligen": 1108, 
  "paar": 1109, 
  "Urlaub": 1110, 
  "Server": 1111, 
  "deutschen": 1112, 
  "Aspekte": 1113, 
  "beste": 1114, 
  "gewesen": 1115, 
  "Angelegenheit": 1116, 
  "Vertrauen": 1117, 
  "lich": 1118, 
  "j@@": 1119, 
  "AG": 1120, 
  "Erfahrungen": 1121, 
  "Wirtschafts@@": 1122, 
  "Ressourcen": 1123, 
  "besuchen": 1124, 
  "zahlreichen": 1125, 
  "verpflichtet": 1126, 
  "Werte": 1127, 
  "abschließend": 1128, 
  "Wochen": 1129, 
  "Inhalt": 1130, 
  "sechs": 1131, 
  "2002": 1132, 
  "Berichterstatterin": 1133, 
  "historischen": 1134, 
  "Rechtsvorschriften": 1135, 
  "endlich": 1136, 
  "November": 1137, 
  "st": 1138, 
  "z.": 1139, 
  "modernen": 1140, 
  "Aufenthalt": 1141, 
  "Herausforderungen": 1142, 
  "Reform": 1143, 
  "Schritte": 1144, 
  "Information": 1145, 
  "bessere": 1146, 
  "genug": 1147, 
  "letzte": 1148, 
  "erinnern": 1149, 
  "lang": 1150, 
  "Italien": 1151, 
  "Design": 1152, 
  "Berlin": 1153, 
  "000": 1154, 
  "B.": 1155, 
  "heutigen": 1156, 
  "re@@": 1157, 
  "vollständig": 1158, 
  "EUR": 1159, 
  "Arbeitnehmer": 1160, 
  "Schwierigkeiten": 1161, 
  "ale": 1162, 
  "C": 1163, 
  "Parteien": 1164, 
  "Hinsicht": 1165, 
  "is@@": 1166, 
  "lesen": 1167, 
  "durch@@": 1168, 
  "erlaubt": 1169, 
  "persönlichen": 1170, 
  "gesehen": 1171, 
  "privaten": 1172, 
  "Restaurants": 1173, 
  "ausschließlich": 1174, 
  "entscheiden": 1175, 
  "Spanien": 1176, 
  "end": 1177, 
  "Über@@": 1178, 
  "Angelegenheiten": 1179, 
  "chen": 1180, 
  "unter@@": 1181, 
  "r@@": 1182, 
  "seines": 1183, 
  "April": 1184, 
  "beginnen": 1185, 
  "zusätzliche": 1186, 
  "is": 1187, 
  "übernehmen": 1188, 
  "Arbeitsplätze": 1189, 
  "begrüßen": 1190, 
  "Vertreter": 1191, 
  "oben": 1192, 
  "Praxis": 1193, 
  "Solidarität": 1194, 
  "Sicherheits@@": 1195, 
  "Dateien": 1196, 
  "Staat": 1197, 
  "bitten": 1198, 
  "schwer": 1199, 
  "Funktion": 1200, 
  "z": 1201, 
  "Opfer": 1202, 
  "anders": 1203, 
  "kam": 1204, 
  "kaum": 1205, 
  "Folge": 1206, 
  "erwartet": 1207, 
  "Spieler": 1208, 
  "ste": 1209, 
  "gesetzt": 1210, 
  "Gruppen": 1211, 
  "automatisch": 1212, 
  "möglicherweise": 1213, 
  "bald": 1214, 
  "Gebäude": 1215, 
  "Technologie": 1216, 
  "Aufgaben": 1217, 
  "Einrichtung": 1218, 
  "iert": 1219, 
  "kennen": 1220, 
  "allgemeinen": 1221, 
  "folgt": 1222, 
  "Annahme": 1223, 
  "Systems": 1224, 
  "größere": 1225, 
  "legen": 1226, 
  "Wunsch": 1227, 
  "Ihres": 1228, 
  "moderne": 1229, 
  "Krieg": 1230, 
  "Bau@@": 1231, 
  "vorgeschlagen": 1232, 
  "Frieden": 1233, 
  "en-@@": 1234, 
  "18": 1235, 
  "aktuelle": 1236, 
  "Organisationen": 1237, 
  "folgen": 1238, 
  "€": 1239, 
  "Armut": 1240, 
  "erkennen": 1241, 
  "Milliarden": 1242, 
  "11": 1243, 
  "siehe": 1244, 
  "Sitzung": 1245, 
  "eindeutig": 1246, 
  "darstellt": 1247, 
  "ferner": 1248, 
  "erfahren": 1249, 
  "Benutzer": 1250, 
  "Verpflichtungen": 1251, 
  "danach": 1252, 
  "ti@@": 1253, 
  "bilden": 1254, 
  "Anstrengungen": 1255, 
  "folgenden": 1256, 
  "w@@": 1257, 
  "glauben": 1258, 
  "isch": 1259, 
  "usw.": 1260, 
  "benutzt": 1261, 
  "mal": 1262, 
  "Ich": 1263, 
  "offen": 1264, 
  "B": 1265, 
  "Verfassung": 1266, 
  "bewusst": 1267, 
  "unbedingt": 1268, 
  "Datei": 1269, 
  "Bad": 1270, 
  "ischer": 1271, 
  "demokratischen": 1272, 
  "24": 1273, 
  "mindestens": 1274, 
  "wahrscheinlich": 1275, 
  "überzeugt": 1276, 
  "14": 1277, 
  "Falle": 1278, 
  "Zustimmung": 1279, 
  "Wahlen": 1280, 
  "entspricht": 1281, 
  "programm": 1282, 
  "nationale": 1283, 
  "genutzt": 1284, 
  "zahlen": 1285, 
  "vorgelegt": 1286, 
  "Der": 1287, 
  "entsprechende": 1288, 
  "sobald": 1289, 
  "Prozent": 1290, 
  "benutzen": 1291, 
  "Vereinbarung": 1292, 
  "Kriterien": 1293, 
  "Terrorismus": 1294, 
  "wesentlich": 1295, 
  "Leute": 1296, 
  "Funktionen": 1297, 
  "Hause": 1298, 
  "gezeigt": 1299, 
  "außer": 1300, 
  "Instrument": 1301, 
  "Binnenmarkt": 1302, 
  "alen": 1303, 
  "Verwaltung": 1304, 
  "dringend": 1305, 
  "Karte": 1306, 
  "globalen": 1307, 
  "sicherlich": 1308, 
  "Anerkennung": 1309, 
  "16": 1310, 
  "Idee": 1311, 
  "Ausschuß": 1312, 
  "Systeme": 1313, 
  "1999": 1314, 
  "gelegen": 1315, 
  "unterschiedlichen": 1316, 
  "lösen": 1317, 
  "erleben": 1318, 
  "berücksichtigen": 1319, 
  "ts": 1320, 
  "St@@": 1321, 
  "a-@@": 1322, 
  "os": 1323, 
  "g": 1324, 
  "trotzdem": 1325, 
  "prüfen": 1326, 
  "Stabilität": 1327, 
  "stärker": 1328, 
  "us": 1329, 
  "hinweisen": 1330, 
  "Reformen": 1331, 
  "Osten": 1332, 
  "genannt": 1333, 
  "zuletzt": 1334, 
  "andererseits": 1335, 
  "I": 1336, 
  "Technologien": 1337, 
  "Vorteile": 1338, 
  "di@@": 1339, 
  "Partei": 1340, 
  "hoffen": 1341, 
  "Produkten": 1342, 
  "ging": 1343, 
  "Um@@": 1344, 
  "Mitteilung": 1345, 
  "technische": 1346, 
  "erwähnt": 1347, 
  "verfügbar": 1348, 
  "akzeptieren": 1349, 
  "Volk": 1350, 
  "entweder": 1351, 
  "sk@@": 1352, 
  "mehreren": 1353, 
  "New": 1354, 
  "Durchführung": 1355, 
  "Inhalte": 1356, 
  "The": 1357, 
  "5@@": 1358, 
  "denken": 1359, 
  "sicherzustellen": 1360, 
  "erzielt": 1361, 
  "Protokoll": 1362, 
  "bestimmt": 1363, 
  "wünschen": 1364, 
  "dagegen": 1365, 
  "Produkt": 1366, 
  "gerecht": 1367, 
  "bestehenden": 1368, 
  "Personal": 1369, 
  "Grund@@": 1370, 
  "teilen": 1371, 
  "ere": 1372, 
  "Wettbewerbsfähigkeit": 1373, 
  "darunter": 1374, 
  "gesprochen": 1375, 
  "geändert": 1376, 
  "Windows": 1377, 
  "besonderen": 1378, 
  "Gipfel": 1379, 
  "Besuch": 1380, 
  "gekommen": 1381, 
  "sen": 1382, 
  "Haltung": 1383, 
  "umgesetzt": 1384, 
  "jene": 1385, 
  "getroffen": 1386, 
  "ur@@": 1387, 
  "lernen": 1388, 
  "eren": 1389, 
  "60": 1390, 
  "Sektor": 1391, 
  "licher": 1392, 
  "x": 1393, 
  "Anwendungen": 1394, 
  "finanziellen": 1395, 
  "speziell": 1396, 
  "se": 1397, 
  "ergreifen": 1398, 
  "notwendigen": 1399, 
  "festgelegt": 1400, 
  "gleiche": 1401, 
  "Medien": 1402, 
  "dienen": 1403, 
  "Augen": 1404, 
  "vermeiden": 1405, 
  "erfüllt": 1406, 
  "Chance": 1407, 
  "Last": 1408, 
  "aktiv": 1409, 
  "zurück@@": 1410, 
  "gegenwärtig": 1411, 
  "sämtliche": 1412, 
  "Einrichtungen": 1413, 
  "informieren": 1414, 
  "braucht": 1415, 
  "übernachten": 1416, 
  "Zeichen": 1417, 
  "kommenden": 1418, 
  "unabhängig": 1419, 
  "ständig": 1420, 
  "Al@@": 1421, 
  "nachfolgend": 1422, 
  "jederzeit": 1423, 
  "S": 1424, 
  "13": 1425, 
  "teilweise": 1426, 
  "Monate": 1427, 
  "zeit": 1428, 
  "Ausbildung": 1429, 
  "b": 1430, 
  "-B@@": 1431, 
  "Suche": 1432, 
  "freie": 1433, 
  "E-Mail": 1434, 
  "Kontakt": 1435, 
  "anderes": 1436, 
  "Sommer": 1437, 
  "euch": 1438, 
  "Einfluss": 1439, 
  "Haushalt": 1440, 
  "politischer": 1441, 
  "Anspruch": 1442, 
  "angezeigt": 1443, 
  "Rechts@@": 1444, 
  "Straße": 1445, 
  "erzielen": 1446, 
  "stimme": 1447, 
  "200": 1448, 
  "San": 1449, 
  "erhöhen": 1450, 
  "Israel": 1451, 
  "name": 1452, 
  "wären": 1453, 
  "et": 1454, 
  "verbessert": 1455, 
  "Vielfalt": 1456, 
  "ri@@": 1457, 
  "Kindern": 1458, 
  "jeweils": 1459, 
  "Konzept": 1460, 
  "entschieden": 1461, 
  "eingerichtet": 1462, 
  "ar": 1463, 
  "c@@": 1464, 
  "kosten": 1465, 
  "baren": 1466, 
  "al": 1467, 
  "-L@@": 1468, 
  "X@@": 1469, 
  "Instrumente": 1470, 
  "funktioniert": 1471, 
  "stärken": 1472, 
  "deswegen": 1473, 
  "welcher": 1474, 
  "gelangen": 1475, 
  "Kenntnis": 1476, 
  "Park": 1477, 
  "los": 1478, 
  "alte": 1479, 
  "verfahren": 1480, 
  "Berichte": 1481, 
  "hoch@@": 1482, 
  "Computer": 1483, 
  "hält": 1484, 
  "Spiel@@": 1485, 
  "Umwelt@@": 1486, 
  "vorgesehen": 1487, 
  "Tätigkeit": 1488, 
  "klare": 1489, 
  "Sprachen": 1490, 
  "betonen": 1491, 
  "Forderung": 1492, 
  "liebe": 1493, 
  "ausdrücklich": 1494, 
  "erstellt": 1495, 
  "Sonder@@": 1496, 
  "amerikanischen": 1497, 
  "Handels@@": 1498, 
  "Initiativen": 1499, 
  "­": 1500, 
  "profitieren": 1501, 
  "Veränderungen": 1502, 
  "Familien": 1503, 
  "Vereinten": 1504, 
  "rechts": 1505, 
  "Abgeordnete": 1506, 
  "Stimme": 1507, 
  "Abschluss": 1508, 
  "Menge": 1509, 
  "Kunst": 1510, 
  "-R@@": 1511, 
  "Webseite": 1512, 
  "Wege": 1513, 
  "hören": 1514, 
  "as@@": 1515, 
  "handeln": 1516, 
  "verfolgen": 1517, 
  "am@@": 1518, 
  "erstellen": 1519, 
  "manchmal": 1520, 
  "ierung": 1521, 
  "trägt": 1522, 
  "mit@@": 1523, 
  "beschlossen": 1524, 
  "sagt": 1525, 
  "it@@": 1526, 
  "gefordert": 1527, 
  "konkrete": 1528, 
  "Irak": 1529, 
  "de@@": 1530, 
  "em@@": 1531, 
  "Leistungen": 1532, 
  "beachten": 1533, 
  "Modell": 1534, 
  "Engagement": 1535, 
  "ro@@": 1536, 
  "ierte": 1537, 
  "bare": 1538, 
  "Ausgaben": 1539, 
  "6@@": 1540, 
  "geeignet": 1541, 
  "Online-@@": 1542, 
  "La": 1543, 
  "ierten": 1544, 
  "di": 1545, 
  "online": 1546, 
  "EN": 1547, 
  "li@@": 1548, 
  "finanzielle": 1549, 
  "au@@": 1550, 
  "Schweiz": 1551, 
  "wollte": 1552, 
  "zugleich": 1553, 
  "freue": 1554, 
  "durchaus": 1555, 
  "Vergleich": 1556, 
  "daraus": 1557, 
  "Dienste": 1558, 
  "Standards": 1559, 
  "Meter": 1560, 
  "sp@@": 1561, 
  "nach@@": 1562, 
  "betrachtet": 1563, 
  "www.@@": 1564, 
  "Herausforderung": 1565, 
  "Februar": 1566, 
  "der@@": 1567, 
  "bedarf": 1568, 
  "Währung": 1569, 
  "arbeitet": 1570, 
  "Teile": 1571, 
  "ie": 1572, 
  "x@@": 1573, 
  "t-@@": 1574, 
  "lokalen": 1575, 
  "konzentrieren": 1576, 
  "ek@@": 1577, 
  "spielt": 1578, 
  "gewährleistet": 1579, 
  "Markt@@": 1580, 
  "Arbeiten": 1581, 
  "Zeitraum": 1582, 
  "überprüfen": 1583, 
  "Management": 1584, 
  "vorhanden": 1585, 
  "benötigt": 1586, 
  "Vertrags": 1587, 
  "Zeiten": 1588, 
  "Mio.": 1589, 
  "D": 1590, 
  "la": 1591, 
  "Angaben": 1592, 
  "Mitgliedstaat": 1593, 
  "Gebieten": 1594, 
  "nächste": 1595, 
  "Stand": 1596, 
  "zentrale": 1597, 
  "ge": 1598, 
  "Hauses": 1599, 
  "unterschiedliche": 1600, 
  "darstellen": 1601, 
  "wenigen": 1602, 
  "Rück@@": 1603, 
  "Antrag": 1604, 
  "500": 1605, 
  "Programms": 1606, 
  "erfolgen": 1607, 
  "Einigung": 1608, 
  "Nach@@": 1609, 
  "erklären": 1610, 
  "veröffentlicht": 1611, 
  "senden": 1612, 
  "möglichst": 1613, 
  "Besucher": 1614, 
  "angeboten": 1615, 
  "Achtung": 1616, 
  "Haushalts@@": 1617, 
  "eingehen": 1618, 
  "entstehen": 1619, 
  "ber@@": 1620, 
  "erscheint": 1621, 
  "persönlich": 1622, 
  "offensichtlich": 1623, 
  "Regelung": 1624, 
  "gegründet": 1625, 
  "Stellungnahme": 1626, 
  "r": 1627, 
  "Forderungen": 1628, 
  "reichen": 1629, 
  "ei@@": 1630, 
  "ler": 1631, 
  "links": 1632, 
  "Rede": 1633, 
  "Zweifel": 1634, 
  "Einhaltung": 1635, 
  "T": 1636, 
  "Garten": 1637, 
  "O": 1638, 
  "diskutieren": 1639, 
  "täglich": 1640, 
  "Worte": 1641, 
  "geleistet": 1642, 
  "le": 1643, 
  "dank": 1644, 
  "Zweck": 1645, 
  "schwierig": 1646, 
  "geschehen": 1647, 
  "80": 1648, 
  "ger@@": 1649, 
  "positive": 1650, 
  "y": 1651, 
  "überall": 1652, 
  "absolut": 1653, 
  "ender": 1654, 
  "Steuer@@": 1655, 
  "tern": 1656, 
  "möglichkeiten": 1657, 
  "ene": 1658, 
  "Herstellung": 1659, 
  "Jahrhunderts": 1660, 
  "Komfort": 1661, 
  "stand": 1662, 
  "del": 1663, 
  "fallen": 1664, 
  "Kultur@@": 1665, 
  "damals": 1666, 
  "th@@": 1667, 
  ".com": 1668, 
  "gestalten": 1669, 
  "willkommen": 1670, 
  "Aufnahme": 1671, 
  "Fonds": 1672, 
  "systeme": 1673, 
  "gewinnen": 1674, 
  "August": 1675, 
  "Prioritäten": 1676, 
  "ra@@": 1677, 
  "umfasst": 1678, 
  "isches": 1679, 
  "Geschäfts@@": 1680, 
  "Aspekt": 1681, 
  "Iran": 1682, 
  "Japan": 1683, 
  "s-@@": 1684, 
  "=": 1685, 
  "positiv": 1686, 
  "Sorge": 1687, 
  "Terrasse": 1688, 
  "Mitte": 1689, 
  "feststellen": 1690, 
  "ol@@": 1691, 
  "Dokument": 1692, 
  "regionalen": 1693, 
  "treten": 1694, 
  "einiger": 1695, 
  "vielmehr": 1696, 
  "verlassen": 1697, 
  "tätig": 1698, 
  "angesprochen": 1699, 
  "Paris": 1700, 
  "u": 1701, 
  "Kirche": 1702, 
  "Entwicklungen": 1703, 
  "mittels": 1704, 
  "Hintergrund": 1705, 
  "herzlich": 1706, 
  "enen": 1707, 
  "richtigen": 1708, 
  "Arbeitslosigkeit": 1709, 
  "Stärkung": 1710, 
  "schönen": 1711, 
  "eln": 1712, 
  "er-@@": 1713, 
  "Kommunikation": 1714, 
  "schreiben": 1715, 
  "Analyse": 1716, 
  "niemand": 1717, 
  "Großbritannien": 1718, 
  "Gemeinsamen": 1719, 
  "gen@@": 1720, 
  "Österreich": 1721, 
  "garantiert": 1722, 
  "weiterer": 1723, 
  "übrigen": 1724, 
  "Polen": 1725, 
  "Lesung": 1726, 
  "{": 1727, 
  "Partnerschaft": 1728, 
  "gutes": 1729, 
  "einfache": 1730, 
  "Abend": 1731, 
  "spezielle": 1732, 
  "hingewiesen": 1733, 
  "Hersteller": 1734, 
  "Vielzahl": 1735, 
  "verfolgt": 1736, 
  "Status": 1737, 
  "miteinander": 1738, 
  "unterstütze": 1739, 
  "us@@": 1740, 
  "kulturellen": 1741, 
  "ser@@": 1742, 
  "2@@": 1743, 
  "eingeführt": 1744, 
  "laden": 1745, 
  "Afrika": 1746, 
  "Beitritt": 1747, 
  "Rechnung": 1748, 
  "Problemen": 1749, 
  "Arten": 1750, 
  "Y@@": 1751, 
  "Bedürfnisse": 1752, 
  "ak@@": 1753, 
  "umfassende": 1754, 
  "Sehenswürdigkeiten": 1755, 
  "einsetzen": 1756, 
  "liches": 1757, 
  "17": 1758, 
  "Gesetz": 1759, 
  "Geschäftsordnung": 1760, 
  "Irland": 1761, 
  "Priorität": 1762, 
  "Daten@@": 1763, 
  "Ukraine": 1764, 
  "erhält": 1765, 
  "Wissen": 1766, 
  "Formen": 1767, 
  "Überwachung": 1768, 
  "Installation": 1769, 
  "großes": 1770, 
  "aufmerksam": 1771, 
  "französischen": 1772, 
  "her": 1773, 
  "Regel": 1774, 
  "vorliegenden": 1775, 
  "to": 1776, 
  "erforderlichen": 1777, 
  "Fuß": 1778, 
  "Elemente": 1779, 
  "ten@@": 1780, 
  "ag@@": 1781, 
  "keinerlei": 1782, 
  "Betrieb": 1783, 
  "starke": 1784, 
  "Brüssel": 1785, 
  "7@@": 1786, 
  "geschützt": 1787, 
  "bestätigt": 1788, 
  "kaufen": 1789, 
  "Bewertung": 1790, 
  "Phone": 1791, 
  "folgende": 1792, 
  "beteiligt": 1793, 
  "Moment": 1794, 
  "ausreichend": 1795, 
  "Indien": 1796, 
  "Fortschritt": 1797, 
  "zuvor": 1798, 
  "Du": 1799, 
  "Entwurf": 1800, 
  "warten": 1801, 
  "weg": 1802, 
  "Fach@@": 1803, 
  "Ideen": 1804, 
  "bezeichnet": 1805, 
  "eg@@": 1806, 
  "groß": 1807, 
  "London": 1808, 
  "..": 1809, 
  "8@@": 1810, 
  "zen": 1811, 
  "gegenwärtigen": 1812, 
  "nennen": 1813, 
  "Welt@@": 1814, 
  "betrachten": 1815, 
  "laut": 1816, 
  "zusammen@@": 1817, 
  "größeren": 1818, 
  "fällt": 1819, 
  "ung@@": 1820, 
  "internationaler": 1821, 
  "ot@@": 1822, 
  "Verpflichtung": 1823, 
  "Paket": 1824, 
  "Gesamt@@": 1825, 
  "komplett": 1826, 
  "ations@@": 1827, 
  "Märkte": 1828, 
  "ing@@": 1829, 
  "Prinzip": 1830, 
  "si@@": 1831, 
  "ken": 1832, 
  "Stil": 1833, 
  "Griechenland": 1834, 
  "hin@@": 1835, 
  "entdecken": 1836, 
  "unten": 1837, 
  "Kritik": 1838, 
  "Innovation": 1839, 
  "Regelungen": 1840, 
  "Globalisierung": 1841, 
  "Maße": 1842, 
  "Nutzen": 1843, 
  "wert": 1844, 
  "soweit": 1845, 
  "Anteil": 1846, 
  "Name": 1847, 
  "ges@@": 1848, 
  "möglichen": 1849, 
  "empfehlen": 1850, 
  "zuerst": 1851, 
  "beginnt": 1852, 
  "langen": 1853, 
  "länger": 1854, 
  "Leistung": 1855, 
  "garantieren": 1856, 
  "Produktions@@": 1857, 
  "ke": 1858, 
  "besitzt": 1859, 
  "sofern": 1860, 
  "om@@": 1861, 
  "nen": 1862, 
  "le@@": 1863, 
  "Erklärungen": 1864, 
  "schöne": 1865, 
  "Banken": 1866, 
  "Worten": 1867, 
  "Universität": 1868, 
  "Sinn": 1869, 
  "maßnahmen": 1870, 
  "wesentlichen": 1871, 
  "Agentur": 1872, 
  "300": 1873, 
  "übertragen": 1874, 
  "Verkehr": 1875, 
  "stattfinden": 1876, 
  "Entschließungsantrag": 1877, 
  "Größe": 1878, 
  "her@@": 1879, 
  "ert": 1880, 
  "Gründe": 1881, 
  "Nacht": 1882, 
  "kostenlos": 1883, 
  "sage": 1884, 
  "Beteiligung": 1885, 
  "Kompromiss": 1886, 
  "ä@@": 1887, 
  "solcher": 1888, 
  "echte": 1889, 
  "inzwischen": 1890, 
  "beinhaltet": 1891, 
  "entsprechen": 1892, 
  "Umfang": 1893, 
  "Ar@@": 1894, 
  "Tradition": 1895, 
  "Technik": 1896, 
  "Titel": 1897, 
  "Auto": 1898, 
  "eten": 1899, 
  "seien": 1900, 
  "gestern": 1901, 
  "Europäer": 1902, 
  "Flexibilität": 1903, 
  "früher": 1904, 
  "}": 1905, 
  "volle": 1906, 
  "ideal": 1907, 
  "dient": 1908, 
  "US-@@": 1909, 
  "acht": 1910, 
  "schen": 1911, 
  "Ro@@": 1912, 
  "ationen": 1913, 
  "allgemeine": 1914, 
  "Absatz": 1915, 
  "Aktionen": 1916, 
  "Das": 1917, 
  "Patienten": 1918, 
  "zufrieden": 1919, 
  "Dollar": 1920, 
  "erhöht": 1921, 
  "E": 1922, 
  "Niveau": 1923, 
  "frage": 1924, 
  "britischen": 1925, 
  "etc.": 1926, 
  "Mitgliedern": 1927, 
  "hauptsächlich": 1928, 
  "be": 1929, 
  "1998": 1930, 
  "Empfehlungen": 1931, 
  "geöffnet": 1932, 
  "abgeschlossen": 1933, 
  "deutsche": 1934, 
  "op@@": 1935, 
  "Ereignisse": 1936, 
  "ad@@": 1937, 
  "verloren": 1938, 
  "stelle": 1939, 
  "speziellen": 1940, 
  "See": 1941, 
  "Eindruck": 1942, 
  "nationaler": 1943, 
  "Web@@": 1944, 
  "Gemeinschafts@@": 1945, 
  "kürzlich": 1946, 
  "Gegensatz": 1947, 
  "Mitteln": 1948, 
  "Richtlinien": 1949, 
  "Verständnis": 1950, 
  "relativ": 1951, 
  "informiert": 1952, 
  "voller": 1953, 
  "jüngsten": 1954, 
  "Kinder@@": 1955, 
  "Film": 1956, 
  "Gebiete": 1957, 
  "führenden": 1958, 
  "Museum": 1959, 
  "Monat": 1960, 
  "ation": 1961, 
  "aten": 1962, 
  "Sozial@@": 1963, 
  "Grundsatz": 1964, 
  "persönliche": 1965, 
  "geschieht": 1966, 
  "ellen": 1967, 
  "Entwicklungs@@": 1968, 
  "Aufbau": 1969, 
  "Risiken": 1970, 
  "genauso": 1971, 
  "sonst": 1972, 
  "Botschaft": 1973, 
  "Treffen": 1974, 
  "einverstanden": 1975, 
  "nachhaltige": 1976, 
  "erfordert": 1977, 
  "schließen": 1978, 
  "praktisch": 1979, 
  "markt": 1980, 
  "Hoch@@": 1981, 
  "se@@": 1982, 
  "Realität": 1983, 
  "Zu@@": 1984, 
  "Fraktionen": 1985, 
  "guter": 1986, 
  "politisch": 1987, 
  "daten": 1988, 
  "teile": 1989, 
  "Wirkung": 1990, 
  "Beihilfen": 1991, 
  "Hoffnung": 1992, 
  "2.": 1993, 
  "Pro@@": 1994, 
  "Begriff": 1995, 
  "den@@": 1996, 
  "Land@@": 1997, 
  "betroffen": 1998, 
  "Grunde": 1999, 
  "regelmäßig": 2000, 
  "vorgeschlagenen": 2001, 
  "sichern": 2002, 
  "festgestellt": 2003, 
  "Nutzer": 2004, 
  "demokratische": 2005, 
  "Sp@@": 2006, 
  "Di@@": 2007, 
  "Methode": 2008, 
  "Aussicht": 2009, 
  "abhängig": 2010, 
  "Mar@@": 2011, 
  "laufen": 2012, 
  "Politiker": 2013, 
  "zählen": 2014, 
  "ts@@": 2015, 
  "Voraussetzungen": 2016, 
  "Unterkunft": 2017, 
  "Gegenteil": 2018, 
  "wichtigste": 2019, 
  "globale": 2020, 
  "gehalten": 2021, 
  "Neu@@": 2022, 
  "Bank": 2023, 
  "einzigen": 2024, 
  "Altstadt": 2025, 
  "Bedarf": 2026, 
  "achten": 2027, 
  "bewegen": 2028, 
  "innen": 2029, 
  "9@@": 2030, 
  "Erde": 2031, 
  "Berg@@": 2032, 
  "Risiko": 2033, 
  "spricht": 2034, 
  "einzelne": 2035, 
  "all@@": 2036, 
  "Fotos": 2037, 
  "Bestandteil": 2038, 
  "Einzel@@": 2039, 
  "Führung": 2040, 
  "junge": 2041, 
  "einerseits": 2042, 
  "elle": 2043, 
  "21": 2044, 
  "gel@@": 2045, 
  "betroffenen": 2046, 
  "Prüfung": 2047, 
  "wenden": 2048, 
  "kannst": 2049, 
  "welchen": 2050, 
  "ideale": 2051, 
  "wodurch": 2052, 
  "jungen": 2053, 
  "Mann": 2054, 
  "führte": 2055, 
  "Musik@@": 2056, 
  "Vorteil": 2057, 
  "schneller": 2058, 
  "zweifellos": 2059, 
  "anstatt": 2060, 
  "Hotel@@": 2061, 
  "ne": 2062, 
  "Kosovo": 2063, 
  "solange": 2064, 
  "0": 2065, 
  "d.": 2066, 
  "Standard": 2067, 
  "70": 2068, 
  "Firmen": 2069, 
  "vollkommen": 2070, 
  "Unabhängigkeit": 2071, 
  "27": 2072, 
  "diskutiert": 2073, 
  "men": 2074, 
  "starken": 2075, 
  "beschäftigt": 2076, 
  "90": 2077, 
  "Erhöhung": 2078, 
  "nochmals": 2079, 
  "Reise": 2080, 
  "private": 2081, 
  "Option": 2082, 
  "reden": 2083, 
  "rechtlichen": 2084, 
  "Phase": 2085, 
  "Hälfte": 2086, 
  "Ratspräsident": 2087, 
  "Villa": 2088, 
  "Adresse": 2089, 
  "Liberalisierung": 2090, 
  "Be@@": 2091, 
  "anbieten": 2092, 
  "Überprüfung": 2093, 
  "Natur@@": 2094, 
  "weiteres": 2095, 
  "ete": 2096, 
  "gesch@@": 2097, 
  "besseren": 2098, 
  "keiner": 2099, 
  "Dienst": 2100, 
  "Anlagen": 2101, 
  "or": 2102, 
  "gewählt": 2103, 
  "finde": 2104, 
  "Diskriminierung": 2105, 
  "seitens": 2106, 
  "Königreich": 2107, 
  "fordert": 2108, 
  "weshalb": 2109, 
  "Und": 2110, 
  "E-@@": 2111, 
  "Sport@@": 2112, 
  "u.": 2113, 
  "Ausland": 2114, 
  "programme": 2115, 
  "Kon@@": 2116, 
  "Bar@@": 2117, 
  "Dr.": 2118, 
  "traditionellen": 2119, 
  "reagieren": 2120, 
  "Zahlen": 2121, 
  "Re@@": 2122, 
  "Struktur": 2123, 
  "Informations@@": 2124, 
  "Verhältnis": 2125, 
  "19.": 2126, 
  "Städte": 2127, 
  "IT": 2128, 
  "eb@@": 2129, 
  "Koordinierung": 2130, 
  "ing-@@": 2131, 
  "che": 2132, 
  "Agenda": 2133, 
  "-T@@": 2134, 
  "angeht": 2135, 
  "hergestellt": 2136, 
  "Charakter": 2137, 
  "Veranstaltungen": 2138, 
  "Methoden": 2139, 
  "Internationalen": 2140, 
  "mag": 2141, 
  "Gesetzgebung": 2142, 
  "reicht": 2143, 
  "regionale": 2144, 
  "drittens": 2145, 
  "Inseln": 2146, 
  "$": 2147, 
  "Amsterdam": 2148, 
  "Teilen": 2149, 
  "akzeptiert": 2150, 
  "läuft": 2151, 
  "ungs-": 2152, 
  "sicherstellen": 2153, 
  "19": 2154, 
  "Unternehmens": 2155, 
  "Fälle": 2156, 
  "Hinweis": 2157, 
  "Angebote": 2158, 
  "betont": 2159, 
  "ger": 2160, 
  "Barcelona": 2161, 
  "positiven": 2162, 
  "ate": 2163, 
  "Laufe": 2164, 
  "Produkt@@": 2165, 
  "Hauptstadt": 2166, 
  "höchste": 2167, 
  "bequem": 2168, 
  "Männer": 2169, 
  "the": 2170, 
  "22": 2171, 
  "gewisse": 2172, 
  "Groß@@": 2173, 
  "Klimaanlage": 2174, 
  "ländlichen": 2175, 
  "Infrastruktur": 2176, 
  "land": 2177, 
  "Willen": 2178, 
  "Druck@@": 2179, 
  "Unterschiede": 2180, 
  "Farben": 2181, 
  "Ruhe": 2182, 
  "&gt;": 2183, 
  "Anpassung": 2184, 
  "Tiere": 2185, 
  "jährlich": 2186, 
  "X": 2187, 
  "h.": 2188, 
  "Dokumente": 2189, 
  "bildet": 2190, 
  "breite": 2191, 
  "begann": 2192, 
  "Netzwerk": 2193, 
  "Gesetze": 2194, 
  "sen@@": 2195, 
  "Klimawandel": 2196, 
  "Anliegen": 2197, 
  "ell@@": 2198, 
  "Grenze": 2199, 
  "systems": 2200, 
  "gelegt": 2201, 
  "Reaktion": 2202, 
  "Fähigkeit": 2203, 
  "Umständen": 2204, 
  "Club": 2205, 
  "Generation": 2206, 
  "verlieren": 2207, 
  "Zimmern": 2208, 
  "Diskussionen": 2209, 
  "übernommen": 2210, 
  "International": 2211, 
  "Teilnehmer": 2212, 
  "Ordnung": 2213, 
  "Bedenken": 2214, 
  "ze": 2215, 
  "Kollege": 2216, 
  "verstärkt": 2217, 
  "Versuch": 2218, 
  "zustimmen": 2219, 
  "Apartments": 2220, 
  "sieben": 2221, 
  "ens@@": 2222, 
  "ergeben": 2223, 
  "Vorbereitung": 2224, 
  "Dimension": 2225, 
  "buchen": 2226, 
  "il@@": 2227, 
  "derzeitigen": 2228, 
  "Stadtzentrum": 2229, 
  "ier@@": 2230, 
  "ma@@": 2231, 
  "Buch": 2232, 
  "teil": 2233, 
  "wiederum": 2234, 
  "basiert": 2235, 
  "fand": 2236, 
  "Einklang": 2237, 
  "manche": 2238, 
  "dritten": 2239, 
  "mm": 2240, 
  "Gefühl": 2241, 
  "1997": 2242, 
  "Wein@@": 2243, 
  "Landschaft": 2244, 
  "unternommen": 2245, 
  "liefern": 2246, 
  "verlangen": 2247, 
  "35": 2248, 
  "enk@@": 2249, 
  "ü@@": 2250, 
  "befassen": 2251, 
  "System@@": 2252, 
  "beziehen": 2253, 
  "hierbei": 2254, 
  "entscheidend": 2255, 
  "nötig": 2256, 
  "wichtiges": 2257, 
  "Verfügbarkeit": 2258, 
  "Grundrechte": 2259, 
  "Amerika": 2260, 
  "erk@@": 2261, 
  "Stunde": 2262, 
  "höhere": 2263, 
  "Teilnahme": 2264, 
  "Strategien": 2265, 
  "Kombination": 2266, 
  "Plan": 2267, 
  "Voraussetzung": 2268, 
  "17@@": 2269, 
  "ehemaligen": 2270, 
  "erlauben": 2271, 
  "Gästen": 2272, 
  "anerkannt": 2273, 
  "Stellen": 2274, 
  "derartige": 2275, 
  "Kunden@@": 2276, 
  "Körper": 2277, 
  "behandeln": 2278, 
  "Antworten": 2279, 
  "ul@@": 2280, 
  "lage": 2281, 
  "Licht": 2282, 
  "Verkehrs@@": 2283, 
  "0@@": 2284, 
  "zunehmend": 2285, 
  "Übereinkommen": 2286, 
  "PC": 2287, 
  "Zeit@@": 2288, 
  "Süden": 2289, 
  "kon@@": 2290, 
  "Stadt@@": 2291, 
  "umfassenden": 2292, 
  "Services": 2293, 
  "Effizienz": 2294, 
  "mögliche": 2295, 
  "f": 2296, 
  "Formular": 2297, 
  "erhältlich": 2298, 
  "Berücksichtigung": 2299, 
  "Beifall": 2300, 
  "rechten": 2301, 
  "Bewegung": 2302, 
  "konkreten": 2303, 
  "allgemein": 2304, 
  "Sanktionen": 2305, 
  "starten": 2306, 
  "da@@": 2307, 
  "ben": 2308, 
  "Links": 2309, 
  "Studie": 2310, 
  "betreffen": 2311, 
  "Westen": 2312, 
  "historische": 2313, 
  "tische": 2314, 
  "künftig": 2315, 
  "spezifischen": 2316, 
  "Grundsätze": 2317, 
  "Telefon": 2318, 
  "entlang": 2319, 
  "sh@@": 2320, 
  "wesentliche": 2321, 
  "Kunde": 2322, 
  "Freunde": 2323, 
  "Mon@@": 2324, 
  "hoher": 2325, 
  "20.": 2326, 
  "ed@@": 2327, 
  "Schutz@@": 2328, 
  "Freude": 2329, 
  "bezieht": 2330, 
  "Mo@@": 2331, 
  "Allgemeinen": 2332, 
  "gelungen": 2333, 
  "Gott": 2334, 
  "lichkeit": 2335, 
  "Linux": 2336, 
  "legt": 2337, 
  "Anlage": 2338, 
  "Untersuchung": 2339, 
  "abzu@@": 2340, 
  "Material": 2341, 
  "bei@@": 2342, 
  "berühmten": 2343, 
  "Verträge": 2344, 
  "Par@@": 2345, 
  "industrie": 2346, 
  "öffnen": 2347, 
  "Eigenschaften": 2348, 
  "Verhalten": 2349, 
  "Geist": 2350, 
  "Maßnahme": 2351, 
  "Waren": 2352, 
  "ziemlich": 2353, 
  "bekannten": 2354, 
  "werte": 2355, 
  "Wirtschafts-": 2356, 
  "Zugriff": 2357, 
  "Bo@@": 2358, 
  "unmittelbar": 2359, 
  "Schäden": 2360, 
  "23": 2361, 
  "Verbrechen": 2362, 
  "kleiner": 2363, 
  "stimmt": 2364, 
  "Sport": 2365, 
  "richten": 2366, 
  "Zustand": 2367, 
  "c": 2368, 
  "h": 2369, 
  "II": 2370, 
  "Auftrag": 2371, 
  "Ma@@": 2372, 
  "en-": 2373, 
  "Lebens@@": 2374, 
  "L": 2375, 
  "A-@@": 2376, 
  "tut": 2377, 
  "Serie": 2378, 
  "ernst": 2379, 
  "prozess": 2380, 
  "heraus": 2381, 
  "Völker": 2382, 
  "Landwirte": 2383, 
  "21.": 2384, 
  "En@@": 2385, 
  "Tod": 2386, 
  "weltweiten": 2387, 
  "Sitz": 2388, 
  "Fahr@@": 2389, 
  "Leitlinien": 2390, 
  "begonnen": 2391, 
  "eh@@": 2392, 
  "Anfragen": 2393, 
  "Spiele": 2394, 
  "Karten": 2395, 
  "F": 2396, 
  "zusätzlichen": 2397, 
  "Absicht": 2398, 
  "St.": 2399, 
  "fühlen": 2400, 
  "Site": 2401, 
  "geschrieben": 2402, 
  "niemals": 2403, 
  "Bahnhof": 2404, 
  "rasch": 2405, 
  "Center": 2406, 
  "beträgt": 2407, 
  "Internet@@": 2408, 
  "Schule": 2409, 
  "V": 2410, 
  "Architektur": 2411, 
  "erscheinen": 2412, 
  "gefördert": 2413, 
  "Flug@@": 2414, 
  "Fischerei": 2415, 
  "näher": 2416, 
  "York": 2417, 
  "tem": 2418, 
  "Küste": 2419, 
  "eröffnet": 2420, 
  "gebiet": 2421, 
  "interessiert": 2422, 
  "international": 2423, 
  "grundlegenden": 2424, 
  "Kunst@@": 2425, 
  "hilft": 2426, 
  "schwierigen": 2427, 
  "reisen": 2428, 
  "jemand": 2429, 
  "la@@": 2430, 
  "World": 2431, 
  "Delegation": 2432, 
  "kurze": 2433, 
  "ß@@": 2434, 
  "Lebens": 2435, 
  "Holz@@": 2436, 
  "Gedanken": 2437, 
  "Erwartungen": 2438, 
  "zwei@@": 2439, 
  "ausgezeichnete": 2440, 
  "grundsätzlich": 2441, 
  "meist": 2442, 
  "Portugal": 2443, 
  "schnelle": 2444, 
  "Details": 2445, 
  "eigenes": 2446, 
  "ka": 2447, 
  "Schaden": 2448, 
  "zi@@": 2449, 
  "übrigens": 2450, 
  "Frei@@": 2451, 
  "Materialien": 2452, 
  "Mittelpunkt": 2453, 
  "Privat@@": 2454, 
  "zer@@": 2455, 
  "verändert": 2456, 
  "italienischen": 2457, 
  "tischen": 2458, 
  "kurzem": 2459, 
  "eng": 2460, 
  "installiert": 2461, 
  "Agrarpolitik": 2462, 
  "Verwaltungs@@": 2463, 
  "Beschreibung": 2464, 
  "Normen": 2465, 
  "hervorragende": 2466, 
  "Sprach@@": 2467, 
  "Entwicklungsländern": 2468, 
  "3.": 2469, 
  "1996": 2470, 
  "Ent@@": 2471, 
  "Kategorie": 2472, 
  "gezogen": 2473, 
  "zeiten": 2474, 
  "Ober@@": 2475, 
  "ig@@": 2476, 
  "Bild@@": 2477, 
  "Definition": 2478, 
  "schön": 2479, 
  "1@@": 2480, 
  "Nachfrage": 2481, 
  "Schweden": 2482, 
  "Bau": 2483, 
  "bedeuten": 2484, 
  "Angriff": 2485, 
  "ismus": 2486, 
  "Wahrheit": 2487, 
  "FR": 2488, 
  "Verbesserungen": 2489, 
  "Einstellung": 2490, 
  "teilnehmen": 2491, 
  "besitzen": 2492, 
  "au": 2493, 
  "Norden": 2494, 
  "natürlichen": 2495, 
  "sorgt": 2496, 
  "bedingungen": 2497, 
  "echten": 2498, 
  "sche": 2499, 
  "grundlegende": 2500, 
  "wissenschaftlichen": 2501, 
  "ana": 2502, 
  "TV": 2503, 
  "menschlichen": 2504, 
  "1.@@": 2505, 
  "Beispiele": 2506, 
  "umgeben": 2507, 
  "Staats@@": 2508, 
  "Farb@@": 2509, 
  "Kur@@": 2510, 
  "Experten": 2511, 
  "ausgezeichneten": 2512, 
  "spezifische": 2513, 
  "Werk": 2514, 
  "kulturelle": 2515, 
  "vollen": 2516, 
  "entstanden": 2517, 
  "Empfehlung": 2518, 
  "to@@": 2519, 
  "trifft": 2520, 
  "Beratung": 2521, 
  "geb@@": 2522, 
  "Gesundheits@@": 2523, 
  "Ratsvorsitz": 2524, 
  "letztlich": 2525, 
  "erweitert": 2526, 
  "Strukturen": 2527, 
  "neuesten": 2528, 
  "Nahen": 2529, 
  "Wirklichkeit": 2530, 
  "anschließend": 2531, 
  "aufzunehmen": 2532, 
  "gratulieren": 2533, 
  "weisen": 2534, 
  "ö@@": 2535, 
  "Überzeugung": 2536, 
  "Stellung": 2537, 
  "rechte": 2538, 
  "erten": 2539, 
  "bemüht": 2540, 
  "dritte": 2541, 
  "me": 2542, 
  "M": 2543, 
  "mitten": 2544, 
  "abgelehnt": 2545, 
  "Pflicht": 2546, 
  "falsch": 2547, 
  "ursprünglichen": 2548, 
  "Unterschied": 2549, 
  "höchsten": 2550, 
  "Verkauf": 2551, 
  "zählt": 2552, 
  "fordere": 2553, 
  "losen": 2554, 
  "G": 2555, 
  "Waffen": 2556, 
  "bezug": 2557, 
  "Foto": 2558, 
  "schönsten": 2559, 
  "staatlichen": 2560, 
  "zugänglich": 2561, 
  "offenen": 2562, 
  "umzusetzen": 2563, 
  "schafft": 2564, 
  "Harmonisierung": 2565, 
  "einfachen": 2566, 
  "est@@": 2567, 
  "spanischen": 2568, 
  "betreffenden": 2569, 
  "Kind": 2570, 
  "verehrte": 2571, 
  "ac@@": 2572, 
  "R": 2573, 
  "45": 2574, 
  "Ambiente": 2575, 
  "zufolge": 2576, 
  "ber": 2577, 
  "Punkten": 2578, 
  "gelöst": 2579, 
  "erung": 2580, 
  "schlagen": 2581, 
  "verbringen": 2582, 
  "organisiert": 2583, 
  "Selbst@@": 2584, 
  "Bucht": 2585, 
  "ster": 2586, 
  "Projekten": 2587, 
  "Klima": 2588, 
  "entwickelten": 2589, 
  "künftigen": 2590, 
  "besch@@": 2591, 
  "vorgenommen": 2592, 
  "leiden": 2593, 
  "Kooperation": 2594, 
  "Booking.com": 2595, 
  "verursacht": 2596, 
  "Anbieter": 2597, 
  "Steuern": 2598, 
  "Preis@@": 2599, 
  "Video": 2600, 
  "platz": 2601, 
  "hervorheben": 2602, 
  "hierzu": 2603, 
  "Unternehmens@@": 2604, 
  "Business": 2605, 
  "sehe": 2606, 
  "Co@@": 2607, 
  "Boden": 2608, 
  "jegliche": 2609, 
  "Ausführungen": 2610, 
  "Bank@@": 2611, 
  "bekämpfen": 2612, 
  "wieder@@": 2613, 
  "arbeit": 2614, 
  "Strukturfonds": 2615, 
  "Wahl@@": 2616, 
  "durchzuführen": 2617, 
  "sektor": 2618, 
  "ergriffen": 2619, 
  "Forum": 2620, 
  "one": 2621, 
  "Krankheiten": 2622, 
  "funktionieren": 2623, 
  "Mittel@@": 2624, 
  "Kern@@": 2625, 
  "übernimmt": 2626, 
  "Änderungsanträgen": 2627, 
  "sinnvoll": 2628, 
  "erheblich": 2629, 
  "lo@@": 2630, 
  "Minister": 2631, 
  "#": 2632, 
  "Abschnitt": 2633, 
  "sch": 2634, 
  "zentralen": 2635, 
  "aufgefordert": 2636, 
  "anlagen": 2637, 
  "Wien": 2638, 
  "Vorschlägen": 2639, 
  "verlangt": 2640, 
  "lautet": 2641, 
  "ruhigen": 2642, 
  "beglückwünschen": 2643, 
  "Englisch": 2644, 
  "elt": 2645, 
  "Badezimmer": 2646, 
  "Forschungs@@": 2647, 
  "Datenbank": 2648, 
  "Beweis": 2649, 
  "kämpfen": 2650, 
  "Übereinstimmung": 2651, 
  "ko@@": 2652, 
  "Enterprise": 2653, 
  "Rumänien": 2654, 
  "präsentiert": 2655, 
  "@": 2656, 
  "Bestellung": 2657, 
  "höher": 2658, 
  "schlägt": 2659, 
  "einzu@@": 2660, 
  "annehmen": 2661, 
  "chinesischen": 2662, 
  "entspannen": 2663, 
  "Verbindungen": 2664, 
  "behalten": 2665, 
  "Gebrauch": 2666, 
  "westlichen": 2667, 
  "gestatten": 2668, 
  "Maschinen": 2669, 
  "Entwicklungsländer": 2670, 
  "extrem": 2671, 
  "ck@@": 2672, 
  "vieler": 2673, 
  "Ausgangspunkt": 2674, 
  "hängt": 2675, 
  "musste": 2676, 
  "Partnern": 2677, 
  "notwendige": 2678, 
  "11.": 2679, 
  "Drittländern": 2680, 
  "bestätigen": 2681, 
  "Tagung": 2682, 
  "vorher": 2683, 
  "nachhaltigen": 2684, 
  "Ausnahme": 2685, 
  "P": 2686, 
  "verschiedener": 2687, 
  "schicken": 2688, 
  "CD": 2689, 
  "ur": 2690, 
  "Fähigkeiten": 2691, 
  "Nein": 2692, 
  "Ausstattung": 2693, 
  "Fenster": 2694, 
  "erte": 2695, 
  "ungefähr": 2696, 
  "zugunsten": 2697, 
  "ausgeschlossen": 2698, 
  "Abkommens": 2699, 
  "In": 2700, 
  "beschränkt": 2701, 
  "Programmen": 2702, 
  "durchführen": 2703, 
  "verabschiedet": 2704, 
  "Hand@@": 2705, 
  "serviert": 2706, 
  "Ratspräsidentschaft": 2707, 
  "Konflikt": 2708, 
  "Künstler": 2709, 
  "Austausch": 2710, 
  "Kamera": 2711, 
  "Microsoft": 2712, 
  "zuständigen": 2713, 
  "Ausführung": 2714, 
  "ina": 2715, 
  "bislang": 2716, 
  "Arbeitsplätzen": 2717, 
  "len": 2718, 
  "Dusche": 2719, 
  "amerikanische": 2720, 
  "stehenden": 2721, 
  "art": 2722, 
  "Eltern": 2723, 
  "auszu@@": 2724, 
  "Hafen": 2725, 
  "tritt": 2726, 
  "Schwerpunkt": 2727, 
  "mann": 2728, 
  "nahezu": 2729, 
  "Schul@@": 2730, 
  "Winter": 2731, 
  "ange@@": 2732, 
  "geprüft": 2733, 
  "Netz": 2734, 
  "ausgesprochen": 2735, 
  "Gestaltung": 2736, 
  "zentrum": 2737, 
  "Dorf": 2738, 
  "Car@@": 2739, 
  "Websites": 2740, 
  "früheren": 2741, 
  "Tourismus": 2742, 
  "bezahlen": 2743, 
  "d.h.": 2744, 
  "überzeugen": 2745, 
  "Maß": 2746, 
  "ep@@": 2747, 
  "Qualitäts@@": 2748, 
  "frei@@": 2749, 
  "Ch@@": 2750, 
  "p": 2751, 
  "Geräte": 2752, 
  "definiert": 2753, 
  "Öl@@": 2754, 
  "Gleichgewicht": 2755, 
  "Alternative": 2756, 
  "El": 2757, 
  "Farbe": 2758, 
  "schauen": 2759, 
  "verhindert": 2760, 
  "sodass": 2761, 
  "Inter@@": 2762, 
  "produktion": 2763, 
  "Format": 2764, 
  "Tisch": 2765, 
  "Umgang": 2766, 
  "Buchung": 2767, 
  "Festlegung": 2768, 
  "Angst": 2769, 
  "Prinzipien": 2770, 
  "Vereinbarungen": 2771, 
  "produkte": 2772, 
  "Durch@@": 2773, 
  "ans": 2774, 
  "weiter@@": 2775, 
  "produziert": 2776, 
  "Ã": 2777, 
  "egal": 2778, 
  "Plenum": 2779, 
  "interessante": 2780, 
  "¤": 2781, 
  "Straßen": 2782, 
  "kurzen": 2783, 
  "ausgesetzt": 2784, 
  "Test@@": 2785, 
  "16@@": 2786, 
  "nunmehr": 2787, 
  "Verringerung": 2788, 
  "Bemerkungen": 2789, 
  "ne@@": 2790, 
  "dir": 2791, 
  "bi@@": 2792, 
  "Li@@": 2793, 
  "Regierungskonferenz": 2794, 
  "Rechts": 2795, 
  "Kar@@": 2796, 
  "Afghanistan": 2797, 
  "Element": 2798, 
  "verleihen": 2799, 
  "vollständige": 2800, 
  "Alter": 2801, 
  "Beiträge": 2802, 
  "führende": 2803, 
  "Problems": 2804, 
  "Faktoren": 2805, 
  "einzigartige": 2806, 
  "van": 2807, 
  "aufnehmen": 2808, 
  "Erholung": 2809, 
  "ner": 2810, 
  "verstanden": 2811, 
  "Geschäfte": 2812, 
  "Beziehung": 2813, 
  "gebaut": 2814, 
  "ing": 2815, 
  "stellung": 2816, 
  "Gespräche": 2817, 
  "Veranstaltung": 2818, 
  "hinzufügen": 2819, 
  "Übersetzung": 2820, 
  "abge@@": 2821, 
  "angemessen": 2822, 
  "Wissenschaft": 2823, 
  "Planung": 2824, 
  "verringern": 2825, 
  "Gegend": 2826, 
  "o-@@": 2827, 
  "tigen": 2828, 
  "ff@@": 2829, 
  "tieren": 2830, 
  "Komponenten": 2831, 
  "™": 2832, 
  "Nachrichten": 2833, 
  "ursprünglich": 2834, 
  "ell": 2835, 
  "Schluss": 2836, 
  "erreichbar": 2837, 
  "Minderheiten": 2838, 
  "Ge@@": 2839, 
  "Justiz": 2840, 
  "kostet": 2841, 
  "Link": 2842, 
  "rufen": 2843, 
  "sorgfältig": 2844, 
  "wollten": 2845, 
  "steigen": 2846, 
  "unmöglich": 2847, 
  "passiert": 2848, 
  "Mensch": 2849, 
  "kl@@": 2850, 
  "Gerichte": 2851, 
  "letztendlich": 2852, 
  "welchem": 2853, 
  "installieren": 2854, 
  "begrüßt": 2855, 
  "Gesellschaften": 2856, 
  "K": 2857, 
  "bestehende": 2858, 
  "Verbot": 2859, 
  "ausgeführt": 2860, 
  "gespeichert": 2861, 
  "erleichtern": 2862, 
  "Google": 2863, 
  "Werbung": 2864, 
  "°": 2865, 
  "verändern": 2866, 
  "individuelle": 2867, 
  "Post@@": 2868, 
  "entsteht": 2869, 
  "Garantie": 2870, 
  "Handeln": 2871, 
  "Ausstellung": 2872, 
  "bestand": 2873, 
  "Einstellungen": 2874, 
  "5.": 2875, 
  "Optionen": 2876, 
  "schutz": 2877, 
  "Standard@@": 2878, 
  "berechtigt": 2879, 
  "höheren": 2880, 
  "normalerweise": 2881, 
  "ähnlich": 2882, 
  "Einbeziehung": 2883, 
  "bemühen": 2884, 
  "werk": 2885, 
  "Institution": 2886, 
  "ch": 2887, 
  "KMU": 2888, 
  "direkten": 2889, 
  "geboren": 2890, 
  "Verteidigung": 2891, 
  "po@@": 2892, 
  "u.a.": 2893, 
  "Ziffer": 2894, 
  "angemessene": 2895, 
  "geltenden": 2896, 
  "Klasse": 2897, 
  "18.": 2898, 
  "Regime": 2899, 
  "Mit@@": 2900, 
  "heutige": 2901, 
  "wohnen": 2902, 
  "Plattform": 2903, 
  "do": 2904, 
  "gespielt": 2905, 
  "Charta": 2906, 
  "vorlegen": 2907, 
  "4.": 2908, 
  "stellte": 2909, 
  "bestimmen": 2910, 
  "lokale": 2911, 
  "Wünsche": 2912, 
  "russischen": 2913, 
  "Haftung": 2914, 
  "raum": 2915, 
  "wei@@": 2916, 
  "Außenpolitik": 2917, 
  "bau@@": 2918, 
  "rechtliche": 2919, 
  "Kilometer": 2920, 
  "y-@@": 2921, 
  "Marktes": 2922, 
  "Luft": 2923, 
  "Mobilität": 2924, 
  "Hostels": 2925, 
  "schlecht": 2926, 
  "Vorschlags": 2927, 
  "erfolgreiche": 2928, 
  "Download": 2929, 
  "aktivieren": 2930, 
  "anti@@": 2931, 
  "Veröffentlichung": 2932, 
  "abgestimmt": 2933, 
  "Vorgehen": 2934, 
  "d-@@": 2935, 
  "Zentralbank": 2936, 
  "Freiheiten": 2937, 
  "ut@@": 2938, 
  "weist": 2939, 
  "gezwungen": 2940, 
  "tige": 2941, 
  "Zielen": 2942, 
  "weise": 2943, 
  "sin@@": 2944, 
  "Wein": 2945, 
  "Code": 2946, 
  "Aktion": 2947, 
  "aufzu@@": 2948, 
  "Texte": 2949, 
  "wirksam": 2950, 
  "Man@@": 2951, 
  "400": 2952, 
  "beraten": 2953, 
  "mittel": 2954, 
  "ef@@": 2955, 
  "erinnert": 2956, 
  "perfekt": 2957, 
  "kamen": 2958, 
  "direkte": 2959, 
  "lose": 2960, 
  "Gründung": 2961, 
  "britische": 2962, 
  "ob@@": 2963, 
  "1995": 2964, 
  "Politiken": 2965, 
  "entscheidende": 2966, 
  "München": 2967, 
  "versch@@": 2968, 
  "einheitlichen": 2969, 
  "Stück": 2970, 
  "einig": 2971, 
  "ir@@": 2972, 
  "Schlüssel@@": 2973, 
  "Umfeld": 2974, 
  "essen": 2975, 
  "Gerichtshof": 2976, 
  "staatliche": 2977, 
  "Untersuchungen": 2978, 
  "Chancen": 2979, 
  "hoffentlich": 2980, 
  "verurteilt": 2981, 
  "Chinas": 2982, 
  "ons": 2983, 
  "klaren": 2984, 
  "Regierungs@@": 2985, 
  "dürfte": 2986, 
  "ha@@": 2987, 
  "innovative": 2988, 
  "Studenten": 2989, 
  "Besorgnis": 2990, 
  "Konsens": 2991, 
  "do@@": 2992, 
  "zentral": 2993, 
  "Identität": 2994, 
  "Ware": 2995, 
  "15@@": 2996, 
  "Schlafzimmer": 2997, 
  "erhebliche": 2998, 
  "Arbeitsmarkt": 2999, 
  "Ausgabe": 3000, 
  "inmitten": 3001, 
  "lag": 3002, 
  "Deutschen": 3003, 
  "²": 3004, 
  "voll@@": 3005, 
  "hinzu": 3006, 
  "endes": 3007, 
  "10@@": 3008, 
  "gewährt": 3009, 
  "verdient": 3010, 
  "organisieren": 3011, 
  "im@@": 3012, 
  "Einwanderung": 3013, 
  "ersetzt": 3014, 
  "nahm": 3015, 
  "S-@@": 3016, 
  "reduzieren": 3017, 
  "and@@": 3018, 
  "vorhandenen": 3019, 
  "verkaufen": 3020, 
  "ap@@": 3021, 
  "Po@@": 3022, 
  "Ex@@": 3023, 
  "Hohen": 3024, 
  "Luft@@": 3025, 
  "Kräfte": 3026, 
  "gearbeitet": 3027, 
  "strategischen": 3028, 
  "berg": 3029, 
  "alt": 3030, 
  "Zwecke": 3031, 
  "abgesehen": 3032, 
  "größer": 3033, 
  "aussprechen": 3034, 
  "Webseiten": 3035, 
  "beschäftigen": 3036, 
  "fehlt": 3037, 
  "Versionen": 3038, 
  "außerordentlich": 3039, 
  "Klein@@": 3040, 
  "Verbreitung": 3041, 
  "Bemerkung": 3042, 
  "beruht": 3043, 
  "kontaktieren": 3044, 
  "ine": 3045, 
  "einfacher": 3046, 
  "wirtschaftlicher": 3047, 
  "Mitarbeitern": 3048, 
  "breiten": 3049, 
  "individuellen": 3050, 
  "zusammenarbeiten": 3051, 
  "2020": 3052, 
  "Preisen": 3053, 
  "Bi@@": 3054, 
  "150": 3055, 
  "erstmals": 3056, 
  "wiederholen": 3057, 
  "Asien": 3058, 
  "Tri@@": 3059, 
  "Bus": 3060, 
  "isten": 3061, 
  "Per@@": 3062, 
  "Sonne": 3063, 
  "formen": 3064, 
  "sa@@": 3065, 
  "angegebenen": 3066, 
  "jenen": 3067, 
  "Ko@@": 3068, 
  "Kapitel": 3069, 
  "bau": 3070, 
  "Studien": 3071, 
  "Mitgliedschaft": 3072, 
  "zieht": 3073, 
  "komme": 3074, 
  "Projekt@@": 3075, 
  "dich": 3076, 
  "traditionelle": 3077, 
  "verbinden": 3078, 
  "aktive": 3079, 
  "wissenschaftliche": 3080, 
  "Kontrollen": 3081, 
  "al-@@": 3082, 
  "effektiv": 3083, 
  "Costa": 3084, 
  "eingereicht": 3085, 
  "hierfür": 3086, 
  "anhand": 3087, 
  "it": 3088, 
  "Liebe": 3089, 
  "Erzeugnisse": 3090, 
  "stattdessen": 3091, 
  "WTO": 3092, 
  "Sorgen": 3093, 
  "vorstellen": 3094, 
  "verstärken": 3095, 
  "Kurs": 3096, 
  "Start": 3097, 
  "Balkon": 3098, 
  "Signal": 3099, 
  "gestaltet": 3100, 
  "entwickelte": 3101, 
  "liefert": 3102, 
  "ähnliche": 3103, 
  "inklusive": 3104, 
  "vi@@": 3105, 
  "Vorstellung": 3106, 
  "vieles": 3107, 
  "unverzüglich": 3108, 
  "äußern": 3109, 
  "genannte": 3110, 
  "mittlerweile": 3111, 
  "BIP": 3112, 
  "Gewicht": 3113, 
  "Anschluss": 3114, 
  "Nachricht": 3115, 
  "Sal@@": 3116, 
  "15.": 3117, 
  "vorbereitet": 3118, 
  "deine": 3119, 
  "28": 3120, 
  "Vorsitz": 3121, 
  "Sektoren": 3122, 
  "systemen": 3123, 
  "Systemen": 3124, 
  "C-@@": 3125, 
  "Beschluss": 3126, 
  "32": 3127, 
  "Essen": 3128, 
  "Schlussfolgerungen": 3129, 
  "französische": 3130, 
  "Bedrohung": 3131, 
  "ischem": 3132, 
  "seite": 3133, 
  "barkeit": 3134, 
  "lagen": 3135, 
  "jener": 3136, 
  "Transport": 3137, 
  "offiziellen": 3138, 
  "Gas@@": 3139, 
  "Auge": 3140, 
  "Kontroll@@": 3141, 
  "schriftliche": 3142, 
  "Bereitstellung": 3143, 
  "Wohn@@": 3144, 
  "Schulen": 3145, 
  "City": 3146, 
  "tr@@": 3147, 
  "rein": 3148, 
  "erfolgreichen": 3149, 
  "ati@@": 3150, 
  "é@@": 3151, 
  "entscheidender": 3152, 
  "beteiligen": 3153, 
  "Ri@@": 3154, 
  "a.": 3155, 
  "gewonnen": 3156, 
  "beigetragen": 3157, 
  "Städten": 3158, 
  "form": 3159, 
  "gewissen": 3160, 
  "Rechtsgrundlage": 3161, 
  "Werke": 3162, 
  "barer": 3163, 
  "anwesend": 3164, 
  "bestimmter": 3165, 
  "enst@@": 3166, 
  "Männern": 3167, 
  "großem": 3168, 
  "dern": 3169, 
  "Her@@": 3170, 
  "Pakete": 3171, 
  "Erstellung": 3172, 
  "iger": 3173, 
  "Katastrophe": 3174, 
  "geboten": 3175, 
  "diesbezüglich": 3176, 
  "beschrieben": 3177, 
  "Wohlstand": 3178, 
  "regeln": 3179, 
  "erzeugt": 3180, 
  "ik@@": 3181, 
  "ruhig": 3182, 
  "solches": 3183, 
  "Grenz@@": 3184, 
  "Alle": 3185, 
  "Marke": 3186, 
  "betrieben": 3187, 
  "rei@@": 3188, 
  "verkauft": 3189, 
  "Kapital@@": 3190, 
  "Ansichten": 3191, 
  "heit": 3192, 
  "elektronischen": 3193, 
  "Kontext": 3194, 
  "eingehalten": 3195, 
  "Or@@": 3196, 
  "stolz": 3197, 
  "Freunden": 3198, 
  "än@@": 3199, 
  "vermitteln": 3200, 
  "Kauf": 3201, 
  "Mangel": 3202, 
  "interessant": 3203, 
  "Beschlüsse": 3204, 
  "ern@@": 3205, 
  "Genehmigung": 3206, 
  "folglich": 3207, 
  "ige": 3208, 
  "tet": 3209, 
  "Nicht@@": 3210, 
  "Konsequenzen": 3211, 
  "integriert": 3212, 
  "Golf": 3213, 
  "Staates": 3214, 
  "langfristig": 3215, 
  "investieren": 3216, 
  "bauen": 3217, 
  "Einheit": 3218, 
  "tisch": 3219, 
  "lei@@": 3220, 
  "Mindest@@": 3221, 
  "eller": 3222, 
  "sichere": 3223, 
  "PL": 3224, 
  "bedeutende": 3225, 
  "bestellen": 3226, 
  "Pool": 3227, 
  "läßt": 3228, 
  "optimale": 3229, 
  "kleines": 3230, 
  "Vision": 3231, 
  "wiederholt": 3232, 
  "beantworten": 3233, 
  "tig": 3234, 
  "anbelangt": 3235, 
  "26": 3236, 
  "End@@": 3237, 
  "bereitgestellt": 3238, 
  "Con@@": 3239, 
  "mo@@": 3240, 
  "Glaubwürdigkeit": 3241, 
  "zuständig": 3242, 
  "hingegen": 3243, 
  "Rest": 3244, 
  "individuell": 3245, 
  "finanziert": 3246, 
  "2011": 3247, 
  "beobachten": 3248, 
  "Sauna": 3249, 
  "Ungarn": 3250, 
  "Sicherung": 3251, 
  "sozialer": 3252, 
  "Krankheit": 3253, 
  "hervor": 3254, 
  "allzu": 3255, 
  "Polizei": 3256, 
  "erhielt": 3257, 
  "Überlegungen": 3258, 
  "Außen@@": 3259, 
  "speichern": 3260, 
  "freundlich": 3261, 
  "genügend": 3262, 
  "Positionen": 3263, 
  "machte": 3264, 
  "angegeben": 3265, 
  "ums": 3266, 
  "Dauer": 3267, 
  "Zivilgesellschaft": 3268, 
  "Kollegin": 3269, 
  "Mrd.": 3270, 
  "gerät": 3271, 
  "weitgehend": 3272, 
  "wünsche": 3273, 
  "ales": 3274, 
  "Betrag": 3275, 
  "gebiete": 3276, 
  "herrscht": 3277, 
  "Gegenstand": 3278, 
  "Viertel": 3279, 
  "Touristen": 3280, 
  "einge@@": 3281, 
  "ei": 3282, 
  "Beschäftigungs@@": 3283, 
  "Wohnung": 3284, 
  "Fischerei@@": 3285, 
  "entwicklung": 3286, 
  "tiert": 3287, 
  "Militär@@": 3288, 
  "gelingt": 3289, 
  "wer@@": 3290, 
  "Bulgarien": 3291, 
  "ausgezeichnet": 3292, 
  "Prozesse": 3293, 
  "gefallen": 3294, 
  "Vorhaben": 3295, 
  "tiger": 3296, 
  "einzigartigen": 3297, 
  "Tra@@": 3298, 
  "Vater": 3299, 
  "verbindet": 3300, 
  "Korruption": 3301, 
  "Konto": 3302, 
  "ach@@": 3303, 
  "Einwohner": 3304, 
  "ausge@@": 3305, 
  "Betriebs@@": 3306, 
  "langfristige": 3307, 
  "Zahlungs@@": 3308, 
  "Rom": 3309, 
  "insofern": 3310, 
  "langsam": 3311, 
  "scheinen": 3312, 
  "druck": 3313, 
  "getragen": 3314, 
  "mittleren": 3315, 
  "Gerät": 3316, 
  "gestattet": 3317, 
  "offene": 3318, 
  "rück@@": 3319, 
  "Gewährleistung": 3320, 
  "erlebt": 3321, 
  "17.": 3322, 
  "pf@@": 3323, 
  "reduziert": 3324, 
  "Web": 3325, 
  "Morgen": 3326, 
  "Reduzierung": 3327, 
  "Modelle": 3328, 
  "versichern": 3329, 
  "verbundenen": 3330, 
  "end@@": 3331, 
  "wunderschönen": 3332, 
  "aler": 3333, 
  "reich": 3334, 
  "Ziel@@": 3335, 
  "dienst": 3336, 
  "fuer": 3337, 
  "Bars": 3338, 
  "ausgerichtet": 3339, 
  "Entlastung": 3340, 
  "ersetzen": 3341, 
  "ia": 3342, 
  "ener": 3343, 
  "ss@@": 3344, 
  "Ö@@": 3345, 
  "ation@@": 3346, 
  "Frankfurt": 3347, 
  "Tier@@": 3348, 
  "auftreten": 3349, 
  "Gefahren": 3350, 
  "mussten": 3351, 
  "angesehen": 3352, 
  "entschlossen": 3353, 
  "zukünftigen": 3354, 
  "militärische": 3355, 
  "Kroatien": 3356, 
  "Schlüssel": 3357, 
  "betreiben": 3358, 
  "größeres": 3359, 
  "Lieferung": 3360, 
  "künftige": 3361, 
  "Debian": 3362, 
  "lieber": 3363, 
  "ters": 3364, 
  "Brasilien": 3365, 
  "Stein@@": 3366, 
  "Star": 3367, 
  "Grad": 3368, 
  "Kontakte": 3369, 
  "Meeres@@": 3370, 
  "Praktiken": 3371, 
  "verteilt": 3372, 
  "Schiffe": 3373, 
  "anzu@@": 3374, 
  "verfügbaren": 3375, 
  "Stoffe": 3376, 
  "jedenfalls": 3377, 
  "Anlass": 3378, 
  "internen": 3379, 
  "ster@@": 3380, 
  "Lehr@@": 3381, 
  "for": 3382, 
  "16.": 3383, 
  "6.": 3384, 
  "betreffend": 3385, 
  "tung": 3386, 
  "haus": 3387, 
  "feld": 3388, 
  "gebieten": 3389, 
  "du@@": 3390, 
  "umfangreiche": 3391, 
  "ben@@": 3392, 
  "Lebensmittel": 3393, 
  "unterstreichen": 3394, 
  "beendet": 3395, 
  "strategie": 3396, 
  "ta@@": 3397, 
  "verteidigen": 3398, 
  "Ak@@": 3399, 
  "qu@@": 3400, 
  "Energien": 3401, 
  "menschliche": 3402, 
  "Erfüllung": 3403, 
  "behaupten": 3404, 
  "eignet": 3405, 
  "einzusetzen": 3406, 
  "eng@@": 3407, 
  "konfrontiert": 3408, 
  "Verlust": 3409, 
  "institutionellen": 3410, 
  "igen": 3411, 
  "momentan": 3412, 
  "Wirtschaftswachstum": 3413, 
  "ft": 3414, 
  "Mess@@": 3415, 
  "Eigentum": 3416, 
  "militärischen": 3417, 
  "gerichtet": 3418, 
  "75": 3419, 
  "Spaß": 3420, 
  "arten": 3421, 
  "Messe": 3422, 
  "tsch@@": 3423, 
  "Gerechtigkeit": 3424, 
  "bel@@": 3425, 
  "hochwertige": 3426, 
  "Firmen@@": 3427, 
  "drei@@": 3428, 
  "Kopf": 3429, 
  "Ber@@": 3430, 
  "vorzulegen": 3431, 
  "Verletzung": 3432, 
  "Film@@": 3433, 
  "Am@@": 3434, 
  "angepasst": 3435, 
  "Rei@@": 3436, 
  "wirtschaftlich": 3437, 
  "konzentriert": 3438, 
  "Kulturen": 3439, 
  "einbezogen": 3440, 
  "bekommt": 3441, 
  "Wir": 3442, 
  "unterscheiden": 3443, 
  "ig": 3444, 
  "entgegen": 3445, 
  "wirksame": 3446, 
  "Mut": 3447, 
  "Eurozone": 3448, 
  "strategische": 3449, 
  "abstimmen": 3450, 
  "illegalen": 3451, 
  "gruppen": 3452, 
  "Fernseh@@": 3453, 
  "Doppel@@": 3454, 
  "Suiten": 3455, 
  "ette": 3456, 
  "7.": 3457, 
  "Gericht": 3458, 
  "gruppe": 3459, 
  "unabhängigen": 3460, 
  "Buch@@": 3461, 
  "ser": 3462, 
  "zukünftige": 3463, 
  "praktische": 3464, 
  "dienste": 3465, 
  "unterzeichnet": 3466, 
  "ker": 3467, 
  "vorgeschlagene": 3468, 
  "Perspektive": 3469, 
  "Haus@@": 3470, 
  "Situationen": 3471, 
  "ort": 3472, 
  "Parkplatz": 3473, 
  "aufs": 3474, 
  "mitteilen": 3475, 
  "Fahrzeuge": 3476, 
  "tre@@": 3477, 
  "é": 3478, 
  "unabhängige": 3479, 
  "Einkommen": 3480, 
  "ließ": 3481, 
  "Provinz": 3482, 
  "Bu@@": 3483, 
  "selten": 3484, 
  "Rezeption": 3485, 
  "Zuständigkeit": 3486, 
  "bereiche": 3487, 
  "Grand": 3488, 
  "sprach": 3489, 
  "Tätigkeiten": 3490, 
  "anschließen": 3491, 
  "Amt": 3492, 
  "160": 3493, 
  "Weiteren": 3494, 
  "vorgesehenen": 3495, 
  "Redner": 3496, 
  "anlage": 3497, 
  "ergibt": 3498, 
  "Le": 3499, 
  "testen": 3500, 
  "Widerspruch": 3501, 
  "Nummer": 3502, 
  "Verarbeitung": 3503, 
  "N": 3504, 
  "begrenzt": 3505, 
  "Übernachtung": 3506, 
  "bisherigen": 3507, 
  "Lebensmittel@@": 3508, 
  "behoben": 3509, 
  "anzuzeigen": 3510, 
  "Nachbarn": 3511, 
  "Geschmack": 3512, 
  "Belgien": 3513, 
  "Glück": 3514, 
  "Anstieg": 3515, 
  "effizient": 3516, 
  "unterliegen": 3517, 
  "verdienen": 3518, 
  "Manager": 3519, 
  "Märkten": 3520, 
  "Ablehnung": 3521, 
  "Gehminuten": 3522, 
  "Spa": 3523, 
  "Schiff": 3524, 
  "For@@": 3525, 
  "Pläne": 3526, 
  "ti": 3527, 
  "Grünen": 3528, 
  "Feld": 3529, 
  "Mikro@@": 3530, 
  "Zoll@@": 3531, 
  "überprüft": 3532, 
  "herunterladen": 3533, 
  "natürliche": 3534, 
  "Group": 3535, 
  "Studio": 3536, 
  "besonderer": 3537, 
  "empfangen": 3538, 
  "Tour": 3539, 
  "gebeten": 3540, 
  "laufenden": 3541, 
  "af@@": 3542, 
  "Freizügigkeit": 3543, 
  "Regierungschefs": 3544, 
  "gewähren": 3545, 
  "Ausflüge": 3546, 
  "8.": 3547, 
  "fen": 3548, 
  "Spezial@@": 3549, 
  "dankbar": 3550, 
  "konkret": 3551, 
  "so@@": 3552, 
  "kontrollieren": 3553, 
  "ech@@": 3554, 
  "vorliegende": 3555, 
  "könnt": 3556, 
  "Veränderung": 3557, 
  "IT@@": 3558, 
  "Aktionsplan": 3559, 
  "EG": 3560, 
  "Jahres@@": 3561, 
  "fest@@": 3562, 
  "erfreut": 3563, 
  "Donnerstag": 3564, 
  "P-@@": 3565, 
  "sicheren": 3566, 
  "gt": 3567, 
  "Gegen@@": 3568, 
  "technik": 3569, 
  "del@@": 3570, 
  "Gemeinde": 3571, 
  "geprägt": 3572, 
  "hervorgehoben": 3573, 
  "men@@": 3574, 
  "Ausmaß": 3575, 
  "Vorlage": 3576, 
  "Abschaffung": 3577, 
  "ien": 3578, 
  "Band": 3579, 
  "NATO": 3580, 
  "WLAN": 3581, 
  "gleichermaßen": 3582, 
  "geraten": 3583, 
  "Sachen": 3584, 
  "Agrar@@": 3585, 
  "Bürger@@": 3586, 
  "Bei@@": 3587, 
  "Respekt": 3588, 
  "ernsthaft": 3589, 
  "einheitliche": 3590, 
  "ma": 3591, 
  "Geschäft": 3592, 
  "Befugnisse": 3593, 
  "infolge": 3594, 
  "enthaltenen": 3595, 
  "bet@@": 3596, 
  "wirtschaft": 3597, 
  "man@@": 3598, 
  "politisches": 3599, 
  "Finanzkrise": 3600, 
  "Roma": 3601, 
  "Flüchtlinge": 3602, 
  "are": 3603, 
  "fertig": 3604, 
  "weg@@": 3605, 
  "humanitäre": 3606, 
  "Binnenmarktes": 3607, 
  "-F@@": 3608, 
  "öffentlich": 3609, 
  "Gleichstellung": 3610, 
  "Geld@@": 3611, 
  "18@@": 3612, 
  "Familien@@": 3613, 
  "Q@@": 3614, 
  "wachsenden": 3615, 
  "bekannte": 3616, 
  "Teil@@": 3617, 
  "jetzigen": 3618, 
  "eins": 3619, 
  "Freitag": 3620, 
  "Ebenen": 3621, 
  "geplant": 3622, 
  "Videos": 3623, 
  "erwähnen": 3624, 
  "dargestellt": 3625, 
  "Volkes": 3626, 
  "Medien@@": 3627, 
  "2.@@": 3628, 
  "via": 3629, 
  "vereinbart": 3630, 
  "Beteiligten": 3631, 
  "2-@@": 3632, 
  "Vorausschau": 3633, 
  "Armee": 3634, 
  "Abhängigkeit": 3635, 
  "Prozesses": 3636, 
  "letzter": 3637, 
  "els": 3638, 
  "grosse": 3639, 
  "Tor@@": 3640, 
  "lebt": 3641, 
  "selbst@@": 3642, 
  "nachdrücklich": 3643, 
  "gest@@": 3644, 
  "effiziente": 3645, 
  "verboten": 3646, 
  "gemeinschaftlichen": 3647, 
  "management": 3648, 
  "hervorragenden": 3649, 
  "vorbei": 3650, 
  "Qu@@": 3651, 
  "sogenannten": 3652, 
  "isch-@@": 3653, 
  "klein": 3654, 
  "alt@@": 3655, 
  "spreche": 3656, 
  "li": 3657, 
  "hohem": 3658, 
  "Berichten": 3659, 
  "Deutsche": 3660, 
  "kraft": 3661, 
  "normalen": 3662, 
  "wagen": 3663, 
  "Steuerung": 3664, 
  "Casino": 3665, 
  "füllen": 3666, 
  "Ankunft": 3667, 
  "bedanken": 3668, 
  "dar@@": 3669, 
  "13.": 3670, 
  "derer": 3671, 
  "Eis@@": 3672, 
  "schaft": 3673, 
  "anischen": 3674, 
  "Betten": 3675, 
  "überein": 3676, 
  "schätzen": 3677, 
  "ic@@": 3678, 
  "beschränken": 3679, 
  "überaus": 3680, 
  "gewünschten": 3681, 
  "Fischer": 3682, 
  "tief": 3683, 
  "präsentieren": 3684, 
  "Zahlungen": 3685, 
  "Dritten": 3686, 
  "bericht": 3687, 
  "Quellen": 3688, 
  "lichem": 3689, 
  "wahren": 3690, 
  "fördert": 3691, 
  "na": 3692, 
  "Führer": 3693, 
  "Konflikte": 3694, 
  "Su@@": 3695, 
  "antworten": 3696, 
  "ie@@": 3697, 
  "festzulegen": 3698, 
  "schnellen": 3699, 
  "Organe": 3700, 
  "Abendessen": 3701, 
  "Heizung": 3702, 
  "bahn": 3703, 
  "untersucht": 3704, 
  "besorgt": 3705, 
  "externen": 3706, 
  "Leistungs@@": 3707, 
  "richtet": 3708, 
  "Kriminalität": 3709, 
  "Frühstücksbuffet": 3710, 
  "Nord@@": 3711, 
  "eingegangen": 3712, 
  "IN@@": 3713, 
  "leichter": 3714, 
  "Bundes@@": 3715, 
  "zugrunde": 3716, 
  "umfassend": 3717, 
  "Kommunikations@@": 3718, 
  "Rückkehr": 3719, 
  "umsetzen": 3720, 
  "Erinnerung": 3721, 
  "ran@@": 3722, 
  "Handels": 3723, 
  "Computer@@": 3724, 
  "Kanada": 3725, 
  "fähigkeit": 3726, 
  "heißen": 3727, 
  "par@@": 3728, 
  "10.": 3729, 
  "Mor@@": 3730, 
  "Ger@@": 3731, 
  "onen": 3732, 
  "är@@": 3733, 
  "gegangen": 3734, 
  "12.": 3735, 
  "Ursachen": 3736, 
  "aufgebaut": 3737, 
  "einzuführen": 3738, 
  "begleitet": 3739, 
  "komplette": 3740, 
  "erfordern": 3741, 
  "Online": 3742, 
  "geeignete": 3743, 
  "zurückzuführen": 3744, 
  "ok@@": 3745, 
  "stadt": 3746, 
  "korrekt": 3747, 
  "erweitern": 3748, 
  "unterschiedlich": 3749, 
  "Standort": 3750, 
  "erst@@": 3751, 
  "schweren": 3752, 
  "und@@": 3753, 
  "Schweizer": 3754, 
  "per@@": 3755, 
  "ator": 3756, 
  "ergänzt": 3757, 
  "01": 3758, 
  "werfen": 3759, 
  "EADS": 3760, 
  "qualität": 3761, 
  "entdeckt": 3762, 
  "1994": 3763, 
  "existiert": 3764, 
  "Haushaltsplan": 3765, 
  "Tausende": 3766, 
  "brachte": 3767, 
  "Rechtsstaatlichkeit": 3768, 
  "eingestellt": 3769, 
  "aktuell": 3770, 
  "Geschwindigkeit": 3771, 
  "Großteil": 3772, 
  "Verteilung": 3773, 
  "festgelegten": 3774, 
  "Vertrages": 3775, 
  "Internet-@@": 3776, 
  "Volksgesundheit": 3777, 
  "generell": 3778, 
  "no@@": 3779, 
  "PT": 3780, 
  "tion@@": 3781, 
  "schutz@@": 3782, 
  "Faktor": 3783, 
  "heutzutage": 3784, 
  "genden": 3785, 
  "Leitung": 3786, 
  "Mal@@": 3787, 
  "Marken": 3788, 
  "gleich@@": 3789, 
  "geniessen": 3790, 
  "wirkt": 3791, 
  "Büro": 3792, 
  "wonach": 3793, 
  "form@@": 3794, 
  "Arbeitsplatz": 3795, 
  "geäußert": 3796, 
  "bes@@": 3797, 
  "Barroso": 3798, 
  "enn@@": 3799, 
  "Menü": 3800, 
  "verhalten": 3801, 
  "Maschine": 3802, 
  "komfortable": 3803, 
  "service": 3804, 
  "sucht": 3805, 
  "3-@@": 3806, 
  "perfekte": 3807, 
  "Post": 3808, 
  "14@@": 3809, 
  "des@@": 3810, 
  "Sterne": 3811, 
  "Jahrzehnten": 3812, 
  "senken": 3813, 
  "berichten": 3814, 
  "klassischen": 3815, 
  "Branche": 3816, 
  "eu@@": 3817, 
  "cm": 3818, 
  "Darstellung": 3819, 
  "fassen": 3820, 
  "Reservierung": 3821, 
  "verweisen": 3822, 
  "gestärkt": 3823, 
  "Öffnung": 3824, 
  "DVD": 3825, 
  "Rechten": 3826, 
  "angewendet": 3827, 
  "zeichnet": 3828, 
  "I-@@": 3829, 
  "Kreditkarte": 3830, 
  "empfohlen": 3831, 
  "Passwort": 3832, 
  "Sammlung": 3833, 
  "Bereitschaft": 3834, 
  "Stimmen": 3835, 
  "genaue": 3836, 
  "vornehmen": 3837, 
  "on-@@": 3838, 
  "hei@@": 3839, 
  "äre": 3840, 
  "alisierung": 3841, 
  "Newsletter": 3842, 
  "zulassen": 3843, 
  "Gang": 3844, 
  "chten": 3845, 
  "enge": 3846, 
  "Frist": 3847, 
  "iz@@": 3848, 
  "aktiven": 3849, 
  "qualitativ": 3850, 
  "stattfindet": 3851, 
  "sichergestellt": 3852, 
  "keinem": 3853, 
  "nützlich": 3854, 
  "gesetzlichen": 3855, 
  "beenden": 3856, 
  "Sohn": 3857, 
  "Süd@@": 3858, 
  "Entspannung": 3859, 
  "Fahrt": 3860, 
  "König": 3861, 
  "14.": 3862, 
  "enz@@": 3863, 
  "offenbar": 3864, 
  "fähig": 3865, 
  "Browser": 3866, 
  "Generationen": 3867, 
  "600": 3868, 
  "Vereinfachung": 3869, 
  "Bel@@": 3870, 
  "Papier": 3871, 
  "gegenwärtige": 3872, 
  "IS@@": 3873, 
  "wachsen": 3874, 
  "Quelle": 3875, 
  "Mission": 3876, 
  "festen": 3877, 
  "get@@": 3878, 
  "Verlauf": 3879, 
  "verkehr": 3880, 
  "angebracht": 3881, 
  "Niederlanden": 3882, 
  "bereiten": 3883, 
  "Debatten": 3884, 
  "Gelder": 3885, 
  "gefragt": 3886, 
  "alter": 3887, 
  "lin@@": 3888, 
  "Voll@@": 3889, 
  "Zeitung": 3890, 
  "enorme": 3891, 
  "95": 3892, 
  "punkt": 3893, 
  "ER@@": 3894, 
  "rechtzeitig": 3895, 
  "digitalen": 3896, 
  "Umweltschutz": 3897, 
  "Investoren": 3898, 
  "Förder@@": 3899, 
  "Reisen": 3900, 
  "Stärke": 3901, 
  "geh@@": 3902, 
  "Berichterstatters": 3903, 
  "oftmals": 3904, 
  "Schönheit": 3905, 
  "maschinen": 3906, 
  "einrichtungen": 3907, 
  "tik": 3908, 
  "gesellschaft": 3909, 
  "türkischen": 3910, 
  "ständigen": 3911, 
  "stärkere": 3912, 
  "bares": 3913, 
  "Planeten": 3914, 
  "Santa": 3915, 
  "ST@@": 3916, 
  "Wirtschaftskrise": 3917, 
  "Kontinent": 3918, 
  "Wochenende": 3919, 
  "W": 3920, 
  "sammeln": 3921, 
  "froh": 3922, 
  "WC": 3923, 
  "Parkplätze": 3924, 
  "Eingang": 3925, 
  "reiche": 3926, 
  "dasselbe": 3927, 
  "voraus": 3928, 
  "Tages": 3929, 
  "überwinden": 3930, 
  "Währungsunion": 3931, 
  "Parameter": 3932, 
  "9.": 3933, 
  "san@@": 3934, 
  "irischen": 3935, 
  "ungsp@@": 3936, 
  "steigern": 3937, 
  "Amerikaner": 3938, 
  "eigener": 3939, 
  "Belarus": 3940, 
  "Eisenbahn@@": 3941, 
  "Mutter": 3942, 
  "Gast": 3943, 
  "Opposition": 3944, 
  "EZB": 3945, 
  "integrierten": 3946, 
  "ec@@": 3947, 
  "Personal@@": 3948, 
  "Gu@@": 3949, 
  "europäisches": 3950, 
  "Kompetenz": 3951, 
  "Reise@@": 3952, 
  "Anwender": 3953, 
  "á@@": 3954, 
  "EU-Mitgliedstaaten": 3955, 
  "eventuell": 3956, 
  "Licht@@": 3957, 
  "Orte": 3958, 
  "aufge@@": 3959, 
  "leiten": 3960, 
  "mer@@": 3961, 
  "Sk@@": 3962, 
  "bewältigen": 3963, 
  "hast": 3964, 
  "Dokumenten": 3965, 
  "Speisen": 3966, 
  "kontrolliert": 3967, 
  "Parlamente": 3968, 
  "Revolution": 3969, 
  "dung": 3970, 
  "frühen": 3971, 
  "optimal": 3972, 
  "fer@@": 3973, 
  "sauber": 3974, 
  "derzeitige": 3975, 
  "Du@@": 3976, 
  "anische": 3977, 
  "Programm@@": 3978, 
  "denjenigen": 3979, 
  "Bestimmung": 3980, 
  "sichtbar": 3981, 
  "U": 3982, 
  "1-@@": 3983, 
  "mögen": 3984, 
  "griechischen": 3985, 
  "lan@@": 3986, 
  "Strecke": 3987, 
  "Erhaltung": 3988, 
  "zerstört": 3989, 
  "Kopenhagen": 3990, 
  "ant": 3991, 
  "Bibliothek": 3992, 
  "Allianz": 3993, 
  "inter@@": 3994, 
  "effektive": 3995, 
  "ah@@": 3996, 
  "Beseitigung": 3997, 
  "ität": 3998, 
  "Fernsehen": 3999, 
  "ler@@": 4000, 
  "Kor@@": 4001, 
  "mon@@": 4002, 
  "Wesentlichen": 4003, 
  "ds": 4004, 
  "Überblick": 4005, 
  "zurzeit": 4006, 
  "Zug": 4007, 
  "ansonsten": 4008, 
  "Z": 4009, 
  "Haut": 4010, 
  "te@@": 4011, 
  "Straßburg": 4012, 
  "Au@@": 4013, 
  "Г": 4014, 
  "Zahlung": 4015, 
  "Menschenrechts@@": 4016, 
  "ra": 4017, 
  "Bildungs@@": 4018, 
  "ländliche": 4019, 
  "Wandel": 4020, 
  "offizielle": 4021, 
  "pl@@": 4022, 
  "selben": 4023, 
  "ru@@": 4024, 
  "Station": 4025, 
  "überlassen": 4026, 
  "grossen": 4027, 
  "j": 4028, 
  "welt": 4029, 
  "Zwei@@": 4030, 
  "Bal@@": 4031, 
  "Kategorien": 4032, 
  "freundliche": 4033, 
  "Kapital": 4034, 
  "struktur": 4035, 
  "Kampagne": 4036, 
  "Jugend": 4037, 
  "Mechanismen": 4038, 
  "bezahlt": 4039, 
  "Kal@@": 4040, 
  "selber": 4041, 
  "zeit@@": 4042, 
  "Projekts": 4043, 
  "außen": 4044, 
  "bedeutenden": 4045, 
  "Bearbeitung": 4046, 
  "Öl": 4047, 
  "knapp": 4048, 
  "Potenzial": 4049, 
  "erzeugen": 4050, 
  "tz@@": 4051, 
  "auffordern": 4052, 
  "Registrierung": 4053, 
  "Sa@@": 4054, 
  "US": 4055, 
  "vorschlagen": 4056, 
  "Länge": 4057, 
  "Tages@@": 4058, 
  "rechts@@": 4059, 
  "West@@": 4060, 
  "entscheidenden": 4061, 
  "negativen": 4062, 
  "John": 4063, 
  "Madrid": 4064, 
  "produzieren": 4065, 
  "Lei@@": 4066, 
  "untersuchen": 4067, 
  "Gemeinsame": 4068, 
  "Dingen": 4069, 
  "Berliner": 4070, 
  "soeben": 4071, 
  "anzubieten": 4072, 
  "98": 4073, 
  "AN@@": 4074, 
  "zimmer": 4075, 
  "Pakistan": 4076, 
  "fort": 4077, 
  "EN@@": 4078, 
  "schließt": 4079, 
  "stammt": 4080, 
  "Bord": 4081, 
  "besucht": 4082, 
  "gedacht": 4083, 
  "Emissionen": 4084, 
  "Museen": 4085, 
  "karte": 4086, 
  "spiel": 4087, 
  "Versorgung": 4088, 
  "hinzugefügt": 4089, 
  "Bedürfnissen": 4090, 
  "preis": 4091, 
  "Zusammenhalt": 4092, 
  "geräte": 4093, 
  "langfristigen": 4094, 
  "ent": 4095, 
  "Benutzung": 4096, 
  "cher": 4097, 
  "Teams": 4098, 
  "800": 4099, 
  "Todesstrafe": 4100, 
  "Player": 4101, 
  "Sicherheitspolitik": 4102, 
  "stammen": 4103, 
  "preise": 4104, 
  "48": 4105, 
  "Kandidaten": 4106, 
  "wi@@": 4107, 
  "illegale": 4108, 
  "Tonnen": 4109, 
  "ungsan@@": 4110, 
  "Senkung": 4111, 
  "ologie": 4112, 
  "wesentlicher": 4113, 
  "Mark@@": 4114, 
  "bild": 4115, 
  "Oberfläche": 4116, 
  "Dialogs": 4117, 
  "angebot": 4118, 
  "Schloss": 4119, 
  "IT-@@": 4120, 
  "ISO": 4121, 
  "Innenstadt": 4122, 
  "30.": 4123, 
  "fall": 4124, 
  "herrlichen": 4125, 
  "erin": 4126, 
  "befasst": 4127, 
  "finanzieren": 4128, 
  "haften": 4129, 
  "gekennzeichnet": 4130, 
  "beinhalten": 4131, 
  "ino": 4132, 
  "Augenblick": 4133, 
  "sm@@": 4134, 
  "müsste": 4135, 
  "zug": 4136, 
  "Beachtung": 4137, 
  "Mechanismus": 4138, 
  "kümmern": 4139, 
  "rechnen": 4140, 
  "Herbst": 4141, 
  "Autos": 4142, 
  "Dritte": 4143, 
  "Hindernisse": 4144, 
  "hart": 4145, 
  "spezialisiert": 4146, 
  "ges": 4147, 
  "ms": 4148, 
  "wirken": 4149, 
  "So@@": 4150, 
  "kan@@": 4151, 
  "Vertretern": 4152, 
  "Herz": 4153, 
  "Montag": 4154, 
  "land@@": 4155, 
  "UN@@": 4156, 
  "Hinweise": 4157, 
  "festzustellen": 4158, 
  "professionelle": 4159, 
  "praktischen": 4160, 
  "Kosten@@": 4161, 
  "inen": 4162, 
  "UNO": 4163, 
  "Mandat": 4164, 
  "ausgewählt": 4165, 
  "leistungen": 4166, 
  "Ergebnissen": 4167, 
  "Friedens@@": 4168, 
  "neun": 4169, 
  "ou@@": 4170, 
  "ß": 4171, 
  "Versammlung": 4172, 
  "gelesen": 4173, 
  "13@@": 4174, 
  "vorgestellt": 4175, 
  "alität": 4176, 
  "Staats-": 4177, 
  "erkannt": 4178, 
  "gefährdet": 4179, 
  "gi@@": 4180, 
  "Urteil": 4181, 
  "Jugendlichen": 4182, 
  "Cor@@": 4183, 
  "enten": 4184, 
  "errichtet": 4185, 
  "unmittelbarer": 4186, 
  "Kohäsionspolitik": 4187, 
  "29": 4188, 
  "Apartment": 4189, 
  "berechnet": 4190, 
  "12@@": 4191, 
  "Freund": 4192, 
  "Innovationen": 4193, 
  "angemessenen": 4194, 
  "älteren": 4195, 
  "Innen@@": 4196, 
  "behält": 4197, 
  "Kern": 4198, 
  "dauert": 4199, 
  "müssten": 4200, 
  "Fluss": 4201, 
  "Ägypten": 4202, 
  "tier@@": 4203, 
  "Übertragung": 4204, 
  "ari@@": 4205, 
  "Nachhaltigkeit": 4206, 
  "Drittel": 4207, 
  "stoffe": 4208, 
  "verletzt": 4209, 
  ".de": 4210, 
  "vollständigen": 4211, 
  "angewandt": 4212, 
  "mittel@@": 4213, 
  "erklärte": 4214, 
  "wirkliche": 4215, 
  "Ansprüche": 4216, 
  "99": 4217, 
  "Deutsch": 4218, 
  "Detail": 4219, 
  "geregelt": 4220, 
  "tionen": 4221, 
  "3.@@": 4222, 
  "typischen": 4223, 
  "produkten": 4224, 
  "Energie@@": 4225, 
  "beabsichtigt": 4226, 
  "Wirksamkeit": 4227, 
  "Test": 4228, 
  "gewählten": 4229, 
  "schwierige": 4230, 
  "beeinflussen": 4231, 
  "í@@": 4232, 
  "Premierminister": 4233, 
  "sah": 4234, 
  "ergänzen": 4235, 
  "Hamburg": 4236, 
  "kostenlose": 4237, 
  "Investitions@@": 4238, 
  "Presse": 4239, 
  "Präsenz": 4240, 
  "Blut@@": 4241, 
  "Fest@@": 4242, 
  "festlegen": 4243, 
  "Se@@": 4244, 
  "Verwirklichung": 4245, 
  "rat": 4246, 
  "schwere": 4247, 
  "weltweite": 4248, 
  "leistung": 4249, 
  "gesellschaften": 4250, 
  "Häuser": 4251, 
  "ano": 4252, 
  "Anmeldung": 4253, 
  "täglichen": 4254, 
  "De@@": 4255, 
  "Transport@@": 4256, 
  "Pflanzen": 4257, 
  "Regulierung": 4258, 
  "stehende": 4259, 
  "drücken": 4260, 
  "Energieeffizienz": 4261, 
  "Zusammen@@": 4262, 
  "Theater": 4263, 
  "Gemeinschaften": 4264, 
  "ansprechen": 4265, 
  "Institut": 4266, 
  "Journalisten": 4267, 
  "freut": 4268, 
  "Käufer": 4269, 
  "Not@@": 4270, 
  "Best": 4271, 
  "Boden@@": 4272, 
  "gende": 4273, 
  "55": 4274, 
  "anzunehmen": 4275, 
  "prozesses": 4276, 
  "heraus@@": 4277, 
  "geblieben": 4278, 
  "1992": 4279, 
  "sitzen": 4280, 
  "El@@": 4281, 
  "entfernen": 4282, 
  "Tür": 4283, 
  "humanitären": 4284, 
  "ca": 4285, 
  "Widerstand": 4286, 
  "Übrigen": 4287, 
  "ci@@": 4288, 
  "Unterkategorien": 4289, 
  "material": 4290, 
  "Finnland": 4291, 
  "wider@@": 4292, 
  "enthalt": 4293, 
  "Kaffee": 4294, 
  "ex@@": 4295, 
  "England": 4296, 
  "Fisch@@": 4297, 
  "planen": 4298, 
  "wahr": 4299, 
  "sel@@": 4300, 
  "bewerten": 4301, 
  "Ur@@": 4302, 
  "Agenturen": 4303, 
  "Winter@@": 4304, 
  "Lizenz": 4305, 
  "chinesische": 4306, 
  "Gold": 4307, 
  "ho@@": 4308, 
  "det": 4309, 
  "erkunden": 4310, 
  "grünen": 4311, 
  "Wirtschaftspolitik": 4312, 
  "Umweltfragen": 4313, 
  "Schulden": 4314, 
  "anz@@": 4315, 
  "De": 4316, 
  "Wer@@": 4317, 
  "liegenden": 4318, 
  "sti@@": 4319, 
  "zukommen": 4320, 
  "linken": 4321, 
  "Betreuung": 4322, 
  "Liefer@@": 4323, 
  "34": 4324, 
  "Modernisierung": 4325, 
  "Entfernung": 4326, 
  "Volks@@": 4327, 
  "Außen-": 4328, 
  "tu@@": 4329, 
  "istischen": 4330, 
  "Dokumentation": 4331, 
  "UN-@@": 4332, 
  "Autobahn": 4333, 
  "Glas@@": 4334, 
  "fläche": 4335, 
  "ansehen": 4336, 
  "Berge": 4337, 
  "führer": 4338, 
  "Datum": 4339, 
  "verringert": 4340, 
  "Es": 4341, 
  "hinweg": 4342, 
  "Spielen": 4343, 
  "Betriebe": 4344, 
  "s-": 4345, 
  "Gast@@": 4346, 
  "linie": 4347, 
  "Vorstellungen": 4348, 
  "Hei@@": 4349, 
  "spät": 4350, 
  "Reform@@": 4351, 
  "führung": 4352, 
  "zer": 4353, 
  "Errichtung": 4354, 
  "ente": 4355, 
  "ären": 4356, 
  "aufzubauen": 4357, 
  "Cookies": 4358, 
  "mehrfach": 4359, 
  "Weiterentwicklung": 4360, 
  "Schlusselwortern": 4361, 
  "kontextuell": 4362, 
  "afrikanischen": 4363, 
  "grammatisch": 4364, 
  "Anti@@": 4365, 
  "tor@@": 4366, 
  "Ausarbeitung": 4367, 
  "Gen@@": 4368, 
  "Schlusselwort": 4369, 
  "Schlusselphrase": 4370, 
  "spiel@@": 4371, 
  "v": 4372, 
  "Luxemburg": 4373, 
  "armen": 4374, 
  "italienische": 4375, 
  "Verbraucherschutz": 4376, 
  "hervorragend": 4377, 
  "Lo@@": 4378, 
  "aktiviert": 4379, 
  "Arbeitnehmern": 4380, 
  "Appartements": 4381, 
  "36": 4382, 
  "Kurz@@": 4383, 
  "http": 4384, 
  "ak": 4385, 
  "besonderes": 4386, 
  "33": 4387, 
  "bewahren": 4388, 
  "Argumente": 4389, 
  "eingebracht": 4390, 
  "Resort": 4391, 
  "gegebenenfalls": 4392, 
  "Minute": 4393, 
  "Ferienwohnung": 4394, 
  "Zypern": 4395, 
  "H": 4396, 
  "Fläche": 4397, 
  "ta": 4398, 
  "Flughäfen": 4399, 
  "Zuge": 4400, 
  "straße": 4401, 
  "cht": 4402, 
  "geliefert": 4403, 
  "31": 4404, 
  "ys": 4405, 
  "versteht": 4406, 
  "langer": 4407, 
  "Wiederaufbau": 4408, 
  "vorgelegten": 4409, 
  "AL@@": 4410, 
  "bereitet": 4411, 
  "digitale": 4412, 
  "Spezialitäten": 4413, 
  "manchen": 4414, 
  "ehemalige": 4415, 
  "Werten": 4416, 
  "Mexiko": 4417, 
  "elles": 4418, 
  "gründen": 4419, 
  "zweiter": 4420, 
  "min@@": 4421, 
  "überwachen": 4422, 
  "Massen@@": 4423, 
  "National": 4424, 
  "20@@": 4425, 
  "vorliegen": 4426, 
  "gemeinsames": 4427, 
  "Symbol": 4428, 
  "definieren": 4429, 
  "sparen": 4430, 
  "Album": 4431, 
  "kennt": 4432, 
  "Le@@": 4433, 
  "Suite": 4434, 
  "Hauptbahnhof": 4435, 
  "Aufzug": 4436, 
  "os@@": 4437, 
  "JavaScript": 4438, 
  "ausüben": 4439, 
  "M-@@": 4440, 
  "solch": 4441, 
  "vorzunehmen": 4442, 
  "nutzt": 4443, 
  "renoviert": 4444, 
  "anwenden": 4445, 
  "tions@@": 4446, 
  "erteilt": 4447, 
  "zentren": 4448, 
  "steuern": 4449, 
  "Akteure": 4450, 
  "ark@@": 4451, 
  "aner": 4452, 
  "aufbauen": 4453, 
  "genauer": 4454, 
  "Verzeichnis": 4455, 
  "umso": 4456, 
  "Erlebnis": 4457, 
  "Serbien": 4458, 
  "ECU": 4459, 
  "eingeleitet": 4460, 
  "ES@@": 4461, 
  "Fern@@": 4462, 
  "Tieren": 4463, 
  "fer": 4464, 
  "Mädchen": 4465, 
  "Traditionen": 4466, 
  "nächster": 4467, 
  "reagiert": 4468, 
  "Grundlagen": 4469, 
  "Spitze": 4470, 
  "beseitigen": 4471, 
  "Holz": 4472, 
  "Auflösung": 4473, 
  "Tal": 4474, 
  "Blog": 4475, 
  "AR@@": 4476, 
  "verwendeten": 4477, 
  "Homepage": 4478, 
  "scher": 4479, 
  "Ausbau": 4480, 
  "Ku@@": 4481, 
  "melden": 4482, 
  "enger": 4483, 
  "Philosophie": 4484, 
  "Air": 4485, 
  "Zwischen@@": 4486, 
  "cken": 4487, 
  "gesellschaftlichen": 4488, 
  "bereichen": 4489, 
  "Lu@@": 4490, 
  "bearbeiten": 4491, 
  "mer": 4492, 
  "ck": 4493, 
  "Unterkünfte": 4494, 
  "liste": 4495, 
  "gr@@": 4496, 
  "ruhige": 4497, 
  "Vorsitzenden": 4498, 
  "verstehe": 4499, 
  "Berg": 4500, 
  "Drei@@": 4501, 
  "vorschriften": 4502, 
  "Wähler": 4503, 
  "Wissenschaftler": 4504, 
  "beantwortet": 4505, 
  "programmen": 4506, 
  "keineswegs": 4507, 
  "hand@@": 4508, 
  "Ausweitung": 4509, 
  "National@@": 4510, 
  "Tests": 4511, 
  "Vordergrund": 4512, 
  "Sub@@": 4513, 
  "hotel": 4514, 
  "Mängel": 4515, 
  "lädt": 4516, 
  "Räume": 4517, 
  "angenehmen": 4518, 
  "Sektors": 4519, 
  "Aussage": 4520, 
  "stell@@": 4521, 
  "umgehen": 4522, 
  "25.": 4523, 
  "mi@@": 4524, 
  "Super@@": 4525, 
  "Rad@@": 4526, 
  "Schüler": 4527, 
  "Straßen@@": 4528, 
  "isierung": 4529, 
  "Update": 4530, 
  "fahrt": 4531, 
  "teilt": 4532, 
  "Video@@": 4533, 
  "Com@@": 4534, 
  "integrierte": 4535, 
  "pro@@": 4536, 
  "Volkswirtschaften": 4537, 
  "re": 4538, 
  "alismus": 4539, 
  "Religion": 4540, 
  "Dänemark": 4541, 
  "Bildern": 4542, 
  "Strände": 4543, 
  "Th@@": 4544, 
  "Vertrags@@": 4545, 
  "tiges": 4546, 
  "offiziell": 4547, 
  "Krieges": 4548, 
  "enormen": 4549, 
  "Euch": 4550, 
  "Michael": 4551, 
  "landwirtschaftlichen": 4552, 
  "Souveränität": 4553, 
  "Prozeß": 4554, 
  "Martin": 4555, 
  "südlichen": 4556, 
  "Maria": 4557, 
  "Wohnzimmer": 4558, 
  "ständige": 4559, 
  "Bestätigung": 4560, 
  "Bücher": 4561, 
  "Annehmlichkeiten": 4562, 
  "Fl@@": 4563, 
  "organisation": 4564, 
  "5-@@": 4565, 
  "Saison": 4566, 
  "Übergang": 4567, 
  "pp@@": 4568, 
  "Wohnungen": 4569, 
  "lu@@": 4570, 
  "innovativen": 4571, 
  "1993": 4572, 
  "chte": 4573, 
  "interne": 4574, 
  "Doppelzimmer": 4575, 
  "gelassen": 4576, 
  "•": 4577, 
  "professionellen": 4578, 
  "tischer": 4579, 
  "ökologischen": 4580, 
  "löschen": 4581, 
  "Ehre": 4582, 
  "Anbetracht": 4583, 
  "entstand": 4584, 
  "Universitäten": 4585, 
  "-und": 4586, 
  "Katalog": 4587, 
  "Sonntag": 4588, 
  "erhoben": 4589, 
  "palästinensischen": 4590, 
  "messen": 4591, 
  "ER": 4592, 
  "Konvent": 4593, 
  "Pi@@": 4594, 
  "gewidmet": 4595, 
  "jährigen": 4596, 
  "Open": 4597, 
  "hilfreich": 4598, 
  "gew@@": 4599, 
  "höchst": 4600, 
  "Objekte": 4601, 
  "Support": 4602, 
  "Erwachsene": 4603, 
  "kt": 4604, 
  "Ost@@": 4605, 
  "Ru@@": 4606, 
  "effizienter": 4607, 
  "Vi@@": 4608, 
  "bar@@": 4609, 
  "lau@@": 4610, 
  "anten": 4611, 
  "Orten": 4612, 
  "Har@@": 4613, 
  "elektronische": 4614, 
  "desto": 4615, 
  "Verhandlungs@@": 4616, 
  "Gar@@": 4617, 
  "hochwertigen": 4618, 
  "reise": 4619, 
  "Entschlossenheit": 4620, 
  "kleinere": 4621, 
  "Street": 4622, 
  "ausgehen": 4623, 
  "schwedischen": 4624, 
  "konsequent": 4625, 
  "Anmerkungen": 4626, 
  "Fahrer": 4627, 
  "ungeachtet": 4628, 
  "probleme": 4629, 
  "Macht@@": 4630, 
  "erstes": 4631, 
  "Verbrauchern": 4632, 
  "Besitz": 4633, 
  "Erfolge": 4634, 
  "veröffentlichen": 4635, 
  "größter": 4636, 
  "¼": 4637, 
  "Marketing": 4638, 
  "freundlichen": 4639, 
  "Klima@@": 4640, 
  "Por@@": 4641, 
  "Existenz": 4642, 
  "1990": 4643, 
  "Motor@@": 4644, 
  "beteiligten": 4645, 
  "rate": 4646, 
  "Erreichung": 4647, 
  "vermutlich": 4648, 
  "wesen": 4649, 
  "davor": 4650, 
  "Gottes": 4651, 
  "NICHT": 4652, 
  "Dis@@": 4653, 
  "SP@@": 4654, 
  "bo@@": 4655, 
  "grenzüberschreitenden": 4656, 
  "250": 4657, 
  "Nichtraucherzimmer": 4658, 
  "Eigen@@": 4659, 
  "AS@@": 4660, 
  "Ratifizierung": 4661, 
  "räume": 4662, 
  "Sieg": 4663, 
  "Modul": 4664, 
  "bewußt": 4665, 
  "gemütliche": 4666, 
  "vollem": 4667, 
  "Ruf": 4668, 
  "fe": 4669, 
  "e-": 4670, 
  "Demokraten": 4671, 
  "herzustellen": 4672, 
  "erwiesen": 4673, 
  "Gebühren": 4674, 
  "Win@@": 4675, 
  "USS": 4676, 
  "Berufs@@": 4677, 
  "günstigen": 4678, 
  "verk@@": 4679, 
  "Aspekten": 4680, 
  "bildung": 4681, 
  "Nizza": 4682, 
  "verbreitet": 4683, 
  "Bio@@": 4684, 
  "Festival": 4685, 
  "kontrolle": 4686, 
  "str@@": 4687, 
  "Kauf@@": 4688, 
  "ang@@": 4689, 
  "lenken": 4690, 
  "Satz": 4691, 
  "Argument": 4692, 
  "Kompetenzen": 4693, 
  "stärksten": 4694, 
  "Ablauf": 4695, 
  "widmen": 4696, 
  "umfassen": 4697, 
  "Gegner": 4698, 
  "ausgegeben": 4699, 
  "37": 4700, 
  "satz": 4701, 
  "erheben": 4702, 
  "Fassung": 4703, 
  "Bezeichnung": 4704, 
  "seitdem": 4705, 
  "Schreiben": 4706, 
  "Florenz": 4707, 
  "beibehalten": 4708, 
  "Internationale": 4709, 
  "Körper@@": 4710, 
  "wege": 4711, 
  "Vorrang": 4712, 
  "Stiftung": 4713, 
  "ausländischen": 4714, 
  "Pal@@": 4715, 
  "1000": 4716, 
  "kur@@": 4717, 
  "üblichen": 4718, 
  "intensiv": 4719, 
  "rä@@": 4720, 
  "Behörde": 4721, 
  "Himmel": 4722, 
  "Konvention": 4723, 
  "bedroht": 4724, 
  "Vereinigte": 4725, 
  "Samstag": 4726, 
  "Bush": 4727, 
  "F-@@": 4728, 
  "modell": 4729, 
  "etten": 4730, 
  "Deutschlands": 4731, 
  "behörden": 4732, 
  "Werkzeug": 4733, 
  "fonds": 4734, 
  "Zusatz@@": 4735, 
  "hohes": 4736, 
  "tw@@": 4737, 
  "Inn": 4738, 
  "verurteilen": 4739, 
  "Durchsetzung": 4740, 
  "berichtet": 4741, 
  "Niederlande": 4742, 
  "steigt": 4743, 
  "31.": 4744, 
  "früh": 4745, 
  "parallel": 4746, 
  "negative": 4747, 
  "günstige": 4748, 
  "organisationen": 4749, 
  "97": 4750, 
  "falsche": 4751, 
  "Truppen": 4752, 
  "Plan@@": 4753, 
  "kombiniert": 4754, 
  "Know-how": 4755, 
  "Telefon@@": 4756, 
  "AT@@": 4757, 
  "jüngste": 4758, 
  "fahr@@": 4759, 
  "Filme": 4760, 
  "Zone": 4761, 
  "erwerben": 4762, 
  "ik": 4763, 
  "Pan@@": 4764, 
  "Volkspartei": 4765, 
  "auswählen": 4766, 
  "War@@": 4767, 
  "Klarheit": 4768, 
  "technisch": 4769, 
  "O-@@": 4770, 
  "Russlands": 4771, 
  "erteilen": 4772, 
  "maximal": 4773, 
  "Garantien": 4774, 
  "chemische": 4775, 
  "elegante": 4776, 
  "existieren": 4777, 
  "Ausbildungs@@": 4778, 
  "Zweiten": 4779, 
  "bu@@": 4780, 
  "Effekt": 4781, 
  "vertritt": 4782, 
  "bewegt": 4783, 
  "legte": 4784, 
  "anzuwenden": 4785, 
  "T-@@": 4786, 
  "befürworten": 4787, 
  "Statistiken": 4788, 
  "Prodi": 4789, 
  "Peter": 4790, 
  "oren": 4791, 
  "ziele": 4792, 
  "Slowakei": 4793, 
  "öffentlicher": 4794, 
  "überrascht": 4795, 
  "komplexe": 4796, 
  "Wichtigkeit": 4797, 
  "Kommissionspräsident": 4798, 
  "erkennt": 4799, 
  "Bestellungen": 4800, 
  "arabischen": 4801, 
  "wächst": 4802, 
  "Gold@@": 4803, 
  "unterschiedlicher": 4804, 
  "Netz@@": 4805, 
  "IWF": 4806, 
  "ehrlich": 4807, 
  "plan": 4808, 
  "derart": 4809, 
  "spiele": 4810, 
  "lösungen": 4811, 
  "ks": 4812, 
  "Runde": 4813, 
  "umgehend": 4814, 
  "fl@@": 4815, 
  "tri@@": 4816, 
  "ebene": 4817, 
  "mithilfe": 4818, 
  "spanische": 4819, 
  "modern": 4820, 
  "Gra@@": 4821, 
  "w": 4822, 
  "parlamentarischen": 4823, 
  "Ausrichtung": 4824, 
  "flexibel": 4825, 
  "Kriegs@@": 4826, 
  "regelung": 4827, 
  "holen": 4828, 
  "Häfen": 4829, 
  "OS": 4830, 
  "typisch": 4831, 
  "rü@@": 4832, 
  "ähnlichen": 4833, 
  "strukturen": 4834, 
  "erarbeitet": 4835, 
  "Ä@@": 4836, 
  "Vorgehensweise": 4837, 
  "Sekunden": 4838, 
  "av@@": 4839, 
  "alisiert": 4840, 
  "General": 4841, 
  "beweisen": 4842, 
  "Entwickler": 4843, 
  "Typ": 4844, 
  "bewertet": 4845, 
  "fehlen": 4846, 
  "respektieren": 4847, 
  "Min@@": 4848, 
  "präzise": 4849, 
  "wachsende": 4850, 
  "berühmte": 4851, 
  "No@@": 4852, 
  "wirklichen": 4853, 
  "passt": 4854, 
  "La@@": 4855, 
  "institutionelle": 4856, 
  "geleitet": 4857, 
  "Kommentare": 4858, 
  "Poker": 4859, 
  "niveau": 4860, 
  "branche": 4861, 
  "Spaziergang": 4862, 
  "Inflation": 4863, 
  "behauptet": 4864, 
  "angenehm": 4865, 
  "Entwicklungshilfe": 4866, 
  "langem": 4867, 
  "Felder": 4868, 
  "dieselbe": 4869, 
  "wechseln": 4870, 
  "Neben@@": 4871, 
  "Ton@@": 4872, 
  "Problematik": 4873, 
  "vermittelt": 4874, 
  "ausländische": 4875, 
  "24.": 4876, 
  "Soldaten": 4877, 
  "Ursache": 4878, 
  "min": 4879, 
  "Nachdruck": 4880, 
  "Ausblick": 4881, 
  "neu@@": 4882, 
  "uneingeschränkt": 4883, 
  "Gemeinden": 4884, 
  "House": 4885, 
  "ats": 4886, 
  "Festplatte": 4887, 
  "stattgefunden": 4888, 
  "jährlichen": 4889, 
  "kostenlosen": 4890, 
  "Offenheit": 4891, 
  "Wald@@": 4892, 
  "dieselben": 4893, 
  "nummer": 4894, 
  "geehrte": 4895, 
  "PHP": 4896, 
  "gefährlich": 4897, 
  "aktualisiert": 4898, 
  "auswirken": 4899, 
  "aden": 4900, 
  "NL": 4901, 
  "Hostelsclub": 4902, 
  "anzupassen": 4903, 
  "96": 4904, 
  "erheblichen": 4905, 
  "Publikum": 4906, 
  "lich@@": 4907, 
  "Kürze": 4908, 
  "Fortsetzung": 4909, 
  "gestellten": 4910, 
  "deiner": 4911, 
  "lebens@@": 4912, 
  "GAP": 4913, 
  "Paul": 4914, 
  "Abteilung": 4915, 
  "ings": 4916, 
  "Stahl@@": 4917, 
  "gem@@": 4918, 
  "Ho@@": 4919, 
  "Aussagen": 4920, 
  "Schicksal": 4921, 
  "42": 4922, 
  "Prag": 4923, 
  "bedauerlich": 4924, 
  "geringen": 4925, 
  "erleichtert": 4926, 
  "Sol@@": 4927, 
  "zeichnen": 4928, 
  "Tools": 4929, 
  "fortsetzen": 4930, 
  "Wander@@": 4931, 
  "ini": 4932, 
  "i-@@": 4933, 
  "vertrag": 4934, 
  "aller@@": 4935, 
  "zustande": 4936, 
  "geschichte": 4937, 
  "war@@": 4938, 
  "Zielsetzungen": 4939, 
  "Zuverlässigkeit": 4940, 
  "ad": 4941, 
  "deutliche": 4942, 
  "Lateinamerika": 4943, 
  "verursachen": 4944, 
  "Netze": 4945, 
  "einst": 4946, 
  "kar@@": 4947, 
  "stoff@@": 4948, 
  "Betreiber": 4949, 
  "Kenntnisse": 4950, 
  "09": 4951, 
  "Multi@@": 4952, 
  "umfangreichen": 4953, 
  "räumen": 4954, 
  "markt@@": 4955, 
  "Steigerung": 4956, 
  "wunderschöne": 4957, 
  "65": 4958, 
  "1,@@": 4959, 
  "regionaler": 4960, 
  "Einzelheiten": 4961, 
  "endgültige": 4962, 
  "Pol@@": 4963, 
  "Hände": 4964, 
  "Alternativen": 4965, 
  "Revision": 4966, 
  "Betracht": 4967, 
  "Dynamik": 4968, 
  "va": 4969, 
  "greifen": 4970, 
  "gemeinsamer": 4971, 
  "Palette": 4972, 
  "bewegung": 4973, 
  "Ausrüstung": 4974, 
  "innere": 4975, 
  "Lebensmittelsicherheit": 4976, 
  "einiges": 4977, 
  "Weine": 4978, 
  "angekündigt": 4979, 
  "vorliegt": 4980, 
  "ls": 4981, 
  "Mehr@@": 4982, 
  "Zeitplan": 4983, 
  "Nieder@@": 4984, 
  "Heimat": 4985, 
  "Beschränkungen": 4986, 
  "Wei@@": 4987, 
  "nehme": 4988, 
  "forschung": 4989, 
  "Br@@": 4990, 
  "zentraler": 4991, 
  "automatische": 4992, 
  "Gesetzes@@": 4993, 
  "4.@@": 4994, 
  "getrennt": 4995, 
  "tungs@@": 4996, 
  "entgegen@@": 4997, 
  "Wahrung": 4998, 
  "komplexen": 4999, 
  "Tauch@@": 5000, 
  "engen": 5001, 
  "Ereignis": 5002, 
  "decken": 5003, 
  "begegnen": 5004, 
  "medizinische": 5005, 
  "projekte": 5006, 
  "Menschheit": 5007, 
  "hal@@": 5008, 
  "07": 5009, 
  "fährt": 5010, 
  "Jugend@@": 5011, 
  "standen": 5012, 
  "Debian-@@": 5013, 
  "Bewusstsein": 5014, 
  "ersch@@": 5015, 
  "ku@@": 5016, 
  "Chancengleichheit": 5017, 
  "verwiesen": 5018, 
  "Minderheit": 5019, 
  "Würde": 5020, 
  "Such@@": 5021, 
  "sterben": 5022, 
  "atoren": 5023, 
  "Fleisch": 5024, 
  "RE@@": 5025, 
  "Anwendungs@@": 5026, 
  "Inhalten": 5027, 
  "ll@@": 5028, 
  "Werkzeuge": 5029, 
  "Georgien": 5030, 
  "00@@": 5031, 
  "problem": 5032, 
  "erforderliche": 5033, 
  "erwähnten": 5034, 
  "derselben": 5035, 
  "Elektro@@": 5036, 
  "realisiert": 5037, 
  "Internetzugang": 5038, 
  "nicht@@": 5039, 
  "CO@@": 5040, 
  "ich@@": 5041, 
  "chen@@": 5042, 
  "Versprechen": 5043, 
  "tatsächlichen": 5044, 
  "alis@@": 5045, 
  "punkte": 5046, 
  "Plätze": 5047, 
  "Do@@": 5048, 
  "gestartet": 5049, 
  "könne": 5050, 
  "Bus@@": 5051, 
  "leichte": 5052, 
  "Autor": 5053, 
  "jährige": 5054, 
  "Ausnahmen": 5055, 
  "zugestimmt": 5056, 
  "leistet": 5057, 
  "tungen": 5058, 
  "Übernahme": 5059, 
  "anerkennen": 5060, 
  "verschaffen": 5061, 
  "by": 5062, 
  "Lehrer": 5063, 
  "Kan@@": 5064, 
  "Mu@@": 5065, 
  "th": 5066, 
  "sogenannte": 5067, 
  "Venedig": 5068, 
  "erweisen": 5069, 
  "setzte": 5070, 
  "Ministerpräsident": 5071, 
  "vorsieht": 5072, 
  "Lern@@": 5073, 
  "iges": 5074, 
  "endet": 5075, 
  "österreichischen": 5076, 
  "Wal@@": 5077, 
  "Übersicht": 5078, 
  "park": 5079, 
  "Reinigung": 5080, 
  "Basis@@": 5081, 
  "ierter": 5082, 
  "staaten": 5083, 
  "stein": 5084, 
  "ce": 5085, 
  "Bürokratie": 5086, 
  "wider": 5087, 
  "Taten": 5088, 
  "übermitteln": 5089, 
  "Lieferanten": 5090, 
  "ann@@": 5091, 
  "1989": 5092, 
  "Drogen": 5093, 
  "formuliert": 5094, 
  "einander": 5095, 
  "ett": 5096, 
  "verabschieden": 5097, 
  "see": 5098, 
  "Star@@": 5099, 
  "gemütlichen": 5100, 
  "§": 5101, 
  "eres": 5102, 
  "zwölf": 5103, 
  "Sam@@": 5104, 
  "Seele": 5105, 
  "4-@@": 5106, 
  "Erarbeitung": 5107, 
  "kurzer": 5108, 
  "einzig": 5109, 
  "Glauben": 5110, 
  "mehr@@": 5111, 
  "technischer": 5112, 
  "à": 5113, 
  "go@@": 5114, 
  "verzichten": 5115, 
  "abend": 5116, 
  "Eröffnung": 5117, 
  "verb@@": 5118, 
  "ausgehend": 5119, 
  "Zentral@@": 5120, 
  "leg@@": 5121, 
  "Abfall@@": 5122, 
  "Strom@@": 5123, 
  "Innen": 5124, 
  "erarbeiten": 5125, 
  "Abbau": 5126, 
  "beinahe": 5127, 
  "Liberalen": 5128, 
  "eröffnen": 5129, 
  "angenommenen": 5130, 
  "Im@@": 5131, 
  "Aufhebung": 5132, 
  "Strom": 5133, 
  "Nichtraucherzonen": 5134, 
  "Verfahrens": 5135, 
  "EU@@": 5136, 
  "Bas@@": 5137, 
  "Ad@@": 5138, 
  "D-@@": 5139, 
  "vier@@": 5140, 
  "ist@@": 5141, 
  "Obama": 5142, 
  "Sand@@": 5143, 
  "Verordnungen": 5144, 
  "freier": 5145, 
  "fi@@": 5146, 
  "befürwortet": 5147, 
  "erlangen": 5148, 
  "nahmen": 5149, 
  "eindeutige": 5150, 
  "geeigneten": 5151, 
  "lösung": 5152, 
  "Tabak@@": 5153, 
  "niedrigen": 5154, 
  "Netzwerk@@": 5155, 
  "anpassen": 5156, 
  "moderner": 5157, 
  "ausgestattete": 5158, 
  "maschine": 5159, 
  "22.": 5160, 
  "Pro": 5161, 
  "38": 5162, 
  "geringer": 5163, 
  "Mischung": 5164, 
  "E-Mail-Adresse": 5165, 
  "Weltkrieg": 5166, 
  "Bauern": 5167, 
  "zen@@": 5168, 
  "gingen": 5169, 
  "eleganten": 5170, 
  "120": 5171, 
  "Herkunft": 5172, 
  "gh@@": 5173, 
  "Australien": 5174, 
  "Gesicht": 5175, 
  "Händen": 5176, 
  "Benutzer@@": 5177, 
  "betrieb": 5178, 
  "Hardware": 5179, 
  "sicherheit": 5180, 
  "San@@": 5181, 
  "höchster": 5182, 
  "mitteln": 5183, 
  "ursprüngliche": 5184, 
  "bezeichnen": 5185, 
  "Atom@@": 5186, 
  "zugelassen": 5187, 
  "Hohe": 5188, 
  "vermieden": 5189, 
  "Prozess@@": 5190, 
  "Zunahme": 5191, 
  "Motor": 5192, 
  "methoden": 5193, 
  "wechsel": 5194, 
  "gang": 5195, 
  "verarbeitet": 5196, 
  "Privatsphäre": 5197, 
  "ft@@": 5198, 
  "ank@@": 5199, 
  "genießt": 5200, 
  "Zerstörung": 5201, 
  "verwaltung": 5202, 
  "wa@@": 5203, 
  "gering": 5204, 
  "Produktivität": 5205, 
  "erstreckt": 5206, 
  "hiermit": 5207, 
  "1991": 5208, 
  "Werbe@@": 5209, 
  "sprachen": 5210, 
  "religiösen": 5211, 
  "spätestens": 5212, 
  "Nachmittag": 5213, 
  "richtlinie": 5214, 
  "Terroristen": 5215, 
  "S.": 5216, 
  "Burg": 5217, 
  "Wiederherstellung": 5218, 
  "Südafrika": 5219, 
  "ierende": 5220, 
  "Rechner": 5221, 
  "integrieren": 5222, 
  "Export@@": 5223, 
  "eigentliche": 5224, 
  "Euro@@": 5225, 
  "gewünschte": 5226, 
  "Wettbewerbs@@": 5227, 
  "Ausgrenzung": 5228, 
  "russische": 5229, 
  "esten": 5230, 
  "nicht-@@": 5231, 
  "vereint": 5232, 
  "maximale": 5233, 
  "Wettbewerbs": 5234, 
  "co@@": 5235, 
  "Kennzeichnung": 5236, 
  "programms": 5237, 
  "X-@@": 5238, 
  "Email": 5239, 
  "za": 5240, 
  "Western": 5241, 
  "š@@": 5242, 
  "Bürgerbeauftragten": 5243, 
  "Formulierung": 5244, 
  "Menschenrechtsverletzungen": 5245, 
  "gegenseitigen": 5246, 
  "karten": 5247, 
  "raten": 5248, 
  "gelangt": 5249, 
  "aufgeführt": 5250, 
  "Ges@@": 5251, 
  "Modus": 5252, 
  "Umstände": 5253, 
  "Begründung": 5254, 
  "2012": 5255, 
  "IM@@": 5256, 
  "trat": 5257, 
  "Rechnungshof": 5258, 
  "geringe": 5259, 
  "Verabschiedung": 5260, 
  "Lissabon-Strategie": 5261, 
  "eure": 5262, 
  "gehabt": 5263, 
  "weiten": 5264, 
  "wahre": 5265, 
  "geschickt": 5266, 
  "retten": 5267, 
  "empfängt": 5268, 
  "sam@@": 5269, 
  "iere": 5270, 
  "weite": 5271, 
  "Software-@@": 5272, 
  "Updates": 5273, 
  "Abgeordneter": 5274, 
  "¶": 5275, 
  "interessanten": 5276, 
  "digen": 5277, 
  "Kapazität": 5278, 
  "2013": 5279, 
  "700": 5280, 
  "Verbraucher@@": 5281, 
  "Erhalt": 5282, 
  "software": 5283, 
  "Lager": 5284, 
  "einstellen": 5285, 
  "relevanten": 5286, 
  "geschäft": 5287, 
  "Anreize": 5288, 
  "Finanzierungs@@": 5289, 
  "Funktionalität": 5290, 
  "funktionen": 5291, 
  "dahin": 5292, 
  "aufgestellt": 5293, 
  "Lizenz@@": 5294, 
  "Finanzen": 5295, 
  "ant@@": 5296, 
  "zone": 5297, 
  "ändert": 5298, 
  "durchzusetzen": 5299, 
  "Klimawandels": 5300, 
  "elten": 5301, 
  "gef@@": 5302, 
  "Immobilien@@": 5303, 
  "Radio": 5304, 
  "om": 5305, 
  "Go@@": 5306, 
  "jeglicher": 5307, 
  "feste": 5308, 
  "kleineren": 5309, 
  "Mittwoch": 5310, 
  "est": 5311, 
  "Zimmer@@": 5312, 
  "Händler": 5313, 
  "abgeben": 5314, 
  "Kredit@@": 5315, 
  "Anträge": 5316, 
  "steuer@@": 5317, 
  "Original@@": 5318, 
  "erlassen": 5319, 
  "Ausbeutung": 5320, 
  "5.@@": 5321, 
  "Großen": 5322, 
  "08": 5323, 
  "Fremdenverkehr": 5324, 
  "anzeigen": 5325, 
  "Rückgang": 5326, 
  "Einnahmen": 5327, 
  "industriellen": 5328, 
  "gem": 5329, 
  "bezogen": 5330, 
  "les": 5331, 
  "Reg@@": 5332, 
  "kritischen": 5333, 
  "mittlere": 5334, 
  "III": 5335, 
  "Hel@@": 5336, 
  "Sh@@": 5337, 
  "basieren": 5338, 
  "0,@@": 5339, 
  "medizinischen": 5340, 
  "Chi@@": 5341, 
  "Module": 5342, 
  "Meinungen": 5343, 
  "wertvolle": 5344, 
  "komfortablen": 5345, 
  "Bitte": 5346, 
  "Handlungen": 5347, 
  "Gewinn": 5348, 
  "Schuld": 5349, 
  "Tor": 5350, 
  "Wälder": 5351, 
  "plötzlich": 5352, 
  "tag": 5353, 
  "Datei@@": 5354, 
  "gerechtfertigt": 5355, 
  "isch@@": 5356, 
  "Gruppen@@": 5357, 
  "istische": 5358, 
  "Fisch": 5359, 
  "Verfolgung": 5360, 
  "Golf@@": 5361, 
  "sonstige": 5362, 
  "Kl@@": 5363, 
  "23.": 5364, 
  "su@@": 5365, 
  "me@@": 5366, 
  "nieder@@": 5367, 
  "Zürich": 5368, 
  "vertraut": 5369, 
  "informationen": 5370, 
  "RO": 5371, 
  "Wünschen": 5372, 
  "Ja": 5373, 
  "endgültigen": 5374, 
  "Fischereipolitik": 5375, 
  "\\": 5376, 
  "beruhen": 5377, 
  "Stufe": 5378, 
  "Amerikas": 5379, 
  "39": 5380, 
  "Funktionieren": 5381, 
  "späteren": 5382, 
  "12.00": 5383, 
  "gelegenen": 5384, 
  "Plaza": 5385, 
  "Angabe": 5386, 
  "res@@": 5387, 
  "überwacht": 5388, 
  "ssen": 5389, 
  "net": 5390, 
  "Empfang": 5391, 
  "schlechte": 5392, 
  "el-@@": 5393, 
  "Jugendliche": 5394, 
  "problemlos": 5395, 
  "externe": 5396, 
  "hielt": 5397, 
  "etz@@": 5398, 
  "rechtlich": 5399, 
  "ausreichende": 5400, 
  "polnischen": 5401, 
  "einführen": 5402, 
  "eck@@": 5403, 
  "absolute": 5404, 
  "Fuß@@": 5405, 
  "sagten": 5406, 
  "Versuche": 5407, 
  "ett@@": 5408, 
  "no": 5409, 
  "haft": 5410, 
  "diesmal": 5411, 
  "--": 5412, 
  "eter": 5413, 
  "Währungs@@": 5414, 
  "Brücke": 5415, 
  "ard": 5416, 
  "Wieder@@": 5417, 
  "rau@@": 5418, 
  "Gr@@": 5419, 
  "dargelegt": 5420, 
  "einstimmig": 5421, 
  "for@@": 5422, 
  "Landes@@": 5423, 
  "Fakten": 5424, 
  "detaillierte": 5425, 
  "fanden": 5426, 
  "abgegeben": 5427, 
  "kostenfrei": 5428, 
  "gültig": 5429, 
  "linien": 5430, 
  "Mag@@": 5431, 
  "alisieren": 5432, 
  "az@@": 5433, 
  "USD": 5434, 
  "Pres@@": 5435, 
  "Fahrzeug": 5436, 
  "organisierte": 5437, 
  "Menschenrechten": 5438, 
  "Schw@@": 5439, 
  "ablehnen": 5440, 
  "gesichert": 5441, 
  "unterscheidet": 5442, 
  "Energiequellen": 5443, 
  "Objekt": 5444, 
  "Außenminister": 5445, 
  "-Software": 5446, 
  "verstärkte": 5447, 
  "Zusammensetzung": 5448, 
  "Beratungen": 5449, 
  "funktion": 5450, 
  "passen": 5451, 
  "bad": 5452, 
  "Beurteilung": 5453, 
  "Erzeugung": 5454, 
  "US@@": 5455, 
  "To@@": 5456, 
  "zahl": 5457, 
  "öffnet": 5458, 
  "grenzen": 5459, 
  "inneren": 5460, 
  "GNU": 5461, 
  "ge-@@": 5462, 
  "Belastung": 5463, 
  "Spektrum": 5464, 
  "len@@": 5465, 
  "Hilfs@@": 5466, 
  "schwieriger": 5467, 
  "organisierten": 5468, 
  "eingeladen": 5469, 
  "blieb": 5470, 
  "Summe": 5471, 
  "bus": 5472, 
  "zt": 5473, 
  "Kuba": 5474, 
  "Airport": 5475, 
  "schenken": 5476, 
  "Zahn@@": 5477, 
  "Regional@@": 5478, 
  "effizienten": 5479, 
  "Ferienwohnungen": 5480, 
  "angebotenen": 5481, 
  "reg@@": 5482, 
  "passieren": 5483, 
  "Vertrieb": 5484, 
  "Clubs": 5485, 
  "empfiehlt": 5486, 
  "werke": 5487, 
  "inakzeptabel": 5488, 
  "geplanten": 5489, 
  "ierungs@@": 5490, 
  "Osteuropa": 5491, 
  "IC@@": 5492, 
  "gebunden": 5493, 
  "Events": 5494, 
  "Spitzen@@": 5495, 
  "gehandelt": 5496, 
  "streng": 5497, 
  "Media": 5498, 
  "Schnittstelle": 5499, 
  "israelischen": 5500, 
  "Beamten": 5501, 
  "gelingen": 5502, 
  "Halb@@": 5503, 
  "Spannungen": 5504, 
  "ältere": 5505, 
  "beschleunigen": 5506, 
  "Y": 5507, 
  "Via": 5508, 
  "Ski@@": 5509, 
  "Card": 5510, 
  "zugute": 5511, 
  "Theorie": 5512, 
  "quellen": 5513, 
  "hi@@": 5514, 
  "ara": 5515, 
  "Met@@": 5516, 
  "Verlängerung": 5517, 
  "Drogen@@": 5518, 
  "Gewinne": 5519, 
  "rahmen": 5520, 
  "schreibt": 5521, 
  "Logik": 5522, 
  "Schutzes": 5523, 
  "Gel@@": 5524, 
  "sprache": 5525, 
  "Marokko": 5526, 
  "fte": 5527, 
  "Milch@@": 5528, 
  "Wel@@": 5529, 
  "Alt@@": 5530, 
  "dauern": 5531, 
  "Erwägung": 5532, 
  "passende": 5533, 
  "Anzeige": 5534, 
  "Referendum": 5535, 
  "AD@@": 5536, 
  "Steuerzahler": 5537, 
  "wasser@@": 5538, 
  "Beschwerden": 5539, 
  "beschreibt": 5540, 
  "verliehen": 5541, 
  "typische": 5542, 
  "Nutz@@": 5543, 
  "ärmsten": 5544, 
  "gebe": 5545, 
  "beeinflusst": 5546, 
  "obgleich": 5547, 
  "ven": 5548, 
  "Nation": 5549, 
  "Rotary": 5550, 
  "günstig": 5551, 
  "unterwegs": 5552, 
  "Dach@@": 5553, 
  "hängen": 5554, 
  "he": 5555, 
  "Präsentation": 5556, 
  "Auto@@": 5557, 
  "Bewohner": 5558, 
  "up@@": 5559, 
  "ften": 5560, 
  "Einschränkungen": 5561, 
  "fort@@": 5562, 
  "Syrien": 5563, 
  "ren@@": 5564, 
  "prozesse": 5565, 
  "lieben": 5566, 
  "Wesen": 5567, 
  "NRO": 5568, 
  "gebildet": 5569, 
  "Ergänzung": 5570, 
  "tätigen": 5571, 
  "gebraucht": 5572, 
  "investiert": 5573, 
  "43": 5574, 
  "ativen": 5575, 
  "Ju@@": 5576, 
  "vereinbarten": 5577, 
  "hr@@": 5578, 
  "nahme": 5579, 
  "vorgehen": 5580, 
  "weitaus": 5581, 
  "plätze": 5582, 
  "Rahmenbedingungen": 5583, 
  "Betrug": 5584, 
  "gewinnt": 5585, 
  "krise": 5586, 
  "Anbindung": 5587, 
  "Mas@@": 5588, 
  "beschließen": 5589, 
  "Verletzungen": 5590, 
  "mar@@": 5591, 
  "eintreten": 5592, 
  "Börse": 5593, 
  "m2": 5594, 
  "unver@@": 5595, 
  "projekt": 5596, 
  "Pflichten": 5597, 
  "CH@@": 5598, 
  "vo@@": 5599, 
  "Feststellung": 5600, 
  "kurzfristig": 5601, 
  "br@@": 5602, 
  "unk@@": 5603, 
  "Tr@@": 5604, 
  "einnehmen": 5605, 
  "Text@@": 5606, 
  "Verfasser": 5607, 
  "Lohn@@": 5608, 
  "Getränke": 5609, 
  "Arbeitsgruppe": 5610, 
  "Gebäuden": 5611, 
  "eingeräumt": 5612, 
  "ernsthafte": 5613, 
  "ph@@": 5614, 
  "с@@": 5615, 
  "49": 5616, 
  "Seiten@@": 5617, 
  "Einschätzung": 5618, 
  "ki": 5619, 
  "eigentlichen": 5620, 
  "Leiter": 5621, 
  "Polizei@@": 5622, 
  "Minibar": 5623, 
  "Ordner": 5624, 
  "dige": 5625, 
  "Phänomen": 5626, 
  "Drittstaaten": 5627, 
  "Türen": 5628, 
  "nachhaltig": 5629, 
  "Weltwirtschaft": 5630, 
  "Anwesenheit": 5631, 
  "gelegene": 5632, 
  "kg": 5633, 
  "B-@@": 5634, 
  "Tabelle": 5635, 
  "Föderation": 5636, 
  "Vertretung": 5637, 
  "Washington": 5638, 
  "tende": 5639, 
  "gebühren": 5640, 
  "ausschuss": 5641, 
  "stützen": 5642, 
  "Migration": 5643, 
  "Einwanderer": 5644, 
  "aussehen": 5645, 
  "kontinuierlich": 5646, 
  "zurückzu@@": 5647, 
  "Sach@@": 5648, 
  "meistens": 5649, 
  "Haushalts": 5650, 
  "Web-@@": 5651, 
  "Mengen": 5652, 
  "Raum@@": 5653, 
  "Küsten@@": 5654, 
  "lokaler": 5655, 
  "Inkrafttreten": 5656, 
  "fach@@": 5657, 
  "ek": 5658, 
  "versehen": 5659, 
  "angeblich": 5660, 
  "Val@@": 5661, 
  "bedienen": 5662, 
  "Geschäften": 5663, 
  "Bühne": 5664, 
  "erneuerbaren": 5665, 
  "ausführlich": 5666, 
  "Ser@@": 5667, 
  "Mehrwert": 5668, 
  "Back@@": 5669, 
  "Glas": 5670, 
  "führten": 5671, 
  "Airbus": 5672, 
  "teilzunehmen": 5673, 
  "Grundsätzen": 5674, 
  "Produzenten": 5675, 
  "gleichwohl": 5676, 
  "ass@@": 5677, 
  "Haushalte": 5678, 
  "son@@": 5679, 
  "44": 5680, 
  "dr@@": 5681, 
  "26.": 5682, 
  "schw@@": 5683, 
  "englischen": 5684, 
  "Grünbuch": 5685, 
  "beliebigen": 5686, 
  "bekanntlich": 5687, 
  "schen@@": 5688, 
  "k-@@": 5689, 
  "tor": 5690, 
  "bisschen": 5691, 
  "Euro-@@": 5692, 
  "Te@@": 5693, 
  "Konferenzen": 5694, 
  "gerechte": 5695, 
  "Los": 5696, 
  "teuer": 5697, 
  "Europe": 5698, 
  "ang": 5699, 
  "gaben": 5700, 
  "verzeichnen": 5701, 
  "gesammelt": 5702, 
  "alleine": 5703, 
  "Arbeitgeber": 5704, 
  "ins@@": 5705, 
  "respektiert": 5706, 
  "tiven": 5707, 
  "immerhin": 5708, 
  "Unternehmer": 5709, 
  "spielte": 5710, 
  "24-Stunden-Rezeption": 5711, 
  "Sommer@@": 5712, 
  "Gebühr": 5713, 
  "gan@@": 5714, 
  "geistigen": 5715, 
  "ane": 5716, 
  "erfasst": 5717, 
  "Friedens": 5718, 
  "vernünftige": 5719, 
  "kommerziellen": 5720, 
  "ordnungsgemäß": 5721, 
  "Rezession": 5722, 
  "Emissions@@": 5723, 
  "derjenigen": 5724, 
  "geschafft": 5725, 
  "demokratischer": 5726, 
  "Rußland": 5727, 
  "Beschluß": 5728, 
  "verpflichten": 5729, 
  "würdigen": 5730, 
  "kom@@": 5731, 
  "bedauere": 5732, 
  "Ausschüsse": 5733, 
  "modernes": 5734, 
  "Mil@@": 5735, 
  "eigenem": 5736, 
  "ub@@": 5737, 
  "Konzentration": 5738, 
  "age": 5739, 
  "SV": 5740, 
  "beruflichen": 5741, 
  "bestimmungen": 5742, 
  "All@@": 5743, 
  "è@@": 5744, 
  "enes": 5745, 
  "Aufnahmen": 5746, 
  "Steuer": 5747, 
  "ausgewählten": 5748, 
  "Wald": 5749, 
  "85": 5750, 
  "verwirklichen": 5751, 
  "29.": 5752, 
  "Gärten": 5753, 
  "0.@@": 5754, 
  "Fans": 5755, 
  "EL": 5756, 
  "Ausübung": 5757, 
  "op": 5758, 
  "Medi@@": 5759, 
  "Zucker@@": 5760, 
  "erörtert": 5761, 
  "teil@@": 5762, 
  "erweiterten": 5763, 
  "41": 5764, 
  "vergeben": 5765, 
  "bewirken": 5766, 
  "Termin": 5767, 
  "breit": 5768, 
  "erer": 5769, 
  "schaften": 5770, 
  "Lounge": 5771, 
  "-K@@": 5772, 
  "tin": 5773, 
  "Prüf@@": 5774, 
  "ov@@": 5775, 
  "konstruktive": 5776, 
  "Bur@@": 5777, 
  "spar@@": 5778, 
  "Medikamente": 5779, 
  "wohl@@": 5780, 
  "User": 5781, 
  "Beitritts@@": 5782, 
  "Einsatz@@": 5783, 
  "Ü@@": 5784, 
  "ür@@": 5785, 
  "registrieren": 5786, 
  "Wetter": 5787, 
  "drängen": 5788, 
  "herum": 5789, 
  "gehe": 5790, 
  "Million": 5791, 
  "schließe": 5792, 
  "Lin@@": 5793, 
  "Sitzungen": 5794, 
  "Charme": 5795, 
  "Sti@@": 5796, 
  "unterbrochen": 5797, 
  "begründet": 5798, 
  "unterbreiten": 5799, 
  "He@@": 5800, 
  "Saal": 5801, 
  "Edition": 5802, 
  "sonstigen": 5803, 
  "Balkan": 5804, 
  "werten": 5805, 
  "verbesserte": 5806, 
  "bestens": 5807, 
  "Mittelmeer": 5808, 
  "feiern": 5809, 
  "jemals": 5810, 
  "Konfiguration": 5811, 
  "kritische": 5812, 
  "Pat@@": 5813, 
  "grenzüberschreitende": 5814, 
  "fortgesetzt": 5815, 
  "fairen": 5816, 
  "andernfalls": 5817, 
  "Rassismus": 5818, 
  "vernünftig": 5819, 
  "Sonnen@@": 5820, 
  "erbaut": 5821, 
  "x-@@": 5822, 
  "ier": 5823, 
  "Unterzeichnung": 5824, 
  "Besteuerung": 5825, 
  "gefährden": 5826, 
  "druck@@": 5827, 
  "Thomas": 5828, 
  "Richter": 5829, 
  "technologische": 5830, 
  "Operation": 5831, 
  "Entscheidungs@@": 5832, 
  "normale": 5833, 
  "ante": 5834, 
  "bewiesen": 5835, 
  "Gas": 5836, 
  "zeigte": 5837, 
  "Verteidigungspolitik": 5838, 
  "Gentoo": 5839, 
  "Struktur@@": 5840, 
  "oberen": 5841, 
  "Gipfeltreffen": 5842, 
  "wirksamen": 5843, 
  "ton": 5844, 
  "Wind": 5845, 
  "ic": 5846, 
  "Geb@@": 5847, 
  "ohnehin": 5848, 
  "Äußerungen": 5849, 
  "prä@@": 5850, 
  "in-@@": 5851, 
  "Krisen": 5852, 
  "Rubrik": 5853, 
  "Geräten": 5854, 
  "Leuten": 5855, 
  "gestiegen": 5856, 
  "David": 5857, 
  "George": 5858, 
  "Gal@@": 5859, 
  "Anhörung": 5860, 
  "erwähnte": 5861, 
  "angelegt": 5862, 
  "Profil": 5863, 
  "Bergen": 5864, 
  "Pension": 5865, 
  "Kräften": 5866, 
  "ehr@@": 5867, 
  "ßen": 5868, 
  "beizutragen": 5869, 
  "Hof": 5870, 
  "zunehmende": 5871, 
  "RO@@": 5872, 
  "menge": 5873, 
  "Energiepolitik": 5874, 
  "Rot@@": 5875, 
  "eingeschränkt": 5876, 
  "zielt": 5877, 
  "Stand@@": 5878, 
  "gung": 5879, 
  "ai@@": 5880, 
  "Gerichten": 5881, 
  "einzugehen": 5882, 
  "Merkmale": 5883, 
  "Erbe": 5884, 
  "Unsicherheit": 5885, 
  "Metall@@": 5886, 
  "tiefe": 5887, 
  "28.": 5888, 
  "Des@@": 5889, 
  "angenehme": 5890, 
  "realen": 5891, 
  "Global": 5892, 
  "voneinander": 5893, 
  "tierte": 5894, 
  "Bildschirm": 5895, 
  "wartet": 5896, 
  "Bet@@": 5897, 
  "Verluste": 5898, 
  "bearbeitet": 5899, 
  "dig": 5900, 
  "Tur@@": 5901, 
  "netz": 5902, 
  "gut@@": 5903, 
  "trennen": 5904, 
  "Cal@@": 5905, 
  "super": 5906, 
  "Konstruktion": 5907, 
  "bilateralen": 5908, 
  "aktualisieren": 5909, 
  "m-@@": 5910, 
  "bl@@": 5911, 
  "konzipiert": 5912, 
  "stand@@": 5913, 
  "Kreativität": 5914, 
  "Hu@@": 5915, 
  "mel@@": 5916, 
  "womit": 5917, 
  "Unterlagen": 5918, 
  "Bewältigung": 5919, 
  "Robert": 5920, 
  "nachdenken": 5921, 
  "Traum": 5922, 
  "vorbehalten": 5923, 
  "schrittweise": 5924, 
  "losigkeit": 5925, 
  "Techniken": 5926, 
  "spüren": 5927, 
  "Ein": 5928, 
  "transparent": 5929, 
  "Beschäftigten": 5930, 
  "angefangen": 5931, 
  "Safe": 5932, 
  "schule": 5933, 
  "Filter": 5934, 
  "gelernt": 5935, 
  "Konzepte": 5936, 
  "hundert": 5937, 
  "dauer": 5938, 
  "Handel@@": 5939, 
  "angewiesen": 5940, 
  "ierungen": 5941, 
  "eigen@@": 5942, 
  "Image": 5943, 
  "Gi@@": 5944, 
  "Fehler@@": 5945, 
  "dein": 5946, 
  "Gespräch": 5947, 
  "eck": 5948, 
  "tliche": 5949, 
  "tro@@": 5950, 
  "flexible": 5951, 
  "vorhin": 5952, 
  "Kapazitäten": 5953, 
  "Tool": 5954, 
  "tigkeit": 5955, 
  "verwalten": 5956, 
  "förderung": 5957, 
  "Vorgaben": 5958, 
  "übermittelt": 5959, 
  "Abstimmungen": 5960, 
  "Boot": 5961, 
  "Muster": 5962, 
  "fügen": 5963, 
  "Unterhaltung": 5964, 
  "Übereinkommens": 5965, 
  "ren": 5966, 
  "Prävention": 5967, 
  "Bes@@": 5968, 
  "Schwer@@": 5969, 
  "Distribution": 5970, 
  "Dienst@@": 5971, 
  "spiegelt": 5972, 
  "sei@@": 5973, 
  "mp@@": 5974, 
  "keinesfalls": 5975, 
  "EM@@": 5976, 
  "erg@@": 5977, 
  "Alpen": 5978, 
  "ore": 5979, 
  "Industrie@@": 5980, 
  "aufgerufen": 5981, 
  "Im": 5982, 
  "ee": 5983, 
  "ethnischen": 5984, 
  "einhalten": 5985, 
  "ologischen": 5986, 
  "getötet": 5987, 
  "Rennen": 5988, 
  "ev@@": 5989, 
  "Van": 5990, 
  "Missbrauch": 5991, 
  "strenge": 5992, 
  "Angriffe": 5993, 
  "zunehmenden": 5994, 
  "demokratisch": 5995, 
  "geräten": 5996, 
  "schl@@": 5997, 
  "Si@@": 5998, 
  "Aktivität": 5999, 
  "Raums": 6000, 
  "Vorfeld": 6001, 
  "lichsten": 6002, 
  "Verfassungs@@": 6003, 
  "Datenschutz": 6004, 
  "Wind@@": 6005, 
  "gefährliche": 6006, 
  "Besch@@": 6007, 
  "At@@": 6008, 
  "Herrschaft": 6009, 
  "vers@@": 6010, 
  "Umsatz": 6011, 
  "assen": 6012, 
  "staat": 6013, 
  "unterbreitet": 6014, 
  "Gesch@@": 6015, 
  "Güter": 6016, 
  "Bahn@@": 6017, 
  "ungsh@@": 6018, 
  "Fluggesellschaften": 6019, 
  "irische": 6020, 
  "zeichen": 6021, 
  "Client": 6022, 
  "stein@@": 6023, 
  "fu@@": 6024, 
  "enz": 6025, 
  "Konkurrenz": 6026, 
  "zahlt": 6027, 
  "Subsidiarität": 6028, 
  "beurteilen": 6029, 
  "EC@@": 6030, 
  "Marken@@": 6031, 
  "vergleichen": 6032, 
  "Fernseher": 6033, 
  "Lasten": 6034, 
  "schlimmer": 6035, 
  "Katastrophen": 6036, 
  "dienstleistungen": 6037, 
  "Regionalpolitik": 6038, 
  "Speicher@@": 6039, 
  "technologischen": 6040, 
  "nbsp": 6041, 
  "komfortabel": 6042, 
  "Bett": 6043, 
  "endgültig": 6044, 
  "Köln": 6045, 
  "treiben": 6046, 
  "Gepäckraum": 6047, 
  "plan@@": 6048, 
  "gewisser": 6049, 
  "Büros": 6050, 
  "übergeben": 6051, 
  "globaler": 6052, 
  "an-@@": 6053, 
  "05": 6054, 
  "Französisch": 6055, 
  "Trend": 6056, 
  "interessieren": 6057, 
  "begleiten": 6058, 
  "of@@": 6059, 
  "unerlässlich": 6060, 
  "Kirchen": 6061, 
  "Alltag": 6062, 
  "stoffen": 6063, 
  "beiträgt": 6064, 
  "zwingen": 6065, 
  "lebenden": 6066, 
  "erfolgte": 6067, 
  "Bezahlung": 6068, 
  "erörtern": 6069, 
  "Versicherungs@@": 6070, 
  "Intervention": 6071, 
  "ruhiger": 6072, 
  "Transaktionen": 6073, 
  "elte": 6074, 
  "Vis@@": 6075, 
  "Protokolls": 6076, 
  "erläutern": 6077, 
  "erreichte": 6078, 
  "voran": 6079, 
  "inbegriffen": 6080, 
  "Shop": 6081, 
  "dungs@@": 6082, 
  "lauf@@": 6083, 
  "kritisiert": 6084, 
  "preis@@": 6085, 
  "derartigen": 6086, 
  "Verteidigungs@@": 6087, 
  "tete": 6088, 
  "ratifiziert": 6089, 
  "02": 6090, 
  "anlässlich": 6091, 
  "enttäuscht": 6092, 
  "basis": 6093, 
  "märkte": 6094, 
  "sicherer": 6095, 
  "ET@@": 6096, 
  "Flugzeuge": 6097, 
  "Zuständigkeiten": 6098, 
  "46": 6099, 
  "fällen": 6100, 
  "gu@@": 6101, 
  "Höchst@@": 6102, 
  "erneuerbare": 6103, 
  "esen": 6104, 
  "gefährlichen": 6105, 
  "Mac": 6106, 
  "verfahrens": 6107, 
  "Betroffenen": 6108, 
  "registriert": 6109, 
  "Studium": 6110, 
  "Handy": 6111, 
  "Bahn": 6112, 
  "Schlaf@@": 6113, 
  "Dritter": 6114, 
  "Royal": 6115, 
  "ausschuß": 6116, 
  "Lernen": 6117, 
  "Art.": 6118, 
  "anstelle": 6119, 
  "Dienstleistung": 6120, 
  "son": 6121, 
  "West": 6122, 
  "Medizin": 6123, 
  "Flugzeug": 6124, 
  "tig@@": 6125, 
  "örtlichen": 6126, 
  "realisieren": 6127, 
  "Portal": 6128, 
  "Waffen@@": 6129, 
  "ermutigen": 6130, 
  "Ha@@": 6131, 
  "ve": 6132, 
  "ast@@": 6133, 
  "Wille": 6134, 
  "Marina": 6135, 
  "gewünscht": 6136, 
  "IS": 6137, 
  "og@@": 6138, 
  "herrliche": 6139, 
  "angeschlossen": 6140, 
  "ko": 6141, 
  "ausführen": 6142, 
  "Mi@@": 6143, 
  "Eigenschaft": 6144, 
  "nah": 6145, 
  "27.": 6146, 
  "Lehren": 6147, 
  "erinnere": 6148, 
  "Log@@": 6149, 
  "Training": 6150, 
  "größerer": 6151, 
  "Kol@@": 6152, 
  "Optimierung": 6153, 
  "Bedienung": 6154, 
  "Arbeitsbedingungen": 6155, 
  "Tro@@": 6156, 
  "Subventionen": 6157, 
  "Frühjahr": 6158, 
  "erzielten": 6159, 
  "arbeitete": 6160, 
  "Pf@@": 6161, 
  "Gefängnis": 6162, 
  "ha": 6163, 
  "Anweisungen": 6164, 
  "Immobilien": 6165, 
  "falschen": 6166, 
  "RA@@": 6167, 
  "д@@": 6168, 
  "Strand@@": 6169, 
  "Hektar": 6170, 
  "Überarbeitung": 6171, 
  "Stock": 6172, 
  "entscheidet": 6173, 
  "Moskau": 6174, 
  "namens": 6175, 
  "orientiert": 6176, 
  "rechtfertigen": 6177, 
  "klären": 6178, 
  "berufliche": 6179, 
  "51": 6180, 
  "ade": 6181, 
  "ica": 6182, 
  "Hinter@@": 6183, 
  "Linien": 6184, 
  "version": 6185, 
  "schalten": 6186, 
  "ierenden": 6187, 
  "unzureichend": 6188, 
  "Gipfels": 6189, 
  "64": 6190, 
  "bevorstehenden": 6191, 
  "Far@@": 6192, 
  "mu@@": 6193, 
  "Sony": 6194, 
  "Ministerrat": 6195, 
  "äl@@": 6196, 
  "zog": 6197, 
  "oh@@": 6198, 
  "Halle": 6199, 
  "aum": 6200, 
  "Me@@": 6201, 
  "gegenseitige": 6202, 
  "grundlegender": 6203, 
  "gutem": 6204, 
  "erläutert": 6205, 
  "solide": 6206, 
  "Beach": 6207, 
  "Bewertungen": 6208, 
  "schlechten": 6209, 
  "Zimmerservice": 6210, 
  "vielfältigen": 6211, 
  "Dienstleistungs@@": 6212, 
  "Gegenwart": 6213, 
  "Gleich@@": 6214, 
  "Heimatland": 6215, 
  "bist": 6216, 
  "mündlichen": 6217, 
  "Palästinenser": 6218, 
  "ausgelöst": 6219, 
  "Patent@@": 6220, 
  "Bewegungen": 6221, 
  "herstellen": 6222, 
  "ökologische": 6223, 
  "Vermittlung": 6224, 
  "bekräftigt": 6225, 
  "win@@": 6226, 
  "Beste": 6227, 
  "lehnen": 6228, 
  "ausserdem": 6229, 
  "Lehre": 6230, 
  "Karten@@": 6231, 
  "tierten": 6232, 
  "Tief@@": 6233, 
  "ches": 6234, 
  "Ferien": 6235, 
  "Aktualisierung": 6236, 
  "fra@@": 6237, 
  "Besuchern": 6238, 
  "Adobe": 6239, 
  "vertrauen": 6240, 
  "cht@@": 6241, 
  "Jo@@": 6242, 
  "verwöhnen": 6243, 
  "gesunden": 6244, 
  "eri@@": 6245, 
  "schönes": 6246, 
  "kritisch": 6247, 
  "Foto@@": 6248, 
  "Abschluß": 6249, 
  "Fußball@@": 6250, 
  "tausend": 6251, 
  "wenigstens": 6252, 
  "fin@@": 6253, 
  "ordnung": 6254, 
  "Fu@@": 6255, 
  "Attraktionen": 6256, 
  "Reaktionen": 6257, 
  "-System": 6258, 
  "Verträgen": 6259, 
  "negativ": 6260, 
  "Vorsitzender": 6261, 
  "Spezialisten": 6262, 
  "klassische": 6263, 
  "Einkommens@@": 6264, 
  "buch": 6265, 
  "vorn": 6266, 
  "agentur": 6267, 
  "Anregungen": 6268, 
  "Lauf@@": 6269, 
  "Verantwortlichen": 6270, 
  "abends": 6271, 
  "Pflege": 6272, 
  "Karriere": 6273, 
  "Bilanz": 6274, 
  "Gesprächen": 6275, 
  "Partner@@": 6276, 
  "loser": 6277, 
  "beschreiben": 6278, 
  "Ka@@": 6279, 
  "Motto": 6280, 
  "gewiss": 6281, 
  "nutzbar": 6282, 
  "teilgenommen": 6283, 
  "Besitzer": 6284, 
  "Renn@@": 6285, 
  "Realisierung": 6286, 
  "eingebunden": 6287, 
  "umwelt@@": 6288, 
  "bedenken": 6289, 
  "sta@@": 6290, 
  "Israels": 6291, 
  "verständlich": 6292, 
  "Fer@@": 6293, 
  "riesigen": 6294, 
  "mor@@": 6295, 
  "Vereinigung": 6296, 
  "Wild@@": 6297, 
  "Tragödie": 6298, 
  "Putin": 6299, 
  "exklusiven": 6300, 
  "Referenz@@": 6301, 
  "Gewerkschaften": 6302, 
  "gend": 6303, 
  "Hotelsafe": 6304, 
  "ignoriert": 6305, 
  "Fahrzeug@@": 6306, 
  "irgendwelche": 6307, 
  "verwaltet": 6308, 
  "starkes": 6309, 
  "schützt": 6310, 
  "Mittelmeerraum": 6311, 
  "Erzeuger": 6312, 
  "umgekehrt": 6313, 
  "Kom@@": 6314, 
  "mes": 6315, 
  "50@@": 6316, 
  "My@@": 6317, 
  "Ra@@": 6318, 
  "geholfen": 6319, 
  "03": 6320, 
  "Zufriedenheit": 6321, 
  "exklusive": 6322, 
  "Amtszeit": 6323, 
  "Kopf@@": 6324, 
  "brechen": 6325, 
  "teten": 6326, 
  "Island": 6327, 
  "wozu": 6328, 
  "Unterdrückung": 6329, 
  "Wachstums@@": 6330, 
  "Lebensqualität": 6331, 
  "06": 6332, 
  "Bon@@": 6333, 
  "fern": 6334, 
  "Urlaubs@@": 6335, 
  "internationales": 6336, 
  "wal@@": 6337, 
  "Hügel": 6338, 
  "üblich": 6339, 
  "Ben@@": 6340, 
  "gratis": 6341, 
  "deutscher": 6342, 
  "News": 6343, 
  "wofür": 6344, 
  "daneben": 6345, 
  "anz": 6346, 
  "haltung": 6347, 
  "Weiterbildung": 6348, 
  "alternative": 6349, 
  "ess@@": 6350, 
  "glaubt": 6351, 
  "Canon": 6352, 
  "Kat@@": 6353, 
  "Metern": 6354, 
  "einzubeziehen": 6355, 
  "burg": 6356, 
  "Poly@@": 6357, 
  "Ein-": 6358, 
  "52": 6359, 
  "analysieren": 6360, 
  "tt@@": 6361, 
  "Lebensmitteln": 6362, 
  "fliegen": 6363, 
  "lohnt": 6364, 
  "Miet@@": 6365, 
  "EL@@": 6366, 
  "gemeinschaft": 6367, 
  "stoff": 6368, 
  "är": 6369, 
  "Vergnügen": 6370, 
  "erworben": 6371, 
  "mobile": 6372, 
  "beträchtliche": 6373, 
  "ausschusses": 6374, 
  "Dek@@": 6375, 
  "Haushaltsplans": 6376, 
  "ehe": 6377, 
  "Professor": 6378, 
  "Einzelnen": 6379, 
  "jeweilige": 6380, 
  "Anhang": 6381, 
  "Strasse": 6382, 
  "eingerichtete": 6383, 
  "basierend": 6384, 
  "Foundation": 6385, 
  "Kurse": 6386, 
  "Mazedonien": 6387, 
  "suche": 6388, 
  "Aufforderung": 6389, 
  "größe": 6390, 
  "getreten": 6391, 
  "Autoren": 6392, 
  "mitgeteilt": 6393, 
  "Garten@@": 6394, 
  "un": 6395, 
  "lä@@": 6396, 
  "freundliches": 6397, 
  "post@@": 6398, 
  "Dreh@@": 6399, 
  "region": 6400, 
  "Konsultation": 6401, 
  "fiel": 6402, 
  "Armen": 6403, 
  "station": 6404, 
  "Litauen": 6405, 
  "Verkaufs@@": 6406, 
  "Gerichtshofs": 6407, 
  "weißen": 6408, 
  "Pu@@": 6409, 
  "ner@@": 6410, 
  "Export": 6411, 
  "Beruf": 6412, 
  "riesige": 6413, 
  "orientierten": 6414, 
  "einzuhalten": 6415, 
  "Office": 6416, 
  "uren": 6417, 
  "ven@@": 6418, 
  "Erkenntnisse": 6419, 
  "leitung": 6420, 
  "Tal@@": 6421, 
  "Finanzmittel": 6422, 
  "wirft": 6423, 
  "Genuss": 6424, 
  "geführten": 6425, 
  "Hafen@@": 6426, 
  "Straf@@": 6427, 
  "sches": 6428, 
  "Tschechischen": 6429, 
  "Bade@@": 6430, 
  "Branchen": 6431, 
  "angeben": 6432, 
  "igkeit": 6433, 
  "reine": 6434, 
  "Best@@": 6435, 
  "1,5": 6436, 
  "tel@@": 6437, 
  "seiten": 6438, 
  "Industri@@": 6439, 
  "Einschränkung": 6440, 
  "zumal": 6441, 
  "Touren": 6442, 
  "vereinfachen": 6443, 
  "berichte": 6444, 
  "handel": 6445, 
  "Luxus": 6446, 
  "Rand": 6447, 
  "Ufer": 6448, 
  "Tempo": 6449, 
  "gesetz": 6450, 
  "Empfänger": 6451, 
  "bedauerlicherweise": 6452, 
  "Wi@@": 6453, 
  "ernste": 6454, 
  "teren": 6455, 
  "stecken": 6456, 
  "Schatten": 6457, 
  "jahr": 6458, 
  "erb@@": 6459, 
  "Galerie": 6460, 
  "niederländischen": 6461, 
  "mündliche": 6462, 
  "nötigen": 6463, 
  "Verk@@": 6464, 
  "Sozialdemokraten": 6465, 
  "hört": 6466, 
  "Übersetzungen": 6467, 
  "ors": 6468, 
  "и": 6469, 
  "zukünftig": 6470, 
  "flächen": 6471, 
  "plus": 6472, 
  "klarer": 6473, 
  "Arzt": 6474, 
  "Instruments": 6475, 
  "tra@@": 6476, 
  "Mel@@": 6477, 
  "gesunde": 6478, 
  "Ratsvorsitzes": 6479, 
  "Gro@@": 6480, 
  "ausgewogenen": 6481, 
  "Appartement": 6482, 
  "einziges": 6483, 
  "zurückkehren": 6484, 
  "kor@@": 6485, 
  "vorkommen": 6486, 
  "ungsverfahren": 6487, 
  "Nor@@": 6488, 
  "einzelner": 6489, 
  "geln": 6490, 
  "ó@@": 6491, 
  "genehmigt": 6492, 
  "Abstand": 6493, 
  "Sonn@@": 6494, 
  "MB": 6495, 
  "sor@@": 6496, 
  "echt": 6497, 
  "Men@@": 6498, 
  "Ecke": 6499, 
  "Analysen": 6500, 
  "schi@@": 6501, 
  "längst": 6502, 
  "einzigartig": 6503, 
  "ungst@@": 6504, 
  "ure": 6505, 
  "Servic@@": 6506, 
  "erei": 6507, 
  "Port": 6508, 
  "einheit": 6509, 
  "Gewinner": 6510, 
  "Dublin": 6511, 
  "schrieb": 6512, 
  "tan@@": 6513, 
  "ai": 6514, 
  "us-@@": 6515, 
  "ff": 6516, 
  "Führungs@@": 6517, 
  "gemessen": 6518, 
  "Rande": 6519, 
  "Pri@@": 6520, 
  "Tourismus@@": 6521, 
  "kommerzielle": 6522, 
  "grüne": 6523, 
  "2.0": 6524, 
  "beider": 6525, 
  "Arzneimittel": 6526, 
  "Herberge": 6527, 
  "Centre": 6528, 
  "Entwicklungszusammenarbeit": 6529, 
  "Performance": 6530, 
  "Finanzmärkte": 6531, 
  "Start@@": 6532, 
  "Cas@@": 6533, 
  "Seen": 6534, 
  "Pre@@": 6535, 
  "denselben": 6536, 
  "es-@@": 6537, 
  "ließen": 6538, 
  "verehrten": 6539, 
  "Weltbank": 6540, 
  "lichkeiten": 6541, 
  "gn@@": 6542, 
  "Datenschutz@@": 6543, 
  "auswärtige": 6544, 
  "mieten": 6545, 
  "Studien@@": 6546, 
  "zwanzig": 6547, 
  "Arbeiter": 6548, 
  "ed": 6549, 
  "schnelles": 6550, 
  "Wachstums": 6551, 
  "aufweisen": 6552, 
  "Heiligen": 6553, 
  "Frauen@@": 6554, 
  "zuverlässig": 6555, 
  "Komplettpreise": 6556, 
  "ältesten": 6557, 
  "bild@@": 6558, 
  "Berichterstattern": 6559, 
  "G-@@": 6560, 
  "Gol@@": 6561, 
  "enorm": 6562, 
  "Auslegung": 6563, 
  "Aktien": 6564, 
  "Abenteuer": 6565, 
  "Instrumenten": 6566, 
  "Rahmenprogramm": 6567, 
  "Investition": 6568, 
  "intensive": 6569, 
  "blicken": 6570, 
  "Kr@@": 6571, 
  "Libanon": 6572, 
  "kompatibel": 6573, 
  "Haup@@": 6574, 
  "Anreise": 6575, 
  "iertes": 6576, 
  "amtierender": 6577, 
  "Park@@": 6578, 
  "gäbe": 6579, 
  "Sowjetunion": 6580, 
  "sa": 6581, 
  "ID": 6582, 
  "vierten": 6583, 
  "Transfer": 6584, 
  "jährliche": 6585, 
  "engagiert": 6586, 
  "eingerichteten": 6587, 
  "vorherige": 6588, 
  "japanischen": 6589, 
  "gefällt": 6590, 
  "überlegen": 6591, 
  "Ter@@": 6592, 
  "äußerster": 6593, 
  "ya": 6594, 
  "que": 6595, 
  "Rund@@": 6596, 
  "konferenz": 6597, 
  "zielen": 6598, 
  "Lang@@": 6599, 
  "fs": 6600, 
  "nah@@": 6601, 
  "Dem@@": 6602, 
  "MS": 6603, 
  "gewöhnlich": 6604, 
  "sub@@": 6605, 
  "sämtlichen": 6606, 
  "gesellschaftliche": 6607, 
  "Papier@@": 6608, 
  "Fragestunde": 6609, 
  "Hamas": 6610, 
  "Marktwirtschaft": 6611, 
  "kompletten": 6612, 
  "Flotte": 6613, 
  "befürworte": 6614, 
  "durchgeführten": 6615, 
  "überwiegend": 6616, 
  "vorherigen": 6617, 
  "ökonomischen": 6618, 
  "begangen": 6619, 
  "sektors": 6620, 
  "reich@@": 6621, 
  "halb@@": 6622, 
  "idealen": 6623, 
  "Kontakt@@": 6624, 
  "OR@@": 6625, 
  "Flash": 6626, 
  "unterhalten": 6627, 
  "Absichten": 6628, 
  "Inhaber": 6629, 
  "längere": 6630, 
  "qualifizierte": 6631, 
  "vorsichtig": 6632, 
  "Vizepräsident": 6633, 
  "frisch": 6634, 
  "Schiff@@": 6635, 
  "Sitz@@": 6636, 
  "begeistert": 6637, 
  "Tochter": 6638, 
  "Verstärkung": 6639, 
  "Bro@@": 6640, 
  "ata": 6641, 
  "Ausfahrt": 6642, 
  "orientierte": 6643, 
  "ktion": 6644, 
  "Scheitern": 6645, 
  "gebilligt": 6646, 
  "Sound": 6647, 
  "letztes": 6648, 
  "Roh@@": 6649, 
  "lungen": 6650, 
  "verhandeln": 6651, 
  "verschiedensten": 6652, 
  "deinen": 6653, 
  "wür@@": 6654, 
  "iten": 6655, 
  "länder": 6656, 
  "akzeptabel": 6657, 
  "Effekte": 6658, 
  "EU-Ebene": 6659, 
  "si": 6660, 
  "Malta": 6661, 
  "mal@@": 6662, 
  "felder": 6663, 
  "verkauf": 6664, 
  "Mer@@": 6665, 
  "effektiver": 6666, 
  "stu@@": 6667, 
  "Mallorca": 6668, 
  "v.": 6669, 
  "Europol": 6670, 
  "beeinträchtigt": 6671, 
  "Kohärenz": 6672, 
  "Quoten": 6673, 
  "übersetzt": 6674, 
  "Wiener": 6675, 
  "gegenseitig": 6676, 
  "Feld@@": 6677, 
  "inger": 6678, 
  "Gewinn@@": 6679, 
  "Budget": 6680, 
  "Verkäufer": 6681, 
  "ella": 6682, 
  "verglichen": 6683, 
  "Ta@@": 6684, 
  "wenngleich": 6685, 
  "angehen": 6686, 
  "Einwohnern": 6687, 
  "durchsetzen": 6688, 
  "Dach": 6689, 
  "schaden": 6690, 
  "Col@@": 6691, 
  "ou": 6692, 
  "Schwimmbad": 6693, 
  "Spar@@": 6694, 
  "band": 6695, 
  "Jugoslawien": 6696, 
  "ey": 6697, 
  "Geschäftsbedingungen": 6698, 
  "gleicher": 6699, 
  "AC@@": 6700, 
  "fahrten": 6701, 
  "Wartung": 6702, 
  "arbeits@@": 6703, 
  "Bedingung": 6704, 
  "beseitigt": 6705, 
  "Tickets": 6706, 
  "ada": 6707, 
  "tik@@": 6708, 
  "Ferien@@": 6709, 
  "abzielen": 6710, 
  "ungarischen": 6711, 
  "habt": 6712, 
  "Politik@@": 6713, 
  "theit": 6714, 
  "rasche": 6715, 
  "Diensten": 6716, 
  "aufgehoben": 6717, 
  "vielfältige": 6718, 
  "err@@": 6719, 
  "Budapest": 6720, 
  "schlage": 6721, 
  "nung": 6722, 
  "asi@@": 6723, 
  "gs": 6724, 
  "heim": 6725, 
  "untergraben": 6726, 
  "idealer": 6727, 
  "ün@@": 6728, 
  "Bosnien": 6729, 
  "ausgelegt": 6730, 
  "Feuer@@": 6731, 
  "por@@": 6732, 
  "Rahmen@@": 6733, 
  "od@@": 6734, 
  "Ausstellungen": 6735, 
  "Implementierung": 6736, 
  "Vorsitzende": 6737, 
  "Opfern": 6738, 
  "č@@": 6739, 
  "versetzt": 6740, 
  "unterliegt": 6741, 
  "Betriebssystem": 6742, 
  "Koordination": 6743, 
  "Heil@@": 6744, 
  "amp@@": 6745, 
  "54": 6746, 
  "Flüge": 6747, 
  "asse": 6748, 
  "Perspektiven": 6749, 
  "Mat@@": 6750, 
  "mt": 6751, 
  "neueste": 6752, 
  "Ti@@": 6753, 
  "Reich": 6754, 
  "ets": 6755, 
  "tenden": 6756, 
  "einzelstaatlichen": 6757, 
  "friedlichen": 6758, 
  "Massage": 6759, 
  "co": 6760, 
  "gewählte": 6761, 
  "stärkeren": 6762, 
  "eingereichten": 6763, 
  "strengen": 6764, 
  "Nahrungsmittel@@": 6765, 
  "klasse": 6766, 
  "bek@@": 6767, 
  "finanziell": 6768, 
  "führender": 6769, 
  "gefangen": 6770, 
  "Islam": 6771, 
  "Tel@@": 6772, 
  "Las": 6773, 
  "komplex": 6774, 
  "Partnerschaften": 6775, 
  "Jahrzehnte": 6776, 
  "zusammenzuarbeiten": 6777, 
  "unteren": 6778, 
  "niedriger": 6779, 
  "6-@@": 6780, 
  "vermögen": 6781, 
  "Entstehung": 6782, 
  "ME@@": 6783, 
  "kosten@@": 6784, 
  "Design@@": 6785, 
  "Ursprung": 6786, 
  "behörde": 6787, 
  "harte": 6788, 
  "fälle": 6789, 
  "ative": 6790, 
  "le-@@": 6791, 
  "gro@@": 6792, 
  "uner@@": 6793, 
  "Kommissare": 6794, 
  "basierte": 6795, 
  "vierte": 6796, 
  "hof": 6797, 
  "Verhältnisse": 6798, 
  "Entschließungen": 6799, 
  "auszuüben": 6800, 
  "Eigentümer": 6801, 
  "Anhänger": 6802, 
  "Pa@@": 6803, 
  "aufeinander": 6804, 
  "konstruktiven": 6805, 
  "Software@@": 6806, 
  "zahlreicher": 6807, 
  "Java": 6808, 
  "verleiht": 6809, 
  "verstoßen": 6810, 
  "worauf": 6811, 
  "errichten": 6812, 
  "leidet": 6813, 
  "fähigen": 6814, 
  "Gesetzes": 6815, 
  "verschieben": 6816, 
  "Fil@@": 6817, 
  "Textes": 6818, 
  "nennt": 6819, 
  "einzurichten": 6820, 
  "47": 6821, 
  "Archiv": 6822, 
  "schlechter": 6823, 
  "Fang@@": 6824, 
  "Trends": 6825, 
  "les@@": 6826, 
  "Augen@@": 6827, 
  "Bl@@": 6828, 
  "Berater": 6829, 
  "Internetseite": 6830, 
  "portugiesischen": 6831, 
  "LE@@": 6832, 
  "zw@@": 6833, 
  "effektiven": 6834, 
  "lern": 6835, 
  "Verzögerungen": 6836, 
  "konzept": 6837, 
  "Slowenien": 6838, 
  "Ernährung": 6839, 
  "situation": 6840, 
  "Erst@@": 6841, 
  "gekauft": 6842, 
  "regelmäßigen": 6843, 
  "Kommissionsvorschlag": 6844, 
  "verankert": 6845, 
  "sieren": 6846, 
  "diensten": 6847, 
  "Kathedrale": 6848, 
  "irgendeiner": 6849, 
  "Temperaturen": 6850, 
  "bedauern": 6851, 
  "Halbinsel": 6852, 
  "Puerto": 6853, 
  "ni@@": 6854, 
  "Beobachter": 6855, 
  "Beendigung": 6856, 
  "Flug": 6857, 
  "Ereignissen": 6858, 
  "kt@@": 6859, 
  "biologischen": 6860, 
  "Aufwand": 6861, 
  "setzung": 6862, 
  "Ankündigung": 6863, 
  "ori@@": 6864, 
  "Eine": 6865, 
  "stes": 6866, 
  "verbindung": 6867, 
  "Besonderheiten": 6868, 
  "türkische": 6869, 
  "ac": 6870, 
  "Show": 6871, 
  "Organen": 6872, 
  "chs": 6873, 
  "personenbezogenen": 6874, 
  "Zivil@@": 6875, 
  "Palästina": 6876, 
  "Taiwan": 6877, 
  "Lager@@": 6878, 
  "nützliche": 6879, 
  "kommende": 6880, 
  "geteilt": 6881, 
  "Fehl@@": 6882, 
  "aufrechterhalten": 6883, 
  "sion@@": 6884, 
  "Air@@": 6885, 
  "inn@@": 6886, 
  "wünschenswert": 6887, 
  "ländern": 6888, 
  "analysiert": 6889, 
  "ausführliche": 6890, 
  "Gelegenheiten": 6891, 
  "PDF": 6892, 
  "herzlichen": 6893, 
  "ley": 6894, 
  "belegt": 6895, 
  "Verzögerung": 6896, 
  "ba": 6897, 
  "Randlage": 6898, 
  "Vorbereitungen": 6899, 
  "stoßen": 6900, 
  "schwerer": 6901, 
  "gerechten": 6902, 
  "Nacht@@": 6903, 
  "ns": 6904, 
  "Gran": 6905, 
  "cke": 6906, 
  "sions@@": 6907, 
  "zahlungen": 6908, 
  "genen": 6909, 
  "Sar@@": 6910, 
  "Temperatur": 6911, 
  "eignen": 6912, 
  "seh@@": 6913, 
  "Ausgang": 6914, 
  "Ne@@": 6915, 
  "Auseinandersetzung": 6916, 
  "Mehrwertsteuer": 6917, 
  "Geschenk": 6918, 
  "liegende": 6919, 
  "Weißbuch": 6920, 
  "ro": 6921, 
  "bereitzustellen": 6922, 
  "lichste": 6923, 
  "gender": 6924, 
  "AM@@": 6925, 
  "Konflikts": 6926, 
  "klares": 6927, 
  "wünscht": 6928, 
  "zunehmen": 6929, 
  "в@@": 6930, 
  "tal": 6931, 
  "lt": 6932, 
  "gefasst": 6933, 
  "einmalige": 6934, 
  "Direkt@@": 6935, 
  "Einheiten": 6936, 
  "Dienstag": 6937, 
  "Fi@@": 6938, 
  "landwirtschaftliche": 6939, 
  "Regel@@": 6940, 
  "Arbeitsweise": 6941, 
  "droht": 6942, 
  "Touristen@@": 6943, 
  "strasse": 6944, 
  "bekanntesten": 6945, 
  "7-@@": 6946, 
  "Res@@": 6947, 
  "Material@@": 6948, 
  "Stabilitäts-": 6949, 
  "frischen": 6950, 
  "parlamentarische": 6951, 
  "Tu@@": 6952, 
  "werk@@": 6953, 
  "Leit@@": 6954, 
  "angehören": 6955, 
  "möglichkeit": 6956, 
  "bedingt": 6957, 
  "Les@@": 6958, 
  "ris@@": 6959, 
  "Feuer": 6960, 
  "Gelände": 6961, 
  "paket": 6962, 
  "art@@": 6963, 
  "Regimes": 6964, 
  "best@@": 6965, 
  "ali@@": 6966, 
  "Elementen": 6967, 
  "Reihenfolge": 6968, 
  "auseinander": 6969, 
  ",00": 6970, 
  "inwieweit": 6971, 
  "fügt": 6972, 
  "Vo@@": 6973, 
  "gerufen": 6974, 
  "Tendenz": 6975, 
  "ignorieren": 6976, 
  "Cam@@": 6977, 
  "Playa": 6978, 
  "breites": 6979, 
  "Effektivität": 6980, 
  "yn@@": 6981, 
  "begreifen": 6982, 
  "wendet": 6983, 
  "traditionell": 6984, 
  "ID@@": 6985, 
  "Leidenschaft": 6986, 
  "Schnell@@": 6987, 
  "Beweise": 6988, 
  "südlich": 6989, 
  "arbeiter": 6990, 
  "Variante": 6991, 
  "Community": 6992, 
  "Inneres": 6993, 
  "Integrität": 6994, 
  "pol@@": 6995, 
  "ski": 6996, 
  "inner@@": 6997, 
  "Fehlen": 6998, 
  "Fin@@": 6999, 
  "Corporate": 7000, 
  "kr@@": 7001, 
  "glücklich": 7002, 
  "Gegenstände": 7003, 
  "nördlichen": 7004, 
  "finanzieller": 7005, 
  "Hau@@": 7006, 
  "Brand@@": 7007, 
  "tn@@": 7008, 
  "Tatsachen": 7009, 
  "MySQL": 7010, 
  "müsse": 7011, 
  "toren": 7012, 
  "langjährige": 7013, 
  "belgischen": 7014, 
  "dauerhafte": 7015, 
  "Sorgfalt": 7016, 
  "elemente": 7017, 
  "daraufhin": 7018, 
  "Menschenhandel": 7019, 
  "Legitimität": 7020, 
  "fehlende": 7021, 
  "Krisen@@": 7022, 
  "Aufruf": 7023, 
  "stabile": 7024, 
  "zutiefst": 7025, 
  "V-@@": 7026, 
  "müßte": 7027, 
  "Datenbanken": 7028, 
  "verknüpft": 7029, 
  "größtenteils": 7030, 
  "bern": 7031, 
  "zerstören": 7032, 
  "Palace": 7033, 
  "anbietet": 7034, 
  "wenigsten": 7035, 
  "junger": 7036, 
  "Express": 7037, 
  "Jahresbericht": 7038, 
  "E-Mails": 7039, 
  "Swimmingpool": 7040, 
  "unterstreicht": 7041, 
  "Kluft": 7042, 
  "ermitteln": 7043, 
  "verliert": 7044, 
  "Spuren": 7045, 
  "Gesellschafts@@": 7046, 
  "Vorwand": 7047, 
  "welt@@": 7048, 
  "niedrig": 7049, 
  "friedliche": 7050, 
  "reale": 7051, 
  "Wie": 7052, 
  "lung": 7053, 
  "tiv@@": 7054, 
  "Grafiken": 7055, 
  "Mak@@": 7056, 
  "mehrmals": 7057, 
  "Bil@@": 7058, 
  "ologische": 7059, 
  "verschoben": 7060, 
  "Hostel": 7061, 
  "umfassendes": 7062, 
  "Grün@@": 7063, 
  "Ausgleich": 7064, 
  "Aufträge": 7065, 
  "Geschlechter": 7066, 
  "Christdemokraten": 7067, 
  "Weiter@@": 7068, 
  "itäts@@": 7069, 
  "geschlossenen": 7070, 
  "kultur": 7071, 
  "ani": 7072, 
  "Diese": 7073, 
  "lauf": 7074, 
  "benannt": 7075, 
  "tur@@": 7076, 
  "Energieversorgung": 7077, 
  "gens": 7078, 
  "bereitstellen": 7079, 
  "Data": 7080, 
  "BMW": 7081, 
  "Genf": 7082, 
  "Architekten": 7083, 
  "stieg": 7084, 
  "mehrerer": 7085, 
  "besticht": 7086, 
  "geklärt": 7087, 
  "Fax": 7088, 
  "licht": 7089, 
  "Vorredner": 7090, 
  "genauen": 7091, 
  "200@@": 7092, 
  "Spielraum": 7093, 
  "Werk@@": 7094, 
  "Ap@@": 7095, 
  "lat@@": 7096, 
  "Kongress": 7097, 
  "korrigieren": 7098, 
  "Standpunkte": 7099, 
  "Trennung": 7100, 
  "unmittelbaren": 7101, 
  "beitreten": 7102, 
  "zei@@": 7103, 
  "vorne": 7104, 
  "ken@@": 7105, 
  "Zwecken": 7106, 
  "Net@@": 7107, 
  "European": 7108, 
  "Brief": 7109, 
  "Segel@@": 7110, 
  "Reichtum": 7111, 
  "hervor@@": 7112, 
  "gebühr": 7113, 
  "unterhalb": 7114, 
  "Defizite": 7115, 
  "malerischen": 7116, 
  "Dir": 7117, 
  "steckt": 7118, 
  "baut": 7119, 
  "entworfen": 7120, 
  "Hal@@": 7121, 
  "fall@@": 7122, 
  "luxuriöse": 7123, 
  "Aussichten": 7124, 
  "Begriffe": 7125, 
  "Bor@@": 7126, 
  "Skype": 7127, 
  "Resolution": 7128, 
  "Abfälle": 7129, 
  "ec": 7130, 
  "vorhandene": 7131, 
  "geltend": 7132, 
  "durchgesetzt": 7133, 
  "Grundfreiheiten": 7134, 
  "außergewöhnliche": 7135, 
  "etc": 7136, 
  "streben": 7137, 
  "DE": 7138, 
  "Übersetzungs@@": 7139, 
  "stre@@": 7140, 
  "Zugangs": 7141, 
  "dan@@": 7142, 
  "Weihnachts@@": 7143, 
  "Christen": 7144, 
  "Governance": 7145, 
  "AP@@": 7146, 
  "besseres": 7147, 
  "gewachsen": 7148, 
  "8-@@": 7149, 
  "Zulassung": 7150, 
  "volles": 7151, 
  "gelang": 7152, 
  "Eintritt": 7153, 
  "Vermeidung": 7154, 
  "gesucht": 7155, 
  "vorangegangenen": 7156, 
  "Tunesien": 7157, 
  "untereinander": 7158, 
  "Vorbild": 7159, 
  "ach": 7160, 
  "Energi@@": 7161, 
  "Mur@@": 7162, 
  "Plus": 7163, 
  "beliebten": 7164, 
  "ausgewogene": 7165, 
  "wasser": 7166, 
  "frühere": 7167, 
  "Top@@": 7168, 
  "Kernel": 7169, 
  "Termin@@": 7170, 
  "Kooperations@@": 7171, 
  "pen@@": 7172, 
  "Kredite": 7173, 
  "mark@@": 7174, 
  "optimalen": 7175, 
  "gefolgt": 7176, 
  "Hör@@": 7177, 
  "Präsidium": 7178, 
  "hinzuweisen": 7179, 
  "zwangsläufig": 7180, 
  "Ganzes": 7181, 
  "korrekte": 7182, 
  "ses": 7183, 
  "ther@@": 7184, 
  "legung": 7185, 
  "machten": 7186, 
  "University": 7187, 
  "Netzes": 7188, 
  "Informationsgesellschaft": 7189, 
  "Ernennung": 7190, 
  "quelle": 7191, 
  "gesetzlich": 7192, 
  "steigenden": 7193, 
  "Leid": 7194, 
  "verbindungen": 7195, 
  "schn@@": 7196, 
  "ona": 7197, 
  "James": 7198, 
  "asiatischen": 7199, 
  "kern": 7200, 
  "kopieren": 7201, 
  "regelmäßige": 7202, 
  "Ball@@": 7203, 
  "systematisch": 7204, 
  "ausgebaut": 7205, 
  "beliebt": 7206, 
  "Kopie": 7207, 
  "Sand": 7208, 
  "Menschen@@": 7209, 
  "verbot": 7210, 
  "sozusagen": 7211, 
  "Voraus": 7212, 
  "startet": 7213, 
  "vorrangig": 7214, 
  "Wahrscheinlichkeit": 7215, 
  "Features": 7216, 
  "Blut": 7217, 
  "üben": 7218, 
  "mü@@": 7219, 
  "Albanien": 7220, 
  "ss": 7221, 
  "Zielsetzung": 7222, 
  "los@@": 7223, 
  "beg@@": 7224, 
  "Konjunktur@@": 7225, 
  "Wechsel": 7226, 
  "Hilfen": 7227, 
  "US-Dollar": 7228, 
  "6.@@": 7229, 
  "getestet": 7230, 
  "Tipps": 7231, 
  "zulässig": 7232, 
  "kette": 7233, 
  "verfasst": 7234, 
  "mechanismus": 7235, 
  "Leistungsfähigkeit": 7236, 
  "unden": 7237, 
  "Ni@@": 7238, 
  "ausgaben": 7239, 
  "besetzt": 7240, 
  "gener@@": 7241, 
  "erweiterte": 7242, 
  "Binnenmarkts": 7243, 
  "Bri@@": 7244, 
  "aren": 7245, 
  "morgens": 7246, 
  "allmählich": 7247, 
  "WTO-@@": 7248, 
  "bin@@": 7249, 
  "übrig": 7250, 
  "religiöse": 7251, 
  "Kanal": 7252, 
  "ausgestatteten": 7253, 
  "Aktien@@": 7254, 
  "bestellt": 7255, 
  "qualifizierten": 7256, 
  "islamischen": 7257, 
  "Territorium": 7258, 
  "ah": 7259, 
  "tal@@": 7260, 
  "bezogene": 7261, 
  "Fertigung": 7262, 
  "04": 7263, 
  "gegebenen": 7264, 
  "Gleichbehandlung": 7265, 
  "zweimal": 7266, 
  "automatischen": 7267, 
  "ausgearbeitet": 7268, 
  "Eintrag": 7269, 
  "östlichen": 7270, 
  "dienst@@": 7271, 
  "warmen": 7272, 
  "Erd@@": 7273, 
  "Mitwirkung": 7274, 
  "Montage": 7275, 
  "Ratspräsidenten": 7276, 
  "kn@@": 7277, 
  "las@@": 7278, 
  "Adressen": 7279, 
  "gek@@": 7280, 
  "linge": 7281, 
  "Wurzeln": 7282, 
  "Index": 7283, 
  "bil@@": 7284, 
  "dischen": 7285, 
  "ES": 7286, 
  "tar@@": 7287, 
  "belegen": 7288, 
  "genügt": 7289, 
  "Neues": 7290, 
  "gar@@": 7291, 
  "este": 7292, 
  "Komponente": 7293, 
  "Neue": 7294, 
  "Can@@": 7295, 
  "Schrift@@": 7296, 
  "Wenn": 7297, 
  "Dor@@": 7298, 
  "AB@@": 7299, 
  "demnach": 7300, 
  "verbieten": 7301, 
  "ver": 7302, 
  "versorgung": 7303, 
  "72": 7304, 
  "Informations-": 7305, 
  "Dritt@@": 7306, 
  "Mauer": 7307, 
  "Konferenz@@": 7308, 
  "Kabel": 7309, 
  "Freien": 7310, 
  "weitergegeben": 7311, 
  "indirekt": 7312, 
  "chemischen": 7313, 
  "methode": 7314, 
  "56": 7315, 
  "glücklicherweise": 7316, 
  "Cap@@": 7317, 
  "umzu@@": 7318, 
  "Denken": 7319, 
  "gesorgt": 7320, 
  "Parlamenten": 7321, 
  "unweit": 7322, 
  "Wand@@": 7323, 
  "euer": 7324, 
  "Finanziellen": 7325, 
  "Simbabwe": 7326, 
  "Dringlichkeit": 7327, 
  "schwedische": 7328, 
  "Stadtteil": 7329, 
  "Arbeitskräfte": 7330, 
  "Schulden@@": 7331, 
  "ello": 7332, 
  "Stein": 7333, 
  "siert": 7334, 
  "diverse": 7335, 
  "Anmerkung": 7336, 
  "gehörte": 7337, 
  "dauerhaft": 7338, 
  "gültigen": 7339, 
  "runden": 7340, 
  "Mittel-": 7341, 
  "har@@": 7342, 
  "verband": 7343, 
  "kompliziert": 7344, 
  "Dar@@": 7345, 
  "aussch@@": 7346, 
  "greift": 7347, 
  "einzustellen": 7348, 
  "Juden": 7349, 
  "wahrnehmen": 7350, 
  "á": 7351, 
  "Designer": 7352, 
  "hän@@": 7353, 
  "weitem": 7354, 
  "Waren@@": 7355, 
  "id@@": 7356, 
  "Café": 7357, 
  "vorschlägt": 7358, 
  "verwirklicht": 7359, 
  "vorausgesetzt": 7360, 
  "freiheit": 7361, 
  "gesetzliche": 7362, 
  "NI": 7363, 
  "anmelden": 7364, 
  "Trek": 7365, 
  "aktivitäten": 7366, 
  "ir": 7367, 
  "industrielle": 7368, 
  "bedeutendsten": 7369, 
  "sitz": 7370, 
  "anstreben": 7371, 
  "IV": 7372, 
  "ats@@": 7373, 
  "veröffentlichten": 7374, 
  "Mail": 7375, 
  "vielfach": 7376, 
  "Whirlpool": 7377, 
  "Hol@@": 7378, 
  "Libyen": 7379, 
  "10.@@": 7380, 
  "7.@@": 7381, 
  "wunderbare": 7382, 
  "abkommen": 7383, 
  "leitet": 7384, 
  "leichten": 7385, 
  "3D-@@": 7386, 
  "Ban@@": 7387, 
  "geschätzt": 7388, 
  "vereinfacht": 7389, 
  "Dich": 7390, 
  "Berechnung": 7391, 
  "Ersatz": 7392, 
  "Gastfreundschaft": 7393, 
  "kurs": 7394, 
  "L-@@": 7395, 
  "yl@@": 7396, 
  "deutlicher": 7397, 
  "fertigen": 7398, 
  "angebote": 7399, 
  "frische": 7400, 
  "Tre@@": 7401, 
  "Kreis": 7402, 
  "tive": 7403, 
  "Argentinien": 7404, 
  "schieben": 7405, 
  "marktes": 7406, 
  "Vermarktung": 7407, 
  "Vier@@": 7408, 
  "tsp@@": 7409, 
  "Rahmens": 7410, 
  "Mühe": 7411, 
  "erschienen": 7412, 
  "tatsächliche": 7413, 
  "ED@@": 7414, 
  "denkt": 7415, 
  "Event": 7416, 
  "Stellenwert": 7417, 
  "Piazza": 7418, 
  "ž@@": 7419, 
  "Befehl": 7420, 
  "tägliche": 7421, 
  "ri": 7422, 
  "haftet": 7423, 
  "Frankreichs": 7424, 
  "reservieren": 7425, 
  "bewirkt": 7426, 
  "de-@@": 7427, 
  "Verein": 7428, 
  "besagt": 7429, 
  "tern@@": 7430, 
  "einheiten": 7431, 
  "stellten": 7432, 
  "KOM": 7433, 
  "Kommissions@@": 7434, 
  "zes": 7435, 
  "Aufrechterhaltung": 7436, 
  "häufiger": 7437, 
  "tlichen": 7438, 
  "gründlich": 7439, 
  "abgehalten": 7440, 
  "Welthandelsorganisation": 7441, 
  "gers": 7442, 
  "se-@@": 7443, 
  "Zei@@": 7444, 
  "Unternehmen@@": 7445, 
  "53": 7446, 
  "passenden": 7447, 
  "tigt": 7448, 
  "abzielt": 7449, 
  "Wohlbefinden": 7450, 
  "kat@@": 7451, 
  "Versand": 7452, 
  "Golfplatz": 7453, 
  "dro@@": 7454, 
  "Anzeichen": 7455, 
  "fühlt": 7456, 
  "Annäherung": 7457, 
  "Plat@@": 7458, 
  "Speicher": 7459, 
  "ling": 7460, 
  "analyse": 7461, 
  "PPE-DE-Fraktion": 7462, 
  "verstärkten": 7463, 
  "sion": 7464, 
  "ola": 7465, 
  "CHF": 7466, 
  "cker": 7467, 
  "überdies": 7468, 
  "Live-@@": 7469, 
  "Gefangenen": 7470, 
  "Automobilindustrie": 7471, 
  "Neuigkeiten": 7472, 
  "Boot@@": 7473, 
  "berühmt": 7474, 
  "unvergesslichen": 7475, 
  "datei": 7476, 
  "stellungen": 7477, 
  "Zinsen": 7478, 
  "Wahrnehmung": 7479, 
  "Service-@@": 7480, 
  "einbringen": 7481, 
  "großartige": 7482, 
  "Einwände": 7483, 
  "projekten": 7484, 
  "Erreichen": 7485, 
  "Konflikten": 7486, 
  "Parks": 7487, 
  "griechische": 7488, 
  "gebäude": 7489, 
  "leiter": 7490, 
  "strategien": 7491, 
  "ena": 7492, 
  "Schl@@": 7493, 
  "Nachbarschaftspolitik": 7494, 
  "herunter": 7495, 
  "finanzierung": 7496, 
  "Zusammenbruch": 7497, 
  "mache": 7498, 
  "beantragen": 7499, 
  "Sicherheits-": 7500, 
  "dateien": 7501, 
  "verbreiten": 7502, 
  "id": 7503, 
  "mangelnde": 7504, 
  "stoppen": 7505, 
  "Stahl": 7506, 
  "gezielt": 7507, 
  "Applikationen": 7508, 
  "schöner": 7509, 
  "Behinderungen": 7510, 
  "prozeß": 7511, 
  "Substanzen": 7512, 
  "schwarzen": 7513, 
  "beantragt": 7514, 
  "werken": 7515, 
  "Parlaments@@": 7516, 
  "Fel@@": 7517, 
  "ausgedrückt": 7518, 
  "musik": 7519, 
  "gewann": 7520, 
  "ziel@@": 7521, 
  "IA": 7522, 
  "Mac@@": 7523, 
  "sichert": 7524, 
  "Ärzte": 7525, 
  "benötigten": 7526, 
  "Schiffen": 7527, 
  "Statistik": 7528, 
  "fern@@": 7529, 
  "ausgenommen": 7530, 
  "Einladung": 7531, 
  "Benutzern": 7532, 
  "bemerken": 7533, 
  "viertel": 7534, 
  "realistisch": 7535, 
  "ese": 7536, 
  "Tee": 7537, 
  "vernünftigen": 7538, 
  "beeinträchtigen": 7539, 
  "ay@@": 7540, 
  "moralische": 7541, 
  "anderswo": 7542, 
  "Fristen": 7543, 
  "Kirk": 7544, 
  "dänischen": 7545, 
  "zuverlässige": 7546, 
  "Durchschnitt": 7547, 
  "att@@": 7548, 
  "Ton": 7549, 
  "tion": 7550, 
  "sport": 7551, 
  "verschwinden": 7552, 
  "Live": 7553, 
  "Zug@@": 7554, 
  "fließen": 7555, 
  "Life": 7556, 
  "ord@@": 7557, 
  "Brenn@@": 7558, 
  "gestellte": 7559, 
  "Besteller": 7560, 
  "Infrastrukturen": 7561, 
  "erschien": 7562, 
  "Standard-@@": 7563, 
  "gefühl": 7564, 
  "Nicht-@@": 7565, 
  "Indikatoren": 7566, 
  "Flu@@": 7567, 
  "hinterlassen": 7568, 
  "technologie": 7569, 
  "späten": 7570, 
  "Statut": 7571, 
  "Impulse": 7572, 
  "standards": 7573, 
  "code": 7574, 
  "Maschinen@@": 7575, 
  "kraft@@": 7576, 
  "kre@@": 7577, 
  "koordinieren": 7578, 
  "Rechnungs@@": 7579, 
  "optimieren": 7580, 
  "Kompromisse": 7581, 
  "Verfahrens@@": 7582, 
  "-Re@@": 7583, 
  "Buchungs@@": 7584, 
  "sexuellen": 7585, 
  "hinter@@": 7586, 
  "Installations@@": 7587, 
  "Umstrukturierung": 7588, 
  "multi@@": 7589, 
  "rücken": 7590, 
  "Festung": 7591, 
  "Nachteil": 7592, 
  "nachzudenken": 7593, 
  "ön@@": 7594, 
  "persönlicher": 7595, 
  "anzugehen": 7596, 
  "Projektes": 7597, 
  "Award": 7598, 
  "ch-@@": 7599, 
  "hafte": 7600, 
  "erreichten": 7601, 
  "bach": 7602, 
  "betreibt": 7603, 
  "Power": 7604, 
  "Taste": 7605, 
  "meint": 7606, 
  "gelöscht": 7607, 
  "Dörfer": 7608, 
  "anfangen": 7609, 
  "esch@@": 7610, 
  "Nationalpark": 7611, 
  "landes": 7612, 
  "Säule": 7613, 
  "fenster": 7614, 
  "Nahrungsmittel": 7615, 
  "Mes@@": 7616, 
  "Stimmung": 7617, 
  "Heim@@": 7618, 
  "nde": 7619, 
  "tim@@": 7620, 
  "geladen": 7621, 
  "Wellness": 7622, 
  "besichtigen": 7623, 
  "tolle": 7624, 
  "Zentren": 7625, 
  "tere": 7626, 
  "eil@@": 7627, 
  "erungen": 7628, 
  "q@@": 7629, 
  "Dafürhalten": 7630, 
  "Rat@@": 7631, 
  "uss@@": 7632, 
  "ausgewählte": 7633, 
  "verkehrs@@": 7634, 
  "normal": 7635, 
  "dende": 7636, 
  "Party": 7637, 
  "Demokratien": 7638, 
  "beweist": 7639, 
  "Verbindungs@@": 7640, 
  "bank": 7641, 
  "tei@@": 7642, 
  "Wil@@": 7643, 
  "Gemüse": 7644, 
  "staatlicher": 7645, 
  "Gleichheit": 7646, 
  "Diktatur": 7647, 
  "amen": 7648, 
  "kurse": 7649, 
  "eingeben": 7650, 
  "Mailand": 7651, 
  "Griff": 7652, 
  "Verkehrsmittel": 7653, 
  "öl@@": 7654, 
  "ausgeübt": 7655, 
  "Rats@@": 7656, 
  "angeführt": 7657, 
  "Einfluß": 7658, 
  "Ansätze": 7659, 
  "Gesetzen": 7660, 
  "befreien": 7661, 
  "Terror@@": 7662, 
  "agieren": 7663, 
  "materialien": 7664, 
  "Geschichten": 7665, 
  "dorf": 7666, 
  "Salzburg": 7667, 
  "Alpen@@": 7668, 
  "Vorstand": 7669, 
  "live": 7670, 
  "irgendwann": 7671, 
  "Stränden": 7672, 
  "Mode": 7673, 
  "angen": 7674, 
  "Geschäft@@": 7675, 
  "verteilen": 7676, 
  "Captain": 7677, 
  "Abwicklung": 7678, 
  "bewundern": 7679, 
  "CS": 7680, 
  "Nichtregierungsorganisationen": 7681, 
  "l-@@": 7682, 
  "Indonesien": 7683, 
  "Zeitungen": 7684, 
  "Finanz-": 7685, 
  "Kam@@": 7686, 
  "auer": 7687, 
  "View": 7688, 
  "baus": 7689, 
  "Anreiz": 7690, 
  "hinzuzufügen": 7691, 
  "Signale": 7692, 
  "Augenmerk": 7693, 
  "Zellen": 7694, 
  "begab": 7695, 
  "garten": 7696, 
  "Swiss": 7697, 
  "ion": 7698, 
  "berufen": 7699, 
  "Bedien@@": 7700, 
  "bekräftigen": 7701, 
  "bilder": 7702, 
  "Wa@@": 7703, 
  "Fokus": 7704, 
  "Orientierung": 7705, 
  "ders": 7706, 
  "saubere": 7707, 
  "Verbrauch": 7708, 
  "forderte": 7709, 
  "dementsprechend": 7710, 
  "harten": 7711, 
  "58": 7712, 
  "Original": 7713, 
  "Gesamtheit": 7714, 
  "Aufsicht": 7715, 
  "Erfolgs@@": 7716, 
  "4-Sterne-Hotel": 7717, 
  "Red": 7718, 
  "Entschädigung": 7719, 
  "IP": 7720, 
  "PSE-Fraktion": 7721, 
  "antiken": 7722, 
  "Autonomie": 7723, 
  "Künstlern": 7724, 
  "Renten@@": 7725, 
  "einsetzt": 7726, 
  "zo@@": 7727, 
  "dauerhaften": 7728, 
  "teils": 7729, 
  "Spanisch": 7730, 
  "dynamischen": 7731, 
  "Kühlschrank": 7732, 
  "richtung": 7733, 
  "behindert": 7734, 
  "Rechtssicherheit": 7735, 
  "engagieren": 7736, 
  "-Seite": 7737, 
  "Wunder": 7738, 
  "Einblick": 7739, 
  "mung": 7740, 
  "Kn@@": 7741, 
  "identifizieren": 7742, 
  "Fol@@": 7743, 
  "beglückwünsche": 7744, 
  "hab@@": 7745, 
  "s.": 7746, 
  "SCH@@": 7747, 
  "damaligen": 7748, 
  "Front": 7749, 
  "IN": 7750, 
  "dungen": 7751, 
  "rufe": 7752, 
  "vorbereiten": 7753, 
  "Handlungs@@": 7754, 
  "io": 7755, 
  "Innovations@@": 7756, 
  "rein@@": 7757, 
  "Alkohol": 7758, 
  "fünfzehn": 7759, 
  "veröffentlichte": 7760, 
  "Völkern": 7761, 
  "viertens": 7762, 
  "Herz@@": 7763, 
  "mat@@": 7764, 
  "billigen": 7765, 
  "tigsten": 7766, 
  "Stellungnahmen": 7767, 
  "Operationen": 7768, 
  "Kreuz@@": 7769, 
  "bezogenen": 7770, 
  "mechanismen": 7771, 
  "Haushaltsjahr": 7772, 
  "66": 7773, 
  "leitungen": 7774, 
  "gemeinschaftliche": 7775, 
  "Reserve": 7776, 
  "wir@@": 7777, 
  "echter": 7778, 
  "abzulehnen": 7779, 
  "ersuchen": 7780, 
  "tiefen": 7781, 
  "Internetseiten": 7782, 
  "Nero": 7783, 
  "Naturkatastrophen": 7784, 
  "Passagiere": 7785, 
  "Jahrzehnt": 7786, 
  "bt": 7787, 
  "Nord": 7788, 
  "Entschließungsanträge": 7789, 
  "mengen": 7790, 
  "Wissens@@": 7791, 
  "ter-@@": 7792, 
  "dahingehend": 7793, 
  "3D": 7794, 
  "fortzusetzen": 7795, 
  "gelegentlich": 7796, 
  "Sortiment": 7797, 
  "Teilnehmern": 7798, 
  "bemerkt": 7799, 
  "anscheinend": 7800, 
  "CDs": 7801, 
  "Partei@@": 7802, 
  "Konzert": 7803, 
  "Rio": 7804, 
  "Fra@@": 7805, 
  "voraus@@": 7806, 
  "Mari@@": 7807, 
  "isiert": 7808, 
  "Schiffs@@": 7809, 
  "XP": 7810, 
  "Beförderung": 7811, 
  "Dienstes": 7812, 
  "Fein@@": 7813, 
  "TR@@": 7814, 
  "R-@@": 7815, 
  "ever@@": 7816, 
  "Spielern": 7817, 
  "Vorbehalte": 7818, 
  "AG@@": 7819, 
  "Dat@@": 7820, 
  "adi@@": 7821, 
  "Lobby": 7822, 
  "bekam": 7823, 
  "Km": 7824, 
  "denden": 7825, 
  "Top": 7826, 
  "Räumen": 7827, 
  "dynamische": 7828, 
  "-Richtlinie": 7829, 
  "festhalten": 7830, 
  "Del@@": 7831, 
  "amm@@": 7832, 
  "Zubehör": 7833, 
  "demzufolge": 7834, 
  "Bestell@@": 7835, 
  "Redezeit": 7836, 
  "Char@@": 7837, 
  "Hunger": 7838, 
  "e.@@": 7839, 
  "ents": 7840, 
  "vorzubereiten": 7841, 
  "grundlegend": 7842, 
  "geführte": 7843, 
  "Bier": 7844, 
  "streichen": 7845, 
  "Sozialpolitik": 7846, 
  "Demokratisierung": 7847, 
  "Erneuerung": 7848, 
  "ex": 7849, 
  "Norwegen": 7850, 
  "Einbindung": 7851, 
  "UN": 7852, 
  "Mach@@": 7853, 
  "Inanspruchnahme": 7854, 
  "Projek@@": 7855, 
  "Eleganz": 7856, 
  "ernannt": 7857, 
  "hervorzuheben": 7858, 
  "Kommentar": 7859, 
  "amt": 7860, 
  "Vel@@": 7861, 
  "probieren": 7862, 
  "Büro@@": 7863, 
  "gs@@": 7864, 
  "Mobil@@": 7865, 
  "niedrige": 7866, 
  "verbindliche": 7867, 
  "buch@@": 7868, 
  "Überwachungs@@": 7869, 
  "transatlantischen": 7870, 
  "koordiniert": 7871, 
  "Entwicklungspolitik": 7872, 
  "unterstrichen": 7873, 
  "Schluß": 7874, 
  "benachrichtigt": 7875, 
  "wiederhole": 7876, 
  "Landschaften": 7877, 
  "Ac@@": 7878, 
  "zivilen": 7879, 
  "IP@@": 7880, 
  "Workshops": 7881, 
  "Anpassungen": 7882, 
  "elf": 7883, 
  "11.@@": 7884, 
  "eventuelle": 7885, 
  "diger": 7886, 
  "amtierende": 7887, 
  "bekämpft": 7888, 
  "92": 7889, 
  "behandlung": 7890, 
  "tiere": 7891, 
  "eit": 7892, 
  "gesp@@": 7893, 
  "westliche": 7894, 
  "stück": 7895, 
  "U-Bahn": 7896, 
  "wa": 7897, 
  "Fuss": 7898, 
  "erungs@@": 7899, 
  "sse": 7900, 
  "Währungen": 7901, 
  "politiken": 7902, 
  "illegal": 7903, 
  "alem": 7904, 
  "ole": 7905, 
  "Str@@": 7906, 
  "lungs@@": 7907, 
  "Versorgungs@@": 7908, 
  "Green": 7909, 
  "firmen": 7910, 
  "Vista": 7911, 
  "sal@@": 7912, 
  "therapie": 7913, 
  "Gültigkeit": 7914, 
  "eien": 7915, 
  "Jahrhunderte": 7916, 
  "Haar@@": 7917, 
  "Sen@@": 7918, 
  "Ob@@": 7919, 
  "4,@@": 7920, 
  "reform": 7921, 
  "fangen": 7922, 
  "Herstellern": 7923, 
  "arme": 7924, 
  "intelligente": 7925, 
  "Themen@@": 7926, 
  "Ostsee": 7927, 
  "SE@@": 7928, 
  "Außengrenzen": 7929, 
  "zugreifen": 7930, 
  "erfassen": 7931, 
  "Alexander": 7932, 
  "touristischen": 7933, 
  "beliebtesten": 7934, 
  "basierten": 7935, 
  "bedürfen": 7936, 
  "Funk@@": 7937, 
  "ppen": 7938, 
  "tel": 7939, 
  "erkennbar": 7940, 
  "Landwirtschafts@@": 7941, 
  "Schottland": 7942, 
  "Bra@@": 7943, 
  "Geburt": 7944, 
  "ziel": 7945, 
  "Reden": 7946, 
  "Gegebenheiten": 7947, 
  "Box": 7948, 
  "Stuttgart": 7949, 
  "Hoffnungen": 7950, 
  "8.@@": 7951, 
  "berührt": 7952, 
  "vorzuschlagen": 7953, 
  "Ganzen": 7954, 
  "attraktive": 7955, 
  "Forsch@@": 7956, 
  "Maßstab": 7957, 
  "Komplexität": 7958, 
  "möge": 7959, 
  "Literatur": 7960, 
  "max": 7961, 
  "ellem": 7962, 
  "Beitrittsverhandlungen": 7963, 
  "Virus": 7964, 
  "legislativen": 7965, 
  "erter": 7966, 
  "viel@@": 7967, 
  "abschließen": 7968, 
  "beachtet": 7969, 
  "Auftraggeber": 7970, 
  "Kernenergie": 7971, 
  "edi@@": 7972, 
  "ausmachen": 7973, 
  "ment@@": 7974, 
  "iPhone": 7975, 
  "intensiven": 7976, 
  "drehen": 7977, 
  "Hongkong": 7978, 
  "wen": 7979, 
  "extra": 7980, 
  "geachtet": 7981, 
  "Busse": 7982, 
  "Fertigungs@@": 7983, 
  "Anti-@@": 7984, 
  "amtierenden": 7985, 
  "wertvollen": 7986, 
  "englische": 7987, 
  "Rand@@": 7988, 
  "beobachtet": 7989, 
  "hilfe": 7990, 
  "fach": 7991, 
  "nt": 7992, 
  "sto@@": 7993, 
  "endem": 7994, 
  "Ansprechpartner": 7995, 
  "USB": 7996, 
  "faire": 7997, 
  "Verpackung": 7998, 
  "österreichische": 7999, 
  "tigem": 8000, 
  "Zeile": 8001, 
  "IG@@": 8002, 
  "Softwar@@": 8003, 
  "Taxi": 8004, 
  "Kameras": 8005, 
  "Stad@@": 8006, 
  "gesenkt": 8007, 
  "stabilen": 8008, 
  "erholen": 8009, 
  "bestraft": 8010, 
  "era": 8011, 
  "Konzerte": 8012, 
  "vereinbaren": 8013, 
  "kul@@": 8014, 
  "Studios": 8015, 
  "alternativen": 8016, 
  "gestrichen": 8017, 
  "Thailand": 8018, 
  "Risiko@@": 8019, 
  "sab@@": 8020, 
  "Netzwerke": 8021, 
  "Pack": 8022, 
  "erfahrenen": 8023, 
  "wert@@": 8024, 
  "lieb@@": 8025, 
  "Tibet": 8026, 
  "schien": 8027, 
  "ausgestellt": 8028, 
  "löst": 8029, 
  "Peking": 8030, 
  "Mitglieds@@": 8031, 
  "PS": 8032, 
  "Resultat": 8033, 
  "problematisch": 8034, 
  "Streitkräfte": 8035, 
  "DI@@": 8036, 
  "abzuschließen": 8037, 
  "aufweist": 8038, 
  "Nachbarschaft": 8039, 
  "mittel-": 8040, 
  "Gesundheitswesen": 8041, 
  "voranzutreiben": 8042, 
  "zuzu@@": 8043, 
  "ße": 8044, 
  "Früchte": 8045, 
  "Kaiser": 8046, 
  "sätze": 8047, 
  "Konvents": 8048, 
  "direkter": 8049, 
  "fein@@": 8050, 
  "Automobil@@": 8051, 
  "zung": 8052, 
  "verbindlich": 8053, 
  "eingesch@@": 8054, 
  "Klick": 8055, 
  "abgeschafft": 8056, 
  "wald": 8057, 
  "hel@@": 8058, 
  "ligen": 8059, 
  "sten@@": 8060, 
  "Linken": 8061, 
  "Trans@@": 8062, 
  "Landwirten": 8063, 
  "tschechischen": 8064, 
  "C.": 8065, 
  "Störungen": 8066, 
  "Zustellbetten": 8067, 
  "Kampf@@": 8068, 
  "ensystem": 8069, 
  "Fahrzeugen": 8070, 
  "römischen": 8071, 
  "57": 8072, 
  "grad": 8073, 
  "·": 8074, 
  "außergewöhnlichen": 8075, 
  "Erwerb": 8076, 
  "deckt": 8077, 
  "verlängert": 8078, 
  "hren": 8079, 
  "tisches": 8080, 
  "Wert@@": 8081, 
  "steuer": 8082, 
  "Aufenthalts@@": 8083, 
  "General@@": 8084, 
  "steigende": 8085, 
  "Ba@@": 8086, 
  "städtischen": 8087, 
  "wandern": 8088, 
  "Doppelbett": 8089, 
  "Begeisterung": 8090, 
  "Bay": 8091, 
  "grenze": 8092, 
  "Anwendungsbereich": 8093, 
  "Marketing@@": 8094, 
  "gratuliere": 8095, 
  "Off@@": 8096, 
  "Immunität": 8097, 
  "il": 8098, 
  "verschärft": 8099, 
  "Zivilisation": 8100, 
  "Konsumenten": 8101, 
  "sinn@@": 8102, 
  "dürften": 8103, 
  "Gewährung": 8104, 
  "doppelt": 8105, 
  "erzählt": 8106, 
  "Chr.": 8107, 
  "mobilen": 8108, 
  "anspruchsvolle": 8109, 
  "Ziels": 8110, 
  "Mini@@": 8111, 
  "versetzen": 8112, 
  "verweist": 8113, 
  "ruft": 8114, 
  "nahen": 8115, 
  "einzuleiten": 8116, 
  "dorthin": 8117, 
  "Board": 8118, 
  "modernsten": 8119, 
  "Kühl@@": 8120, 
  "mus": 8121, 
  "59": 8122, 
  "Besetzung": 8123, 
  "massive": 8124, 
  ".-": 8125, 
  "vorzu@@": 8126, 
  "Bruder": 8127, 
  "Italiens": 8128, 
  "Kindes": 8129, 
  "Is@@": 8130, 
  "Möbel": 8131, 
  "Persönlichkeiten": 8132, 
  "Pas@@": 8133, 
  "Forscher": 8134, 
  "enheit": 8135, 
  "ausgerüstet": 8136, 
  "Kanäle": 8137, 
  "geschmackvoll": 8138, 
  "ker@@": 8139, 
  "irgendeine": 8140, 
  "Pin@@": 8141, 
  "Buchstaben": 8142, 
  "mes@@": 8143, 
  "Richtigkeit": 8144, 
  "As@@": 8145, 
  "Hunderte": 8146, 
  "starker": 8147, 
  "Mobile": 8148, 
  "geschwindigkeit": 8149, 
  "gendes": 8150, 
  "On@@": 8151, 
  "Autorität": 8152, 
  "Insel@@": 8153, 
  "wahl": 8154, 
  "angemessener": 8155, 
  "Beträge": 8156, 
  "unzählige": 8157, 
  "diversen": 8158, 
  "fair": 8159, 
  "Airlines": 8160, 
  "Telekommunikations@@": 8161, 
  "kreative": 8162, 
  "Ungleichheit": 8163, 
  "rat@@": 8164, 
  "süd@@": 8165, 
  "hinein": 8166, 
  "begrenzte": 8167, 
  "Kreatur": 8168, 
  "diesbezüglichen": 8169, 
  "bereitgestellten": 8170, 
  "Acht": 8171, 
  "empf@@": 8172, 
  "Problem@@": 8173, 
  "info": 8174, 
  "Obst": 8175, 
  "sozial": 8176, 
  "Kapitalismus": 8177, 
  "züge": 8178, 
  "listen": 8179, 
  "Moldau": 8180, 
  "5,@@": 8181, 
  "zugeben": 8182, 
  "abgesch@@": 8183, 
  "schuldig": 8184, 
  "blockiert": 8185, 
  "iste": 8186, 
  "Abend@@": 8187, 
  "geräumigen": 8188, 
  "zögern": 8189, 
  "Bundesrepublik": 8190, 
  "sämtlicher": 8191, 
  "fragt": 8192, 
  "Milch": 8193, 
  "Minimum": 8194, 
  "esp@@": 8195, 
  "gemachten": 8196, 
  "Apple": 8197, 
  "itt@@": 8198, 
  "Fleisch@@": 8199, 
  "Direktor": 8200, 
  "Rücken": 8201, 
  "ju@@": 8202, 
  "Joseph": 8203, 
  "Nuklear@@": 8204, 
  "festgehalten": 8205, 
  "AT": 8206, 
  "IF@@": 8207, 
  "Aufklärung": 8208, 
  "Königreichs": 8209, 
  "Akzeptanz": 8210, 
  "Sitzungsperiode": 8211, 
  "freiwillig": 8212, 
  "Prof.": 8213, 
  "tigte": 8214, 
  "Betrieb@@": 8215, 
  "go": 8216, 
  "Übergangs@@": 8217, 
  "Gedanke": 8218, 
  "Kunststoff@@": 8219, 
  "qm": 8220, 
  "meister": 8221, 
  "multilateralen": 8222, 
  "betrug": 8223, 
  "ßt": 8224, 
  "anforderungen": 8225, 
  "12.@@": 8226, 
  "Nikon": 8227, 
  "regionen": 8228, 
  "Musiker": 8229, 
  "wirksamer": 8230, 
  "val@@": 8231, 
  "Artikels": 8232, 
  "Saddam": 8233, 
  "Dienststellen": 8234, 
  "Prei@@": 8235, 
  "schneiden": 8236, 
  "6,@@": 8237, 
  "Afrikas": 8238, 
  "CO2": 8239, 
  "Maastricht": 8240, 
  "my@@": 8241, 
  "Schwerpunkte": 8242, 
  "900": 8243, 
  "weichen": 8244, 
  "abhängen": 8245, 
  "Erkrankungen": 8246, 
  "verteilung": 8247, 
  "geräumige": 8248, 
  "Standorten": 8249, 
  "oll@@": 8250, 
  "orten": 8251, 
  "kommunistischen": 8252, 
  "hersteller": 8253, 
  "roten": 8254, 
  "Sü@@": 8255, 
  "CO2-Emissionen": 8256, 
  "Termine": 8257, 
  "auen": 8258, 
  "aut": 8259, 
  "71": 8260, 
  "Publikationen": 8261, 
  "out": 8262, 
  "Kleidung": 8263, 
  "schulen": 8264, 
  "Tanz@@": 8265, 
  "gänge": 8266, 
  "ade@@": 8267, 
  "II.": 8268, 
  "Porto": 8269, 
  "Schließung": 8270, 
  "vergleichbar": 8271, 
  "landschaft": 8272, 
  "abzugeben": 8273, 
  "demnächst": 8274, 
  "plant": 8275, 
  "Stre@@": 8276, 
  "renovierte": 8277, 
  "Höhepunkt": 8278, 
  "zurückkommen": 8279, 
  "verordnung": 8280, 
  "Schlußfolgerungen": 8281, 
  "platten": 8282, 
  "vis@@": 8283, 
  "teure": 8284, 
  "Übermittlung": 8285, 
  "urlaub": 8286, 
  "werks": 8287, 
  "fehler": 8288, 
  "optimiert": 8289, 
  "unmittelbare": 8290, 
  "Ren@@": 8291, 
  "HU": 8292, 
  "ungsanlagen": 8293, 
  "rin@@": 8294, 
  "dachte": 8295, 
  "agen": 8296, 
  "Hor@@": 8297, 
  "Bürgerrechte": 8298, 
  "Free": 8299, 
  "Sozialisten": 8300, 
  "pflegen": 8301, 
  "Freizeit@@": 8302, 
  "kunden@@": 8303, 
  "ermittelt": 8304, 
  ".org": 8305, 
  "bestanden": 8306, 
  "gl@@": 8307, 
  "Folter": 8308, 
  "IL@@": 8309, 
  "Hindernis": 8310, 
  "t-": 8311, 
  "Zutaten": 8312, 
  "m.": 8313, 
  "Beratungs@@": 8314, 
  "Ungleichheiten": 8315, 
  "ron@@": 8316, 
  "Ausstellungs@@": 8317, 
  "scheinbar": 8318, 
  "begrenzen": 8319, 
  "93": 8320, 
  "ativ": 8321, 
  "preisen": 8322, 
  "datum": 8323, 
  "kommunizieren": 8324, 
  "Olympischen": 8325, 
  "mb@@": 8326, 
  "CA@@": 8327, 
  "namen": 8328, 
  "Display": 8329, 
  "Endes": 8330, 
  "Auflagen": 8331, 
  "Flüchtlingen": 8332, 
  "Wetter@@": 8333, 
  "Verhinderung": 8334, 
  "cks": 8335, 
  "förder@@": 8336, 
  "VI@@": 8337, 
  "Campingplatz": 8338, 
  "BR@@": 8339, 
  "Charles": 8340, 
  "PS@@": 8341, 
  "ausreichen": 8342, 
  "stücke": 8343, 
  "aufhören": 8344, 
  "einbeziehen": 8345, 
  "etes": 8346, 
  "biologische": 8347, 
  "Fre@@": 8348, 
  "Meinungsäußerung": 8349, 
  "halben": 8350, 
  "verhandelt": 8351, 
  "Mit": 8352, 
  "sionen": 8353, 
  "GB": 8354, 
  "ausgeben": 8355, 
  "Kalender": 8356, 
  "Geschäftsführer": 8357, 
  "klarstellen": 8358, 
  "versprochen": 8359, 
  "massiven": 8360, 
  "Nachfolger": 8361, 
  "beides": 8362, 
  "bewegungen": 8363, 
  "Miss@@": 8364, 
  "Folgendes": 8365, 
  "Kurs@@": 8366, 
  "IC": 8367, 
  "position": 8368, 
  "design": 8369, 
  "aufgaben": 8370, 
  "aufrufen": 8371, 
  "fluss": 8372, 
  "iranischen": 8373, 
  "Norm": 8374, 
  "boden": 8375, 
  "Nutzern": 8376, 
  "Service@@": 8377, 
  "Ära": 8378, 
  "durchschnittliche": 8379, 
  "ektor": 8380, 
  "Quartal": 8381, 
  "Unterricht": 8382, 
  "ars": 8383, 
  "betreut": 8384, 
  "schlimmsten": 8385, 
  "diplomatischen": 8386, 
  "Video-@@": 8387, 
  "einf@@": 8388, 
  "ol": 8389, 
  "Aussch@@": 8390, 
  "tis": 8391, 
  "schlag": 8392, 
  "last@@": 8393, 
  "Zucker": 8394, 
  "bewahrt": 8395, 
  "63": 8396, 
  "Gemeinschaftsrecht": 8397, 
  "attraktiven": 8398, 
  "ausgeliefert": 8399, 
  "к@@": 8400, 
  "Tschetschenien": 8401, 
  "Bestrebungen": 8402, 
  "esse": 8403, 
  "äch@@": 8404, 
  "Deine": 8405, 
  "High": 8406, 
  "SS@@": 8407, 
  "geschenkt": 8408, 
  "met@@": 8409, 
  "OM@@": 8410, 
  "Geh@@": 8411, 
  "Digital": 8412, 
  "Versand@@": 8413, 
  "tauchen": 8414, 
  "bedient": 8415, 
  "Kriterium": 8416, 
  "Industriepolitik": 8417, 
  "maßgeblich": 8418, 
  "äu@@": 8419, 
  "Em@@": 8420, 
  "irgendwie": 8421, 
  "dor@@": 8422, 
  "minister": 8423, 
  "schwach": 8424, 
  "Ausgangs@@": 8425, 
  "Zwischenzeit": 8426, 
  "Erfassung": 8427, 
  "veranstaltungen": 8428, 
  "Wäscheservice": 8429, 
  "plätzen": 8430, 
  "quote": 8431, 
  "Fischereiabkommen": 8432, 
  "exzellente": 8433, 
  "Wissens": 8434, 
  "62": 8435, 
  "Sierra": 8436, 
  "durchschnittlich": 8437, 
  "Regen@@": 8438, 
  "gene": 8439, 
  "Strecken": 8440, 
  "berg@@": 8441, 
  "Vorsicht": 8442, 
  "Sevilla": 8443, 
  "schriftlichen": 8444, 
  "museum": 8445, 
  "hol@@": 8446, 
  "Sol": 8447, 
  "Fülle": 8448, 
  "profitiert": 8449, 
  "wunderbaren": 8450, 
  "betriebe": 8451, 
  "Kohäsion": 8452, 
  "ut": 8453, 
  "Überleben": 8454, 
  "Toleranz": 8455, 
  "Artikeln": 8456, 
  "Nachteile": 8457, 
  "Defizit": 8458, 
  "ehren": 8459, 
  "Schlag@@": 8460, 
  "Genauigkeit": 8461, 
  "anzuerkennen": 8462, 
  "gemeint": 8463, 
  "Mail@@": 8464, 
  "Gegenden": 8465, 
  "Zentrums": 8466, 
  "et-@@": 8467, 
  "AS": 8468, 
  "zuständige": 8469, 
  "soviel": 8470, 
  "Fr@@": 8471, 
  "Ansprüchen": 8472, 
  "anzusehen": 8473, 
  "Fal@@": 8474, 
  "lig@@": 8475, 
  "Paradies": 8476, 
  "Flächen": 8477, 
  "auff@@": 8478, 
  "Content": 8479, 
  "beeindruckende": 8480, 
  "sat@@": 8481, 
  "Zentralbanken": 8482, 
  "tiv": 8483, 
  "stufe": 8484, 
  "Meister": 8485, 
  "Zinssätze": 8486, 
  "aj@@": 8487, 
  "jemanden": 8488, 
  "ost@@": 8489, 
  "Für": 8490, 
  "Masse": 8491, 
  "kal@@": 8492, 
  "abteilung": 8493, 
  "unglaublich": 8494, 
  "2,5": 8495, 
  "gewaltige": 8496, 
  "gten": 8497, 
  "versuche": 8498, 
  "komm@@": 8499, 
  "Chaos": 8500, 
  "begrenzten": 8501, 
  "Bad@@": 8502, 
  "vorgesehene": 8503, 
  "Richard": 8504, 
  "UNO-@@": 8505, 
  "bur@@": 8506, 
  "Power@@": 8507, 
  "leb@@": 8508, 
  "Mol@@": 8509, 
  "Route": 8510, 
  "verdanken": 8511, 
  "spezi@@": 8512, 
  "erwarte": 8513, 
  "hen": 8514, 
  "heim@@": 8515, 
  "Not": 8516, 
  "verwandeln": 8517, 
  "Schritten": 8518, 
  "Orts@@": 8519, 
  "Formel": 8520, 
  "klein@@": 8521, 
  "begeben": 8522, 
  "beherbergt": 8523, 
  "Generalsekretär": 8524, 
  "Transpor@@": 8525, 
  "gedenkt": 8526, 
  "Roll@@": 8527, 
  "our": 8528, 
  "94": 8529, 
  "Kloster": 8530, 
  "tief@@": 8531, 
  "Tagungen": 8532, 
  "350": 8533, 
  "setzten": 8534, 
  "Stabilisierung": 8535, 
  "orte": 8536, 
  "ator@@": 8537, 
  "f-@@": 8538, 
  "Ag@@": 8539, 
  "Bef@@": 8540, 
  "indischen": 8541, 
  "Ster@@": 8542, 
  "Vorgang": 8543, 
  "Sel@@": 8544, 
  "gesundheits@@": 8545, 
  "Nachrichten@@": 8546, 
  "Übereinkunft": 8547, 
  "lingen": 8548, 
  "Angeboten": 8549, 
  "Erdbeben": 8550, 
  "Temperatur@@": 8551, 
  "Entdeckung": 8552, 
  "Гј@@": 8553, 
  "ast": 8554, 
  "Foren": 8555, 
  "kultureller": 8556, 
  "Ausschüssen": 8557, 
  "z-@@": 8558, 
  "gel": 8559, 
  "67": 8560, 
  "trinken": 8561, 
  "irgendwo": 8562, 
  "Gepäck": 8563, 
  "Mitgliedsländer": 8564, 
  "problemen": 8565, 
  "Zertifizierung": 8566, 
  "kritisieren": 8567, 
  "Einkaufs@@": 8568, 
  "privater": 8569, 
  "je@@": 8570, 
  "Wikitravel-Benutzer": 8571, 
  "Werken": 8572, 
  "stra@@": 8573, 
  "Schätzungen": 8574, 
  "Europ@@": 8575, 
  "Erhebung": 8576, 
  "netze": 8577, 
  "Erweiterungen": 8578, 
  "stufen": 8579, 
  "Chinesen": 8580, 
  "abl@@": 8581, 
  "verbundene": 8582, 
  "höherer": 8583, 
  "erhöhte": 8584, 
  "erzielte": 8585, 
  "Aufpreis": 8586, 
  "stützt": 8587, 
  "gemütlich": 8588, 
  "anwendungen": 8589, 
  "bem@@": 8590, 
  "Gesam@@": 8591, 
  "Bedrohungen": 8592, 
  "hinzu@@": 8593, 
  "Vermögen": 8594, 
  "genetisch": 8595, 
  "zusammengestellt": 8596, 
  "Gay": 8597, 
  "sicherheits@@": 8598, 
  "ggf.": 8599, 
  "Lieblings@@": 8600, 
  "Funktionsweise": 8601, 
  "gefertigt": 8602, 
  "erhebt": 8603, 
  "bestehend": 8604, 
  "Phasen": 8605, 
  "erstklassige": 8606, 
  "produkt": 8607, 
  "Kongo": 8608, 
  "egen@@": 8609, 
  "wahr@@": 8610, 
  "Syn@@": 8611, 
  "modelle": 8612, 
  "Ganze": 8613, 
  "status": 8614, 
  "virtuellen": 8615, 
  "rit@@": 8616, 
  "israelische": 8617, 
  "Nordkorea": 8618, 
  "Lust": 8619, 
  "Komm@@": 8620, 
  "fähige": 8621, 
  "Klaren": 8622, 
  "betragen": 8623, 
  "lige": 8624, 
  "versorgen": 8625, 
  "seln": 8626, 
  "Zukunfts@@": 8627, 
  "ökonomische": 8628, 
  "Zeitalter": 8629, 
  "kapazität": 8630, 
  "Hochschulen": 8631, 
  "Sozialpartner": 8632, 
  "Beibehaltung": 8633, 
  "oberste": 8634, 
  "fahrer": 8635, 
  "ckt": 8636, 
  "bilaterale": 8637, 
  "Fundament": 8638, 
  "fre@@": 8639, 
  "Ticket": 8640, 
  "Vol@@": 8641, 
  "tierung": 8642, 
  "Recht@@": 8643, 
  "Heiz@@": 8644, 
  "Begrenzung": 8645, 
  "Personen@@": 8646, 
  "flexiblen": 8647, 
  "Patten": 8648, 
  "ör@@": 8649, 
  "bestände": 8650, 
  "stil": 8651, 
  "künstlerischen": 8652, 
  "Arbeitszeit": 8653, 
  "berechtigten": 8654, 
  "Konsolidierung": 8655, 
  "istischer": 8656, 
  "Konzern": 8657, 
  "Pop@@": 8658, 
  "behindern": 8659, 
  "fünf@@": 8660, 
  "iker": 8661, 
  "LA@@": 8662, 
  "Hi@@": 8663, 
  "bot": 8664, 
  "OS@@": 8665, 
  "Tel": 8666, 
  "belastet": 8667, 
  "Behandlungen": 8668, 
  "zonen": 8669, 
  "Szene": 8670, 
  "Sudan": 8671, 
  "untergebracht": 8672, 
  "Account": 8673, 
  "Monats": 8674, 
  "indi@@": 8675, 
  "offen@@": 8676, 
  "beheben": 8677, 
  "Mul@@": 8678, 
  "Dra@@": 8679, 
  "vermieten": 8680, 
  "geld": 8681, 
  "J": 8682, 
  "Konvergenz": 8683, 
  "essen@@": 8684, 
  "mach@@": 8685, 
  "geeinigt": 8686, 
  "Europäisches": 8687, 
  "kriterien": 8688, 
  "bedaure": 8689, 
  "Nokia": 8690, 
  "exakt": 8691, 
  "vereinbar": 8692, 
  "Darlehen": 8693, 
  "Breite": 8694, 
  "E-Mail-@@": 8695, 
  "Umstellung": 8696, 
  "Modell@@": 8697, 
  "Jur@@": 8698, 
  "icht": 8699, 
  "Panorama": 8700, 
  "Tex@@": 8701, 
  "OK": 8702, 
  "Wanderungen": 8703, 
  "Helsinki": 8704, 
  "Explorer": 8705, 
  "Subsidiaritätsprinzip": 8706, 
  "partner": 8707, 
  "nächstes": 8708, 
  "schweigen": 8709, 
  "Vide@@": 8710, 
  "vorzugehen": 8711, 
  "gte": 8712, 
  "widerspiegelt": 8713, 
  "global": 8714, 
  "lem": 8715, 
  "Bestände": 8716, 
  "MP@@": 8717, 
  "ve@@": 8718, 
  "о@@": 8719, 
  "sexuelle": 8720, 
  "Pl@@": 8721, 
  "verz@@": 8722, 
  "Rechtsrahmen": 8723, 
  "spieler": 8724, 
  "Pfad": 8725, 
  "nachfolgenden": 8726, 
  "Gri@@": 8727, 
  "Anzeigen": 8728, 
  "Vietnam": 8729, 
  "wirst": 8730, 
  "Integrations@@": 8731, 
  "demselben": 8732, 
  "ungsmaßnahmen": 8733, 
  "Eingabe": 8734, 
  "Master": 8735, 
  "Anleitung": 8736, 
  "Team@@": 8737, 
  "aufhalten": 8738, 
  "Haltestelle": 8739, 
  "gehende": 8740, 
  "gesendet": 8741, 
  "Gerichts@@": 8742, 
  "Rollen": 8743, 
  "Nutzungs@@": 8744, 
  "т@@": 8745, 
  "ase": 8746, 
  "erbringen": 8747, 
  "ack@@": 8748, 
  "befreit": 8749, 
  "beunruhigt": 8750, 
  "atten": 8751, 
  "sich@@": 8752, 
  "schlicht": 8753, 
  "©": 8754, 
  "faktor": 8755, 
  "erzählen": 8756, 
  "transparente": 8757, 
  "iel@@": 8758, 
  "folgte": 8759, 
  "Klang@@": 8760, 
  "Modellen": 8761, 
  "Gremien": 8762, 
  "erhielten": 8763, 
  "aufgeführten": 8764, 
  "Main": 8765, 
  "sc@@": 8766, 
  "Geheim@@": 8767, 
  "Organ@@": 8768, 
  "Freizeit": 8769, 
  "Verschlechterung": 8770, 
  "geschützten": 8771, 
  "stetig": 8772, 
  "leiste": 8773, 
  "Gestalt": 8774, 
  "Sy@@": 8775, 
  "ari": 8776, 
  "Etage": 8777, 
  "Rock": 8778, 
  "kontrollen": 8779, 
  "wen@@": 8780, 
  "Auskunft": 8781, 
  "Hauptziel": 8782, 
  "korrigiert": 8783, 
  "Q": 8784, 
  "mittelalterlichen": 8785, 
  "entnehmen": 8786, 
  "Einsparungen": 8787, 
  "lehnt": 8788, 
  "Interpretation": 8789, 
  "wand@@": 8790, 
  "planung": 8791, 
  "Pakt": 8792, 
  "Lauf": 8793, 
  "japanische": 8794, 
  "Erziehung": 8795, 
  "Treiber": 8796, 
  "Auftrags@@": 8797, 
  "verhältnis": 8798, 
  "Konferenz-": 8799, 
  "-Lösungen": 8800, 
  "historisch": 8801, 
  "anerkannten": 8802, 
  "Begleitung": 8803, 
  "Häusern": 8804, 
  "Texten": 8805, 
  "häuser": 8806, 
  "Korea": 8807, 
  "seinerzeit": 8808, 
  "Spiels": 8809, 
  "Form@@": 8810, 
  "punkten": 8811, 
  "wahrgenommen": 8812, 
  "aufrechtzuerhalten": 8813, 
  "itäten": 8814, 
  "ov": 8815, 
  "veranstaltet": 8816, 
  "det@@": 8817, 
  "23@@": 8818, 
  "Kraft@@": 8819, 
  "Kompromiß": 8820, 
  "wuchs": 8821, 
  "Fremd@@": 8822, 
  "LT": 8823, 
  "tat": 8824, 
  "Estland": 8825, 
  "oni": 8826, 
  "Hochschul@@": 8827, 
  "ki@@": 8828, 
  "Open@@": 8829, 
  "aufkommen": 8830, 
  "Jahreszeit": 8831, 
  "server": 8832, 
  "Ferienhaus": 8833, 
  "gesetzten": 8834, 
  "Bandbreite": 8835, 
  "82": 8836, 
  "egel@@": 8837, 
  "Prüfungen": 8838, 
  "verlängern": 8839, 
  "markiert": 8840, 
  "wohin": 8841, 
  "ungs-@@": 8842, 
  "Sicherstellung": 8843, 
  "Räumlichkeiten": 8844, 
  "gefahren": 8845, 
  "positives": 8846, 
  "tigung": 8847, 
  "Kommissars": 8848, 
  "tage": 8849, 
  "heruntergeladen": 8850, 
  "Sur@@": 8851, 
  "ates": 8852, 
  "Felsen": 8853, 
  "Ministerpräsidenten": 8854, 
  "ueber": 8855, 
  "territorialen": 8856, 
  "verursachten": 8857, 
  "Heimat@@": 8858, 
  "Ki@@": 8859, 
  "gesteuert": 8860, 
  "Nordirland": 8861, 
  "Lesen": 8862, 
  "emp@@": 8863, 
  "Instabilität": 8864, 
  "Birma": 8865, 
  "61": 8866, 
  "Gesetzgebungs@@": 8867, 
  "definitiv": 8868, 
  "Tar@@": 8869, 
  "Zeitschrift": 8870, 
  "Leben@@": 8871, 
  "mitglieder": 8872, 
  "beihilfen": 8873, 
  "zweites": 8874, 
  "einrichten": 8875, 
  "Veranstaltungs@@": 8876, 
  "25@@": 8877, 
  "pa@@": 8878, 
  "groß@@": 8879, 
  "sern": 8880, 
  "stärkt": 8881, 
  "ppe": 8882, 
  "Gemein@@": 8883, 
  "10-@@": 8884, 
  "getroffenen": 8885, 
  "Appell": 8886, 
  "entsprechender": 8887, 
  "juristischen": 8888, 
  "perfekten": 8889, 
  "änderungen": 8890, 
  "Schlacht": 8891, 
  "Mannschaft": 8892, 
  "EF@@": 8893, 
  "gehalt": 8894, 
  "Verbündeten": 8895, 
  "Quell@@": 8896, 
  "übernahm": 8897, 
  "CD@@": 8898, 
  "schutzes": 8899, 
  "Chile": 8900, 
  "der-@@": 8901, 
  "Delegationen": 8902, 
  "christlichen": 8903, 
  "American": 8904, 
  "ill@@": 8905, 
  "entschuldigen": 8906, 
  "Weg@@": 8907, 
  "heiten": 8908, 
  "potenziellen": 8909, 
  "Düsseldorf": 8910, 
  "Freie": 8911, 
  "MO@@": 8912, 
  "Institute": 8913, 
  "jenseits": 8914, 
  "bel": 8915, 
  "widerspiegeln": 8916, 
  "fil@@": 8917, 
  "Hotelzimmer": 8918, 
  "wählt": 8919, 
  "SO@@": 8920, 
  "laufende": 8921, 
  "ban@@": 8922, 
  "Plugin": 8923, 
  "Rohstoffe": 8924, 
  "у@@": 8925, 
  "bri@@": 8926, 
  "Zauber@@": 8927, 
  "Vollständigkeit": 8928, 
  "unbe@@": 8929, 
  "weiterentwickelt": 8930, 
  "Reichweite": 8931, 
  "versorgt": 8932, 
  "ständiger": 8933, 
  "Potential": 8934, 
  "überdenken": 8935, 
  "verläuft": 8936, 
  "Überwindung": 8937, 
  "kunst": 8938, 
  "bürger@@": 8939, 
  "ück@@": 8940, 
  "Korrektur": 8941, 
  "Erkenntnis": 8942, 
  "pe@@": 8943, 
  "artikel": 8944, 
  "aufgeben": 8945, 
  "zwecken": 8946, 
  "Infrastruktur@@": 8947, 
  "Presse@@": 8948, 
  "versprechen": 8949, 
  "fur": 8950, 
  "Interface": 8951, 
  "Verhaltenskodex": 8952, 
  "willst": 8953, 
  "Sil@@": 8954, 
  "Allgemeine": 8955, 
  "lager": 8956, 
  "auftritt": 8957, 
  "Palast": 8958, 
  "Bü@@": 8959, 
  "76": 8960, 
  "hebt": 8961, 
  "Mitbürger": 8962, 
  "g-@@": 8963, 
  "offenkundig": 8964, 
  "wor@@": 8965, 
  "formulieren": 8966, 
  "Gran@@": 8967, 
  "0-@@": 8968, 
  "uneingeschränkte": 8969, 
  "ON": 8970, 
  "bahn@@": 8971, 
  "Source": 8972, 
  "üblicherweise": 8973, 
  "Zusagen": 8974, 
  "allgemeiner": 8975, 
  "hinnehmen": 8976, 
  "osteuropäischen": 8977, 
  "Solar@@": 8978, 
  "Mittagessen": 8979, 
  "Erwachsenen": 8980, 
  "Wechsel@@": 8981, 
  "Pfeiler": 8982, 
  "ide@@": 8983, 
  "Radi@@": 8984, 
  "Unregelmäßigkeiten": 8985, 
  "Basel": 8986, 
  "pre@@": 8987, 
  "zeitlich": 8988, 
  "appelliere": 8989, 
  "wissenschaftlicher": 8990, 
  "verhältnisse": 8991, 
  "Militär": 8992, 
  "ander@@": 8993, 
  "Gemeinschaftsebene": 8994, 
  "een": 8995, 
  "Migranten": 8996, 
  "Tiefe": 8997, 
  "mischen": 8998, 
  "ea": 8999, 
  "entziehen": 9000, 
  "büro": 9001, 
  "untersagt": 9002, 
  "aufgegriffen": 9003, 
  "er-": 9004, 
  "saal": 9005, 
  "OLAF": 9006, 
  "Trau@@": 9007, 
  "enti@@": 9008, 
  "Konservativen": 9009, 
  "onn@@": 9010, 
  "Angehörigen": 9011, 
  "Son@@": 9012, 
  "Algerien": 9013, 
  "Audio": 9014, 
  "Gesichtspunkt": 9015, 
  "Fot@@": 9016, 
  "180": 9017, 
  "scht": 9018, 
  "tau@@": 9019, 
  "Motoren": 9020, 
  "kostenfreien": 9021, 
  "Op@@": 9022, 
  "einfaches": 9023, 
  "gänzlich": 9024, 
  "bal@@": 9025, 
  "versuchte": 9026, 
  "Den": 9027, 
  "Etagen": 9028, 
  "erische": 9029, 
  "Fotografie": 9030, 
  "Freilassung": 9031, 
  "Kontinents": 9032, 
  "Infos": 9033, 
  "unge@@": 9034, 
  "Arena": 9035, 
  "Versicherung": 9036, 
  "beauftragt": 9037, 
  "alisten": 9038, 
  "älteste": 9039, 
  "ausgegangen": 9040, 
  "beschleunigt": 9041, 
  "Chemikalien": 9042, 
  "unternimmt": 9043, 
  "Songs": 9044, 
  "verteidigt": 9045, 
  "Fax-": 9046, 
  "Produk@@": 9047, 
  "Stoffen": 9048, 
  "bürgerliche": 9049, 
  "Aufstellung": 9050, 
  "Wider@@": 9051, 
  "Weiß@@": 9052, 
  "7,@@": 9053, 
  "Veranstaltungsräume": 9054, 
  "akt": 9055, 
  "Casa": 9056, 
  "Finanzminister": 9057, 
  "verwendete": 9058, 
  "widmet": 9059, 
  "1988": 9060, 
  "zügig": 9061, 
  "Mitgliedsstaaten": 9062, 
  "Gebäudes": 9063, 
  "Red@@": 9064, 
  "Handhabung": 9065, 
  "Jahrestag": 9066, 
  "Bibliotheken": 9067, 
  "ingen": 9068, 
  "Tei@@": 9069, 
  "trag@@": 9070, 
  "besuchte": 9071, 
  "Schalt@@": 9072, 
  "anschauen": 9073, 
  "Stockholm": 9074, 
  "eingebettet": 9075, 
  "gewahrt": 9076, 
  "europaweit": 9077, 
  "p-@@": 9078, 
  "Michel": 9079, 
  "außer@@": 9080, 
  "diente": 9081, 
  "strukturellen": 9082, 
  "wunder@@": 9083, 
  "gewaltigen": 9084, 
  "gebucht": 9085, 
  "beh@@": 9086, 
  "Hintergrund@@": 9087, 
  "Dom@@": 9088, 
  "Asyl": 9089, 
  "Funktions@@": 9090, 
  "infolgedessen": 9091, 
  "nis": 9092, 
  "Theater@@": 9093, 
  "Reisenden": 9094, 
  "König@@": 9095, 
  "Logo": 9096, 
  "Bemühen": 9097, 
  "bedeutender": 9098, 
  "Gewähr": 9099, 
  "muster": 9100, 
  "Stamm@@": 9101, 
  "Franzosen": 9102, 
  "Spor@@": 9103, 
  "abgedeckt": 9104, 
  "I.": 9105, 
  "Geldpolitik": 9106, 
  "ón": 9107, 
  "Konzern@@": 9108, 
  "Gewässern": 9109, 
  "ehrgeizige": 9110, 
  "Mutter@@": 9111, 
  "definierten": 9112, 
  "Cafés": 9113, 
  "Interview": 9114, 
  "Krieg@@": 9115, 
  "Vertriebs@@": 9116, 
  "einschlägigen": 9117, 
  "Bonus": 9118, 
  "Wellness@@": 9119, 
  "Person@@": 9120, 
  "unterschiedlichsten": 9121, 
  "Wandern": 9122, 
  "ungsin@@": 9123, 
  "Pr@@": 9124, 
  "Stadium": 9125, 
  "entfernten": 9126, 
  "Gesetzgeber": 9127, 
  "polnische": 9128, 
  "lö@@": 9129, 
  "veranlassen": 9130, 
  "sach@@": 9131, 
  "rich@@": 9132, 
  "Einleitung": 9133, 
  "verhandlungen": 9134, 
  "Lat@@": 9135, 
  "Plattformen": 9136, 
  "versichert": 9137, 
  "gründet": 9138, 
  "Da@@": 9139, 
  "günstiger": 9140, 
  "Maus": 9141, 
  "Last@@": 9142, 
  "geehrter": 9143, 
  "eingenommen": 9144, 
  "Zusammenfassung": 9145, 
  "Beschränkung": 9146, 
  "Wasch@@": 9147, 
  "gründete": 9148, 
  "volumen": 9149, 
  "mächtigen": 9150, 
  "Ph@@": 9151, 
  "eiten": 9152, 
  "Visa": 9153, 
  "atur": 9154, 
  "Warcraft": 9155, 
  "aufrecht": 9156, 
  "Turm": 9157, 
  "68": 9158, 
  "ay": 9159, 
  "Schulungen": 9160, 
  "Strafe": 9161, 
  "Angestellten": 9162, 
  "2015": 9163, 
  "Inn@@": 9164, 
  "geschah": 9165, 
  "Schulz": 9166, 
  "Inneren": 9167, 
  "Control": 9168, 
  "Nah@@": 9169, 
  "Klassen": 9170, 
  "beliebige": 9171, 
  "Ansehen": 9172, 
  "Monte": 9173, 
  "Aufstockung": 9174, 
  "Gut": 9175, 
  "Rechtsprechung": 9176, 
  "siv": 9177, 
  "stei@@": 9178, 
  "tigungen": 9179, 
  "betreffende": 9180, 
  "fizierung": 9181, 
  "teilnehmenden": 9182, 
  "betrag": 9183, 
  "aufnahmen": 9184, 
  "Aufstieg": 9185, 
  "einheimischen": 9186, 
  "Tat@@": 9187, 
  "AL": 9188, 
  "geplante": 9189, 
  "Drucker": 9190, 
  "verkehrs": 9191, 
  "Kas@@": 9192, 
  "verbesserten": 9193, 
  "obliegt": 9194, 
  "Schwächen": 9195, 
  "Befürchtungen": 9196, 
  "gab@@": 9197, 
  "birgt": 9198, 
  "s.@@": 9199, 
  "Real": 9200, 
  "vereinen": 9201, 
  "Listen": 9202, 
  "bestrebt": 9203, 
  "enter": 9204, 
  "dreht": 9205, 
  "unverändert": 9206, 
  "vern@@": 9207, 
  "30@@": 9208, 
  "Es@@": 9209, 
  "natur@@": 9210, 
  "е@@": 9211, 
  "gemeldet": 9212, 
  "eben@@": 9213, 
  "Logistik": 9214, 
  "Anleger": 9215, 
  "tagen": 9216, 
  "EG@@": 9217, 
  "abzustimmen": 9218, 
  "ethnische": 9219, 
  "Sor@@": 9220, 
  "wirkung": 9221, 
  "schwarz": 9222, 
  "mitzuteilen": 9223, 
  "überschritten": 9224, 
  "trug": 9225, 
  "Ashton": 9226, 
  "Aufteilung": 9227, 
  "Streben": 9228, 
  "IB@@": 9229, 
  "†": 9230, 
  "cher@@": 9231, 
  "gehenden": 9232, 
  "freiwillige": 9233, 
  "weit@@": 9234, 
  "Gam@@": 9235, 
  "wiederherzustellen": 9236, 
  "Kenn@@": 9237, 
  "78": 9238, 
  "GUE": 9239, 
  "heits@@": 9240, 
  "Verstöße": 9241, 
  "lang@@": 9242, 
  "Lan@@": 9243, 
  "Wohlergehen": 9244, 
  "bereitschaft": 9245, 
  "tens": 9246, 
  "OT@@": 9247, 
  "sensiblen": 9248, 
  "Laden": 9249, 
  "umfangreiches": 9250, 
  "hu@@": 9251, 
  "Wagen": 9252, 
  "ish@@": 9253, 
  "ausgewogen": 9254, 
  "Aussehen": 9255, 
  "iti@@": 9256, 
  "Verkehrsmitteln": 9257, 
  "kenne": 9258, 
  "Gem@@": 9259, 
  "Play@@": 9260, 
  "Protektionismus": 9261, 
  "Pe@@": 9262, 
  "vorwiegend": 9263, 
  "Cu@@": 9264, 
  "Spannung": 9265, 
  "einräumen": 9266, 
  "Seminare": 9267, 
  "verwandelt": 9268, 
  "Chef": 9269, 
  "Wand": 9270, 
  "Erzeugnissen": 9271, 
  "Leipzig": 9272, 
  "Mark": 9273, 
  "Desktop": 9274, 
  "AN": 9275, 
  "herkömmlichen": 9276, 
  "Wiederaufnahme": 9277, 
  "galt": 9278, 
  "1986": 9279, 
  "zusammengefasst": 9280, 
  "î@@": 9281, 
  "aktiver": 9282, 
  "veränderten": 9283, 
  "stabil": 9284, 
  "web@@": 9285, 
  "Technology": 9286, 
  "UR@@": 9287, 
  "Management@@": 9288, 
  "ga": 9289, 
  "Münzen": 9290, 
  "prüft": 9291, 
  "Harmonie": 9292, 
  "Gest@@": 9293, 
  "Evaluierung": 9294, 
  "icht@@": 9295, 
  "Executive": 9296, 
  "hinausgehen": 9297, 
  "Designs": 9298, 
  "reinen": 9299, 
  "herunter@@": 9300, 
  "Lande": 9301, 
  "ass": 9302, 
  "130": 9303, 
  "Periode": 9304, 
  "Music": 9305, 
  "kol@@": 9306, 
  "Siemens": 9307, 
  "konkreter": 9308, 
  "up": 9309, 
  "ies": 9310, 
  "9.@@": 9311, 
  "Komplex": 9312, 
  "Akademie": 9313, 
  "wil@@": 9314, 
  "Entscheidungsträger": 9315, 
  "Job": 9316, 
  "zusätzlicher": 9317, 
  "Wärme": 9318, 
  "Autovermietung": 9319, 
  "ativer": 9320, 
  "verarbeiten": 9321, 
  "Reb@@": 9322, 
  "Arbeit@@": 9323, 
  "CO2-@@": 9324, 
  "format": 9325, 
  "Dienstleistungsrichtlinie": 9326, 
  "Flusses": 9327, 
  "befürchten": 9328, 
  "unterrichtet": 9329, 
  "Administration": 9330, 
  "Flugzeug@@": 9331, 
  "extremen": 9332, 
  "aff@@": 9333, 
  "verweigert": 9334, 
  "Nigeria": 9335, 
  "Kamin": 9336, 
  "Therapie": 9337, 
  "Verheugen": 9338, 
  "Genfer": 9339, 
  "biegen": 9340, 
  "Kaffe@@": 9341, 
  "car@@": 9342, 
  "м@@": 9343, 
  "vertrieben": 9344, 
  "ci": 9345, 
  "Jerusalem": 9346, 
  "Botschaften": 9347, 
  "Karl": 9348, 
  "Dolomiten": 9349, 
  "Ersten": 9350, 
  "verlust": 9351, 
  "ihrerseits": 9352, 
  "rech@@": 9353, 
  "star@@": 9354, 
  "Kriege": 9355, 
  "dieren": 9356, 
  "fürchte": 9357, 
  "U-@@": 9358, 
  "Tom@@": 9359, 
  "Geschäftsreisende": 9360, 
  "iner": 9361, 
  "Lebensbedingungen": 9362, 
  "pi@@": 9363, 
  "AIDS": 9364, 
  "handelte": 9365, 
  "orientieren": 9366, 
  "ermutigt": 9367, 
  "nördlich": 9368, 
  "Meilen": 9369, 
  "Viren": 9370, 
  "Bed": 9371, 
  "Belastungen": 9372, 
  "ton@@": 9373, 
  "Stabilitätspakt": 9374, 
  "starb": 9375, 
  "Top-@@": 9376, 
  "Formate": 9377, 
  "Beantwortung": 9378, 
  "sn@@": 9379, 
  "großzügig": 9380, 
  "Square": 9381, 
  "oo@@": 9382, 
  "Lizenzen": 9383, 
  "auswahl": 9384, 
  "transeuropäischen": 9385, 
  "angekommen": 9386, 
  "blauen": 9387, 
  "liberalen": 9388, 
  "verlaufen": 9389, 
  "Mitentscheidung": 9390, 
  "einzeln": 9391, 
  "schrift": 9392, 
  "AKP-Staaten": 9393, 
  "entdeckte": 9394, 
  "Lettland": 9395, 
  "Finanzielle": 9396, 
  "Anbau": 9397, 
  "teilung": 9398, 
  "Variablen": 9399, 
  "anmerken": 9400, 
  "TV-@@": 9401, 
  "ot": 9402, 
  "glich": 9403, 
  "lad@@": 9404, 
  "ehrgeizigen": 9405, 
  "box": 9406, 
  "Register": 9407, 
  "AV@@": 9408, 
  "Tau@@": 9409, 
  "stan@@": 9410, 
  "Bestandteile": 9411, 
  "Zi@@": 9412, 
  "110": 9413, 
  "Interventionen": 9414, 
  "Verurteilung": 9415, 
  "historischer": 9416, 
  "nachkommen": 9417, 
  "kombinieren": 9418, 
  "Lieferungen": 9419, 
  "rot": 9420, 
  "terin": 9421, 
  "Bauern@@": 9422, 
  "herrschen": 9423, 
  "Ersatz@@": 9424, 
  "Kürzungen": 9425, 
  "Elite": 9426, 
  "Symbole": 9427, 
  "behilflich": 9428, 
  "vorge@@": 9429, 
  "Politikern": 9430, 
  "unterzeichnen": 9431, 
  "Sc@@": 9432, 
  "Berichterstattung": 9433, 
  "bro@@": 9434, 
  "Hy@@": 9435, 
  "Löhne": 9436, 
  "Co.": 9437, 
  "Organ": 9438, 
  "Plätzen": 9439, 
  "schrecklichen": 9440, 
  "Warnung": 9441, 
  "stat@@": 9442, 
  "Vergabe": 9443, 
  "flug@@": 9444, 
  "yp@@": 9445, 
  "iers": 9446, 
  "modus": 9447, 
  "GVO": 9448, 
  "Buffet": 9449, 
  "Zusammenhalts": 9450, 
  "bauten": 9451, 
  "gefährlicher": 9452, 
  "Verpackungs@@": 9453, 
  "SA": 9454, 
  "Sandstrand": 9455, 
  "bester": 9456, 
  "wechsel@@": 9457, 
  "dens": 9458, 
  "angehört": 9459, 
  "ologen": 9460, 
  "Sports": 9461, 
  "Vertrieb@@": 9462, 
  "tert": 9463, 
  "Poker@@": 9464, 
  "Spaniens": 9465, 
  "Dresden": 9466, 
  "School": 9467, 
  "na@@": 9468, 
  "Blair": 9469, 
  "verzeichnis": 9470, 
  "Fahrrad": 9471, 
  "zweier": 9472, 
  "set@@": 9473, 
  "Laser@@": 9474, 
  "straßen": 9475, 
  "K-@@": 9476, 
  "Grab@@": 9477, 
  "Ausgewogenheit": 9478, 
  "herauszufinden": 9479, 
  "Persönlichkeit": 9480, 
  "Auszeichnung": 9481, 
  "wesens": 9482, 
  "kontinuierliche": 9483, 
  "Informationsschalter": 9484, 
  "oc@@": 9485, 
  "egt": 9486, 
  "Denk@@": 9487, 
  "Eigentums": 9488, 
  "Auseinandersetzungen": 9489, 
  "erinnen": 9490, 
  "Prä@@": 9491, 
  "Sozialdemokratischen": 9492, 
  "inhaltlich": 9493, 
  "Engineering": 9494, 
  "Filter@@": 9495, 
  "bearbeitung": 9496, 
  "Konsequenz": 9497, 
  "tak@@": 9498, 
  "virtuelle": 9499, 
  "Bestreben": 9500, 
  "positiver": 9501, 
  "Tauchen": 9502, 
  "exportieren": 9503, 
  "Downloads": 9504, 
  "SK": 9505, 
  "unde": 9506, 
  "Absch@@": 9507, 
  "Sicherheitsrat": 9508, 
  "film": 9509, 
  "erie": 9510, 
  "Kohäsionsfonds": 9511, 
  "häufigsten": 9512, 
  "empfehle": 9513, 
  "überarbeitet": 9514, 
  "Na@@": 9515, 
  "aufgeteilt": 9516, 
  "schwachen": 9517, 
  "fo@@": 9518, 
  "echtes": 9519, 
  "aussieht": 9520, 
  "zwingend": 9521, 
  "stag": 9522, 
  "komplizierten": 9523, 
  "Momente": 9524, 
  "erledigen": 9525, 
  "voraussichtlich": 9526, 
  "Erwärmung": 9527, 
  "seg@@": 9528, 
  "einziger": 9529, 
  "sam": 9530, 
  "vol@@": 9531, 
  "Unfall": 9532, 
  "Größen": 9533, 
  "Hil@@": 9534, 
  "Applikation": 9535, 
  "Rücksicht": 9536, 
  "persönliches": 9537, 
  "elektrischen": 9538, 
  "zeu@@": 9539, 
  "Fotokopiereinrichtungen": 9540, 
  "pan@@": 9541, 
  "Leist@@": 9542, 
  "fro@@": 9543, 
  "Sammel@@": 9544, 
  "Teils": 9545, 
  "schlag@@": 9546, 
  "Klärung": 9547, 
  "Exporte": 9548, 
  "Instanz": 9549, 
  "handels@@": 9550, 
  "Filmen": 9551, 
  "elegant": 9552, 
  "tag@@": 9553, 
  "faktoren": 9554, 
  "Wäldern": 9555, 
  "juristische": 9556, 
  "Fischler": 9557, 
  "abhängt": 9558, 
  "rischen": 9559, 
  "sitzt": 9560, 
  "Wellnessbereich": 9561, 
  "Space": 9562, 
  "Gefühle": 9563, 
  "anen": 9564, 
  "optionen": 9565, 
  "Friedensprozess": 9566, 
  "chter": 9567, 
  "Haut@@": 9568, 
  "Nahrung": 9569, 
  "geschlagen": 9570, 
  "Demokratischen": 9571, 
  "voranzubringen": 9572, 
  "а@@": 9573, 
  "zwecke": 9574, 
  "Valencia": 9575, 
  "Varianten": 9576, 
  "unterstützte": 9577, 
  "änge": 9578, 
  "präsent": 9579, 
  "ium": 9580, 
  "sä@@": 9581, 
  "Haushaltsausschusses": 9582, 
  "Eis": 9583, 
  "Nachtleben": 9584, 
  "Indi@@": 9585, 
  "Firefox": 9586, 
  "Meer@@": 9587, 
  "berechnen": 9588, 
  "Information@@": 9589, 
  "Ker@@": 9590, 
  "brachten": 9591, 
  "hau@@": 9592, 
  "Privatisierung": 9593, 
  "liger": 9594, 
  "Fe@@": 9595, 
  "Aktions@@": 9596, 
  "fahrzeuge": 9597, 
  "Mitgliedstaates": 9598, 
  "Residence": 9599, 
  "Kyoto": 9600, 
  "befindlichen": 9601, 
  "Erleichterung": 9602, 
  "Solana": 9603, 
  "regelungen": 9604, 
  "1945": 9605, 
  "mis@@": 9606, 
  "fehlenden": 9607, 
  "Themas": 9608, 
  "dische": 9609, 
  "Hom@@": 9610, 
  "Akteuren": 9611, 
  "ganzes": 9612, 
  "EP": 9613, 
  "Befreiung": 9614, 
  "Serviceleistungen": 9615, 
  "Füßen": 9616, 
  "Cha@@": 9617, 
  "drucken": 9618, 
  "beurteilt": 9619, 
  "gewohnt": 9620, 
  "Welle": 9621, 
  "gesetz@@": 9622, 
  "dert": 9623, 
  "tigten": 9624, 
  "grenz@@": 9625, 
  "Beg@@": 9626, 
  "sofortige": 9627, 
  "urs": 9628, 
  "Bonus@@": 9629, 
  "Auslieferung": 9630, 
  "Müller": 9631, 
  "Ausbruch": 9632, 
  "reicher": 9633, 
  "Gründer": 9634, 
  "1980": 9635, 
  "Ther@@": 9636, 
  "Besatzung": 9637, 
  "Central": 9638, 
  "е": 9639, 
  "Satelliten@@": 9640, 
  "ähnlicher": 9641, 
  "ite": 9642, 
  "Forschungs-": 9643, 
  "terung": 9644, 
  "umfassender": 9645, 
  "Kolumbien": 9646, 
  "halbe": 9647, 
  "Kin@@": 9648, 
  "überschreiten": 9649, 
  "längeren": 9650, 
  "Unrecht": 9651, 
  "ele": 9652, 
  "derartiger": 9653, 
  "bevorzugen": 9654, 
  "freundlicher": 9655, 
  "Haushaltskontrolle": 9656, 
  "SDL": 9657, 
  "Streit": 9658, 
  "gängigen": 9659, 
  "ereien": 9660, 
  "ernsten": 9661, 
  "äres": 9662, 
  "möchtest": 9663, 
  "zte": 9664, 
  "Schi@@": 9665, 
  "Meinungsfreiheit": 9666, 
  "Network": 9667, 
  "unterstützten": 9668, 
  "schul@@": 9669, 
  "steuerung": 9670, 
  "Erlaubnis": 9671, 
  "schafts@@": 9672, 
  "Quark": 9673, 
  "lands": 9674, 
  "isieren": 9675, 
  "grenzt": 9676, 
  "vertiefen": 9677, 
  "Tier": 9678, 
  "Patente": 9679, 
  "schwarze": 9680, 
  "Hannover": 9681, 
  "zy@@": 9682, 
  "enh@@": 9683, 
  "schein@@": 9684, 
  "AC": 9685, 
  "fachen": 9686, 
  "Ausdehnung": 9687, 
  "Tabellen": 9688, 
  "erledigt": 9689, 
  "becken": 9690, 
  "flug": 9691, 
  "kehren": 9692, 
  "Windows-@@": 9693, 
  "69": 9694, 
  "EWG": 9695, 
  "Konsum@@": 9696, 
  "rel@@": 9697, 
  "Seg@@": 9698, 
  "Unfälle": 9699, 
  "Schulung": 9700, 
  "schwer@@": 9701, 
  "behindertenfreundliche": 9702, 
  "palästinensische": 9703, 
  "EC": 9704, 
  "runde": 9705, 
  "Mc@@": 9706, 
  "ag": 9707, 
  "Bedauern": 9708, 
  "Mittelmeer@@": 9709, 
  "auszubauen": 9710, 
  "Vormittag": 9711, 
  "1987": 9712, 
  "Festivals": 9713, 
  "Dienstleister": 9714, 
  "sahen": 9715, 
  "Verts": 9716, 
  "Körpers": 9717, 
  "umgewandelt": 9718, 
  "Richtungen": 9719, 
  "Thermal@@": 9720, 
  "willen": 9721, 
  "Messen": 9722, 
  "Brüder": 9723, 
  "1985": 9724, 
  "strengere": 9725, 
  "normen": 9726, 
  "herbeizuführen": 9727, 
  "einzigartiges": 9728, 
  "Christian": 9729, 
  "Durchbruch": 9730, 
  "gericht": 9731, 
  "Erwägungen": 9732, 
  "ecke": 9733, 
  "Alliance": 9734, 
  "40@@": 9735, 
  "let@@": 9736, 
  "angel@@": 9737, 
  "restlichen": 9738, 
  "Blumen": 9739, 
  "Behauptung": 9740, 
  "Streitigkeiten": 9741, 
  "mas@@": 9742, 
  "Schnee": 9743, 
  "gei@@": 9744, 
  "ankommt": 9745, 
  "zivil@@": 9746, 
  "FI": 9747, 
  "Gleiche": 9748, 
  "jeglichen": 9749, 
  "Fische": 9750, 
  "ehen": 9751, 
  "anspruchsvollen": 9752, 
  "folge": 9753, 
  "Errungenschaften": 9754, 
  "ams": 9755, 
  "Han@@": 9756, 
  "geschäfte": 9757, 
  "Pass@@": 9758, 
  "Allah": 9759, 
  "Fischer@@": 9760, 
  "Betrieben": 9761, 
  "Züge": 9762, 
  "zeitraum": 9763, 
  "Zufall": 9764, 
  "angesprochenen": 9765, 
  "Gute": 9766, 
  "herausragende": 9767, 
  "Schriften": 9768, 
  "Pflanzen@@": 9769, 
  "Tempel": 9770, 
  "beeindruckenden": 9771, 
  "he@@": 9772, 
  "24@@": 9773, 
  "endsten": 9774, 
  "Auswirkung": 9775, 
  "gezielte": 9776, 
  "wende": 9777, 
  "Oper": 9778, 
  "güter": 9779, 
  "Ly@@": 9780, 
  "glichen": 9781, 
  "Kohle": 9782, 
  "lebte": 9783, 
  "USB-@@": 9784, 
  "Badewanne": 9785, 
  "tlich": 9786, 
  "gezahlt": 9787, 
  "Weitergabe": 9788, 
  "Fachleute": 9789, 
  "messe": 9790, 
  "Beitrittskandidaten": 9791, 
  "Auswahl@@": 9792, 
  "Nachweis": 9793, 
  "Einigkeit": 9794, 
  "schiff": 9795, 
  "übereinstimmen": 9796, 
  "verhaftet": 9797, 
  "bett": 9798, 
  "begannen": 9799, 
  "oni@@": 9800, 
  "Hin@@": 9801, 
  "lim@@": 9802, 
  "els@@": 9803, 
  "M.": 9804, 
  "Posten": 9805, 
  "Flair": 9806, 
  "sü@@": 9807, 
  "Luxus@@": 9808, 
  "Milliarde": 9809, 
  "Leg@@": 9810, 
  "Gor@@": 9811, 
  "langjährigen": 9812, 
  "Textil@@": 9813, 
  "hielten": 9814, 
  "klausel": 9815, 
  "studierte": 9816, 
  "Akt": 9817, 
  "Wortlaut": 9818, 
  "begehen": 9819, 
  "medi@@": 9820, 
  "Ideologie": 9821, 
  "Kommunismus": 9822, 
  "PC@@": 9823, 
  "Rohstoff@@": 9824, 
  "wettbewerbsfähig": 9825, 
  "regierung": 9826, 
  "führ@@": 9827, 
  "stätte": 9828, 
  "UNESCO": 9829, 
  "Paar": 9830, 
  "Parlamentarier": 9831, 
  "Einmischung": 9832, 
  "Laufzeit": 9833, 
  "vorhaben": 9834, 
  "Bir@@": 9835, 
  "Bewirtschaftung": 9836, 
  "Was": 9837, 
  "Solarium": 9838, 
  "folgendes": 9839, 
  "Telekommunikation": 9840, 
  "Straßenverkehr": 9841, 
  "lü@@": 9842, 
  "EP@@": 9843, 
  "Amts@@": 9844, 
  "Zugangs@@": 9845, 
  "vorsehen": 9846, 
  "märkten": 9847, 
  "Kodex": 9848, 
  "halb": 9849, 
  "erweist": 9850, 
  "traf": 9851, 
  "ALDE-Fraktion": 9852, 
  "Lag@@": 9853, 
  "81": 9854, 
  "Detail@@": 9855, 
  "Pilot@@": 9856, 
  "pr@@": 9857, 
  "89": 9858, 
  "absoluten": 9859, 
  "Bru@@": 9860, 
  "offener": 9861, 
  "Enttäuschung": 9862, 
  "d.@@": 9863, 
  "Änderungsantrags": 9864, 
  "Dimensionen": 9865, 
  "Kommissionsmitglied": 9866, 
  "siven": 9867, 
  "überraschend": 9868, 
  "weitergehen": 9869, 
  "Meeres": 9870, 
  "Konzeption": 9871, 
  "transparenter": 9872, 
  "Brief@@": 9873, 
  "A.": 9874, 
  "ausgeht": 9875, 
  "standes": 9876, 
  "Gesundheitsversorgung": 9877, 
  "warme": 9878, 
  "finnischen": 9879, 
  "Leiden": 9880, 
  "Reisende": 9881, 
  "breiter": 9882, 
  "Konsum": 9883, 
  "bevorzugt": 9884, 
  "verarbeitung": 9885, 
  "Legislativ@@": 9886, 
  "ankommen": 9887, 
  "Verknüpfung": 9888, 
  "schnellstmöglich": 9889, 
  "solle": 9890, 
  "auszuführen": 9891, 
  "Palma": 9892, 
  "übersehen": 9893, 
  "seid": 9894, 
  "port@@": 9895, 
  "Aktualität": 9896, 
  "äm@@": 9897, 
  "Al": 9898, 
  "Abfahrt": 9899, 
[...]
