{
  "eos": 0, 
  "UNK": 1, 
  "the": 2, 
  ",": 3, 
  ".": 4, 
  "of": 5, 
  "to": 6, 
  "and": 7, 
  "in": 8, 
  "a": 9, 
  "that": 10, 
  "is": 11, 
  "&apos;s": 12, 
  "for": 13, 
  "as": 14, 
  "it": 15, 
  "be": 16, 
  "not": 17, 
  "are": 18, 
  "with": 19, 
  "on": 20, 
  "but": 21, 
  "-": 22, 
  "by": 23, 
  "&apos;&apos;": 24, 
  "have": 25, 
  "has": 26, 
  "this": 27, 
  "will": 28, 
  "``": 29, 
  "from": 30, 
  "their": 31, 
  "its": 32, 
  "an": 33, 
  "more": 34, 
  "was": 35, 
  "they": 36, 
  "at": 37, 
  "or": 38, 
  "would": 39, 
  "can": 40, 
  "countries": 41, 
  "US": 42, 
  "which": 43, 
  "than": 44, 
  "world": 45, 
  "if": 46, 
  "we": 47, 
  "all": 48, 
  "-RRB-": 49, 
  "one": 50, 
  "-LRB-": 51, 
  "been": 52, 
  "so": 53, 
  "only": 54, 
  "China": 55, 
  "economic": 56, 
  "his": 57, 
  "new": 58, 
  ":": 59, 
  "there": 60, 
  "no": 61, 
  "government": 62, 
  "other": 63, 
  "political": 64, 
  "about": 65, 
  "even": 66, 
  "%": 67, 
  "should": 68, 
  "when": 69, 
  "such": 70, 
  "who": 71, 
  "were": 72, 
  "now": 73, 
  "also": 74, 
  "Europe": 75, 
  "these": 76, 
  "most": 77, 
  "what": 78, 
  "people": 79, 
  "many": 80, 
  ";": 81, 
  "he": 82, 
  "some": 83, 
  "do": 84, 
  "could": 85, 
  "global": 86, 
  "?": 87, 
  "years": 88, 
  "European": 89, 
  "financial": 90, 
  "country": 91, 
  "growth": 92, 
  "because": 93, 
  "must": 94, 
  "into": 95, 
  "may": 96, 
  "America": 97, 
  "had": 98, 
  "much": 99, 
  "over": 100, 
  "power": 101, 
  "them": 102, 
  "time": 103, 
  "economy": 104, 
  "policy": 105, 
  "out": 106, 
  "while": 107, 
  "between": 108, 
  "after": 109, 
  "those": 110, 
  "like": 111, 
  "Russia": 112, 
  "EU": 113, 
  "up": 114, 
  "crisis": 115, 
  "I": 116, 
  "international": 117, 
  "our": 118, 
  "first": 119, 
  "two": 120, 
  "any": 121, 
  "public": 122, 
  "both": 123, 
  "how": 124, 
  "against": 125, 
  "well": 126, 
  "indeed": 127, 
  "today": 128, 
  "system": 129, 
  "United": 130, 
  "way": 131, 
  "year": 132, 
  "need": 133, 
  "state": 134, 
  "too": 135, 
  "American": 136, 
  "market": 137, 
  "make": 138, 
  "just": 139, 
  "military": 140, 
  "less": 141, 
  "markets": 142, 
  "does": 143, 
  "change": 144, 
  "own": 145, 
  "become": 146, 
  "since": 147, 
  "last": 148, 
  "where": 149, 
  "debt": 150, 
  "war": 151, 
  "leaders": 152, 
  "$": 153, 
  "support": 154, 
  "national": 155, 
  "trade": 156, 
  "yet": 157, 
  "governments": 158, 
  "President": 159, 
  "still": 160, 
  "without": 161, 
  "banks": 162, 
  "far": 163, 
  "foreign": 164, 
  "long": 165, 
  "being": 166, 
  "same": 167, 
  "might": 168, 
  "future": 169, 
  "example": 170, 
  "did": 171, 
  "through": 172, 
  "important": 173, 
  "recent": 174, 
  "then": 175, 
  "social": 176, 
  "high": 177, 
  "Japan": 178, 
  "rates": 179, 
  "policies": 180, 
  "interest": 181, 
  "States": 182, 
  "Chinese": 183, 
  "Iraq": 184, 
  "real": 185, 
  "n&apos;t": 186, 
  "Israel": 187, 
  "made": 188, 
  "under": 189, 
  "current": 190, 
  "good": 191, 
  "India": 192, 
  "capital": 193, 
  "s": 194, 
  "fiscal": 195, 
  "likely": 196, 
  "security": 197, 
  "democracy": 198, 
  "prices": 199, 
  "end": 200, 
  "large": 201, 
  "before": 202, 
  "course": 203, 
  "rather": 204, 
  "nuclear": 205, 
  "human": 206, 
  "part": 207, 
  "right": 208, 
  "take": 209, 
  "states": 210, 
  "Germany": 211, 
  "very": 212, 
  "problem": 213, 
  "work": 214, 
  "another": 215, 
  "development": 216, 
  "past": 217, 
  "rate": 218, 
  "use": 219, 
  "however": 220, 
  "better": 221, 
  "Bush": 222, 
  "investment": 223, 
  "Iran": 224, 
  "energy": 225, 
  "often": 226, 
  "Union": 227, 
  "major": 228, 
  "risk": 229, 
  "during": 230, 
  "oil": 231, 
  "including": 232, 
  "result": 233, 
  "you": 234, 
  "why": 235, 
  "help": 236, 
  "us": 237, 
  "fact": 238, 
  "problems": 239, 
  "billion": 240, 
  "institutions": 241, 
  "order": 242, 
  "thus": 243, 
  "three": 244, 
  "money": 245, 
  "economies": 246, 
  "moreover": 247, 
  "few": 248, 
  "whether": 249, 
  "little": 250, 
  "among": 251, 
  "around": 252, 
  "Obama": 253, 
  "--": 254, 
  "West": 255, 
  "East": 256, 
  "poor": 257, 
  "rights": 258, 
  "given": 259, 
  "France": 260, 
  "tax": 261, 
  "means": 262, 
  "process": 263, 
  "role": 264, 
  "region": 265, 
  "developing": 266, 
  "already": 267, 
  "others": 268, 
  "Bank": 269, 
  "different": 270, 
  "back": 271, 
  "second": 272, 
  "GDP": 273, 
  "down": 274, 
  "increase": 275, 
  "central": 276, 
  "members": 277, 
  "demand": 278, 
  "within": 279, 
  "spending": 280, 
  "higher": 281, 
  "reform": 282, 
  "case": 283, 
  "least": 284, 
  "Asia": 285, 
  "clear": 286, 
  "needs": 287, 
  "democratic": 288, 
  "come": 289, 
  "ago": 290, 
  "private": 291, 
  "almost": 292, 
  "next": 293, 
  "each": 294, 
  "life": 295, 
  "itself": 296, 
  "million": 297, 
  "never": 298, 
  "peace": 299, 
  "needed": 300, 
  "law": 301, 
  "&amp;": 302, 
  "domestic": 303, 
  "strong": 304, 
  "history": 305, 
  "society": 306, 
  "greater": 307, 
  "perhaps": 308, 
  "remains": 309, 
  "point": 310, 
  "seems": 311, 
  "inflation": 312, 
  "regime": 313, 
  "women": 314, 
  "costs": 315, 
  "World": 316, 
  "price": 317, 
  "Africa": 318, 
  "despite": 319, 
  "remain": 320, 
  "see": 321, 
  "health": 322, 
  "once": 323, 
  "control": 324, 
  "income": 325, 
  "interests": 326, 
  "continue": 327, 
  "put": 328, 
  "administration": 329, 
  "climate": 330, 
  "politics": 331, 
  "currency": 332, 
  "free": 333, 
  "every": 334, 
  "especially": 335, 
  "French": 336, 
  "possible": 337, 
  "IMF": 338, 
  "force": 339, 
  "further": 340, 
  "want": 341, 
  "say": 342, 
  "rise": 343, 
  "themselves": 344, 
  "common": 345, 
  "euro": 346, 
  "UN": 347, 
  "difficult": 348, 
  "great": 349, 
  "best": 350, 
  "number": 351, 
  "population": 352, 
  "growing": 353, 
  "former": 354, 
  "Western": 355, 
  "president": 356, 
  "The": 357, 
  "used": 358, 
  "place": 359, 
  "get": 360, 
  "him": 361, 
  "true": 362, 
  "longer": 363, 
  "enough": 364, 
  "question": 365, 
  "recently": 366, 
  "resources": 367, 
  "set": 368, 
  "Turkey": 369, 
  "Arab": 370, 
  "Putin": 371, 
  "forces": 372, 
  "instead": 373, 
  "election": 374, 
  "eurozone": 375, 
  "decades": 376, 
  "level": 377, 
  "my": 378, 
  "believe": 379, 
  "led": 380, 
  "business": 381, 
  "companies": 382, 
  "small": 383, 
  "member": 384, 
  "dollar": 385, 
  "off": 386, 
  "again": 387, 
  "monetary": 388, 
  "able": 389, 
  "provide": 390, 
  "citizens": 391, 
  "sense": 392, 
  "South": 393, 
  "century": 394, 
  "though": 395, 
  "stability": 396, 
  "know": 397, 
  "efforts": 398, 
  "issues": 399, 
  "go": 400, 
  "Russian": 401, 
  "key": 402, 
  "face": 403, 
  "left": 404, 
  "unemployment": 405, 
  "lead": 406, 
  "rule": 407, 
  "long-term": 408, 
  "terms": 409, 
  "benefits": 410, 
  "Middle": 411, 
  "serious": 412, 
  "Americans": 413, 
  "cost": 414, 
  "reforms": 415, 
  "Korea": 416, 
  "sector": 417, 
  "ever": 418, 
  "simply": 419, 
  "leadership": 420, 
  "early": 421, 
  "always": 422, 
  "War": 423, 
  "view": 424, 
  "reduce": 425, 
  "issue": 426, 
  "exchange": 427, 
  "education": 428, 
  "labor": 429, 
  "until": 430, 
  "based": 431, 
  "old": 432, 
  "elections": 433, 
  "making": 434, 
  "although": 435, 
  "big": 436, 
  "low": 437, 
  "rich": 438, 
  "Palestinian": 439, 
  "increasingly": 440, 
  "find": 441, 
  "particularly": 442, 
  "reason": 443, 
  "research": 444, 
  "per": 445, 
  "North": 446, 
  "poverty": 447, 
  "community": 448, 
  "workers": 449, 
  "local": 450, 
  "home": 451, 
  "hard": 452, 
  "regional": 453, 
  "times": 454, 
  "budget": 455, 
  "strategy": 456, 
  "value": 457, 
  "credit": 458, 
  "said": 459, 
  "investors": 460, 
  "politicians": 461, 
  "conflict": 462, 
  "emerging": 463, 
  "deficit": 464, 
  "relations": 465, 
  "party": 466, 
  "her": 467, 
  "whose": 468, 
  "decade": 469, 
  "children": 470, 
  "Council": 471, 
  "approach": 472, 
  "parties": 473, 
  "lower": 474, 
  "risks": 475, 
  "effective": 476, 
  "create": 477, 
  "open": 478, 
  "services": 479, 
  "turn": 480, 
  "bank": 481, 
  "several": 482, 
  "Minister": 483, 
  "action": 484, 
  "run": 485, 
  "share": 486, 
  "together": 487, 
  "increased": 488, 
  "jobs": 489, 
  "form": 490, 
  "levels": 491, 
  "hope": 492, 
  "pay": 493, 
  "think": 494, 
  "rising": 495, 
  "fall": 496, 
  "finance": 497, 
  "Party": 498, 
  "potential": 499, 
  "opposition": 500, 
  "called": 501, 
  "groups": 502, 
  "-@@": 503, 
  "information": 504, 
  "violence": 505, 
  "similar": 506, 
  "necessary": 507, 
  "threat": 508, 
  "NATO": 509, 
  "Afghanistan": 510, 
  "officials": 511, 
  "success": 512, 
  "seen": 513, 
  "seem": 514, 
  "toward": 515, 
  "nor": 516, 
  "return": 517, 
  "developed": 518, 
  "ways": 519, 
  "agreement": 520, 
  "done": 521, 
  "across": 522, 
  "challenge": 523, 
  "day": 524, 
  "cause": 525, 
  "Soviet": 526, 
  "rules": 527, 
  "measures": 528, 
  "Pakistan": 529, 
  "idea": 530, 
  "changes": 531, 
  "weapons": 532, 
  "failed": 533, 
  "lack": 534, 
  "short": 535, 
  "nothing": 536, 
  "deal": 537, 
  "failure": 538, 
  "according": 539, 
  "Latin": 540, 
  "taken": 541, 
  "recession": 542, 
  "conditions": 543, 
  "months": 544, 
  "powerful": 545, 
  "main": 546, 
  "firms": 547, 
  "balance": 548, 
  "half": 549, 
  "British": 550, 
  "influence": 551, 
  "majority": 552, 
  "makes": 553, 
  "rest": 554, 
  "became": 555, 
  "something": 556, 
  "really": 557, 
  "position": 558, 
  "away": 559, 
  "beyond": 560, 
  "pressure": 561, 
  "values": 562, 
  "production": 563, 
  "modern": 564, 
  "freedom": 565, 
  "look": 566, 
  "either": 567, 
  "requires": 568, 
  "debate": 569, 
  "young": 570, 
  "group": 571, 
  "food": 572, 
  "deficits": 573, 
  "systems": 574, 
  "huge": 575, 
  "fear": 576, 
  "religious": 577, 
  "assets": 578, 
  "found": 579, 
  "bad": 580, 
  "give": 581, 
  "civil": 582, 
  "here": 583, 
  "created": 584, 
  "prevent": 585, 
  "significant": 586, 
  "Europeans": 587, 
  "leading": 588, 
  "progress": 589, 
  "bring": 590, 
  "Central": 591, 
  "German": 592, 
  "lost": 593, 
  "term": 594, 
  "having": 595, 
  "massive": 596, 
  "media": 597, 
  "increasing": 598, 
  "keep": 599, 
  "technology": 600, 
  "aid": 601, 
  "model": 602, 
  "legal": 603, 
  "response": 604, 
  "areas": 605, 
  "program": 606, 
  "consider": 607, 
  "Britain": 608, 
  "decline": 609, 
  "globalization": 610, 
  "leader": 611, 
  "banking": 612, 
  "start": 613, 
  "later": 614, 
  "1990": 615, 
  "employment": 616, 
  "access": 617, 
  "matter": 618, 
  "strategic": 619, 
  "consequences": 620, 
  "natural": 621, 
  "ECB": 622, 
  "things": 623, 
  "single": 624, 
  "exports": 625, 
  "Ukraine": 626, 
  "official": 627, 
  "challenges": 628, 
  "@/@": 629, 
  "20": 630, 
  "doing": 631, 
  "impact": 632, 
  "corruption": 633, 
  "five": 634, 
  "Greece": 635, 
  "situation": 636, 
  "advanced": 637, 
  "finally": 638, 
  "began": 639, 
  "move": 640, 
  "alone": 641, 
  "full": 642, 
  "effect": 643, 
  "probably": 644, 
  "presidential": 645, 
  "live": 646, 
  "period": 647, 
  "four": 648, 
  "play": 649, 
  "ensure": 650, 
  "water": 651, 
  "ability": 652, 
  "cooperation": 653, 
  "Italy": 654, 
  "worse": 655, 
  "Commission": 656, 
  "Prime": 657, 
  "2008": 658, 
  "Asian": 659, 
  "consumption": 660, 
  "un@@": 661, 
  "soon": 662, 
  "wealth": 663, 
  "clearly": 664, 
  "terrorism": 665, 
  "individual": 666, 
  "close": 667, 
  "fundamental": 668, 
  "average": 669, 
  "evidence": 670, 
  "behind": 671, 
  "#": 672, 
  "total": 673, 
  "Muslim": 674, 
  "funds": 675, 
  "care": 676, 
  "job": 677, 
  "wrong": 678, 
  "effort": 679, 
  "let": 680, 
  "emissions": 681, 
  "require": 682, 
  "solution": 683, 
  "recovery": 684, 
  "goods": 685, 
  "lives": 686, 
  "nations": 687, 
  "opportunity": 688, 
  "third": 689, 
  "late": 690, 
  "integration": 691, 
  "programs": 692, 
  "focus": 693, 
  "popular": 694, 
  "effects": 695, 
  "Japanese": 696, 
  "experience": 697, 
  "taxes": 698, 
  "confidence": 699, 
  "Islamic": 700, 
  "mean": 701, 
  "collapse": 702, 
  "living": 703, 
  "defense": 704, 
  "took": 705, 
  "she": 706, 
  "Fund": 707, 
  "moral": 708, 
  "Egypt": 709, 
  "decision": 710, 
  "cut": 711, 
  "science": 712, 
  "traditional": 713, 
  "achieve": 714, 
  "everyone": 715, 
  "allow": 716, 
  "taking": 717, 
  "came": 718, 
  "Hamas": 719, 
  "Israeli": 720, 
  "International": 721, 
  "hand": 722, 
  "attention": 723, 
  "capacity": 724, 
  "vote": 725, 
  "10": 726, 
  "comes": 727, 
  "act": 728, 
  "largely": 729, 
  "understand": 730, 
  "gas": 731, 
  "coming": 732, 
  "Brazil": 733, 
  "following": 734, 
  "Security": 735, 
  "particular": 736, 
  "avoid": 737, 
  "New": 738, 
  "campaign": 739, 
  "powers": 740, 
  "negotiations": 741, 
  "side": 742, 
  "Spain": 743, 
  "top": 744, 
  "plan": 745, 
  "competition": 746, 
  "successful": 747, 
  "cases": 748, 
  "reality": 749, 
  "Palestinians": 750, 
  "limited": 751, 
  "re@@": 752, 
  "kind": 753, 
  "men": 754, 
  "call": 755, 
  "held": 756, 
  "using": 757, 
  "largest": 758, 
  "produce": 759, 
  "above": 760, 
  "annual": 761, 
  "expected": 762, 
  "reasons": 763, 
  "economists": 764, 
  "supply": 765, 
  "working": 766, 
  "benefit": 767, 
  "actually": 768, 
  "outside": 769, 
  "basic": 770, 
  "decisions": 771, 
  "hold": 772, 
  "culture": 773, 
  "towards": 774, 
  "infrastructure": 775, 
  "status": 776, 
  "contrast": 777, 
  "brought": 778, 
  "show": 779, 
  "alternative": 780, 
  "responsibility": 781, 
  "minister": 782, 
  "industrial": 783, 
  "independent": 784, 
  "rapid": 785, 
  "relative": 786, 
  "attacks": 787, 
  "certain": 788, 
  "relatively": 789, 
  "highly": 790, 
  "cuts": 791, 
  "stock": 792, 
  "accept": 793, 
  "death": 794, 
  "African": 795, 
  "governance": 796, 
  "known": 797, 
  "certainly": 798, 
  "Mexico": 799, 
  "me": 800, 
  "thought": 801, 
  "step": 802, 
  "address": 803, 
  "behavior": 804, 
  "results": 805, 
  "general": 806, 
  "standards": 807, 
  "bonds": 808, 
  "concerns": 809, 
  "family": 810, 
  "authorities": 811, 
  "voters": 812, 
  "environment": 813, 
  "revolution": 814, 
  "weak": 815, 
  "productivity": 816, 
  "direct": 817, 
  "words": 818, 
  "50": 819, 
  "allowed": 820, 
  "land": 821, 
  "environmental": 822, 
  "man": 823, 
  "days": 824, 
  "nearly": 825, 
  "Nations": 826, 
  "elsewhere": 827, 
  "protect": 828, 
  "sometimes": 829, 
  "throughout": 830, 
  "agenda": 831, 
  "neither": 832, 
  "building": 833, 
  "stimulus": 834, 
  "build": 835, 
  "fight": 836, 
  "appears": 837, 
  "unlikely": 838, 
  "helped": 839, 
  "forced": 840, 
  "deep": 841, 
  "warming": 842, 
  "Great": 843, 
  "easy": 844, 
  "scientific": 845, 
  "investments": 846, 
  "crises": 847, 
  "individuals": 848, 
  "structural": 849, 
  "answer": 850, 
  "unfortunately": 851, 
  "meeting": 852, 
  "1": 853, 
  "30": 854, 
  "creating": 855, 
  "age": 856, 
  "caused": 857, 
  "maintain": 858, 
  "line": 859, 
  "stop": 860, 
  "millions": 861, 
  "dangerous": 862, 
  "industry": 863, 
  "news": 864, 
  "intervention": 865, 
  "goal": 866, 
  "argue": 867, 
  "eventually": 868, 
  "2009": 869, 
  "societies": 870, 
  "quickly": 871, 
  "required": 872, 
  "era": 873, 
  "nbsp": 874, 
  "movement": 875, 
  "larger": 876, 
  "respect": 877, 
  "nation": 878, 
  "nature": 879, 
  "commitment": 880, 
  "independence": 881, 
  "becoming": 882, 
  "events": 883, 
  "housing": 884, 
  "reserves": 885, 
  "merely": 886, 
  "followed": 887, 
  "Syria": 888, 
  "September": 889, 
  "reducing": 890, 
  "include": 891, 
  "2010": 892, 
  "claim": 893, 
  "policymakers": 894, 
  "parts": 895, 
  "simple": 896, 
  "basis": 897, 
  "sure": 898, 
  "therefore": 899, 
  "along": 900, 
  "outcome": 901, 
  "shift": 902, 
  "cultural": 903, 
  "moment": 904, 
  "due": 905, 
  "provided": 906, 
  "Argentina": 907, 
  "turned": 908, 
  "union": 909, 
  "ten": 910, 
  "1980": 911, 
  "whole": 912, 
  "dollars": 913, 
  "offer": 914, 
  "external": 915, 
  "thing": 916, 
  "owing": 917, 
  "seek": 918, 
  "report": 919, 
  "insurance": 920, 
  "going": 921, 
  "disease": 922, 
  "entire": 923, 
  "fully": 924, 
  "membership": 925, 
  "relationship": 926, 
  "Gaza": 927, 
  "beginning": 928, 
  "account": 929, 
  "reach": 930, 
  "elected": 931, 
  "performance": 932, 
  "assistance": 933, 
  "organizations": 934, 
  "carbon": 935, 
  "established": 936, 
  "currently": 937, 
  "increases": 938, 
  "similarly": 939, 
  "area": 940, 
  "feel": 941, 
  "meet": 942, 
  "choice": 943, 
  "mass": 944, 
  "police": 945, 
  "George": 946, 
  "thinking": 947, 
  "2001": 948, 
  "questions": 949, 
  "generation": 950, 
  "London": 951, 
  "your": 952, 
  "liberal": 953, 
  "recognize": 954, 
  "month": 955, 
  "internal": 956, 
  "creation": 957, 
  "office": 958, 
  "Treaty": 959, 
  "wants": 960, 
  "begin": 961, 
  "critical": 962, 
  "loss": 963, 
  "chance": 964, 
  "concern": 965, 
  "attack": 966, 
  "knowledge": 967, 
  "2000": 968, 
  "terrorist": 969, 
  "willing": 970, 
  "160": 971, 
  "regions": 972, 
  "complex": 973, 
  "Washington": 974, 
  "institutional": 975, 
  "roughly": 976, 
  "authority": 977, 
  "sustainable": 978, 
  "source": 979, 
  "ideas": 980, 
  "Poland": 981, 
  "improve": 982, 
  "incentives": 983, 
  "raise": 984, 
  "Saudi": 985, 
  "corporate": 986, 
  "economics": 987, 
  "proposed": 988, 
  "army": 989, 
  "grow": 990, 
  "2007": 991, 
  "obvious": 992, 
  "non-@@": 993, 
  "trying": 994, 
  "talks": 995, 
  "legitimacy": 996, 
  "victory": 997, 
  "size": 998, 
  "available": 999, 
  "principle": 1000, 
  "prime": 1001, 
  "Sarkozy": 1002, 
  "products": 1003, 
  "Congress": 1004, 
  "impossible": 1005, 
  "essential": 1006, 
  "politically": 1007, 
  "historical": 1008, 
  "laws": 1009, 
  "differences": 1010, 
  "positive": 1011, 
  "management": 1012, 
  "path": 1013, 
  "anything": 1014, 
  "continued": 1015, 
  "regulation": 1016, 
  "actions": 1017, 
  "develop": 1018, 
  "fail": 1019, 
  "savings": 1020, 
  "summit": 1021, 
  "reduced": 1022, 
  "promote": 1023, 
  "ultimately": 1024, 
  "personal": 1025, 
  "technologies": 1026, 
  "easily": 1027, 
  "export": 1028, 
  "capitalism": 1029, 
  "spread": 1030, 
  "Islam": 1031, 
  "de": 1032, 
  "so-called": 1033, 
  "damage": 1034, 
  "losses": 1035, 
  "drug": 1036, 
  "opportunities": 1037, 
  "rapidly": 1038, 
  "transition": 1039, 
  "understanding": 1040, 
  "gain": 1041, 
  "40": 1042, 
  "unless": 1043, 
  "Barack": 1044, 
  "factors": 1045, 
  "ahead": 1046, 
  "scale": 1047, 
  "consensus": 1048, 
  "justice": 1049, 
  "boom": 1050, 
  "continues": 1051, 
  "theory": 1052, 
  "company": 1053, 
  "lending": 1054, 
  "aimed": 1055, 
  "wars": 1056, 
  "save": 1057, 
  "additional": 1058, 
  "2004": 1059, 
  "matters": 1060, 
  "appear": 1061, 
  "Lebanon": 1062, 
  "suggests": 1063, 
  "Fed": 1064, 
  "himself": 1065, 
  "special": 1066, 
  "forward": 1067, 
  "committed": 1068, 
  "welfare": 1069, 
  "2005": 1070, 
  "sides": 1071, 
  "story": 1072, 
  "changed": 1073, 
  "vision": 1074, 
  "seemed": 1075, 
  "cities": 1076, 
  "II": 1077, 
  "protection": 1078, 
  "2": 1079, 
  "trillion": 1080, 
  "try": 1081, 
  "11": 1082, 
  "troops": 1083, 
  "treatment": 1084, 
  "asset": 1085, 
  "Indian": 1086, 
  "opinion": 1087, 
  "extreme": 1088, 
  "competitive": 1089, 
  "prosperity": 1090, 
  "stable": 1091, 
  "Kosovo": 1092, 
  "inequality": 1093, 
  "demands": 1094, 
  "saving": 1095, 
  "Muslims": 1096, 
  "loans": 1097, 
  "core": 1098, 
  "Georgia": 1099, 
  "constitution": 1100, 
  "Eastern": 1101, 
  "directly": 1102, 
  "ethnic": 1103, 
  "follow": 1104, 
  "buy": 1105, 
  "output": 1106, 
  "various": 1107, 
  "diplomatic": 1108, 
  "claims": 1109, 
  "responsible": 1110, 
  "financing": 1111, 
  "allies": 1112, 
  "head": 1113, 
  "six": 1114, 
  "usually": 1115, 
  "National": 1116, 
  "vast": 1117, 
  "expect": 1118, 
  "immediate": 1119, 
  "leave": 1120, 
  "existing": 1121, 
  "happened": 1122, 
  "coalition": 1123, 
  "asked": 1124, 
  "whatever": 1125, 
  "households": 1126, 
  "difference": 1127, 
  "thousands": 1128, 
  "importance": 1129, 
  "Iraqi": 1130, 
  "happen": 1131, 
  "started": 1132, 
  "Federal": 1133, 
  "presidency": 1134, 
  "default": 1135, 
  "favor": 1136, 
  "net": 1137, 
  "none": 1138, 
  "else": 1139, 
  "doubt": 1140, 
  "paid": 1141, 
  "sanctions": 1142, 
  "amount": 1143, 
  "re-@@": 1144, 
  "quality": 1145, 
  "contrary": 1146, 
  "neighbors": 1147, 
  "limits": 1148, 
  "upon": 1149, 
  "Iranian": 1150, 
  "unlike": 1151, 
  "15": 1152, 
  "slow": 1153, 
  "democracies": 1154, 
  "ing": 1155, 
  "compared": 1156, 
  "agreed": 1157, 
  "&apos;": 1158, 
  "3": 1159, 
  "Internet": 1160, 
  "reduction": 1161, 
  "otherwise": 1162, 
  "stronger": 1163, 
  "ordinary": 1164, 
  "reached": 1165, 
  "press": 1166, 
  "produced": 1167, 
  "severe": 1168, 
  "achieved": 1169, 
  "present": 1170, 
  "short-term": 1171, 
  "Cold": 1172, 
  "record": 1173, 
  "worldwide": 1174, 
  "abroad": 1175, 
  "negative": 1176, 
  "General": 1177, 
  "overall": 1178, 
  "direction": 1179, 
  "surplus": 1180, 
  "facing": 1181, 
  "earlier": 1182, 
  "2006": 1183, 
  "whereas": 1184, 
  "data": 1185, 
  "soft": 1186, 
  "ed": 1187, 
  "went": 1188, 
  "tried": 1189, 
  "liquidity": 1190, 
  "widely": 1191, 
  "framework": 1192, 
  "argument": 1193, 
  "project": 1194, 
  "competitiveness": 1195, 
  "mostly": 1196, 
  "class": 1197, 
  "truth": 1198, 
  "calls": 1199, 
  "attempt": 1200, 
  "effectively": 1201, 
  "service": 1202, 
  "enormous": 1203, 
  "suggest": 1204, 
  "steps": 1205, 
  "built": 1206, 
  "Secretary": 1207, 
  "innovation": 1208, 
  "shows": 1209, 
  "study": 1210, 
  "Republic": 1211, 
  "plans": 1212, 
  "ground": 1213, 
  "task": 1214, 
  "Kremlin": 1215, 
  "sovereign": 1216, 
  "spent": 1217, 
  "lose": 1218, 
  "vital": 1219, 
  "am": 1220, 
  "boost": 1221, 
  "spend": 1222, 
  "excessive": 1223, 
  "providing": 1224, 
  "previous": 1225, 
  "extent": 1226, 
  "below": 1227, 
  "projects": 1228, 
  "principles": 1229, 
  "struggle": 1230, 
  "standard": 1231, 
  "threats": 1232, 
  "activities": 1233, 
  "crucial": 1234, 
  "candidate": 1235, 
  "radical": 1236, 
  "hundreds": 1237, 
  "game": 1238, 
  "advantage": 1239, 
  "trust": 1240, 
  "designed": 1241, 
  "fighting": 1242, 
  "widespread": 1243, 
  "structure": 1244, 
  "whom": 1245, 
  "burden": 1246, 
  "Taiwan": 1247, 
  "goals": 1248, 
  "anyone": 1249, 
  "stand": 1250, 
  "safety": 1251, 
  "agree": 1252, 
  "name": 1253, 
  "talk": 1254, 
  "provides": 1255, 
  "substantial": 1256, 
  "imbalances": 1257, 
  "takes": 1258, 
  "victims": 1259, 
  "Greek": 1260, 
  "wages": 1261, 
  "farmers": 1262, 
  "25": 1263, 
  "everything": 1264, 
  "YORK": 1265, 
  "argued": 1266, 
  "meanwhile": 1267, 
  "equal": 1268, 
  "near": 1269, 
  "normal": 1270, 
  "consumers": 1271, 
  "borders": 1272, 
  "students": 1273, 
  "secure": 1274, 
  "collective": 1275, 
  "body": 1276, 
  "parliament": 1277, 
  "crimes": 1278, 
  "scientists": 1279, 
  "thereby": 1280, 
  "Court": 1281, 
  "electoral": 1282, 
  "adopted": 1283, 
  "reflects": 1284, 
  "reflect": 1285, 
  "Clinton": 1286, 
  "serve": 1287, 
  "protests": 1288, 
  "shown": 1289, 
  "businesses": 1290, 
  "drugs": 1291, 
  "regimes": 1292, 
  "falling": 1293, 
  "sources": 1294, 
  "G-20": 1295, 
  "becomes": 1296, 
  "absence": 1297, 
  "constitutional": 1298, 
  "gains": 1299, 
  "currencies": 1300, 
  "test": 1301, 
  "fair": 1302, 
  "safe": 1303, 
  "Ireland": 1304, 
  "goes": 1305, 
  "establish": 1306, 
  "prove": 1307, 
  "sectors": 1308, 
  "federal": 1309, 
  "involved": 1310, 
  "conflicts": 1311, 
  "100": 1312, 
  "addition": 1313, 
  "person": 1314, 
  "expansion": 1315, 
  "worth": 1316, 
  "gap": 1317, 
  "target": 1318, 
  "supported": 1319, 
  "points": 1320, 
  "mainly": 1321, 
  "property": 1322, 
  "December": 1323, 
  "circumstances": 1324, 
  "getting": 1325, 
  "improved": 1326, 
  "supposed": 1327, 
  "told": 1328, 
  "won": 1329, 
  "regulatory": 1330, 
  "identity": 1331, 
  "running": 1332, 
  "Monetary": 1333, 
  "Communist": 1334, 
  "sought": 1335, 
  "book": 1336, 
  "hands": 1337, 
  "center": 1338, 
  "imports": 1339, 
  "causes": 1340, 
  "!": 1341, 
  "subsidies": 1342, 
  "hit": 1343, 
  "candidates": 1344, 
  "consumer": 1345, 
  "giving": 1346, 
  "worst": 1347, 
  "November": 1348, 
  "Al": 1349, 
  "shared": 1350, 
  "specific": 1351, 
  "equity": 1352, 
  "sovereignty": 1353, 
  "John": 1354, 
  "danger": 1355, 
  "fell": 1356, 
  "practice": 1357, 
  "treaty": 1358, 
  "alliance": 1359, 
  "ask": 1360, 
  "smaller": 1361, 
  "permanent": 1362, 
  "vulnerable": 1363, 
  "school": 1364, 
  "ruling": 1365, 
  "views": 1366, 
  "macroeconomic": 1367, 
  "in@@": 1368, 
  "flows": 1369, 
  "exist": 1370, 
  "1970": 1371, 
  "communities": 1372, 
  "partly": 1373, 
  "generally": 1374, 
  "partners": 1375, 
  "expectations": 1376, 
  "strengthen": 1377, 
  "biggest": 1378, 
  "60": 1379, 
  "faces": 1380, 
  "language": 1381, 
  "win": 1382, 
  "Kingdom": 1383, 
  "message": 1384, 
  "industries": 1385, 
  "push": 1386, 
  "join": 1387, 
  "terrorists": 1388, 
  "type": 1389, 
  "worked": 1390, 
  "tend": 1391, 
  "5": 1392, 
  "prospects": 1393, 
  "learned": 1394, 
  "depends": 1395, 
  "Moscow": 1396, 
  "lesson": 1397, 
  "W.": 1398, 
  "received": 1399, 
  "seeking": 1400, 
  "likewise": 1401, 
  "nowadays": 1402, 
  "seriously": 1403, 
  "unable": 1404, 
  "cancer": 1405, 
  "trading": 1406, 
  "instability": 1407, 
  "significantly": 1408, 
  "city": 1409, 
  "Blair": 1410, 
  "2003": 1411, 
  "factor": 1412, 
  "peaceful": 1413, 
  "lot": 1414, 
  "middle": 1415, 
  "Reserve": 1416, 
  "diplomacy": 1417, 
  "faster": 1418, 
  "mind": 1419, 
  "weeks": 1420, 
  "Saddam": 1421, 
  "space": 1422, 
  "45": 1423, 
  "encourage": 1424, 
  "week": 1425, 
  "stage": 1426, 
  "religion": 1427, 
  "solutions": 1428, 
  "armed": 1429, 
  "gave": 1430, 
  "nevertheless": 1431, 
  "medical": 1432, 
  "possibility": 1433, 
  "concerned": 1434, 
  "manage": 1435, 
  "Libya": 1436, 
  "arms": 1437, 
  "liberalization": 1438, 
  "combined": 1439, 
  "revenues": 1440, 
  "ties": 1441, 
  "focused": 1442, 
  "activity": 1443, 
  "affairs": 1444, 
  "operations": 1445, 
  "borrowing": 1446, 
  "house": 1447, 
  "base": 1448, 
  "agencies": 1449, 
  "equally": 1450, 
  "lies": 1451, 
  "sign": 1452, 
  "Indonesia": 1453, 
  "killed": 1454, 
  "everywhere": 1455, 
  "poorest": 1456, 
  "parliamentary": 1457, 
  "intellectual": 1458, 
  "disaster": 1459, 
  "round": 1460, 
  "speech": 1461, 
  "technological": 1462, 
  "places": 1463, 
  "models": 1464, 
  "looks": 1465, 
  "invest": 1466, 
  "faced": 1467, 
  "closer": 1468, 
  "Russians": 1469, 
  "anti-@@": 1470, 
  "saw": 1471, 
  "belief": 1472, 
  "respond": 1473, 
  "deeply": 1474, 
  "Hezbollah": 1475, 
  "priority": 1476, 
  "rural": 1477, 
  "promises": 1478, 
  "funding": 1479, 
  "remained": 1480, 
  "efficiency": 1481, 
  "wage": 1482, 
  "managed": 1483, 
  "primary": 1484, 
  "conservative": 1485, 
  "austerity": 1486, 
  "credibility": 1487, 
  "controls": 1488, 
  "border": 1489, 
  "participation": 1490, 
  "Development": 1491, 
  "March": 1492, 
  "virtually": 1493, 
  "accounts": 1494, 
  "organization": 1495, 
  "multilateral": 1496, 
  "State": 1497, 
  "elite": 1498, 
  "learn": 1499, 
  "ready": 1500, 
  "afford": 1501, 
  "promise": 1502, 
  "explain": 1503, 
  "Arabia": 1504, 
  "forms": 1505, 
  "uncertainty": 1506, 
  "positions": 1507, 
  "restore": 1508, 
  "played": 1509, 
  "gold": 1510, 
  "heart": 1511, 
  "bubble": 1512, 
  "commercial": 1513, 
  "raised": 1514, 
  "numbers": 1515, 
  "bilateral": 1516, 
  "appropriate": 1517, 
  "efficient": 1518, 
  "fuel": 1519, 
  "rhetoric": 1520, 
  "suffering": 1521, 
  "experts": 1522, 
  "guarantee": 1523, 
  "construction": 1524, 
  "Hong": 1525, 
  "hardly": 1526, 
  "trend": 1527, 
  "targets": 1528, 
  "intelligence": 1529, 
  "incomes": 1530, 
  "quite": 1531, 
  "patients": 1532, 
  "current-account": 1533, 
  "destruction": 1534, 
  "impose": 1535, 
  "families": 1536, 
  "recognized": 1537, 
  "Israelis": 1538, 
  "degree": 1539, 
  "limit": 1540, 
  "movements": 1541, 
  "helping": 1542, 
  "proposal": 1543, 
  "final": 1544, 
  "imposed": 1545, 
  "sufficient": 1546, 
  "es": 1547, 
  "presence": 1548, 
  "expensive": 1549, 
  "York": 1550, 
  "raising": 1551, 
  "strength": 1552, 
  "Treasury": 1553, 
  "minority": 1554, 
  "...": 1555, 
  "prospect": 1556, 
  "inevitable": 1557, 
  "met": 1558, 
  "Revolution": 1559, 
  "bankers": 1560, 
  "greatest": 1561, 
  "context": 1562, 
  "diseases": 1563, 
  "May": 1564, 
  "considered": 1565, 
  "crime": 1566, 
  "manufacturing": 1567, 
  "blame": 1568, 
  "Serbia": 1569, 
  "depend": 1570, 
  "southern": 1571, 
  "court": 1572, 
  "UK": 1573, 
  "universal": 1574, 
  "sharply": 1575, 
  "measure": 1576, 
  "range": 1577, 
  "initiative": 1578, 
  "continuing": 1579, 
  "violent": 1580, 
  "lines": 1581, 
  "air": 1582, 
  "announced": 1583, 
  "visit": 1584, 
  "Organization": 1585, 
  "regard": 1586, 
  "agreements": 1587, 
  "knows": 1588, 
  "believed": 1589, 
  "Copenhagen": 1590, 
  "related": 1591, 
  "populations": 1592, 
  "option": 1593, 
  "precisely": 1594, 
  "looking": 1595, 
  "June": 1596, 
  "ended": 1597, 
  "studies": 1598, 
  "cutting": 1599, 
  "Taliban": 1600, 
  "legislation": 1601, 
  "child": 1602, 
  "resulting": 1603, 
  "civilian": 1604, 
  "desire": 1605, 
  "schools": 1606, 
  "ones": 1607, 
  "dialogue": 1608, 
  "resolution": 1609, 
  "Beijing": 1610, 
  "agricultural": 1611, 
  "truly": 1612, 
  "sound": 1613, 
  "Cambridge": 1614, 
  "importantly": 1615, 
  "January": 1616, 
  "2011": 1617, 
  "fears": 1618, 
  "Kong": 1619, 
  "scenario": 1620, 
  "household": 1621, 
  "ministers": 1622, 
  "decided": 1623, 
  "changing": 1624, 
  "communism": 1625, 
  "associated": 1626, 
  "sustained": 1627, 
  "succeed": 1628, 
  "break": 1629, 
  "Turkish": 1630, 
  "immigrants": 1631, 
  "declared": 1632, 
  "Korean": 1633, 
  "Wall": 1634, 
  "2002": 1635, 
  "Republican": 1636, 
  "leaving": 1637, 
  "driven": 1638, 
  "meant": 1639, 
  "moving": 1640, 
  "easier": 1641, 
  "fund": 1642, 
  "broader": 1643, 
  "wanted": 1644, 
  "decide": 1645, 
  "subject": 1646, 
  "temporary": 1647, 
  "lessons": 1648, 
  "universities": 1649, 
  "University": 1650, 
  "solidarity": 1651, 
  "light": 1652, 
  "demonstrated": 1653, 
  "capita": 1654, 
  "profits": 1655, 
  "road": 1656, 
  "occur": 1657, 
  "accepted": 1658, 
  "implies": 1659, 
  "gone": 1660, 
  "skills": 1661, 
  "worry": 1662, 
  "securities": 1663, 
  "active": 1664, 
  "enlargement": 1665, 
  "moderate": 1666, 
  "choose": 1667, 
  "authoritarian": 1668, 
  "occupation": 1669, 
  "legitimate": 1670, 
  "highest": 1671, 
  "holding": 1672, 
  "AIDS": 1673, 
  "divided": 1674, 
  "team": 1675, 
  "continent": 1676, 
  "transparency": 1677, 
  "pursue": 1678, 
  "opening": 1679, 
  "promised": 1680, 
  "ongoing": 1681, 
  "nationalism": 1682, 
  "terror": 1683, 
  "works": 1684, 
  "adjustment": 1685, 
  "entirely": 1686, 
  "compromise": 1687, 
  "options": 1688, 
  "opponents": 1689, 
  "kept": 1690, 
  "determined": 1691, 
  "broad": 1692, 
  "resistance": 1693, 
  "drive": 1694, 
  "unity": 1695, 
  "latest": 1696, 
  "sort": 1697, 
  "dramatic": 1698, 
  "understood": 1699, 
  "tensions": 1700, 
  "payments": 1701, 
  "prepared": 1702, 
  "training": 1703, 
  "genetic": 1704, 
  "eight": 1705, 
  "underlying": 1706, 
  "fast": 1707, 
  "rulers": 1708, 
  "debts": 1709, 
  "sharp": 1710, 
  "regulators": 1711, 
  "says": 1712, 
  "ideological": 1713, 
  "implement": 1714, 
  "economist": 1715, 
  "sell": 1716, 
  "defeat": 1717, 
  "choices": 1718, 
  "ca": 1719, 
  "urban": 1720, 
  "practices": 1721, 
  "perceived": 1722, 
  "Depression": 1723, 
  "suffer": 1724, 
  "faith": 1725, 
  "October": 1726, 
  "immigration": 1727, 
  "receive": 1728, 
  "possibly": 1729, 
  "12": 1730, 
  "list": 1731, 
  "July": 1732, 
  "emerged": 1733, 
  "imagine": 1734, 
  "occurred": 1735, 
  "conventional": 1736, 
  "contribute": 1737, 
  "combination": 1738, 
  "friends": 1739, 
  "immediately": 1740, 
  "deliver": 1741, 
  "speak": 1742, 
  "secular": 1743, 
  "surprise": 1744, 
  "1989": 1745, 
  "senior": 1746, 
  "deaths": 1747, 
  "technical": 1748, 
  "4": 1749, 
  "offered": 1750, 
  "1999": 1751, 
  "estimated": 1752, 
  "Paris": 1753, 
  "pace": 1754, 
  "bringing": 1755, 
  "bear": 1756, 
  "excess": 1757, 
  "soldiers": 1758, 
  "comprehensive": 1759, 
  "promoting": 1760, 
  "corrupt": 1761, 
  "unprecedented": 1762, 
  "allowing": 1763, 
  "offers": 1764, 
  "proposals": 1765, 
  "structures": 1766, 
  "carry": 1767, 
  "unique": 1768, 
  "wo": 1769, 
  "settlement": 1770, 
  "represent": 1771, 
  "aim": 1772, 
  "analysis": 1773, 
  "institution": 1774, 
  "recognition": 1775, 
  "self-@@": 1776, 
  "solve": 1777, 
  "commitments": 1778, 
  "Nobel": 1779, 
  "Palestine": 1780, 
  "regardless": 1781, 
  "revenue": 1782, 
  "establishment": 1783, 
  "launched": 1784, 
  "potentially": 1785, 
  "Democratic": 1786, 
  "someone": 1787, 
  "includes": 1788, 
  "maintaining": 1789, 
  "tell": 1790, 
  "rely": 1791, 
  "represents": 1792, 
  "CO2": 1793, 
  "malaria": 1794, 
  "over@@": 1795, 
  "surely": 1796, 
  "typically": 1797, 
  "dramatically": 1798, 
  "players": 1799, 
  "starting": 1800, 
  "Jewish": 1801, 
  "generate": 1802, 
  "homes": 1803, 
  "mechanism": 1804, 
  "deeper": 1805, 
  "percentage": 1806, 
  "trial": 1807, 
  "nationalist": 1808, 
  "signs": 1809, 
  "commodity": 1810, 
  "experienced": 1811, 
  "wider": 1812, 
  "bond": 1813, 
  "bound": 1814, 
  "A": 1815, 
  "room": 1816, 
  "supplies": 1817, 
  "opposed": 1818, 
  "concept": 1819, 
  "economically": 1820, 
  "critics": 1821, 
  "estimates": 1822, 
  "physical": 1823, 
  "paying": 1824, 
  "electricity": 1825, 
  "survive": 1826, 
  "Islamist": 1827, 
  "viewed": 1828, 
  "mechanisms": 1829, 
  "charge": 1830, 
  "improving": 1831, 
  "trouble": 1832, 
  "attempts": 1833, 
  "mission": 1834, 
  "mistake": 1835, 
  "resolve": 1836, 
  "Nigeria": 1837, 
  "HIV": 1838, 
  "battle": 1839, 
  "Economic": 1840, 
  "amp": 1841, 
  "heavily": 1842, 
  "undermine": 1843, 
  "yes": 1844, 
  "green": 1845, 
  "ideology": 1846, 
  "9": 1847, 
  "happens": 1848, 
  "useful": 1849, 
  "declining": 1850, 
  "inevitably": 1851, 
  "shocks": 1852, 
  "causing": 1853, 
  "legacy": 1854, 
  "ally": 1855, 
  "relief": 1856, 
  "supporting": 1857, 
  "extremely": 1858, 
  "keeping": 1859, 
  "overcome": 1860, 
  "practical": 1861, 
  "defined": 1862, 
  "hopes": 1863, 
  "complete": 1864, 
  "agriculture": 1865, 
  "remarkable": 1866, 
  "zone": 1867, 
  "survival": 1868, 
  "pattern": 1869, 
  "Vladimir": 1870, 
  "tradition": 1871, 
  "cash": 1872, 
  "stake": 1873, 
  "determine": 1874, 
  "·": 1875, 
  "implemented": 1876, 
  "restrictions": 1877, 
  "fewer": 1878, 
  "productive": 1879, 
  "losing": 1880, 
  "flow": 1881, 
  "unions": 1882, 
  "conference": 1883, 
  "field": 1884, 
  "die": 1885, 
  "closed": 1886, 
  "distribution": 1887, 
  "Trade": 1888, 
  "Parliament": 1889, 
  "chief": 1890, 
  "Christian": 1891, 
  "supporters": 1892, 
  "event": 1893, 
  "born": 1894, 
  "initiatives": 1895, 
  "territory": 1896, 
  "summer": 1897, 
  "engage": 1898, 
  "ratio": 1899, 
  "Democrats": 1900, 
  "quarter": 1901, 
  "firm": 1902, 
  "gained": 1903, 
  "House": 1904, 
  "ates": 1905, 
  "communist": 1906, 
  "threatened": 1907, 
  "8": 1908, 
  "dealing": 1909, 
  "proved": 1910, 
  "objective": 1911, 
  "ers": 1912, 
  "humanity": 1913, 
  "strategies": 1914, 
  "Stability": 1915, 
  "invasion": 1916, 
  "leads": 1917, 
  "observers": 1918, 
  "transfer": 1919, 
  "€": 1920, 
  "6": 1921, 
  "nonetheless": 1922, 
  "fallen": 1923, 
  "considerable": 1924, 
  "Kim": 1925, 
  "votes": 1926, 
  "April": 1927, 
  "enable": 1928, 
  "billions": 1929, 
  "issued": 1930, 
  "1960": 1931, 
  "downturn": 1932, 
  "1930": 1933, 
  "modest": 1934, 
  "exposed": 1935, 
  "package": 1936, 
  "returns": 1937, 
  "putting": 1938, 
  "shape": 1939, 
  "pressures": 1940, 
  "centuries": 1941, 
  "referendum": 1942, 
  "allows": 1943, 
  "necessarily": 1944, 
  "ating": 1945, 
  "playing": 1946, 
  "corporations": 1947, 
  "Dutch": 1948, 
  "seven": 1949, 
  "requirements": 1950, 
  "Vietnam": 1951, 
  "costly": 1952, 
  "Italian": 1953, 
  "mortgage": 1954, 
  "grew": 1955, 
  "strengthening": 1956, 
  "restructuring": 1957, 
  "depression": 1958, 
  "organized": 1959, 
  "August": 1960, 
  "reasonable": 1961, 
  "begun": 1962, 
  "obviously": 1963, 
  "wrote": 1964, 
  "developments": 1965, 
  "twentieth": 1966, 
  "affect": 1967, 
  "published": 1968, 
  "adopt": 1969, 
  "planet": 1970, 
  "slowdown": 1971, 
  "wide": 1972, 
  "80": 1973, 
  "willingness": 1974, 
  "genuine": 1975, 
  "television": 1976, 
  "turning": 1977, 
  "stands": 1978, 
  "barriers": 1979, 
  "creditors": 1980, 
  "sustain": 1981, 
  "suffered": 1982, 
  "criticism": 1983, 
  "implications": 1984, 
  "hours": 1985, 
  "pension": 1986, 
  "generations": 1987, 
  "showed": 1988, 
  "reports": 1989, 
  "cells": 1990, 
  "realize": 1991, 
  "dependent": 1992, 
  "regulations": 1993, 
  "defend": 1994, 
  "product": 1995, 
  "race": 1996, 
  "amounts": 1997, 
  "credible": 1998, 
  "woman": 1999, 
  "criminal": 2000, 
  "double": 2001, 
  "historic": 2002, 
  "c@@": 2003, 
  "mere": 2004, 
  "Brussels": 2005, 
  "pushed": 2006, 
  "figure": 2007, 
  "saying": 2008, 
  "standing": 2009, 
  "word": 2010, 
  "rescue": 2011, 
  "joint": 2012, 
  "appreciation": 2013, 
  "outcomes": 2014, 
  "taxpayers": 2015, 
  "objectives": 2016, 
  "gives": 2017, 
  "advance": 2018, 
  "supposedly": 2019, 
  "Sweden": 2020, 
  "described": 2021, 
  "board": 2022, 
  "Abbas": 2023, 
  "image": 2024, 
  "Mubarak": 2025, 
  "dictatorship": 2026, 
  "discussion": 2027, 
  "y": 2028, 
  "arrangements": 2029, 
  "elites": 2030, 
  "exchange-rate": 2031, 
  "purpose": 2032, 
  "2012": 2033, 
  "logic": 2034, 
  "dominated": 2035, 
  "elements": 2036, 
  "partner": 2037, 
  "eyes": 2038, 
  "grown": 2039, 
  "healthy": 2040, 
  "exists": 2041, 
  "linked": 2042, 
  "In": 2043, 
  "th": 2044, 
  "mandate": 2045, 
  "controlled": 2046, 
  "setting": 2047, 
  "completely": 2048, 
  "mortgages": 2049, 
  "closely": 2050, 
  "served": 2051, 
  "killing": 2052, 
  "plants": 2053, 
  "contributed": 2054, 
  "emerge": 2055, 
  "failures": 2056, 
  "ts": 2057, 
  "added": 2058, 
  "dynamic": 2059, 
  "Street": 2060, 
  "reflected": 2061, 
  "affected": 2062, 
  "opposite": 2063, 
  "risky": 2064, 
  "treated": 2065, 
  "capable": 2066, 
  "Chávez": 2067, 
  "accounting": 2068, 
  "planning": 2069, 
  "strongly": 2070, 
  "cheap": 2071, 
  "migration": 2072, 
  "tools": 2073, 
  "proven": 2074, 
  "died": 2075, 
  "computer": 2076, 
  "Jews": 2077, 
  "weakness": 2078, 
  "charges": 2079, 
  "borrow": 2080, 
  "buying": 2081, 
  "surpluses": 2082, 
  "moved": 2083, 
  "ate": 2084, 
  "journalists": 2085, 
  "felt": 2086, 
  "assume": 2087, 
  "leverage": 2088, 
  "replaced": 2089, 
  "ensuring": 2090, 
  "fate": 2091, 
  "unsustainable": 2092, 
  "priorities": 2093, 
  "humans": 2094, 
  "encouraging": 2095, 
  "enemy": 2096, 
  "Berlin": 2097, 
  "aggressive": 2098, 
  "equivalent": 2099, 
  "expand": 2100, 
  "included": 2101, 
  "exception": 2102, 
  "al-@@": 2103, 
  "university": 2104, 
  "discipline": 2105, 
  "protest": 2106, 
  "cycle": 2107, 
  "s@@": 2108, 
  "transformation": 2109, 
  "daily": 2110, 
  "perspective": 2111, 
  "figures": 2112, 
  "signed": 2113, 
  "arguments": 2114, 
  "o": 2115, 
  "bottom": 2116, 
  "profound": 2117, 
  "attractive": 2118, 
  "shock": 2119, 
  "Kyoto": 2120, 
  "populist": 2121, 
  "reported": 2122, 
  "holds": 2123, 
  "suddenly": 2124, 
  "Gulf": 2125, 
  "got": 2126, 
  "clean": 2127, 
  "70": 2128, 
  "convinced": 2129, 
  "peoples": 2130, 
  "producers": 2131, 
  "Mao": 2132, 
  "add": 2133, 
  "embrace": 2134, 
  "root": 2135, 
  "mutual": 2136, 
  "sales": 2137, 
  "except": 2138, 
  "host": 2139, 
  "shareholders": 2140, 
  "voting": 2141, 
  "compete": 2142, 
  "appeared": 2143, 
  "deflation": 2144, 
  "enterprises": 2145, 
  "northern": 2146, 
  "tough": 2147, 
  "contracts": 2148, 
  "viable": 2149, 
  "illegal": 2150, 
  "carried": 2151, 
  "Medvedev": 2152, 
  "Venezuela": 2153, 
  "emerging-market": 2154, 
  "expenditures": 2155, 
  "prison": 2156, 
  "Burma": 2157, 
  "y@@": 2158, 
  "incentive": 2159, 
  "Portugal": 2160, 
  "passed": 2161, 
  "kill": 2162, 
  "replace": 2163, 
  "al": 2164, 
  "Committee": 2165, 
  "equality": 2166, 
  "managers": 2167, 
  "surprising": 2168, 
  "Paul": 2169, 
  "thanks": 2170, 
  "wave": 2171, 
  "species": 2172, 
  "WTO": 2173, 
  "welcome": 2174, 
  "achieving": 2175, 
  "establishing": 2176, 
  "remaining": 2177, 
  "front": 2178, 
  "networks": 2179, 
  "publicly": 2180, 
  "dominant": 2181, 
  "withdrawal": 2182, 
  "Netherlands": 2183, 
  "fixed": 2184, 
  "father": 2185, 
  "coal": 2186, 
  "series": 2187, 
  "aside": 2188, 
  "Chile": 2189, 
  "Qaeda": 2190, 
  "united": 2191, 
  "aware": 2192, 
  "latter": 2193, 
  "polls": 2194, 
  "zero": 2195, 
  "addressed": 2196, 
  "bodies": 2197, 
  "genes": 2198, 
  "correct": 2199, 
  "threaten": 2200, 
  "driving": 2201, 
  "urgent": 2202, 
  "inside": 2203, 
  "previously": 2204, 
  "brain": 2205, 
  "revolutionary": 2206, 
  "professional": 2207, 
  "weight": 2208, 
  "expanding": 2209, 
  "Pact": 2210, 
  "backed": 2211, 
  "Sudan": 2212, 
  "ated": 2213, 
  "primarily": 2214, 
  "managing": 2215, 
  "Cuba": 2216, 
  "animals": 2217, 
  "pushing": 2218, 
  "post-@@": 2219, 
  "Constitution": 2220, 
  "Republicans": 2221, 
  "budgets": 2222, 
  "calling": 2223, 
  "dream": 2224, 
  "engaged": 2225, 
  "harm": 2226, 
  "examples": 2227, 
  "confront": 2228, 
  "humanitarian": 2229, 
  "ruled": 2230, 
  "Musharraf": 2231, 
  "bailout": 2232, 
  "claimed": 2233, 
  "read": 2234, 
  "exactly": 2235, 
  "educational": 2236, 
  "er": 2237, 
  "hence": 2238, 
  "processes": 2239, 
  "stay": 2240, 
  "enemies": 2241, 
  "debates": 2242, 
  "appeal": 2243, 
  "1991": 2244, 
  "stance": 2245, 
  "February": 2246, 
  "stress": 2247, 
  "rejected": 2248, 
  "refused": 2249, 
  "emergency": 2250, 
  "7": 2251, 
  "knew": 2252, 
  "robust": 2253, 
  "partnership": 2254, 
  "fuels": 2255, 
  "sent": 2256, 
  "trends": 2257, 
  "marked": 2258, 
  "difficulties": 2259, 
  "civilians": 2260, 
  "black": 2261, 
  "18": 2262, 
  "material": 2263, 
  "paper": 2264, 
  "Hu": 2265, 
  "heads": 2266, 
  "formal": 2267, 
  "badly": 2268, 
  "wish": 2269, 
  "easing": 2270, 
  "gradually": 2271, 
  "sea": 2272, 
  "weaker": 2273, 
  "modernization": 2274, 
  "S@@": 2275, 
  "decision-making": 2276, 
  "renminbi": 2277, 
  "failing": 2278, 
  "reserve": 2279, 
  "concerning": 2280, 
  "integrated": 2281, 
  "constraints": 2282, 
  "successfully": 2283, 
  "joined": 2284, 
  "remember": 2285, 
  "demanding": 2286, 
  "ignore": 2287, 
  "Euro": 2288, 
  "courts": 2289, 
  "producing": 2290, 
  "intended": 2291, 
  "applied": 2292, 
  "finding": 2293, 
  "believes": 2294, 
  "fragile": 2295, 
  "initially": 2296, 
  "A@@": 2297, 
  "streets": 2298, 
  "mistakes": 2299, 
  "accession": 2300, 
  "parents": 2301, 
  "identify": 2302, 
  "Australia": 2303, 
  "heavy": 2304, 
  "acts": 2305, 
  "fossil": 2306, 
  "activists": 2307, 
  "regarded": 2308, 
  "Berlusconi": 2309, 
  "d@@": 2310, 
  "Syrian": 2311, 
  "existence": 2312, 
  "judges": 2313, 
  "scope": 2314, 
  "repeatedly": 2315, 
  "Chancellor": 2316, 
  "famous": 2317, 
  "dead": 2318, 
  "Sunni": 2319, 
  "1998": 2320, 
  "Chirac": 2321, 
  "Hussein": 2322, 
  "Financial": 2323, 
  "accountability": 2324, 
  "enter": 2325, 
  "Rights": 2326, 
  "kinds": 2327, 
  "ation": 2328, 
  "guarantees": 2329, 
  "systemic": 2330, 
  "accompanied": 2331, 
  "dis@@": 2332, 
  "quo": 2333, 
  "Merkel": 2334, 
  "reaction": 2335, 
  "emergence": 2336, 
  "ownership": 2337, 
  "Keynes": 2338, 
  "Canada": 2339, 
  "conducted": 2340, 
  "suggested": 2341, 
  "apply": 2342, 
  "Fatah": 2343, 
  "reaching": 2344, 
  "demonstrate": 2345, 
  "evolution": 2346, 
  "actual": 2347, 
  "Shia": 2348, 
  "Pakistani": 2349, 
  "It": 2350, 
  "extra": 2351, 
  "network": 2352, 
  "granted": 2353, 
  "exercise": 2354, 
  "fortunately": 2355, 
  "2@@": 2356, 
  "pain": 2357, 
  "ambitious": 2358, 
  "presidents": 2359, 
  "complicated": 2360, 
  "assumed": 2361, 
  "essentially": 2362, 
  "C@@": 2363, 
  "creates": 2364, 
  "notion": 2365, 
  "protectionism": 2366, 
  "resulted": 2367, 
  "consequence": 2368, 
  "abuse": 2369, 
  "Arabs": 2370, 
  "painful": 2371, 
  "apparently": 2372, 
  "expressed": 2373, 
  "launch": 2374, 
  "shares": 2375, 
  "preventing": 2376, 
  "link": 2377, 
  "spirit": 2378, 
  "aggregate": 2379, 
  "advice": 2380, 
  "send": 2381, 
  "obligations": 2382, 
  "inflows": 2383, 
  "addressing": 2384, 
  "uses": 2385, 
  "balanced": 2386, 
  "We": 2387, 
  "meaning": 2388, 
  "narrow": 2389, 
  "Germans": 2390, 
  "introduced": 2391, 
  "relevant": 2392, 
  "stories": 2393, 
  "employees": 2394, 
  "voice": 2395, 
  "o@@": 2396, 
  "responses": 2397, 
  "tests": 2398, 
  "Egyptian": 2399, 
  "weakened": 2400, 
  "returned": 2401, 
  "apparent": 2402, 
  "Defense": 2403, 
  "enhance": 2404, 
  "instruments": 2405, 
  "uncertain": 2406, 
  "aging": 2407, 
  "cover": 2408, 
  "en@@": 2409, 
  "ultimate": 2410, 
  "p@@": 2411, 
  "Spanish": 2412, 
  "encouraged": 2413, 
  "educated": 2414, 
  "notably": 2415, 
  "Colombia": 2416, 
  "function": 2417, 
  "chaos": 2418, 
  "Thailand": 2419, 
  "Supreme": 2420, 
  "initial": 2421, 
  "3@@": 2422, 
  "proportion": 2423, 
  "renewed": 2424, 
  "sustainability": 2425, 
  "People": 2426, 
  "fire": 2427, 
  "contain": 2428, 
  "consolidation": 2429, 
  "resort": 2430, 
  "Afghan": 2431, 
  "blood": 2432, 
  "engagement": 2433, 
  "e": 2434, 
  "escape": 2435, 
  "happening": 2436, 
  "de@@": 2437, 
  "operate": 2438, 
  "manner": 2439, 
  "minds": 2440, 
  "placed": 2441, 
  "posed": 2442, 
  "confrontation": 2443, 
  "brings": 2444, 
  "Social": 2445, 
  "anniversary": 2446, 
  "financed": 2447, 
  "condition": 2448, 
  "executive": 2449, 
  "participants": 2450, 
  "south": 2451, 
  "frequently": 2452, 
  "expression": 2453, 
  "simultaneously": 2454, 
  "wind": 2455, 
  "ted": 2456, 
  "prefer": 2457, 
  "predict": 2458, 
  "1997": 2459, 
  "empire": 2460, 
  "heard": 2461, 
  "design": 2462, 
  "flexibility": 2463, 
  "explanation": 2464, 
  "Ahmadinejad": 2465, 
  "Robert": 2466, 
  "90": 2467, 
  "compensation": 2468, 
  "eliminate": 2469, 
  "arrest": 2470, 
  "rational": 2471, 
  "TV": 2472, 
  "ban": 2473, 
  "leaves": 2474, 
  "search": 2475, 
  "via": 2476, 
  "abandon": 2477, 
  "atmosphere": 2478, 
  "bubbles": 2479, 
  "cell": 2480, 
  "draw": 2481, 
  "medicine": 2482, 
  "G-8": 2483, 
  "Singapore": 2484, 
  "slowly": 2485, 
  "Yeltsin": 2486, 
  "destroy": 2487, 
  "threatening": 2488, 
  "minorities": 2489, 
  "targeted": 2490, 
  "estate": 2491, 
  "stopped": 2492, 
  "concluded": 2493, 
  "ourselves": 2494, 
  "sophisticated": 2495, 
  "released": 2496, 
  "youth": 2497, 
  "extraordinary": 2498, 
  "bigger": 2499, 
  "wonder": 2500, 
  "surprisingly": 2501, 
  "variety": 2502, 
  "expense": 2503, 
  "harder": 2504, 
  "Czech": 2505, 
  "barely": 2506, 
  "Assembly": 2507, 
  "drop": 2508, 
  "14": 2509, 
  "mark": 2510, 
  "original": 2511, 
  "strengthened": 2512, 
  "extended": 2513, 
  "preserve": 2514, 
  "over-@@": 2515, 
  "twice": 2516, 
  "facts": 2517, 
  "reverse": 2518, 
  "ending": 2519, 
  "volatility": 2520, 
  "fueled": 2521, 
  "generated": 2522, 
  "newly": 2523, 
  "resource": 2524, 
  "actors": 2525, 
  "poorer": 2526, 
  "protecting": 2527, 
  "realistic": 2528, 
  "expanded": 2529, 
  "representatives": 2530, 
  "divide": 2531, 
  "bankruptcy": 2532, 
  "rarely": 2533, 
  "approaches": 2534, 
  "sheets": 2535, 
  "solar": 2536, 
  "Jordan": 2537, 
  "usual": 2538, 
  "worried": 2539, 
  "coordination": 2540, 
  "Atlantic": 2541, 
  "ting": 2542, 
  "collapsed": 2543, 
  "England": 2544, 
  "opened": 2545, 
  "stimulate": 2546, 
  "ch@@": 2547, 
  "treat": 2548, 
  "periphery": 2549, 
  "advocates": 2550, 
  "effectiveness": 2551, 
  "Reagan": 2552, 
  "missile": 2553, 
  "operation": 2554, 
  "transport": 2555, 
  "capabilities": 2556, 
  "promising": 2557, 
  "acting": 2558, 
  "acceptable": 2559, 
  "version": 2560, 
  "revealed": 2561, 
  "Romania": 2562, 
  "di@@": 2563, 
  "combat": 2564, 
  "adequate": 2565, 
  "strike": 2566, 
  "helps": 2567, 
  "represented": 2568, 
  "transparent": 2569, 
  "headed": 2570, 
  "wisdom": 2571, 
  "absolute": 2572, 
  "written": 2573, 
  "rose": 2574, 
  "academic": 2575, 
  "unemployed": 2576, 
  "improvement": 2577, 
  "Authority": 2578, 
  "alike": 2579, 
  "oppose": 2580, 
  "openly": 2581, 
  "sexual": 2582, 
  "son": 2583, 
  "prisoners": 2584, 
  "fourth": 2585, 
  "Polish": 2586, 
  "destroyed": 2587, 
  "enjoy": 2588, 
  "ignored": 2589, 
  "speed": 2590, 
  "rightly": 2591, 
  "conclusion": 2592, 
  "consistent": 2593, 
  "stocks": 2594, 
  "command": 2595, 
  "200": 2596, 
  "stem": 2597, 
  "Plan": 2598, 
  "division": 2599, 
  "contribution": 2600, 
  "secret": 2601, 
  "ethical": 2602, 
  "weakening": 2603, 
  "drawn": 2604, 
  "bill": 2605, 
  "surveillance": 2606, 
  "extremists": 2607, 
  "table": 2608, 
  "picture": 2609, 
  "dispute": 2610, 
  "proper": 2611, 
  "diversity": 2612, 
  "facilities": 2613, 
  "g@@": 2614, 
  "concrete": 2615, 
  "plant": 2616, 
  "looked": 2617, 
  "contributions": 2618, 
  "discrimination": 2619, 
  "openness": 2620, 
  "accused": 2621, 
  "Human": 2622, 
  "warning": 2623, 
  "popularity": 2624, 
  "large-scale": 2625, 
  "justify": 2626, 
  "somewhat": 2627, 
  "presented": 2628, 
  "overwhelming": 2629, 
  "staff": 2630, 
  "street": 2631, 
  "privatization": 2632, 
  "gets": 2633, 
  "t@@": 2634, 
  "measured": 2635, 
  "wake": 2636, 
  "users": 2637, 
  "investing": 2638, 
  "grounds": 2639, 
  "weaken": 2640, 
  "conduct": 2641, 
  "exit": 2642, 
  "review": 2643, 
  "insist": 2644, 
  "lie": 2645, 
  "abandoned": 2646, 
  "yield": 2647, 
  "Global": 2648, 
  "pre-@@": 2649, 
  "succeeded": 2650, 
  "alternatives": 2651, 
  "-based": 2652, 
  "13": 2653, 
  "justified": 2654, 
  "statement": 2655, 
  "block": 2656, 
  "sold": 2657, 
  "extend": 2658, 
  "y-@@": 2659, 
  "diverse": 2660, 
  "decisive": 2661, 
  "successor": 2662, 
  "responsibilities": 2663, 
  "types": 2664, 
  "refugees": 2665, 
  "colleagues": 2666, 
  "donors": 2667, 
  "mental": 2668, 
  "birth": 2669, 
  "Sea": 2670, 
  "recover": 2671, 
  "selling": 2672, 
  "hunger": 2673, 
  "flexible": 2674, 
  "aftermath": 2675, 
  "happy": 2676, 
  "under@@": 2677, 
  "trials": 2678, 
  "turmoil": 2679, 
  "subsequent": 2680, 
  "missiles": 2681, 
  "inability": 2682, 
  "wait": 2683, 
  "seeks": 2684, 
  "focusing": 2685, 
  "discussions": 2686, 
  "liberty": 2687, 
  "ations": 2688, 
  "protected": 2689, 
  "-RSB-": 2690, 
  "twenty-first": 2691, 
  "ambitions": 2692, 
  "books": 2693, 
  "researchers": 2694, 
  "-LSB-": 2695, 
  "intellectuals": 2696, 
  "retirement": 2697, 
  "demographic": 2698, 
  "fundamentally": 2699, 
  "perfect": 2700, 
  "Bolivia": 2701, 
  "caught": 2702, 
  "pursued": 2703, 
  "minimum": 2704, 
  "attitude": 2705, 
  "track": 2706, 
  "bold": 2707, 
  "delivered": 2708, 
  "emphasis": 2709, 
  "Haiti": 2710, 
  "stagnation": 2711, 
  "purposes": 2712, 
  "repression": 2713, 
  "invested": 2714, 
  "apart": 2715, 
  "participate": 2716, 
  "Tunisia": 2717, 
  "27": 2718, 
  "maintained": 2719, 
  "500": 2720, 
  "monitoring": 2721, 
  "advantages": 2722, 
  "somehow": 2723, 
  "avoided": 2724, 
  "geopolitical": 2725, 
  "California": 2726, 
  "Malaysia": 2727, 
  "eastern": 2728, 
  "Hungary": 2729, 
  "fails": 2730, 
  "neighboring": 2731, 
  "female": 2732, 
  "state-owned": 2733, 
  "David": 2734, 
  "proliferation": 2735, 
  "Denmark": 2736, 
  "showing": 2737, 
  "lived": 2738, 
  "learning": 2739, 
  "foundation": 2740, 
  "mention": 2741, 
  "politician": 2742, 
  "resist": 2743, 
  "norms": 2744, 
  "meaningful": 2745, 
  "judge": 2746, 
  "engineering": 2747, 
  "mis@@": 2748, 
  "pressing": 2749, 
  "links": 2750, 
  "torture": 2751, 
  "Romney": 2752, 
  "devastating": 2753, 
  "directed": 2754, 
  "methods": 2755, 
  "Arafat": 2756, 
  "historically": 2757, 
  "sensitive": 2758, 
  "centers": 2759, 
  "reductions": 2760, 
  "patient": 2761, 
  "argues": 2762, 
  "fought": 2763, 
  "responded": 2764, 
  "separate": 2765, 
  "suicide": 2766, 
  "comparable": 2767, 
  "agency": 2768, 
  "dependence": 2769, 
  "Stalin": 2770, 
  "16": 2771, 
  "King": 2772, 
  "substantially": 2773, 
  "equipment": 2774, 
  "Greenspan": 2775, 
  "Milosevic": 2776, 
  "hundred": 2777, 
  "negotiating": 2778, 
  "undoubtedly": 2779, 
  "private-sector": 2780, 
  "17": 2781, 
  "entrepreneurs": 2782, 
  "attitudes": 2783, 
  "reliable": 2784, 
  "OECD": 2785, 
  "seemingly": 2786, 
  "car": 2787, 
  "b@@": 2788, 
  "im@@": 2789, 
  "warned": 2790, 
  "style": 2791, 
  "annually": 2792, 
  "component": 2793, 
  "winning": 2794, 
  "properly": 2795, 
  "transfers": 2796, 
  "evil": 2797, 
  "fresh": 2798, 
  "lasting": 2799, 
  "pursuing": 2800, 
  "predicted": 2801, 
  "inflationary": 2802, 
  "doctors": 2803, 
  "reluctant": 2804, 
  "pass": 2805, 
  "influential": 2806, 
  "disputes": 2807, 
  "cars": 2808, 
  "discuss": 2809, 
  "implementation": 2810, 
  "E@@": 2811, 
  "feeling": 2812, 
  "Lisbon": 2813, 
  "aims": 2814, 
  "planned": 2815, 
  "regarding": 2816, 
  "memory": 2817, 
  "transformed": 2818, 
  "one-third": 2819, 
  "retain": 2820, 
  "officers": 2821, 
  "chronic": 2822, 
  "DC": 2823, 
  "threatens": 2824, 
  "sentiment": 2825, 
  "circle": 2826, 
  "false": 2827, 
  "Peace": 2828, 
  "commit": 2829, 
  "1950": 2830, 
  "Protocol": 2831, 
  "seeing": 2832, 
  "tragedy": 2833, 
  "ought": 2834, 
  "Doha": 2835, 
  "inadequate": 2836, 
  "voted": 2837, 
  "unilateral": 2838, 
  "t": 2839, 
  "D": 2840, 
  "tens": 2841, 
  "reconciliation": 2842, 
  "wealthy": 2843, 
  "sooner": 2844, 
  "greenhouse": 2845, 
  "internationally": 2846, 
  "import": 2847, 
  "R": 2848, 
  "negotiate": 2849, 
  "disorder": 2850, 
  "valuable": 2851, 
  "fish": 2852, 
  "quick": 2853, 
  "chosen": 2854, 
  "Islamists": 2855, 
  "reject": 2856, 
  "experiences": 2857, 
  "visible": 2858, 
  "seats": 2859, 
  "territorial": 2860, 
  "concentrated": 2861, 
  "e@@": 2862, 
  "date": 2863, 
  "reconstruction": 2864, 
  "globally": 2865, 
  "ans": 2866, 
  "spring": 2867, 
  "ly": 2868, 
  "doctrine": 2869, 
  "Zimbabwe": 2870, 
  "isolation": 2871, 
  "football": 2872, 
  "newspaper": 2873, 
  "God": 2874, 
  "ends": 2875, 
  "carefully": 2876, 
  "White": 2877, 
  "love": 2878, 
  "prevented": 2879, 
  "saved": 2880, 
  "monopoly": 2881, 
  "innovative": 2882, 
  "generous": 2883, 
  "abuses": 2884, 
  "entry": 2885, 
  "tool": 2886, 
  "English": 2887, 
  "fields": 2888, 
  "earth": 2889, 
  "door": 2890, 
  "taxation": 2891, 
  "nominal": 2892, 
  "territories": 2893, 
  "Roma": 2894, 
  "hoped": 2895, 
  "pose": 2896, 
  "yields": 2897, 
  "moves": 2898, 
  "recognizing": 2899, 
  "nobody": 2900, 
  "administrative": 2901, 
  "offset": 2902, 
  "yen": 2903, 
  "panic": 2904, 
  "patterns": 2905, 
  "reputation": 2906, 
  "runs": 2907, 
  "brutal": 2908, 
  "finances": 2909, 
  "earnings": 2910, 
  "Foreign": 2911, 
  "hear": 2912, 
  "operating": 2913, 
  "rare": 2914, 
  "judgment": 2915, 
  "offering": 2916, 
  "broken": 2917, 
  "naturally": 2918, 
  "ti@@": 2919, 
  "Darfur": 2920, 
  "approval": 2921, 
  "declined": 2922, 
  "express": 2923, 
  "raises": 2924, 
  "hedge": 2925, 
  "Chairman": 2926, 
  "sharing": 2927, 
  "quantitative": 2928, 
  "aspects": 2929, 
  "perception": 2930, 
  "meetings": 2931, 
  "75": 2932, 
  "peak": 2933, 
  "realized": 2934, 
  "supervision": 2935, 
  "attract": 2936, 
  "rating": 2937, 
  "Nicolas": 2938, 
  "inspired": 2939, 
  "settlements": 2940, 
  "lend": 2941, 
  "scheme": 2942, 
  "falls": 2943, 
  "Iraqis": 2944, 
  "imposing": 2945, 
  "1995": 2946, 
  "honor": 2947, 
  "greatly": 2948, 
  "Bosnia": 2949, 
  "hostile": 2950, 
  "genocide": 2951, 
  "health-care": 2952, 
  "stood": 2953, 
  "Bill": 2954, 
  "socialist": 2955, 
  "release": 2956, 
  "tribal": 2957, 
  "Tony": 2958, 
  "imply": 2959, 
  "ASEAN": 2960, 
  "Jerusalem": 2961, 
  "sites": 2962, 
  "define": 2963, 
  "materials": 2964, 
  "cultures": 2965, 
  "provision": 2966, 
  "surge": 2967, 
  "realities": 2968, 
  "Hitler": 2969, 
  "2015": 2970, 
  "generals": 2971, 
  "repeated": 2972, 
  "Netanyahu": 2973, 
  "dangers": 2974, 
  "implementing": 2975, 
  "intervene": 2976, 
  "Tibet": 2977, 
  "tackle": 2978, 
  "Department": 2979, 
  "coordinated": 2980, 
  "stabilize": 2981, 
  "mobility": 2982, 
  "unrest": 2983, 
  "interested": 2984, 
  "functioning": 2985, 
  "numerous": 2986, 
  "richer": 2987, 
  "animal": 2988, 
  "bit": 2989, 
  "Summit": 2990, 
  "accountable": 2991, 
  "phenomenon": 2992, 
  "significance": 2993, 
  "analysts": 2994, 
  "H@@": 2995, 
  "arguing": 2996, 
  "tiny": 2997, 
  "protectionist": 2998, 
  "mainstream": 2999, 
  "impressive": 3000, 
  "backing": 3001, 
  "nine": 3002, 
  "discovered": 3003, 
  "rival": 3004, 
  "extremism": 3005, 
  "criteria": 3006, 
  "Khamenei": 3007, 
  "lawyers": 3008, 
  "resolved": 3009, 
  "catastrophe": 3010, 
  "sensible": 3011, 
  "bailouts": 3012, 
  "Mahmoud": 3013, 
  "waiting": 3014, 
  "convince": 3015, 
  "principal": 3016, 
  "sex": 3017, 
  "newspapers": 3018, 
  "divisions": 3019, 
  "prior": 3020, 
  "giant": 3021, 
  "coup": 3022, 
  "P@@": 3023, 
  "underway": 3024, 
  "features": 3025, 
  "definition": 3026, 
  "travel": 3027, 
  "plays": 3028, 
  "e-@@": 3029, 
  "profit": 3030, 
  "governing": 3031, 
  "heat": 3032, 
  "onto": 3033, 
  "draft": 3034, 
  "white": 3035, 
  "Yugoslavia": 3036, 
  "Laden": 3037, 
  "occupied": 3038, 
  "demonstrations": 3039, 
  "eye": 3040, 
  "300": 3041, 
  "consistently": 3042, 
  "damaged": 3043, 
  "approved": 3044, 
  "achievement": 3045, 
  "inefficient": 3046, 
  "nowhere": 3047, 
  "dignity": 3048, 
  "tolerance": 3049, 
  "benefited": 3050, 
  "constant": 3051, 
  "Deng": 3052, 
  "Irish": 3053, 
  "dominate": 3054, 
  "regularly": 3055, 
  "Army": 3056, 
  "Senate": 3057, 
  "involve": 3058, 
  "prosperous": 3059, 
  "19": 3060, 
  "transform": 3061, 
  "slightly": 3062, 
  "contract": 3063, 
  "Web": 3064, 
  "executives": 3065, 
  "earthquake": 3066, 
  "alive": 3067, 
  "removed": 3068, 
  "a@@": 3069, 
  "Bernanke": 3070, 
  "appreciate": 3071, 
  "propaganda": 3072, 
  "smart": 3073, 
  "identified": 3074, 
  "male": 3075, 
  "insufficient": 3076, 
  "richest": 3077, 
  "gaining": 3078, 
  "adopting": 3079, 
  "intense": 3080, 
  "transactions": 3081, 
  "involvement": 3082, 
  "Alliance": 3083, 
  "waste": 3084, 
  "Board": 3085, 
  "ill": 3086, 
  "girls": 3087, 
  "Mediterranean": 3088, 
  "or@@": 3089, 
  "sudden": 3090, 
  "protesters": 3091, 
  "turns": 3092, 
  "anger": 3093, 
  "con@@": 3094, 
  "expenditure": 3095, 
  "an@@": 3096, 
  "pro-@@": 3097, 
  "solid": 3098, 
  "toxic": 3099, 
  "arrested": 3100, 
  "disarmament": 3101, 
  "undermining": 3102, 
  "avoiding": 3103, 
  "le": 3104, 
  "4@@": 3105, 
  "albeit": 3106, 
  "forever": 3107, 
  "donor": 3108, 
  "shifted": 3109, 
  "foreigners": 3110, 
  "DNA": 3111, 
  "interest-rate": 3112, 
  "red": 3113, 
  "crash": 3114, 
  "phase": 3115, 
  "fundamentals": 3116, 
  "indicate": 3117, 
  "gradual": 3118, 
  "older": 3119, 
  "undermined": 3120, 
  "difficulty": 3121, 
  "longer-term": 3122, 
  "capture": 3123, 
  "content": 3124, 
  "ra@@": 3125, 
  "bureaucracy": 3126, 
  "adverse": 3127, 
  "ro@@": 3128, 
  "innocent": 3129, 
  "pollution": 3130, 
  "improvements": 3131, 
  "character": 3132, 
  "Millennium": 3133, 
  "imperative": 3134, 
  "involving": 3135, 
  "right-wing": 3136, 
  "advances": 3137, 
  "assumption": 3138, 
  "lenders": 3139, 
  "pride": 3140, 
  "electorate": 3141, 
  "noted": 3142, 
  "guaranteed": 3143, 
  "likelihood": 3144, 
  "1@@": 3145, 
  "selection": 3146, 
  "asking": 3147, 
  "voices": 3148, 
  "murder": 3149, 
  "surface": 3150, 
  "halt": 3151, 
  "houses": 3152, 
  "tactics": 3153, 
  "imperial": 3154, 
  "alongside": 3155, 
  "Catholic": 3156, 
  "autonomy": 3157, 
  "restoring": 3158, 
  "1992": 3159, 
  "purchasing": 3160, 
  "convergence": 3161, 
  "confronted": 3162, 
  "creative": 3163, 
  "desirable": 3164, 
  "high-@@": 3165, 
  "democratization": 3166, 
  "instance": 3167, 
  "downward": 3168, 
  "dilemma": 3169, 
  "forcing": 3170, 
  "Sharon": 3171, 
  "Administration": 3172, 
  "ran": 3173, 
  "computers": 3174, 
  "traditions": 3175, 
  "i@@": 3176, 
  "roots": 3177, 
  "explains": 3178, 
  "statements": 3179, 
  "pursuit": 3180, 
  "unwilling": 3181, 
  "deny": 3182, 
  "formed": 3183, 
  "sees": 3184, 
  "superpower": 3185, 
  "traditionally": 3186, 
  "No": 3187, 
  "24": 3188, 
  "Southeast": 3189, 
  "magnitude": 3190, 
  "1994": 3191, 
  "Northern": 3192, 
  "lacks": 3193, 
  "G@@": 3194, 
  "shifting": 3195, 
  "achievements": 3196, 
  "charged": 3197, 
  "purchases": 3198, 
  "contemporary": 3199, 
  "sufficiently": 3200, 
  "chances": 3201, 
  "obstacles": 3202, 
  "finds": 3203, 
  "hidden": 3204, 
  "Justice": 3205, 
  "D@@": 3206, 
  "favorable": 3207, 
  "integrity": 3208, 
  "Energy": 3209, 
  "chose": 3210, 
  "triggered": 3211, 
  "co@@": 3212, 
  "cross-border": 3213, 
  "unstable": 3214, 
  "island": 3215, 
  "Austria": 3216, 
  "slower": 3217, 
  "couple": 3218, 
  "isolated": 3219, 
  "film": 3220, 
  "ratios": 3221, 
  "speculative": 3222, 
  "judiciary": 3223, 
  "fellow": 3224, 
  "grave": 3225, 
  "plus": 3226, 
  "foundations": 3227, 
  "disasters": 3228, 
  "League": 3229, 
  "attacked": 3230, 
  "communication": 3231, 
  "interventions": 3232, 
  "impoverished": 3233, 
  "student": 3234, 
  "adapt": 3235, 
  "deals": 3236, 
  "nineteenth": 3237, 
  "borrowers": 3238, 
  "element": 3239, 
  "typical": 3240, 
  "civilization": 3241, 
  "delay": 3242, 
  "pointed": 3243, 
  "puts": 3244, 
  "k": 3245, 
  "optimism": 3246, 
  "prominent": 3247, 
  "two-thirds": 3248, 
  "co-@@": 3249, 
  "communications": 3250, 
  "fashion": 3251, 
  "comparison": 3252, 
  "refusal": 3253, 
  "talking": 3254, 
  "victim": 3255, 
  "embraced": 3256, 
  "instrument": 3257, 
  "persistent": 3258, 
  "doubts": 3259, 
  "unit": 3260, 
  "ideal": 3261, 
  "As": 3262, 
  "employers": 3263, 
  "reliance": 3264, 
  "binding": 3265, 
  "survey": 3266, 
  "enforcement": 3267, 
  "entered": 3268, 
  "migrants": 3269, 
  "write": 3270, 
  "expertise": 3271, 
  "35": 3272, 
  "trigger": 3273, 
  "understandable": 3274, 
  "earn": 3275, 
  "bureaucratic": 3276, 
  "careful": 3277, 
  "outlook": 3278, 
  "B@@": 3279, 
  "st": 3280, 
  "depreciation": 3281, 
  "chain": 3282, 
  "joining": 3283, 
  "negotiated": 3284, 
  "grand": 3285, 
  "Jacques": 3286, 
  "explained": 3287, 
  "guide": 3288, 
  "urgently": 3289, 
  "refuse": 3290, 
  "tends": 3291, 
  "limiting": 3292, 
  "constitute": 3293, 
  "disastrous": 3294, 
  "bid": 3295, 
  "unfair": 3296, 
  "assuming": 3297, 
  "acknowledge": 3298, 
  "mounting": 3299, 
  "tsunami": 3300, 
  "sight": 3301, 
  "whenever": 3302, 
  "colonial": 3303, 
  "forests": 3304, 
  "judicial": 3305, 
  "admit": 3306, 
  "evident": 3307, 
  "bombing": 3308, 
  "desperate": 3309, 
  "Yemen": 3310, 
  "north": 3311, 
  "Harvard": 3312, 
  "deposits": 3313, 
  "western": 3314, 
  "Myanmar": 3315, 
  "stated": 3316, 
  "renewable": 3317, 
  "extensive": 3318, 
  "requiring": 3319, 
  "Agency": 3320, 
  "situations": 3321, 
  "competing": 3322, 
  "mixed": 3323, 
  "aspect": 3324, 
  "classes": 3325, 
  "lowering": 3326, 
  "tasks": 3327, 
  "epidemic": 3328, 
  "j@@": 3329, 
  "images": 3330, 
  "2020": 3331, 
  "assessment": 3332, 
  "multiple": 3333, 
  "demanded": 3334, 
  "purchase": 3335, 
  "periods": 3336, 
  "striking": 3337, 
  "Convention": 3338, 
  "meltdown": 3339, 
  "momentum": 3340, 
  "bureaucrats": 3341, 
  "reduces": 3342, 
  "arise": 3343, 
  "struggling": 3344, 
  "weapon": 3345, 
  "relationships": 3346, 
  "produces": 3347, 
  "enabled": 3348, 
  "commodities": 3349, 
  "answers": 3350, 
  "acceptance": 3351, 
  "Indians": 3352, 
  "balances": 3353, 
  "declines": 3354, 
  "1.5": 3355, 
  "bomb": 3356, 
  "declaration": 3357, 
  "estimate": 3358, 
  "philosophy": 3359, 
  "well-@@": 3360, 
  "pragmatic": 3361, 
  "supports": 3362, 
  "interesting": 3363, 
  "missing": 3364, 
  "lay": 3365, 
  "Spring": 3366, 
  "N@@": 3367, 
  "damaging": 3368, 
  "representative": 3369, 
  "de-@@": 3370, 
  "article": 3371, 
  "Belarus": 3372, 
  "Earth": 3373, 
  "capitalist": 3374, 
  "L@@": 3375, 
  "mother": 3376, 
  "weather": 3377, 
  "rejection": 3378, 
  "signal": 3379, 
  "poorly": 3380, 
  "ancient": 3381, 
  "Brown": 3382, 
  "parallel": 3383, 
  "Mexican": 3384, 
  "marginal": 3385, 
  "enhanced": 3386, 
  "prolonged": 3387, 
  "22": 3388, 
  "revolutions": 3389, 
  "loan": 3390, 
  "skilled": 3391, 
  "troubled": 3392, 
  "obtain": 3393, 
  "rooted": 3394, 
  "wall": 3395, 
  "ironically": 3396, 
  "match": 3397, 
  "biological": 3398, 
  "schemes": 3399, 
  "unknown": 3400, 
  "dark": 3401, 
  "Holocaust": 3402, 
  "prepare": 3403, 
  "fairly": 3404, 
  "generating": 3405, 
  "restored": 3406, 
  "foster": 3407, 
  "liabilities": 3408, 
  "informed": 3409, 
  "gender": 3410, 
  "th@@": 3411, 
  "triumph": 3412, 
  "severely": 3413, 
  "u@@": 3414, 
  "tied": 3415, 
  "Nazi": 3416, 
  "procedures": 3417, 
  "campaigns": 3418, 
  "functions": 3419, 
  "counter": 3420, 
  "mix": 3421, 
  "thousand": 3422, 
  "reversed": 3423, 
  "denied": 3424, 
  "Cyprus": 3425, 
  "al@@": 3426, 
  "explicit": 3427, 
  "assess": 3428, 
  "count": 3429, 
  "forget": 3430, 
  "silence": 3431, 
  "conclude": 3432, 
  "mortality": 3433, 
  "transatlantic": 3434, 
  "Constitutional": 3435, 
  "compelling": 3436, 
  "Square": 3437, 
  "Switzerland": 3438, 
  "accepting": 3439, 
  "unacceptable": 3440, 
  "village": 3441, 
  "treaties": 3442, 
  "owners": 3443, 
  "successes": 3444, 
  "weaknesses": 3445, 
  "Princeton": 3446, 
  "diplomats": 3447, 
  "Institute": 3448, 
  "tendency": 3449, 
  "innovations": 3450, 
  "customers": 3451, 
  "wife": 3452, 
  "boosting": 3453, 
  "site": 3454, 
  "re-election": 3455, 
  "predictable": 3456, 
  "fill": 3457, 
  "chairman": 3458, 
  "watch": 3459, 
  "exposure": 3460, 
  "2013": 3461, 
  "provisions": 3462, 
  "blamed": 3463, 
  "distant": 3464, 
  "sh@@": 3465, 
  "punishment": 3466, 
  "long-run": 3467, 
  "McCain": 3468, 
  "cheaper": 3469, 
  "normally": 3470, 
  "ratings": 3471, 
  "freely": 3472, 
  "on@@": 3473, 
  "Health": 3474, 
  "returning": 3475, 
  "solely": 3476, 
  "T@@": 3477, 
  "Rome": 3478, 
  "Lula": 3479, 
  "fit": 3480, 
  "ze": 3481, 
  "keeps": 3482, 
  "actively": 3483, 
  "committee": 3484, 
  "exceed": 3485, 
  "considering": 3486, 
  "ons": 3487, 
  "persuade": 3488, 
  "i.e.": 3489, 
  "receiving": 3490, 
  "bin": 3491, 
  "deepening": 3492, 
  "telling": 3493, 
  "statistics": 3494, 
  "facto": 3495, 
  "enterprise": 3496, 
  "engine": 3497, 
  "sub-prime": 3498, 
  "t-@@": 3499, 
  "City": 3500, 
  "map": 3501, 
  "honest": 3502, 
  "FDI": 3503, 
  "racial": 3504, 
  "pre@@": 3505, 
  "signals": 3506, 
  "Church": 3507, 
  "Center": 3508, 
  "eliminating": 3509, 
  "visited": 3510, 
  "accomplished": 3511, 
  "bloody": 3512, 
  "distinct": 3513, 
  "strikes": 3514, 
  "Policy": 3515, 
  "speaking": 3516, 
  "involves": 3517, 
  "ineffective": 3518, 
  "dictator": 3519, 
  "pensions": 3520, 
  "duty": 3521, 
  "code": 3522, 
  "appointed": 3523, 
  "controlling": 3524, 
  "governed": 3525, 
  "fix": 3526, 
  "immense": 3527, 
  "eventual": 3528, 
  "purely": 3529, 
  "Baghdad": 3530, 
  "expert": 3531, 
  "aspirations": 3532, 
  "constructive": 3533, 
  "claiming": 3534, 
  "adding": 3535, 
  "struck": 3536, 
  "looming": 3537, 
  "This": 3538, 
  "experiencing": 3539, 
  "explicitly": 3540, 
  "d": 3541, 
  "feared": 3542, 
  "worries": 3543, 
  "flawed": 3544, 
  "director": 3545, 
  "respected": 3546, 
  "flight": 3547, 
  "steel": 3548, 
  "Chen": 3549, 
  "ri@@": 3550, 
  "Mr.": 3551, 
  "concentration": 3552, 
  "counterparts": 3553, 
  "volatile": 3554, 
  "sphere": 3555, 
  "index": 3556, 
  "AKP": 3557, 
  "promoted": 3558, 
  "shifts": 3559, 
  "mood": 3560, 
  "M@@": 3561, 
  "roads": 3562, 
  "dominance": 3563, 
  "ous": 3564, 
  "Philippines": 3565, 
  "friendly": 3566, 
  "follows": 3567, 
  "trip": 3568, 
  "younger": 3569, 
  "be@@": 3570, 
  "Thaksin": 3571, 
  "familiar": 3572, 
  "lowest": 3573, 
  "documents": 3574, 
  "f@@": 3575, 
  "experiment": 3576, 
  "fraud": 3577, 
  "safer": 3578, 
  "Gazprom": 3579, 
  "withdraw": 3580, 
  "Pacific": 3581, 
  "1996": 3582, 
  "emotional": 3583, 
  "recessions": 3584, 
  "freedoms": 3585, 
  "explosion": 3586, 
  "R@@": 3587, 
  "coherent": 3588, 
  "coverage": 3589, 
  "violations": 3590, 
  "plausible": 3591, 
  "inter@@": 3592, 
  "vulnerability": 3593, 
  "psychological": 3594, 
  "suspicion": 3595, 
  "maybe": 3596, 
  "acted": 3597, 
  "li@@": 3598, 
  "testing": 3599, 
  "Ali": 3600, 
  "challenging": 3601, 
  "outright": 3602, 
  "feature": 3603, 
  "5@@": 3604, 
  "breaking": 3605, 
  "Africans": 3606, 
  "defending": 3607, 
  "ranging": 3608, 
  "writing": 3609, 
  "player": 3610, 
  "sending": 3611, 
  "undertaken": 3612, 
  "obstacle": 3613, 
  "Kenya": 3614, 
  "feed": 3615, 
  "deregulation": 3616, 
  "well-being": 3617, 
  "Agreement": 3618, 
  "pays": 3619, 
  "differently": 3620, 
  "150": 3621, 
  "intention": 3622, 
  ".@@": 3623, 
  "storm": 3624, 
  "regular": 3625, 
  "informal": 3626, 
  "legislative": 3627, 
  "worrying": 3628, 
  "quest": 3629, 
  "euros": 3630, 
  "specifically": 3631, 
  "prevention": 3632, 
  "courage": 3633, 
  "Forum": 3634, 
  "hegemony": 3635, 
  "tested": 3636, 
  "conservatives": 3637, 
  "spoke": 3638, 
  "beings": 3639, 
  "soaring": 3640, 
  "progressive": 3641, 
  "diagnosis": 3642, 
  "naval": 3643, 
  "vehicles": 3644, 
  "details": 3645, 
  "hatred": 3646, 
  "residents": 3647, 
  "poses": 3648, 
  "founded": 3649, 
  "Lebanese": 3650, 
  "alleged": 3651, 
  "essence": 3652, 
  "at@@": 3653, 
  "condemned": 3654, 
  "projected": 3655, 
  "2050": 3656, 
  "Angela": 3657, 
  "forgotten": 3658, 
  "volume": 3659, 
  "hospital": 3660, 
  "entering": 3661, 
  "O@@": 3662, 
  "entitled": 3663, 
  "Friedman": 3664, 
  "dynamism": 3665, 
  "blow": 3666, 
  "midst": 3667, 
  "Growth": 3668, 
  "motivated": 3669, 
  "complexity": 3670, 
  "interpretation": 3671, 
  "determination": 3672, 
  "suspect": 3673, 
  "post": 3674, 
  "method": 3675, 
  "twenty": 3676, 
  "indigenous": 3677, 
  "terrible": 3678, 
  "begins": 3679, 
  "unpopular": 3680, 
  "regulated": 3681, 
  "overseas": 3682, 
  "Qaddafi": 3683, 
  "tension": 3684, 
  "serves": 3685, 
  "sets": 3686, 
  "globalized": 3687, 
  "connected": 3688, 
  "medium": 3689, 
  "devoted": 3690, 
  "demonstrates": 3691, 
  "socialism": 3692, 
  "ad": 3693, 
  "subjects": 3694, 
  "cast": 3695, 
  "Prize": 3696, 
  "1967": 3697, 
  "resolving": 3698, 
  "officially": 3699, 
  "revive": 3700, 
  "evolutionary": 3701, 
  "als": 3702, 
  "forecast": 3703, 
  "1990s": 3704, 
  "est": 3705, 
  "prevailing": 3706, 
  "discussed": 3707, 
  "Israeli-Palestinian": 3708, 
  "bought": 3709, 
  "to@@": 3710, 
  "beliefs": 3711, 
  "Group": 3712, 
  "virtual": 3713, 
  "Third": 3714, 
  "Brothers": 3715, 
  "professionals": 3716, 
  "destructive": 3717, 
  "NPT": 3718, 
  "deserve": 3719, 
  "F@@": 3720, 
  "peacekeeping": 3721, 
  "vicious": 3722, 
  "h@@": 3723, 
  "marks": 3724, 
  "theories": 3725, 
  "intentions": 3726, 
  "stabilization": 3727, 
  "Cairo": 3728, 
  "contagion": 3729, 
  "absent": 3730, 
  "reinforced": 3731, 
  "recall": 3732, 
  "spreading": 3733, 
  "Annan": 3734, 
  "tions": 3735, 
  "distance": 3736, 
  "illness": 3737, 
  "bitter": 3738, 
  "mobilize": 3739, 
  "professor": 3740, 
  "engineers": 3741, 
  "awareness": 3742, 
  "desperately": 3743, 
  "confirmed": 3744, 
  "components": 3745, 
  "enforce": 3746, 
  "risen": 3747, 
  "software": 3748, 
  "contributing": 3749, 
  "devaluation": 3750, 
  "implied": 3751, 
  "recognizes": 3752, 
  "hot": 3753, 
  "tariffs": 3754, 
  "Shanghai": 3755, 
  "sub-Saharan": 3756, 
  "frequent": 3757, 
  "introduction": 3758, 
  "manipulation": 3759, 
  "starts": 3760, 
  "accumulation": 3761, 
  "characterized": 3762, 
  "connection": 3763, 
  "eager": 3764, 
  "findings": 3765, 
  "resentment": 3766, 
  "stabilizing": 3767, 
  "challenged": 3768, 
  "undertake": 3769, 
  "alliances": 3770, 
  "Gaulle": 3771, 
  "Gorbachev": 3772, 
  "anywhere": 3773, 
  "controversial": 3774, 
  "representing": 3775, 
  "art": 3776, 
  "reinforce": 3777, 
  "winners": 3778, 
  "displaced": 3779, 
  "channels": 3780, 
  "promotion": 3781, 
  "dropped": 3782, 
  "defeated": 3783, 
  "beneficial": 3784, 
  "surrounding": 3785, 
  "Caucasus": 3786, 
  "free-trade": 3787, 
  "am@@": 3788, 
  "K@@": 3789, 
  "mobile": 3790, 
  "sum": 3791, 
  "considerations": 3792, 
  "steadily": 3793, 
  "criticized": 3794, 
  "owned": 3795, 
  "facilitate": 3796, 
  "anxiety": 3797, 
  "funded": 3798, 
  "hostility": 3799, 
  "imported": 3800, 
  "perform": 3801, 
  "p": 3802, 
  "decent": 3803, 
  "silent": 3804, 
  "cope": 3805, 
  "favored": 3806, 
  "happiness": 3807, 
  "free-market": 3808, 
  "Tokyo": 3809, 
  "w@@": 3810, 
  "Balkans": 3811, 
  "harsh": 3812, 
  "Charles": 3813, 
  "shut": 3814, 
  "seat": 3815, 
  "burdens": 3816, 
  "blind": 3817, 
  "out@@": 3818, 
  "foreign-policy": 3819, 
  "cold": 3820, 
  "acknowledged": 3821, 
  "reporting": 3822, 
  "sole": 3823, 
  "permit": 3824, 
  "named": 3825, 
  "accelerate": 3826, 
  "namely": 3827, 
  "online": 3828, 
  "half-century": 3829, 
  "advocate": 3830, 
  "traders": 3831, 
  "observed": 3832, 
  "physics": 3833, 
  "ordered": 3834, 
  "distinction": 3835, 
  "exploit": 3836, 
  "introduce": 3837, 
  "exporters": 3838, 
  "teams": 3839, 
  "Gates": 3840, 
  "Madrid": 3841, 
  "st@@": 3842, 
  "witnessed": 3843, 
  "fraction": 3844, 
  "narrative": 3845, 
  "remove": 3846, 
  "downside": 3847, 
  "neglect": 3848, 
  "dynamics": 3849, 
  "adoption": 3850, 
  "knowing": 3851, 
  "superior": 3852, 
  "Mikhail": 3853, 
  "Chicago": 3854, 
  "voluntary": 3855, 
  "dying": 3856, 
  "dire": 3857, 
  "background": 3858, 
  "stakes": 3859, 
  "memories": 3860, 
  "enabling": 3861, 
  "implicit": 3862, 
  "6@@": 3863, 
  "ant": 3864, 
  "scene": 3865, 
  "doomed": 3866, 
  "dozens": 3867, 
  "farm": 3868, 
  "clinical": 3869, 
  "units": 3870, 
  "pipeline": 3871, 
  "excluded": 3872, 
  "EMU": 3873, 
  "holdings": 3874, 
  "investor": 3875, 
  "steady": 3876, 
  "foremost": 3877, 
  "adjustments": 3878, 
  "Mugabe": 3879, 
  "Baltic": 3880, 
  "ding": 3881, 
  "confined": 3882, 
  "demise": 3883, 
  "hospitals": 3884, 
  "targeting": 3885, 
  "high-tech": 3886, 
  "versus": 3887, 
  "roles": 3888, 
  "Consensus": 3889, 
  "names": 3890, 
  "contained": 3891, 
  "euro-zone": 3892, 
  "waves": 3893, 
  "enacted": 3894, 
  "morality": 3895, 
  "When": 3896, 
  "precedent": 3897, 
  "sit": 3898, 
  "1993": 3899, 
  "equilibrium": 3900, 
  "21": 3901, 
  "rebuild": 3902, 
  "feelings": 3903, 
  "watching": 3904, 
  "broadly": 3905, 
  "shadow": 3906, 
  "optimistic": 3907, 
  "budgetary": 3908, 
  "captured": 3909, 
  "ranks": 3910, 
  "disappear": 3911, 
  "irrelevant": 3912, 
  "hour": 3913, 
  "broke": 3914, 
  "trained": 3915, 
  "doubled": 3916, 
  "enjoyed": 3917, 
  "factions": 3918, 
  "serving": 3919, 
  "prevail": 3920, 
  "Assad": 3921, 
  "applies": 3922, 
  "uranium": 3923, 
  "citizen": 3924, 
  "experiments": 3925, 
  "note": 3926, 
  "automatic": 3927, 
  "famously": 3928, 
  "Abdullah": 3929, 
  "conviction": 3930, 
  "describe": 3931, 
  "commission": 3932, 
  "confident": 3933, 
  "behave": 3934, 
  "zed": 3935, 
  "practically": 3936, 
  "overwhelmingly": 3937, 
  "secondary": 3938, 
  "contraction": 3939, 
  "therapy": 3940, 
  "Act": 3941, 
  "concessions": 3942, 
  "Association": 3943, 
  "revival": 3944, 
  "l@@": 3945, 
  "boundaries": 3946, 
  "Belgium": 3947, 
  "bet": 3948, 
  "DPJ": 3949, 
  "strange": 3950, 
  "representation": 3951, 
  "upper": 3952, 
  "vis-à-vis": 3953, 
  "mid-@@": 3954, 
  "globe": 3955, 
  "poll": 3956, 
  "feasible": 3957, 
  "qualified": 3958, 
  "orders": 3959, 
  "convincing": 3960, 
  "minor": 3961, 
  "camps": 3962, 
  "Keynesian": 3963, 
  "23": 3964, 
  "commentators": 3965, 
  "ar@@": 3966, 
  "veto": 3967, 
  "competitors": 3968, 
  "remarkably": 3969, 
  "shot": 3970, 
  "fulfill": 3971, 
  "les": 3972, 
  "consideration": 3973, 
  "real-estate": 3974, 
  "lacking": 3975, 
  "speculation": 3976, 
  "gene": 3977, 
  "al-Qaeda": 3978, 
  "se": 3979, 
  "a-@@": 3980, 
  "techniques": 3981, 
  "zing": 3982, 
  "preparing": 3983, 
  "Iranians": 3984, 
  "altogether": 3985, 
  "approximately": 3986, 
  "emphasized": 3987, 
  "Article": 3988, 
  "settle": 3989, 
  "redistribution": 3990, 
  "friend": 3991, 
  "Gore": 3992, 
  "scenarios": 3993, 
  "buildings": 3994, 
  "1979": 3995, 
  "paradox": 3996, 
  "grows": 3997, 
  "declare": 3998, 
  "cooperative": 3999, 
  "losers": 4000, 
  "accident": 4001, 
  "hurt": 4002, 
  "ballot": 4003, 
  "marriage": 4004, 
  "industrialized": 4005, 
  "constantly": 4006, 
  "morally": 4007, 
  "night": 4008, 
  "survived": 4009, 
  "soared": 4010, 
  "worker": 4011, 
  "v@@": 4012, 
  "parity": 4013, 
  "east": 4014, 
  "bridge": 4015, 
  "countless": 4016, 
  "policymaking": 4017, 
  "liberals": 4018, 
  "n@@": 4019, 
  "1945": 4020, 
  "USSR": 4021, 
  "tomorrow": 4022, 
  "frustration": 4023, 
  "confronting": 4024, 
  "novel": 4025, 
  "career": 4026, 
  "W@@": 4027, 
  "backlash": 4028, 
  "neighbor": 4029, 
  "province": 4030, 
  "holders": 4031, 
  "Kurdish": 4032, 
  "surprised": 4033, 
  "What": 4034, 
  "reactions": 4035, 
  "impression": 4036, 
  "ease": 4037, 
  "1,000": 4038, 
  "clash": 4039, 
  "dubious": 4040, 
  "collateral": 4041, 
  "biology": 4042, 
  "reference": 4043, 
  "repeat": 4044, 
  "combine": 4045, 
  "Ghana": 4046, 
  "laid": 4047, 
  "furthermore": 4048, 
  "loyalty": 4049, 
  "scarce": 4050, 
  "Lehman": 4051, 
  "US-@@": 4052, 
  "firmly": 4053, 
  "guard": 4054, 
  "classic": 4055, 
  "Microsoft": 4056, 
  "sports": 4057, 
  "eliminated": 4058, 
  "formula": 4059, 
  "inclusive": 4060, 
  "compensate": 4061, 
  "adjust": 4062, 
  "automatically": 4063, 
  "dismissed": 4064, 
  "foreign-exchange": 4065, 
  "unified": 4066, 
  "Abu": 4067, 
  "z@@": 4068, 
  "temperature": 4069, 
  "constrained": 4070, 
  "stick": 4071, 
  "discredited": 4072, 
  "breakthrough": 4073, 
  "Serbs": 4074, 
  "edge": 4075, 
  "ary": 4076, 
  "Nixon": 4077, 
  "acquire": 4078, 
  "tic": 4079, 
  "fairness": 4080, 
  "IPCC": 4081, 
  "reward": 4082, 
  "crops": 4083, 
  "diminished": 4084, 
  "si@@": 4085, 
  "agents": 4086, 
  "Bangladesh": 4087, 
  "po@@": 4088, 
  "criminals": 4089, 
  "spreads": 4090, 
  "shaped": 4091, 
  "ingly": 4092, 
  "er@@": 4093, 
  "2.5": 4094, 
  "plenty": 4095, 
  "followers": 4096, 
  "packages": 4097, 
  "bloc": 4098, 
  "teachers": 4099, 
  "investigation": 4100, 
  "discourse": 4101, 
  "check": 4102, 
  "strongest": 4103, 
  "relied": 4104, 
  "multinational": 4105, 
  "deterrence": 4106, 
  "relies": 4107, 
  "mess": 4108, 
  "raw": 4109, 
  "se@@": 4110, 
  "sts": 4111, 
  "initiated": 4112, 
  "integrate": 4113, 
  "indicators": 4114, 
  "bias": 4115, 
  "Richard": 4116, 
  "obligation": 4117, 
  "reflecting": 4118, 
  "cooperate": 4119, 
  "sovereign-debt": 4120, 
  "homeowners": 4121, 
  "misguided": 4122, 
  "insisted": 4123, 
  "forecasts": 4124, 
  "banned": 4125, 
  "everybody": 4126, 
  "customs": 4127, 
  "Cup": 4128, 
  "drawing": 4129, 
  "sacrifice": 4130, 
  "existed": 4131, 
  "deployed": 4132, 
  "attempted": 4133, 
  "Community": 4134, 
  "ethics": 4135, 
  "ic": 4136, 
  "grasp": 4137, 
  "Google": 4138, 
  "rebels": 4139, 
  "deemed": 4140, 
  "treating": 4141, 
  "transnational": 4142, 
  "near-@@": 4143, 
  "passing": 4144, 
  "wishes": 4145, 
  "fine": 4146, 
  "arrived": 4147, 
  "derivatives": 4148, 
  "lands": 4149, 
  "relying": 4150, 
  "collectively": 4151, 
  "machine": 4152, 
  "vastly": 4153, 
  "carrying": 4154, 
  "Ronald": 4155, 
  "citizenship": 4156, 
  "tells": 4157, 
  "postcommunist": 4158, 
  "application": 4159, 
  "miracle": 4160, 
  "cohesion": 4161, 
  "makers": 4162, 
  "entrenched": 4163, 
  "defining": 4164, 
  "Cooperation": 4165, 
  "discovery": 4166, 
  "Declaration": 4167, 
  "Ethiopia": 4168, 
  "shortage": 4169, 
  "cabinet": 4170, 
  "Conference": 4171, 
  "train": 4172, 
  "characteristics": 4173, 
  "breast": 4174, 
  "Law": 4175, 
  "m": 4176, 
  "tragic": 4177, 
  "upward": 4178, 
  "reading": 4179, 
  "Pope": 4180, 
  "Chechnya": 4181, 
  "minimal": 4182, 
  "origin": 4183, 
  "error": 4184, 
  "artificial": 4185, 
  "possibilities": 4186, 
  "rampant": 4187, 
  "assist": 4188, 
  "C": 4189, 
  "proud": 4190, 
  "fueling": 4191, 
  "irrational": 4192, 
  "symptoms": 4193, 
  "denial": 4194, 
  "WWII": 4195, 
  "tightening": 4196, 
  "exclusively": 4197, 
  "ad@@": 4198, 
  "partial": 4199, 
  "symbolic": 4200, 
  "symbol": 4201, 
  "chemical": 4202, 
  "deliberately": 4203, 
  "Prague": 4204, 
  "Times": 4205, 
  "sub@@": 4206, 
  "overnight": 4207, 
  "I@@": 4208, 
  "premium": 4209, 
  "proof": 4210, 
  "bombs": 4211, 
  "Charter": 4212, 
  "crop": 4213, 
  "burst": 4214, 
  "dioxide": 4215, 
  "strict": 4216, 
  "wise": 4217, 
  "Swedish": 4218, 
  "odds": 4219, 
  "Royal": 4220, 
  "absorb": 4221, 
  "invited": 4222, 
  "scandals": 4223, 
  "predecessor": 4224, 
  "contains": 4225, 
  "k@@": 4226, 
  "insurgency": 4227, 
  "Somalia": 4228, 
  "militias": 4229, 
  "constitutes": 4230, 
  "regain": 4231, 
  "document": 4232, 
  "sadly": 4233, 
  "insecurity": 4234, 
  "Labour": 4235, 
  "temperatures": 4236, 
  "skeptical": 4237, 
  "ceiling": 4238, 
  "architecture": 4239, 
  "skepticism": 4240, 
  "liquid": 4241, 
  "Climate": 4242, 
  "studied": 4243, 
  "offensive": 4244, 
  "accounted": 4245, 
  "separation": 4246, 
  "occurs": 4247, 
  "suffers": 4248, 
  "foreseeable": 4249, 
  "patent": 4250, 
  "es@@": 4251, 
  "catch": 4252, 
  "pull": 4253, 
  "forest": 4254, 
  "Red": 4255, 
  "bed": 4256, 
  "salaries": 4257, 
  "populism": 4258, 
  "platform": 4259, 
  "acute": 4260, 
  "creditor": 4261, 
  "i": 4262, 
  "arguably": 4263, 
  "Wen": 4264, 
  "comparative": 4265, 
  "decrease": 4266, 
  "negotiation": 4267, 
  "substitute": 4268, 
  "extending": 4269, 
  "futures": 4270, 
  "arrangement": 4271, 
  "EFSF": 4272, 
  "systematic": 4273, 
  "earned": 4274, 
  "Gandhi": 4275, 
  "mothers": 4276, 
  "govern": 4277, 
  "erupted": 4278, 
  "indirect": 4279, 
  "Socialist": 4280, 
  "lender": 4281, 
  "profitable": 4282, 
  "spends": 4283, 
  "propose": 4284, 
  "ac@@": 4285, 
  "enrichment": 4286, 
  "sentiments": 4287, 
  "inclusion": 4288, 
  "endorsed": 4289, 
  "determining": 4290, 
  "prevailed": 4291, 
  "LDP": 4292, 
  "Congo": 4293, 
  "extension": 4294, 
  "panel": 4295, 
  "under-@@": 4296, 
  "neighborhood": 4297, 
  "reformers": 4298, 
  "sp@@": 4299, 
  "split": 4300, 
  "games": 4301, 
  "filled": 4302, 
  "emerges": 4303, 
  "unnecessary": 4304, 
  "indifference": 4305, 
  "notice": 4306, 
  "l": 4307, 
  "destroying": 4308, 
  "des": 4309, 
  "taught": 4310, 
  "calm": 4311, 
  "ty": 4312, 
  "talent": 4313, 
  "sake": 4314, 
  "cautious": 4315, 
  "affects": 4316, 
  "ine": 4317, 
  "Brazilian": 4318, 
  "internet": 4319, 
  "accurate": 4320, 
  "public-sector": 4321, 
  "shortcomings": 4322, 
  "remote": 4323, 
  "luxury": 4324, 
  "ni@@": 4325, 
  "gross": 4326, 
  "distress": 4327, 
  "rivals": 4328, 
  "ab@@": 4329, 
  "traffic": 4330, 
  "cure": 4331, 
  "bases": 4332, 
  "undermines": 4333, 
  "stuck": 4334, 
  "capability": 4335, 
  "preferred": 4336, 
  "extremist": 4337, 
  "availability": 4338, 
  "margin": 4339, 
  "accelerated": 4340, 
  "degrees": 4341, 
  "founding": 4342, 
  "recovered": 4343, 
  "Kurds": 4344, 
  "slowing": 4345, 
  "forge": 4346, 
  "sectarian": 4347, 
  "attempting": 4348, 
  "vested": 4349, 
  "Liu": 4350, 
  "settled": 4351, 
  "fed": 4352, 
  "perfectly": 4353, 
  "misleading": 4354, 
  "justification": 4355, 
  "400": 4356, 
  "Koizumi": 4357, 
  "Geneva": 4358, 
  "opposing": 4359, 
  "route": 4360, 
  "consolidate": 4361, 
  "choosing": 4362, 
  "Premier": 4363, 
  "dimension": 4364, 
  "pick": 4365, 
  "Chief": 4366, 
  "predecessors": 4367, 
  "regulate": 4368, 
  "ity": 4369, 
  "for@@": 4370, 
  "thinks": 4371, 
  "pi@@": 4372, 
  "overly": 4373, 
  "unification": 4374, 
  "wing": 4375, 
  "par@@": 4376, 
  "acquired": 4377, 
  "mo@@": 4378, 
  "temptation": 4379, 
  "post-war": 4380, 
  "portfolio": 4381, 
  "Free": 4382, 
  "Office": 4383, 
  "burning": 4384, 
  "assumptions": 4385, 
  "defaults": 4386, 
  "�": 4387, 
  "28": 4388, 
  "originally": 4389, 
  "rises": 4390, 
  "inaction": 4391, 
  "display": 4392, 
  "understands": 4393, 
  "biodiversity": 4394, 
  "adaptation": 4395, 
  "announcement": 4396, 
  "Maastricht": 4397, 
  "Yushchenko": 4398, 
  "enduring": 4399, 
  "transmission": 4400, 
  "Cameron": 4401, 
  "request": 4402, 
  "reveal": 4403, 
  "partnerships": 4404, 
  "scandal": 4405, 
  "stations": 4406, 
  "religions": 4407, 
  "radically": 4408, 
  "securing": 4409, 
  "consent": 4410, 
  "fundamentalism": 4411, 
  "defensive": 4412, 
  "Khrushchev": 4413, 
  "rebalancing": 4414, 
  "villages": 4415, 
  "18@@": 4416, 
  "bargain": 4417, 
  "personnel": 4418, 
  "Schröder": 4419, 
  "assault": 4420, 
  "covered": 4421, 
  "prone": 4422, 
  "distributed": 4423, 
  "Swiss": 4424, 
  "tradable": 4425, 
  "association": 4426, 
  "ism": 4427, 
  "Ben": 4428, 
  "collaboration": 4429, 
  "militants": 4430, 
  "mentioned": 4431, 
  "origins": 4432, 
  "fifth": 4433, 
  "Sunnis": 4434, 
  "gases": 4435, 
  "Moldova": 4436, 
  "bondholders": 4437, 
  "GNP": 4438, 
  "le@@": 4439, 
  "Berkeley": 4440, 
  "Asians": 4441, 
  "ages": 4442, 
  "pact": 4443, 
  "bail": 4444, 
  "compare": 4445, 
  "excuse": 4446, 
  "statistical": 4447, 
  "rigid": 4448, 
  "outsiders": 4449, 
  "ent": 4450, 
  "If": 4451, 
  "employed": 4452, 
  "Trichet": 4453, 
  "medium-term": 4454, 
  "prize": 4455, 
  "Program": 4456, 
  "reforming": 4457, 
  "poised": 4458, 
  "facility": 4459, 
  "resilience": 4460, 
  "motives": 4461, 
  "San": 4462, 
  "Nuclear": 4463, 
  "keen": 4464, 
  "minimize": 4465, 
  "islands": 4466, 
  "Chechen": 4467, 
  "run-up": 4468, 
  "responding": 4469, 
  "do@@": 4470, 
  "timing": 4471, 
  "spectacular": 4472, 
  "TB": 4473, 
  "provinces": 4474, 
  "virus": 4475, 
  "completed": 4476, 
  "riots": 4477, 
  "retail": 4478, 
  "exchanges": 4479, 
  "indicates": 4480, 
  "26": 4481, 
  "parliaments": 4482, 
  "entity": 4483, 
  "formidable": 4484, 
  "Round": 4485, 
  "one-@@": 4486, 
  "Norway": 4487, 
  "b": 4488, 
  "Roosevelt": 4489, 
  "tremendous": 4490, 
  "Alan": 4491, 
  "decisively": 4492, 
  "box": 4493, 
  "accomplish": 4494, 
  "exceptions": 4495, 
  "J@@": 4496, 
  "occasion": 4497, 
  "PLO": 4498, 
  "trap": 4499, 
  "booms": 4500, 
  "warnings": 4501, 
  "ideals": 4502, 
  "interim": 4503, 
  "brink": 4504, 
  "Leader": 4505, 
  "reasonably": 4506, 
  "witness": 4507, 
  "connections": 4508, 
  "excellent": 4509, 
  "underground": 4510, 
  "entities": 4511, 
  "civilized": 4512, 
  "irresponsible": 4513, 
  "incapable": 4514, 
  "long-@@": 4515, 
  "dealt": 4516, 
  "nationalists": 4517, 
  "ho@@": 4518, 
  "conservation": 4519, 
  "disappeared": 4520, 
  "empty": 4521, 
  "phrase": 4522, 
  "tissue": 4523, 
  "unpredictable": 4524, 
  "scholars": 4525, 
  "Thatcher": 4526, 
  "tanks": 4527, 
  "detailed": 4528, 
  "town": 4529, 
  "meantime": 4530, 
  "ice": 4531, 
  "shed": 4532, 
  "differ": 4533, 
  "assured": 4534, 
  "attracted": 4535, 
  "teaching": 4536, 
  "per@@": 4537, 
  "object": 4538, 
  "ar": 4539, 
  "nets": 4540, 
  "unclear": 4541, 
  "calculations": 4542, 
  "assumes": 4543, 
  "etc": 4544, 
  "totally": 4545, 
  "radiation": 4546, 
  "widening": 4547, 
  "centralized": 4548, 
  "persist": 4549, 
  "Tiananmen": 4550, 
  "affair": 4551, 
  "judged": 4552, 
  "monitor": 4553, 
  "Green": 4554, 
  "imbalance": 4555, 
  "Government": 4556, 
  "messages": 4557, 
  "ch": 4558, 
  "medicines": 4559, 
  "routinely": 4560, 
  "performed": 4561, 
  "ness": 4562, 
  "ously": 4563, 
  "winner": 4564, 
  "outsourcing": 4565, 
  "vacuum": 4566, 
  "harmful": 4567, 
  "warfare": 4568, 
  "affecting": 4569, 
  "organisms": 4570, 
  "implying": 4571, 
  "distressed": 4572, 
  "sheer": 4573, 
  "peripheral": 4574, 
  "king": 4575, 
  "skeptics": 4576, 
  "humiliation": 4577, 
  "brief": 4578, 
  "containment": 4579, 
  "revived": 4580, 
  "assassination": 4581, 
  "forth": 4582, 
  "seeds": 4583, 
  "cyclical": 4584, 
  "illusion": 4585, 
  "ambition": 4586, 
  "rally": 4587, 
  "coupled": 4588, 
  "checks": 4589, 
  "far-reaching": 4590, 
  "Hague": 4591, 
  "stark": 4592, 
  "benign": 4593, 
  "stems": 4594, 
  "payment": 4595, 
  "threshold": 4596, 
  "affordable": 4597, 
  "sick": 4598, 
  "engaging": 4599, 
  "invariably": 4600, 
  "temporarily": 4601, 
  "Morocco": 4602, 
  "repressive": 4603, 
  "100,000": 4604, 
  "blocked": 4605, 
  "guilty": 4606, 
  "censorship": 4607, 
  "imagination": 4608, 
  "mutually": 4609, 
  "station": 4610, 
  "sounds": 4611, 
  "wary": 4612, 
  "departure": 4613, 
  "recorded": 4614, 
  "missed": 4615, 
  "enthusiasm": 4616, 
  "vice": 4617, 
  "V@@": 4618, 
  "electronic": 4619, 
  "mi@@": 4620, 
  "insolvent": 4621, 
  "ded": 4622, 
  "succession": 4623, 
  "Report": 4624, 
  "behalf": 4625, 
  "likes": 4626, 
  "crowd": 4627, 
  "qu@@": 4628, 
  "Serbian": 4629, 
  "missions": 4630, 
  "James": 4631, 
  "businessmen": 4632, 
  "myth": 4633, 
  "1973": 4634, 
  "welcomed": 4635, 
  "factory": 4636, 
  "channel": 4637, 
  "healthcare": 4638, 
  "freeze": 4639, 
  "rewards": 4640, 
  "subsequently": 4641, 
  "socially": 4642, 
  "it@@": 4643, 
  "audience": 4644, 
  "camp": 4645, 
  "Rwanda": 4646, 
  "considerably": 4647, 
  "low-income": 4648, 
  "formation": 4649, 
  "retreat": 4650, 
  "vague": 4651, 
  "angry": 4652, 
  "deputy": 4653, 
  "complain": 4654, 
  "aggression": 4655, 
  "Peru": 4656, 
  "pledged": 4657, 
  "Secretary-General": 4658, 
  "shrinking": 4659, 
  "gaps": 4660, 
  "democratically": 4661, 
  "confusion": 4662, 
  "wins": 4663, 
  "encourages": 4664, 
  "Algeria": 4665, 
  "booming": 4666, 
  "readily": 4667, 
  "orderly": 4668, 
  "Communists": 4669, 
  "seized": 4670, 
  "aircraft": 4671, 
  "farming": 4672, 
  "elderly": 4673, 
  "inherited": 4674, 
  "tolerate": 4675, 
  "peasants": 4676, 
  "0.@@": 4677, 
  "legally": 4678, 
  "democrats": 4679, 
  "fold": 4680, 
  "Georgian": 4681, 
  "unite": 4682, 
  "intent": 4683, 
  "Jintao": 4684, 
  "satisfy": 4685, 
  "der": 4686, 
  "KGB": 4687, 
  "self-interest": 4688, 
  "catastrophic": 4689, 
  "liberation": 4690, 
  "logical": 4691, 
  "Ban": 4692, 
  "semi-@@": 4693, 
  "peacefully": 4694, 
  "moderates": 4695, 
  "allocation": 4696, 
  "dozen": 4697, 
  "devices": 4698, 
  "value-added": 4699, 
  "r@@": 4700, 
  "rice": 4701, 
  "fl@@": 4702, 
  "unusual": 4703, 
  "low-@@": 4704, 
  "65": 4705, 
  "exaggerated": 4706, 
  "portion": 4707, 
  "probability": 4708, 
  "7@@": 4709, 
  "indebted": 4710, 
  "occurring": 4711, 
  "ance": 4712, 
  "systematically": 4713, 
  "Ukrainian": 4714, 
  "genuinely": 4715, 
  "middle-income": 4716, 
  "satellite": 4717, 
  "uncertainties": 4718, 
  "Hillary": 4719, 
  "substance": 4720, 
  "recommendations": 4721, 
  "low-cost": 4722, 
  "sanitation": 4723, 
  "dreams": 4724, 
  "hide": 4725, 
  "n": 4726, 
  "react": 4727, 
  "tide": 4728, 
  "conclusions": 4729, 
  "factories": 4730, 
  "masses": 4731, 
  "But": 4732, 
  "Y@@": 4733, 
  "brand": 4734, 
  "notable": 4735, 
  "IAEA": 4736, 
  "Initiative": 4737, 
  "oligarchs": 4738, 
  "There": 4739, 
  "inherently": 4740, 
  "massacre": 4741, 
  "abandoning": 4742, 
  "surveys": 4743, 
  "oversight": 4744, 
  "induced": 4745, 
  "dissidents": 4746, 
  "literally": 4747, 
  "proclaimed": 4748, 
  "spiral": 4749, 
  "identities": 4750, 
  "CEO": 4751, 
  "Morsi": 4752, 
  "formally": 4753, 
  "preserving": 4754, 
  "Goals": 4755, 
  "buyers": 4756, 
  "solved": 4757, 
  "heading": 4758, 
  "carries": 4759, 
  "Fox": 4760, 
  "restricted": 4761, 
  "radicals": 4762, 
  "urge": 4763, 
  "seize": 4764, 
  "Castro": 4765, 
  "dysfunctional": 4766, 
  "Brotherhood": 4767, 
  "settlers": 4768, 
  "struggles": 4769, 
  "diminish": 4770, 
  "Saudis": 4771, 
  "feet": 4772, 
  "breakdown": 4773, 
  "deterioration": 4774, 
  "Criminal": 4775, 
  "requirement": 4776, 
  "ignorance": 4777, 
  "Hollande": 4778, 
  "induce": 4779, 
  "el": 4780, 
  "located": 4781, 
  "Change": 4782, 
  "bankrupt": 4783, 
  "One": 4784, 
  "listen": 4785, 
  "barrel": 4786, 
  "psychology": 4787, 
  "delivering": 4788, 
  "respectively": 4789, 
  "bust": 4790, 
  "financially": 4791, 
  "fighters": 4792, 
  "letter": 4793, 
  "suppose": 4794, 
  "depressed": 4795, 
  "tion": 4796, 
  "Kazakhstan": 4797, 
  "deleveraging": 4798, 
  "op@@": 4799, 
  "dictators": 4800, 
  "Ministry": 4801, 
  "Tibetan": 4802, 
  "accordingly": 4803, 
  "inherent": 4804, 
  "Orthodox": 4805, 
  "exclusion": 4806, 
  "Osama": 4807, 
  "anticipated": 4808, 
  "ds": 4809, 
  "ling": 4810, 
  "tourism": 4811, 
  "pointing": 4812, 
  "Empire": 4813, 
  "advisers": 4814, 
  "unilaterally": 4815, 
  "recipe": 4816, 
  "c": 4817, 
  "landing": 4818, 
  "problematic": 4819, 
  "removing": 4820, 
  "shortages": 4821, 
  "grant": 4822, 
  "S": 4823, 
  "safeguard": 4824, 
  "emotions": 4825, 
  "FARC": 4826, 
  "restraint": 4827, 
  "reflection": 4828, 
  "traded": 4829, 
  "tempted": 4830, 
  "Finland": 4831, 
  "afraid": 4832, 
  "Christians": 4833, 
  "Front": 4834, 
  "an-@@": 4835, 
  "the@@": 4836, 
  "permitted": 4837, 
  "arises": 4838, 
  "bonuses": 4839, 
  "Argentine": 4840, 
  "ships": 4841, 
  "refuses": 4842, 
  "upcoming": 4843, 
  "Thai": 4844, 
  "curb": 4845, 
  "profession": 4846, 
  "Yanukovich": 4847, 
  "favorite": 4848, 
  "virtue": 4849, 
  "handle": 4850, 
  "accelerating": 4851, 
  "Erdoğan": 4852, 
  "ship": 4853, 
  "sale": 4854, 
  "Southern": 4855, 
  "episodes": 4856, 
  "motion": 4857, 
  "Olympic": 4858, 
  "besides": 4859, 
  "closing": 4860, 
  "oriented": 4861, 
  "admission": 4862, 
  "resisted": 4863, 
  "construct": 4864, 
  "Warsaw": 4865, 
  "perceptions": 4866, 
  "arbitrary": 4867, 
  "focuses": 4868, 
  "academics": 4869, 
  "Olympics": 4870, 
  "paralysis": 4871, 
  "bosses": 4872, 
  "pervasive": 4873, 
  "piece": 4874, 
  "disorders": 4875, 
  "aggressively": 4876, 
  "shortfall": 4877, 
  "Koreans": 4878, 
  "chains": 4879, 
  "tons": 4880, 
  "disparities": 4881, 
  "bearing": 4882, 
  "category": 4883, 
  "spectrum": 4884, 
  "despair": 4885, 
  "d-@@": 4886, 
  "bears": 4887, 
  "rec@@": 4888, 
  "notwithstanding": 4889, 
  "Havel": 4890, 
  "preventive": 4891, 
  "enforced": 4892, 
  "believing": 4893, 
  "vibrant": 4894, 
  "miss": 4895, 
  "bu@@": 4896, 
  "multi-@@": 4897, 
  "balancing": 4898, 
  "m@@": 4899, 
  "errors": 4900, 
  "pure": 4901, 
  "utterly": 4902, 
  "shrink": 4903, 
  "assembly": 4904, 
  "secured": 4905, 
  "fertility": 4906, 
  "certainty": 4907, 
  "lo@@": 4908, 
  "Erdogan": 4909, 
  "pool": 4910, 
  "disintegration": 4911, 
  "alarming": 4912, 
  "expose": 4913, 
  "prestige": 4914, 
  "servants": 4915, 
  "Uribe": 4916, 
  "Forces": 4917, 
  "urged": 4918, 
  "civic": 4919, 
  "preferences": 4920, 
  "consume": 4921, 
  "perceive": 4922, 
  "creativity": 4923, 
  "permanently": 4924, 
  "postwar": 4925, 
  "erosion": 4926, 
  "concentrate": 4927, 
  "destabilizing": 4928, 
  "pillars": 4929, 
  "ma@@": 4930, 
  "violation": 4931, 
  "bargaining": 4932, 
  "pro@@": 4933, 
  "slowed": 4934, 
  "vi@@": 4935, 
  "distinguish": 4936, 
  "depending": 4937, 
  "Ukrainians": 4938, 
  "writers": 4939, 
  "Guantánamo": 4940, 
  "P": 4941, 
  "low-carbon": 4942, 
  "concepts": 4943, 
  "approaching": 4944, 
  "et": 4945, 
  "alist": 4946, 
  "historians": 4947, 
  "appreciated": 4948, 
  "fundamentalist": 4949, 
  "entails": 4950, 
  "deployment": 4951, 
  "Con@@": 4952, 
  "reasoning": 4953, 
  "ms": 4954, 
  "Rumsfeld": 4955, 
  "Ayatollah": 4956, 
  "organize": 4957, 
  "First": 4958, 
  "ment": 4959, 
  "ings": 4960, 
  "labor-market": 4961, 
  "deliberate": 4962, 
  "participating": 4963, 
  "Strip": 4964, 
  "hearts": 4965, 
  "hate": 4966, 
  "Egyptians": 4967, 
  "toll": 4968, 
  "pricing": 4969, 
  "precise": 4970, 
  "crude": 4971, 
  "Hatoyama": 4972, 
  "om@@": 4973, 
  "symbols": 4974, 
  "accumulated": 4975, 
  "deserves": 4976, 
  "operational": 4977, 
  "imminent": 4978, 
  "geography": 4979, 
  "philosopher": 4980, 
  "reportedly": 4981, 
  "touch": 4982, 
  "performing": 4983, 
  "gun": 4984, 
  "exporting": 4985, 
  "bo@@": 4986, 
  "evolved": 4987, 
  "Governing": 4988, 
  "hungry": 4989, 
  "driver": 4990, 
  "comfortable": 4991, 
  "guided": 4992, 
  "invented": 4993, 
  "School": 4994, 
  "excessively": 4995, 
  "Vice": 4996, 
  "controversy": 4997, 
  "disturbing": 4998, 
  "um": 4999, 
  "habits": 5000, 
  "Day": 5001, 
  "workforce": 5002, 
  "doors": 5003, 
  "transportation": 5004, 
  "offices": 5005, 
  "Recession": 5006, 
  "subsidy": 5007, 
  "kilometers": 5008, 
  "interference": 5009, 
  "interdependence": 5010, 
  "zones": 5011, 
  "Oslo": 5012, 
  "ec@@": 5013, 
  "appearance": 5014, 
  "en": 5015, 
  "excesses": 5016, 
  "bills": 5017, 
  "enlightened": 5018, 
  "zes": 5019, 
  "inspire": 5020, 
  "8@@": 5021, 
  "coast": 5022, 
  "unresolved": 5023, 
  "eat": 5024, 
  "flaws": 5025, 
  "intensive": 5026, 
  "solving": 5027, 
  "premature": 5028, 
  "theoretical": 5029, 
  "accord": 5030, 
  "insisting": 5031, 
  "examine": 5032, 
  "ably": 5033, 
  "multilateralism": 5034, 
  "tariff": 5035, 
  "Labor": 5036, 
  "lift": 5037, 
  "malaise": 5038, 
  "phone": 5039, 
  "human-rights": 5040, 
  "injustice": 5041, 
  "1.@@": 5042, 
  "B": 5043, 
  "counter-@@": 5044, 
  "depth": 5045, 
  "Jazeera": 5046, 
  "continental": 5047, 
  "refugee": 5048, 
  "Smith": 5049, 
  "exclusive": 5050, 
  "march": 5051, 
  "spiritual": 5052, 
  "Gordon": 5053, 
  "cards": 5054, 
  "&apos;re": 5055, 
  "scarcity": 5056, 
  "Woods": 5057, 
  "universe": 5058, 
  "electric": 5059, 
  "ator": 5060, 
  "alized": 5061, 
  "engines": 5062, 
  "treatments": 5063, 
  "walk": 5064, 
  "baby": 5065, 
  "venture": 5066, 
  "distortions": 5067, 
  "assert": 5068, 
  "degradation": 5069, 
  "distrust": 5070, 
  "reckless": 5071, 
  "paradigm": 5072, 
  "markedly": 5073, 
  "casualties": 5074, 
  "Fukushima": 5075, 
  "Orange": 5076, 
  "high-quality": 5077, 
  "grain": 5078, 
  "author": 5079, 
  "suit": 5080, 
  "avert": 5081, 
  "reveals": 5082, 
  "Ecuador": 5083, 
  "mistaken": 5084, 
  "soil": 5085, 
  "admitted": 5086, 
  "fired": 5087, 
  "infected": 5088, 
  "soccer": 5089, 
  "Kuchma": 5090, 
  "deposit": 5091, 
  "totalitarian": 5092, 
  "emphasize": 5093, 
  "sentence": 5094, 
  "to-@@": 5095, 
  "specter": 5096, 
  "horizon": 5097, 
  "constituencies": 5098, 
  "debtor": 5099, 
  "presumably": 5100, 
  "intensity": 5101, 
  "records": 5102, 
  "incidents": 5103, 
  "shaping": 5104, 
  "cynical": 5105, 
  "music": 5106, 
  "repair": 5107, 
  "drag": 5108, 
  "delayed": 5109, 
  "sheet": 5110, 
  "urgency": 5111, 
  "merit": 5112, 
  "tight": 5113, 
  "bi@@": 5114, 
  "cross": 5115, 
  "legislators": 5116, 
  "proceed": 5117, 
  "Hugo": 5118, 
  "Libyan": 5119, 
  "penalty": 5120, 
  "tri@@": 5121, 
  "manufactured": 5122, 
  "attend": 5123, 
  "rape": 5124, 
  "1.3": 5125, 
  "Khodorkovsky": 5126, 
  "wild": 5127, 
  "paradoxically": 5128, 
  "dictatorships": 5129, 
  "sc@@": 5130, 
  "borrowed": 5131, 
  "immune": 5132, 
  "2030": 5133, 
  "supervisory": 5134, 
  "Bahrain": 5135, 
  "NGOs": 5136, 
  "provoke": 5137, 
  "takeover": 5138, 
  "conspiracy": 5139, 
  "patents": 5140, 
  "explosive": 5141, 
  "Lee": 5142, 
  "urbanization": 5143, 
  "Chernobyl": 5144, 
  "Arab-Israeli": 5145, 
  "boys": 5146, 
  "rests": 5147, 
  "la": 5148, 
  "incomplete": 5149, 
  "favors": 5150, 
  "ministries": 5151, 
  "Viktor": 5152, 
  "hurricanes": 5153, 
  "attributed": 5154, 
  "neglected": 5155, 
  "impunity": 5156, 
  "ci@@": 5157, 
  "governmental": 5158, 
  "combating": 5159, 
  "Duma": 5160, 
  "Bretton": 5161, 
  "Olmert": 5162, 
  "authoritarianism": 5163, 
  "myriad": 5164, 
  "Finance": 5165, 
  "dissent": 5166, 
  "allegedly": 5167, 
  "five-year": 5168, 
  "allocated": 5169, 
  "remembered": 5170, 
  "ample": 5171, 
  "embedded": 5172, 
  "exacerbated": 5173, 
  "loose": 5174, 
  "militant": 5175, 
  "reformed": 5176, 
  "governor": 5177, 
  "irony": 5178, 
  "alter": 5179, 
  "exported": 5180, 
  "radio": 5181, 
  "explanations": 5182, 
  "middle-class": 5183, 
  "respects": 5184, 
  "master": 5185, 
  "counts": 5186, 
  "alism": 5187, 
  "battles": 5188, 
  "wherever": 5189, 
  "Maynard": 5190, 
  "absurd": 5191, 
  "lethal": 5192, 
  "transaction": 5193, 
  "contest": 5194, 
  "deforestation": 5195, 
  "Strategy": 5196, 
  "secretary": 5197, 
  "Calderón": 5198, 
  "marginalized": 5199, 
  "scientist": 5200, 
  "non-proliferation": 5201, 
  "moments": 5202, 
  "exile": 5203, 
  "perpetrators": 5204, 
  "consists": 5205, 
  "ality": 5206, 
  "extraordinarily": 5207, 
  "MDGs": 5208, 
  "year-old": 5209, 
  "hire": 5210, 
  "helpful": 5211, 
  "card": 5212, 
  "reversal": 5213, 
  "insurgents": 5214, 
  "absolutely": 5215, 
  "efficiently": 5216, 
  "straightforward": 5217, 
  "interpreted": 5218, 
  "Bulgaria": 5219, 
  "generates": 5220, 
  "exceptional": 5221, 
  "appealing": 5222, 
  "indispensable": 5223, 
  "worthy": 5224, 
  "commonly": 5225, 
  "adjusted": 5226, 
  "necessity": 5227, 
  "deepen": 5228, 
  "swept": 5229, 
  "sad": 5230, 
  "Caribbean": 5231, 
  "trapped": 5232, 
  "actor": 5233, 
  "speculators": 5234, 
  "analogy": 5235, 
  "rush": 5236, 
  "guns": 5237, 
  "surrounded": 5238, 
  "te": 5239, 
  "landscape": 5240, 
  "surrender": 5241, 
  "imperfect": 5242, 
  "entrepreneurial": 5243, 
  "Congressional": 5244, 
  "provincial": 5245, 
  "defended": 5246, 
  "imagined": 5247, 
  "boards": 5248, 
  "scrutiny": 5249, 
  "dismiss": 5250, 
  "floods": 5251, 
  "ative": 5252, 
  "stagnant": 5253, 
  "unexpected": 5254, 
  "ist": 5255, 
  "statehood": 5256, 
  "personality": 5257, 
  "discover": 5258, 
  "For": 5259, 
  "college": 5260, 
  "interaction": 5261, 
  "sitting": 5262, 
  "1981": 5263, 
  "entrepreneurship": 5264, 
  "west": 5265, 
  "US-led": 5266, 
  "counterproductive": 5267, 
  "tactical": 5268, 
  "immigrant": 5269, 
  "attacking": 5270, 
  "impede": 5271, 
  "ors": 5272, 
  "smooth": 5273, 
  "tended": 5274, 
  "Boris": 5275, 
  "influenced": 5276, 
  "anemic": 5277, 
  "Latvia": 5278, 
  "insists": 5279, 
  "ruler": 5280, 
  "long-standing": 5281, 
  "advertising": 5282, 
  "sport": 5283, 
  "pound": 5284, 
  "circles": 5285, 
  "text": 5286, 
  "maneuver": 5287, 
  "restoration": 5288, 
  "store": 5289, 
  "hazard": 5290, 
  "post-Soviet": 5291, 
  "debt-to-GDP": 5292, 
  "endless": 5293, 
  "loses": 5294, 
  "distorted": 5295, 
  "indirectly": 5296, 
  "breaks": 5297, 
  "norm": 5298, 
  "iron": 5299, 
  "suggesting": 5300, 
  "jail": 5301, 
  "apparatus": 5302, 
  "beat": 5303, 
  "commerce": 5304, 
  "daunting": 5305, 
  "crackdown": 5306, 
  "precious": 5307, 
  "ters": 5308, 
  "elect": 5309, 
  "El": 5310, 
  "lesser": 5311, 
  "exceeds": 5312, 
  "waters": 5313, 
  "translate": 5314, 
  "star": 5315, 
  "Jiang": 5316, 
  "letting": 5317, 
  "reluctance": 5318, 
  "organizing": 5319, 
  "Obasanjo": 5320, 
  "seeming": 5321, 
  "Revolutionary": 5322, 
  "belong": 5323, 
  "machines": 5324, 
  "duties": 5325, 
  "outstanding": 5326, 
  "prosecution": 5327, 
  "resolutions": 5328, 
  "detention": 5329, 
  "corner": 5330, 
  "labor-intensive": 5331, 
  "cycles": 5332, 
  "stalemate": 5333, 
  "29": 5334, 
  "com@@": 5335, 
  "Director": 5336, 
  "arena": 5337, 
  "Partnership": 5338, 
  "issuing": 5339, 
  "hero": 5340, 
  "10,000": 5341, 
  "Estonia": 5342, 
  "considers": 5343, 
  "restrict": 5344, 
  "Cambodia": 5345, 
  "2,000": 5346, 
  "incident": 5347, 
  "mining": 5348, 
  "infectious": 5349, 
  "31": 5350, 
  "civilizations": 5351, 
  "sympathy": 5352, 
  "worsen": 5353, 
  "replacement": 5354, 
  "potent": 5355, 
  "hurricane": 5356, 
  "unrealistic": 5357, 
  "genome": 5358, 
  "laureate": 5359, 
  "bulk": 5360, 
  "skill": 5361, 
  "tries": 5362, 
  "worsening": 5363, 
  "Sachs": 5364, 
  "occasionally": 5365, 
  "advocated": 5366, 
  "mired": 5367, 
  "fees": 5368, 
  "reunification": 5369, 
  "closest": 5370, 
  "Movement": 5371, 
  "drinking": 5372, 
  "thrown": 5373, 
  "ve": 5374, 
  "da": 5375, 
  "introducing": 5376, 
  "derived": 5377, 
  "transforming": 5378, 
  "expects": 5379, 
  "inequalities": 5380, 
  "headlines": 5381, 
  "Cheney": 5382, 
  "writer": 5383, 
  "somewhere": 5384, 
  "storage": 5385, 
  "discontent": 5386, 
  "pressed": 5387, 
  "export-led": 5388, 
  "possess": 5389, 
  "discourage": 5390, 
  "whereby": 5391, 
  "clout": 5392, 
  "enables": 5393, 
  "confused": 5394, 
  "vary": 5395, 
  "Australian": 5396, 
  "mitigate": 5397, 
  "Danish": 5398, 
  "accustomed": 5399, 
  "hoping": 5400, 
  "spur": 5401, 
  "domestically": 5402, 
  "Armenia": 5403, 
  "Hindu": 5404, 
  "pundits": 5405, 
  "subsidized": 5406, 
  "man@@": 5407, 
  "deadly": 5408, 
  "autocratic": 5409, 
  "ton": 5410, 
  "te@@": 5411, 
  "pre-crisis": 5412, 
  "obtained": 5413, 
  "forthcoming": 5414, 
  "flu": 5415, 
  "Joseph": 5416, 
  "incumbent": 5417, 
  "ratified": 5418, 
  "Jong-il": 5419, 
  "luck": 5420, 
  "disagree": 5421, 
  "infection": 5422, 
  "conditionality": 5423, 
  "hikes": 5424, 
  "vehicle": 5425, 
  "foods": 5426, 
  "unthinkable": 5427, 
  "credits": 5428, 
  "benefiting": 5429, 
  "20th": 5430, 
  "predictions": 5431, 
  "winter": 5432, 
  "provoked": 5433, 
  "fierce": 5434, 
  "600": 5435, 
  "flat": 5436, 
  "scheduled": 5437, 
  "fi@@": 5438, 
  "resignation": 5439, 
  "presents": 5440, 
  "rein": 5441, 
  "1987": 5442, 
  "liberties": 5443, 
  "episode": 5444, 
  "tribunal": 5445, 
  "mindset": 5446, 
  "reminder": 5447, 
  "Abkhazia": 5448, 
  "sciences": 5449, 
  "1982": 5450, 
  "ignoring": 5451, 
  "prosecutors": 5452, 
  "Re@@": 5453, 
  "Abe": 5454, 
  "personally": 5455, 
  "inner": 5456, 
  "resigned": 5457, 
  "go@@": 5458, 
  "Communism": 5459, 
  "Ossetia": 5460, 
  "ge@@": 5461, 
  "Foundation": 5462, 
  "ocean": 5463, 
  "emission": 5464, 
  "autumn": 5465, 
  "launching": 5466, 
  "coastal": 5467, 
  "procedure": 5468, 
  "equipped": 5469, 
  "Goldman": 5470, 
  "Saleh": 5471, 
  "Kennedy": 5472, 
  "flowing": 5473, 
  "fying": 5474, 
  "rebuilding": 5475, 
  "window": 5476, 
  "ports": 5477, 
  "employ": 5478, 
  "debacle": 5479, 
  "viruses": 5480, 
  "Henry": 5481, 
  "empirical": 5482, 
  "Rice": 5483, 
  "exacerbate": 5484, 
  "transitions": 5485, 
  "persuaded": 5486, 
  "distinguished": 5487, 
  "droughts": 5488, 
  "contacts": 5489, 
  "neutral": 5490, 
  "nineteenth-century": 5491, 
  "destiny": 5492, 
  "deter": 5493, 
  "imperialism": 5494, 
  "Force": 5495, 
  "Poles": 5496, 
  "environmentally": 5497, 
  "700": 5498, 
  "tobacco": 5499, 
  "grim": 5500, 
  "strictly": 5501, 
  "exploited": 5502, 
  "remittances": 5503, 
  "disproportionate": 5504, 
  "ence": 5505, 
  "feels": 5506, 
  "ex-@@": 5507, 
  "unilateralism": 5508, 
  "adults": 5509, 
  "contradictory": 5510, 
  "up@@": 5511, 
  "attraction": 5512, 
  "credentials": 5513, 
  "myself": 5514, 
  "pluralism": 5515, 
  "continuation": 5516, 
  "non-governmental": 5517, 
  "lacked": 5518, 
  "percent": 5519, 
  "Sri": 5520, 
  "accumulate": 5521, 
  "1968": 5522, 
  "s-@@": 5523, 
  "believers": 5524, 
  "fruit": 5525, 
  "complaints": 5526, 
  "Tribunal": 5527, 
  "towns": 5528, 
  "occupying": 5529, 
  "activism": 5530, 
  "protracted": 5531, 
  "childhood": 5532, 
  "capacities": 5533, 
  "deflationary": 5534, 
  "1980s": 5535, 
  "atrocities": 5536, 
  "ex@@": 5537, 
  "classical": 5538, 
  "militia": 5539, 
  "bombings": 5540, 
  "directors": 5541, 
  "sums": 5542, 
  "outset": 5543, 
  "as@@": 5544, 
  "pillar": 5545, 
  "gasoline": 5546, 
  "Solidarity": 5547, 
  "Freedom": 5548, 
  "stages": 5549, 
  "tangible": 5550, 
  "placing": 5551, 
  "punished": 5552, 
  "maintains": 5553, 
  "admittedly": 5554, 
  "hiring": 5555, 
  "pragmatism": 5556, 
  "administrations": 5557, 
  "ing-@@": 5558, 
  "journalist": 5559, 
  "lifted": 5560, 
  "inspectors": 5561, 
  "fault": 5562, 
  "River": 5563, 
  "Senator": 5564, 
  "enhancing": 5565, 
  "rapprochement": 5566, 
  "indicator": 5567, 
  "moderation": 5568, 
  "arrival": 5569, 
  "lifetime": 5570, 
  "Corporation": 5571, 
  "Guard": 5572, 
  "technocrats": 5573, 
  "diversification": 5574, 
  "is@@": 5575, 
  "Marx": 5576, 
  "sun": 5577, 
  "witnessing": 5578, 
  "3.5": 5579, 
  "indication": 5580, 
  "Seoul": 5581, 
  "Ehud": 5582, 
  "grants": 5583, 
  "800": 5584, 
  "Hosni": 5585, 
  "receives": 5586, 
  "abortion": 5587, 
  "existential": 5588, 
  "manufacturers": 5589, 
  "comments": 5590, 
  "sentenced": 5591, 
  "prudent": 5592, 
  "languages": 5593, 
  "Shiite": 5594, 
  "Turks": 5595, 
  "club": 5596, 
  "two-state": 5597, 
  "abundant": 5598, 
  "breakthroughs": 5599, 
  "tive": 5600, 
  "quiet": 5601, 
  "gathering": 5602, 
  "indefinitely": 5603, 
  "Slovakia": 5604, 
  "bar": 5605, 
  "clients": 5606, 
  "unlimited": 5607, 
  "associations": 5608, 
  "Kashmir": 5609, 
  "treasury": 5610, 
  "contributes": 5611, 
  "liberalism": 5612, 
  "coalitions": 5613, 
  "items": 5614, 
  "frozen": 5615, 
  "Games": 5616, 
  "Xiaoping": 5617, 
  "lasted": 5618, 
  "boosted": 5619, 
  "realization": 5620, 
  "communists": 5621, 
  "automobile": 5622, 
  "et@@": 5623, 
  "slogan": 5624, 
  "post-crisis": 5625, 
  "consciousness": 5626, 
  "prosecutor": 5627, 
  "autonomous": 5628, 
  "owe": 5629, 
  "allied": 5630, 
  "futile": 5631, 
  "revolt": 5632, 
  "1.4": 5633, 
  "reassuring": 5634, 
  "gathered": 5635, 
  "page": 5636, 
  "left-wing": 5637, 
  "akin": 5638, 
  "adequately": 5639, 
  "Sinai": 5640, 
  "Croatia": 5641, 
  "industrialization": 5642, 
  "hostage": 5643, 
  "disputed": 5644, 
  "tuberculosis": 5645, 
  "implication": 5646, 
  "movie": 5647, 
  "gotten": 5648, 
  "founder": 5649, 
  "0.5": 5650, 
  "ever-@@": 5651, 
  "guidelines": 5652, 
  "worrisome": 5653, 
  "eradication": 5654, 
  "ched": 5655, 
  "pledge": 5656, 
  "bolster": 5657, 
  "clarity": 5658, 
  "floating": 5659, 
  "aged": 5660, 
  "enormously": 5661, 
  "G-7": 5662, 
  "Morales": 5663, 
  "shame": 5664, 
  "non@@": 5665, 
  "ur@@": 5666, 
  "complained": 5667, 
  "FSB": 5668, 
  "stunning": 5669, 
  "denying": 5670, 
  "Schroeder": 5671, 
  "square": 5672, 
  "ter": 5673, 
  "agendas": 5674, 
  "u": 5675, 
  "killings": 5676, 
  "frequency": 5677, 
  "brave": 5678, 
  "quarters": 5679, 
  "wasted": 5680, 
  "maximum": 5681, 
  "scores": 5682, 
  "activist": 5683, 
  "repay": 5684, 
  "expectancy": 5685, 
  "celebrate": 5686, 
  "crunch": 5687, 
  "appeals": 5688, 
  "ag@@": 5689, 
  "roll": 5690, 
  "borne": 5691, 
  "evolving": 5692, 
  "deprived": 5693, 
  "axis": 5694, 
  "watched": 5695, 
  "prompted": 5696, 
  "forged": 5697, 
  "inhabitants": 5698, 
  "greed": 5699, 
  "speeches": 5700, 
  "internally": 5701, 
  "recipient": 5702, 
  "warm": 5703, 
  "ets": 5704, 
  "trees": 5705, 
  "imprisoned": 5706, 
  "risk-taking": 5707, 
  "gra@@": 5708, 
  "tenure": 5709, 
  "rank": 5710, 
  "Bhutto": 5711, 
  "outbreak": 5712, 
  "continuity": 5713, 
  "reactor": 5714, 
  "colonialism": 5715, 
  "ambassador": 5716, 
  "gravity": 5717, 
  "interview": 5718, 
  "obliged": 5719, 
  "processing": 5720, 
  "Zhao": 5721, 
  "climate-change": 5722, 
  "Greeks": 5723, 
  "adds": 5724, 
  "locked": 5725, 
  "frustrated": 5726, 
  "malnutrition": 5727, 
  "postponed": 5728, 
  "flood": 5729, 
  "ul@@": 5730, 
  "proposing": 5731, 
  "profoundly": 5732, 
  "equitable": 5733, 
  "Liberation": 5734, 
  "quantity": 5735, 
  "mirror": 5736, 
  "chess": 5737, 
  "realizing": 5738, 
  "convicted": 5739, 
  "Cultural": 5740, 
  "Governor": 5741, 
  "prevents": 5742, 
  "exhausted": 5743, 
  "ecological": 5744, 
  "delivery": 5745, 
  "refusing": 5746, 
  "On": 5747, 
  "demonstrating": 5748, 
  "devise": 5749, 
  "z": 5750, 
  "Donald": 5751, 
  "two-@@": 5752, 
  "2008-2009": 5753, 
  "applying": 5754, 
  "oppression": 5755, 
  "SCO": 5756, 
  "anti@@": 5757, 
  "resembles": 5758, 
  "removal": 5759, 
  "silver": 5760, 
  "Tea": 5761, 
  "Research": 5762, 
  "depositors": 5763, 
  "no@@": 5764, 
  "psychiatric": 5765, 
  "Yes": 5766, 
  "super@@": 5767, 
  "orientation": 5768, 
  "bleak": 5769, 
  "highlights": 5770, 
  "seed": 5771, 
  "sustaining": 5772, 
  "mainland": 5773, 
  "Czechoslovakia": 5774, 
  "frameworks": 5775, 
  "assure": 5776, 
  "Basel": 5777, 
  "pharmaceutical": 5778, 
  "strengths": 5779, 
  "polio": 5780, 
  "genetically": 5781, 
  "consequently": 5782, 
  "relevance": 5783, 
  "resilient": 5784, 
  "unfortunate": 5785, 
  "digital": 5786, 
  "heightened": 5787, 
  "arose": 5788, 
  "armies": 5789, 
  "85": 5790, 
  "punish": 5791, 
  "rage": 5792, 
  "adversaries": 5793, 
  "Liberal": 5794, 
  "1920": 5795, 
  "suspected": 5796, 
  "triple": 5797, 
  "sensitivity": 5798, 
  "misery": 5799, 
  "color": 5800, 
  "Kuwait": 5801, 
  "murdered": 5802, 
  "fly": 5803, 
  "passage": 5804, 
  "modernity": 5805, 
  "fat": 5806, 
  "St.": 5807, 
  "organizational": 5808, 
  "tone": 5809, 
  "high-level": 5810, 
  "min@@": 5811, 
  "modernize": 5812, 
  "lest": 5813, 
  "lists": 5814, 
  "Roman": 5815, 
  "overthrow": 5816, 
  "continuous": 5817, 
  "Le": 5818, 
  "composed": 5819, 
  "composition": 5820, 
  "doctor": 5821, 
  "fluctuations": 5822, 
  "champion": 5823, 
  "domination": 5824, 
  "remedy": 5825, 
  "lobbying": 5826, 
  "literature": 5827, 
  "evolve": 5828, 
  "highlighted": 5829, 
  "resume": 5830, 
  "approve": 5831, 
  "suppress": 5832, 
  "caste": 5833, 
  "accidents": 5834, 
  "uprising": 5835, 
  "troubles": 5836, 
  "Valley": 5837, 
  "militarily": 5838, 
  "confirm": 5839, 
  "grip": 5840, 
  "irrigation": 5841, 
  "finished": 5842, 
  "judgments": 5843, 
  "paralyzed": 5844, 
  "properties": 5845, 
  "1988": 5846, 
  "council": 5847, 
  "incited": 5848, 
  "indicated": 5849, 
  "renewal": 5850, 
  "maturity": 5851, 
  "transferred": 5852, 
  "swing": 5853, 
  "title": 5854, 
  "sky": 5855, 
  "cronies": 5856, 
  "dismal": 5857, 
  "negotiators": 5858, 
  "sed": 5859, 
  "swings": 5860, 
  "state-@@": 5861, 
  "ranked": 5862, 
  "thirty": 5863, 
  "proceedings": 5864, 
  "SARS": 5865, 
  "predicament": 5866, 
  "throw": 5867, 
  "elimination": 5868, 
  "retains": 5869, 
  "Istanbul": 5870, 
  "routine": 5871, 
  "cap": 5872, 
  "in-@@": 5873, 
  "satisfied": 5874, 
  "successive": 5875, 
  "Bashar": 5876, 
  "In@@": 5877, 
  "preference": 5878, 
  "profile": 5879, 
  "rivalry": 5880, 
  "-led": 5881, 
  "cyber": 5882, 
  "mandatory": 5883, 
  "understandably": 5884, 
  "reacted": 5885, 
  "husband": 5886, 
  "prisons": 5887, 
  "resistant": 5888, 
  "heroic": 5889, 
  "dimensions": 5890, 
  "publication": 5891, 
  "criticize": 5892, 
  "populated": 5893, 
  "assessing": 5894, 
  "homeland": 5895, 
  "disorderly": 5896, 
  "valid": 5897, 
  "ratification": 5898, 
  "pretty": 5899, 
  "plot": 5900, 
  "squeeze": 5901, 
  "contact": 5902, 
  "ministry": 5903, 
  "speaks": 5904, 
  "Big": 5905, 
  "replacing": 5906, 
  "attracting": 5907, 
  "limitations": 5908, 
  "ying": 5909, 
  "1.2": 5910, 
  "Socialists": 5911, 
  "faction": 5912, 
  "evidently": 5913, 
  "appetite": 5914, 
  "papers": 5915, 
  "revised": 5916, 
  "inflicted": 5917, 
  "anchor": 5918, 
  "ur": 5919, 
  "signing": 5920, 
  "crowds": 5921, 
  "overlooked": 5922, 
  "trafficking": 5923, 
  "monarchy": 5924, 
  "rebellion": 5925, 
  "season": 5926, 
  "yourself": 5927, 
  "storms": 5928, 
  "trusted": 5929, 
  "half-@@": 5930, 
  "Davos": 5931, 
  "interpret": 5932, 
  "officer": 5933, 
  "curtail": 5934, 
  "troubling": 5935, 
  "undervalued": 5936, 
  "talked": 5937, 
  "anti-American": 5938, 
  "suppression": 5939, 
  "array": 5940, 
  "nervous": 5941, 
  "grievances": 5942, 
  "radicalism": 5943, 
  "obsolete": 5944, 
  "opponent": 5945, 
  "leveraged": 5946, 
  "spoken": 5947, 
  "reconcile": 5948, 
  "Lanka": 5949, 
  "permits": 5950, 
  "correctly": 5951, 
  "comparisons": 5952, 
  "outrage": 5953, 
  "skin": 5954, 
  "inputs": 5955, 
  "exercises": 5956, 
  "clearer": 5957, 
  "conscience": 5958, 
  "length": 5959, 
  "Vienna": 5960, 
  "Three": 5961, 
  "partially": 5962, 
  "Serb": 5963, 
  "buried": 5964, 
  "er-@@": 5965, 
  "insistence": 5966, 
  "postpone": 5967, 
  "drives": 5968, 
  "federation": 5969, 
  "studying": 5970, 
  "nightmare": 5971, 
  "Franco-German": 5972, 
  "turnout": 5973, 
  "endured": 5974, 
  "constructed": 5975, 
  "relatives": 5976, 
  "adult": 5977, 
  "anyway": 5978, 
  "handled": 5979, 
  "Affairs": 5980, 
  "deciding": 5981, 
  "persons": 5982, 
  "Second": 5983, 
  "conscious": 5984, 
  "forum": 5985, 
  "strategically": 5986, 
  "organs": 5987, 
  "With": 5988, 
  "readiness": 5989, 
  "Ortega": 5990, 
  "useless": 5991, 
  "consumed": 5992, 
  "Austrian": 5993, 
  "decentralized": 5994, 
  "5,000": 5995, 
  "accommodate": 5996, 
  "demonstration": 5997, 
  "ICC": 5998, 
  "identical": 5999, 
  "disposal": 6000, 
  "reporters": 6001, 
  "marketing": 6002, 
  "stressed": 6003, 
  "phones": 6004, 
  "voter": 6005, 
  "staggering": 6006, 
  "fatal": 6007, 
  "shortly": 6008, 
  "appointment": 6009, 
  "investigate": 6010, 
  "OSCE": 6011, 
  "Bo": 6012, 
  "farms": 6013, 
  "incite": 6014, 
  "so@@": 6015, 
  "unequal": 6016, 
  "onset": 6017, 
  "he@@": 6018, 
  "expectation": 6019, 
  "Saakashvili": 6020, 
  "quasi-@@": 6021, 
  "teach": 6022, 
  "gi@@": 6023, 
  "committing": 6024, 
  "disruption": 6025, 
  "exporter": 6026, 
  "projections": 6027, 
  "Churchill": 6028, 
  "ess": 6029, 
  "Los": 6030, 
  "frontier": 6031, 
  "abound": 6032, 
  "Islands": 6033, 
  "heritage": 6034, 
  "&apos;ve": 6035, 
  "please": 6036, 
  "`": 6037, 
  "suspicious": 6038, 
  "defenders": 6039, 
  "Ocean": 6040, 
  "empowered": 6041, 
  "Guatemala": 6042, 
  "0.7": 6043, 
  "jointly": 6044, 
  "rationale": 6045, 
  "congressional": 6046, 
  "magic": 6047, 
  "9@@": 6048, 
  "flourish": 6049, 
  "ir@@": 6050, 
  "unhappy": 6051, 
  "stalled": 6052, 
  "producer": 6053, 
  "switch": 6054, 
  "Tymoshenko": 6055, 
  "discussing": 6056, 
  "Science": 6057, 
  "communal": 6058, 
  "hearing": 6059, 
  "NAFTA": 6060, 
  "ants": 6061, 
  "owed": 6062, 
  "Alexander": 6063, 
  "video": 6064, 
  "stimulating": 6065, 
  "reversing": 6066, 
  "everyday": 6067, 
  "throwing": 6068, 
  "blessing": 6069, 
  "EU-@@": 6070, 
  "partisan": 6071, 
  "ak": 6072, 
  "leftist": 6073, 
  "handling": 6074, 
  "discount": 6075, 
  "Executive": 6076, 
  "strains": 6077, 
  "prudential": 6078, 
  "coordinate": 6079, 
  "sweeping": 6080, 
  "delicate": 6081, 
  "cal": 6082, 
  "Gerhard": 6083, 
  "racism": 6084, 
  "Nazis": 6085, 
  "cre@@": 6086, 
  "picked": 6087, 
  "verdict": 6088, 
  "compatible": 6089, 
  "unwillingness": 6090, 
  "quotas": 6091, 
  "masters": 6092, 
  "ses": 6093, 
  "port": 6094, 
  "caution": 6095, 
  "vigorous": 6096, 
  "Karzai": 6097, 
  "disagreements": 6098, 
  "heroes": 6099, 
  "ou@@": 6100, 
  "Facility": 6101, 
  "opinions": 6102, 
  "Special": 6103, 
  "eve": 6104, 
  "hardest": 6105, 
  "monopolies": 6106, 
  "violated": 6107, 
  "1,@@": 6108, 
  "sorts": 6109, 
  "articles": 6110, 
  "portfolios": 6111, 
  "counterpart": 6112, 
  "Jiabao": 6113, 
  "headquarters": 6114, 
  "timely": 6115, 
  "1985": 6116, 
  "hypocrisy": 6117, 
  "rid": 6118, 
  "François": 6119, 
  "disappearance": 6120, 
  "republics": 6121, 
  "breakup": 6122, 
  "Franklin": 6123, 
  "anxious": 6124, 
  "guilt": 6125, 
  "exact": 6126, 
  "reminded": 6127, 
  "resign": 6128, 
  "passive": 6129, 
  "screening": 6130, 
  "drew": 6131, 
  "Cuban": 6132, 
  "exclude": 6133, 
  "repercussions": 6134, 
  "plight": 6135, 
  "micro-@@": 6136, 
  "Katrina": 6137, 
  "Petersburg": 6138, 
  "o-@@": 6139, 
  "alizing": 6140, 
  "ces": 6141, 
  "notorious": 6142, 
  "printing": 6143, 
  "pockets": 6144, 
  "categories": 6145, 
  "hi@@": 6146, 
  "Balkan": 6147, 
  "leap": 6148, 
  "beneath": 6149, 
  "Michael": 6150, 
  "dangerously": 6151, 
  "infections": 6152, 
  "collect": 6153, 
  "recommended": 6154, 
  "News": 6155, 
  "tropical": 6156, 
  "outlets": 6157, 
  "dec@@": 6158, 
  "strive": 6159, 
  "Yukos": 6160, 
  "miles": 6161, 
  "zation": 6162, 
  "-and-@@": 6163, 
  "stepped": 6164, 
  "mixture": 6165, 
  "ments": 6166, 
  "HAVEN": 6167, 
  "Scotland": 6168, 
  "reviving": 6169, 
  "investigations": 6170, 
  "reminds": 6171, 
  "fishing": 6172, 
  "theme": 6173, 
  "chair": 6174, 
  "sing": 6175, 
  "remind": 6176, 
  "jeopardize": 6177, 
  "persists": 6178, 
  "tendencies": 6179, 
  "embargo": 6180, 
  "violate": 6181, 
  "cited": 6182, 
  "ideologies": 6183, 
  "thinkers": 6184, 
  "authors": 6185, 
  "ce": 6186, 
  "ed@@": 6187, 
  "lifting": 6188, 
  "Common": 6189, 
  "­-": 6190, 
  "minded": 6191, 
  "privileges": 6192, 
  "short-run": 6193, 
  "giants": 6194, 
  "cs": 6195, 
  "inward": 6196, 
  "Oxford": 6197, 
  "debated": 6198, 
  "Nice": 6199, 
  "soul": 6200, 
  "elevated": 6201, 
  "beneficiaries": 6202, 
  "native": 6203, 
  "exploitation": 6204, 
  "legislature": 6205, 
  "drought": 6206, 
  "pan-European": 6207, 
  "peg": 6208, 
  "alization": 6209, 
  "Uruguay": 6210, 
  "Non-Proliferation": 6211, 
  "250": 6212, 
  "evasion": 6213, 
  "bombers": 6214, 
  "rejecting": 6215, 
  "famine": 6216, 
  "beautiful": 6217, 
  "shareholder": 6218, 
  "proves": 6219, 
  "Milan": 6220, 
  "quantities": 6221, 
  "satisfaction": 6222, 
  "duration": 6223, 
  "Shi&apos;a": 6224, 
  "Margaret": 6225, 
  "Iceland": 6226, 
  "ru@@": 6227, 
  "obsessed": 6228, 
  "enshrined": 6229, 
  "longstanding": 6230, 
  "governors": 6231, 
  "sons": 6232, 
  "bizarre": 6233, 
  "Sharia": 6234, 
  "Resolution": 6235, 
  "exert": 6236, 
  "extremes": 6237, 
  "attached": 6238, 
  "chemistry": 6239, 
  "expansionary": 6240, 
  "anti-Semitism": 6241, 
  "evaluate": 6242, 
  "1940": 6243, 
  "regards": 6244, 
  "Project": 6245, 
  "rounds": 6246, 
  "embodied": 6247, 
  "gather": 6248, 
  "reinforcing": 6249, 
  "sequence": 6250, 
  "ignores": 6251, 
  "fronts": 6252, 
  "Beirut": 6253, 
  "lobby": 6254, 
  "brothers": 6255, 
  "desired": 6256, 
  "smoking": 6257, 
  "adviser": 6258, 
  "el@@": 6259, 
  "ICTY": 6260, 
  "stars": 6261, 
  "ranking": 6262, 
  "refrain": 6263, 
  "lawyer": 6264, 
  "professors": 6265, 
  "regulator": 6266, 
  "safeguards": 6267, 
  "RMB": 6268, 
  "Wolfowitz": 6269, 
  "mitigation": 6270, 
  "strain": 6271, 
  "inter-@@": 6272, 
  "busy": 6273, 
  "dedicated": 6274, 
  "redress": 6275, 
  "liability": 6276, 
  "walls": 6277, 
  "1929": 6278, 
  "suspended": 6279, 
  "arising": 6280, 
  "cognitive": 6281, 
  "alas": 6282, 
  "ethanol": 6283, 
  "traumatic": 6284, 
  "dividing": 6285, 
  "fled": 6286, 
  "quietly": 6287, 
  "embarked": 6288, 
  "yuan": 6289, 
  "car@@": 6290, 
  "arrive": 6291, 
  "tyranny": 6292, 
  "majorities": 6293, 
  "concerted": 6294, 
  "precautionary": 6295, 
  "comfort": 6296, 
  "drastic": 6297, 
  "patience": 6298, 
  "ha@@": 6299, 
  "elusive": 6300, 
  "Uganda": 6301, 
  "chemicals": 6302, 
  "divergence": 6303, 
  "laboratory": 6304, 
  "Civil": 6305, 
  "stemming": 6306, 
  "basically": 6307, 
  "mature": 6308, 
  "Z@@": 6309, 
  "orthodoxy": 6310, 
  "profitability": 6311, 
  "Christianity": 6312, 
  "condemn": 6313, 
  "intelligent": 6314, 
  "financial-sector": 6315, 
  "Pentagon": 6316, 
  "Panel": 6317, 
  "drain": 6318, 
  "yesterday": 6319, 
  "preceded": 6320, 
  "grassroots": 6321, 
  "optimal": 6322, 
  "formerly": 6323, 
  "mild": 6324, 
  "invisible": 6325, 
  "sh": 6326, 
  "superiority": 6327, 
  "branch": 6328, 
  "dogs": 6329, 
  "linking": 6330, 
  "slaughter": 6331, 
  "directions": 6332, 
  "tougher": 6333, 
  "accurately": 6334, 
  "ter@@": 6335, 
  "endorse": 6336, 
  "on-@@": 6337, 
  "wounded": 6338, 
  "diminishing": 6339, 
  "G8": 6340, 
  "us@@": 6341, 
  "entitlement": 6342, 
  "pandemic": 6343, 
  "privileged": 6344, 
  "pessimism": 6345, 
  "solvency": 6346, 
  "referred": 6347, 
  "proteins": 6348, 
  "diagnosed": 6349, 
  "explaining": 6350, 
  "al-Assad": 6351, 
  "CCP": 6352, 
  "Marshall": 6353, 
  "communicate": 6354, 
  "talented": 6355, 
  "blocking": 6356, 
  "convention": 6357, 
  "realism": 6358, 
  "jump": 6359, 
  "collapsing": 6360, 
  "belongs": 6361, 
  "pulled": 6362, 
  "surgery": 6363, 
  "extends": 6364, 
  "earning": 6365, 
  "golden": 6366, 
  "la@@": 6367, 
  "Persian": 6368, 
  "Texas": 6369, 
  "visions": 6370, 
  "trillions": 6371, 
  "overheating": 6372, 
  "120": 6373, 
  "surpassed": 6374, 
  "DELHI": 6375, 
  "committees": 6376, 
  "ching": 6377, 
  "insight": 6378, 
  "feedback": 6379, 
  "imprisonment": 6380, 
  "handed": 6381, 
  "defenses": 6382, 
  "fundamentalists": 6383, 
  "smoke": 6384, 
  "providers": 6385, 
  "doubtful": 6386, 
  "E": 6387, 
  "subjected": 6388, 
  "Investment": 6389, 
  "deploy": 6390, 
  "doubling": 6391, 
  "unleashed": 6392, 
  "weakens": 6393, 
  "upside": 6394, 
  "Exchange": 6395, 
  "Kofi": 6396, 
  "self-defense": 6397, 
  "virtues": 6398, 
  "Zealand": 6399, 
  "hawks": 6400, 
  "web": 6401, 
  "42": 6402, 
  "vulnerabilities": 6403, 
  "financiers": 6404, 
  "fied": 6405, 
  "pipelines": 6406, 
  "Azerbaijan": 6407, 
  "sacred": 6408, 
  "diet": 6409, 
  "emphasizing": 6410, 
  "hitting": 6411, 
  "mobilized": 6412, 
  "maritime": 6413, 
  "shattered": 6414, 
  "barrier": 6415, 
  "sur@@": 6416, 
  "capitals": 6417, 
  "intends": 6418, 
  "Mario": 6419, 
  "guess": 6420, 
  "praise": 6421, 
  "reactors": 6422, 
  "republic": 6423, 
  "Thomas": 6424, 
  "characteristic": 6425, 
  "undercut": 6426, 
  "Florida": 6427, 
  "comply": 6428, 
  "alarm": 6429, 
  "dividends": 6430, 
  "ged": 6431, 
  "Food": 6432, 
  "siege": 6433, 
  "Taiwanese": 6434, 
  "contemplate": 6435, 
  "compromises": 6436, 
  "scant": 6437, 
  "Liberia": 6438, 
  "dismantling": 6439, 
  "tra@@": 6440, 
  "Representatives": 6441, 
  "Power": 6442, 
  "ology": 6443, 
  "supervisors": 6444, 
  "identifying": 6445, 
  "1948": 6446, 
  "1986": 6447, 
  "kids": 6448, 
  "su@@": 6449, 
  "conditional": 6450, 
  "conceived": 6451, 
  "aligned": 6452, 
  "•": 6453, 
  "underscores": 6454, 
  "Democracy": 6455, 
  "ecosystems": 6456, 
  "38": 6457, 
  "birds": 6458, 
  "inertia": 6459, 
  "excluding": 6460, 
  "ble": 6461, 
  "interact": 6462, 
  "Nicaragua": 6463, 
  "critically": 6464, 
  "daughter": 6465, 
  "reformist": 6466, 
  "arsenal": 6467, 
  "empowerment": 6468, 
  "har@@": 6469, 
  "questioning": 6470, 
  "fans": 6471, 
  "Qatar": 6472, 
  "cruel": 6473, 
  "ring": 6474, 
  "suited": 6475, 
  "Enron": 6476, 
  "bailed": 6477, 
  "Pinochet": 6478, 
  "guidance": 6479, 
  "privately": 6480, 
  "sm": 6481, 
  "OPEC": 6482, 
  "Bay": 6483, 
  "stayed": 6484, 
  "debt-@@": 6485, 
  "declaring": 6486, 
  "durable": 6487, 
  "Ottoman": 6488, 
  "thin": 6489, 
  "asymmetric": 6490, 
  "denounced": 6491, 
  "cally": 6492, 
  "married": 6493, 
  "fashionable": 6494, 
  "é@@": 6495, 
  "Black": 6496, 
  "outweigh": 6497, 
  "fifty": 6498, 
  "consuming": 6499, 
  "merits": 6500, 
  "detail": 6501, 
  "location": 6502, 
  "starvation": 6503, 
  "x": 6504, 
  "ins": 6505, 
  "An@@": 6506, 
  "disappointing": 6507, 
  "ators": 6508, 
  "disappointed": 6509, 
  "Dubai": 6510, 
  "Silvio": 6511, 
  "forming": 6512, 
  "interior": 6513, 
  "advocating": 6514, 
  "pe@@": 6515, 
  "Peter": 6516, 
  "covering": 6517, 
  "stores": 6518, 
  "Nigerian": 6519, 
  "offshore": 6520, 
  "entail": 6521, 
  "proposition": 6522, 
  "fragmented": 6523, 
  "st-@@": 6524, 
  "incompetence": 6525, 
  "burned": 6526, 
  "Burmese": 6527, 
  "functional": 6528, 
  "plain": 6529, 
  "ches": 6530, 
  "offense": 6531, 
  "endangered": 6532, 
  "metaphor": 6533, 
  "os": 6534, 
  "manipulate": 6535, 
  "reminiscent": 6536, 
  "obsession": 6537, 
  "calculated": 6538, 
  "savers": 6539, 
  "trauma": 6540, 
  "eroded": 6541, 
  "Twitter": 6542, 
  "fortune": 6543, 
  "susceptible": 6544, 
  "forefront": 6545, 
  "Holland": 6546, 
  "Che": 6547, 
  "acknowledging": 6548, 
  "forgiveness": 6549, 
  "fires": 6550, 
  "compliance": 6551, 
  "Medicare": 6552, 
  "selected": 6553, 
  "colleague": 6554, 
  "boy": 6555, 
  "integral": 6556, 
  "hugely": 6557, 
  "unavoidable": 6558, 
  "emulate": 6559, 
  "loyal": 6560, 
  "harmony": 6561, 
  "collected": 6562, 
  "hole": 6563, 
  "fascism": 6564, 
  "publish": 6565, 
  "complacency": 6566, 
  "ws": 6567, 
  "warrant": 6568, 
  "mathematical": 6569, 
  "forging": 6570, 
  "trick": 6571, 
  "multi@@": 6572, 
  "contempt": 6573, 
  "administered": 6574, 
  "Ministers": 6575, 
  "demonstrators": 6576, 
  "jurisdiction": 6577, 
  "countryside": 6578, 
  "severity": 6579, 
  "practiced": 6580, 
  "self-determination": 6581, 
  "agrees": 6582, 
  "anymore": 6583, 
  "mismanagement": 6584, 
  "disruptive": 6585, 
  "livelihoods": 6586, 
  "high-income": 6587, 
  "steep": 6588, 
  "nutrition": 6589, 
  "ently": 6590, 
  "rebel": 6591, 
  "ved": 6592, 
  "notions": 6593, 
  "undertaking": 6594, 
  "dependency": 6595, 
  "combining": 6596, 
  "judging": 6597, 
  "automobiles": 6598, 
  "Wahhabi": 6599, 
  "ne@@": 6600, 
  "conversation": 6601, 
  "intervening": 6602, 
  "stops": 6603, 
  "neo-@@": 6604, 
  "NGO": 6605, 
  "inefficiency": 6606, 
  "exceptionally": 6607, 
  "Yale": 6608, 
  "unchanged": 6609, 
  "turbulence": 6610, 
  "mon@@": 6611, 
  "transitional": 6612, 
  "ethos": 6613, 
  "peer": 6614, 
  "Kerry": 6615, 
  "revealing": 6616, 
  "occasions": 6617, 
  "3,000": 6618, 
  "reckoning": 6619, 
  "comprise": 6620, 
  "infant": 6621, 
  "invention": 6622, 
  "deteriorating": 6623, 
  "ceasefire": 6624, 
  "illustrates": 6625, 
  "Romanian": 6626, 
  "notes": 6627, 
  "narrowly": 6628, 
  "predominantly": 6629, 
  "Darwin": 6630, 
  "Kissinger": 6631, 
  "95": 6632, 
  "High": 6633, 
  "mathematics": 6634, 
  "To": 6635, 
  "embracing": 6636, 
  "suppressed": 6637, 
  "fearful": 6638, 
  "tackling": 6639, 
  "participated": 6640, 
  "ic@@": 6641, 
  "collection": 6642, 
  "nation-state": 6643, 
  "Asia-Pacific": 6644, 
  "ars": 6645, 
  "infamous": 6646, 
  "premier": 6647, 
  "insiders": 6648, 
  "slump": 6649, 
  "Sadat": 6650, 
  "curse": 6651, 
  "visits": 6652, 
  "trajectory": 6653, 
  "interconnected": 6654, 
  "centered": 6655, 
  "tighter": 6656, 
  "fortunes": 6657, 
  "pledges": 6658, 
  "synthetic": 6659, 
  "atomic": 6660, 
  "containing": 6661, 
  "proving": 6662, 
  "irreversible": 6663, 
  "particles": 6664, 
  "naïve": 6665, 
  "coffee": 6666, 
  "Stanford": 6667, 
  "You": 6668, 
  "modified": 6669, 
  "imposes": 6670, 
  "modernizing": 6671, 
  "regulating": 6672, 
  "Lithuania": 6673, 
  "opt": 6674, 
  "whoever": 6675, 
  "ks": 6676, 
  "highlight": 6677, 
  "stone": 6678, 
  "&apos;@@": 6679, 
  "pages": 6680, 
  "em@@": 6681, 
  "conducive": 6682, 
  "Continent": 6683, 
  "stopping": 6684, 
  "convenient": 6685, 
  "Salvador": 6686, 
  "defines": 6687, 
  "apes": 6688, 
  "delegation": 6689, 
  "quantum": 6690, 
  "searching": 6691, 
  "Munich": 6692, 
  "fostering": 6693, 
  "preserved": 6694, 
  "hierarchy": 6695, 
  "pulling": 6696, 
  "1933": 6697, 
  "back@@": 6698, 
  "historian": 6699, 
  "slight": 6700, 
  "anti-Americanism": 6701, 
  "drama": 6702, 
  "ball": 6703, 
  "affluent": 6704, 
  "classified": 6705, 
  "contradiction": 6706, 
  "Prince": 6707, 
  "advancing": 6708, 
  "lowered": 6709, 
  "amid": 6710, 
  "Ahmedinejad": 6711, 
  "prescription": 6712, 
  "viewing": 6713, 
  "meat": 6714, 
  "select": 6715, 
  "stature": 6716, 
  "questionable": 6717, 
  "Academy": 6718, 
  "supreme": 6719, 
  "diagnostic": 6720, 
  "jailed": 6721, 
  "super-@@": 6722, 
  "peso": 6723, 
  "refer": 6724, 
  "conservatism": 6725, 
  "impasse": 6726, 
  "respective": 6727, 
  "alize": 6728, 
  "corporation": 6729, 
  "church": 6730, 
  "compromised": 6731, 
  "averaged": 6732, 
  "arrogance": 6733, 
  "At": 6734, 
  "simplistic": 6735, 
  "assertive": 6736, 
  "competent": 6737, 
  "discretionary": 6738, 
  "margins": 6739, 
  "responsive": 6740, 
  "influences": 6741, 
  "integrating": 6742, 
  "Al@@": 6743, 
  "ob@@": 6744, 
  "consultation": 6745, 
  "alists": 6746, 
  "banker": 6747, 
  "cry": 6748, 
  "withdrawing": 6749, 
  "ard": 6750, 
  "varied": 6751, 
  "agreeing": 6752, 
  "geographical": 6753, 
  "debtors": 6754, 
  "documented": 6755, 
  "Einstein": 6756, 
  "Ch@@": 6757, 
  "ie": 6758, 
  "protections": 6759, 
  "seldom": 6760, 
  "manipulated": 6761, 
  "agent": 6762, 
  "pleasure": 6763, 
  "execution": 6764, 
  "Mbeki": 6765, 
  "escalating": 6766, 
  "prudence": 6767, 
  "treason": 6768, 
  "outlays": 6769, 
  "enlarged": 6770, 
  "ing@@": 6771, 
  "bloodshed": 6772, 
  "decreased": 6773, 
  "GM": 6774, 
  "tie": 6775, 
  "conventions": 6776, 
  "shocked": 6777, 
  "1978": 6778, 
  "blocks": 6779, 
  "fulfilled": 6780, 
  "José": 6781, 
  "social-welfare": 6782, 
  "enact": 6783, 
  "suppliers": 6784, 
  "wi@@": 6785, 
  "Atomic": 6786, 
  "ride": 6787, 
  "government-@@": 6788, 
  "mobilization": 6789, 
  "drivers": 6790, 
  "selective": 6791, 
  "out-@@": 6792, 
  "attractiveness": 6793, 
  "banning": 6794, 
  "lucky": 6795, 
  "promotes": 6796, 
  "discretion": 6797, 
  "mount": 6798, 
  "sub-@@": 6799, 
  "Soviets": 6800, 
  "cheating": 6801, 
  "assessments": 6802, 
  "Dmitri": 6803, 
  "hike": 6804, 
  "Rio": 6805, 
  "possession": 6806, 
  "scare": 6807, 
  "reaches": 6808, 
  "ESDP": 6809, 
  "Americas": 6810, 
  "districts": 6811, 
  "re": 6812, 
  "successors": 6813, 
  "disagreement": 6814, 
  "oldest": 6815, 
  "illegitimate": 6816, 
  "Muhammad": 6817, 
  "cap-and-trade": 6818, 
  "owner": 6819, 
  "19th": 6820, 
  "invitation": 6821, 
  "Tahrir": 6822, 
  "penalties": 6823, 
  "Muammar": 6824, 
  "independently": 6825, 
  "unintended": 6826, 
  "Mumbai": 6827, 
  "1956": 6828, 
  "patriotism": 6829, 
  "lifestyle": 6830, 
  "ov": 6831, 
  "prevalence": 6832, 
  "retaliation": 6833, 
  "self": 6834, 
  "rogue": 6835, 
  "attribute": 6836, 
  "qualify": 6837, 
  "girl": 6838, 
  "volumes": 6839, 
  "Monti": 6840, 
  "33": 6841, 
  "structured": 6842, 
  "parallels": 6843, 
  "separated": 6844, 
  "insights": 6845, 
  "Leone": 6846, 
  "rendered": 6847, 
  "height": 6848, 
  "sk@@": 6849, 
  "short-lived": 6850, 
  "motor": 6851, 
  "glut": 6852, 
  "liberalizing": 6853, 
  "safely": 6854, 
  "privilege": 6855, 
  "peasant": 6856, 
  "restricting": 6857, 
  "junta": 6858, 
  "revenge": 6859, 
  "monitored": 6860, 
  "exploiting": 6861, 
  "neo-liberal": 6862, 
  "Manuel": 6863, 
  "charisma": 6864, 
  "rumors": 6865, 
  "underpinned": 6866, 
  "tu@@": 6867, 
  "shops": 6868, 
  "converted": 6869, 
  "branches": 6870, 
  "convert": 6871, 
  "chaotic": 6872, 
  "37": 6873, 
  "fragmentation": 6874, 
  "Mechanism": 6875, 
  "fruits": 6876, 
  "withstand": 6877, 
  "Palin": 6878, 
  "objects": 6879, 
  "Milton": 6880, 
  "visiting": 6881, 
  "analyses": 6882, 
  "quota": 6883, 
  "looms": 6884, 
  "realm": 6885, 
  "broker": 6886, 
  "bipolar": 6887, 
  "preferable": 6888, 
  "consolidated": 6889, 
  "°": 6890, 
  "fits": 6891, 
  "confirms": 6892, 
  "pieces": 6893, 
  "Standard": 6894, 
  "Tibetans": 6895, 
  "testimony": 6896, 
  "conferences": 6897, 
  "remedies": 6898, 
  "backward": 6899, 
  "ensuing": 6900, 
  "posts": 6901, 
  "impending": 6902, 
  "Do": 6903, 
  "enjoying": 6904, 
  "divert": 6905, 
  "insolvency": 6906, 
  "survivors": 6907, 
  "adapted": 6908, 
  "fantasy": 6909, 
  "&apos;m": 6910, 
  "ents": 6911, 
  "ical": 6912, 
  "populists": 6913, 
  "grid": 6914, 
  "36": 6915, 
  "accusations": 6916, 
  "perverse": 6917, 
  "row": 6918, 
  "endemic": 6919, 
  "linguistic": 6920, 
  "wanting": 6921, 
  "molecular": 6922, 
  "portrayed": 6923, 
  "abstract": 6924, 
  "non-state": 6925, 
  "print": 6926, 
  "conflicting": 6927, 
  "Sierra": 6928, 
  "anytime": 6929, 
  "residential": 6930, 
  "Anwar": 6931, 
  "troop": 6932, 
  "illiquid": 6933, 
  "imperatives": 6934, 
  "NTC": 6935, 
  "Albania": 6936, 
  "fearing": 6937, 
  "dry": 6938, 
  "brother": 6939, 
  "ten@@": 6940, 
  "exceeded": 6941, 
  "cliff": 6942, 
  "listed": 6943, 
  "hosts": 6944, 
  "journey": 6945, 
  "That": 6946, 
  "bro@@": 6947, 
  "proceeds": 6948, 
  "constraint": 6949, 
  "Sudanese": 6950, 
  "authorized": 6951, 
  "maintenance": 6952, 
  "decides": 6953, 
  "marketplace": 6954, 
  "Mexicans": 6955, 
  "careers": 6956, 
  "retired": 6957, 
  "appoint": 6958, 
  "Left": 6959, 
  "expelled": 6960, 
  "resurgence": 6961, 
  "handful": 6962, 
  "executed": 6963, 
  "compact": 6964, 
  "utility": 6965, 
  "celebrated": 6966, 
  "soldier": 6967, 
  "Colombian": 6968, 
  "journalism": 6969, 
  "inspiration": 6970, 
  "ven@@": 6971, 
  "um@@": 6972, 
  "fascist": 6973, 
  "nostalgia": 6974, 
  "bridges": 6975, 
  "Pen": 6976, 
  "compelled": 6977, 
  "clashes": 6978, 
  "verge": 6979, 
  "remarks": 6980, 
  "Adam": 6981, 
  "racist": 6982, 
  "desert": 6983, 
  "Li@@": 6984, 
  "first-@@": 6985, 
  "prohibition": 6986, 
  "deterrent": 6987, 
  "interpretations": 6988, 
  "registered": 6989, 
  "telecommunications": 6990, 
  "gar@@": 6991, 
  "assertion": 6992, 
  "matched": 6993, 
  "requests": 6994, 
  "brains": 6995, 
  "Anglo-Saxon": 6996, 
  "scenes": 6997, 
  "resisting": 6998, 
  "powerless": 6999, 
  "opaque": 7000, 
  "phenomena": 7001, 
  "30,000": 7002, 
  "flag": 7003, 
  "bent": 7004, 
  "liable": 7005, 
  "alienated": 7006, 
  "divisive": 7007, 
  "foot": 7008, 
  "burdened": 7009, 
  "manageable": 7010, 
  "expenses": 7011, 
  "dose": 7012, 
  "ballistic": 7013, 
  "U@@": 7014, 
  "aggravated": 7015, 
  "incompetent": 7016, 
  "Economics": 7017, 
  "Tel": 7018, 
  "trivial": 7019, 
  "benchmark": 7020, 
  "stream": 7021, 
  "adhere": 7022, 
  "absorbed": 7023, 
  "equation": 7024, 
  "withdrawn": 7025, 
  "triggering": 7026, 
  "salary": 7027, 
  "cool": 7028, 
  "St@@": 7029, 
  "priced": 7030, 
  "55": 7031, 
  "wounds": 7032, 
  "mistrust": 7033, 
  "mu@@": 7034, 
  "shaky": 7035, 
  "describes": 7036, 
  "ver@@": 7037, 
  "urging": 7038, 
  "bipartisan": 7039, 
  "hopeful": 7040, 
  "dubbed": 7041, 
  "premiums": 7042, 
  "intractable": 7043, 
  "answered": 7044, 
  "wholesale": 7045, 
  "warn": 7046, 
  "rebound": 7047, 
  "reassure": 7048, 
  "motivation": 7049, 
  "Action": 7050, 
  "tribes": 7051, 
  "one-party": 7052, 
  "Hollywood": 7053, 
  "calamity": 7054, 
  "diabetes": 7055, 
  "interfere": 7056, 
  "repayment": 7057, 
  "three-@@": 7058, 
  "fulfilling": 7059, 
  "qualities": 7060, 
  "description": 7061, 
  "embassy": 7062, 
  "graduate": 7063, 
  "examination": 7064, 
  "obscure": 7065, 
  "battlefield": 7066, 
  "engineered": 7067, 
  "discoveries": 7068, 
  "extract": 7069, 
  "rewarded": 7070, 
  "enjoys": 7071, 
  "Par@@": 7072, 
  "center-right": 7073, 
  "eggs": 7074, 
  "ill-@@": 7075, 
  "unwanted": 7076, 
  "questioned": 7077, 
  "lights": 7078, 
  "ists": 7079, 
  "compounded": 7080, 
  "commander": 7081, 
  "brutality": 7082, 
  "Old": 7083, 
  "overvalued": 7084, 
  "uneven": 7085, 
  "mayor": 7086, 
  "devised": 7087, 
  "instances": 7088, 
  "conducting": 7089, 
  "Krugman": 7090, 
  "explore": 7091, 
  "me@@": 7092, 
  "publishing": 7093, 
  "32": 7094, 
  "allegations": 7095, 
  "compassion": 7096, 
  "wh@@": 7097, 
  "higher-@@": 7098, 
  "lobbies": 7099, 
  "fiction": 7100, 
  "tolerant": 7101, 
  "freer": 7102, 
  "transmitted": 7103, 
  "ah": 7104, 
  "ugly": 7105, 
  "ed-@@": 7106, 
  "tainted": 7107, 
  "iled": 7108, 
  "royal": 7109, 
  "sluggish": 7110, 
  "ging": 7111, 
  "deadlock": 7112, 
  "designing": 7113, 
  "clubs": 7114, 
  "clever": 7115, 
  "Barroso": 7116, 
  "bright": 7117, 
  "possesses": 7118, 
  "44": 7119, 
  "allocate": 7120, 
  "der@@": 7121, 
  "combatants": 7122, 
  "sleep": 7123, 
  "equals": 7124, 
  "1975": 7125, 
  "alleviate": 7126, 
  "stolen": 7127, 
  "opium": 7128, 
  "detainees": 7129, 
  "intact": 7130, 
  "nonsense": 7131, 
  "analogous": 7132, 
  "thoroughly": 7133, 
  "greenhouse-gas": 7134, 
  "empower": 7135, 
  "spill": 7136, 
  "pl@@": 7137, 
  "Geithner": 7138, 
  "herself": 7139, 
  "disadvantage": 7140, 
  "well-known": 7141, 
  "Zedong": 7142, 
  "recipients": 7143, 
  "widen": 7144, 
  "Kyi": 7145, 
  "proposes": 7146, 
  "stakeholders": 7147, 
  "transferring": 7148, 
  "horse": 7149, 
  "yielded": 7150, 
  "Suu": 7151, 
  "oil-rich": 7152, 
  "magazine": 7153, 
  "soar": 7154, 
  "overcoming": 7155, 
  "thoughts": 7156, 
  "brilliant": 7157, 
  "shocking": 7158, 
  "Westerners": 7159, 
  "immunity": 7160, 
  "Afghans": 7161, 
  "champions": 7162, 
  "drove": 7163, 
  "mentality": 7164, 
  "awarded": 7165, 
  "Vatican": 7166, 
  "cumulative": 7167, 
  "WikiLeaks": 7168, 
  "public-health": 7169, 
  "compulsory": 7170, 
  "criterion": 7171, 
  "disclosure": 7172, 
  "prevails": 7173, 
  "conception": 7174, 
  "thrive": 7175, 
  "Martin": 7176, 
  "advent": 7177, 
  "descent": 7178, 
  "dominates": 7179, 
  "artists": 7180, 
  "1974": 7181, 
  "pen@@": 7182, 
  "drops": 7183, 
  "eradicate": 7184, 
  "variant": 7185, 
  "flying": 7186, 
  "speaker": 7187, 
  "dog": 7188, 
  "Khomeini": 7189, 
  "1.6": 7190, 
  "micro@@": 7191, 
  "ders": 7192, 
  "Buddhist": 7193, 
  "Ghraib": 7194, 
  "war@@": 7195, 
  "isolate": 7196, 
  "paramount": 7197, 
  "hybrid": 7198, 
  "af@@": 7199, 
  "longevity": 7200, 
  "occupy": 7201, 
  "1914": 7202, 
  "tempting": 7203, 
  "equities": 7204, 
  "shore": 7205, 
  "variations": 7206, 
  "Iron": 7207, 
  "slack": 7208, 
  "Market": 7209, 
  "Mitterrand": 7210, 
  "goodwill": 7211, 
  "preoccupied": 7212, 
  "entertainment": 7213, 
  "rocket": 7214, 
  "bureaucracies": 7215, 
  "Reinhart": 7216, 
  "barred": 7217, 
  "films": 7218, 
  "swaps": 7219, 
  "attended": 7220, 
  "indebtedness": 7221, 
  "contentious": 7222, 
  "ically": 7223, 
  "par": 7224, 
  "traveled": 7225, 
  "Costa": 7226, 
  "fathers": 7227, 
  "deepest": 7228, 
  "inappropriate": 7229, 
  "recapitalization": 7230, 
  "mergers": 7231, 
  "organic": 7232, 
  "behavioral": 7233, 
  "facilitating": 7234, 
  "replied": 7235, 
  "bio@@": 7236, 
  "III": 7237, 
  "her@@": 7238, 
  "sting": 7239, 
  "Scandinavian": 7240, 
  "Mahathir": 7241, 
  "ambiguity": 7242, 
  "merger": 7243, 
  "physicians": 7244, 
  "specified": 7245, 
  "amounted": 7246, 
  "mobilizing": 7247, 
  "hyper-@@": 7248, 
  "ta@@": 7249, 
  "gu@@": 7250, 
  "inclined": 7251, 
  "Silicon": 7252, 
  "-style": 7253, 
  "inflated": 7254, 
  "deficiencies": 7255, 
  "Hamilton": 7256, 
  "Society": 7257, 
  "addiction": 7258, 
  "commanders": 7259, 
  "beating": 7260, 
  "uniform": 7261, 
  "17@@": 7262, 
  "traits": 7263, 
  "charismatic": 7264, 
  "exercised": 7265, 
  "victories": 7266, 
  "accepts": 7267, 
  "literacy": 7268, 
  "corn": 7269, 
  "Tehran": 7270, 
  "corresponding": 7271, 
  "reproductive": 7272, 
  "much-needed": 7273, 
  "workplace": 7274, 
  "rents": 7275, 
  "yielding": 7276, 
  "reap": 7277, 
  "old-fashioned": 7278, 
  "three-quarters": 7279, 
  "ving": 7280, 
  "individually": 7281, 
  "newcomers": 7282, 
  "coordinating": 7283, 
  "operated": 7284, 
  "describing": 7285, 
  "taste": 7286, 
  "cocaine": 7287, 
  "voluntarily": 7288, 
  "distributional": 7289, 
  "Prodi": 7290, 
  "device": 7291, 
  "gamble": 7292, 
  "humiliating": 7293, 
  "award": 7294, 
  "autocracy": 7295, 
  "hiding": 7296, 
  "airport": 7297, 
  "gh@@": 7298, 
  "cease": 7299, 
  "-related": 7300, 
  "mankind": 7301, 
  "Bin": 7302, 
  "supportive": 7303, 
  "ges": 7304, 
  "proponents": 7305, 
  "varying": 7306, 
  "arm": 7307, 
  "invading": 7308, 
  "condemnation": 7309, 
  "pretend": 7310, 
  "refinancing": 7311, 
  "underscored": 7312, 
  "Mar@@": 7313, 
  "47": 7314, 
  "suggestion": 7315, 
  "leisure": 7316, 
  "self-fulfilling": 7317, 
  "g": 7318, 
  "disposable": 7319, 
  "pri@@": 7320, 
  "maternal": 7321, 
  "extinction": 7322, 
  "summits": 7323, 
  "dare": 7324, 
  "nationality": 7325, 
  "flooding": 7326, 
  "bribes": 7327, 
  "frame": 7328, 
  "lets": 7329, 
  "ensured": 7330, 
  "WHO": 7331, 
  "stroke": 7332, 
  "wearing": 7333, 
  "predicting": 7334, 
  "bloated": 7335, 
  "tank": 7336, 
  "CIA": 7337, 
  "sovereigns": 7338, 
  "strained": 7339, 
  "imposition": 7340, 
  "2.3": 7341, 
  "chooses": 7342, 
  "score": 7343, 
  "varieties": 7344, 
  "centrist": 7345, 
  "w": 7346, 
  "curtailing": 7347, 
  "foolish": 7348, 
  "plagued": 7349, 
  "20@@": 7350, 
  "tion@@": 7351, 
  "rivers": 7352, 
  "operates": 7353, 
  "1971": 7354, 
  "rockets": 7355, 
  "fication": 7356, 
  "devastation": 7357, 
  "separatist": 7358, 
  "wishful": 7359, 
  "cancers": 7360, 
  "comment": 7361, 
  "-year": 7362, 
  "clo@@": 7363, 
  "parasites": 7364, 
  "consecutive": 7365, 
  "Belgrade": 7366, 
  "havoc": 7367, 
  "­@@": 7368, 
  "arts": 7369, 
  "all-@@": 7370, 
  "subsidiaries": 7371, 
  "correlation": 7372, 
  "organ": 7373, 
  "Facebook": 7374, 
  "systemically": 7375, 
  "moon": 7376, 
  "bets": 7377, 
  "passes": 7378, 
  "broadcast": 7379, 
  "sl@@": 7380, 
  "schooling": 7381, 
  "Mitt": 7382, 
  "dissident": 7383, 
  "hardship": 7384, 
  "underestimated": 7385, 
  "du@@": 7386, 
  "protective": 7387, 
  "Year": 7388, 
  "build-up": 7389, 
  "strife": 7390, 
  "departments": 7391, 
  "Delhi": 7392, 
  "experimental": 7393, 
  "upheaval": 7394, 
  "Islamabad": 7395, 
  "zero-sum": 7396, 
  "assurances": 7397, 
  "res": 7398, 
  "tighten": 7399, 
  "pause": 7400, 
  "examined": 7401, 
  "Budget": 7402, 
  "underestimate": 7403, 
  "wear": 7404, 
  "ruthless": 7405, 
  "expressing": 7406, 
  "How": 7407, 
  "erode": 7408, 
  "ethnicity": 7409, 
  "pronounced": 7410, 
  "ass@@": 7411, 
  "financial-market": 7412, 
  "supremacy": 7413, 
  "prefers": 7414, 
  "firing": 7415, 
  "versa": 7416, 
  "Two": 7417, 
  "designated": 7418, 
  "movies": 7419, 
  "retained": 7420, 
  "talents": 7421, 
  "incidence": 7422, 
  "SWFs": 7423, 
  "undergoing": 7424, 
  "bus": 7425, 
  "curious": 7426, 
  "meets": 7427, 
  "Indonesian": 7428, 
  "rewarding": 7429, 
  "cotton": 7430, 
  "string": 7431, 
  "countercyclical": 7432, 
  "opted": 7433, 
  "rock": 7434, 
  "nurture": 7435, 
  "grossly": 7436, 
  "exploration": 7437, 
  "subtle": 7438, 
  "horrors": 7439, 
  "migrant": 7440, 
  "originated": 7441, 
  "portray": 7442, 
  "Likud": 7443, 
  "restructure": 7444, 
  "lag": 7445, 
  "taxpayer": 7446, 
  "mode": 7447, 
  "ambiguous": 7448, 
  "advised": 7449, 
  "murderous": 7450, 
  "ely": 7451, 
  "initiate": 7452, 
  "implicitly": 7453, 
  "Golan": 7454, 
  "median": 7455, 
  "bar@@": 7456, 
  "fusion": 7457, 
  "shing": 7458, 
  "vaccine": 7459, 
  "IT": 7460, 
  "peninsula": 7461, 
  "eating": 7462, 
  "uphold": 7463, 
  "anxieties": 7464, 
  "wings": 7465, 
  "William": 7466, 
  "Dominique": 7467, 
  "tortured": 7468, 
  "motive": 7469, 
  "heed": 7470, 
  "T": 7471, 
  "rigorous": 7472, 
  "recovering": 7473, 
  "domain": 7474, 
  "collapses": 7475, 
  "Karl": 7476, 
  "umbrella": 7477, 
  "competence": 7478, 
  "Singh": 7479, 
  "recruit": 7480, 
  "polling": 7481, 
  "quot": 7482, 
  "proxy": 7483, 
  "fo@@": 7484, 
  "coercive": 7485, 
  "5-@@": 7486, 
  "peril": 7487, 
  "guaranteeing": 7488, 
  "ills": 7489, 
  "odd": 7490, 
  "proclaim": 7491, 
  "ignorant": 7492, 
  "cushion": 7493, 
  "leprosy": 7494, 
  "balance-sheet": 7495, 
  "predictably": 7496, 
  "premise": 7497, 
  "monks": 7498, 
  "constitutions": 7499, 
  "relation": 7500, 
  "meager": 7501, 
  "undemocratic": 7502, 
  "1947": 7503, 
  "marine": 7504, 
  "Slobodan": 7505, 
  "unfettered": 7506, 
  "ratify": 7507, 
  "Uzbekistan": 7508, 
  "lows": 7509, 
  "exceeding": 7510, 
  "fallout": 7511, 
  "viability": 7512, 
  "low-wage": 7513, 
  "Bali": 7514, 
  "protein": 7515, 
  "meters": 7516, 
  "ap@@": 7517, 
  "nearby": 7518, 
  "themes": 7519, 
  "transit": 7520, 
  "20,000": 7521, 
  "friendship": 7522, 
  "Is": 7523, 
  "specialized": 7524, 
  "energy-@@": 7525, 
  "campaigning": 7526, 
  "theorists": 7527, 
  "dirty": 7528, 
  "ful": 7529, 
  "Poor": 7530, 
  "horrific": 7531, 
  "confronts": 7532, 
  "tor": 7533, 
  "Canadian": 7534, 
  "mine": 7535, 
  "inf@@": 7536, 
  "coups": 7537, 
  "Niger": 7538, 
  "anticipate": 7539, 
  "post-Cold": 7540, 
  "calculation": 7541, 
  "unconditional": 7542, 
  "announce": 7543, 
  "prohibited": 7544, 
  "nuclear-armed": 7545, 
  "divorce": 7546, 
  "Strauss-Kahn": 7547, 
  "provocative": 7548, 
  "Why": 7549, 
  "enthusiastic": 7550, 
  "eligible": 7551, 
  "contend": 7552, 
  "Dalai": 7553, 
  "taboo": 7554, 
  "anonymous": 7555, 
  "gift": 7556, 
  "grab": 7557, 
  "observer": 7558, 
  "positioned": 7559, 
  "shield": 7560, 
  "oppressive": 7561, 
  "contingent": 7562, 
  "tip": 7563, 
  "astonishing": 7564, 
  "joke": 7565, 
  "submitted": 7566, 
  "50,000": 7567, 
  "deeds": 7568, 
  "Volcker": 7569, 
  "cement": 7570, 
  "rail": 7571, 
  "vanished": 7572, 
  "footing": 7573, 
  "four-@@": 7574, 
  "Draghi": 7575, 
  "coercion": 7576, 
  "ry": 7577, 
  "paths": 7578, 
  "Commissioner": 7579, 
  "hoc": 7580, 
  "technically": 7581, 
  "convertibility": 7582, 
  "1972": 7583, 
  "variation": 7584, 
  "worlds": 7585, 
  "4.5": 7586, 
  "owes": 7587, 
  "intensified": 7588, 
  "privatized": 7589, 
  "Damascus": 7590, 
  "ensures": 7591, 
  "reinforces": 7592, 
  "1970s": 7593, 
  "devote": 7594, 
  "crossed": 7595, 
  "coincidence": 7596, 
  "codes": 7597, 
  "unskilled": 7598, 
  "Angeles": 7599, 
  "dates": 7600, 
  "squandered": 7601, 
  "translated": 7602, 
  "They": 7603, 
  "undeniable": 7604, 
  "resumption": 7605, 
  "facilitated": 7606, 
  "untenable": 7607, 
  "secrecy": 7608, 
  "reign": 7609, 
  "ingredients": 7610, 
  "disappointment": 7611, 
  "ideally": 7612, 
  "7-@@": 7613, 
  "inspections": 7614, 
  "loved": 7615, 
  "mid-1990": 7616, 
  "complementary": 7617, 
  "slide": 7618, 
  "Economist": 7619, 
  "hydrogen": 7620, 
  "h": 7621, 
  "comparing": 7622, 
  "downturns": 7623, 
  "gesture": 7624, 
  "hard-@@": 7625, 
  "re-elected": 7626, 
  "oceans": 7627, 
  "simultaneous": 7628, 
  "much-@@": 7629, 
  "Eurobonds": 7630, 
  "-like": 7631, 
  "rated": 7632, 
  "lots": 7633, 
  "diversify": 7634, 
  "injury": 7635, 
  "politicized": 7636, 
  "farther": 7637, 
  "delaying": 7638, 
  "Lukashenko": 7639, 
  "Su@@": 7640, 
  "fixing": 7641, 
  "ber@@": 7642, 
  "bri@@": 7643, 
  "Recep": 7644, 
  "mor@@": 7645, 
  "depended": 7646, 
  "headline": 7647, 
  "aspire": 7648, 
  "Tayyip": 7649, 
  "twelve": 7650, 
  "subsidize": 7651, 
  "predatory": 7652, 
  "blueprint": 7653, 
  "work@@": 7654, 
  "posing": 7655, 
  "nomination": 7656, 
  "valued": 7657, 
  "mines": 7658, 
  "advocacy": 7659, 
  "signaled": 7660, 
  "indicted": 7661, 
  "retrenchment": 7662, 
  "1949": 7663, 
  "locations": 7664, 
  "crowded": 7665, 
  "toppled": 7666, 
  "powered": 7667, 
  "prosecuted": 7668, 
  "capitalists": 7669, 
  "healthier": 7670, 
  "Five-Year": 7671, 
  "couples": 7672, 
  "gangs": 7673, 
  "insured": 7674, 
  "Nepal": 7675, 
  "SDRs": 7676, 
  "succumb": 7677, 
  "constituents": 7678, 
  "guerrillas": 7679, 
  "feminism": 7680, 
  "notoriously": 7681, 
  "CEOs": 7682, 
  "friction": 7683, 
  "constrain": 7684, 
  "Com@@": 7685, 
  "load": 7686, 
  "forecasting": 7687, 
  "Deputy": 7688, 
  "jurisdictions": 7689, 
  "mountains": 7690, 
  "worsened": 7691, 
  "accomplishments": 7692, 
  "0.1": 7693, 
  "le-@@": 7694, 
  "plummeted": 7695, 
  "Jean-Claude": 7696, 
  "suspicions": 7697, 
  "starters": 7698, 
  "intensify": 7699, 
  "Fannie": 7700, 
  "Lama": 7701, 
  "abrupt": 7702, 
  "ward": 7703, 
  "ostensibly": 7704, 
  "holy": 7705, 
  "persistence": 7706, 
  "cartels": 7707, 
  "relieve": 7708, 
  "forbidden": 7709, 
  "US-China": 7710, 
  "Bosnian": 7711, 
  "guiding": 7712, 
  "ten-year": 7713, 
  "locally": 7714, 
  "primacy": 7715, 
  "tly": 7716, 
  "bacteria": 7717, 
  "telephone": 7718, 
  "readers": 7719, 
  "sparked": 7720, 
  "rejects": 7721, 
  "cra@@": 7722, 
  "invoked": 7723, 
  "proportions": 7724, 
  "comprises": 7725, 
  "anybody": 7726, 
  "detect": 7727, 
  "For@@": 7728, 
  "morning": 7729, 
  "confusing": 7730, 
  "peacekeepers": 7731, 
  "boycott": 7732, 
  "DDT": 7733, 
  "employing": 7734, 
  "comprehend": 7735, 
  "counter@@": 7736, 
  "double-dip": 7737, 
  "blue": 7738, 
  "stricter": 7739, 
  "counted": 7740, 
  "patriotic": 7741, 
  "haven": 7742, 
  "arrogant": 7743, 
  "clause": 7744, 
  "cheaply": 7745, 
  "cross-@@": 7746, 
  "quarter-century": 7747, 
  "post-communist": 7748, 
  "session": 7749, 
  "es-@@": 7750, 
  "2100": 7751, 
  "supplied": 7752, 
  "align": 7753, 
  "aries": 7754, 
  "da@@": 7755, 
  "partition": 7756, 
  "down@@": 7757, 
  "disrupt": 7758, 
  "revision": 7759, 
  "abide": 7760, 
  "attain": 7761, 
  "PA": 7762, 
  "massively": 7763, 
  "ent@@": 7764, 
  "disruptions": 7765, 
  "constituted": 7766, 
  "tech": 7767, 
  "broaden": 7768, 
  "artificially": 7769, 
  "multiculturalism": 7770, 
  "Enlightenment": 7771, 
  "Italians": 7772, 
  "polarization": 7773, 
  "persecution": 7774, 
  "engineer": 7775, 
  "devastated": 7776, 
  "evaluation": 7777, 
  "Journal": 7778, 
  "outlined": 7779, 
  "maximize": 7780, 
  "vers": 7781, 
  "euphoria": 7782, 
  "strengthens": 7783, 
  "illusions": 7784, 
  "succeeds": 7785, 
  "Review": 7786, 
  "distort": 7787, 
  "Orleans": 7788, 
  "contested": 7789, 
  "deepened": 7790, 
  "1931": 7791, 
  "plane": 7792, 
  "uneasy": 7793, 
  "similarities": 7794, 
  "ironic": 7795, 
  "clock": 7796, 
  "gang": 7797, 
  "hand@@": 7798, 
  "suspects": 7799, 
  "ologists": 7800, 
  "clinics": 7801, 
  "plunged": 7802, 
  "Barak": 7803, 
  "encountered": 7804, 
  "All": 7805, 
  "Dick": 7806, 
  "passionate": 7807, 
  "gay": 7808, 
  "Armenian": 7809, 
  "unfolding": 7810, 
  "impressed": 7811, 
  "recoveries": 7812, 
  "undergo": 7813, 
  "nationwide": 7814, 
  "shes": 7815, 
  "dragged": 7816, 
  "Solzhenitsyn": 7817, 
  "boss": 7818, 
  "rhetorical": 7819, 
  "negligible": 7820, 
  "prosecute": 7821, 
  "men@@": 7822, 
  "woes": 7823, 
  "recourse": 7824, 
  "applications": 7825, 
  "Euro-Atlantic": 7826, 
  "provoking": 7827, 
  "brutally": 7828, 
  "dual": 7829, 
  "habit": 7830, 
  "obtaining": 7831, 
  "r": 7832, 
  "pro-democracy": 7833, 
  "lining": 7834, 
  "imp@@": 7835, 
  "assigned": 7836, 
  "lagging": 7837, 
  "sions": 7838, 
  "blockade": 7839, 
  "Qu@@": 7840, 
  "endure": 7841, 
  "heated": 7842, 
  "decay": 7843, 
  "label": 7844, 
  "destabilize": 7845, 
  "www.@@": 7846, 
  "staged": 7847, 
  "colonies": 7848, 
  "nationalistic": 7849, 
  "Condoleezza": 7850, 
  "castes": 7851, 
  "tering": 7852, 
  "utter": 7853, 
  "efficacy": 7854, 
  "candidacy": 7855, 
  "melting": 7856, 
  "would-be": 7857, 
  "honesty": 7858, 
  "destination": 7859, 
  "Di@@": 7860, 
  "hyper@@": 7861, 
  "iling": 7862, 
  "license": 7863, 
  "39": 7864, 
  "spot": 7865, 
  "peculiar": 7866, 
  "discouraged": 7867, 
  "laboratories": 7868, 
  "fastest": 7869, 
  "2014": 7870, 
  "ite": 7871, 
  "permissible": 7872, 
  "boat": 7873, 
  "develops": 7874, 
  "impetus": 7875, 
  "sti@@": 7876, 
  "seriousness": 7877, 
  "franc": 7878, 
  "river": 7879, 
  "responds": 7880, 
  "ev@@": 7881, 
  "crony": 7882, 
  "Nordic": 7883, 
  "posture": 7884, 
  "charity": 7885, 
  "fabric": 7886, 
  "vowed": 7887, 
  "cease-fire": 7888, 
  "feeding": 7889, 
  "Economy": 7890, 
  "reconciled": 7891, 
  "spark": 7892, 
  "humiliated": 7893, 
  "1.1": 7894, 
  "disability": 7895, 
  "Shell": 7896, 
  "hubris": 7897, 
  "frightening": 7898, 
  "£": 7899, 
  "occasional": 7900, 
  "cents": 7901, 
  "allegiance": 7902, 
  "segments": 7903, 
  "noticed": 7904, 
  "man-made": 7905, 
  "department": 7906, 
  "sway": 7907, 
  "precarious": 7908, 
  "System": 7909, 
  "bird": 7910, 
  "lax": 7911, 
  "steam": 7912, 
  "disdain": 7913, 
  ".ampnbsp": 7914, 
  "attachment": 7915, 
  "medium-size": 7916, 
  "aided": 7917, 
  "swift": 7918, 
  "rooms": 7919, 
  "behaving": 7920, 
  "wholly": 7921, 
  "Napoleon": 7922, 
  "START": 7923, 
  "suffice": 7924, 
  "petition": 7925, 
  "intend": 7926, 
  "invaded": 7927, 
  "staying": 7928, 
  "Mill": 7929, 
  "Amsterdam": 7930, 
  "Fifth": 7931, 
  "havens": 7932, 
  "Mozambique": 7933, 
  "unusually": 7934, 
  "shall": 7935, 
  "Paulson": 7936, 
  "churches": 7937, 
  "Carter": 7938, 
  "ups": 7939, 
  "geographic": 7940, 
  "civil-society": 7941, 
  "fragility": 7942, 
  "harassment": 7943, 
  "dies": 7944, 
  "dust": 7945, 
  "revaluation": 7946, 
  "random": 7947, 
  "invite": 7948, 
  "incurred": 7949, 
  "progressively": 7950, 
  "interactions": 7951, 
  "cleansing": 7952, 
  "populous": 7953, 
  "orthodox": 7954, 
  "market-oriented": 7955, 
  "articulate": 7956, 
  "virtuous": 7957, 
  "breach": 7958, 
  "draws": 7959, 
  "self-confidence": 7960, 
  "pping": 7961, 
  "hegemonic": 7962, 
  "importing": 7963, 
  "Libyans": 7964, 
  "versions": 7965, 
  "unifying": 7966, 
  "capital-@@": 7967, 
  "Columbia": 7968, 
  "deficiency": 7969, 
  "widened": 7970, 
  "liked": 7971, 
  "SDR": 7972, 
  "misrule": 7973, 
  "contexts": 7974, 
  "prejudice": 7975, 
  "greeted": 7976, 
  "complement": 7977, 
  "Fidel": 7978, 
  "ultra-@@": 7979, 
  "excellence": 7980, 
  "escalation": 7981, 
  "violating": 7982, 
  "render": 7983, 
  "athletes": 7984, 
  "promptly": 7985, 
  "discredit": 7986, 
  "laying": 7987, 
  "catalyst": 7988, 
  "outflows": 7989, 
  "materialize": 7990, 
  "precondition": 7991, 
  "assessed": 7992, 
  "escaped": 7993, 
  "Hurricane": 7994, 
  "donations": 7995, 
  "mountain": 7996, 
  "ines": 7997, 
  "1984": 7998, 
  "tolerated": 7999, 
  "requested": 8000, 
  "51": 8001, 
  "sand": 8002, 
  "capitalized": 8003, 
  "narratives": 8004, 
  "overdue": 8005, 
  "viewers": 8006, 
  "Binyamin": 8007, 
  "compensated": 8008, 
  "antagonism": 8009, 
  "lawmakers": 8010, 
  "ades": 8011, 
  "subordinate": 8012, 
  "biofuels": 8013, 
  "Albanian": 8014, 
  "deadline": 8015, 
  "well-functioning": 8016, 
  "continually": 8017, 
  "neighborhoods": 8018, 
  "district": 8019, 
  "flaw": 8020, 
  "appeasement": 8021, 
  "transcend": 8022, 
  "che@@": 8023, 
  "Maoist": 8024, 
  "daughters": 8025, 
  "pa@@": 8026, 
  "arrests": 8027, 
  "substantive": 8028, 
  "trades": 8029, 
  "convened": 8030, 
  "altered": 8031, 
  "world-class": 8032, 
  "withdrew": 8033, 
  "correction": 8034, 
  "exc@@": 8035, 
  "impulse": 8036, 
  "ves": 8037, 
  "implosion": 8038, 
  "beauty": 8039, 
  "betrayal": 8040, 
  "backs": 8041, 
  "monthly": 8042, 
  "nice": 8043, 
  "charter": 8044, 
  "jihad": 8045, 
  "smarter": 8046, 
  "turnaround": 8047, 
  "insure": 8048, 
  "cling": 8049, 
  "unjust": 8050, 
  "Chavez": 8051, 
  "ats": 8052, 
  "Aristide": 8053, 
  "microbes": 8054, 
  "privacy": 8055, 
  "critique": 8056, 
  "alcohol": 8057, 
  "observation": 8058, 
  "protocol": 8059, 
  "bonus": 8060, 
  "overhang": 8061, 
  "visa": 8062, 
  "VAT": 8063, 
  "revolutionaries": 8064, 
  "sa@@": 8065, 
  "sugar": 8066, 
  "nerve": 8067, 
  "reserved": 8068, 
  "intimidation": 8069, 
  "topic": 8070, 
  "cro@@": 8071, 
  "poppy": 8072, 
  "second-@@": 8073, 
  "Bundesbank": 8074, 
  "abolish": 8075, 
  "constructing": 8076, 
  "En@@": 8077, 
  "sat": 8078, 
  "e.g.": 8079, 
  "differs": 8080, 
  "Federation": 8081, 
  "intervened": 8082, 
  "recommend": 8083, 
  "freed": 8084, 
  "observe": 8085, 
  "99": 8086, 
  "den@@": 8087, 
  "swap": 8088, 
  "AIG": 8089, 
  "addresses": 8090, 
  "Car@@": 8091, 
  "league": 8092, 
  "refuge": 8093, 
  "Banking": 8094, 
  "Coast": 8095, 
  "Hariri": 8096, 
  "blackmail": 8097, 
  "ned": 8098, 
  "que": 8099, 
  "tactic": 8100, 
  "vivid": 8101, 
  "sin": 8102, 
  "disciplines": 8103, 
  "suits": 8104, 
  "belonging": 8105, 
  "Maghreb": 8106, 
  "34": 8107, 
  "technocratic": 8108, 
  "taxing": 8109, 
  "12th": 8110, 
  "1962": 8111, 
  "ering": 8112, 
  "solvent": 8113, 
  "stretch": 8114, 
  "ge": 8115, 
  "Stockholm": 8116, 
  "continuously": 8117, 
  "rethink": 8118, 
  "spare": 8119, 
  "noble": 8120, 
  "disarray": 8121, 
  "6.5": 8122, 
  "apartheid": 8123, 
  "metals": 8124, 
  "53": 8125, 
  "profligate": 8126, 
  "regained": 8127, 
  "unanimous": 8128, 
  "peers": 8129, 
  "payroll": 8130, 
  "accessible": 8131, 
  "debating": 8132, 
  "Euro-@@": 8133, 
  "apathy": 8134, 
  "objections": 8135, 
  "accumulating": 8136, 
  "oil-@@": 8137, 
  "biotechnology": 8138, 
  "restrictive": 8139, 
  "shooting": 8140, 
  "exciting": 8141, 
  "recapitalize": 8142, 
  "sacrifices": 8143, 
  "Summers": 8144, 
  "hypothesis": 8145, 
  "therapies": 8146, 
  "bl@@": 8147, 
  "Rica": 8148, 
  "briefly": 8149, 
  "councils": 8150, 
  "Ar@@": 8151, 
  "Assange": 8152, 
  "Turkmenistan": 8153, 
  "multiplied": 8154, 
  "abilities": 8155, 
  "inheritance": 8156, 
  "unbalanced": 8157, 
  "acquiring": 8158, 
  "rainfall": 8159, 
  "char@@": 8160, 
  "full-time": 8161, 
  "adventure": 8162, 
  "uniquely": 8163, 
  "Wilson": 8164, 
  "spike": 8165, 
  "proximity": 8166, 
  "pornography": 8167, 
  "specialists": 8168, 
  "desires": 8169, 
  "crushed": 8170, 
  "normalization": 8171, 
  "Bangkok": 8172, 
  "cul@@": 8173, 
  "ep@@": 8174, 
  "Srebrenica": 8175, 
  "History": 8176, 
  "-of-GDP": 8177, 
  "xenophobic": 8178, 
  "announcing": 8179, 
  "homosexuality": 8180, 
  "twin": 8181, 
  "16@@": 8182, 
  "or-@@": 8183, 
  "emphasizes": 8184, 
  "embryos": 8185, 
  "impaired": 8186, 
  "ver": 8187, 
  "outdated": 8188, 
  "Kabul": 8189, 
  "parks": 8190, 
  "De@@": 8191, 
  "puzzle": 8192, 
  "determines": 8193, 
  "Mladic": 8194, 
  "cosmopolitan": 8195, 
  "culturally": 8196, 
  "covert": 8197, 
  "ff": 8198, 
  "deception": 8199, 
  "conversion": 8200, 
  "stresses": 8201, 
  "minute": 8202, 
  "quoted": 8203, 
  "beaten": 8204, 
  "anti-Western": 8205, 
  "Morgan": 8206, 
  "retire": 8207, 
  "physicists": 8208, 
  "Guinea": 8209, 
  "graduates": 8210, 
  "He": 8211, 
  "0.3": 8212, 
  "anti-Semitic": 8213, 
  "wildly": 8214, 
  "disengagement": 8215, 
  "gridlock": 8216, 
  "ai": 8217, 
  "amounting": 8218, 
  "courageous": 8219, 
  "Lenin": 8220, 
  "designs": 8221, 
  "senators": 8222, 
  "securitization": 8223, 
  "Russian-@@": 8224, 
  "46": 8225, 
  "ley": 8226, 
  "managerial": 8227, 
  "tribunals": 8228, 
  "dictate": 8229, 
  "victorious": 8230, 
  "ore": 8231, 
  "affirmative": 8232, 
  "achievable": 8233, 
  "single-@@": 8234, 
  "Toledo": 8235, 
  "listening": 8236, 
  "expecting": 8237, 
  "and-@@": 8238, 
  "Xi": 8239, 
  "interdependent": 8240, 
  "Kan": 8241, 
  "sink": 8242, 
  "cks": 8243, 
  "Frankfurt": 8244, 
  "labeled": 8245, 
  "indicating": 8246, 
  "framed": 8247, 
  "sins": 8248, 
  "instructions": 8249, 
  "Marxist": 8250, 
  "earliest": 8251, 
  "nasty": 8252, 
  "fertilizer": 8253, 
  "tripled": 8254, 
  "1.8": 8255, 
  "dilemmas": 8256, 
  "book@@": 8257, 
  "reconsider": 8258, 
  "Kirchner": 8259, 
  "renew": 8260, 
  "Be@@": 8261, 
  "blunt": 8262, 
  "arsenals": 8263, 
  "purchased": 8264, 
  "turbines": 8265, 
  "simpler": 8266, 
  "Yasukuni": 8267, 
  "glaciers": 8268, 
  "noting": 8269, 
  "prolong": 8270, 
  "cur@@": 8271, 
  "copy": 8272, 
  "monetary-policy": 8273, 
  "diffusion": 8274, 
  "ju@@": 8275, 
  "celebration": 8276, 
  "Pakistanis": 8277, 
  "air@@": 8278, 
  "Koran": 8279, 
  "betting": 8280, 
  "unregulated": 8281, 
  "best-@@": 8282, 
  "liberated": 8283, 
  "manifest": 8284, 
  "slows": 8285, 
  "massacres": 8286, 
  "mightily": 8287, 
  "1997-1998": 8288, 
  "Industrial": 8289, 
  "Tunisian": 8290, 
  "cloning": 8291, 
  "2.7": 8292, 
  "sizeable": 8293, 
  "refinance": 8294, 
  "Barcelona": 8295, 
  "deterred": 8296, 
  "universally": 8297, 
  "QE": 8298, 
  "ati@@": 8299, 
  "thereafter": 8300, 
  "tipping": 8301, 
  "lity": 8302, 
  "forcefully": 8303, 
  "bars": 8304, 
  "cu@@": 8305, 
  "dividend": 8306, 
  "military-@@": 8307, 
  "tional": 8308, 
  "protects": 8309, 
  "fore": 8310, 
  "determinant": 8311, 
  "liberalize": 8312, 
  "trans@@": 8313, 
  "ori@@": 8314, 
  "harmonization": 8315, 
  "0@@": 8316, 
  "frightened": 8317, 
  "Si@@": 8318, 
  "minutes": 8319, 
  "market-based": 8320, 
  "shopping": 8321, 
  "sinking": 8322, 
  "connect": 8323, 
  "450": 8324, 
  "Dr.": 8325, 
  "Delta": 8326, 
  "burden-sharing": 8327, 
  "lying": 8328, 
  "enters": 8329, 
  "worldview": 8330, 
  "measuring": 8331, 
  "perestroika": 8332, 
  "dampen": 8333, 
  "immoral": 8334, 
  "persistently": 8335, 
  "unchecked": 8336, 
  "one-fifth": 8337, 
  "lower-@@": 8338, 
  "greedy": 8339, 
  "glory": 8340, 
  "bul@@": 8341, 
  "assurance": 8342, 
  "five-@@": 8343, 
  "nu@@": 8344, 
  "histories": 8345, 
  "uniting": 8346, 
  "tap": 8347, 
  "lobbyists": 8348, 
  "Confucian": 8349, 
  "sis": 8350, 
  "positively": 8351, 
  "Senegal": 8352, 
  "amendments": 8353, 
  "slogans": 8354, 
  "harmonious": 8355, 
  "roadmap": 8356, 
  "unleash": 8357, 
  "ka": 8358, 
  "multi-polar": 8359, 
  "Venezuelan": 8360, 
  "heating": 8361, 
  "theater": 8362, 
  "stubbornly": 8363, 
  "risking": 8364, 
  "cite": 8365, 
  "detained": 8366, 
  "landslide": 8367, 
  "rescued": 8368, 
  "ps": 8369, 
  "BBC": 8370, 
  "bra@@": 8371, 
  "therapeutic": 8372, 
  "prisoner": 8373, 
  "ss@@": 8374, 
  "vacation": 8375, 
  "precedents": 8376, 
  "underpin": 8377, 
  "inc@@": 8378, 
  "Greater": 8379, 
  "restrain": 8380, 
  "ut@@": 8381, 
  "von": 8382, 
  "tumor": 8383, 
  "perpetual": 8384, 
  "diplomat": 8385, 
  "cking": 8386, 
  "hu@@": 8387, 
  "Pre@@": 8388, 
  "genius": 8389, 
  "differential": 8390, 
  "psycho@@": 8391, 
  "dismantle": 8392, 
  "Mecca": 8393, 
  "thriving": 8394, 
  "acquisition": 8395, 
  "cap@@": 8396, 
  "im": 8397, 
  "constituency": 8398, 
  "tru@@": 8399, 
  "F": 8400, 
  "punitive": 8401, 
  "vitality": 8402, 
  "campaigners": 8403, 
  "ailing": 8404, 
  "Freddie": 8405, 
  "200,000": 8406, 
  "ol@@": 8407, 
  "asks": 8408, 
  "Pearl": 8409, 
  "expressions": 8410, 
  "ther": 8411, 
  "fifteen": 8412, 
  "compound": 8413, 
  "indications": 8414, 
  "quit": 8415, 
  "vaccines": 8416, 
  "chips": 8417, 
  "navy": 8418, 
  "dollar-denominated": 8419, 
  "Yanukovych": 8420, 
  "respondents": 8421, 
  "ia": 8422, 
  "taxed": 8423, 
  "bind": 8424, 
  "embodies": 8425, 
  "unwise": 8426, 
  "crossroads": 8427, 
  "manages": 8428, 
  "Silva": 8429, 
  "criticizing": 8430, 
  "worthwhile": 8431, 
  "messy": 8432, 
  "tables": 8433, 
  "daring": 8434, 
  "illicit": 8435, 
  "spotlight": 8436, 
  "satellites": 8437, 
  "endorsement": 8438, 
  "envy": 8439, 
  "IBM": 8440, 
  "dam": 8441, 
  "Mitchell": 8442, 
  "shaken": 8443, 
  "Portuguese": 8444, 
  "appearing": 8445, 
  "spell": 8446, 
  "completion": 8447, 
  "prevalent": 8448, 
  "mini-@@": 8449, 
  "fiscally": 8450, 
  "Bhutan": 8451, 
  "periodic": 8452, 
  "cleaner": 8453, 
  "register": 8454, 
  "park": 8455, 
  "Curtain": 8456, 
  "we@@": 8457, 
  "illnesses": 8458, 
  "petroleum": 8459, 
  "Pervez": 8460, 
  "definitive": 8461, 
  "repaid": 8462, 
  "por@@": 8463, 
  "detected": 8464, 
  "SGP": 8465, 
  "bles": 8466, 
  "theirs": 8467, 
  "uni@@": 8468, 
  "commissions": 8469, 
  "topple": 8470, 
  "descendants": 8471, 
  "admiration": 8472, 
  "guards": 8473, 
  "_@@": 8474, 
  "screen": 8475, 
  "alien": 8476, 
  "willingly": 8477, 
  "shoulder": 8478, 
  "sympathetic": 8479, 
  "Conservative": 8480, 
  "ak@@": 8481, 
  "smoothly": 8482, 
  "stuff": 8483, 
  "odious": 8484, 
  "diversion": 8485, 
  "hard-line": 8486, 
  "2.6": 8487, 
  "illustrated": 8488, 
  "pensioners": 8489, 
  "killer": 8490, 
  "Mohamed": 8491, 
  "distribute": 8492, 
  "foresee": 8493, 
  "Daniel": 8494, 
  "picking": 8495, 
  "crucially": 8496, 
  "Xinjiang": 8497, 
  "machinery": 8498, 
  "climb": 8499, 
  "48": 8500, 
  "mosque": 8501, 
  "clothing": 8502, 
  "deteriorated": 8503, 
  "surpass": 8504, 
  "supplier": 8505, 
  "indictment": 8506, 
  "insofar": 8507, 
  "assembled": 8508, 
  "Chad": 8509, 
  "injured": 8510, 
  "contracting": 8511, 
  "can@@": 8512, 
  "circulation": 8513, 
  "timetable": 8514, 
  "static": 8515, 
  "uncompetitive": 8516, 
  "examining": 8517, 
  "appalling": 8518, 
  "monitors": 8519, 
  "mandates": 8520, 
  "stock-market": 8521, 
  "suitable": 8522, 
  "drafting": 8523, 
  "free-@@": 8524, 
  "Environment": 8525, 
  "intolerance": 8526, 
  "nuclear-@@": 8527, 
  "68": 8528, 
  "instrumental": 8529, 
  "preparations": 8530, 
  "Bashir": 8531, 
  "elaborate": 8532, 
  "junior": 8533, 
  "proactive": 8534, 
  "accordance": 8535, 
  "postponing": 8536, 
  "Wolfensohn": 8537, 
  "polar": 8538, 
  "el-Qaddafi": 8539, 
  "formulate": 8540, 
  "nurtured": 8541, 
  "ah@@": 8542, 
  "overwhelmed": 8543, 
  "Democrat": 8544, 
  "bailing": 8545, 
  "struggled": 8546, 
  "multiplier": 8547, 
  "paved": 8548, 
  "wonders": 8549, 
  "Q@@": 8550, 
  "counting": 8551, 
  "wisely": 8552, 
  "confidence-building": 8553, 
  "horror": 8554, 
  "sal@@": 8555, 
  "mandated": 8556, 
  "social-democratic": 8557, 
  "crossing": 8558, 
  "Far": 8559, 
  "pre-emptive": 8560, 
  "longest": 8561, 
  "oil-producing": 8562, 
  "contributors": 8563, 
  "MIT": 8564, 
  "post-conflict": 8565, 
  "Representative": 8566, 
  "drift": 8567, 
  "residual": 8568, 
  "ological": 8569, 
  "1.9": 8570, 
  "topics": 8571, 
  "favoring": 8572, 
  "aiming": 8573, 
  "fy": 8574, 
  "municipal": 8575, 
  "rich-country": 8576, 
  "ger": 8577, 
  "Kouchner": 8578, 
  "X@@": 8579, 
  "curiosity": 8580, 
  "ies": 8581, 
  "condemning": 8582, 
  "foreclosures": 8583, 
  "highlighting": 8584, 
  "inspiring": 8585, 
  "wood": 8586, 
  "av@@": 8587, 
  "scarcely": 8588, 
  "passions": 8589, 
  "combines": 8590, 
  "ceased": 8591, 
  "infinite": 8592, 
  "Ibrahim": 8593, 
  "protestors": 8594, 
  "overhaul": 8595, 
  "overlook": 8596, 
  "completing": 8597, 
  "audiences": 8598, 
  "breathing": 8599, 
  "Peninsula": 8600, 
  "suppressing": 8601, 
  "prediction": 8602, 
  "asserting": 8603, 
  "incompatible": 8604, 
  "secularism": 8605, 
  "Quartet": 8606, 
  "horrible": 8607, 
  "13@@": 8608, 
  "rolled": 8609, 
  "architects": 8610, 
  "Bo@@": 8611, 
  "coexistence": 8612, 
  "abundance": 8613, 
  "wealthier": 8614, 
  "rough": 8615, 
  "ref@@": 8616, 
  "afterwards": 8617, 
  "Sunday": 8618, 
  "weigh": 8619, 
  "floor": 8620, 
  "41": 8621, 
  "Aung": 8622, 
  "uncomfortable": 8623, 
  "Public": 8624, 
  "legality": 8625, 
  "Camp": 8626, 
  "spots": 8627, 
  "SOEs": 8628, 
  "damages": 8629, 
  "coca": 8630, 
  "gre@@": 8631, 
  "amazing": 8632, 
  "marijuana": 8633, 
  "off-@@": 8634, 
  "revelations": 8635, 
  "diversified": 8636, 
  "Service": 8637, 
  "humane": 8638, 
  "Holy": 8639, 
  "philosophers": 8640, 
  "cor@@": 8641, 
  "adapting": 8642, 
  "incremental": 8643, 
  "truce": 8644, 
  "Klaus": 8645, 
  "prosecutions": 8646, 
  "ens": 8647, 
  "mid-century": 8648, 
  "coral": 8649, 
  "deteriorate": 8650, 
  "Intergovernmental": 8651, 
  "SCAF": 8652, 
  "enforcing": 8653, 
  "qui@@": 8654, 
  "rain": 8655, 
  "amendment": 8656, 
  "submit": 8657, 
  "panels": 8658, 
  "prosper": 8659, 
  "associates": 8660, 
  "tree": 8661, 
  "patronage": 8662, 
  "retirees": 8663, 
  "lecture": 8664, 
  "second-largest": 8665, 
  "encouragement": 8666, 
  "jumped": 8667, 
  "advisors": 8668, 
  "Islamism": 8669, 
  "eastward": 8670, 
  "input": 8671, 
  "unanimously": 8672, 
  "rubble": 8673, 
  "working-age": 8674, 
  "chairs": 8675, 
  "preemptive": 8676, 
  "walking": 8677, 
  "rehabilitation": 8678, 
  "beside": 8679, 
  "disparity": 8680, 
  "Humala": 8681, 
  "cost-effective": 8682, 
  "flo@@": 8683, 
  "ian": 8684, 
  "formulating": 8685, 
  "opposes": 8686, 
  "uncontrolled": 8687, 
  "routes": 8688, 
  "Haider": 8689, 
  "proportional": 8690, 
  "devalue": 8691, 
  "mantra": 8692, 
  "credibly": 8693, 
  "embarrassing": 8694, 
  "employee": 8695, 
  "incorporate": 8696, 
  "inconceivable": 8697, 
  "recovers": 8698, 
  "pictures": 8699, 
  "xenophobia": 8700, 
  "anarchy": 8701, 
  "banner": 8702, 
  "Johnson": 8703, 
  "4,000": 8704, 
  "chickens": 8705, 
  "inspection": 8706, 
  "revise": 8707, 
  "physically": 8708, 
  "maker": 8709, 
  "Blix": 8710, 
  "ke": 8711, 
  "Gu@@": 8712, 
  "denominated": 8713, 
  "reassured": 8714, 
  "interviews": 8715, 
  "prompt": 8716, 
  "manufactures": 8717, 
  "shake": 8718, 
  "Budapest": 8719, 
  "pronouncements": 8720, 
  "spared": 8721, 
  "sen@@": 8722, 
  "advisory": 8723, 
  "Hungarian": 8724, 
  "Co@@": 8725, 
  "Obrador": 8726, 
  "drafted": 8727, 
  "ancestors": 8728, 
  "conversely": 8729, 
  "airline": 8730, 
  "conceivable": 8731, 
  "truths": 8732, 
  "inciting": 8733, 
  "praised": 8734, 
  "passion": 8735, 
  "sponsored": 8736, 
  "fleeing": 8737, 
  "destined": 8738, 
  "fa@@": 8739, 
  "mineral": 8740, 
  "ls": 8741, 
  "soup": 8742, 
  "Karadzic": 8743, 
  "inform": 8744, 
  "no-@@": 8745, 
  "band": 8746, 
  "linkages": 8747, 
  "biased": 8748, 
  "loud": 8749, 
  "Carmen": 8750, 
  "contradictions": 8751, 
  "Per@@": 8752, 
  "discouraging": 8753, 
  "backgrounds": 8754, 
  "relentless": 8755, 
  "one-time": 8756, 
  "pie": 8757, 
  "3.6": 8758, 
  "directives": 8759, 
  "tacit": 8760, 
  "ecosystem": 8761, 
  "awkward": 8762, 
  "0.2": 8763, 
  "Taylor": 8764, 
  "tion-@@": 8765, 
  "300,000": 8766, 
  "Club": 8767, 
  "lucrative": 8768, 
  "secrets": 8769, 
  "opens": 8770, 
  "endgame": 8771, 
  "Macedonia": 8772, 
  "acy": 8773, 
  "surprises": 8774, 
  "Services": 8775, 
  "ingrained": 8776, 
  "collecting": 8777, 
  "defects": 8778, 
  "chapter": 8779, 
  "recessionary": 8780, 
  "bans": 8781, 
  "Djindjic": 8782, 
  "fur@@": 8783, 
  "identification": 8784, 
  "57": 8785, 
  "better-@@": 8786, 
  "pop": 8787, 
  "straight": 8788, 
  "incorporated": 8789, 
  "unconventional": 8790, 
  "hosted": 8791, 
  "misses": 8792, 
  "obesity": 8793, 
  "resemble": 8794, 
  "procurement": 8795, 
  "ure": 8796, 
  "concession": 8797, 
  "hell": 8798, 
  "mortgage-backed": 8799, 
  "14@@": 8800, 
  "Tudjman": 8801, 
  "burn": 8802, 
  "Arctic": 8803, 
  "adjusting": 8804, 
  "painfully": 8805, 
  "bling": 8806, 
  "teacher": 8807, 
  "preferential": 8808, 
  "sometime": 8809, 
  "clarify": 8810, 
  "ally-@@": 8811, 
  "Melbourne": 8812, 
  "intransigence": 8813, 
  "anti-corruption": 8814, 
  "permission": 8815, 
  "indifferent": 8816, 
  "succeeding": 8817, 
  "alternatively": 8818, 
  "62": 8819, 
  "critic": 8820, 
  "land@@": 8821, 
  "tor@@": 8822, 
  "Un@@": 8823, 
  "inflation-adjusted": 8824, 
  "leaks": 8825, 
  "el-@@": 8826, 
  "realistically": 8827, 
  "riding": 8828, 
  "ministerial": 8829, 
  "symptom": 8830, 
  "granting": 8831, 
  "64": 8832, 
  "un-@@": 8833, 
  "supranational": 8834, 
  "twentieth-century": 8835, 
  "glance": 8836, 
  "diverted": 8837, 
  "rupture": 8838, 
  "starved": 8839, 
  "guest": 8840, 
  "tics": 8841, 
  "acupuncture": 8842, 
  "Tocqueville": 8843, 
  "fostered": 8844, 
  "Mae": 8845, 
  "holiday": 8846, 
  "dropping": 8847, 
  "plentiful": 8848, 
  "file": 8849, 
  "encounter": 8850, 
  "exploded": 8851, 
  "tired": 8852, 
  "Arabic": 8853, 
  "desperation": 8854, 
  "faculty": 8855, 
  "dared": 8856, 
  "backdrop": 8857, 
  "despotic": 8858, 
  "tier": 8859, 
  "Li": 8860, 
  "egregious": 8861, 
  "carbon-@@": 8862, 
  "texts": 8863, 
  "ran@@": 8864, 
  "med": 8865, 
  "pregnant": 8866, 
  "flee": 8867, 
  "uprisings": 8868, 
  "sixth": 8869, 
  "thoughtful": 8870, 
  "dent": 8871, 
  "empires": 8872, 
  "‑@@": 8873, 
  "&apos;ll": 8874, 
  "fan": 8875, 
  "ruin": 8876, 
  "abolished": 8877, 
  "entrants": 8878, 
  "fool": 8879, 
  "prompting": 8880, 
  "federalism": 8881, 
  "philosophical": 8882, 
  "permitting": 8883, 
  "warheads": 8884, 
  "enriched": 8885, 
  "Mohammad": 8886, 
  "atory": 8887, 
  "articulated": 8888, 
  "assisted": 8889, 
  "1-@@": 8890, 
  "avoidance": 8891, 
  "acknowledges": 8892, 
  "Goldstone": 8893, 
  "setback": 8894, 
  "Pradesh": 8895, 
  "stupid": 8896, 
  "Rubin": 8897, 
  "Young": 8898, 
  "cooperating": 8899, 
  "eli@@": 8900, 
  "shy": 8901, 
  "sentences": 8902, 
  "self-defeating": 8903, 
  "mid-term": 8904, 
  "watershed": 8905, 
  "accompany": 8906, 
  "Gul": 8907, 
  "energies": 8908, 
  "sexually": 8909, 
  "references": 8910, 
  "analogies": 8911, 
  "supplemented": 8912, 
  "lagged": 8913, 
  "lent": 8914, 
  "vigorously": 8915, 
  "downgrade": 8916, 
  "illiberal": 8917, 
  "undergone": 8918, 
  "tumors": 8919, 
  "embryo": 8920, 
  "full-scale": 8921, 
  "diaspora": 8922, 
  "confrontations": 8923, 
  "asserted": 8924, 
  "tour": 8925, 
  "hor@@": 8926, 
  "Mark": 8927, 
  "cable": 8928, 
  "outgoing": 8929, 
  "buys": 8930, 
  "ceremony": 8931, 
  "180": 8932, 
  "eighteenth": 8933, 
  "manager": 8934, 
  "Future": 8935, 
  "sticks": 8936, 
  "exploring": 8937, 
  "lu@@": 8938, 
  "defiance": 8939, 
  "contracted": 8940, 
  "tandem": 8941, 
  "tackled": 8942, 
  "preliminary": 8943, 
  "Tanzania": 8944, 
  "delivers": 8945, 
  "dy": 8946, 
  "analyzed": 8947, 
  "Mohammed": 8948, 
  "rivalries": 8949, 
  "warmer": 8950, 
  "waging": 8951, 
  "Luxembourg": 8952, 
  "fies": 8953, 
  "veterans": 8954, 
  "suspension": 8955, 
  "underscore": 8956, 
  "Malawi": 8957, 
  "displayed": 8958, 
  "variable": 8959, 
  "surging": 8960, 
  "Evo": 8961, 
  "tale": 8962, 
  "scholar": 8963, 
  "cleaning": 8964, 
  "g-@@": 8965, 
  "Cubans": 8966, 
  "instant": 8967, 
  "culprit": 8968, 
  "milk": 8969, 
  "presumption": 8970, 
  "comprising": 8971, 
  "jihadi": 8972, 
  "standpoint": 8973, 
  "auto": 8974, 
  "divides": 8975, 
  "user": 8976, 
  "shorter": 8977, 
  "inferior": 8978, 
  "waged": 8979, 
  "upset": 8980, 
  "pessimistic": 8981, 
  "finish": 8982, 
  "7.5": 8983, 
  "Shah": 8984, 
  "respectable": 8985, 
  "denies": 8986, 
  "waning": 8987, 
  "non-tradable": 8988, 
  "ery": 8989, 
  "meaningless": 8990, 
  "torn": 8991, 
  "presumed": 8992, 
  "Rogoff": 8993, 
  "educate": 8994, 
  "doom": 8995, 
  "proceeded": 8996, 
  "secession": 8997, 
  "Kostunica": 8998, 
  "environments": 8999, 
  "adversary": 9000, 
  "disrupted": 9001, 
  "self-evident": 9002, 
  "Th@@": 9003, 
  "shelter": 9004, 
  "reacting": 9005, 
  "psychiatry": 9006, 
  "Tamil": 9007, 
  "fee": 9008, 
  "ble@@": 9009, 
  "CDS": 9010, 
  "Ma@@": 9011, 
  "restructured": 9012, 
  "barrels": 9013, 
  "psychologists": 9014, 
  "happily": 9015, 
  "slavery": 9016, 
  "hormone": 9017, 
  "exercising": 9018, 
  "stra@@": 9019, 
  "tailored": 9020, 
  "hardliners": 9021, 
  "lion": 9022, 
  "Deal": 9023, 
  "bone": 9024, 
  "dispersed": 9025, 
  "newfound": 9026, 
  "Mandela": 9027, 
  "occupations": 9028, 
  "generational": 9029, 
  "1.7": 9030, 
  "1960s": 9031, 
  "reformer": 9032, 
  "Okinawa": 9033, 
  "statesmen": 9034, 
  "optimists": 9035, 
  "pro-Western": 9036, 
  "altruism": 9037, 
  "urs": 9038, 
  "ya": 9039, 
  "CTBT": 9040, 
  "spurred": 9041, 
  "depressing": 9042, 
  "repeating": 9043, 
  "Heights": 9044, 
  "x@@": 9045, 
  "retrospect": 9046, 
  "needless": 9047, 
  "oc@@": 9048, 
  "barring": 9049, 
  "public-debt": 9050, 
  "injections": 9051, 
  "ening": 9052, 
  "concentrations": 9053, 
  "Business": 9054, 
  "Han": 9055, 
  "incoming": 9056, 
  "standardized": 9057, 
  "disciplined": 9058, 
  "Presidency": 9059, 
  "Securities": 9060, 
  "inauguration": 9061, 
  "fatigue": 9062, 
  "accompanying": 9063, 
  "muted": 9064, 
  "Index": 9065, 
  "nationalization": 9066, 
  "rankings": 9067, 
  "Massachusetts": 9068, 
  "bombed": 9069, 
  "gs": 9070, 
  "Ariel": 9071, 
  "hardware": 9072, 
  "Phelps": 9073, 
  "Comprehensive": 9074, 
  "stagnating": 9075, 
  "boosts": 9076, 
  "isolating": 9077, 
  "punishing": 9078, 
  "follow-up": 9079, 
  "preservation": 9080, 
  "deprivation": 9081, 
  "vocal": 9082, 
  "Last": 9083, 
  "apartment": 9084, 
  "frontiers": 9085, 
  "Intelligence": 9086, 
  "concludes": 9087, 
  "fin@@": 9088, 
  "medication": 9089, 
  "palace": 9090, 
  "instincts": 9091, 
  "bullets": 9092, 
  "improves": 9093, 
  "propensity": 9094, 
  "recurrence": 9095, 
  "f": 9096, 
  "timid": 9097, 
  "fights": 9098, 
  "reinvent": 9099, 
  "formulated": 9100, 
  "violates": 9101, 
  "mounted": 9102, 
  "euthanasia": 9103, 
  "stays": 9104, 
  "Bar@@": 9105, 
  "unsurprisingly": 9106, 
  "Senkaku": 9107, 
  "disparate": 9108, 
  "130": 9109, 
  "Strategic": 9110, 
  "Education": 9111, 
  "envisaged": 9112, 
  "dity": 9113, 
  "convictions": 9114, 
  "hazards": 9115, 
  "Brezhnev": 9116, 
  "ent-@@": 9117, 
  "radioactive": 9118, 
  "Tung": 9119, 
  "romantic": 9120, 
  "dip": 9121, 
  "lofty": 9122, 
  "glass": 9123, 
  "comp@@": 9124, 
  "ESM": 9125, 
  "crisis-@@": 9126, 
  "temptations": 9127, 
  "weakest": 9128, 
  "aversion": 9129, 
  "derail": 9130, 
  "shoot": 9131, 
  "poisoned": 9132, 
  "clothes": 9133, 
  "challenger": 9134, 
  "appropriately": 9135, 
  "basket": 9136, 
  "au@@": 9137, 
  "Pro@@": 9138, 
  "Kadima": 9139, 
  "hits": 9140, 
  "convey": 9141, 
  "voiced": 9142, 
  "editorial": 9143, 
  "culminated": 9144, 
  "embark": 9145, 
  "Vietnamese": 9146, 
  "awash": 9147, 
  "bullet": 9148, 
  "Catholics": 9149, 
  "matches": 9150, 
  "end@@": 9151, 
  "impartial": 9152, 
  "Soros": 9153, 
  "Politburo": 9154, 
  "pandemics": 9155, 
  "nostalgic": 9156, 
  "subsidizing": 9157, 
  "poet": 9158, 
  "editors": 9159, 
  "prospective": 9160, 
  "asylum": 9161, 
  "preceding": 9162, 
  "Nicholas": 9163, 
  "ire": 9164, 
  "tively": 9165, 
  "curbing": 9166, 
  "nation-states": 9167, 
  "once-@@": 9168, 
  "inflow": 9169, 
  "lock": 9170, 
  "bs": 9171, 
  "deb@@": 9172, 
  "for-@@": 9173, 
  "After": 9174, 
  "wished": 9175, 
  "frustrations": 9176, 
  "Ro@@": 9177, 
  "subsistence": 9178, 
  "bal@@": 9179, 
  "holes": 9180, 
  "abruptly": 9181, 
  "emotion": 9182, 
  "ke@@": 9183, 
  "depleted": 9184, 
  "highways": 9185, 
  "nation-building": 9186, 
  "consultations": 9187, 
  "costing": 9188, 
  "setbacks": 9189, 
  "jeopardizing": 9190, 
  "67": 9191, 
  "plague": 9192, 
  "decreasing": 9193, 
  "long-lasting": 9194, 
  "downs": 9195, 
  "exposing": 9196, 
  "stabilized": 9197, 
  "prohibit": 9198, 
  "colossal": 9199, 
  "plummeting": 9200, 
  "fisheries": 9201, 
  "repeal": 9202, 
  "Universal": 9203, 
  "generosity": 9204, 
  "illustrate": 9205, 
  "awakening": 9206, 
  "devoid": 9207, 
  "gate": 9208, 
  "enrich": 9209, 
  "ced": 9210, 
  "unsettled": 9211, 
  "villagers": 9212, 
  "Province": 9213, 
  "acc@@": 9214, 
  "distinctive": 9215, 
  "loaded": 9216, 
  "mitigating": 9217, 
  "theft": 9218, 
  "citizenry": 9219, 
  "epidemics": 9220, 
  "someday": 9221, 
  "conspicuous": 9222, 
  "21st": 9223, 
  "full-fledged": 9224, 
  "ered": 9225, 
  "tightly": 9226, 
  "attributable": 9227, 
  "ped@@": 9228, 
  "radicalization": 9229, 
  "installed": 9230, 
  "fever": 9231, 
  "heroin": 9232, 
  "evade": 9233, 
  "empowering": 9234, 
  "Open": 9235, 
  "wrenching": 9236, 
  "textile": 9237, 
  "Blue": 9238, 
  "Armed": 9239, 
  "intrusive": 9240, 
  "SWF": 9241, 
  "clans": 9242, 
  "finger": 9243, 
  "mercy": 9244, 
  "350": 9245, 
  "astounding": 9246, 
  "balance-of-payments": 9247, 
  "fiercely": 9248, 
  "6-@@": 9249, 
  "Man": 9250, 
  "sion": 9251, 
  "publications": 9252, 
  "cooking": 9253, 
  "wiped": 9254, 
  "intermediation": 9255, 
  "know-how": 9256, 
  "mouth": 9257, 
  "liberalized": 9258, 
  "Conventions": 9259, 
  "fringe": 9260, 
  "Manmohan": 9261, 
  "trans": 9262, 
  "abused": 9263, 
  "market-@@": 9264, 
  "Giscard": 9265, 
  "President-elect": 9266, 
  "consolidating": 9267, 
  "tre@@": 9268, 
  "Malay": 9269, 
  "sophistication": 9270, 
  "unrelated": 9271, 
  "et-@@": 9272, 
  "cked": 9273, 
  "planes": 9274, 
  "capital-account": 9275, 
  "ys": 9276, 
  "pigs": 9277, 
  "UMNO": 9278, 
  "skewed": 9279, 
  "textiles": 9280, 
  "stic": 9281, 
  "alert": 9282, 
  "ravaged": 9283, 
  "envoy": 9284, 
  "exacerbating": 9285, 
  "lately": 9286, 
  "sister": 9287, 
  "anti-globalization": 9288, 
  "ade": 9289, 
  "distorting": 9290, 
  "substitution": 9291, 
  "Belgian": 9292, 
  "denounce": 9293, 
  "bite": 9294, 
  "steer": 9295, 
  "Maliki": 9296, 
  "appointing": 9297, 
  "Military": 9298, 
  "happier": 9299, 
  "MDG": 9300, 
  "bly": 9301, 
  "hollow": 9302, 
  "translates": 9303, 
  "segment": 9304, 
  "fighter": 9305, 
  "usefulness": 9306, 
  "des@@": 9307, 
  "Yasir": 9308, 
  "Park": 9309, 
  "avoids": 9310, 
  "suicidal": 9311, 
  "bio-fuels": 9312, 
  "nationally": 9313, 
  "eroding": 9314, 
  "abolition": 9315, 
  "no-fly": 9316, 
  "operators": 9317, 
  "wa@@": 9318, 
  "spheres": 9319, 
  "Daily": 9320, 
  "behaved": 9321, 
  "circumvent": 9322, 
  "disregard": 9323, 
  "referenda": 9324, 
  "salvation": 9325, 
  "gen@@": 9326, 
  "hints": 9327, 
  "fertile": 9328, 
  "fraught": 9329, 
  "workings": 9330, 
  "stepping": 9331, 
  "pile": 9332, 
  "screens": 9333, 
  "unimaginable": 9334, 
  "gro@@": 9335, 
  "cynicism": 9336, 
  "and@@": 9337, 
  "suggestions": 9338, 
  "calculate": 9339, 
  "Timor": 9340, 
  "ominous": 9341, 
  "ours": 9342, 
  "mentally": 9343, 
  "Pax": 9344, 
  "Mali": 9345, 
  "tolerable": 9346, 
  "prominence": 9347, 
  "concert": 9348, 
  "7,000": 9349, 
  "derivative": 9350, 
  "cherished": 9351, 
  "1944": 9352, 
  "disturbances": 9353, 
  "orbit": 9354, 
  "polarized": 9355, 
  "ck@@": 9356, 
  "embryonic": 9357, 
  "imaginary": 9358, 
  "maximizing": 9359, 
  "Fourth": 9360, 
  "utopian": 9361, 
  "outward": 9362, 
  "Mi@@": 9363, 
  "fairer": 9364, 
  "analytical": 9365, 
  "afloat": 9366, 
  "differentials": 9367, 
  "breath": 9368, 
  "sequences": 9369, 
  "irresistible": 9370, 
  "Colonel": 9371, 
  "tically": 9372, 
  "planting": 9373, 
  "strip": 9374, 
  "bread": 9375, 
  "enrollment": 9376, 
  "championed": 9377, 
  "excitement": 9378, 
  "wipe": 9379, 
  "comprised": 9380, 
  "Livni": 9381, 
  "sterling": 9382, 
  "prerequisite": 9383, 
  "blaming": 9384, 
  "occurrence": 9385, 
  "Life": 9386, 
  "pathetic": 9387, 
  "graphic": 9388, 
  "landmark": 9389, 
  "all-time": 9390, 
  "threw": 9391, 
  "disproportionately": 9392, 
  "traveling": 9393, 
  "insulated": 9394, 
  "carriers": 9395, 
  "defy": 9396, 
  "deploying": 9397, 
  "Andrew": 9398, 
  "interestingly": 9399, 
  "ana": 9400, 
  "ste@@": 9401, 
  "harms": 9402, 
  "financial-@@": 9403, 
  "outer": 9404, 
  "Our": 9405, 
  "gn@@": 9406, 
  "poison": 9407, 
  "myths": 9408, 
  "ational": 9409, 
  "vain": 9410, 
  "8,000": 9411, 
  "halted": 9412, 
  "ethnically": 9413, 
  "signatories": 9414, 
  "pro-European": 9415, 
  "vengeance": 9416, 
  "sends": 9417, 
  "lean": 9418, 
  "monumental": 9419, 
  "mediation": 9420, 
  "lingering": 9421, 
  "behaviors": 9422, 
  ".com": 9423, 
  "incredibly": 9424, 
  "idealism": 9425, 
  "ammunition": 9426, 
  "College": 9427, 
  "lags": 9428, 
  "Lo@@": 9429, 
  "helm": 9430, 
  "retaining": 9431, 
  "incipient": 9432, 
  "span": 9433, 
  "ber": 9434, 
  "Raúl": 9435, 
  "attributes": 9436, 
  "medieval": 9437, 
  "teaches": 9438, 
  "Athens": 9439, 
  "influx": 9440, 
  "associate": 9441, 
  "pal@@": 9442, 
  "hedging": 9443, 
  "short-sighted": 9444, 
  "hearings": 9445, 
  "drastically": 9446, 
  "pped": 9447, 
  "nascent": 9448, 
  "fast-@@": 9449, 
  "expire": 9450, 
  "concentrating": 9451, 
  "breeds": 9452, 
  "pivotal": 9453, 
  "And": 9454, 
  "unaware": 9455, 
  "long-time": 9456, 
  "bluntly": 9457, 
  "manipulating": 9458, 
  "polity": 9459, 
  "arithmetic": 9460, 
  "instinct": 9461, 
  "directive": 9462, 
  "spin": 9463, 
  "Burundi": 9464, 
  "unsettling": 9465, 
  "presided": 9466, 
  "non-violent": 9467, 
  "derive": 9468, 
  "kidney": 9469, 
  "Queen": 9470, 
  "Process": 9471, 
  "flooded": 9472, 
  "amend": 9473, 
  "ani@@": 9474, 
  "knees": 9475, 
  "injustices": 9476, 
  "heal": 9477, 
  "canceled": 9478, 
  "Nigerians": 9479, 
  "Bi@@": 9480, 
  "guise": 9481, 
  "twist": 9482, 
  "cru@@": 9483, 
  "Sergei": 9484, 
  "Age": 9485, 
  "ashes": 9486, 
  "assertiveness": 9487, 
  "stretched": 9488, 
  "steal": 9489, 
  "raging": 9490, 
  "touted": 9491, 
  "prescriptions": 9492, 
  "Mauritius": 9493, 
  "elling": 9494, 
  "extraction": 9495, 
  "asset-price": 9496, 
  "hindsight": 9497, 
  "folly": 9498, 
  "wield": 9499, 
  "So": 9500, 
  "hemisphere": 9501, 
  "capitalize": 9502, 
  "sidelines": 9503, 
  "broadening": 9504, 
  "Angola": 9505, 
  "clerics": 9506, 
  "M": 9507, 
  "atmospheric": 9508, 
  "six-party": 9509, 
  "Mittal": 9510, 
  "Rabin": 9511, 
  "sted": 9512, 
  "insecure": 9513, 
  "11th": 9514, 
  "thorough": 9515, 
  "Nazism": 9516, 
  "star@@": 9517, 
  "post-World": 9518, 
  "Palme": 9519, 
  "2025": 9520, 
  "instructive": 9521, 
  "admitting": 9522, 
  "Accords": 9523, 
  "il@@": 9524, 
  "courses": 9525, 
  "pretext": 9526, 
  "chaired": 9527, 
  "Harbor": 9528, 
  "Jean": 9529, 
  "bogged": 9530, 
  "selfish": 9531, 
  "crippled": 9532, 
  "song": 9533, 
  "pendulum": 9534, 
  "textbook": 9535, 
  "craft": 9536, 
  "draconian": 9537, 
  "Peres": 9538, 
  "hypocritical": 9539, 
  "laureates": 9540, 
  "biologists": 9541, 
  "beneficiary": 9542, 
  "brunt": 9543, 
  "cohesive": 9544, 
  "43": 9545, 
  "consist": 9546, 
  "curriculum": 9547, 
  "horizons": 9548, 
  "ubiquitous": 9549, 
  "ma": 9550, 
  "56": 9551, 
  "inconsistent": 9552, 
  ".org": 9553, 
  "ser@@": 9554, 
  "photo": 9555, 
  "nominee": 9556, 
  "crack": 9557, 
  "writes": 9558, 
  "clouds": 9559, 
  "Mo@@": 9560, 
  "entitlements": 9561, 
  "cruelty": 9562, 
  "muster": 9563, 
  "complicity": 9564, 
  "Franco": 9565, 
  "stall": 9566, 
  "spirits": 9567, 
  "shortsighted": 9568, 
  "textbooks": 9569, 
  "export-oriented": 9570, 
  "63": 9571, 
  "genetics": 9572, 
  "ushered": 9573, 
  "crush": 9574, 
  "slashed": 9575, 
  "ler": 9576, 
  "converting": 9577, 
  "ash@@": 9578, 
  "baseline": 9579, 
  "anticipation": 9580, 
  "accuse": 9581, 
  "amidst": 9582, 
  "EU-wide": 9583, 
  "Algerian": 9584, 
  "yearning": 9585, 
  "Le@@": 9586, 
  "mosques": 9587, 
  "tears": 9588, 
  "preventable": 9589, 
  "L": 9590, 
  "homegrown": 9591, 
  "hosting": 9592, 
  "neurons": 9593, 
  "creatures": 9594, 
  "unwelcome": 9595, 
  "sn@@": 9596, 
  "sin@@": 9597, 
  "Czechs": 9598, 
  "3.3": 9599, 
  "Mac": 9600, 
  "depreciate": 9601, 
  "appointments": 9602, 
  "ites": 9603, 
  "Strait": 9604, 
  "failings": 9605, 
  "outbreaks": 9606, 
  "-to-@@": 9607, 
  "vigor": 9608, 
  "antly": 9609, 
  "Zemin": 9610, 
  "Confucianism": 9611, 
  "joblessness": 9612, 
  "counter-cyclical": 9613, 
  "Amazon": 9614, 
  "escalate": 9615, 
  "favorably": 9616, 
  "trump": 9617, 
  "76": 9618, 
  "Dominican": 9619, 
  "startling": 9620, 
  "lat@@": 9621, 
  "borrower": 9622, 
  "Ambassador": 9623, 
  "succumbed": 9624, 
  "tantamount": 9625, 
  "prioritize": 9626, 
  "divine": 9627, 
  "sadness": 9628, 
  "supplying": 9629, 
  "rushed": 9630, 
  "referring": 9631, 
  "influencing": 9632, 
  "publics": 9633, 
  "900": 9634, 
  "tourists": 9635, 
  "avi@@": 9636, 
  "airports": 9637, 
  "Ceausescu": 9638, 
  "wo@@": 9639, 
  "1983": 9640, 
  "wives": 9641, 
  "kick": 9642, 
  "plunge": 9643, 
  "Sandy": 9644, 
  "disp@@": 9645, 
  "covers": 9646, 
  "hangs": 9647, 
  "human-@@": 9648, 
  "policemen": 9649, 
  "editor": 9650, 
  "clan": 9651, 
  "weighed": 9652, 
  "mar@@": 9653, 
  "time-@@": 9654, 
  "mal@@": 9655, 
  "appearances": 9656, 
  "thwarted": 9657, 
  "rested": 9658, 
  "insignificant": 9659, 
  "mask": 9660, 
  "enhances": 9661, 
  "marry": 9662, 
  "peacemaking": 9663, 
  "undesirable": 9664, 
  "Y": 9665, 
  "cornerstone": 9666, 
  "Sichuan": 9667, 
  "wartime": 9668, 
  "dating": 9669, 
  "evacuation": 9670, 
  "prowess": 9671, 
  "acknowledgement": 9672, 
  "coherence": 9673, 
  "PBC": 9674, 
  "tense": 9675, 
  "outs": 9676, 
  "egalitarian": 9677, 
  "violently": 9678, 
  "spectacle": 9679, 
  "fence": 9680, 
  "shop": 9681, 
  "admired": 9682, 
  "¥": 9683, 
  "killers": 9684, 
  "Reconstruction": 9685, 
  "hom@@": 9686, 
  "BP": 9687, 
  "coexist": 9688, 
  "lawlessness": 9689, 
  "statesman": 9690, 
  "pressured": 9691, 
  "wer": 9692, 
  "earners": 9693, 
  "charitable": 9694, 
  "stringent": 9695, 
  "slim": 9696, 
  "ory": 9697, 
  "wonderful": 9698, 
  "Il": 9699, 
  "runaway": 9700, 
  "0-@@": 9701, 
  "still-@@": 9702, 
  "v": 9703, 
  "belt": 9704, 
  "ruble": 9705, 
  "2000-@@": 9706, 
  "moderately": 9707, 
  "cured": 9708, 
  "premia": 9709, 
  "&apos;d": 9710, 
  "Cypriots": 9711, 
  "usher": 9712, 
  "buffer": 9713, 
  "Cypriot": 9714, 
  "concede": 9715, 
  "freeing": 9716, 
  "tors": 9717, 
  "ger@@": 9718, 
  "2.8": 9719, 
  "post@@": 9720, 
  "grounded": 9721, 
  "charm": 9722, 
  "directing": 9723, 
  "Bayrou": 9724, 
  "shipping": 9725, 
  "wrought": 9726, 
  "visionary": 9727, 
  "navigate": 9728, 
  "endowed": 9729, 
  "contrasts": 9730, 
  "proclaiming": 9731, 
  "devaluations": 9732, 
  "blessed": 9733, 
  "illegally": 9734, 
  "post-WWII": 9735, 
  "Mr": 9736, 
  "Albanians": 9737, 
  "one-quarter": 9738, 
  "accommodation": 9739, 
  "compel": 9740, 
  "Golden": 9741, 
  "surviving": 9742, 
  "immensely": 9743, 
  "Syrians": 9744, 
  "0.6": 9745, 
  "19@@": 9746, 
  "exposes": 9747, 
  "boats": 9748, 
  "calculus": 9749, 
  "discounted": 9750, 
  "alienation": 9751, 
  "epicenter": 9752, 
  "analyze": 9753, 
  "fanaticism": 9754, 
  "intensifying": 9755, 
  "reviews": 9756, 
  "incitement": 9757, 
  "Kenneth": 9758, 
  "twenty-first-century": 9759, 
  "counter-productive": 9760, 
  "Rouge": 9761, 
  "Khmer": 9762, 
  "sits": 9763, 
  "heartland": 9764, 
  "−": 9765, 
  "dawn": 9766, 
  "complicate": 9767, 
  "scared": 9768, 
  "windfall": 9769, 
  "correlated": 9770, 
  "sword": 9771, 
  "clearing": 9772, 
  "cattle": 9773, 
  "full-blown": 9774, 
  "uncovered": 9775, 
  "section": 9776, 
  "Pi@@": 9777, 
  "Truth": 9778, 
  "redefine": 9779, 
  "acceleration": 9780, 
  "approached": 9781, 
  "Protection": 9782, 
  "small-scale": 9783, 
  "6,000": 9784, 
  "pave": 9785, 
  "Manhattan": 9786, 
  "multipolar": 9787, 
  "loser": 9788, 
  "underpinning": 9789, 
  "library": 9790, 
  "veil": 9791, 
  "bordering": 9792, 
  "tax-@@": 9793, 
  "delays": 9794, 
  "swiftly": 9795, 
  "unpleasant": 9796, 
  "pot": 9797, 
  "teeth": 9798, 
  "ning": 9799, 
  "restaurants": 9800, 
  "spi@@": 9801, 
  "wheat": 9802, 
  "1977": 9803, 
  "gri@@": 9804, 
  "striving": 9805, 
  "weekly": 9806, 
  "thesis": 9807, 
  "pushes": 9808, 
  "misplaced": 9809, 
  "traction": 9810, 
  "Conservatives": 9811, 
  "restaurant": 9812, 
  "phased": 9813, 
  "all-powerful": 9814, 
  "subprime": 9815, 
  "il": 9816, 
  "advantageous": 9817, 
  "anti-Japanese": 9818, 
  "zeal": 9819, 
  "Junichiro": 9820, 
  "experimentation": 9821, 
  "tape": 9822, 
  "medals": 9823, 
  "apocalyptic": 9824, 
  "welcoming": 9825, 
  "exuberance": 9826, 
  "centralization": 9827, 
  "externalities": 9828, 
  "disguised": 9829, 
  "Shiites": 9830, 
  "regret": 9831, 
  "employer": 9832, 
  "grouping": 9833, 
  "injected": 9834, 
  "Antarctic": 9835, 
  "Staff": 9836, 
  "suspend": 9837, 
  "gigantic": 9838, 
  "Christmas": 9839, 
  "acquisitions": 9840, 
  "upheavals": 9841, 
  "cult": 9842, 
  "allocations": 9843, 
  "outrageous": 9844, 
  "tsunamis": 9845, 
  "egg": 9846, 
  "fre@@": 9847, 
  "adherents": 9848, 
  "Zionism": 9849, 
  "await": 9850, 
  "compounds": 9851, 
  "lengthy": 9852, 
  "Anglo-American": 9853, 
  "intolerable": 9854, 
  "gestures": 9855, 
  "est@@": 9856, 
  "discriminatory": 9857, 
  "installations": 9858, 
  "ot@@": 9859, 
  "Operation": 9860, 
  "risk-free": 9861, 
  "publicized": 9862, 
  "PIIGS": 9863, 
  "ali@@": 9864, 
  "bur@@": 9865, 
  "spo@@": 9866, 
  "1957": 9867, 
  "syndrome": 9868, 
  "investigating": 9869, 
  "Kyrgyzstan": 9870, 
  "formulation": 9871, 
  "Biden": 9872, 
  "intelligentsia": 9873, 
  "liver": 9874, 
  "redistributive": 9875, 
  "spy": 9876, 
  "issuance": 9877, 
  "legitimize": 9878, 
  "paradoxical": 9879, 
  "F.": 9880, 
  "corrected": 9881, 
  "displacement": 9882, 
  "fulness": 9883, 
  "offsetting": 9884, 
  "somebody": 9885, 
  "unambiguously": 9886, 
  "dishonest": 9887, 
  "backstop": 9888, 
  "Zhu": 9889, 
  "AAA": 9890, 
  "140": 9891, 
  "ately": 9892, 
  "technologically": 9893, 
  "ash": 9894, 
  "idle": 9895, 
  "foreign-currency": 9896, 
  "sacked": 9897, 
  "profligacy": 9898, 
  "filed": 9899, 
  "Lagos": 9900, 
  "declarations": 9901, 
  "brokers": 9902, 
  "elementary": 9903, 
  "ked": 9904, 
  "tracks": 9905, 
  "stereotypes": 9906, 
  "coins": 9907, 
  "Haitian": 9908, 
  "short-@@": 9909, 
  "disarm": 9910, 
  "reply": 9911, 
  "O": 9912, 
  "capitalization": 9913, 
  "headway": 9914, 
  "gged": 9915, 
  "ani": 9916, 
  "detection": 9917, 
  "ation@@": 9918, 
  "separatists": 9919, 
  "intellectually": 9920, 
  "Benghazi": 9921, 
  "disappearing": 9922, 
  "impeding": 9923, 
  "contamination": 9924, 
  "alarmed": 9925, 
  "oppressed": 9926, 
  "electrical": 9927, 
  "governs": 9928, 
  "inclination": 9929, 
  "confuse": 9930, 
  "ang@@": 9931, 
  "journal": 9932, 
  "Sheikh": 9933, 
  "letters": 9934, 
  "shallow": 9935, 
  "rationality": 9936, 
  "rep@@": 9937, 
  "Ab@@": 9938, 
  "compensating": 9939, 
  "preparation": 9940, 
  "58": 9941, 
  "tune": 9942, 
  "2.2": 9943, 
  "pat@@": 9944, 
  "sells": 9945, 
  "Hiroshima": 9946, 
  "endangering": 9947, 
  "privatize": 9948, 
  "52": 9949, 
  "puzzling": 9950, 
  "ph@@": 9951, 
  "amp@@": 9952, 
  "3.2": 9953, 
  "CAP": 9954, 
  "ker": 9955, 
  "turnover": 9956, 
  "dumping": 9957, 
  "credited": 9958, 
[...]
