{
  "eos": 0, 
  "UNK": 1, 
  "(NP": 2, 
  ")NP": 3, 
  ")VP": 4, 
  "(VP": 5, 
  ")PP": 6, 
  "(PP": 7, 
  ")S": 8, 
  "(S": 9, 
  "the": 10, 
  ",": 11, 
  ")S1": 12, 
  "(S1": 13, 
  ".": 14, 
  "(SBAR": 15, 
  ")SBAR": 16, 
  "of": 17, 
  ")ADVP": 18, 
  "(ADVP": 19, 
  "to": 20, 
  "and": 21, 
  ")ADJP": 22, 
  "(ADJP": 23, 
  "in": 24, 
  "a": 25, 
  "'@@": 26, 
  "that": 27, 
  "is": 28, 
  ")WHNP": 29, 
  "(WHNP": 30, 
  "s": 31, 
  "for": 32, 
  "as": 33, 
  "it": 34, 
  "be": 35, 
  "not": 36, 
  "are": 37, 
  "with": 38, 
  "on": 39, 
  "but": 40, 
  "-": 41, 
  "by": 42, 
  "'": 43, 
  "have": 44, 
  "has": 45, 
  "this": 46, 
  "will": 47, 
  "``": 48, 
  "from": 49, 
  "their": 50, 
  "its": 51, 
  ")PRN": 52, 
  "(PRN": 53, 
  "(WHADVP": 54, 
  ")WHADVP": 55, 
  "an": 56, 
  "more": 57, 
  "was": 58, 
  "they": 59, 
  "at": 60, 
  "or": 61, 
  ")PRT": 62, 
  "(PRT": 63, 
  "would": 64, 
  "can": 65, 
  "countries": 66, 
  "US": 67, 
  "which": 68, 
  "than": 69, 
  ")QP": 70, 
  "(QP": 71, 
  "world": 72, 
  "if": 73, 
  "we": 74, 
  "all": 75, 
  "-RRB-": 76, 
  "one": 77, 
  "-LRB-": 78, 
  "been": 79, 
  "so": 80, 
  "only": 81, 
  "China": 82, 
  "economic": 83, 
  "his": 84, 
  "new": 85, 
  ":": 86, 
  "there": 87, 
  "no": 88, 
  "government": 89, 
  "other": 90, 
  "political": 91, 
  "about": 92, 
  "%": 93, 
  "even": 94, 
  "should": 95, 
  "when": 96, 
  "such": 97, 
  "who": 98, 
  "were": 99, 
  "now": 100, 
  "also": 101, 
  "Europe": 102, 
  "these": 103, 
  "most": 104, 
  "what": 105, 
  "people": 106, 
  "many": 107, 
  ";": 108, 
  "he": 109, 
  "some": 110, 
  "do": 111, 
  "could": 112, 
  "global": 113, 
  "?": 114, 
  "years": 115, 
  "European": 116, 
  "(SQ": 117, 
  ")SQ": 118, 
  "financial": 119, 
  "country": 120, 
  "growth": 121, 
  "because": 122, 
  "must": 123, 
  "into": 124, 
  "may": 125, 
  "America": 126, 
  "had": 127, 
  "much": 128, 
  "over": 129, 
  "power": 130, 
  "(CONJP": 131, 
  ")CONJP": 132, 
  "them": 133, 
  "time": 134, 
  "economy": 135, 
  "policy": 136, 
  "out": 137, 
  "while": 138, 
  "between": 139, 
  "after": 140, 
  "those": 141, 
  "like": 142, 
  "Russia": 143, 
  "EU": 144, 
  "up": 145, 
  "crisis": 146, 
  "I": 147, 
  "international": 148, 
  "our": 149, 
  "first": 150, 
  "two": 151, 
  "any": 152, 
  "public": 153, 
  "both": 154, 
  "how": 155, 
  "against": 156, 
  "well": 157, 
  "indeed": 158, 
  "today": 159, 
  "system": 160, 
  ")WHPP": 161, 
  "(WHPP": 162, 
  "United": 163, 
  "way": 164, 
  "year": 165, 
  "need": 166, 
  "state": 167, 
  "too": 168, 
  "American": 169, 
  "market": 170, 
  "make": 171, 
  "just": 172, 
  "military": 173, 
  "less": 174, 
  "markets": 175, 
  "does": 176, 
  "change": 177, 
  "own": 178, 
  "become": 179, 
  "since": 180, 
  "last": 181, 
  "where": 182, 
  "(SBARQ": 183, 
  ")SBARQ": 184, 
  "war": 185, 
  "debt": 186, 
  "leaders": 187, 
  "$": 188, 
  "support": 189, 
  "national": 190, 
  "trade": 191, 
  "yet": 192, 
  "governments": 193, 
  "President": 194, 
  "still": 195, 
  "without": 196, 
  "banks": 197, 
  "far": 198, 
  "foreign": 199, 
  "long": 200, 
  "being": 201, 
  "same": 202, 
  "might": 203, 
  "future": 204, 
  "example": 205, 
  "t": 206, 
  "did": 207, 
  "through": 208, 
  "important": 209, 
  "recent": 210, 
  "then": 211, 
  "social": 212, 
  "n@@": 213, 
  "high": 214, 
  "Japan": 215, 
  "rates": 216, 
  "policies": 217, 
  "interest": 218, 
  "States": 219, 
  "Chinese": 220, 
  "Iraq": 221, 
  "real": 222, 
  ")FRAG": 223, 
  "(FRAG": 224, 
  "Israel": 225, 
  "made": 226, 
  "under": 227, 
  "current": 228, 
  "good": 229, 
  "India": 230, 
  "capital": 231, 
  "fiscal": 232, 
  "likely": 233, 
  "security": 234, 
  "democracy": 235, 
  "prices": 236, 
  "end": 237, 
  "large": 238, 
  "before": 239, 
  "course": 240, 
  "nuclear": 241, 
  "rather": 242, 
  "human": 243, 
  "part": 244, 
  "right": 245, 
  "take": 246, 
  "states": 247, 
  ")UCP": 248, 
  "(UCP": 249, 
  "Germany": 250, 
  "very": 251, 
  "problem": 252, 
  "work": 253, 
  "another": 254, 
  "development": 255, 
  "past": 256, 
  "rate": 257, 
  "use": 258, 
  "however": 259, 
  "better": 260, 
  "Bush": 261, 
  "investment": 262, 
  "Iran": 263, 
  "energy": 264, 
  "often": 265, 
  "Union": 266, 
  "major": 267, 
  "during": 268, 
  "risk": 269, 
  "oil": 270, 
  "including": 271, 
  "result": 272, 
  "you": 273, 
  "why": 274, 
  "help": 275, 
  "problems": 276, 
  "fact": 277, 
  "us": 278, 
  "billion": 279, 
  "institutions": 280, 
  "order": 281, 
  "thus": 282, 
  "three": 283, 
  "money": 284, 
  "economies": 285, 
  "moreover": 286, 
  "few": 287, 
  "little": 288, 
  "whether": 289, 
  "among": 290, 
  "around": 291, 
  "Obama": 292, 
  "--": 293, 
  "West": 294, 
  "poor": 295, 
  "East": 296, 
  "rights": 297, 
  "given": 298, 
  "France": 299, 
  "means": 300, 
  "tax": 301, 
  "process": 302, 
  "role": 303, 
  "region": 304, 
  "developing": 305, 
  "others": 306, 
  "already": 307, 
  "Bank": 308, 
  "different": 309, 
  "back": 310, 
  "second": 311, 
  "down": 312, 
  "increase": 313, 
  "GDP": 314, 
  "central": 315, 
  "members": 316, 
  "demand": 317, 
  "within": 318, 
  "spending": 319, 
  "higher": 320, 
  "reform": 321, 
  "case": 322, 
  "least": 323, 
  "Asia": 324, 
  "clear": 325, 
  "needs": 326, 
  "democratic": 327, 
  "come": 328, 
  "ago": 329, 
  "private": 330, 
  "almost": 331, 
  "next": 332, 
  "(SINV": 333, 
  ")SINV": 334, 
  "life": 335, 
  "each": 336, 
  "itself": 337, 
  "million": 338, 
  "never": 339, 
  "peace": 340, 
  "needed": 341, 
  "law": 342, 
  "&": 343, 
  "domestic": 344, 
  "strong": 345, 
  "history": 346, 
  "society": 347, 
  "greater": 348, 
  "perhaps": 349, 
  "remains": 350, 
  "seems": 351, 
  "point": 352, 
  "inflation": 353, 
  "regime": 354, 
  "women": 355, 
  "costs": 356, 
  "World": 357, 
  "Africa": 358, 
  "despite": 359, 
  "price": 360, 
  "remain": 361, 
  "see": 362, 
  "health": 363, 
  ")NX": 364, 
  "(NX": 365, 
  "once": 366, 
  "control": 367, 
  "income": 368, 
  "interests": 369, 
  "continue": 370, 
  "put": 371, 
  "administration": 372, 
  "climate": 373, 
  "politics": 374, 
  "currency": 375, 
  "free": 376, 
  "every": 377, 
  "especially": 378, 
  "French": 379, 
  "possible": 380, 
  "force": 381, 
  "further": 382, 
  "want": 383, 
  "say": 384, 
  "rise": 385, 
  "themselves": 386, 
  "IMF": 387, 
  "common": 388, 
  "UN": 389, 
  "euro": 390, 
  "difficult": 391, 
  "great": 392, 
  "best": 393, 
  "number": 394, 
  "population": 395, 
  "growing": 396, 
  "former": 397, 
  "Western": 398, 
  "president": 399, 
  "The": 400, 
  "used": 401, 
  "place": 402, 
  "get": 403, 
  "him": 404, 
  "true": 405, 
  "longer": 406, 
  "enough": 407, 
  "question": 408, 
  "recently": 409, 
  "resources": 410, 
  "Turkey": 411, 
  "set": 412, 
  "Arab": 413, 
  "Putin": 414, 
  "forces": 415, 
  "instead": 416, 
  "election": 417, 
  "eurozone": 418, 
  "decades": 419, 
  "level": 420, 
  "my": 421, 
  "believe": 422, 
  "led": 423, 
  "business": 424, 
  "companies": 425, 
  "small": 426, 
  "member": 427, 
  "off": 428, 
  "again": 429, 
  "dollar": 430, 
  "monetary": 431, 
  "able": 432, 
  "provide": 433, 
  "sense": 434, 
  "citizens": 435, 
  "South": 436, 
  "century": 437, 
  "stability": 438, 
  "though": 439, 
  "know": 440, 
  "efforts": 441, 
  "issues": 442, 
  "go": 443, 
  "key": 444, 
  "face": 445, 
  "Russian": 446, 
  "left": 447, 
  "unemployment": 448, 
  "lead": 449, 
  "rule": 450, 
  "long-term": 451, 
  "benefits": 452, 
  "terms": 453, 
  "serious": 454, 
  "Middle": 455, 
  "Americans": 456, 
  "reforms": 457, 
  "Korea": 458, 
  "cost": 459, 
  "sector": 460, 
  "ever": 461, 
  "leadership": 462, 
  "simply": 463, 
  "early": 464, 
  "always": 465, 
  "view": 466, 
  "War": 467, 
  "(INTJ": 468, 
  ")INTJ": 469, 
  "issue": 470, 
  "reduce": 471, 
  "exchange": 472, 
  "education": 473, 
  "labor": 474, 
  "until": 475, 
  "old": 476, 
  "based": 477, 
  "elections": 478, 
  "making": 479, 
  "although": 480, 
  "big": 481, 
  "low": 482, 
  "rich": 483, 
  "increasingly": 484, 
  "find": 485, 
  "Palestinian": 486, 
  "particularly": 487, 
  "reason": 488, 
  "research": 489, 
  "per": 490, 
  "North": 491, 
  "poverty": 492, 
  "community": 493, 
  "local": 494, 
  "workers": 495, 
  "hard": 496, 
  "home": 497, 
  "regional": 498, 
  "times": 499, 
  "budget": 500, 
  "strategy": 501, 
  "value": 502, 
  "credit": 503, 
  "said": 504, 
  "investors": 505, 
  "politicians": 506, 
  "conflict": 507, 
  "emerging": 508, 
  "deficit": 509, 
  "relations": 510, 
  "party": 511, 
  "her": 512, 
  "children": 513, 
  "whose": 514, 
  "decade": 515, 
  "Council": 516, 
  "approach": 517, 
  "parties": 518, 
  "lower": 519, 
  "risks": 520, 
  "effective": 521, 
  "create": 522, 
  "open": 523, 
  "services": 524, 
  "turn": 525, 
  "bank": 526, 
  "several": 527, 
  "Minister": 528, 
  "action": 529, 
  "run": 530, 
  "share": 531, 
  "together": 532, 
  "increased": 533, 
  "jobs": 534, 
  "form": 535, 
  "levels": 536, 
  "hope": 537, 
  "pay": 538, 
  "think": 539, 
  "rising": 540, 
  "fall": 541, 
  "finance": 542, 
  "Party": 543, 
  "potential": 544, 
  "opposition": 545, 
  "called": 546, 
  "groups": 547, 
  "information": 548, 
  "-@@": 549, 
  "violence": 550, 
  "similar": 551, 
  "necessary": 552, 
  "threat": 553, 
  "NATO": 554, 
  "Afghanistan": 555, 
  "seen": 556, 
  "officials": 557, 
  "success": 558, 
  "seem": 559, 
  "toward": 560, 
  "nor": 561, 
  "return": 562, 
  "ways": 563, 
  "developed": 564, 
  "agreement": 565, 
  "done": 566, 
  "across": 567, 
  "challenge": 568, 
  "day": 569, 
  "cause": 570, 
  "Soviet": 571, 
  "rules": 572, 
  "measures": 573, 
  "idea": 574, 
  "Pakistan": 575, 
  "changes": 576, 
  ")X": 577, 
  "(X": 578, 
  "weapons": 579, 
  "failed": 580, 
  "lack": 581, 
  "short": 582, 
  "nothing": 583, 
  "deal": 584, 
  "failure": 585, 
  "according": 586, 
  "Latin": 587, 
  "taken": 588, 
  "recession": 589, 
  "conditions": 590, 
  "powerful": 591, 
  "months": 592, 
  "main": 593, 
  "firms": 594, 
  "balance": 595, 
  "half": 596, 
  "British": 597, 
  "influence": 598, 
  "majority": 599, 
  "makes": 600, 
  "became": 601, 
  "something": 602, 
  "rest": 603, 
  "really": 604, 
  "away": 605, 
  "position": 606, 
  "pressure": 607, 
  "beyond": 608, 
  "values": 609, 
  "production": 610, 
  "modern": 611, 
  "freedom": 612, 
  "look": 613, 
  "requires": 614, 
  "debate": 615, 
  "either": 616, 
  "young": 617, 
  "group": 618, 
  "food": 619, 
  "deficits": 620, 
  "systems": 621, 
  "huge": 622, 
  "fear": 623, 
  "assets": 624, 
  "found": 625, 
  "bad": 626, 
  "give": 627, 
  "religious": 628, 
  "here": 629, 
  "created": 630, 
  "civil": 631, 
  "prevent": 632, 
  "significant": 633, 
  "Europeans": 634, 
  "leading": 635, 
  "progress": 636, 
  "Central": 637, 
  "bring": 638, 
  "lost": 639, 
  "German": 640, 
  "having": 641, 
  "term": 642, 
  "massive": 643, 
  "media": 644, 
  "technology": 645, 
  "keep": 646, 
  "increasing": 647, 
  "aid": 648, 
  "model": 649, 
  "legal": 650, 
  "response": 651, 
  "program": 652, 
  "areas": 653, 
  "consider": 654, 
  "Britain": 655, 
  "decline": 656, 
  "globalization": 657, 
  "leader": 658, 
  "start": 659, 
  "banking": 660, 
  "later": 661, 
  "1990": 662, 
  "employment": 663, 
  "strategic": 664, 
  "access": 665, 
  "matter": 666, 
  "consequences": 667, 
  "natural": 668, 
  "ECB": 669, 
  "/@@": 670, 
  "things": 671, 
  "single": 672, 
  "exports": 673, 
  "official": 674, 
  "Ukraine": 675, 
  "challenges": 676, 
  "doing": 677, 
  "Greece": 678, 
  "five": 679, 
  "20": 680, 
  "impact": 681, 
  "corruption": 682, 
  "situation": 683, 
  "advanced": 684, 
  "began": 685, 
  "finally": 686, 
  "move": 687, 
  "effect": 688, 
  "alone": 689, 
  "full": 690, 
  "probably": 691, 
  "live": 692, 
  "period": 693, 
  "presidential": 694, 
  "four": 695, 
  "play": 696, 
  "ensure": 697, 
  "water": 698, 
  "cooperation": 699, 
  "ability": 700, 
  "Commission": 701, 
  "Italy": 702, 
  "worse": 703, 
  "Prime": 704, 
  "Asian": 705, 
  "2008": 706, 
  "consumption": 707, 
  "un@@": 708, 
  "soon": 709, 
  "terrorism": 710, 
  "clearly": 711, 
  "individual": 712, 
  "close": 713, 
  "average": 714, 
  "fundamental": 715, 
  "evidence": 716, 
  "wealth": 717, 
  "behind": 718, 
  "#": 719, 
  "total": 720, 
  "Muslim": 721, 
  "funds": 722, 
  "care": 723, 
  "job": 724, 
  "effort": 725, 
  "let": 726, 
  "wrong": 727, 
  "require": 728, 
  "emissions": 729, 
  "recovery": 730, 
  "solution": 731, 
  "goods": 732, 
  "lives": 733, 
  "nations": 734, 
  "opportunity": 735, 
  "third": 736, 
  "integration": 737, 
  "programs": 738, 
  "late": 739, 
  "focus": 740, 
  "popular": 741, 
  "effects": 742, 
  "Japanese": 743, 
  "experience": 744, 
  "confidence": 745, 
  "taxes": 746, 
  "mean": 747, 
  "Islamic": 748, 
  "collapse": 749, 
  "living": 750, 
  "defense": 751, 
  "took": 752, 
  "she": 753, 
  "Fund": 754, 
  "moral": 755, 
  "Egypt": 756, 
  "cut": 757, 
  "decision": 758, 
  "science": 759, 
  "traditional": 760, 
  "achieve": 761, 
  "everyone": 762, 
  "allow": 763, 
  "came": 764, 
  "taking": 765, 
  "Hamas": 766, 
  "hand": 767, 
  "International": 768, 
  "attention": 769, 
  "capacity": 770, 
  "vote": 771, 
  "Israeli": 772, 
  "comes": 773, 
  "10": 774, 
  "act": 775, 
  "largely": 776, 
  "understand": 777, 
  "gas": 778, 
  "coming": 779, 
  "following": 780, 
  "Security": 781, 
  "Brazil": 782, 
  "particular": 783, 
  "avoid": 784, 
  "New": 785, 
  "powers": 786, 
  "campaign": 787, 
  "negotiations": 788, 
  "side": 789, 
  "Spain": 790, 
  "competition": 791, 
  "plan": 792, 
  "top": 793, 
  "successful": 794, 
  "cases": 795, 
  "limited": 796, 
  "reality": 797, 
  "Palestinians": 798, 
  "re@@": 799, 
  "kind": 800, 
  "men": 801, 
  "call": 802, 
  "held": 803, 
  "largest": 804, 
  "using": 805, 
  "produce": 806, 
  "above": 807, 
  "annual": 808, 
  "expected": 809, 
  "economists": 810, 
  "reasons": 811, 
  "working": 812, 
  "supply": 813, 
  "actually": 814, 
  "benefit": 815, 
  "outside": 816, 
  "decisions": 817, 
  "basic": 818, 
  "hold": 819, 
  "culture": 820, 
  "infrastructure": 821, 
  "towards": 822, 
  "contrast": 823, 
  "status": 824, 
  "show": 825, 
  "brought": 826, 
  "responsibility": 827, 
  "alternative": 828, 
  "minister": 829, 
  "industrial": 830, 
  "independent": 831, 
  "rapid": 832, 
  "relative": 833, 
  "attacks": 834, 
  "certain": 835, 
  "relatively": 836, 
  "highly": 837, 
  "cuts": 838, 
  "stock": 839, 
  "accept": 840, 
  "death": 841, 
  "African": 842, 
  "governance": 843, 
  "known": 844, 
  "certainly": 845, 
  "Mexico": 846, 
  "me": 847, 
  "thought": 848, 
  "step": 849, 
  "address": 850, 
  "behavior": 851, 
  "results": 852, 
  "general": 853, 
  "standards": 854, 
  "bonds": 855, 
  "concerns": 856, 
  "authorities": 857, 
  "family": 858, 
  "voters": 859, 
  "revolution": 860, 
  "environment": 861, 
  "weak": 862, 
  "direct": 863, 
  "productivity": 864, 
  "words": 865, 
  "allowed": 866, 
  "50": 867, 
  "land": 868, 
  "man": 869, 
  "days": 870, 
  "environmental": 871, 
  "nearly": 872, 
  "Nations": 873, 
  "elsewhere": 874, 
  "protect": 875, 
  "throughout": 876, 
  "sometimes": 877, 
  "agenda": 878, 
  "neither": 879, 
  "stimulus": 880, 
  "building": 881, 
  "build": 882, 
  "fight": 883, 
  "appears": 884, 
  "unlikely": 885, 
  "helped": 886, 
  "forced": 887, 
  "scientific": 888, 
  "deep": 889, 
  "easy": 890, 
  "Great": 891, 
  "warming": 892, 
  "investments": 893, 
  "crises": 894, 
  "individuals": 895, 
  "answer": 896, 
  "structural": 897, 
  "unfortunately": 898, 
  "creating": 899, 
  "meeting": 900, 
  "30": 901, 
  "age": 902, 
  "1": 903, 
  "caused": 904, 
  "line": 905, 
  "maintain": 906, 
  "stop": 907, 
  "dangerous": 908, 
  "industry": 909, 
  "millions": 910, 
  "goal": 911, 
  "intervention": 912, 
  "eventually": 913, 
  "argue": 914, 
  "news": 915, 
  "societies": 916, 
  "2009": 917, 
  "quickly": 918, 
  "larger": 919, 
  "movement": 920, 
  "required": 921, 
  "era": 922, 
  "nbsp": 923, 
  "respect": 924, 
  "nation": 925, 
  "commitment": 926, 
  "nature": 927, 
  "independence": 928, 
  "events": 929, 
  "becoming": 930, 
  "merely": 931, 
  "reserves": 932, 
  "housing": 933, 
  "Syria": 934, 
  "reducing": 935, 
  "September": 936, 
  "followed": 937, 
  "include": 938, 
  "2010": 939, 
  "claim": 940, 
  "policymakers": 941, 
  "parts": 942, 
  "simple": 943, 
  "therefore": 944, 
  "basis": 945, 
  "sure": 946, 
  "along": 947, 
  "outcome": 948, 
  "shift": 949, 
  "moment": 950, 
  "due": 951, 
  "provided": 952, 
  "Argentina": 953, 
  "cultural": 954, 
  "union": 955, 
  "turned": 956, 
  "1980": 957, 
  "ten": 958, 
  "whole": 959, 
  "external": 960, 
  "dollars": 961, 
  "offer": 962, 
  "owing": 963, 
  "thing": 964, 
  "seek": 965, 
  "report": 966, 
  "insurance": 967, 
  "fully": 968, 
  "going": 969, 
  "disease": 970, 
  "entire": 971, 
  "membership": 972, 
  "relationship": 973, 
  "beginning": 974, 
  "account": 975, 
  "Gaza": 976, 
  "performance": 977, 
  "assistance": 978, 
  "elected": 979, 
  "reach": 980, 
  "organizations": 981, 
  "established": 982, 
  "carbon": 983, 
  "currently": 984, 
  "similarly": 985, 
  "increases": 986, 
  "area": 987, 
  "meet": 988, 
  "choice": 989, 
  "police": 990, 
  "mass": 991, 
  "feel": 992, 
  "George": 993, 
  "thinking": 994, 
  "liberal": 995, 
  "2001": 996, 
  "London": 997, 
  "questions": 998, 
  "your": 999, 
  "generation": 1000, 
  "month": 1001, 
  "internal": 1002, 
  "recognize": 1003, 
  "creation": 1004, 
  "office": 1005, 
  "begin": 1006, 
  "wants": 1007, 
  "Treaty": 1008, 
  "critical": 1009, 
  "chance": 1010, 
  "loss": 1011, 
  "concern": 1012, 
  "attack": 1013, 
  "knowledge": 1014, 
  "willing": 1015, 
  "regions": 1016, 
  "terrorist": 1017, 
  "2000": 1018, 
  "160": 1019, 
  "Washington": 1020, 
  "complex": 1021, 
  "institutional": 1022, 
  "roughly": 1023, 
  "source": 1024, 
  "authority": 1025, 
  "sustainable": 1026, 
  "Poland": 1027, 
  "ideas": 1028, 
  "improve": 1029, 
  "incentives": 1030, 
  "raise": 1031, 
  "economics": 1032, 
  "corporate": 1033, 
  "proposed": 1034, 
  "army": 1035, 
  "grow": 1036, 
  "obvious": 1037, 
  "2007": 1038, 
  "Saudi": 1039, 
  "non-@@": 1040, 
  "trying": 1041, 
  "talks": 1042, 
  "legitimacy": 1043, 
  "victory": 1044, 
  "available": 1045, 
  "size": 1046, 
  "prime": 1047, 
  "principle": 1048, 
  "Congress": 1049, 
  "Sarkozy": 1050, 
  "products": 1051, 
  "impossible": 1052, 
  "essential": 1053, 
  "differences": 1054, 
  "historical": 1055, 
  "politically": 1056, 
  "laws": 1057, 
  "management": 1058, 
  "anything": 1059, 
  "continued": 1060, 
  "path": 1061, 
  "positive": 1062, 
  "regulation": 1063, 
  "actions": 1064, 
  "develop": 1065, 
  "summit": 1066, 
  "savings": 1067, 
  "fail": 1068, 
  "promote": 1069, 
  "reduced": 1070, 
  "ultimately": 1071, 
  "personal": 1072, 
  "easily": 1073, 
  "technologies": 1074, 
  "capitalism": 1075, 
  "Islam": 1076, 
  "de": 1077, 
  "spread": 1078, 
  "export": 1079, 
  "so-called": 1080, 
  "losses": 1081, 
  "damage": 1082, 
  "drug": 1083, 
  "opportunities": 1084, 
  "rapidly": 1085, 
  "transition": 1086, 
  "understanding": 1087, 
  "40": 1088, 
  "gain": 1089, 
  "unless": 1090, 
  "factors": 1091, 
  "Barack": 1092, 
  "scale": 1093, 
  "ahead": 1094, 
  "consensus": 1095, 
  "justice": 1096, 
  "continues": 1097, 
  "theory": 1098, 
  "lending": 1099, 
  "company": 1100, 
  "aimed": 1101, 
  "boom": 1102, 
  "matters": 1103, 
  "additional": 1104, 
  "save": 1105, 
  "2004": 1106, 
  "wars": 1107, 
  "appear": 1108, 
  "Lebanon": 1109, 
  "Fed": 1110, 
  "suggests": 1111, 
  "himself": 1112, 
  "special": 1113, 
  "forward": 1114, 
  "committed": 1115, 
  "welfare": 1116, 
  "2005": 1117, 
  "sides": 1118, 
  "story": 1119, 
  "changed": 1120, 
  "vision": 1121, 
  "cities": 1122, 
  "seemed": 1123, 
  "protection": 1124, 
  "II": 1125, 
  "trillion": 1126, 
  "2": 1127, 
  "try": 1128, 
  "troops": 1129, 
  "Indian": 1130, 
  "opinion": 1131, 
  "asset": 1132, 
  "treatment": 1133, 
  "11": 1134, 
  "competitive": 1135, 
  "extreme": 1136, 
  "prosperity": 1137, 
  "stable": 1138, 
  "Kosovo": 1139, 
  "demands": 1140, 
  "inequality": 1141, 
  "Georgia": 1142, 
  "saving": 1143, 
  "core": 1144, 
  "loans": 1145, 
  "Muslims": 1146, 
  "directly": 1147, 
  "constitution": 1148, 
  "ethnic": 1149, 
  "Eastern": 1150, 
  "buy": 1151, 
  "follow": 1152, 
  "output": 1153, 
  "various": 1154, 
  "responsible": 1155, 
  "diplomatic": 1156, 
  "claims": 1157, 
  "allies": 1158, 
  "financing": 1159, 
  "head": 1160, 
  "six": 1161, 
  "National": 1162, 
  "usually": 1163, 
  "immediate": 1164, 
  "expect": 1165, 
  "vast": 1166, 
  "leave": 1167, 
  "existing": 1168, 
  "coalition": 1169, 
  "households": 1170, 
  "asked": 1171, 
  "whatever": 1172, 
  "happened": 1173, 
  "difference": 1174, 
  "importance": 1175, 
  "thousands": 1176, 
  "Iraqi": 1177, 
  "Federal": 1178, 
  "happen": 1179, 
  "presidency": 1180, 
  "started": 1181, 
  "favor": 1182, 
  "doubt": 1183, 
  "else": 1184, 
  "none": 1185, 
  "net": 1186, 
  "default": 1187, 
  "paid": 1188, 
  "sanctions": 1189, 
  "re-@@": 1190, 
  "amount": 1191, 
  "quality": 1192, 
  "neighbors": 1193, 
  "contrary": 1194, 
  "limits": 1195, 
  "Iranian": 1196, 
  "upon": 1197, 
  "unlike": 1198, 
  "slow": 1199, 
  "15": 1200, 
  "compared": 1201, 
  "democracies": 1202, 
  "agreed": 1203, 
  "ing": 1204, 
  "Internet": 1205, 
  "3": 1206, 
  "reduction": 1207, 
  "otherwise": 1208, 
  "ordinary": 1209, 
  "produced": 1210, 
  "reached": 1211, 
  "(WHADJP": 1212, 
  "press": 1213, 
  "stronger": 1214, 
  ")WHADJP": 1215, 
  "severe": 1216, 
  "short-term": 1217, 
  "present": 1218, 
  "achieved": 1219, 
  "General": 1220, 
  "Cold": 1221, 
  "worldwide": 1222, 
  "negative": 1223, 
  "abroad": 1224, 
  "record": 1225, 
  "direction": 1226, 
  "overall": 1227, 
  "surplus": 1228, 
  "facing": 1229, 
  "earlier": 1230, 
  "whereas": 1231, 
  "soft": 1232, 
  "ed": 1233, 
  "2006": 1234, 
  "widely": 1235, 
  "tried": 1236, 
  "data": 1237, 
  "went": 1238, 
  "framework": 1239, 
  "competitiveness": 1240, 
  "argument": 1241, 
  "project": 1242, 
  "mostly": 1243, 
  "truth": 1244, 
  "attempt": 1245, 
  "calls": 1246, 
  "liquidity": 1247, 
  "effectively": 1248, 
  "suggest": 1249, 
  "class": 1250, 
  "enormous": 1251, 
  "service": 1252, 
  "built": 1253, 
  "steps": 1254, 
  "Secretary": 1255, 
  "innovation": 1256, 
  "shows": 1257, 
  "plans": 1258, 
  "ground": 1259, 
  "study": 1260, 
  "Republic": 1261, 
  "task": 1262, 
  "Kremlin": 1263, 
  "am": 1264, 
  "boost": 1265, 
  "excessive": 1266, 
  "vital": 1267, 
  "spent": 1268, 
  "sovereign": 1269, 
  "spend": 1270, 
  "lose": 1271, 
  "providing": 1272, 
  "previous": 1273, 
  "below": 1274, 
  "projects": 1275, 
  "struggle": 1276, 
  "principles": 1277, 
  "extent": 1278, 
  "threats": 1279, 
  "standard": 1280, 
  "crucial": 1281, 
  "activities": 1282, 
  "candidate": 1283, 
  "radical": 1284, 
  "advantage": 1285, 
  "trust": 1286, 
  "hundreds": 1287, 
  "game": 1288, 
  "designed": 1289, 
  "fighting": 1290, 
  "widespread": 1291, 
  "whom": 1292, 
  "structure": 1293, 
  "burden": 1294, 
  "Taiwan": 1295, 
  "goals": 1296, 
  "stand": 1297, 
  "anyone": 1298, 
  "name": 1299, 
  "safety": 1300, 
  "agree": 1301, 
  "substantial": 1302, 
  "provides": 1303, 
  "talk": 1304, 
  "takes": 1305, 
  "imbalances": 1306, 
  "victims": 1307, 
  "Greek": 1308, 
  "25": 1309, 
  "wages": 1310, 
  "farmers": 1311, 
  "everything": 1312, 
  "argued": 1313, 
  "YORK": 1314, 
  "meanwhile": 1315, 
  "equal": 1316, 
  "near": 1317, 
  "normal": 1318, 
  "consumers": 1319, 
  "borders": 1320, 
  "secure": 1321, 
  "collective": 1322, 
  "students": 1323, 
  "Court": 1324, 
  "crimes": 1325, 
  "thereby": 1326, 
  "parliament": 1327, 
  "body": 1328, 
  "scientists": 1329, 
  "electoral": 1330, 
  "reflect": 1331, 
  "adopted": 1332, 
  "reflects": 1333, 
  "serve": 1334, 
  "protests": 1335, 
  "Clinton": 1336, 
  "businesses": 1337, 
  "drugs": 1338, 
  "shown": 1339, 
  "G-20": 1340, 
  "sources": 1341, 
  "regimes": 1342, 
  "falling": 1343, 
  "becomes": 1344, 
  "absence": 1345, 
  "test": 1346, 
  "constitutional": 1347, 
  "currencies": 1348, 
  "gains": 1349, 
  "fair": 1350, 
  "safe": 1351, 
  "establish": 1352, 
  "goes": 1353, 
  "Ireland": 1354, 
  "prove": 1355, 
  "sectors": 1356, 
  "federal": 1357, 
  "involved": 1358, 
  "conflicts": 1359, 
  "100": 1360, 
  "addition": 1361, 
  "expansion": 1362, 
  "gap": 1363, 
  "target": 1364, 
  "worth": 1365, 
  "supported": 1366, 
  "points": 1367, 
  "person": 1368, 
  "mainly": 1369, 
  "property": 1370, 
  "circumstances": 1371, 
  "getting": 1372, 
  "December": 1373, 
  "improved": 1374, 
  "won": 1375, 
  "told": 1376, 
  "supposed": 1377, 
  "regulatory": 1378, 
  "sought": 1379, 
  "running": 1380, 
  "identity": 1381, 
  "Communist": 1382, 
  "Monetary": 1383, 
  "hands": 1384, 
  "book": 1385, 
  "imports": 1386, 
  "causes": 1387, 
  "subsidies": 1388, 
  "hit": 1389, 
  "!": 1390, 
  "center": 1391, 
  "candidates": 1392, 
  "giving": 1393, 
  "consumer": 1394, 
  "worst": 1395, 
  "Al": 1396, 
  "shared": 1397, 
  "November": 1398, 
  "sovereignty": 1399, 
  "equity": 1400, 
  "John": 1401, 
  "specific": 1402, 
  "danger": 1403, 
  "treaty": 1404, 
  "practice": 1405, 
  "fell": 1406, 
  "alliance": 1407, 
  "vulnerable": 1408, 
  "ask": 1409, 
  "views": 1410, 
  "smaller": 1411, 
  "ruling": 1412, 
  "permanent": 1413, 
  "school": 1414, 
  "flows": 1415, 
  "macroeconomic": 1416, 
  "communities": 1417, 
  "1970": 1418, 
  "partly": 1419, 
  "generally": 1420, 
  "in@@": 1421, 
  "exist": 1422, 
  "partners": 1423, 
  "message": 1424, 
  "expectations": 1425, 
  "faces": 1426, 
  "biggest": 1427, 
  "strengthen": 1428, 
  "language": 1429, 
  "Kingdom": 1430, 
  "60": 1431, 
  "push": 1432, 
  "win": 1433, 
  "industries": 1434, 
  "join": 1435, 
  "terrorists": 1436, 
  "tend": 1437, 
  "worked": 1438, 
  "type": 1439, 
  "learned": 1440, 
  "depends": 1441, 
  "prospects": 1442, 
  "5": 1443, 
  "W.": 1444, 
  "lesson": 1445, 
  "seeking": 1446, 
  "received": 1447, 
  "Moscow": 1448, 
  "likewise": 1449, 
  "nowadays": 1450, 
  "seriously": 1451, 
  "unable": 1452, 
  "cancer": 1453, 
  "trading": 1454, 
  "instability": 1455, 
  "significantly": 1456, 
  "city": 1457, 
  "Blair": 1458, 
  "factor": 1459, 
  "faster": 1460, 
  "middle": 1461, 
  "diplomacy": 1462, 
  "2003": 1463, 
  "Reserve": 1464, 
  "lot": 1465, 
  "peaceful": 1466, 
  "space": 1467, 
  "religion": 1468, 
  "stage": 1469, 
  "mind": 1470, 
  "week": 1471, 
  "encourage": 1472, 
  "45": 1473, 
  "weeks": 1474, 
  "Saddam": 1475, 
  "solutions": 1476, 
  "armed": 1477, 
  "nevertheless": 1478, 
  "gave": 1479, 
  "medical": 1480, 
  "concerned": 1481, 
  "Libya": 1482, 
  "possibility": 1483, 
  "manage": 1484, 
  "liberalization": 1485, 
  "arms": 1486, 
  "revenues": 1487, 
  "combined": 1488, 
  "affairs": 1489, 
  "activity": 1490, 
  "ties": 1491, 
  "focused": 1492, 
  "borrowing": 1493, 
  "operations": 1494, 
  "house": 1495, 
  "equally": 1496, 
  "base": 1497, 
  "agencies": 1498, 
  "killed": 1499, 
  "parliamentary": 1500, 
  "everywhere": 1501, 
  "sign": 1502, 
  "poorest": 1503, 
  "Indonesia": 1504, 
  "lies": 1505, 
  "intellectual": 1506, 
  "disaster": 1507, 
  "anti-@@": 1508, 
  "round": 1509, 
  "speech": 1510, 
  "places": 1511, 
  "technological": 1512, 
  "closer": 1513, 
  "Russians": 1514, 
  "models": 1515, 
  "invest": 1516, 
  "looks": 1517, 
  "saw": 1518, 
  "faced": 1519, 
  "promises": 1520, 
  "deeply": 1521, 
  "priority": 1522, 
  "rural": 1523, 
  "funding": 1524, 
  "belief": 1525, 
  "Hezbollah": 1526, 
  "respond": 1527, 
  "efficiency": 1528, 
  "managed": 1529, 
  "primary": 1530, 
  "remained": 1531, 
  "wage": 1532, 
  "austerity": 1533, 
  "controls": 1534, 
  "border": 1535, 
  "credibility": 1536, 
  "multilateral": 1537, 
  "March": 1538, 
  "Development": 1539, 
  "accounts": 1540, 
  "conservative": 1541, 
  "State": 1542, 
  "virtually": 1543, 
  "organization": 1544, 
  "participation": 1545, 
  "elite": 1546, 
  "ready": 1547, 
  "learn": 1548, 
  "Arabia": 1549, 
  "explain": 1550, 
  "promise": 1551, 
  "afford": 1552, 
  "played": 1553, 
  "positions": 1554, 
  "restore": 1555, 
  "forms": 1556, 
  "uncertainty": 1557, 
  "commercial": 1558, 
  "appropriate": 1559, 
  "raised": 1560, 
  "bilateral": 1561, 
  "bubble": 1562, 
  "numbers": 1563, 
  "heart": 1564, 
  "fuel": 1565, 
  "suffering": 1566, 
  "gold": 1567, 
  "rhetoric": 1568, 
  "efficient": 1569, 
  "intelligence": 1570, 
  "construction": 1571, 
  "guarantee": 1572, 
  "targets": 1573, 
  "experts": 1574, 
  "Hong": 1575, 
  "hardly": 1576, 
  "trend": 1577, 
  "current-account": 1578, 
  "quite": 1579, 
  "patients": 1580, 
  "incomes": 1581, 
  "impose": 1582, 
  "destruction": 1583, 
  "recognized": 1584, 
  "families": 1585, 
  "Israelis": 1586, 
  "movements": 1587, 
  "proposal": 1588, 
  "helping": 1589, 
  "limit": 1590, 
  "degree": 1591, 
  "final": 1592, 
  "imposed": 1593, 
  "sufficient": 1594, 
  "es": 1595, 
  "expensive": 1596, 
  "presence": 1597, 
  "met": 1598, 
  "Revolution": 1599, 
  "raising": 1600, 
  "minority": 1601, 
  "...": 1602, 
  "York": 1603, 
  "inevitable": 1604, 
  "strength": 1605, 
  "prospect": 1606, 
  "Treasury": 1607, 
  "context": 1608, 
  "crime": 1609, 
  "greatest": 1610, 
  "bankers": 1611, 
  "May": 1612, 
  "considered": 1613, 
  "diseases": 1614, 
  "Serbia": 1615, 
  "manufacturing": 1616, 
  "blame": 1617, 
  "UK": 1618, 
  "depend": 1619, 
  "universal": 1620, 
  "court": 1621, 
  "southern": 1622, 
  "sharply": 1623, 
  "measure": 1624, 
  "violent": 1625, 
  "initiative": 1626, 
  "continuing": 1627, 
  "range": 1628, 
  "air": 1629, 
  "lines": 1630, 
  "announced": 1631, 
  "visit": 1632, 
  "regard": 1633, 
  "Organization": 1634, 
  "agreements": 1635, 
  "knows": 1636, 
  "believed": 1637, 
  "option": 1638, 
  "precisely": 1639, 
  "looking": 1640, 
  "related": 1641, 
  "Copenhagen": 1642, 
  "populations": 1643, 
  "June": 1644, 
  "cutting": 1645, 
  "studies": 1646, 
  "Taliban": 1647, 
  "legislation": 1648, 
  "ended": 1649, 
  "schools": 1650, 
  "child": 1651, 
  "resulting": 1652, 
  "ones": 1653, 
  "desire": 1654, 
  "civilian": 1655, 
  "resolution": 1656, 
  "truly": 1657, 
  "dialogue": 1658, 
  "January": 1659, 
  "sound": 1660, 
  "importantly": 1661, 
  "Cambridge": 1662, 
  "agricultural": 1663, 
  "ministers": 1664, 
  "fears": 1665, 
  "decided": 1666, 
  "Kong": 1667, 
  "scenario": 1668, 
  "changing": 1669, 
  "household": 1670, 
  "communism": 1671, 
  "Beijing": 1672, 
  "associated": 1673, 
  "sustained": 1674, 
  "2011": 1675, 
  "break": 1676, 
  "succeed": 1677, 
  "declared": 1678, 
  "immigrants": 1679, 
  "Turkish": 1680, 
  "Republican": 1681, 
  "Wall": 1682, 
  "2002": 1683, 
  "Korean": 1684, 
  "broader": 1685, 
  "meant": 1686, 
  "leaving": 1687, 
  "fund": 1688, 
  "easier": 1689, 
  "moving": 1690, 
  "driven": 1691, 
  "decide": 1692, 
  "wanted": 1693, 
  "subject": 1694, 
  "temporary": 1695, 
  "lessons": 1696, 
  "University": 1697, 
  "demonstrated": 1698, 
  "solidarity": 1699, 
  "light": 1700, 
  "universities": 1701, 
  "gone": 1702, 
  "capita": 1703, 
  "occur": 1704, 
  "road": 1705, 
  "profits": 1706, 
  "implies": 1707, 
  "accepted": 1708, 
  "choose": 1709, 
  "worry": 1710, 
  "securities": 1711, 
  "skills": 1712, 
  "moderate": 1713, 
  "active": 1714, 
  "enlargement": 1715, 
  "occupation": 1716, 
  "highest": 1717, 
  "legitimate": 1718, 
  "AIDS": 1719, 
  "holding": 1720, 
  "authoritarian": 1721, 
  "divided": 1722, 
  "continent": 1723, 
  "team": 1724, 
  "transparency": 1725, 
  "promised": 1726, 
  "opening": 1727, 
  "pursue": 1728, 
  "entirely": 1729, 
  "compromise": 1730, 
  "works": 1731, 
  "nationalism": 1732, 
  "ongoing": 1733, 
  "terror": 1734, 
  "adjustment": 1735, 
  "determined": 1736, 
  "kept": 1737, 
  "options": 1738, 
  "opponents": 1739, 
  "resistance": 1740, 
  "broad": 1741, 
  "latest": 1742, 
  "drive": 1743, 
  "dramatic": 1744, 
  "understood": 1745, 
  ")NAC": 1746, 
  "sort": 1747, 
  "(NAC": 1748, 
  "tensions": 1749, 
  "payments": 1750, 
  "unity": 1751, 
  "genetic": 1752, 
  "underlying": 1753, 
  "training": 1754, 
  "eight": 1755, 
  "prepared": 1756, 
  "fast": 1757, 
  "debts": 1758, 
  "rulers": 1759, 
  "sharp": 1760, 
  "regulators": 1761, 
  "says": 1762, 
  "ideological": 1763, 
  "implement": 1764, 
  "economist": 1765, 
  "sell": 1766, 
  "defeat": 1767, 
  "choices": 1768, 
  "ca": 1769, 
  "practices": 1770, 
  "October": 1771, 
  "faith": 1772, 
  "immigration": 1773, 
  "possibly": 1774, 
  "suffer": 1775, 
  "Depression": 1776, 
  "perceived": 1777, 
  "urban": 1778, 
  "receive": 1779, 
  "occurred": 1780, 
  "list": 1781, 
  "12": 1782, 
  "imagine": 1783, 
  "conventional": 1784, 
  "emerged": 1785, 
  "deliver": 1786, 
  "contribute": 1787, 
  "friends": 1788, 
  "combination": 1789, 
  "immediately": 1790, 
  "July": 1791, 
  "speak": 1792, 
  "deaths": 1793, 
  "1999": 1794, 
  "offered": 1795, 
  "surprise": 1796, 
  "secular": 1797, 
  "4": 1798, 
  "senior": 1799, 
  "technical": 1800, 
  "estimated": 1801, 
  "pace": 1802, 
  "1989": 1803, 
  "bringing": 1804, 
  "Paris": 1805, 
  "soldiers": 1806, 
  "comprehensive": 1807, 
  "bear": 1808, 
  "excess": 1809, 
  "unprecedented": 1810, 
  "promoting": 1811, 
  "corrupt": 1812, 
  "carry": 1813, 
  "proposals": 1814, 
  "wo": 1815, 
  "structures": 1816, 
  "allowing": 1817, 
  "represent": 1818, 
  "offers": 1819, 
  "unique": 1820, 
  "settlement": 1821, 
  "analysis": 1822, 
  "aim": 1823, 
  "institution": 1824, 
  "self-@@": 1825, 
  "commitments": 1826, 
  "Nobel": 1827, 
  "solve": 1828, 
  "recognition": 1829, 
  "regardless": 1830, 
  "establishment": 1831, 
  "Palestine": 1832, 
  "revenue": 1833, 
  "d@@": 1834, 
  "includes": 1835, 
  "potentially": 1836, 
  "launched": 1837, 
  "someone": 1838, 
  "Democratic": 1839, 
  "maintaining": 1840, 
  "tell": 1841, 
  "rely": 1842, 
  "represents": 1843, 
  "CO2": 1844, 
  "malaria": 1845, 
  "over@@": 1846, 
  "typically": 1847, 
  "surely": 1848, 
  "players": 1849, 
  "starting": 1850, 
  "dramatically": 1851, 
  "deeper": 1852, 
  "mechanism": 1853, 
  "generate": 1854, 
  "homes": 1855, 
  "percentage": 1856, 
  "Jewish": 1857, 
  "trial": 1858, 
  "commodity": 1859, 
  "wider": 1860, 
  "experienced": 1861, 
  "signs": 1862, 
  "supplies": 1863, 
  "room": 1864, 
  "bond": 1865, 
  "A": 1866, 
  "bound": 1867, 
  "critics": 1868, 
  "electricity": 1869, 
  "estimates": 1870, 
  "physical": 1871, 
  "paying": 1872, 
  "opposed": 1873, 
  "concept": 1874, 
  "economically": 1875, 
  "trouble": 1876, 
  "mechanisms": 1877, 
  "charge": 1878, 
  "Islamist": 1879, 
  "improving": 1880, 
  "mistake": 1881, 
  "mission": 1882, 
  "nationalist": 1883, 
  "attempts": 1884, 
  "viewed": 1885, 
  "survive": 1886, 
  "Economic": 1887, 
  "undermine": 1888, 
  "resolve": 1889, 
  "heavily": 1890, 
  "Nigeria": 1891, 
  "amp": 1892, 
  "battle": 1893, 
  "green": 1894, 
  "inevitably": 1895, 
  "ideology": 1896, 
  "declining": 1897, 
  "useful": 1898, 
  "happens": 1899, 
  "shocks": 1900, 
  "yes": 1901, 
  "relief": 1902, 
  "extremely": 1903, 
  "causing": 1904, 
  "ally": 1905, 
  "supporting": 1906, 
  "defined": 1907, 
  "agriculture": 1908, 
  "legacy": 1909, 
  "hopes": 1910, 
  "complete": 1911, 
  "keeping": 1912, 
  "overcome": 1913, 
  "zone": 1914, 
  "practical": 1915, 
  "tradition": 1916, 
  "survival": 1917, 
  "cash": 1918, 
  "remarkable": 1919, 
  "stake": 1920, 
  "Vladimir": 1921, 
  "pattern": 1922, 
  "determine": 1923, 
  "conference": 1924, 
  "fewer": 1925, 
  "implemented": 1926, 
  "flow": 1927, 
  "productive": 1928, 
  "field": 1929, 
  "losing": 1930, 
  "restrictions": 1931, 
  "die": 1932, 
  "unions": 1933, 
  "·": 1934, 
  "closed": 1935, 
  "Parliament": 1936, 
  "chief": 1937, 
  "Trade": 1938, 
  "distribution": 1939, 
  "engage": 1940, 
  "born": 1941, 
  "initiatives": 1942, 
  "supporters": 1943, 
  "event": 1944, 
  "Christian": 1945, 
  "ratio": 1946, 
  "territory": 1947, 
  "summer": 1948, 
  "quarter": 1949, 
  "Democrats": 1950, 
  "firm": 1951, 
  "gained": 1952, 
  "ates": 1953, 
  "House": 1954, 
  "objective": 1955, 
  "Stability": 1956, 
  "dealing": 1957, 
  "communist": 1958, 
  "proved": 1959, 
  "humanity": 1960, 
  "threatened": 1961, 
  "strategies": 1962, 
  "transfer": 1963, 
  "leads": 1964, 
  "ers": 1965, 
  "8": 1966, 
  "invasion": 1967, 
  "observers": 1968, 
  "fallen": 1969, 
  "votes": 1970, 
  "nonetheless": 1971, 
  "€": 1972, 
  "considerable": 1973, 
  "6": 1974, 
  "enable": 1975, 
  "downturn": 1976, 
  "1930": 1977, 
  "billions": 1978, 
  "April": 1979, 
  "Kim": 1980, 
  "1960": 1981, 
  "issued": 1982, 
  "returns": 1983, 
  "exposed": 1984, 
  "shape": 1985, 
  "modest": 1986, 
  "putting": 1987, 
  "package": 1988, 
  "pressures": 1989, 
  "centuries": 1990, 
  "allows": 1991, 
  "necessarily": 1992, 
  "referendum": 1993, 
  "Vietnam": 1994, 
  "c@@": 1995, 
  "seven": 1996, 
  "playing": 1997, 
  "ating": 1998, 
  "requirements": 1999, 
  "corporations": 2000, 
  "Italian": 2001, 
  "restructuring": 2002, 
  "mortgage": 2003, 
  "grew": 2004, 
  "Dutch": 2005, 
  "strengthening": 2006, 
  "organized": 2007, 
  "depression": 2008, 
  "costly": 2009, 
  "begun": 2010, 
  "developments": 2011, 
  "August": 2012, 
  "reasonable": 2013, 
  "wrote": 2014, 
  "twentieth": 2015, 
  "obviously": 2016, 
  "adopt": 2017, 
  "slowdown": 2018, 
  "published": 2019, 
  "willingness": 2020, 
  "affect": 2021, 
  "planet": 2022, 
  "80": 2023, 
  "genuine": 2024, 
  "wide": 2025, 
  "sustain": 2026, 
  "y@@": 2027, 
  "turning": 2028, 
  "barriers": 2029, 
  "stands": 2030, 
  "suffered": 2031, 
  "criticism": 2032, 
  "television": 2033, 
  "creditors": 2034, 
  "implications": 2035, 
  "cells": 2036, 
  "pension": 2037, 
  "regulations": 2038, 
  "reports": 2039, 
  "realize": 2040, 
  "generations": 2041, 
  "dependent": 2042, 
  "defend": 2043, 
  "showed": 2044, 
  "hours": 2045, 
  "s@@": 2046, 
  "product": 2047, 
  "credible": 2048, 
  "amounts": 2049, 
  "double": 2050, 
  "woman": 2051, 
  "race": 2052, 
  "criminal": 2053, 
  "historic": 2054, 
  "mere": 2055, 
  "saying": 2056, 
  "Brussels": 2057, 
  "figure": 2058, 
  "pushed": 2059, 
  "appreciation": 2060, 
  "taxpayers": 2061, 
  "advance": 2062, 
  "supposedly": 2063, 
  "standing": 2064, 
  "gives": 2065, 
  "joint": 2066, 
  "rescue": 2067, 
  "objectives": 2068, 
  "outcomes": 2069, 
  "Sweden": 2070, 
  "Abbas": 2071, 
  "described": 2072, 
  "word": 2073, 
  "image": 2074, 
  "board": 2075, 
  "y": 2076, 
  "dictatorship": 2077, 
  "discussion": 2078, 
  "arrangements": 2079, 
  "Mubarak": 2080, 
  "2012": 2081, 
  "elites": 2082, 
  "logic": 2083, 
  "dominated": 2084, 
  "purpose": 2085, 
  "partner": 2086, 
  "elements": 2087, 
  "exists": 2088, 
  "healthy": 2089, 
  "exchange-rate": 2090, 
  "grown": 2091, 
  "eyes": 2092, 
  "In": 2093, 
  "controlled": 2094, 
  "mandate": 2095, 
  "th": 2096, 
  "mortgages": 2097, 
  "linked": 2098, 
  "completely": 2099, 
  "setting": 2100, 
  "closely": 2101, 
  "served": 2102, 
  "emerge": 2103, 
  "killing": 2104, 
  "plants": 2105, 
  "contributed": 2106, 
  "failures": 2107, 
  "capable": 2108, 
  "risky": 2109, 
  "treated": 2110, 
  "dynamic": 2111, 
  "ts": 2112, 
  "opposite": 2113, 
  "added": 2114, 
  "reflected": 2115, 
  "accounting": 2116, 
  "affected": 2117, 
  "o": 2118, 
  "Chávez": 2119, 
  "buying": 2120, 
  "weakness": 2121, 
  "tools": 2122, 
  "borrow": 2123, 
  "Jews": 2124, 
  "Street": 2125, 
  "computer": 2126, 
  "planning": 2127, 
  "cheap": 2128, 
  "strongly": 2129, 
  "proven": 2130, 
  "migration": 2131, 
  "died": 2132, 
  "charges": 2133, 
  "surpluses": 2134, 
  "moved": 2135, 
  "ate": 2136, 
  "journalists": 2137, 
  "felt": 2138, 
  "assume": 2139, 
  "leverage": 2140, 
  "priorities": 2141, 
  "replaced": 2142, 
  "ensuring": 2143, 
  "fate": 2144, 
  "unsustainable": 2145, 
  "discipline": 2146, 
  "Berlin": 2147, 
  "enemy": 2148, 
  "exception": 2149, 
  "expand": 2150, 
  "protest": 2151, 
  "university": 2152, 
  "equivalent": 2153, 
  "encouraging": 2154, 
  "included": 2155, 
  "al-@@": 2156, 
  "humans": 2157, 
  "aggressive": 2158, 
  "arguments": 2159, 
  "perspective": 2160, 
  "cycle": 2161, 
  "figures": 2162, 
  "daily": 2163, 
  "signed": 2164, 
  "transformation": 2165, 
  "reported": 2166, 
  "suddenly": 2167, 
  "holds": 2168, 
  "profound": 2169, 
  "Kyoto": 2170, 
  "shock": 2171, 
  "bottom": 2172, 
  "Gulf": 2173, 
  "Mao": 2174, 
  "root": 2175, 
  "add": 2176, 
  "convinced": 2177, 
  "clean": 2178, 
  "got": 2179, 
  "embrace": 2180, 
  "producers": 2181, 
  "attractive": 2182, 
  "peoples": 2183, 
  "except": 2184, 
  "host": 2185, 
  "voting": 2186, 
  "appeared": 2187, 
  "enterprises": 2188, 
  "shareholders": 2189, 
  "deflation": 2190, 
  "compete": 2191, 
  "mutual": 2192, 
  "sales": 2193, 
  "70": 2194, 
  "Venezuela": 2195, 
  "carried": 2196, 
  "emerging-market": 2197, 
  "tough": 2198, 
  "Medvedev": 2199, 
  "expenditures": 2200, 
  "illegal": 2201, 
  "northern": 2202, 
  "prison": 2203, 
  "contracts": 2204, 
  "viable": 2205, 
  "passed": 2206, 
  "incentive": 2207, 
  "Portugal": 2208, 
  "Burma": 2209, 
  "kill": 2210, 
  "populist": 2211, 
  "thanks": 2212, 
  "al": 2213, 
  "Committee": 2214, 
  "surprising": 2215, 
  "replace": 2216, 
  "Paul": 2217, 
  "managers": 2218, 
  "equality": 2219, 
  "publicly": 2220, 
  "achieving": 2221, 
  "withdrawal": 2222, 
  "welcome": 2223, 
  "front": 2224, 
  "species": 2225, 
  "wave": 2226, 
  "establishing": 2227, 
  "remaining": 2228, 
  "WTO": 2229, 
  "networks": 2230, 
  "dominant": 2231, 
  "aside": 2232, 
  "father": 2233, 
  "Chile": 2234, 
  "coal": 2235, 
  "fixed": 2236, 
  "Netherlands": 2237, 
  "series": 2238, 
  "latter": 2239, 
  "threaten": 2240, 
  "polls": 2241, 
  "correct": 2242, 
  "addressed": 2243, 
  "genes": 2244, 
  "bodies": 2245, 
  "driving": 2246, 
  "Qaeda": 2247, 
  "aware": 2248, 
  "united": 2249, 
  "zero": 2250, 
  "professional": 2251, 
  "brain": 2252, 
  "expanding": 2253, 
  "Cuba": 2254, 
  "urgent": 2255, 
  "inside": 2256, 
  "backed": 2257, 
  "primarily": 2258, 
  "Pact": 2259, 
  "weight": 2260, 
  "ated": 2261, 
  "Sudan": 2262, 
  "revolutionary": 2263, 
  "previously": 2264, 
  "managing": 2265, 
  "post-@@": 2266, 
  "pushing": 2267, 
  "animals": 2268, 
  "Constitution": 2269, 
  "Republicans": 2270, 
  "budgets": 2271, 
  "Musharraf": 2272, 
  "humanitarian": 2273, 
  "dream": 2274, 
  "harm": 2275, 
  "ruled": 2276, 
  "engaged": 2277, 
  "examples": 2278, 
  "confront": 2279, 
  "calling": 2280, 
  "educational": 2281, 
  "claimed": 2282, 
  "read": 2283, 
  "bailout": 2284, 
  "exactly": 2285, 
  "debates": 2286, 
  "stance": 2287, 
  "enemies": 2288, 
  "appeal": 2289, 
  "er": 2290, 
  "stay": 2291, 
  "hence": 2292, 
  "processes": 2293, 
  "1991": 2294, 
  "emergency": 2295, 
  "refused": 2296, 
  "February": 2297, 
  "stress": 2298, 
  "rejected": 2299, 
  "knew": 2300, 
  "black": 2301, 
  "fuels": 2302, 
  "civilians": 2303, 
  "difficulties": 2304, 
  "sent": 2305, 
  "marked": 2306, 
  "partnership": 2307, 
  "18": 2308, 
  "trends": 2309, 
  "S@@": 2310, 
  "robust": 2311, 
  "paper": 2312, 
  "material": 2313, 
  "Hu": 2314, 
  "badly": 2315, 
  "formal": 2316, 
  "heads": 2317, 
  "wish": 2318, 
  "weaker": 2319, 
  "easing": 2320, 
  "gradually": 2321, 
  "sea": 2322, 
  "modernization": 2323, 
  "concerning": 2324, 
  "decision-making": 2325, 
  "constraints": 2326, 
  "failing": 2327, 
  "integrated": 2328, 
  "reserve": 2329, 
  "renminbi": 2330, 
  "remember": 2331, 
  "successfully": 2332, 
  "joined": 2333, 
  "demanding": 2334, 
  "courts": 2335, 
  "producing": 2336, 
  "finding": 2337, 
  "A@@": 2338, 
  "applied": 2339, 
  "streets": 2340, 
  "initially": 2341, 
  "intended": 2342, 
  "ignore": 2343, 
  "fragile": 2344, 
  "7": 2345, 
  "believes": 2346, 
  "parents": 2347, 
  "Australia": 2348, 
  "mistakes": 2349, 
  "accession": 2350, 
  "identify": 2351, 
  "acts": 2352, 
  "heavy": 2353, 
  "regarded": 2354, 
  "activists": 2355, 
  "Euro": 2356, 
  "fossil": 2357, 
  "repeatedly": 2358, 
  "Hussein": 2359, 
  "t@@": 2360, 
  "1998": 2361, 
  "Berlusconi": 2362, 
  "famous": 2363, 
  "dead": 2364, 
  "Chancellor": 2365, 
  "judges": 2366, 
  "existence": 2367, 
  "scope": 2368, 
  "Chirac": 2369, 
  "Syrian": 2370, 
  "enter": 2371, 
  "guarantees": 2372, 
  "Financial": 2373, 
  "systemic": 2374, 
  "kinds": 2375, 
  "ation": 2376, 
  "accompanied": 2377, 
  "Rights": 2378, 
  "dis@@": 2379, 
  "accountability": 2380, 
  "quo": 2381, 
  "emergence": 2382, 
  "conducted": 2383, 
  "C@@": 2384, 
  "Canada": 2385, 
  "ownership": 2386, 
  "suggested": 2387, 
  "Keynes": 2388, 
  "reaction": 2389, 
  "exercise": 2390, 
  "demonstrate": 2391, 
  "Merkel": 2392, 
  "evolution": 2393, 
  "granted": 2394, 
  "apply": 2395, 
  "extra": 2396, 
  "actual": 2397, 
  "network": 2398, 
  "It": 2399, 
  "fortunately": 2400, 
  "2@@": 2401, 
  "reaching": 2402, 
  "Fatah": 2403, 
  "Pakistani": 2404, 
  "complicated": 2405, 
  "essentially": 2406, 
  "pain": 2407, 
  "ambitious": 2408, 
  "assumed": 2409, 
  "presidents": 2410, 
  "Shia": 2411, 
  "notion": 2412, 
  "shares": 2413, 
  "apparently": 2414, 
  "Sunni": 2415, 
  "painful": 2416, 
  "spirit": 2417, 
  "expressed": 2418, 
  "abuse": 2419, 
  "link": 2420, 
  "consequence": 2421, 
  "creates": 2422, 
  "protectionism": 2423, 
  "launch": 2424, 
  "resulted": 2425, 
  "Arabs": 2426, 
  "aggregate": 2427, 
  "preventing": 2428, 
  "en@@": 2429, 
  "inflows": 2430, 
  "o@@": 2431, 
  "advice": 2432, 
  "send": 2433, 
  "obligations": 2434, 
  "balanced": 2435, 
  "We": 2436, 
  "meaning": 2437, 
  "introduced": 2438, 
  "stories": 2439, 
  "uses": 2440, 
  "voice": 2441, 
  "employees": 2442, 
  "relevant": 2443, 
  "addressing": 2444, 
  "narrow": 2445, 
  "Germans": 2446, 
  "responses": 2447, 
  "Defense": 2448, 
  "weakened": 2449, 
  "tests": 2450, 
  "3@@": 2451, 
  "returned": 2452, 
  "Egyptian": 2453, 
  "enhance": 2454, 
  "apparent": 2455, 
  "cover": 2456, 
  "instruments": 2457, 
  "uncertain": 2458, 
  "aging": 2459, 
  "p@@": 2460, 
  "Spanish": 2461, 
  "ultimate": 2462, 
  "encouraged": 2463, 
  "Supreme": 2464, 
  "Thailand": 2465, 
  "Colombia": 2466, 
  "initial": 2467, 
  "notably": 2468, 
  "educated": 2469, 
  "function": 2470, 
  "proportion": 2471, 
  "chaos": 2472, 
  "People": 2473, 
  "de@@": 2474, 
  "escape": 2475, 
  "Afghan": 2476, 
  "engagement": 2477, 
  "contain": 2478, 
  "fire": 2479, 
  "happening": 2480, 
  "blood": 2481, 
  "sustainability": 2482, 
  "consolidation": 2483, 
  "resort": 2484, 
  "renewed": 2485, 
  "brings": 2486, 
  "condition": 2487, 
  "minds": 2488, 
  "e": 2489, 
  "manner": 2490, 
  "confrontation": 2491, 
  "Social": 2492, 
  "posed": 2493, 
  "financed": 2494, 
  "anniversary": 2495, 
  "executive": 2496, 
  "operate": 2497, 
  "placed": 2498, 
  "prefer": 2499, 
  "participants": 2500, 
  "ted": 2501, 
  "frequently": 2502, 
  "predict": 2503, 
  "south": 2504, 
  "simultaneously": 2505, 
  "expression": 2506, 
  "wind": 2507, 
  "TV": 2508, 
  "flexibility": 2509, 
  "eliminate": 2510, 
  "explanation": 2511, 
  "compensation": 2512, 
  "design": 2513, 
  "empire": 2514, 
  "ban": 2515, 
  "1997": 2516, 
  "rational": 2517, 
  "arrest": 2518, 
  "heard": 2519, 
  "Ahmadinejad": 2520, 
  "Robert": 2521, 
  "via": 2522, 
  "bubbles": 2523, 
  "9": 2524, 
  "90": 2525, 
  "search": 2526, 
  "leaves": 2527, 
  "atmosphere": 2528, 
  "abandon": 2529, 
  "Singapore": 2530, 
  "draw": 2531, 
  "G-8": 2532, 
  "cell": 2533, 
  "slowly": 2534, 
  "Yeltsin": 2535, 
  "threatening": 2536, 
  "destroy": 2537, 
  "estate": 2538, 
  "minorities": 2539, 
  "targeted": 2540, 
  "concluded": 2541, 
  "sophisticated": 2542, 
  "stopped": 2543, 
  "medicine": 2544, 
  "ourselves": 2545, 
  "mark": 2546, 
  "drop": 2547, 
  "bigger": 2548, 
  "extraordinary": 2549, 
  "surprisingly": 2550, 
  "preserve": 2551, 
  "strengthened": 2552, 
  "twice": 2553, 
  "over-@@": 2554, 
  "wonder": 2555, 
  "Assembly": 2556, 
  "harder": 2557, 
  "expense": 2558, 
  "youth": 2559, 
  "released": 2560, 
  "14": 2561, 
  "original": 2562, 
  "variety": 2563, 
  "barely": 2564, 
  "extended": 2565, 
  "volatility": 2566, 
  "actors": 2567, 
  "facts": 2568, 
  "newly": 2569, 
  "Czech": 2570, 
  "ch@@": 2571, 
  "reverse": 2572, 
  "ending": 2573, 
  "generated": 2574, 
  "fueled": 2575, 
  "rarely": 2576, 
  "usual": 2577, 
  "coordination": 2578, 
  "poorer": 2579, 
  "representatives": 2580, 
  "divide": 2581, 
  "worried": 2582, 
  "expanded": 2583, 
  "solar": 2584, 
  "resource": 2585, 
  "Atlantic": 2586, 
  "sheets": 2587, 
  "protecting": 2588, 
  "bankruptcy": 2589, 
  "Jordan": 2590, 
  "realistic": 2591, 
  "approaches": 2592, 
  "opened": 2593, 
  "collapsed": 2594, 
  "treat": 2595, 
  "England": 2596, 
  "stimulate": 2597, 
  "advocates": 2598, 
  "ting": 2599, 
  "periphery": 2600, 
  "operation": 2601, 
  "acting": 2602, 
  "di@@": 2603, 
  "missile": 2604, 
  "g@@": 2605, 
  "acceptable": 2606, 
  "Romania": 2607, 
  "transport": 2608, 
  "promising": 2609, 
  "revealed": 2610, 
  "capabilities": 2611, 
  "version": 2612, 
  "effectiveness": 2613, 
  "strike": 2614, 
  "combat": 2615, 
  "helps": 2616, 
  "rose": 2617, 
  "wisdom": 2618, 
  "absolute": 2619, 
  "represented": 2620, 
  "headed": 2621, 
  "academic": 2622, 
  "adequate": 2623, 
  "transparent": 2624, 
  "written": 2625, 
  "rightly": 2626, 
  "speed": 2627, 
  "unemployed": 2628, 
  "openly": 2629, 
  "conclusion": 2630, 
  "prisoners": 2631, 
  "alike": 2632, 
  "ignored": 2633, 
  "fourth": 2634, 
  "son": 2635, 
  "improvement": 2636, 
  "sexual": 2637, 
  "oppose": 2638, 
  "destroyed": 2639, 
  "Authority": 2640, 
  "enjoy": 2641, 
  "division": 2642, 
  "contribution": 2643, 
  "200": 2644, 
  "command": 2645, 
  "Plan": 2646, 
  "consistent": 2647, 
  "stem": 2648, 
  "secret": 2649, 
  "surveillance": 2650, 
  "drawn": 2651, 
  "stocks": 2652, 
  "ethical": 2653, 
  "Polish": 2654, 
  "extremists": 2655, 
  "weakening": 2656, 
  "table": 2657, 
  "bill": 2658, 
  "proper": 2659, 
  "plant": 2660, 
  "facilities": 2661, 
  "Reagan": 2662, 
  "diversity": 2663, 
  "dispute": 2664, 
  "contributions": 2665, 
  "discrimination": 2666, 
  "concrete": 2667, 
  "looked": 2668, 
  "picture": 2669, 
  "popularity": 2670, 
  "openness": 2671, 
  "justify": 2672, 
  "warning": 2673, 
  "accused": 2674, 
  "large-scale": 2675, 
  "presented": 2676, 
  "overwhelming": 2677, 
  "Human": 2678, 
  "somewhat": 2679, 
  "users": 2680, 
  "wake": 2681, 
  "gets": 2682, 
  "investing": 2683, 
  "street": 2684, 
  "measured": 2685, 
  "privatization": 2686, 
  "staff": 2687, 
  "conduct": 2688, 
  "review": 2689, 
  "grounds": 2690, 
  "exit": 2691, 
  "weaken": 2692, 
  "lie": 2693, 
  "insist": 2694, 
  "13": 2695, 
  "abandoned": 2696, 
  "succeeded": 2697, 
  "pre-@@": 2698, 
  "alternatives": 2699, 
  "Global": 2700, 
  "yield": 2701, 
  "-based": 2702, 
  "justified": 2703, 
  "sold": 2704, 
  "statement": 2705, 
  "y-@@": 2706, 
  "birth": 2707, 
  "responsibilities": 2708, 
  "colleagues": 2709, 
  "Sea": 2710, 
  "successor": 2711, 
  "block": 2712, 
  "diverse": 2713, 
  "donors": 2714, 
  "extend": 2715, 
  "types": 2716, 
  "decisive": 2717, 
  "mental": 2718, 
  "refugees": 2719, 
  "aftermath": 2720, 
  "selling": 2721, 
  "flexible": 2722, 
  "happy": 2723, 
  "trials": 2724, 
  "turmoil": 2725, 
  "subsequent": 2726, 
  "recover": 2727, 
  "hunger": 2728, 
  "under@@": 2729, 
  "discussions": 2730, 
  "inability": 2731, 
  "wait": 2732, 
  "intellectuals": 2733, 
  "-RSB-": 2734, 
  "books": 2735, 
  "protected": 2736, 
  "liberty": 2737, 
  "-LSB-": 2738, 
  "ations": 2739, 
  "seeks": 2740, 
  "focusing": 2741, 
  "twenty-first": 2742, 
  "missiles": 2743, 
  "researchers": 2744, 
  "ambitions": 2745, 
  "caught": 2746, 
  "demographic": 2747, 
  "retirement": 2748, 
  "Bolivia": 2749, 
  "pursued": 2750, 
  "minimum": 2751, 
  "fundamentally": 2752, 
  "attitude": 2753, 
  "invested": 2754, 
  "emphasis": 2755, 
  "maintained": 2756, 
  "apart": 2757, 
  "27": 2758, 
  "purposes": 2759, 
  "Tunisia": 2760, 
  "delivered": 2761, 
  "Haiti": 2762, 
  "bold": 2763, 
  "track": 2764, 
  "participate": 2765, 
  "repression": 2766, 
  "perfect": 2767, 
  "California": 2768, 
  "somehow": 2769, 
  "state-owned": 2770, 
  "avoided": 2771, 
  "500": 2772, 
  "Denmark": 2773, 
  "eastern": 2774, 
  "showing": 2775, 
  "advantages": 2776, 
  "monitoring": 2777, 
  "female": 2778, 
  "stagnation": 2779, 
  "David": 2780, 
  "fails": 2781, 
  "geopolitical": 2782, 
  "Hungary": 2783, 
  "neighboring": 2784, 
  "proliferation": 2785, 
  "Malaysia": 2786, 
  "politician": 2787, 
  "learning": 2788, 
  "mention": 2789, 
  "E@@": 2790, 
  "lived": 2791, 
  "foundation": 2792, 
  "resist": 2793, 
  "judge": 2794, 
  "meaningful": 2795, 
  "mis@@": 2796, 
  "pressing": 2797, 
  "norms": 2798, 
  "links": 2799, 
  "engineering": 2800, 
  "sensitive": 2801, 
  "patient": 2802, 
  "fought": 2803, 
  "centers": 2804, 
  "directed": 2805, 
  "devastating": 2806, 
  "historically": 2807, 
  "methods": 2808, 
  "argues": 2809, 
  "Arafat": 2810, 
  "reductions": 2811, 
  "Romney": 2812, 
  "torture": 2813, 
  "e@@": 2814, 
  "equipment": 2815, 
  "suicide": 2816, 
  "Stalin": 2817, 
  "separate": 2818, 
  "responded": 2819, 
  "Greenspan": 2820, 
  "dependence": 2821, 
  "King": 2822, 
  "16": 2823, 
  "substantially": 2824, 
  "agency": 2825, 
  "Milosevic": 2826, 
  "hundred": 2827, 
  "seemingly": 2828, 
  "negotiating": 2829, 
  "reliable": 2830, 
  "comparable": 2831, 
  "OECD": 2832, 
  "17": 2833, 
  "attitudes": 2834, 
  "private-sector": 2835, 
  "b@@": 2836, 
  "entrepreneurs": 2837, 
  "im@@": 2838, 
  "undoubtedly": 2839, 
  "car": 2840, 
  "doctors": 2841, 
  "annually": 2842, 
  "style": 2843, 
  "reluctant": 2844, 
  "lasting": 2845, 
  "winning": 2846, 
  "pursuing": 2847, 
  "fresh": 2848, 
  "inflationary": 2849, 
  "evil": 2850, 
  "predicted": 2851, 
  "component": 2852, 
  "properly": 2853, 
  "warned": 2854, 
  "transfers": 2855, 
  "a@@": 2856, 
  "pass": 2857, 
  "influential": 2858, 
  "implementation": 2859, 
  "memory": 2860, 
  "transformed": 2861, 
  "discuss": 2862, 
  "feeling": 2863, 
  "one-third": 2864, 
  "retain": 2865, 
  "cars": 2866, 
  "disputes": 2867, 
  "aims": 2868, 
  "regarding": 2869, 
  "an@@": 2870, 
  "planned": 2871, 
  "false": 2872, 
  "chronic": 2873, 
  "Lisbon": 2874, 
  "sentiment": 2875, 
  "threatens": 2876, 
  "officers": 2877, 
  "circle": 2878, 
  "DC": 2879, 
  "1950": 2880, 
  "Protocol": 2881, 
  "tragedy": 2882, 
  "commit": 2883, 
  "Doha": 2884, 
  "inadequate": 2885, 
  "ought": 2886, 
  "Peace": 2887, 
  "seeing": 2888, 
  "internationally": 2889, 
  "unilateral": 2890, 
  "R": 2891, 
  "tens": 2892, 
  "reconciliation": 2893, 
  "D": 2894, 
  "wealthy": 2895, 
  "sooner": 2896, 
  "voted": 2897, 
  "greenhouse": 2898, 
  "territorial": 2899, 
  "quick": 2900, 
  "negotiate": 2901, 
  "visible": 2902, 
  "concentrated": 2903, 
  "globally": 2904, 
  "date": 2905, 
  "disorder": 2906, 
  "experiences": 2907, 
  "chosen": 2908, 
  "Islamists": 2909, 
  "reconstruction": 2910, 
  "fish": 2911, 
  "reject": 2912, 
  "seats": 2913, 
  "import": 2914, 
  "football": 2915, 
  "isolation": 2916, 
  "Zimbabwe": 2917, 
  "carefully": 2918, 
  "God": 2919, 
  "newspaper": 2920, 
  "spring": 2921, 
  "valuable": 2922, 
  "White": 2923, 
  "doctrine": 2924, 
  "ends": 2925, 
  "ly": 2926, 
  "ans": 2927, 
  "monopoly": 2928, 
  "tool": 2929, 
  "saved": 2930, 
  "innovative": 2931, 
  "abuses": 2932, 
  "love": 2933, 
  "generous": 2934, 
  "entry": 2935, 
  "prevented": 2936, 
  "taxation": 2937, 
  "door": 2938, 
  "earth": 2939, 
  "Roma": 2940, 
  "patterns": 2941, 
  "nominal": 2942, 
  "recognizing": 2943, 
  "offset": 2944, 
  "moves": 2945, 
  "English": 2946, 
  "territories": 2947, 
  "hoped": 2948, 
  "panic": 2949, 
  "administrative": 2950, 
  "fields": 2951, 
  "pose": 2952, 
  "yields": 2953, 
  "nobody": 2954, 
  "naturally": 2955, 
  "hear": 2956, 
  "ti@@": 2957, 
  "rare": 2958, 
  "finances": 2959, 
  "reputation": 2960, 
  "broken": 2961, 
  "offering": 2962, 
  "runs": 2963, 
  "Foreign": 2964, 
  "brutal": 2965, 
  "yen": 2966, 
  "Darfur": 2967, 
  "judgment": 2968, 
  "operating": 2969, 
  "express": 2970, 
  "P@@": 2971, 
  "raises": 2972, 
  "Chairman": 2973, 
  "approval": 2974, 
  "sharing": 2975, 
  "aspects": 2976, 
  "perception": 2977, 
  "declined": 2978, 
  "hedge": 2979, 
  "earnings": 2980, 
  "quantitative": 2981, 
  "meetings": 2982, 
  "inspired": 2983, 
  "lend": 2984, 
  "Iraqis": 2985, 
  "Nicolas": 2986, 
  "rating": 2987, 
  "settlements": 2988, 
  "scheme": 2989, 
  "attract": 2990, 
  "peak": 2991, 
  "75": 2992, 
  "realized": 2993, 
  "falls": 2994, 
  "supervision": 2995, 
  "greatly": 2996, 
  "stood": 2997, 
  "release": 2998, 
  "health-care": 2999, 
  "Bill": 3000, 
  "honor": 3001, 
  "hostile": 3002, 
  "tribal": 3003, 
  "imposing": 3004, 
  "1995": 3005, 
  "genocide": 3006, 
  "realities": 3007, 
  "Netanyahu": 3008, 
  "dangers": 3009, 
  "materials": 3010, 
  "cultures": 3011, 
  "Bosnia": 3012, 
  "HIV": 3013, 
  "Hitler": 3014, 
  "socialist": 3015, 
  "surge": 3016, 
  "ASEAN": 3017, 
  "sites": 3018, 
  "Jerusalem": 3019, 
  "implementing": 3020, 
  "repeated": 3021, 
  "intervene": 3022, 
  "define": 3023, 
  "Tibet": 3024, 
  "2015": 3025, 
  "generals": 3026, 
  "d": 3027, 
  "provision": 3028, 
  "imply": 3029, 
  "Tony": 3030, 
  "tiny": 3031, 
  "animal": 3032, 
  "coordinated": 3033, 
  "nine": 3034, 
  "interested": 3035, 
  "phenomenon": 3036, 
  "unrest": 3037, 
  "protectionist": 3038, 
  "functioning": 3039, 
  "D@@": 3040, 
  "numerous": 3041, 
  "backing": 3042, 
  "Department": 3043, 
  "Summit": 3044, 
  "stabilize": 3045, 
  "bit": 3046, 
  "mobility": 3047, 
  "tackle": 3048, 
  "accountable": 3049, 
  "mainstream": 3050, 
  "discovered": 3051, 
  "analysts": 3052, 
  "richer": 3053, 
  "arguing": 3054, 
  "significance": 3055, 
  "impressive": 3056, 
  "H@@": 3057, 
  "coup": 3058, 
  "waiting": 3059, 
  "catastrophe": 3060, 
  "prior": 3061, 
  "Mahmoud": 3062, 
  "criteria": 3063, 
  "extremism": 3064, 
  "bailouts": 3065, 
  "convince": 3066, 
  "Khamenei": 3067, 
  "resolved": 3068, 
  "sensible": 3069, 
  "giant": 3070, 
  "newspapers": 3071, 
  "rival": 3072, 
  "divisions": 3073, 
  "sex": 3074, 
  "lawyers": 3075, 
  "onto": 3076, 
  "principal": 3077, 
  "e-@@": 3078, 
  "travel": 3079, 
  "1@@": 3080, 
  "definition": 3081, 
  "white": 3082, 
  "plays": 3083, 
  "Yugoslavia": 3084, 
  "features": 3085, 
  "heat": 3086, 
  "Laden": 3087, 
  "occupied": 3088, 
  "governing": 3089, 
  "underway": 3090, 
  "draft": 3091, 
  "profit": 3092, 
  "dignity": 3093, 
  "consistently": 3094, 
  "nowhere": 3095, 
  "300": 3096, 
  "damaged": 3097, 
  "demonstrations": 3098, 
  "achievement": 3099, 
  "m": 3100, 
  "inefficient": 3101, 
  "tolerance": 3102, 
  "eye": 3103, 
  "approved": 3104, 
  "alive": 3105, 
  "constant": 3106, 
  "prosperous": 3107, 
  "19": 3108, 
  "Bernanke": 3109, 
  "involve": 3110, 
  "regularly": 3111, 
  "Deng": 3112, 
  "contract": 3113, 
  "earthquake": 3114, 
  "Web": 3115, 
  "Senate": 3116, 
  "removed": 3117, 
  "Army": 3118, 
  "or@@": 3119, 
  "Irish": 3120, 
  "benefited": 3121, 
  "transform": 3122, 
  "executives": 3123, 
  "dominate": 3124, 
  "slightly": 3125, 
  "insufficient": 3126, 
  "gaining": 3127, 
  "L@@": 3128, 
  "intense": 3129, 
  "Alliance": 3130, 
  "identified": 3131, 
  "waste": 3132, 
  "richest": 3133, 
  "adopting": 3134, 
  "4@@": 3135, 
  "transactions": 3136, 
  "smart": 3137, 
  "involvement": 3138, 
  "appreciate": 3139, 
  "propaganda": 3140, 
  "le": 3141, 
  "sudden": 3142, 
  "disarmament": 3143, 
  "toxic": 3144, 
  "girls": 3145, 
  "male": 3146, 
  "i@@": 3147, 
  "protesters": 3148, 
  "ill": 3149, 
  "expenditure": 3150, 
  "arrested": 3151, 
  "solid": 3152, 
  "pro-@@": 3153, 
  "Board": 3154, 
  "Mediterranean": 3155, 
  "undermining": 3156, 
  "con@@": 3157, 
  "avoiding": 3158, 
  "turns": 3159, 
  "anger": 3160, 
  "longer-term": 3161, 
  "fundamentals": 3162, 
  "gradual": 3163, 
  "phase": 3164, 
  "donor": 3165, 
  "red": 3166, 
  "forever": 3167, 
  "difficulty": 3168, 
  "shifted": 3169, 
  "older": 3170, 
  "albeit": 3171, 
  "foreigners": 3172, 
  "indicate": 3173, 
  "ra@@": 3174, 
  "capture": 3175, 
  "crash": 3176, 
  "undermined": 3177, 
  "interest-rate": 3178, 
  "DNA": 3179, 
  "pride": 3180, 
  "right-wing": 3181, 
  "imperative": 3182, 
  "advances": 3183, 
  "lenders": 3184, 
  "involving": 3185, 
  "bureaucracy": 3186, 
  "innocent": 3187, 
  "assumption": 3188, 
  "pollution": 3189, 
  "improvements": 3190, 
  "ro@@": 3191, 
  "adverse": 3192, 
  "character": 3193, 
  "content": 3194, 
  "Millennium": 3195, 
  "convergence": 3196, 
  "purchasing": 3197, 
  "surface": 3198, 
  "likelihood": 3199, 
  "guaranteed": 3200, 
  "murder": 3201, 
  "selection": 3202, 
  "creative": 3203, 
  "confronted": 3204, 
  "noted": 3205, 
  "imperial": 3206, 
  "halt": 3207, 
  "asking": 3208, 
  "voices": 3209, 
  "high-@@": 3210, 
  "desirable": 3211, 
  "tactics": 3212, 
  "1992": 3213, 
  "houses": 3214, 
  "alongside": 3215, 
  "autonomy": 3216, 
  "electorate": 3217, 
  "restoring": 3218, 
  "dilemma": 3219, 
  "Administration": 3220, 
  "downward": 3221, 
  "pursuit": 3222, 
  "formed": 3223, 
  "statements": 3224, 
  "traditions": 3225, 
  "ran": 3226, 
  "Northern": 3227, 
  "magnitude": 3228, 
  "24": 3229, 
  "instance": 3230, 
  "sees": 3231, 
  "Southeast": 3232, 
  "computers": 3233, 
  "unwilling": 3234, 
  "deny": 3235, 
  "explains": 3236, 
  "traditionally": 3237, 
  "forcing": 3238, 
  "1994": 3239, 
  "Catholic": 3240, 
  "superpower": 3241, 
  "No": 3242, 
  "democratization": 3243, 
  "roots": 3244, 
  "Sharon": 3245, 
  "G@@": 3246, 
  "integrity": 3247, 
  "lacks": 3248, 
  "sufficiently": 3249, 
  "Energy": 3250, 
  "cross-border": 3251, 
  "charged": 3252, 
  "Justice": 3253, 
  "shifting": 3254, 
  "hidden": 3255, 
  "triggered": 3256, 
  "chances": 3257, 
  "chose": 3258, 
  "obstacles": 3259, 
  "finds": 3260, 
  "purchases": 3261, 
  "co@@": 3262, 
  "O@@": 3263, 
  "unstable": 3264, 
  "achievements": 3265, 
  "contemporary": 3266, 
  "favorable": 3267, 
  "island": 3268, 
  "9@@": 3269, 
  "disasters": 3270, 
  "plus": 3271, 
  "couple": 3272, 
  "film": 3273, 
  "interventions": 3274, 
  "ratios": 3275, 
  "B@@": 3276, 
  "attacked": 3277, 
  "judiciary": 3278, 
  "grave": 3279, 
  "speculative": 3280, 
  "Austria": 3281, 
  "communication": 3282, 
  "slower": 3283, 
  "isolated": 3284, 
  "fellow": 3285, 
  "League": 3286, 
  "impoverished": 3287, 
  "al@@": 3288, 
  "foundations": 3289, 
  "delay": 3290, 
  "co-@@": 3291, 
  "pointed": 3292, 
  "k": 3293, 
  "instrument": 3294, 
  "optimism": 3295, 
  "typical": 3296, 
  "talking": 3297, 
  "element": 3298, 
  "civilization": 3299, 
  "two-thirds": 3300, 
  "refusal": 3301, 
  "communications": 3302, 
  "adapt": 3303, 
  "puts": 3304, 
  "prominent": 3305, 
  "embraced": 3306, 
  "comparison": 3307, 
  "nineteenth": 3308, 
  "fashion": 3309, 
  "deals": 3310, 
  "borrowers": 3311, 
  "victim": 3312, 
  "earn": 3313, 
  "binding": 3314, 
  "As": 3315, 
  "enforcement": 3316, 
  "unit": 3317, 
  "migrants": 3318, 
  "doubts": 3319, 
  "outlook": 3320, 
  "careful": 3321, 
  "st": 3322, 
  "understandable": 3323, 
  "expertise": 3324, 
  "employers": 3325, 
  "write": 3326, 
  "student": 3327, 
  "survey": 3328, 
  "persistent": 3329, 
  "ideal": 3330, 
  "trigger": 3331, 
  "reliance": 3332, 
  "entered": 3333, 
  "limiting": 3334, 
  "mounting": 3335, 
  "joining": 3336, 
  "acknowledge": 3337, 
  "urgently": 3338, 
  "guide": 3339, 
  "grand": 3340, 
  "unfair": 3341, 
  "disastrous": 3342, 
  "depreciation": 3343, 
  "tends": 3344, 
  "refuse": 3345, 
  "35": 3346, 
  "chain": 3347, 
  "negotiated": 3348, 
  "bureaucratic": 3349, 
  "assuming": 3350, 
  "u@@": 3351, 
  "constitute": 3352, 
  "Jacques": 3353, 
  "tsunami": 3354, 
  "explained": 3355, 
  "evident": 3356, 
  "colonial": 3357, 
  "Yemen": 3358, 
  "north": 3359, 
  "whenever": 3360, 
  "forests": 3361, 
  "desperate": 3362, 
  "judicial": 3363, 
  "bombing": 3364, 
  "bid": 3365, 
  "sight": 3366, 
  "deposits": 3367, 
  "admit": 3368, 
  "Harvard": 3369, 
  "aspect": 3370, 
  "extensive": 3371, 
  "mixed": 3372, 
  "Myanmar": 3373, 
  "tasks": 3374, 
  "lowering": 3375, 
  "assessment": 3376, 
  "situations": 3377, 
  "competing": 3378, 
  "classes": 3379, 
  "renewable": 3380, 
  "2020": 3381, 
  "stated": 3382, 
  "images": 3383, 
  "Agency": 3384, 
  "western": 3385, 
  "requiring": 3386, 
  "epidemic": 3387, 
  "j@@": 3388, 
  "arise": 3389, 
  "momentum": 3390, 
  "balances": 3391, 
  "multiple": 3392, 
  "relationships": 3393, 
  "purchase": 3394, 
  "commodities": 3395, 
  "ve": 3396, 
  "acceptance": 3397, 
  "Convention": 3398, 
  "periods": 3399, 
  "demanded": 3400, 
  "Indians": 3401, 
  "struggling": 3402, 
  "1.5": 3403, 
  "declines": 3404, 
  "weapon": 3405, 
  "reduces": 3406, 
  "answers": 3407, 
  "produces": 3408, 
  "bureaucrats": 3409, 
  "meltdown": 3410, 
  "enabled": 3411, 
  "bomb": 3412, 
  "damaging": 3413, 
  "supports": 3414, 
  "article": 3415, 
  "lay": 3416, 
  "Spring": 3417, 
  "philosophy": 3418, 
  "missing": 3419, 
  "striking": 3420, 
  "and@@": 3421, 
  "well-@@": 3422, 
  "de-@@": 3423, 
  "representative": 3424, 
  "declaration": 3425, 
  "interesting": 3426, 
  "Belarus": 3427, 
  "estimate": 3428, 
  "Earth": 3429, 
  "N@@": 3430, 
  "pragmatic": 3431, 
  "weather": 3432, 
  "marginal": 3433, 
  "signal": 3434, 
  "ancient": 3435, 
  "Mexican": 3436, 
  "Brown": 3437, 
  "poorly": 3438, 
  "prolonged": 3439, 
  "parallel": 3440, 
  "enhanced": 3441, 
  "rejection": 3442, 
  "mother": 3443, 
  "schemes": 3444, 
  "unknown": 3445, 
  "biological": 3446, 
  "loan": 3447, 
  "rooted": 3448, 
  "ironically": 3449, 
  "obtain": 3450, 
  "capitalist": 3451, 
  "prepare": 3452, 
  "dark": 3453, 
  "22": 3454, 
  "skilled": 3455, 
  "troubled": 3456, 
  "Holocaust": 3457, 
  "match": 3458, 
  "fairly": 3459, 
  "th@@": 3460, 
  "revolutions": 3461, 
  "tied": 3462, 
  "severely": 3463, 
  "wall": 3464, 
  "triumph": 3465, 
  "foster": 3466, 
  "mix": 3467, 
  "Nazi": 3468, 
  "generating": 3469, 
  "liabilities": 3470, 
  "campaigns": 3471, 
  "gender": 3472, 
  "restored": 3473, 
  "functions": 3474, 
  "informed": 3475, 
  "procedures": 3476, 
  "counter": 3477, 
  "thousand": 3478, 
  "accepting": 3479, 
  "denied": 3480, 
  "explicit": 3481, 
  "Switzerland": 3482, 
  "conclude": 3483, 
  "mortality": 3484, 
  "reversed": 3485, 
  "assess": 3486, 
  "count": 3487, 
  "forget": 3488, 
  "re": 3489, 
  "Constitutional": 3490, 
  "sh@@": 3491, 
  "on@@": 3492, 
  "compelling": 3493, 
  "unacceptable": 3494, 
  "transatlantic": 3495, 
  "Square": 3496, 
  "Cyprus": 3497, 
  "silence": 3498, 
  "long-run": 3499, 
  "T@@": 3500, 
  "predictable": 3501, 
  "Princeton": 3502, 
  "Institute": 3503, 
  "blamed": 3504, 
  "exposure": 3505, 
  "successes": 3506, 
  "McCain": 3507, 
  "village": 3508, 
  "boosting": 3509, 
  "tendency": 3510, 
  "distant": 3511, 
  "cheaper": 3512, 
  "punishment": 3513, 
  "innovations": 3514, 
  "weaknesses": 3515, 
  "chairman": 3516, 
  "watch": 3517, 
  "treaties": 3518, 
  "customers": 3519, 
  "2013": 3520, 
  "fill": 3521, 
  "diplomats": 3522, 
  "wife": 3523, 
  "site": 3524, 
  "re-election": 3525, 
  "provisions": 3526, 
  "telling": 3527, 
  "deepening": 3528, 
  "freely": 3529, 
  "5@@": 3530, 
  "engine": 3531, 
  "considering": 3532, 
  "exceed": 3533, 
  "receiving": 3534, 
  "ze": 3535, 
  "M@@": 3536, 
  "facto": 3537, 
  "persuade": 3538, 
  "i.e.": 3539, 
  "fit": 3540, 
  "owners": 3541, 
  "actively": 3542, 
  "ons": 3543, 
  "t-@@": 3544, 
  "keeps": 3545, 
  "City": 3546, 
  "FDI": 3547, 
  "committee": 3548, 
  "Lula": 3549, 
  "bin": 3550, 
  "racial": 3551, 
  "ratings": 3552, 
  "st@@": 3553, 
  "solely": 3554, 
  "statistics": 3555, 
  "sub-prime": 3556, 
  "map": 3557, 
  "pre@@": 3558, 
  "honest": 3559, 
  "normally": 3560, 
  "returning": 3561, 
  "enterprise": 3562, 
  "Health": 3563, 
  "Policy": 3564, 
  "ineffective": 3565, 
  "fix": 3566, 
  "immense": 3567, 
  "Center": 3568, 
  "appointed": 3569, 
  "dictator": 3570, 
  "visited": 3571, 
  "Rome": 3572, 
  "eventual": 3573, 
  "signals": 3574, 
  "speaking": 3575, 
  "accomplished": 3576, 
  "involves": 3577, 
  "governed": 3578, 
  "eliminating": 3579, 
  "duty": 3580, 
  "strikes": 3581, 
  "code": 3582, 
  "controlling": 3583, 
  "distinct": 3584, 
  "pensions": 3585, 
  "bloody": 3586, 
  "Church": 3587, 
  "volatile": 3588, 
  "concentration": 3589, 
  "purely": 3590, 
  "respected": 3591, 
  "feared": 3592, 
  "expert": 3593, 
  "experiencing": 3594, 
  "AKP": 3595, 
  "adding": 3596, 
  "flight": 3597, 
  "constructive": 3598, 
  "flawed": 3599, 
  "Chen": 3600, 
  "steel": 3601, 
  "sphere": 3602, 
  "Mr.": 3603, 
  "ri@@": 3604, 
  "Baghdad": 3605, 
  "looming": 3606, 
  "director": 3607, 
  "claiming": 3608, 
  "explicitly": 3609, 
  "struck": 3610, 
  "counterparts": 3611, 
  "This": 3612, 
  "index": 3613, 
  "promoted": 3614, 
  "aspirations": 3615, 
  "worries": 3616, 
  "experiment": 3617, 
  "be@@": 3618, 
  "mood": 3619, 
  "Philippines": 3620, 
  ".@@": 3621, 
  "fraud": 3622, 
  "ous": 3623, 
  "younger": 3624, 
  "trip": 3625, 
  "lowest": 3626, 
  "safer": 3627, 
  "documents": 3628, 
  "familiar": 3629, 
  "follows": 3630, 
  "roads": 3631, 
  "Thaksin": 3632, 
  "dominance": 3633, 
  "friendly": 3634, 
  "shifts": 3635, 
  "vulnerability": 3636, 
  "1996": 3637, 
  "Ali": 3638, 
  "breaking": 3639, 
  "recessions": 3640, 
  "plausible": 3641, 
  "f@@": 3642, 
  "outright": 3643, 
  "li@@": 3644, 
  "HIV@@": 3645, 
  "explosion": 3646, 
  "inter@@": 3647, 
  "psychological": 3648, 
  "freedoms": 3649, 
  "maybe": 3650, 
  "challenging": 3651, 
  "Pacific": 3652, 
  "violations": 3653, 
  "testing": 3654, 
  "feature": 3655, 
  "Africans": 3656, 
  "coverage": 3657, 
  "withdraw": 3658, 
  "emotional": 3659, 
  "l@@": 3660, 
  "Gazprom": 3661, 
  "suspicion": 3662, 
  "R@@": 3663, 
  "acted": 3664, 
  "coherent": 3665, 
  "deregulation": 3666, 
  "Agreement": 3667, 
  "sending": 3668, 
  "writing": 3669, 
  "feed": 3670, 
  "defending": 3671, 
  "150": 3672, 
  "player": 3673, 
  "obstacle": 3674, 
  "Kenya": 3675, 
  "ranging": 3676, 
  "differently": 3677, 
  "undertaken": 3678, 
  "well-being": 3679, 
  "intention": 3680, 
  "pays": 3681, 
  "F@@": 3682, 
  "storm": 3683, 
  "legislative": 3684, 
  "courage": 3685, 
  "hegemony": 3686, 
  "tested": 3687, 
  "spoke": 3688, 
  "prevention": 3689, 
  "informal": 3690, 
  "worrying": 3691, 
  "euros": 3692, 
  "quest": 3693, 
  "h@@": 3694, 
  "regular": 3695, 
  "conservatives": 3696, 
  "specifically": 3697, 
  "Forum": 3698, 
  "hospital": 3699, 
  "interpretation": 3700, 
  "Angela": 3701, 
  "Lebanese": 3702, 
  "details": 3703, 
  "condemned": 3704, 
  "entitled": 3705, 
  "2050": 3706, 
  "poses": 3707, 
  "founded": 3708, 
  "hatred": 3709, 
  "dynamism": 3710, 
  "diagnosis": 3711, 
  "projected": 3712, 
  "progressive": 3713, 
  "Friedman": 3714, 
  "essence": 3715, 
  "vehicles": 3716, 
  "volume": 3717, 
  "entering": 3718, 
  "beings": 3719, 
  "residents": 3720, 
  "alleged": 3721, 
  "forgotten": 3722, 
  "blow": 3723, 
  "at@@": 3724, 
  "midst": 3725, 
  "complexity": 3726, 
  "motivated": 3727, 
  "naval": 3728, 
  "soaring": 3729, 
  "Growth": 3730, 
  "globalized": 3731, 
  "indigenous": 3732, 
  "resolving": 3733, 
  "overseas": 3734, 
  "officially": 3735, 
  "ad": 3736, 
  "determination": 3737, 
  "medium": 3738, 
  "post": 3739, 
  "method": 3740, 
  "begins": 3741, 
  "tension": 3742, 
  "socialism": 3743, 
  "connected": 3744, 
  "demonstrates": 3745, 
  "suspect": 3746, 
  "unpopular": 3747, 
  "1967": 3748, 
  "terrible": 3749, 
  "regulated": 3750, 
  "Prize": 3751, 
  "twenty": 3752, 
  "serves": 3753, 
  "sets": 3754, 
  "Qaddafi": 3755, 
  "revive": 3756, 
  "cast": 3757, 
  "subjects": 3758, 
  "devoted": 3759, 
  "Third": 3760, 
  "Cairo": 3761, 
  "contagion": 3762, 
  "marks": 3763, 
  "Brothers": 3764, 
  "virtual": 3765, 
  "intentions": 3766, 
  "forecast": 3767, 
  "beliefs": 3768, 
  "ar@@": 3769, 
  "Group": 3770, 
  "absent": 3771, 
  "reinforced": 3772, 
  "Israeli-Palestinian": 3773, 
  "to@@": 3774, 
  "vicious": 3775, 
  "est": 3776, 
  "als": 3777, 
  "prevailing": 3778, 
  "bought": 3779, 
  "deserve": 3780, 
  "evolutionary": 3781, 
  "professionals": 3782, 
  "stabilization": 3783, 
  "discussed": 3784, 
  "NPT": 3785, 
  "peacekeeping": 3786, 
  "destructive": 3787, 
  "1990s": 3788, 
  "6@@": 3789, 
  "theories": 3790, 
  "devaluation": 3791, 
  "confirmed": 3792, 
  "software": 3793, 
  "awareness": 3794, 
  "tions": 3795, 
  "recall": 3796, 
  "engineers": 3797, 
  "components": 3798, 
  "risen": 3799, 
  "desperately": 3800, 
  "distance": 3801, 
  "professor": 3802, 
  "spreading": 3803, 
  "contributing": 3804, 
  "Annan": 3805, 
  "mobilize": 3806, 
  "enforce": 3807, 
  "illness": 3808, 
  "bitter": 3809, 
  "manipulation": 3810, 
  "resentment": 3811, 
  "accumulation": 3812, 
  "am@@": 3813, 
  "anywhere": 3814, 
  "controversial": 3815, 
  "w@@": 3816, 
  "frequent": 3817, 
  "findings": 3818, 
  "characterized": 3819, 
  "tariffs": 3820, 
  "introduction": 3821, 
  "representing": 3822, 
  "recognizes": 3823, 
  "hot": 3824, 
  "challenged": 3825, 
  "connection": 3826, 
  "eager": 3827, 
  "reinforce": 3828, 
  "art": 3829, 
  "undertake": 3830, 
  "alliances": 3831, 
  "sub-Saharan": 3832, 
  "Shanghai": 3833, 
  "Gorbachev": 3834, 
  "implied": 3835, 
  "stabilizing": 3836, 
  "starts": 3837, 
  "promotion": 3838, 
  "free-trade": 3839, 
  "hostility": 3840, 
  "steadily": 3841, 
  "displaced": 3842, 
  "anxiety": 3843, 
  "Caucasus": 3844, 
  "dropped": 3845, 
  "imported": 3846, 
  "funded": 3847, 
  "K@@": 3848, 
  "Gaulle": 3849, 
  "surrounding": 3850, 
  "considerations": 3851, 
  "beneficial": 3852, 
  "facilitate": 3853, 
  "winners": 3854, 
  "defeated": 3855, 
  "sum": 3856, 
  "criticized": 3857, 
  "owned": 3858, 
  "mobile": 3859, 
  "channels": 3860, 
  "burdens": 3861, 
  "out@@": 3862, 
  "permit": 3863, 
  "Charles": 3864, 
  "decent": 3865, 
  "named": 3866, 
  "foreign-policy": 3867, 
  "acknowledged": 3868, 
  "shut": 3869, 
  "perform": 3870, 
  "Balkans": 3871, 
  "reporting": 3872, 
  "cope": 3873, 
  "accelerate": 3874, 
  "free-market": 3875, 
  "favored": 3876, 
  "namely": 3877, 
  "sole": 3878, 
  "happiness": 3879, 
  "cold": 3880, 
  "silent": 3881, 
  "blind": 3882, 
  "seat": 3883, 
  "Shi@@": 3884, 
  "Tokyo": 3885, 
  "harsh": 3886, 
  "background": 3887, 
  "knowing": 3888, 
  "adoption": 3889, 
  "doomed": 3890, 
  "dire": 3891, 
  "advocate": 3892, 
  "dying": 3893, 
  "exporters": 3894, 
  "ant": 3895, 
  "scene": 3896, 
  "traders": 3897, 
  "observed": 3898, 
  "enabling": 3899, 
  "p": 3900, 
  "Gates": 3901, 
  "downside": 3902, 
  "exploit": 3903, 
  "ordered": 3904, 
  "introduce": 3905, 
  "voluntary": 3906, 
  "Mikhail": 3907, 
  "teams": 3908, 
  "superior": 3909, 
  "online": 3910, 
  "neglect": 3911, 
  "dozens": 3912, 
  "witnessed": 3913, 
  "implicit": 3914, 
  "fraction": 3915, 
  "physics": 3916, 
  "narrative": 3917, 
  "half-century": 3918, 
  "stakes": 3919, 
  "memories": 3920, 
  "Chicago": 3921, 
  "dynamics": 3922, 
  "distinction": 3923, 
  "remove": 3924, 
  "names": 3925, 
  "foremost": 3926, 
  "pipeline": 3927, 
  "adjustments": 3928, 
  "Baltic": 3929, 
  "demise": 3930, 
  "EMU": 3931, 
  "high-tech": 3932, 
  "Consensus": 3933, 
  "versus": 3934, 
  "roles": 3935, 
  "ding": 3936, 
  "holdings": 3937, 
  "confined": 3938, 
  "steady": 3939, 
  "Madrid": 3940, 
  "clinical": 3941, 
  "farm": 3942, 
  "Mugabe": 3943, 
  "contained": 3944, 
  "units": 3945, 
  "hospitals": 3946, 
  "targeting": 3947, 
  "excluded": 3948, 
  "investor": 3949, 
  "disappear": 3950, 
  "budgetary": 3951, 
  "precedent": 3952, 
  "ranks": 3953, 
  "feelings": 3954, 
  "watching": 3955, 
  "equilibrium": 3956, 
  "rebuild": 3957, 
  "broadly": 3958, 
  "1993": 3959, 
  "21": 3960, 
  "morality": 3961, 
  "sit": 3962, 
  "When": 3963, 
  "optimistic": 3964, 
  "captured": 3965, 
  "shadow": 3966, 
  "waves": 3967, 
  "enacted": 3968, 
  "euro-zone": 3969, 
  "trained": 3970, 
  "secondary": 3971, 
  "therapy": 3972, 
  "enjoyed": 3973, 
  "automatic": 3974, 
  "note": 3975, 
  "concessions": 3976, 
  "experiments": 3977, 
  "famously": 3978, 
  "practically": 3979, 
  "serving": 3980, 
  "zed": 3981, 
  "conviction": 3982, 
  "factions": 3983, 
  "Act": 3984, 
  "citizen": 3985, 
  "Abdullah": 3986, 
  "W@@": 3987, 
  "doubled": 3988, 
  "contraction": 3989, 
  "uranium": 3990, 
  "commission": 3991, 
  "overwhelmingly": 3992, 
  "broke": 3993, 
  "irrelevant": 3994, 
  "applies": 3995, 
  "describe": 3996, 
  "behave": 3997, 
  "prevail": 3998, 
  "Assad": 3999, 
  "confident": 4000, 
  "hour": 4001, 
  "camps": 4002, 
  "commentators": 4003, 
  "boundaries": 4004, 
  "Belgium": 4005, 
  "feasible": 4006, 
  "representation": 4007, 
  "qualified": 4008, 
  "revival": 4009, 
  "23": 4010, 
  "minor": 4011, 
  "DPJ": 4012, 
  "v@@": 4013, 
  "bet": 4014, 
  "upper": 4015, 
  "convincing": 4016, 
  "Association": 4017, 
  "strange": 4018, 
  "vis-à-vis": 4019, 
  "poll": 4020, 
  "orders": 4021, 
  "Keynesian": 4022, 
  "mid-@@": 4023, 
  "globe": 4024, 
  "se": 4025, 
  "Article": 4026, 
  "a-@@": 4027, 
  "emphasized": 4028, 
  "Gore": 4029, 
  "les": 4030, 
  "preparing": 4031, 
  "consideration": 4032, 
  "approximately": 4033, 
  "friend": 4034, 
  "paradox": 4035, 
  "competitors": 4036, 
  "1979": 4037, 
  "speculation": 4038, 
  "gene": 4039, 
  "Iranians": 4040, 
  "shot": 4041, 
  "altogether": 4042, 
  "zing": 4043, 
  "grows": 4044, 
  "al-Qaeda": 4045, 
  "remarkably": 4046, 
  "es@@": 4047, 
  "techniques": 4048, 
  "scenarios": 4049, 
  "redistribution": 4050, 
  "lacking": 4051, 
  "veto": 4052, 
  "fulfill": 4053, 
  "buildings": 4054, 
  "settle": 4055, 
  "real-estate": 4056, 
  "reactions": 4057, 
  "hurt": 4058, 
  "soared": 4059, 
  "policymaking": 4060, 
  "declare": 4061, 
  "province": 4062, 
  "USSR": 4063, 
  "worker": 4064, 
  "frustration": 4065, 
  "morally": 4066, 
  "impression": 4067, 
  "marriage": 4068, 
  "What": 4069, 
  "bridge": 4070, 
  "cooperative": 4071, 
  "career": 4072, 
  "accident": 4073, 
  "holders": 4074, 
  "backlash": 4075, 
  "east": 4076, 
  "night": 4077, 
  "parity": 4078, 
  "constantly": 4079, 
  "survived": 4080, 
  "er@@": 4081, 
  "industrialized": 4082, 
  "ballot": 4083, 
  "confronting": 4084, 
  "liberals": 4085, 
  "Kurdish": 4086, 
  "tomorrow": 4087, 
  "losers": 4088, 
  "1945": 4089, 
  "neighbor": 4090, 
  "surprised": 4091, 
  "countless": 4092, 
  "novel": 4093, 
  "reference": 4094, 
  "automatically": 4095, 
  "sports": 4096, 
  "temperature": 4097, 
  "breakthrough": 4098, 
  "US-@@": 4099, 
  "firmly": 4100, 
  "discredited": 4101, 
  "clash": 4102, 
  "ease": 4103, 
  "formula": 4104, 
  "scarce": 4105, 
  "biology": 4106, 
  "laid": 4107, 
  "unified": 4108, 
  "z@@": 4109, 
  "compensate": 4110, 
  "Abu": 4111, 
  "adjust": 4112, 
  "dubious": 4113, 
  "classic": 4114, 
  "Ghana": 4115, 
  "1,000": 4116, 
  "foreign-exchange": 4117, 
  "dismissed": 4118, 
  "Microsoft": 4119, 
  "Lehman": 4120, 
  "loyalty": 4121, 
  "collateral": 4122, 
  "inclusive": 4123, 
  "repeat": 4124, 
  "stick": 4125, 
  "eliminated": 4126, 
  "constrained": 4127, 
  "furthermore": 4128, 
  "combine": 4129, 
  "guard": 4130, 
  "po@@": 4131, 
  "crops": 4132, 
  "investigation": 4133, 
  "tic": 4134, 
  "reward": 4135, 
  "teachers": 4136, 
  "diminished": 4137, 
  "discourse": 4138, 
  "plenty": 4139, 
  "agents": 4140, 
  "relied": 4141, 
  "Serbs": 4142, 
  "multinational": 4143, 
  "strongest": 4144, 
  "bloc": 4145, 
  "si@@": 4146, 
  "2.5": 4147, 
  "edge": 4148, 
  "followers": 4149, 
  "acquire": 4150, 
  "ingly": 4151, 
  "spreads": 4152, 
  "shaped": 4153, 
  "check": 4154, 
  "packages": 4155, 
  "IPCC": 4156, 
  "ary": 4157, 
  "criminals": 4158, 
  "fairness": 4159, 
  "Bangladesh": 4160, 
  "deterrence": 4161, 
  "everybody": 4162, 
  "bias": 4163, 
  "raw": 4164, 
  "sts": 4165, 
  "sovereign-debt": 4166, 
  "existed": 4167, 
  "integrate": 4168, 
  "drawing": 4169, 
  "banned": 4170, 
  "misguided": 4171, 
  "homeowners": 4172, 
  "deployed": 4173, 
  "obligation": 4174, 
  "insisted": 4175, 
  "relies": 4176, 
  "Cup": 4177, 
  "mess": 4178, 
  "reflecting": 4179, 
  "forecasts": 4180, 
  "cooperate": 4181, 
  "initiated": 4182, 
  "customs": 4183, 
  "se@@": 4184, 
  "sacrifice": 4185, 
  "Richard": 4186, 
  "indicators": 4187, 
  "citizenship": 4188, 
  "miracle": 4189, 
  "treating": 4190, 
  "Cooperation": 4191, 
  "grasp": 4192, 
  "collectively": 4193, 
  "makers": 4194, 
  "deemed": 4195, 
  "entrenched": 4196, 
  "ethics": 4197, 
  "defining": 4198, 
  "near-@@": 4199, 
  "vastly": 4200, 
  "Nixon": 4201, 
  "fine": 4202, 
  "relying": 4203, 
  "carrying": 4204, 
  "postcommunist": 4205, 
  "discovery": 4206, 
  "Ronald": 4207, 
  "wishes": 4208, 
  "machine": 4209, 
  "rebels": 4210, 
  "derivatives": 4211, 
  "ic": 4212, 
  "attempted": 4213, 
  "arrived": 4214, 
  "Google": 4215, 
  "tells": 4216, 
  "Community": 4217, 
  "transnational": 4218, 
  "passing": 4219, 
  "application": 4220, 
  "lands": 4221, 
  "cohesion": 4222, 
  "breast": 4223, 
  "minimal": 4224, 
  "possibilities": 4225, 
  "upward": 4226, 
  "Law": 4227, 
  "reading": 4228, 
  "proud": 4229, 
  "rampant": 4230, 
  "train": 4231, 
  "characteristics": 4232, 
  "Conference": 4233, 
  "Declaration": 4234, 
  "cabinet": 4235, 
  "C": 4236, 
  "WWII": 4237, 
  "assist": 4238, 
  "Pope": 4239, 
  "I@@": 4240, 
  "symptoms": 4241, 
  "tragic": 4242, 
  "fueling": 4243, 
  "denial": 4244, 
  "shortage": 4245, 
  "origin": 4246, 
  "artificial": 4247, 
  "Chechnya": 4248, 
  "tightening": 4249, 
  "irrational": 4250, 
  "Ethiopia": 4251, 
  "error": 4252, 
  "exclusively": 4253, 
  "chemical": 4254, 
  "wise": 4255, 
  "strict": 4256, 
  "ac@@": 4257, 
  "Royal": 4258, 
  "symbolic": 4259, 
  "partial": 4260, 
  "symbol": 4261, 
  "premium": 4262, 
  "odds": 4263, 
  "dioxide": 4264, 
  "bombs": 4265, 
  "scandals": 4266, 
  "overnight": 4267, 
  "contains": 4268, 
  "proof": 4269, 
  "Prague": 4270, 
  "crop": 4271, 
  "predecessor": 4272, 
  "k@@": 4273, 
  "burst": 4274, 
  "invited": 4275, 
  "sub@@": 4276, 
  "deliberately": 4277, 
  "Charter": 4278, 
  "absorb": 4279, 
  "Swedish": 4280, 
  "salaries": 4281, 
  "offensive": 4282, 
  "substitute": 4283, 
  "0.@@": 4284, 
  "pull": 4285, 
  "skeptical": 4286, 
  "Somalia": 4287, 
  "document": 4288, 
  "comparative": 4289, 
  "insecurity": 4290, 
  "Labour": 4291, 
  "ceiling": 4292, 
  "negotiation": 4293, 
  "creditor": 4294, 
  "arguably": 4295, 
  "constitutes": 4296, 
  "Red": 4297, 
  "catch": 4298, 
  "separation": 4299, 
  "i": 4300, 
  "ad@@": 4301, 
  "forest": 4302, 
  "foreseeable": 4303, 
  "occurs": 4304, 
  "militias": 4305, 
  "suffers": 4306, 
  "accounted": 4307, 
  "extending": 4308, 
  "bed": 4309, 
  "architecture": 4310, 
  "populism": 4311, 
  "regain": 4312, 
  "systematic": 4313, 
  "Climate": 4314, 
  "patent": 4315, 
  "platform": 4316, 
  "Wen": 4317, 
  "liquid": 4318, 
  "temperatures": 4319, 
  "arrangement": 4320, 
  "acute": 4321, 
  "sadly": 4322, 
  "decrease": 4323, 
  "earned": 4324, 
  "studied": 4325, 
  "futures": 4326, 
  "insurgency": 4327, 
  "skepticism": 4328, 
  "ine": 4329, 
  "sake": 4330, 
  "spends": 4331, 
  "govern": 4332, 
  "EFSF": 4333, 
  "panel": 4334, 
  "indirect": 4335, 
  "endorsed": 4336, 
  "sp@@": 4337, 
  "under-@@": 4338, 
  "enrichment": 4339, 
  "accurate": 4340, 
  "l": 4341, 
  "prevailed": 4342, 
  "split": 4343, 
  "determining": 4344, 
  "taught": 4345, 
  "mothers": 4346, 
  "unnecessary": 4347, 
  "Socialist": 4348, 
  "internet": 4349, 
  "shortcomings": 4350, 
  "LDP": 4351, 
  "affects": 4352, 
  "calm": 4353, 
  "lender": 4354, 
  "le@@": 4355, 
  "erupted": 4356, 
  "Gandhi": 4357, 
  "sentiments": 4358, 
  "Congo": 4359, 
  "extension": 4360, 
  "destroying": 4361, 
  "Brazilian": 4362, 
  "filled": 4363, 
  "emerges": 4364, 
  "public-sector": 4365, 
  "notice": 4366, 
  "ty": 4367, 
  "Times": 4368, 
  "talent": 4369, 
  "games": 4370, 
  "cautious": 4371, 
  "inclusion": 4372, 
  "indifference": 4373, 
  "reformers": 4374, 
  "profitable": 4375, 
  "des": 4376, 
  "neighborhood": 4377, 
  "propose": 4378, 
  "forge": 4379, 
  "luxury": 4380, 
  "founding": 4381, 
  "preferred": 4382, 
  "sectarian": 4383, 
  "degrees": 4384, 
  "bases": 4385, 
  "cure": 4386, 
  "accelerated": 4387, 
  "misleading": 4388, 
  "recovered": 4389, 
  "settled": 4390, 
  "ab@@": 4391, 
  "opposing": 4392, 
  "extremist": 4393, 
  "justification": 4394, 
  "stuck": 4395, 
  "remote": 4396, 
  "400": 4397, 
  "7@@": 4398, 
  "Liu": 4399, 
  "for@@": 4400, 
  "traffic": 4401, 
  "availability": 4402, 
  "ni@@": 4403, 
  "margin": 4404, 
  "Geneva": 4405, 
  "distress": 4406, 
  "rivals": 4407, 
  "perfectly": 4408, 
  "capability": 4409, 
  "slowing": 4410, 
  "attempting": 4411, 
  "undermines": 4412, 
  "fed": 4413, 
  "Koizumi": 4414, 
  "Kurds": 4415, 
  "vested": 4416, 
  "gross": 4417, 
  "par@@": 4418, 
  "ity": 4419, 
  "pi@@": 4420, 
  "Cameron": 4421, 
  "�": 4422, 
  "understands": 4423, 
  "thinks": 4424, 
  "reveal": 4425, 
  "temptation": 4426, 
  "partnerships": 4427, 
  "route": 4428, 
  "Chief": 4429, 
  "acquired": 4430, 
  "dimension": 4431, 
  "Free": 4432, 
  "inaction": 4433, 
  "Maastricht": 4434, 
  "display": 4435, 
  "adaptation": 4436, 
  "rises": 4437, 
  "wing": 4438, 
  "Office": 4439, 
  "unification": 4440, 
  "request": 4441, 
  "assumptions": 4442, 
  "announcement": 4443, 
  "predecessors": 4444, 
  "originally": 4445, 
  "post-war": 4446, 
  "defaults": 4447, 
  "transmission": 4448, 
  "regulate": 4449, 
  "biodiversity": 4450, 
  "pick": 4451, 
  "Premier": 4452, 
  "choosing": 4453, 
  "portfolio": 4454, 
  "burning": 4455, 
  "Yushchenko": 4456, 
  "enduring": 4457, 
  "28": 4458, 
  "overly": 4459, 
  "consolidate": 4460, 
  "consent": 4461, 
  "Moldova": 4462, 
  "mo@@": 4463, 
  "defensive": 4464, 
  "GNP": 4465, 
  "prone": 4466, 
  "religions": 4467, 
  "mentioned": 4468, 
  "villages": 4469, 
  "it@@": 4470, 
  "18@@": 4471, 
  "radically": 4472, 
  "stations": 4473, 
  "ism": 4474, 
  "tradable": 4475, 
  "association": 4476, 
  "Asians": 4477, 
  "covered": 4478, 
  "Khrushchev": 4479, 
  "gases": 4480, 
  "Schröder": 4481, 
  "assault": 4482, 
  "Ben": 4483, 
  "rebalancing": 4484, 
  "fifth": 4485, 
  "origins": 4486, 
  "personnel": 4487, 
  "bondholders": 4488, 
  "Swiss": 4489, 
  "fundamentalism": 4490, 
  "collaboration": 4491, 
  "distributed": 4492, 
  "scandal": 4493, 
  "securing": 4494, 
  "bargain": 4495, 
  "militants": 4496, 
  "Sunnis": 4497, 
  "Berkeley": 4498, 
  "pact": 4499, 
  "If": 4500, 
  "parliaments": 4501, 
  "J@@": 4502, 
  "ent": 4503, 
  "do@@": 4504, 
  "TB": 4505, 
  "riots": 4506, 
  "Chechen": 4507, 
  "retail": 4508, 
  "entity": 4509, 
  "resilience": 4510, 
  "compare": 4511, 
  "poised": 4512, 
  "26": 4513, 
  "completed": 4514, 
  "Nuclear": 4515, 
  "Trichet": 4516, 
  "minimize": 4517, 
  "medium-term": 4518, 
  "bail": 4519, 
  "statistical": 4520, 
  "virus": 4521, 
  "provinces": 4522, 
  "rigid": 4523, 
  "facility": 4524, 
  "reforming": 4525, 
  "excuse": 4526, 
  "employed": 4527, 
  "motives": 4528, 
  "prize": 4529, 
  "timing": 4530, 
  "outsiders": 4531, 
  "Program": 4532, 
  "islands": 4533, 
  "keen": 4534, 
  "responding": 4535, 
  "exchanges": 4536, 
  "San": 4537, 
  "ages": 4538, 
  "indicates": 4539, 
  "run-up": 4540, 
  "meantime": 4541, 
  "box": 4542, 
  "interim": 4543, 
  "spectacular": 4544, 
  "conservation": 4545, 
  "PLO": 4546, 
  "entities": 4547, 
  "civilized": 4548, 
  "ideals": 4549, 
  "town": 4550, 
  "assured": 4551, 
  "unpredictable": 4552, 
  "long-@@": 4553, 
  "Leader": 4554, 
  "differ": 4555, 
  "detailed": 4556, 
  "Thatcher": 4557, 
  "witness": 4558, 
  "exceptions": 4559, 
  "tremendous": 4560, 
  "underground": 4561, 
  "shed": 4562, 
  "occasion": 4563, 
  "irresponsible": 4564, 
  "trap": 4565, 
  "brink": 4566, 
  "Round": 4567, 
  "warnings": 4568, 
  "tanks": 4569, 
  "empty": 4570, 
  "tissue": 4571, 
  "nationalists": 4572, 
  "Norway": 4573, 
  "attracted": 4574, 
  "ice": 4575, 
  "scholars": 4576, 
  "disappeared": 4577, 
  "Roosevelt": 4578, 
  "accomplish": 4579, 
  "Alan": 4580, 
  "incapable": 4581, 
  "one-@@": 4582, 
  "reasonably": 4583, 
  "phrase": 4584, 
  "ho@@": 4585, 
  "formidable": 4586, 
  "decisively": 4587, 
  "connections": 4588, 
  "dealt": 4589, 
  "b": 4590, 
  "booms": 4591, 
  "monitor": 4592, 
  "object": 4593, 
  "ch": 4594, 
  "sheer": 4595, 
  "radiation": 4596, 
  "vacuum": 4597, 
  "per@@": 4598, 
  "implying": 4599, 
  "assumes": 4600, 
  "harmful": 4601, 
  "outsourcing": 4602, 
  "widening": 4603, 
  "imbalance": 4604, 
  "performed": 4605, 
  "persist": 4606, 
  "centralized": 4607, 
  "calculations": 4608, 
  "Tiananmen": 4609, 
  "unclear": 4610, 
  "routinely": 4611, 
  "messages": 4612, 
  "totally": 4613, 
  "nets": 4614, 
  "affecting": 4615, 
  "judged": 4616, 
  "ously": 4617, 
  "affair": 4618, 
  "distressed": 4619, 
  "Y@@": 4620, 
  "ness": 4621, 
  "winner": 4622, 
  "teaching": 4623, 
  "warfare": 4624, 
  "ar": 4625, 
  "Government": 4626, 
  "etc": 4627, 
  "excellent": 4628, 
  "organisms": 4629, 
  "medicines": 4630, 
  "rally": 4631, 
  "cyclical": 4632, 
  "100,000": 4633, 
  "V@@": 4634, 
  "censorship": 4635, 
  "ambition": 4636, 
  "peripheral": 4637, 
  "benign": 4638, 
  "checks": 4639, 
  "repressive": 4640, 
  "coupled": 4641, 
  "assassination": 4642, 
  "containment": 4643, 
  "revived": 4644, 
  "payment": 4645, 
  "imagination": 4646, 
  "brief": 4647, 
  "blocked": 4648, 
  "king": 4649, 
  "affordable": 4650, 
  "invariably": 4651, 
  "guilty": 4652, 
  "illusion": 4653, 
  "stems": 4654, 
  "far-reaching": 4655, 
  "threshold": 4656, 
  "Green": 4657, 
  "engaging": 4658, 
  "seeds": 4659, 
  "forth": 4660, 
  "sick": 4661, 
  "Morocco": 4662, 
  "humiliation": 4663, 
  "Hague": 4664, 
  "temporarily": 4665, 
  "stark": 4666, 
  "skeptics": 4667, 
  "wary": 4668, 
  "aggression": 4669, 
  "behalf": 4670, 
  "angry": 4671, 
  "complain": 4672, 
  "succession": 4673, 
  "mi@@": 4674, 
  "qu@@": 4675, 
  "James": 4676, 
  "likes": 4677, 
  "station": 4678, 
  "subsequently": 4679, 
  "Report": 4680, 
  "electronic": 4681, 
  "retreat": 4682, 
  "recorded": 4683, 
  "missed": 4684, 
  "enthusiasm": 4685, 
  "factory": 4686, 
  "Rwanda": 4687, 
  "mutually": 4688, 
  "myth": 4689, 
  "insolvent": 4690, 
  "healthcare": 4691, 
  "Peru": 4692, 
  "welcomed": 4693, 
  "low-income": 4694, 
  "audience": 4695, 
  "vague": 4696, 
  "freeze": 4697, 
  "formation": 4698, 
  "camp": 4699, 
  "1973": 4700, 
  "sounds": 4701, 
  "vice": 4702, 
  "ded": 4703, 
  "considerably": 4704, 
  "deputy": 4705, 
  "businessmen": 4706, 
  "Serbian": 4707, 
  "channel": 4708, 
  "departure": 4709, 
  "rewards": 4710, 
  "socially": 4711, 
  "crowd": 4712, 
  "missions": 4713, 
  "wins": 4714, 
  "Jintao": 4715, 
  "readily": 4716, 
  "peasants": 4717, 
  "self-interest": 4718, 
  "Ban": 4719, 
  "liberation": 4720, 
  "catastrophic": 4721, 
  "pledged": 4722, 
  "logical": 4723, 
  "peacefully": 4724, 
  "elderly": 4725, 
  "Secretary-General": 4726, 
  "democrats": 4727, 
  "intent": 4728, 
  "Communists": 4729, 
  "inherited": 4730, 
  "fold": 4731, 
  "farming": 4732, 
  "legally": 4733, 
  "shrinking": 4734, 
  "semi-@@": 4735, 
  "low-@@": 4736, 
  "orderly": 4737, 
  "aircraft": 4738, 
  "der": 4739, 
  "democratically": 4740, 
  "Algeria": 4741, 
  "confusion": 4742, 
  "Georgian": 4743, 
  "encourages": 4744, 
  "satisfy": 4745, 
  "tolerate": 4746, 
  "booming": 4747, 
  "fl@@": 4748, 
  "seized": 4749, 
  "unite": 4750, 
  "gaps": 4751, 
  "Initiative": 4752, 
  "ance": 4753, 
  "react": 4754, 
  "oligarchs": 4755, 
  "But": 4756, 
  "rice": 4757, 
  "conclusions": 4758, 
  "uncertainties": 4759, 
  "surveys": 4760, 
  "inherently": 4761, 
  "low-cost": 4762, 
  "allocation": 4763, 
  "notable": 4764, 
  "unusual": 4765, 
  "There": 4766, 
  "value-added": 4767, 
  "brand": 4768, 
  "occurring": 4769, 
  "probability": 4770, 
  "systematically": 4771, 
  "r@@": 4772, 
  "65": 4773, 
  "massacre": 4774, 
  "tide": 4775, 
  "satellite": 4776, 
  "middle-income": 4777, 
  "Ukrainian": 4778, 
  "devices": 4779, 
  "moderates": 4780, 
  "exaggerated": 4781, 
  "indebted": 4782, 
  "IAEA": 4783, 
  "factories": 4784, 
  "sanitation": 4785, 
  "hide": 4786, 
  "Hillary": 4787, 
  "abandoning": 4788, 
  "n": 4789, 
  "genuinely": 4790, 
  "dreams": 4791, 
  "masses": 4792, 
  "portion": 4793, 
  "recommendations": 4794, 
  "substance": 4795, 
  "dozen": 4796, 
  "feet": 4797, 
  "Morsi": 4798, 
  "Castro": 4799, 
  "breakdown": 4800, 
  "identities": 4801, 
  "struggles": 4802, 
  "spiral": 4803, 
  "heading": 4804, 
  "seize": 4805, 
  "solved": 4806, 
  "KGB": 4807, 
  "literally": 4808, 
  "buyers": 4809, 
  "diminish": 4810, 
  "Brotherhood": 4811, 
  "deterioration": 4812, 
  "settlers": 4813, 
  "Goals": 4814, 
  "carries": 4815, 
  "restricted": 4816, 
  "induced": 4817, 
  "CEO": 4818, 
  "Saudis": 4819, 
  "dissidents": 4820, 
  "formally": 4821, 
  "Fox": 4822, 
  "proclaimed": 4823, 
  "preserving": 4824, 
  "radicals": 4825, 
  "oversight": 4826, 
  "urge": 4827, 
  "dysfunctional": 4828, 
  "barrel": 4829, 
  "m@@": 4830, 
  "Tibetan": 4831, 
  "bankrupt": 4832, 
  "deleveraging": 4833, 
  "tion": 4834, 
  "ignorance": 4835, 
  "op@@": 4836, 
  "dictators": 4837, 
  "Kazakhstan": 4838, 
  "fighters": 4839, 
  "financially": 4840, 
  "psychology": 4841, 
  "listen": 4842, 
  "letter": 4843, 
  "accordingly": 4844, 
  "tourism": 4845, 
  "exclusion": 4846, 
  "respectively": 4847, 
  "delivering": 4848, 
  "Osama": 4849, 
  "ling": 4850, 
  "ds": 4851, 
  "Ministry": 4852, 
  "suppose": 4853, 
  "inherent": 4854, 
  "el": 4855, 
  "Hollande": 4856, 
  "anticipated": 4857, 
  "depressed": 4858, 
  "located": 4859, 
  "Orthodox": 4860, 
  "Empire": 4861, 
  "Criminal": 4862, 
  "One": 4863, 
  "Change": 4864, 
  "requirement": 4865, 
  "induce": 4866, 
  "bust": 4867, 
  "pointing": 4868, 
  "handle": 4869, 
  "bonuses": 4870, 
  "an-@@": 4871, 
  "shortages": 4872, 
  "c": 4873, 
  "accelerating": 4874, 
  "reflection": 4875, 
  "restraint": 4876, 
  "ship": 4877, 
  "Erdoğan": 4878, 
  "curb": 4879, 
  "multi-@@": 4880, 
  "traded": 4881, 
  "problematic": 4882, 
  "motion": 4883, 
  "FARC": 4884, 
  "sale": 4885, 
  "besides": 4886, 
  "Finland": 4887, 
  "Front": 4888, 
  "Thai": 4889, 
  "landing": 4890, 
  "refuses": 4891, 
  "arises": 4892, 
  "Argentine": 4893, 
  "permitted": 4894, 
  "the@@": 4895, 
  "profession": 4896, 
  "Christians": 4897, 
  "ma@@": 4898, 
  "afraid": 4899, 
  "removing": 4900, 
  "grant": 4901, 
  "upcoming": 4902, 
  "unilaterally": 4903, 
  "advisers": 4904, 
  "closing": 4905, 
  "Southern": 4906, 
  "emotions": 4907, 
  "Olympic": 4908, 
  "rec@@": 4909, 
  "episodes": 4910, 
  "tempted": 4911, 
  "virtue": 4912, 
  "safeguard": 4913, 
  "Yanukovich": 4914, 
  "ships": 4915, 
  "favorite": 4916, 
  "recipe": 4917, 
  "balancing": 4918, 
  "paralysis": 4919, 
  "shortfall": 4920, 
  "pure": 4921, 
  "secured": 4922, 
  "Olympics": 4923, 
  "despair": 4924, 
  "Havel": 4925, 
  "tons": 4926, 
  "notwithstanding": 4927, 
  "preventive": 4928, 
  "enforced": 4929, 
  "aggressively": 4930, 
  "piece": 4931, 
  "utterly": 4932, 
  "errors": 4933, 
  "construct": 4934, 
  "oriented": 4935, 
  "Koreans": 4936, 
  "d-@@": 4937, 
  "category": 4938, 
  "bu@@": 4939, 
  "bearing": 4940, 
  "disorders": 4941, 
  "certainty": 4942, 
  "fertility": 4943, 
  "disparities": 4944, 
  "miss": 4945, 
  "bosses": 4946, 
  "focuses": 4947, 
  "admission": 4948, 
  "shrink": 4949, 
  "spectrum": 4950, 
  "arbitrary": 4951, 
  "S": 4952, 
  "vibrant": 4953, 
  "pervasive": 4954, 
  "chains": 4955, 
  "bears": 4956, 
  "believing": 4957, 
  "resisted": 4958, 
  "perceptions": 4959, 
  "academics": 4960, 
  "assembly": 4961, 
  "pillars": 4962, 
  "civic": 4963, 
  "destabilizing": 4964, 
  "Erdogan": 4965, 
  "preferences": 4966, 
  "low-carbon": 4967, 
  "alarming": 4968, 
  "perceive": 4969, 
  "concentrate": 4970, 
  "postwar": 4971, 
  "8@@": 4972, 
  "permanently": 4973, 
  "Guantánamo": 4974, 
  "pro@@": 4975, 
  "vi@@": 4976, 
  "Forces": 4977, 
  "expose": 4978, 
  "alist": 4979, 
  "Ukrainians": 4980, 
  "violation": 4981, 
  "creativity": 4982, 
  "lo@@": 4983, 
  "erosion": 4984, 
  "distinguish": 4985, 
  "depending": 4986, 
  "pool": 4987, 
  "prestige": 4988, 
  "urged": 4989, 
  "slowed": 4990, 
  "concepts": 4991, 
  "Uribe": 4992, 
  "Warsaw": 4993, 
  "consume": 4994, 
  "disintegration": 4995, 
  "approaching": 4996, 
  "bargaining": 4997, 
  "et": 4998, 
  "servants": 4999, 
  "writers": 5000, 
  "symbols": 5001, 
  "geography": 5002, 
  "ment": 5003, 
  "hearts": 5004, 
  "bo@@": 5005, 
  "deliberate": 5006, 
  "exporting": 5007, 
  "accumulated": 5008, 
  "philosopher": 5009, 
  "Rumsfeld": 5010, 
  "reportedly": 5011, 
  "deployment": 5012, 
  "om@@": 5013, 
  "pricing": 5014, 
  "appreciated": 5015, 
  "operational": 5016, 
  "Governing": 5017, 
  "ings": 5018, 
  "toll": 5019, 
  "hungry": 5020, 
  "Con@@": 5021, 
  "organize": 5022, 
  "gun": 5023, 
  "First": 5024, 
  "fundamentalist": 5025, 
  "crude": 5026, 
  "historians": 5027, 
  "Hatoyama": 5028, 
  "hate": 5029, 
  "touch": 5030, 
  "participating": 5031, 
  "Ayatollah": 5032, 
  "precise": 5033, 
  "evolved": 5034, 
  "imminent": 5035, 
  "Egyptians": 5036, 
  "deserves": 5037, 
  "performing": 5038, 
  "reasoning": 5039, 
  "labor-market": 5040, 
  "Strip": 5041, 
  "entails": 5042, 
  "examine": 5043, 
  "tariff": 5044, 
  "School": 5045, 
  "solving": 5046, 
  "um": 5047, 
  "Recession": 5048, 
  "transportation": 5049, 
  "flaws": 5050, 
  "Day": 5051, 
  "controversy": 5052, 
  "coast": 5053, 
  "en": 5054, 
  "interference": 5055, 
  "doors": 5056, 
  "habits": 5057, 
  "human-rights": 5058, 
  "bills": 5059, 
  "interdependence": 5060, 
  "insisting": 5061, 
  "workforce": 5062, 
  "ably": 5063, 
  "Vice": 5064, 
  "lift": 5065, 
  "unresolved": 5066, 
  "Labor": 5067, 
  "multilateralism": 5068, 
  "phone": 5069, 
  "driver": 5070, 
  "malaise": 5071, 
  "eat": 5072, 
  "excesses": 5073, 
  "zones": 5074, 
  "Oslo": 5075, 
  "zes": 5076, 
  "excessively": 5077, 
  "ec@@": 5078, 
  "premature": 5079, 
  "comfortable": 5080, 
  "inspire": 5081, 
  "invented": 5082, 
  "guided": 5083, 
  "theoretical": 5084, 
  "intensive": 5085, 
  "appearance": 5086, 
  "offices": 5087, 
  "disturbing": 5088, 
  "subsidy": 5089, 
  "enlightened": 5090, 
  "kilometers": 5091, 
  "accord": 5092, 
  "injustice": 5093, 
  "assert": 5094, 
  "soil": 5095, 
  "reveals": 5096, 
  "high-quality": 5097, 
  "grain": 5098, 
  "depth": 5099, 
  "fired": 5100, 
  "casualties": 5101, 
  "avert": 5102, 
  "author": 5103, 
  "degradation": 5104, 
  "baby": 5105, 
  "B": 5106, 
  "Jazeera": 5107, 
  "refugee": 5108, 
  "reckless": 5109, 
  "electric": 5110, 
  "1.@@": 5111, 
  "continental": 5112, 
  "scarcity": 5113, 
  "Smith": 5114, 
  "treatments": 5115, 
  "paradigm": 5116, 
  "engines": 5117, 
  "march": 5118, 
  "distrust": 5119, 
  "counter-@@": 5120, 
  "universe": 5121, 
  "alized": 5122, 
  "exclusive": 5123, 
  "Gordon": 5124, 
  "spiritual": 5125, 
  "markedly": 5126, 
  "Fukushima": 5127, 
  "mistaken": 5128, 
  "Orange": 5129, 
  "bi@@": 5130, 
  "suit": 5131, 
  "walk": 5132, 
  "venture": 5133, 
  "Woods": 5134, 
  "cards": 5135, 
  "ms": 5136, 
  "distortions": 5137, 
  "Ecuador": 5138, 
  "admitted": 5139, 
  "urgency": 5140, 
  "horizon": 5141, 
  "constituencies": 5142, 
  "repair": 5143, 
  "totalitarian": 5144, 
  "Khodorkovsky": 5145, 
  "Libyan": 5146, 
  "paradoxically": 5147, 
  "1.3": 5148, 
  "borrowed": 5149, 
  "legislators": 5150, 
  "s-@@": 5151, 
  "shaping": 5152, 
  "sentence": 5153, 
  "music": 5154, 
  "sc@@": 5155, 
  "soccer": 5156, 
  "Kuchma": 5157, 
  "sheet": 5158, 
  "wild": 5159, 
  "incidents": 5160, 
  "tri@@": 5161, 
  "deposit": 5162, 
  "penalty": 5163, 
  "rape": 5164, 
  "records": 5165, 
  "Hugo": 5166, 
  "debtor": 5167, 
  "attend": 5168, 
  "dictatorships": 5169, 
  "delayed": 5170, 
  "ator": 5171, 
  "manufactured": 5172, 
  "to-@@": 5173, 
  "cross": 5174, 
  "emphasize": 5175, 
  "drag": 5176, 
  "intensity": 5177, 
  "proceed": 5178, 
  "specter": 5179, 
  "tight": 5180, 
  "infected": 5181, 
  "presumably": 5182, 
  "P": 5183, 
  "cynical": 5184, 
  "merit": 5185, 
  "NGOs": 5186, 
  "irony": 5187, 
  "provoke": 5188, 
  "Bahrain": 5189, 
  "urbanization": 5190, 
  "middle-class": 5191, 
  "transaction": 5192, 
  "dissent": 5193, 
  "ci@@": 5194, 
  "favors": 5195, 
  "lethal": 5196, 
  "alter": 5197, 
  "incomplete": 5198, 
  "respects": 5199, 
  "rests": 5200, 
  "com@@": 5201, 
  "boys": 5202, 
  "patents": 5203, 
  "Lee": 5204, 
  "master": 5205, 
  "Viktor": 5206, 
  "myriad": 5207, 
  "neglected": 5208, 
  "absurd": 5209, 
  "ministries": 5210, 
  "governmental": 5211, 
  "reformed": 5212, 
  "supervisory": 5213, 
  "counts": 5214, 
  "(LST": 5215, 
  "explosive": 5216, 
  "takeover": 5217, 
  "militant": 5218, 
  "Finance": 5219, 
  "Arab-Israeli": 5220, 
  "attributed": 5221, 
  ")LST": 5222, 
  "governor": 5223, 
  "wherever": 5224, 
  "remembered": 5225, 
  "Olmert": 5226, 
  "la": 5227, 
  "conspiracy": 5228, 
  "combating": 5229, 
  "impunity": 5230, 
  "Duma": 5231, 
  "embedded": 5232, 
  "2030": 5233, 
  "exported": 5234, 
  "five-year": 5235, 
  "allocated": 5236, 
  "Bretton": 5237, 
  "hurricanes": 5238, 
  "Maynard": 5239, 
  "explanations": 5240, 
  "battles": 5241, 
  "exacerbated": 5242, 
  "immune": 5243, 
  "ample": 5244, 
  "authoritarianism": 5245, 
  "loose": 5246, 
  "allegedly": 5247, 
  "radio": 5248, 
  "defended": 5249, 
  "Caribbean": 5250, 
  "Bulgaria": 5251, 
  "deepen": 5252, 
  "sad": 5253, 
  "exile": 5254, 
  "worthy": 5255, 
  "adjusted": 5256, 
  "imperfect": 5257, 
  "non-proliferation": 5258, 
  "extraordinarily": 5259, 
  "boards": 5260, 
  "entrepreneurial": 5261, 
  "appealing": 5262, 
  "trapped": 5263, 
  "insurgents": 5264, 
  "speculators": 5265, 
  "secretary": 5266, 
  "efficiently": 5267, 
  "rush": 5268, 
  "surrounded": 5269, 
  "necessity": 5270, 
  "surrender": 5271, 
  "swept": 5272, 
  "guns": 5273, 
  "Calderón": 5274, 
  "Strategy": 5275, 
  "deforestation": 5276, 
  "moments": 5277, 
  "ative": 5278, 
  "straightforward": 5279, 
  "imagined": 5280, 
  "dismiss": 5281, 
  "unexpected": 5282, 
  "stagnant": 5283, 
  "Chernobyl": 5284, 
  "analogy": 5285, 
  "ist": 5286, 
  "alism": 5287, 
  "landscape": 5288, 
  "statehood": 5289, 
  "scrutiny": 5290, 
  "MDGs": 5291, 
  "floods": 5292, 
  "indispensable": 5293, 
  "provincial": 5294, 
  "interpreted": 5295, 
  "consists": 5296, 
  "ality": 5297, 
  "commonly": 5298, 
  "hire": 5299, 
  "reversal": 5300, 
  "generates": 5301, 
  "te": 5302, 
  "Congressional": 5303, 
  "year-old": 5304, 
  "absolutely": 5305, 
  "marginalized": 5306, 
  "card": 5307, 
  "scientist": 5308, 
  "actor": 5309, 
  "contest": 5310, 
  "perpetrators": 5311, 
  "helpful": 5312, 
  "text": 5313, 
  "commerce": 5314, 
  "Boris": 5315, 
  "tended": 5316, 
  "crackdown": 5317, 
  "pound": 5318, 
  "beat": 5319, 
  "long-standing": 5320, 
  "immigrant": 5321, 
  "reluctance": 5322, 
  "ors": 5323, 
  "insists": 5324, 
  "personality": 5325, 
  "maneuver": 5326, 
  "lesser": 5327, 
  "iron": 5328, 
  "Jiang": 5329, 
  "exceeds": 5330, 
  "suggesting": 5331, 
  "ters": 5332, 
  "El": 5333, 
  "interaction": 5334, 
  "sitting": 5335, 
  "translate": 5336, 
  "apparatus": 5337, 
  "organizing": 5338, 
  "US-led": 5339, 
  "Obasanjo": 5340, 
  "post-Soviet": 5341, 
  "indirectly": 5342, 
  "anemic": 5343, 
  "west": 5344, 
  "loses": 5345, 
  "counterproductive": 5346, 
  "restoration": 5347, 
  "attacking": 5348, 
  "elect": 5349, 
  "discover": 5350, 
  "college": 5351, 
  "distorted": 5352, 
  "endless": 5353, 
  "ruler": 5354, 
  "sport": 5355, 
  "exceptional": 5356, 
  "tactical": 5357, 
  "circles": 5358, 
  "norm": 5359, 
  "daunting": 5360, 
  "entrepreneurship": 5361, 
  "impede": 5362, 
  "Latvia": 5363, 
  "jail": 5364, 
  "store": 5365, 
  "smooth": 5366, 
  "For": 5367, 
  "precious": 5368, 
  "waters": 5369, 
  "breaks": 5370, 
  "debt-to-GDP": 5371, 
  "letting": 5372, 
  "influenced": 5373, 
  "hazard": 5374, 
  "arena": 5375, 
  "worsen": 5376, 
  "fees": 5377, 
  "advocated": 5378, 
  "thrown": 5379, 
  "laureate": 5380, 
  "mining": 5381, 
  "Movement": 5382, 
  "considers": 5383, 
  "occasionally": 5384, 
  "sympathy": 5385, 
  "closest": 5386, 
  "da": 5387, 
  "transforming": 5388, 
  "Revolutionary": 5389, 
  "advertising": 5390, 
  "derived": 5391, 
  "bulk": 5392, 
  "resolutions": 5393, 
  "reunification": 5394, 
  "labor-intensive": 5395, 
  "corner": 5396, 
  "Partnership": 5397, 
  "genome": 5398, 
  "1981": 5399, 
  "cycles": 5400, 
  "infectious": 5401, 
  "duties": 5402, 
  "tries": 5403, 
  "seeming": 5404, 
  "inequalities": 5405, 
  "potent": 5406, 
  "introducing": 5407, 
  "hero": 5408, 
  "prosecution": 5409, 
  "Estonia": 5410, 
  "restrict": 5411, 
  "star": 5412, 
  "stalemate": 5413, 
  "31": 5414, 
  "2,000": 5415, 
  "Sachs": 5416, 
  "29": 5417, 
  "machines": 5418, 
  "mired": 5419, 
  "is@@": 5420, 
  "hurricane": 5421, 
  "Cambodia": 5422, 
  "issuing": 5423, 
  "Director": 5424, 
  "outstanding": 5425, 
  "incident": 5426, 
  "10,000": 5427, 
  "headlines": 5428, 
  "Cheney": 5429, 
  "expects": 5430, 
  "writer": 5431, 
  "replacement": 5432, 
  "detention": 5433, 
  "belong": 5434, 
  "civilizations": 5435, 
  "skill": 5436, 
  "worsening": 5437, 
  "drinking": 5438, 
  "somewhere": 5439, 
  "unrealistic": 5440, 
  "fierce": 5441, 
  "foods": 5442, 
  "unthinkable": 5443, 
  "disagree": 5444, 
  "pundits": 5445, 
  "Armenia": 5446, 
  "Danish": 5447, 
  "incumbent": 5448, 
  "enables": 5449, 
  "domestically": 5450, 
  "liberties": 5451, 
  "reminder": 5452, 
  "flu": 5453, 
  "tribunal": 5454, 
  "hoping": 5455, 
  "pressed": 5456, 
  "go@@": 5457, 
  "whereby": 5458, 
  "mindset": 5459, 
  "discourage": 5460, 
  "1987": 5461, 
  "deadly": 5462, 
  "te@@": 5463, 
  "credits": 5464, 
  "scheduled": 5465, 
  "accustomed": 5466, 
  "Joseph": 5467, 
  "Jong-il": 5468, 
  "clout": 5469, 
  "pre-crisis": 5470, 
  "episode": 5471, 
  "mitigate": 5472, 
  "ge@@": 5473, 
  "discontent": 5474, 
  "man@@": 5475, 
  "spur": 5476, 
  "presents": 5477, 
  "vehicle": 5478, 
  "flat": 5479, 
  "autocratic": 5480, 
  "Abkhazia": 5481, 
  "vary": 5482, 
  "prosecutors": 5483, 
  "subsidized": 5484, 
  "storage": 5485, 
  "hikes": 5486, 
  "predictions": 5487, 
  "export-led": 5488, 
  "fi@@": 5489, 
  "1982": 5490, 
  "obtained": 5491, 
  "ignoring": 5492, 
  "winter": 5493, 
  "provoked": 5494, 
  "resignation": 5495, 
  "infection": 5496, 
  "confused": 5497, 
  "conditionality": 5498, 
  "possess": 5499, 
  "Hindu": 5500, 
  "ton": 5501, 
  "forthcoming": 5502, 
  "benefiting": 5503, 
  "rein": 5504, 
  "20th": 5505, 
  "ratified": 5506, 
  "Australian": 5507, 
  "600": 5508, 
  "luck": 5509, 
  "sciences": 5510, 
  "remittances": 5511, 
  "Kennedy": 5512, 
  "ex@@": 5513, 
  "launching": 5514, 
  "debacle": 5515, 
  "Foundation": 5516, 
  "as@@": 5517, 
  "fying": 5518, 
  "Communism": 5519, 
  "viruses": 5520, 
  "Force": 5521, 
  "resigned": 5522, 
  "environmentally": 5523, 
  "personally": 5524, 
  "grim": 5525, 
  "700": 5526, 
  "window": 5527, 
  "unilateralism": 5528, 
  "transitions": 5529, 
  "up@@": 5530, 
  "exploited": 5531, 
  "strictly": 5532, 
  "tobacco": 5533, 
  "autumn": 5534, 
  "flowing": 5535, 
  "distinguished": 5536, 
  "Re@@": 5537, 
  "ocean": 5538, 
  "disproportionate": 5539, 
  "deter": 5540, 
  "droughts": 5541, 
  "Rice": 5542, 
  "Goldman": 5543, 
  "imperialism": 5544, 
  "Ossetia": 5545, 
  "exacerbate": 5546, 
  "equipped": 5547, 
  "ports": 5548, 
  "empirical": 5549, 
  "rebuilding": 5550, 
  "nineteenth-century": 5551, 
  "coastal": 5552, 
  "feels": 5553, 
  "ence": 5554, 
  "destiny": 5555, 
  "Henry": 5556, 
  "neutral": 5557, 
  "adults": 5558, 
  "inner": 5559, 
  "procedure": 5560, 
  "contradictory": 5561, 
  "employ": 5562, 
  "persuaded": 5563, 
  "Abe": 5564, 
  "Saleh": 5565, 
  "emission": 5566, 
  "ex-@@": 5567, 
  "Poles": 5568, 
  "lacked": 5569, 
  "Tribunal": 5570, 
  "occupying": 5571, 
  "accumulate": 5572, 
  "Freedom": 5573, 
  "maintains": 5574, 
  "sums": 5575, 
  "deflationary": 5576, 
  "stages": 5577, 
  "continuation": 5578, 
  "pillar": 5579, 
  "classical": 5580, 
  "placing": 5581, 
  "atrocities": 5582, 
  "lifted": 5583, 
  "credentials": 5584, 
  "1980s": 5585, 
  "pluralism": 5586, 
  "attraction": 5587, 
  "tangible": 5588, 
  "activism": 5589, 
  "complaints": 5590, 
  "et@@": 5591, 
  "believers": 5592, 
  "childhood": 5593, 
  "militia": 5594, 
  "percent": 5595, 
  "gasoline": 5596, 
  "hiring": 5597, 
  "administrations": 5598, 
  "myself": 5599, 
  "pragmatism": 5600, 
  "non-governmental": 5601, 
  "1968": 5602, 
  "gra@@": 5603, 
  "admittedly": 5604, 
  "fruit": 5605, 
  "capacities": 5606, 
  "ing-@@": 5607, 
  "towns": 5608, 
  "protracted": 5609, 
  "contacts": 5610, 
  "Sri": 5611, 
  "directors": 5612, 
  "outset": 5613, 
  "journalist": 5614, 
  "punished": 5615, 
  "bombings": 5616, 
  "non@@": 5617, 
  "Seoul": 5618, 
  "existential": 5619, 
  "languages": 5620, 
  "club": 5621, 
  "800": 5622, 
  "Senator": 5623, 
  "3.5": 5624, 
  "associations": 5625, 
  "Guard": 5626, 
  "indefinitely": 5627, 
  "witnessing": 5628, 
  "manufacturers": 5629, 
  "communists": 5630, 
  "inspectors": 5631, 
  "prosecutor": 5632, 
  "reassuring": 5633, 
  "owe": 5634, 
  "two-state": 5635, 
  "treasury": 5636, 
  "automobile": 5637, 
  "indication": 5638, 
  "coalitions": 5639, 
  "Games": 5640, 
  "items": 5641, 
  "liberalism": 5642, 
  "frozen": 5643, 
  "lasted": 5644, 
  "sentenced": 5645, 
  "1.4": 5646, 
  "comments": 5647, 
  "abundant": 5648, 
  "Corporation": 5649, 
  "gathering": 5650, 
  "quiet": 5651, 
  "prudent": 5652, 
  "futile": 5653, 
  "Ehud": 5654, 
  "abortion": 5655, 
  "Slovakia": 5656, 
  "Turks": 5657, 
  "bar": 5658, 
  "moderation": 5659, 
  "arrival": 5660, 
  "Solidarity": 5661, 
  "allied": 5662, 
  "rapprochement": 5663, 
  "tive": 5664, 
  "Shiite": 5665, 
  "lifetime": 5666, 
  "clients": 5667, 
  "unlimited": 5668, 
  "Hosni": 5669, 
  "post-crisis": 5670, 
  "diversification": 5671, 
  "indicator": 5672, 
  "contributes": 5673, 
  "fault": 5674, 
  "Marx": 5675, 
  "grants": 5676, 
  "slogan": 5677, 
  "sun": 5678, 
  "receives": 5679, 
  "consciousness": 5680, 
  "boosted": 5681, 
  "realization": 5682, 
  "Xiaoping": 5683, 
  "breakthroughs": 5684, 
  "enhancing": 5685, 
  "River": 5686, 
  "Kashmir": 5687, 
  "revolt": 5688, 
  "technocrats": 5689, 
  "autonomous": 5690, 
  "akin": 5691, 
  "ever-@@": 5692, 
  "quarters": 5693, 
  "expectancy": 5694, 
  "gathered": 5695, 
  "pledge": 5696, 
  "stunning": 5697, 
  "0.5": 5698, 
  "square": 5699, 
  "enormously": 5700, 
  "activist": 5701, 
  "killings": 5702, 
  "movie": 5703, 
  "gotten": 5704, 
  "celebrate": 5705, 
  "worrisome": 5706, 
  "maximum": 5707, 
  "ag@@": 5708, 
  "watched": 5709, 
  "FSB": 5710, 
  "shame": 5711, 
  "aged": 5712, 
  "frequency": 5713, 
  "wasted": 5714, 
  "crunch": 5715, 
  "brave": 5716, 
  "Schroeder": 5717, 
  "borne": 5718, 
  "left-wing": 5719, 
  "floating": 5720, 
  "ul@@": 5721, 
  "axis": 5722, 
  "guidelines": 5723, 
  "roll": 5724, 
  "disputed": 5725, 
  "appeals": 5726, 
  "tuberculosis": 5727, 
  "scores": 5728, 
  "industrialization": 5729, 
  "adequately": 5730, 
  "agendas": 5731, 
  "evolving": 5732, 
  "Croatia": 5733, 
  "Sinai": 5734, 
  "complained": 5735, 
  "denying": 5736, 
  "ur@@": 5737, 
  "implication": 5738, 
  "clarity": 5739, 
  "repay": 5740, 
  "ter": 5741, 
  "bolster": 5742, 
  "deprived": 5743, 
  "ched": 5744, 
  "eradication": 5745, 
  "hostage": 5746, 
  "founder": 5747, 
  "Morales": 5748, 
  "page": 5749, 
  "u": 5750, 
  "interview": 5751, 
  "greed": 5752, 
  "Greeks": 5753, 
  "equitable": 5754, 
  "On": 5755, 
  "Cultural": 5756, 
  "orientation": 5757, 
  "flood": 5758, 
  "anti@@": 5759, 
  "Liberation": 5760, 
  "profoundly": 5761, 
  "inhabitants": 5762, 
  "Yes": 5763, 
  "z": 5764, 
  "depositors": 5765, 
  "colonialism": 5766, 
  "locked": 5767, 
  "speeches": 5768, 
  "processing": 5769, 
  "applying": 5770, 
  "Zhao": 5771, 
  "climate-change": 5772, 
  "ambassador": 5773, 
  "two-@@": 5774, 
  "prompted": 5775, 
  "demonstrating": 5776, 
  "internally": 5777, 
  "tenure": 5778, 
  "gravity": 5779, 
  "refusing": 5780, 
  "highlights": 5781, 
  "no@@": 5782, 
  "forged": 5783, 
  "sustaining": 5784, 
  "obliged": 5785, 
  "Research": 5786, 
  "Governor": 5787, 
  "assure": 5788, 
  "resembles": 5789, 
  "malnutrition": 5790, 
  "continuity": 5791, 
  "SCO": 5792, 
  "ets": 5793, 
  "delivery": 5794, 
  "outbreak": 5795, 
  "warm": 5796, 
  "trees": 5797, 
  "prevents": 5798, 
  "imprisoned": 5799, 
  "mainland": 5800, 
  "exhausted": 5801, 
  "2008-2009": 5802, 
  "realizing": 5803, 
  "postponed": 5804, 
  "frameworks": 5805, 
  "rank": 5806, 
  "chess": 5807, 
  "oppression": 5808, 
  "convicted": 5809, 
  "super@@": 5810, 
  "risk-taking": 5811, 
  "seed": 5812, 
  "recipient": 5813, 
  "ecological": 5814, 
  "devise": 5815, 
  "Czechoslovakia": 5816, 
  "silver": 5817, 
  "Donald": 5818, 
  "reactor": 5819, 
  "bleak": 5820, 
  "Tea": 5821, 
  "proposing": 5822, 
  "adds": 5823, 
  "psychiatric": 5824, 
  "Bhutto": 5825, 
  "frustrated": 5826, 
  "quantity": 5827, 
  "removal": 5828, 
  "mirror": 5829, 
  "min@@": 5830, 
  "pharmaceutical": 5831, 
  "modernize": 5832, 
  "accidents": 5833, 
  "heightened": 5834, 
  "tone": 5835, 
  "murdered": 5836, 
  "continuous": 5837, 
  "grip": 5838, 
  "remedy": 5839, 
  "resilient": 5840, 
  "Basel": 5841, 
  "fat": 5842, 
  "armies": 5843, 
  "Valley": 5844, 
  "punish": 5845, 
  "approve": 5846, 
  "lobbying": 5847, 
  "relevance": 5848, 
  "troubles": 5849, 
  "85": 5850, 
  "Liberal": 5851, 
  "modernity": 5852, 
  "resume": 5853, 
  "color": 5854, 
  "sensitivity": 5855, 
  "high-level": 5856, 
  "misery": 5857, 
  "lists": 5858, 
  "digital": 5859, 
  "rage": 5860, 
  "lest": 5861, 
  "overthrow": 5862, 
  "Kuwait": 5863, 
  "literature": 5864, 
  "unfortunate": 5865, 
  "arose": 5866, 
  "fluctuations": 5867, 
  "G-7": 5868, 
  "adversaries": 5869, 
  "champion": 5870, 
  "finished": 5871, 
  "doctor": 5872, 
  "caste": 5873, 
  "highlighted": 5874, 
  "triple": 5875, 
  "uprising": 5876, 
  "Le": 5877, 
  "evolve": 5878, 
  "composition": 5879, 
  "passage": 5880, 
  "genetically": 5881, 
  "polio": 5882, 
  "Roman": 5883, 
  "suppress": 5884, 
  "confirm": 5885, 
  "consequently": 5886, 
  "composed": 5887, 
  "militarily": 5888, 
  "organizational": 5889, 
  "strengths": 5890, 
  "St.": 5891, 
  "suspected": 5892, 
  "domination": 5893, 
  "irrigation": 5894, 
  "1920": 5895, 
  "elimination": 5896, 
  "successive": 5897, 
  "prisons": 5898, 
  "dismal": 5899, 
  "faction": 5900, 
  "preference": 5901, 
  "attracting": 5902, 
  "routine": 5903, 
  "maturity": 5904, 
  "speaks": 5905, 
  "throw": 5906, 
  "sed": 5907, 
  "swing": 5908, 
  "Socialists": 5909, 
  "understandably": 5910, 
  "ratification": 5911, 
  "fly": 5912, 
  "ranked": 5913, 
  "properties": 5914, 
  "appetite": 5915, 
  "squeeze": 5916, 
  "evidently": 5917, 
  "heroic": 5918, 
  "negotiators": 5919, 
  "valid": 5920, 
  "limitations": 5921, 
  "title": 5922, 
  "resistant": 5923, 
  "transferred": 5924, 
  "populated": 5925, 
  "state-@@": 5926, 
  "ying": 5927, 
  "indicated": 5928, 
  "paralyzed": 5929, 
  "thirty": 5930, 
  "pretty": 5931, 
  "rivalry": 5932, 
  "proceedings": 5933, 
  "dimensions": 5934, 
  "1988": 5935, 
  "cap": 5936, 
  "profile": 5937, 
  "retains": 5938, 
  "sky": 5939, 
  "criticize": 5940, 
  "disorderly": 5941, 
  "judgments": 5942, 
  "renewal": 5943, 
  "cronies": 5944, 
  "plot": 5945, 
  "homeland": 5946, 
  "Bashar": 5947, 
  "incited": 5948, 
  "Big": 5949, 
  "publication": 5950, 
  "Istanbul": 5951, 
  "ministry": 5952, 
  "council": 5953, 
  "-led": 5954, 
  "reacted": 5955, 
  "satisfied": 5956, 
  "swings": 5957, 
  "contact": 5958, 
  "1.2": 5959, 
  "cyber": 5960, 
  "predicament": 5961, 
  "in-@@": 5962, 
  "husband": 5963, 
  "SARS": 5964, 
  "replacing": 5965, 
  "In@@": 5966, 
  "assessing": 5967, 
  "mandatory": 5968, 
  "Affairs": 5969, 
  "storms": 5970, 
  "endured": 5971, 
  "papers": 5972, 
  "curtail": 5973, 
  "rebellion": 5974, 
  "nightmare": 5975, 
  "reconcile": 5976, 
  "season": 5977, 
  "array": 5978, 
  "suppression": 5979, 
  "postpone": 5980, 
  ")RRC": 5981, 
  "officer": 5982, 
  "inputs": 5983, 
  "5,000": 5984, 
  "(RRC": 5985, 
  "half-@@": 5986, 
  "yourself": 5987, 
  "consumed": 5988, 
  "permits": 5989, 
  "leveraged": 5990, 
  "deciding": 5991, 
  "Davos": 5992, 
  "troubling": 5993, 
  "clearer": 5994, 
  "crowds": 5995, 
  "Vienna": 5996, 
  "nervous": 5997, 
  "constructed": 5998, 
  "talked": 5999, 
  "spoken": 6000, 
  "anti-American": 6001, 
  "so@@": 6002, 
  "With": 6003, 
  "Serb": 6004, 
  "useless": 6005, 
  "interpret": 6006, 
  "trusted": 6007, 
  "comparisons": 6008, 
  "inflicted": 6009, 
  "monarchy": 6010, 
  "trafficking": 6011, 
  "relatives": 6012, 
  "radicalism": 6013, 
  "signing": 6014, 
  "ur": 6015, 
  "anyway": 6016, 
  "strategically": 6017, 
  "conscience": 6018, 
  "anchor": 6019, 
  "handled": 6020, 
  "obsolete": 6021, 
  "exercises": 6022, 
  "length": 6023, 
  "er-@@": 6024, 
  "grievances": 6025, 
  "overlooked": 6026, 
  "buried": 6027, 
  "Second": 6028, 
  "insistence": 6029, 
  "Lanka": 6030, 
  "revised": 6031, 
  "organs": 6032, 
  "adult": 6033, 
  "undervalued": 6034, 
  "turnout": 6035, 
  "opponent": 6036, 
  "studying": 6037, 
  "Three": 6038, 
  "readiness": 6039, 
  "federation": 6040, 
  "Franco-German": 6041, 
  "forum": 6042, 
  "correctly": 6043, 
  "Austrian": 6044, 
  "skin": 6045, 
  "conscious": 6046, 
  "drives": 6047, 
  "partially": 6048, 
  "decentralized": 6049, 
  "persons": 6050, 
  "outrage": 6051, 
  "shortly": 6052, 
  "empowered": 6053, 
  "throwing": 6054, 
  "communal": 6055, 
  "hearing": 6056, 
  "stimulating": 6057, 
  "NAFTA": 6058, 
  "disposal": 6059, 
  "fatal": 6060, 
  "heritage": 6061, 
  "reversing": 6062, 
  "Science": 6063, 
  "abound": 6064, 
  "incite": 6065, 
  "ICC": 6066, 
  "Saakashvili": 6067, 
  "Ocean": 6068, 
  "exporter": 6069, 
  "accommodate": 6070, 
  "`": 6071, 
  "projections": 6072, 
  "unequal": 6073, 
  "stressed": 6074, 
  "quasi-@@": 6075, 
  "flourish": 6076, 
  "he@@": 6077, 
  "suspicious": 6078, 
  "congressional": 6079, 
  "OSCE": 6080, 
  "Alexander": 6081, 
  "expectation": 6082, 
  "Ortega": 6083, 
  "onset": 6084, 
  "ess": 6085, 
  "gi@@": 6086, 
  "jointly": 6087, 
  "stalled": 6088, 
  "reporters": 6089, 
  "Guatemala": 6090, 
  "voter": 6091, 
  "Los": 6092, 
  "ants": 6093, 
  "unhappy": 6094, 
  "switch": 6095, 
  "everyday": 6096, 
  "disruption": 6097, 
  "ir@@": 6098, 
  "Bo": 6099, 
  "investigate": 6100, 
  "committing": 6101, 
  "please": 6102, 
  "discussing": 6103, 
  "defenders": 6104, 
  "marketing": 6105, 
  "rationale": 6106, 
  "Churchill": 6107, 
  "teach": 6108, 
  "staggering": 6109, 
  "blessing": 6110, 
  "identical": 6111, 
  "0.7": 6112, 
  "phones": 6113, 
  "Tymoshenko": 6114, 
  "video": 6115, 
  "owed": 6116, 
  "demonstration": 6117, 
  "appointment": 6118, 
  "frontier": 6119, 
  "producer": 6120, 
  "farms": 6121, 
  "port": 6122, 
  "hardest": 6123, 
  "screening": 6124, 
  "1,@@": 6125, 
  "disagreements": 6126, 
  "Karzai": 6127, 
  "ses": 6128, 
  "EU-@@": 6129, 
  "articles": 6130, 
  "Cuban": 6131, 
  "hypocrisy": 6132, 
  "François": 6133, 
  "delicate": 6134, 
  "sweeping": 6135, 
  "verdict": 6136, 
  "Jiabao": 6137, 
  "Gerhard": 6138, 
  "hi@@": 6139, 
  "caution": 6140, 
  "republics": 6141, 
  "anxious": 6142, 
  "Executive": 6143, 
  "handling": 6144, 
  "1985": 6145, 
  "breakup": 6146, 
  "compatible": 6147, 
  "resign": 6148, 
  "monopolies": 6149, 
  "vigorous": 6150, 
  "leftist": 6151, 
  "Special": 6152, 
  "racism": 6153, 
  "deb@@": 6154, 
  "Islands": 6155, 
  "sorts": 6156, 
  "reminded": 6157, 
  "portfolios": 6158, 
  "guilt": 6159, 
  "violated": 6160, 
  "cal": 6161, 
  "counterpart": 6162, 
  "heroes": 6163, 
  "strains": 6164, 
  "unwillingness": 6165, 
  "disappearance": 6166, 
  "drew": 6167, 
  "partisan": 6168, 
  "rid": 6169, 
  "headquarters": 6170, 
  "Franklin": 6171, 
  "picked": 6172, 
  "prudential": 6173, 
  "eve": 6174, 
  "exact": 6175, 
  "masters": 6176, 
  "coordinate": 6177, 
  "timely": 6178, 
  "cre@@": 6179, 
  "quotas": 6180, 
  "passive": 6181, 
  "ak": 6182, 
  "Nazis": 6183, 
  "opinions": 6184, 
  "ou@@": 6185, 
  "discount": 6186, 
  "magic": 6187, 
  "infections": 6188, 
  "cs": 6189, 
  "tropical": 6190, 
  "Scotland": 6191, 
  "jeopardize": 6192, 
  "fishing": 6193, 
  "theme": 6194, 
  "embargo": 6195, 
  "ces": 6196, 
  "beneath": 6197, 
  "zation": 6198, 
  "repercussions": 6199, 
  "tendencies": 6200, 
  "investigations": 6201, 
  "pockets": 6202, 
  "thinkers": 6203, 
  "ce": 6204, 
  "Nice": 6205, 
  "stepped": 6206, 
  "recommended": 6207, 
  "drought": 6208, 
  "micro-@@": 6209, 
  "ed@@": 6210, 
  "mixture": 6211, 
  "giants": 6212, 
  "sing": 6213, 
  "­-": 6214, 
  "beneficiaries": 6215, 
  "Facility": 6216, 
  "categories": 6217, 
  "chair": 6218, 
  "printing": 6219, 
  "leap": 6220, 
  "notorious": 6221, 
  "exploitation": 6222, 
  "elevated": 6223, 
  "inward": 6224, 
  "Petersburg": 6225, 
  "HAVEN": 6226, 
  "authors": 6227, 
  "alizing": 6228, 
  "plight": 6229, 
  "minded": 6230, 
  "reminds": 6231, 
  "privileges": 6232, 
  "miles": 6233, 
  "cited": 6234, 
  "Yukos": 6235, 
  "ments": 6236, 
  "lifting": 6237, 
  "debated": 6238, 
  "outlets": 6239, 
  "Common": 6240, 
  "collect": 6241, 
  "Michael": 6242, 
  "strive": 6243, 
  "pan-European": 6244, 
  "dec@@": 6245, 
  "-and-@@": 6246, 
  "dangerously": 6247, 
  "ideologies": 6248, 
  "remind": 6249, 
  "Katrina": 6250, 
  "Balkan": 6251, 
  "persists": 6252, 
  "violate": 6253, 
  "short-run": 6254, 
  "News": 6255, 
  "legislature": 6256, 
  "exclude": 6257, 
  "soul": 6258, 
  "o-@@": 6259, 
  "reviving": 6260, 
  "native": 6261, 
  "1940": 6262, 
  "sequence": 6263, 
  "desired": 6264, 
  "ICTY": 6265, 
  "sons": 6266, 
  "refrain": 6267, 
  "duration": 6268, 
  "dedicated": 6269, 
  "embodied": 6270, 
  "Uruguay": 6271, 
  "attached": 6272, 
  "Project": 6273, 
  "Sharia": 6274, 
  "busy": 6275, 
  "el@@": 6276, 
  "Resolution": 6277, 
  "shareholder": 6278, 
  "exert": 6279, 
  "ru@@": 6280, 
  "evaluate": 6281, 
  "Iceland": 6282, 
  "Oxford": 6283, 
  "mitigation": 6284, 
  "evasion": 6285, 
  "strain": 6286, 
  "alization": 6287, 
  "bombers": 6288, 
  "famine": 6289, 
  "regulator": 6290, 
  "Milan": 6291, 
  "lobby": 6292, 
  "peg": 6293, 
  "adviser": 6294, 
  "lawyer": 6295, 
  "ranking": 6296, 
  "anti-Semitism": 6297, 
  "satisfaction": 6298, 
  "extremes": 6299, 
  "RMB": 6300, 
  "ignores": 6301, 
  "us@@": 6302, 
  "enshrined": 6303, 
  "rejecting": 6304, 
  "chemistry": 6305, 
  "inter-@@": 6306, 
  "safeguards": 6307, 
  "longstanding": 6308, 
  "250": 6309, 
  "Margaret": 6310, 
  "bizarre": 6311, 
  "quantities": 6312, 
  "Wolfowitz": 6313, 
  "stars": 6314, 
  "obsessed": 6315, 
  "gather": 6316, 
  "regards": 6317, 
  "Non-Proliferation": 6318, 
  "fronts": 6319, 
  "expansionary": 6320, 
  "Beirut": 6321, 
  "professors": 6322, 
  "smoking": 6323, 
  "brothers": 6324, 
  "reinforcing": 6325, 
  "proves": 6326, 
  "rounds": 6327, 
  "communicate": 6328, 
  "Christianity": 6329, 
  "pessimism": 6330, 
  "preceded": 6331, 
  "arrive": 6332, 
  "concerted": 6333, 
  "golden": 6334, 
  "CCP": 6335, 
  "liability": 6336, 
  "directions": 6337, 
  "linking": 6338, 
  "grassroots": 6339, 
  "optimal": 6340, 
  "patience": 6341, 
  "fled": 6342, 
  "drain": 6343, 
  "stemming": 6344, 
  "quietly": 6345, 
  "intelligent": 6346, 
  "drastic": 6347, 
  "car@@": 6348, 
  "solvency": 6349, 
  "orthodoxy": 6350, 
  "blocking": 6351, 
  "G8": 6352, 
  "diminishing": 6353, 
  "mature": 6354, 
  "embarked": 6355, 
  "alas": 6356, 
  "dividing": 6357, 
  "referred": 6358, 
  "pulled": 6359, 
  "elusive": 6360, 
  "realism": 6361, 
  "governors": 6362, 
  "Pentagon": 6363, 
  "Civil": 6364, 
  "diagnosed": 6365, 
  "endorse": 6366, 
  "explaining": 6367, 
  "suspended": 6368, 
  "beautiful": 6369, 
  "extends": 6370, 
  "belongs": 6371, 
  "traumatic": 6372, 
  "tyranny": 6373, 
  "majorities": 6374, 
  "comfort": 6375, 
  "arising": 6376, 
  "earning": 6377, 
  "condemn": 6378, 
  "collapsing": 6379, 
  "surgery": 6380, 
  "branch": 6381, 
  "ethanol": 6382, 
  "superiority": 6383, 
  "cognitive": 6384, 
  "convention": 6385, 
  "talented": 6386, 
  "profitability": 6387, 
  "yesterday": 6388, 
  "Z@@": 6389, 
  "financial-sector": 6390, 
  "precautionary": 6391, 
  "al-Assad": 6392, 
  "1929": 6393, 
  "tougher": 6394, 
  "accurately": 6395, 
  "divergence": 6396, 
  "ha@@": 6397, 
  "laboratory": 6398, 
  "entitlement": 6399, 
  "U@@": 6400, 
  "wounded": 6401, 
  "on-@@": 6402, 
  "la@@": 6403, 
  "privileged": 6404, 
  "formerly": 6405, 
  "basically": 6406, 
  "invisible": 6407, 
  "pandemic": 6408, 
  "jump": 6409, 
  "dogs": 6410, 
  "sh": 6411, 
  "chemicals": 6412, 
  "ter@@": 6413, 
  "mild": 6414, 
  "walls": 6415, 
  "Uganda": 6416, 
  "Marshall": 6417, 
  "slaughter": 6418, 
  "proteins": 6419, 
  "Panel": 6420, 
  "redress": 6421, 
  "reactors": 6422, 
  "weakens": 6423, 
  "visions": 6424, 
  "emphasizing": 6425, 
  "Florida": 6426, 
  "Mario": 6427, 
  "characteristic": 6428, 
  "insight": 6429, 
  "maritime": 6430, 
  "defenses": 6431, 
  "diet": 6432, 
  "pipelines": 6433, 
  "deploy": 6434, 
  "fied": 6435, 
  "Exchange": 6436, 
  "feedback": 6437, 
  "Investment": 6438, 
  "sur@@": 6439, 
  "surpassed": 6440, 
  "120": 6441, 
  "unleashed": 6442, 
  "self-defense": 6443, 
  "upside": 6444, 
  "smoke": 6445, 
  "Azerbaijan": 6446, 
  "republic": 6447, 
  "doubling": 6448, 
  "virtues": 6449, 
  "hitting": 6450, 
  "undercut": 6451, 
  "ching": 6452, 
  "imprisonment": 6453, 
  "intends": 6454, 
  "barrier": 6455, 
  "subjected": 6456, 
  "guess": 6457, 
  "42": 6458, 
  "handed": 6459, 
  "ic@@": 6460, 
  "Zealand": 6461, 
  "mobilized": 6462, 
  "providers": 6463, 
  "sacred": 6464, 
  "overheating": 6465, 
  "yuan": 6466, 
  "fundamentalists": 6467, 
  "doubtful": 6468, 
  "Thomas": 6469, 
  "shattered": 6470, 
  "DELHI": 6471, 
  "capitals": 6472, 
  "Kofi": 6473, 
  "vulnerabilities": 6474, 
  "Texas": 6475, 
  "committees": 6476, 
  "web": 6477, 
  "Persian": 6478, 
  "trillions": 6479, 
  "comply": 6480, 
  "praise": 6481, 
  "financiers": 6482, 
  "hawks": 6483, 
  "ators": 6484, 
  "ecosystems": 6485, 
  "ged": 6486, 
  "ins": 6487, 
  "alarm": 6488, 
  "advocating": 6489, 
  "Bay": 6490, 
  "denounced": 6491, 
  "Taiwanese": 6492, 
  "scant": 6493, 
  "covering": 6494, 
  "suited": 6495, 
  "Food": 6496, 
  "empowerment": 6497, 
  "Ottoman": 6498, 
  "x": 6499, 
  "compromises": 6500, 
  "ll": 6501, 
  "ring": 6502, 
  "siege": 6503, 
  "conditional": 6504, 
  "Liberia": 6505, 
  "Power": 6506, 
  "starvation": 6507, 
  "Peter": 6508, 
  "outweigh": 6509, 
  "married": 6510, 
  "bailed": 6511, 
  "har@@": 6512, 
  "pe@@": 6513, 
  "dismantling": 6514, 
  "Representatives": 6515, 
  "cruel": 6516, 
  "reformist": 6517, 
  "debt-@@": 6518, 
  "supervisors": 6519, 
  "merits": 6520, 
  "durable": 6521, 
  "fifty": 6522, 
  "critically": 6523, 
  "disappointed": 6524, 
  "questioning": 6525, 
  "identifying": 6526, 
  "disappointing": 6527, 
  "An@@": 6528, 
  "declaring": 6529, 
  "detail": 6530, 
  "birds": 6531, 
  "ble": 6532, 
  "cally": 6533, 
  "inertia": 6534, 
  "excluding": 6535, 
  "tra@@": 6536, 
  "consuming": 6537, 
  "privately": 6538, 
  "forming": 6539, 
  "Nicaragua": 6540, 
  "fans": 6541, 
  "stayed": 6542, 
  "daughter": 6543, 
  "underscores": 6544, 
  "Dubai": 6545, 
  "é@@": 6546, 
  "dividends": 6547, 
  "1948": 6548, 
  "Pinochet": 6549, 
  "guidance": 6550, 
  "Silvio": 6551, 
  "Qatar": 6552, 
  "sm": 6553, 
  "kids": 6554, 
  "fashionable": 6555, 
  "interior": 6556, 
  "interact": 6557, 
  "Black": 6558, 
  "contemplate": 6559, 
  "arsenal": 6560, 
  "OPEC": 6561, 
  "38": 6562, 
  "1986": 6563, 
  "su@@": 6564, 
  "•": 6565, 
  "aligned": 6566, 
  "asymmetric": 6567, 
  "Democracy": 6568, 
  "thin": 6569, 
  "location": 6570, 
  "conceived": 6571, 
  "st-@@": 6572, 
  "manipulate": 6573, 
  "loyal": 6574, 
  "severity": 6575, 
  "Nigerian": 6576, 
  "publish": 6577, 
  "combining": 6578, 
  "ches": 6579, 
  "unavoidable": 6580, 
  "Enron": 6581, 
  "practiced": 6582, 
  "fires": 6583, 
  "fortune": 6584, 
  "burned": 6585, 
  "mismanagement": 6586, 
  "contempt": 6587, 
  "Che": 6588, 
  "functional": 6589, 
  "self-determination": 6590, 
  "forgiveness": 6591, 
  "fascism": 6592, 
  "endangered": 6593, 
  "multi@@": 6594, 
  "anymore": 6595, 
  "high-income": 6596, 
  "Holland": 6597, 
  "warrant": 6598, 
  "savers": 6599, 
  "Twitter": 6600, 
  "disruptive": 6601, 
  "ws": 6602, 
  "ne@@": 6603, 
  "automobiles": 6604, 
  "administered": 6605, 
  "hole": 6606, 
  "boy": 6607, 
  "plain": 6608, 
  "offense": 6609, 
  "Burmese": 6610, 
  "incompetence": 6611, 
  "judging": 6612, 
  "steep": 6613, 
  "obsession": 6614, 
  "nutrition": 6615, 
  "ology": 6616, 
  "offshore": 6617, 
  "collected": 6618, 
  "colleague": 6619, 
  "undertaking": 6620, 
  "dependency": 6621, 
  "trauma": 6622, 
  "metaphor": 6623, 
  "selected": 6624, 
  "hugely": 6625, 
  "forging": 6626, 
  "jurisdiction": 6627, 
  "Wahhabi": 6628, 
  "ved": 6629, 
  "demonstrators": 6630, 
  "calculated": 6631, 
  "countryside": 6632, 
  "stores": 6633, 
  "entail": 6634, 
  "rebel": 6635, 
  "livelihoods": 6636, 
  "emulate": 6637, 
  "harmony": 6638, 
  "complacency": 6639, 
  "trick": 6640, 
  "fragmented": 6641, 
  "agrees": 6642, 
  "integral": 6643, 
  "ite": 6644, 
  "compliance": 6645, 
  "Ministers": 6646, 
  "notions": 6647, 
  "forefront": 6648, 
  "ently": 6649, 
  "eroded": 6650, 
  "reminiscent": 6651, 
  "Medicare": 6652, 
  "acknowledging": 6653, 
  "proposition": 6654, 
  "os": 6655, 
  "susceptible": 6656, 
  "tighter": 6657, 
  "Stanford": 6658, 
  "participated": 6659, 
  "conducive": 6660, 
  "To": 6661, 
  "coffee": 6662, 
  "embracing": 6663, 
  "regulating": 6664, 
  "em@@": 6665, 
  "Romanian": 6666, 
  "naïve": 6667, 
  "tackling": 6668, 
  "searching": 6669, 
  "deteriorating": 6670, 
  "unchanged": 6671, 
  "predominantly": 6672, 
  "occasions": 6673, 
  "whoever": 6674, 
  "Sadat": 6675, 
  "95": 6676, 
  "pledges": 6677, 
  "illustrates": 6678, 
  "opt": 6679, 
  "trajectory": 6680, 
  "Darwin": 6681, 
  "comprise": 6682, 
  "Lithuania": 6683, 
  "delegation": 6684, 
  "collection": 6685, 
  "exceptionally": 6686, 
  "fortunes": 6687, 
  "neo-@@": 6688, 
  "stops": 6689, 
  "High": 6690, 
  "Kerry": 6691, 
  "fearful": 6692, 
  "containing": 6693, 
  "ing@@": 6694, 
  "NGO": 6695, 
  "Kissinger": 6696, 
  "highlight": 6697, 
  "insiders": 6698, 
  "mon@@": 6699, 
  "irreversible": 6700, 
  "visits": 6701, 
  "atomic": 6702, 
  "Asia-Pacific": 6703, 
  "notes": 6704, 
  "slump": 6705, 
  "defines": 6706, 
  "infamous": 6707, 
  "stone": 6708, 
  "modified": 6709, 
  "revealing": 6710, 
  "Munich": 6711, 
  "mathematics": 6712, 
  "inefficiency": 6713, 
  "reckoning": 6714, 
  "Salvador": 6715, 
  "Yale": 6716, 
  "curse": 6717, 
  "Continent": 6718, 
  "pri@@": 6719, 
  "peer": 6720, 
  "stopping": 6721, 
  "narrowly": 6722, 
  "quantum": 6723, 
  "centered": 6724, 
  "nation-state": 6725, 
  "infant": 6726, 
  "imposes": 6727, 
  "suppressed": 6728, 
  "invention": 6729, 
  "transitional": 6730, 
  "conversation": 6731, 
  "mathematical": 6732, 
  "modernizing": 6733, 
  "synthetic": 6734, 
  "particles": 6735, 
  "You": 6736, 
  "turbulence": 6737, 
  "convenient": 6738, 
  "ars": 6739, 
  "ceasefire": 6740, 
  "premier": 6741, 
  "3,000": 6742, 
  "ethos": 6743, 
  "proving": 6744, 
  "fostering": 6745, 
  "pages": 6746, 
  "intervening": 6747, 
  "apes": 6748, 
  "interconnected": 6749, 
  "ks": 6750, 
  "treason": 6751, 
  "Einstein": 6752, 
  "integrating": 6753, 
  "arrogance": 6754, 
  "amid": 6755, 
  "execution": 6756, 
  "historian": 6757, 
  "influences": 6758, 
  "diagnostic": 6759, 
  "ard": 6760, 
  "enact": 6761, 
  "corporation": 6762, 
  "José": 6763, 
  "prescription": 6764, 
  "questionable": 6765, 
  "geographical": 6766, 
  "consultation": 6767, 
  "affluent": 6768, 
  "Al@@": 6769, 
  "government-@@": 6770, 
  "discretionary": 6771, 
  "banker": 6772, 
  "documented": 6773, 
  "impasse": 6774, 
  "escalating": 6775, 
  "pulling": 6776, 
  "seldom": 6777, 
  "tu@@": 6778, 
  "conservatism": 6779, 
  "ride": 6780, 
  "tie": 6781, 
  "averaged": 6782, 
  "blocks": 6783, 
  "GM": 6784, 
  "Ch@@": 6785, 
  "ob@@": 6786, 
  "wi@@": 6787, 
  "preserved": 6788, 
  "competent": 6789, 
  "responsive": 6790, 
  "cry": 6791, 
  "fulfilled": 6792, 
  "jailed": 6793, 
  "decreased": 6794, 
  "enlarged": 6795, 
  "suppliers": 6796, 
  "advancing": 6797, 
  "Atomic": 6798, 
  "Ahmedinejad": 6799, 
  "prudence": 6800, 
  "Academy": 6801, 
  "agent": 6802, 
  "refer": 6803, 
  "back@@": 6804, 
  "contradiction": 6805, 
  "alize": 6806, 
  "social-welfare": 6807, 
  "lowered": 6808, 
  "Prince": 6809, 
  "At": 6810, 
  "hierarchy": 6811, 
  "simplistic": 6812, 
  "assertive": 6813, 
  "1978": 6814, 
  "super-@@": 6815, 
  "shocked": 6816, 
  "outlays": 6817, 
  "ball": 6818, 
  "1933": 6819, 
  "withdrawing": 6820, 
  "Mbeki": 6821, 
  "conventions": 6822, 
  "church": 6823, 
  "manipulated": 6824, 
  "margins": 6825, 
  "compromised": 6826, 
  "ie": 6827, 
  "respective": 6828, 
  "slight": 6829, 
  "anti-Americanism": 6830, 
  "select": 6831, 
  "debtors": 6832, 
  "bloodshed": 6833, 
  "agreeing": 6834, 
  "varied": 6835, 
  "peso": 6836, 
  "viewing": 6837, 
  "classified": 6838, 
  "protections": 6839, 
  "stature": 6840, 
  "drama": 6841, 
  "supreme": 6842, 
  "alists": 6843, 
  "meat": 6844, 
  "pleasure": 6845, 
  "short-lived": 6846, 
  "withstand": 6847, 
  "shops": 6848, 
  "33": 6849, 
  "Soviets": 6850, 
  "Muammar": 6851, 
  "separated": 6852, 
  "rumors": 6853, 
  "sk@@": 6854, 
  "Rio": 6855, 
  "self": 6856, 
  "Dmitri": 6857, 
  "insights": 6858, 
  "retaliation": 6859, 
  "invitation": 6860, 
  "neo-liberal": 6861, 
  "exploiting": 6862, 
  "reaches": 6863, 
  "37": 6864, 
  "Leone": 6865, 
  "underpinned": 6866, 
  "prevalence": 6867, 
  "revenge": 6868, 
  "Muhammad": 6869, 
  "Americas": 6870, 
  "mount": 6871, 
  "banning": 6872, 
  "discretion": 6873, 
  "rogue": 6874, 
  "scare": 6875, 
  "safely": 6876, 
  "Milton": 6877, 
  "drivers": 6878, 
  "girl": 6879, 
  "disagreement": 6880, 
  "illegitimate": 6881, 
  "rendered": 6882, 
  "owner": 6883, 
  "convert": 6884, 
  "penalties": 6885, 
  "patriotism": 6886, 
  "peasant": 6887, 
  "Mumbai": 6888, 
  "branches": 6889, 
  "charisma": 6890, 
  "Monti": 6891, 
  "fruits": 6892, 
  "1956": 6893, 
  "visiting": 6894, 
  "fragmentation": 6895, 
  "promotes": 6896, 
  "mobilization": 6897, 
  "sub-@@": 6898, 
  "out-@@": 6899, 
  "oldest": 6900, 
  "height": 6901, 
  "junta": 6902, 
  "successors": 6903, 
  "parallels": 6904, 
  "Manuel": 6905, 
  "independently": 6906, 
  "19th": 6907, 
  "Tahrir": 6908, 
  "cap-and-trade": 6909, 
  "attribute": 6910, 
  "hike": 6911, 
  "privilege": 6912, 
  "ESDP": 6913, 
  "cheating": 6914, 
  "possession": 6915, 
  "qualify": 6916, 
  "liberalizing": 6917, 
  "restricting": 6918, 
  "converted": 6919, 
  "attractiveness": 6920, 
  "Palin": 6921, 
  "selective": 6922, 
  "lucky": 6923, 
  "unintended": 6924, 
  "structured": 6925, 
  "chaotic": 6926, 
  "motor": 6927, 
  "assessments": 6928, 
  "volumes": 6929, 
  "Mechanism": 6930, 
  "analyses": 6931, 
  "objects": 6932, 
  "lifestyle": 6933, 
  "glut": 6934, 
  "districts": 6935, 
  "monitored": 6936, 
  "That": 6937, 
  "ents": 6938, 
  "bipolar": 6939, 
  "non-state": 6940, 
  "broker": 6941, 
  "marketplace": 6942, 
  "testimony": 6943, 
  "populists": 6944, 
  "retired": 6945, 
  "fearing": 6946, 
  "print": 6947, 
  "portrayed": 6948, 
  "troop": 6949, 
  "exceeded": 6950, 
  "illiquid": 6951, 
  "journalism": 6952, 
  "Sudanese": 6953, 
  "confirms": 6954, 
  "expelled": 6955, 
  "maintenance": 6956, 
  "appoint": 6957, 
  "residential": 6958, 
  "quota": 6959, 
  "looms": 6960, 
  "NTC": 6961, 
  "utility": 6962, 
  "pieces": 6963, 
  "Standard": 6964, 
  "conferences": 6965, 
  "enjoying": 6966, 
  "insolvency": 6967, 
  "Albania": 6968, 
  "wanting": 6969, 
  "backward": 6970, 
  "Colombian": 6971, 
  "grid": 6972, 
  "realm": 6973, 
  "row": 6974, 
  "survivors": 6975, 
  "fantasy": 6976, 
  "fits": 6977, 
  "celebrated": 6978, 
  "abstract": 6979, 
  "cliff": 6980, 
  "linguistic": 6981, 
  "Left": 6982, 
  "E": 6983, 
  "preferable": 6984, 
  "der@@": 6985, 
  "inspiration": 6986, 
  "anytime": 6987, 
  "consolidated": 6988, 
  "remedies": 6989, 
  "constraint": 6990, 
  "dry": 6991, 
  "impending": 6992, 
  "endemic": 6993, 
  "resurgence": 6994, 
  "molecular": 6995, 
  "posts": 6996, 
  "Tibetans": 6997, 
  "°": 6998, 
  "decides": 6999, 
  "ensuing": 7000, 
  "ical": 7001, 
  "ov": 7002, 
  "compact": 7003, 
  "soldier": 7004, 
  "authorized": 7005, 
  "careers": 7006, 
  "Sierra": 7007, 
  "accusations": 7008, 
  "conflicting": 7009, 
  "proceeds": 7010, 
  "brother": 7011, 
  "adapted": 7012, 
  "Mexicans": 7013, 
  "perverse": 7014, 
  "hosts": 7015, 
  "imperatives": 7016, 
  "listed": 7017, 
  "Do": 7018, 
  "Par@@": 7019, 
  "divert": 7020, 
  "handful": 7021, 
  "journey": 7022, 
  "ten@@": 7023, 
  "executed": 7024, 
  "Anwar": 7025, 
  "36": 7026, 
  "bro@@": 7027, 
  "tribes": 7028, 
  "scenes": 7029, 
  "lights": 7030, 
  "liable": 7031, 
  "embassy": 7032, 
  "answered": 7033, 
  "enjoys": 7034, 
  "Li@@": 7035, 
  "salary": 7036, 
  "Adam": 7037, 
  "equation": 7038, 
  "wholesale": 7039, 
  "Economics": 7040, 
  "description": 7041, 
  "cool": 7042, 
  "clashes": 7043, 
  "nostalgia": 7044, 
  "racist": 7045, 
  "graduate": 7046, 
  "qualities": 7047, 
  "fascist": 7048, 
  "bridges": 7049, 
  "ballistic": 7050, 
  "ven@@": 7051, 
  "remarks": 7052, 
  "shaky": 7053, 
  "reassure": 7054, 
  "wounds": 7055, 
  "um@@": 7056, 
  "expenses": 7057, 
  "hopeful": 7058, 
  "requests": 7059, 
  "phenomena": 7060, 
  "interpretations": 7061, 
  "Tel": 7062, 
  "Hollywood": 7063, 
  "diabetes": 7064, 
  "Anglo-Saxon": 7065, 
  "flag": 7066, 
  "battlefield": 7067, 
  "powerless": 7068, 
  "discoveries": 7069, 
  "telecommunications": 7070, 
  "30,000": 7071, 
  "assertion": 7072, 
  "deterrent": 7073, 
  "eggs": 7074, 
  "commander": 7075, 
  "absorbed": 7076, 
  "alienated": 7077, 
  "resisting": 7078, 
  "adhere": 7079, 
  "stream": 7080, 
  "benchmark": 7081, 
  "desert": 7082, 
  "extract": 7083, 
  "dose": 7084, 
  "obscure": 7085, 
  "bent": 7086, 
  "premiums": 7087, 
  "compounded": 7088, 
  "calamity": 7089, 
  "warn": 7090, 
  "mu@@": 7091, 
  "ill-@@": 7092, 
  "motivation": 7093, 
  "ver@@": 7094, 
  "unwanted": 7095, 
  "Action": 7096, 
  "prohibition": 7097, 
  "bipartisan": 7098, 
  "brains": 7099, 
  "opaque": 7100, 
  "repayment": 7101, 
  "ists": 7102, 
  "aggravated": 7103, 
  "registered": 7104, 
  "foot": 7105, 
  "priced": 7106, 
  "incompetent": 7107, 
  "intractable": 7108, 
  "fulfilling": 7109, 
  "examination": 7110, 
  "St@@": 7111, 
  "center-right": 7112, 
  "Pen": 7113, 
  "mistrust": 7114, 
  "triggering": 7115, 
  "rebound": 7116, 
  "verge": 7117, 
  "interfere": 7118, 
  "first-@@": 7119, 
  "gar@@": 7120, 
  "burdened": 7121, 
  "one-party": 7122, 
  "urging": 7123, 
  "questioned": 7124, 
  "rewarded": 7125, 
  "dubbed": 7126, 
  "compelled": 7127, 
  "trivial": 7128, 
  "manageable": 7129, 
  "matched": 7130, 
  "55": 7131, 
  "three-@@": 7132, 
  "describes": 7133, 
  "engineered": 7134, 
  "withdrawn": 7135, 
  "divisive": 7136, 
  "Vatican": 7137, 
  "bright": 7138, 
  "possesses": 7139, 
  "greenhouse-gas": 7140, 
  "clever": 7141, 
  "deadlock": 7142, 
  "compulsory": 7143, 
  "opium": 7144, 
  "1975": 7145, 
  "stakeholders": 7146, 
  "cumulative": 7147, 
  "disclosure": 7148, 
  "Old": 7149, 
  "ah": 7150, 
  "higher-@@": 7151, 
  "criterion": 7152, 
  "allocate": 7153, 
  "20@@": 7154, 
  "Afghans": 7155, 
  "Kyi": 7156, 
  "Suu": 7157, 
  "equals": 7158, 
  "allegations": 7159, 
  "Westerners": 7160, 
  "me@@": 7161, 
  "shocking": 7162, 
  "publishing": 7163, 
  "fiction": 7164, 
  "sluggish": 7165, 
  "designing": 7166, 
  "lobbies": 7167, 
  "ugly": 7168, 
  "Krugman": 7169, 
  "Geithner": 7170, 
  "tainted": 7171, 
  "overvalued": 7172, 
  "brutality": 7173, 
  "disadvantage": 7174, 
  "well-known": 7175, 
  "herself": 7176, 
  "spill": 7177, 
  "champions": 7178, 
  "devised": 7179, 
  "iled": 7180, 
  "transferring": 7181, 
  "wh@@": 7182, 
  "awarded": 7183, 
  "overcoming": 7184, 
  "thoughts": 7185, 
  "pl@@": 7186, 
  "horse": 7187, 
  "conducting": 7188, 
  "ed-@@": 7189, 
  "mentality": 7190, 
  "brilliant": 7191, 
  "uneven": 7192, 
  "empower": 7193, 
  "public-health": 7194, 
  "nonsense": 7195, 
  "soar": 7196, 
  "combatants": 7197, 
  "ging": 7198, 
  "stolen": 7199, 
  "44": 7200, 
  "alleviate": 7201, 
  "sleep": 7202, 
  "mayor": 7203, 
  "detainees": 7204, 
  "analogous": 7205, 
  "yielded": 7206, 
  "instances": 7207, 
  "tolerant": 7208, 
  "32": 7209, 
  "Zedong": 7210, 
  "explore": 7211, 
  "freer": 7212, 
  "widen": 7213, 
  "recipients": 7214, 
  "thoroughly": 7215, 
  "Barroso": 7216, 
  "transmitted": 7217, 
  "WikiLeaks": 7218, 
  "immunity": 7219, 
  "oil-rich": 7220, 
  "royal": 7221, 
  "drove": 7222, 
  "proposes": 7223, 
  "magazine": 7224, 
  "clubs": 7225, 
  "compassion": 7226, 
  "intact": 7227, 
  "corn": 7228, 
  "indebtedness": 7229, 
  "amounted": 7230, 
  "hyper-@@": 7231, 
  "commanders": 7232, 
  "deepest": 7233, 
  "traveled": 7234, 
  "slack": 7235, 
  "specified": 7236, 
  "replied": 7237, 
  "paramount": 7238, 
  "reproductive": 7239, 
  "Reinhart": 7240, 
  "III": 7241, 
  "entertainment": 7242, 
  "old-fashioned": 7243, 
  "Costa": 7244, 
  "exercised": 7245, 
  "ta@@": 7246, 
  "occupy": 7247, 
  "Hamilton": 7248, 
  "isolate": 7249, 
  "Silicon": 7250, 
  "variations": 7251, 
  "individually": 7252, 
  "literacy": 7253, 
  "fathers": 7254, 
  "yielding": 7255, 
  "coordinating": 7256, 
  "Khomeini": 7257, 
  "-style": 7258, 
  "addiction": 7259, 
  "swaps": 7260, 
  "Ghraib": 7261, 
  "Martin": 7262, 
  "pen@@": 7263, 
  "corresponding": 7264, 
  "drops": 7265, 
  "thrive": 7266, 
  "Ba@@": 7267, 
  "ambiguity": 7268, 
  "barred": 7269, 
  "advent": 7270, 
  "contentious": 7271, 
  "bio@@": 7272, 
  "sting": 7273, 
  "behavioral": 7274, 
  "her@@": 7275, 
  "attended": 7276, 
  "artists": 7277, 
  "ders": 7278, 
  "physicians": 7279, 
  "1.6": 7280, 
  "descent": 7281, 
  "charismatic": 7282, 
  "ically": 7283, 
  "traits": 7284, 
  "micro@@": 7285, 
  "tempting": 7286, 
  "shore": 7287, 
  "prevails": 7288, 
  "rents": 7289, 
  "workplace": 7290, 
  "films": 7291, 
  "eradicate": 7292, 
  "bureaucracies": 7293, 
  "ving": 7294, 
  "rocket": 7295, 
  "war@@": 7296, 
  "inclined": 7297, 
  "merger": 7298, 
  "tion@@": 7299, 
  "three-quarters": 7300, 
  "newcomers": 7301, 
  "inflated": 7302, 
  "par": 7303, 
  "victories": 7304, 
  "Iron": 7305, 
  "Market": 7306, 
  "Society": 7307, 
  "recapitalization": 7308, 
  "equities": 7309, 
  "af@@": 7310, 
  "conception": 7311, 
  "reap": 7312, 
  "mobilizing": 7313, 
  "uniform": 7314, 
  "goodwill": 7315, 
  "Scandinavian": 7316, 
  "accepts": 7317, 
  "facilitating": 7318, 
  "preoccupied": 7319, 
  "inappropriate": 7320, 
  "deficiencies": 7321, 
  "gu@@": 7322, 
  "Tehran": 7323, 
  "Mitterrand": 7324, 
  "1914": 7325, 
  "much-needed": 7326, 
  "flying": 7327, 
  "17@@": 7328, 
  "organic": 7329, 
  "beating": 7330, 
  "dog": 7331, 
  "mergers": 7332, 
  "speaker": 7333, 
  "hybrid": 7334, 
  "Mahathir": 7335, 
  "variant": 7336, 
  "longevity": 7337, 
  "dominates": 7338, 
  "WHO": 7339, 
  "describing": 7340, 
  "underscored": 7341, 
  "Bin": 7342, 
  "experimental": 7343, 
  "stroke": 7344, 
  "tank": 7345, 
  "du@@": 7346, 
  "protective": 7347, 
  "clo@@": 7348, 
  "wearing": 7349, 
  "parasites": 7350, 
  "comment": 7351, 
  "devastation": 7352, 
  "Year": 7353, 
  "predicting": 7354, 
  "moon": 7355, 
  "g": 7356, 
  "supportive": 7357, 
  "1974": 7358, 
  "1971": 7359, 
  "systemically": 7360, 
  "Prodi": 7361, 
  "condemnation": 7362, 
  "fication": 7363, 
  "strife": 7364, 
  "self-fulfilling": 7365, 
  "maternal": 7366, 
  "varying": 7367, 
  "cease": 7368, 
  "w": 7369, 
  "varieties": 7370, 
  "Mar@@": 7371, 
  "bets": 7372, 
  "humiliating": 7373, 
  "extinction": 7374, 
  "flooding": 7375, 
  "CIA": 7376, 
  "bloated": 7377, 
  "hiding": 7378, 
  "arts": 7379, 
  "gh@@": 7380, 
  "autocracy": 7381, 
  "leisure": 7382, 
  "voluntarily": 7383, 
  "broadcast": 7384, 
  "Mitt": 7385, 
  "separatist": 7386, 
  "-related": 7387, 
  "suggestion": 7388, 
  "sl@@": 7389, 
  "imposition": 7390, 
  "strained": 7391, 
  "foolish": 7392, 
  "all-@@": 7393, 
  "dissident": 7394, 
  "ensured": 7395, 
  "nationality": 7396, 
  "invading": 7397, 
  "wishful": 7398, 
  "16@@": 7399, 
  "Buddhist": 7400, 
  "refinancing": 7401, 
  "underestimated": 7402, 
  "build-up": 7403, 
  "correlation": 7404, 
  "operated": 7405, 
  "-year": 7406, 
  "­@@": 7407, 
  "arm": 7408, 
  "distributional": 7409, 
  "Delhi": 7410, 
  "departments": 7411, 
  "proponents": 7412, 
  "sovereigns": 7413, 
  "taste": 7414, 
  "cancers": 7415, 
  "gamble": 7416, 
  "hardship": 7417, 
  "rivers": 7418, 
  "schooling": 7419, 
  "mankind": 7420, 
  "passes": 7421, 
  "rockets": 7422, 
  "havoc": 7423, 
  "2.3": 7424, 
  "consecutive": 7425, 
  "pretend": 7426, 
  "summits": 7427, 
  "frame": 7428, 
  "operates": 7429, 
  "award": 7430, 
  "subsidiaries": 7431, 
  "chooses": 7432, 
  "cocaine": 7433, 
  "dare": 7434, 
  "ges": 7435, 
  "airport": 7436, 
  "Belgrade": 7437, 
  "device": 7438, 
  "bribes": 7439, 
  "disposable": 7440, 
  "score": 7441, 
  "Facebook": 7442, 
  "organ": 7443, 
  "curtailing": 7444, 
  "plagued": 7445, 
  "quot": 7446, 
  "da@@": 7447, 
  "ethnicity": 7448, 
  "prefers": 7449, 
  "countercyclical": 7450, 
  "erode": 7451, 
  "heed": 7452, 
  "mode": 7453, 
  "rewarding": 7454, 
  "Indonesian": 7455, 
  "guaranteeing": 7456, 
  "curious": 7457, 
  "underestimate": 7458, 
  "ills": 7459, 
  "ass@@": 7460, 
  "ely": 7461, 
  "pronounced": 7462, 
  "T": 7463, 
  "proclaim": 7464, 
  "Islamabad": 7465, 
  "odd": 7466, 
  "tortured": 7467, 
  "Two": 7468, 
  "movies": 7469, 
  "vaccine": 7470, 
  "nurture": 7471, 
  "rigorous": 7472, 
  "assurances": 7473, 
  "examined": 7474, 
  "motive": 7475, 
  "horrors": 7476, 
  "peninsula": 7477, 
  "migrant": 7478, 
  "recruit": 7479, 
  "domain": 7480, 
  "expressing": 7481, 
  "portray": 7482, 
  "pause": 7483, 
  "upheaval": 7484, 
  "competence": 7485, 
  "Dominique": 7486, 
  "grossly": 7487, 
  "Likud": 7488, 
  "Budget": 7489, 
  "meets": 7490, 
  "undemocratic": 7491, 
  "restructure": 7492, 
  "undergoing": 7493, 
  "IT": 7494, 
  "William": 7495, 
  "cushion": 7496, 
  "taxpayer": 7497, 
  "supremacy": 7498, 
  "shing": 7499, 
  "umbrella": 7500, 
  "fo@@": 7501, 
  "firing": 7502, 
  "bus": 7503, 
  "fusion": 7504, 
  "retained": 7505, 
  "polling": 7506, 
  "murderous": 7507, 
  "recovering": 7508, 
  "financial-market": 7509, 
  "constitutions": 7510, 
  "wear": 7511, 
  "designated": 7512, 
  "relation": 7513, 
  "opted": 7514, 
  "string": 7515, 
  "How": 7516, 
  "Singh": 7517, 
  "Golan": 7518, 
  "initiate": 7519, 
  "cotton": 7520, 
  "premise": 7521, 
  "Karl": 7522, 
  "monks": 7523, 
  "advised": 7524, 
  "median": 7525, 
  "zero-sum": 7526, 
  "collapses": 7527, 
  "centrist": 7528, 
  "SWFs": 7529, 
  "predictably": 7530, 
  "incidence": 7531, 
  "anxieties": 7532, 
  "ruthless": 7533, 
  "ambiguous": 7534, 
  "47": 7535, 
  "ignorant": 7536, 
  "uphold": 7537, 
  "originated": 7538, 
  "res": 7539, 
  "leprosy": 7540, 
  "bar@@": 7541, 
  "eating": 7542, 
  "proxy": 7543, 
  "versa": 7544, 
  "balance-sheet": 7545, 
  "tighten": 7546, 
  "coercive": 7547, 
  "exploration": 7548, 
  "5-@@": 7549, 
  "implicitly": 7550, 
  "meager": 7551, 
  "rock": 7552, 
  "peril": 7553, 
  "subtle": 7554, 
  "talents": 7555, 
  "lets": 7556, 
  "lag": 7557, 
  "wings": 7558, 
  "fallout": 7559, 
  "eligible": 7560, 
  "1970s": 7561, 
  "prohibited": 7562, 
  "privatized": 7563, 
  "intensified": 7564, 
  "unconditional": 7565, 
  "calculation": 7566, 
  "ry": 7567, 
  "coincidence": 7568, 
  "crossed": 7569, 
  "contingent": 7570, 
  "horrific": 7571, 
  "protein": 7572, 
  "marine": 7573, 
  "provocative": 7574, 
  "Poor": 7575, 
  "tip": 7576, 
  "observer": 7577, 
  "slide": 7578, 
  "devote": 7579, 
  "grab": 7580, 
  "inf@@": 7581, 
  "worlds": 7582, 
  "Draghi": 7583, 
  "ideally": 7584, 
  "theorists": 7585, 
  "Bali": 7586, 
  "rail": 7587, 
  "technically": 7588, 
  "secrecy": 7589, 
  "hoc": 7590, 
  "mid-1990": 7591, 
  "resumption": 7592, 
  "Commissioner": 7593, 
  "divorce": 7594, 
  "Angeles": 7595, 
  "transit": 7596, 
  "facilitated": 7597, 
  "coercion": 7598, 
  "deeds": 7599, 
  "positioned": 7600, 
  "unskilled": 7601, 
  "disappointment": 7602, 
  "Uzbekistan": 7603, 
  "Why": 7604, 
  "post-Cold": 7605, 
  "lows": 7606, 
  "variation": 7607, 
  "codes": 7608, 
  "unfettered": 7609, 
  "enthusiastic": 7610, 
  "submitted": 7611, 
  "Economist": 7612, 
  "paths": 7613, 
  "Canadian": 7614, 
  "h": 7615, 
  "cement": 7616, 
  "owes": 7617, 
  "Niger": 7618, 
  "coups": 7619, 
  "nearby": 7620, 
  "They": 7621, 
  "mine": 7622, 
  "convertibility": 7623, 
  "4.5": 7624, 
  "complementary": 7625, 
  "Is": 7626, 
  "ingredients": 7627, 
  "ber@@": 7628, 
  "shield": 7629, 
  "comparing": 7630, 
  "themes": 7631, 
  "dirty": 7632, 
  "astonishing": 7633, 
  "untenable": 7634, 
  "reinforces": 7635, 
  "oppressive": 7636, 
  "taboo": 7637, 
  "vanished": 7638, 
  "ratify": 7639, 
  "ap@@": 7640, 
  "viability": 7641, 
  "campaigning": 7642, 
  "confronts": 7643, 
  "Damascus": 7644, 
  "tor": 7645, 
  "footing": 7646, 
  "dates": 7647, 
  "inspections": 7648, 
  "joke": 7649, 
  "Volcker": 7650, 
  "downturns": 7651, 
  "7-@@": 7652, 
  "nuclear-armed": 7653, 
  "1972": 7654, 
  "Dalai": 7655, 
  "Slobodan": 7656, 
  "50,000": 7657, 
  "specialized": 7658, 
  "squandered": 7659, 
  "four-@@": 7660, 
  "friendship": 7661, 
  "ful": 7662, 
  "20,000": 7663, 
  "Strauss-Kahn": 7664, 
  "low-wage": 7665, 
  "anonymous": 7666, 
  "ensures": 7667, 
  "translated": 7668, 
  "undeniable": 7669, 
  "contend": 7670, 
  "ites": 7671, 
  "meters": 7672, 
  "exceeding": 7673, 
  "reign": 7674, 
  "anticipate": 7675, 
  "announce": 7676, 
  "loved": 7677, 
  "hydrogen": 7678, 
  "gift": 7679, 
  "energy-@@": 7680, 
  "1947": 7681, 
  "persistence": 7682, 
  "predatory": 7683, 
  "constituted": 7684, 
  "Su@@": 7685, 
  "constituents": 7686, 
  "post-communist": 7687, 
  "disrupt": 7688, 
  "Review": 7689, 
  "mor@@": 7690, 
  "Deputy": 7691, 
  "Enlightenment": 7692, 
  "nomination": 7693, 
  "farther": 7694, 
  "re-elected": 7695, 
  "bacteria": 7696, 
  "Five-Year": 7697, 
  "couples": 7698, 
  "healthier": 7699, 
  "primacy": 7700, 
  "employing": 7701, 
  "mines": 7702, 
  "deepened": 7703, 
  "Eurobonds": 7704, 
  "massively": 7705, 
  "tech": 7706, 
  "suspicions": 7707, 
  "crowded": 7708, 
  "partition": 7709, 
  "Italians": 7710, 
  "engineer": 7711, 
  "delaying": 7712, 
  "peacekeepers": 7713, 
  "headline": 7714, 
  "comprehend": 7715, 
  "clause": 7716, 
  "counter@@": 7717, 
  "DDT": 7718, 
  "Orleans": 7719, 
  "aries": 7720, 
  "similarities": 7721, 
  "cross-@@": 7722, 
  "guiding": 7723, 
  "maximize": 7724, 
  "ironic": 7725, 
  "0.1": 7726, 
  "relieve": 7727, 
  "For@@": 7728, 
  "rated": 7729, 
  "oceans": 7730, 
  "1931": 7731, 
  "boycott": 7732, 
  "Jean-Claude": 7733, 
  "morning": 7734, 
  "Recep": 7735, 
  "Tayyip": 7736, 
  "strengthens": 7737, 
  "attain": 7738, 
  "ent@@": 7739, 
  "gangs": 7740, 
  "double-dip": 7741, 
  "fixing": 7742, 
  "distort": 7743, 
  "rejects": 7744, 
  "Com@@": 7745, 
  "load": 7746, 
  "mountains": 7747, 
  "Bosnian": 7748, 
  "guerrillas": 7749, 
  "locally": 7750, 
  "multiculturalism": 7751, 
  "clock": 7752, 
  "ostensibly": 7753, 
  "politicized": 7754, 
  "supplied": 7755, 
  "readers": 7756, 
  "cartels": 7757, 
  "succumb": 7758, 
  "Lukashenko": 7759, 
  "detect": 7760, 
  "revision": 7761, 
  "1949": 7762, 
  "Nepal": 7763, 
  "toppled": 7764, 
  "blue": 7765, 
  "2100": 7766, 
  "disruptions": 7767, 
  "US-China": 7768, 
  "insured": 7769, 
  "depended": 7770, 
  "haven": 7771, 
  "feminism": 7772, 
  "worsened": 7773, 
  "signaled": 7774, 
  "vers": 7775, 
  "bri@@": 7776, 
  "sparked": 7777, 
  "quarter-century": 7778, 
  "valued": 7779, 
  "PA": 7780, 
  "confusing": 7781, 
  "ten-year": 7782, 
  "aspire": 7783, 
  "Fannie": 7784, 
  "polarization": 7785, 
  "tly": 7786, 
  "intensify": 7787, 
  "twelve": 7788, 
  "powered": 7789, 
  "CEOs": 7790, 
  "accomplishments": 7791, 
  "Lama": 7792, 
  "forbidden": 7793, 
  "diversify": 7794, 
  "SDRs": 7795, 
  "-like": 7796, 
  "arrogant": 7797, 
  "capitalists": 7798, 
  "Journal": 7799, 
  "indicted": 7800, 
  "notoriously": 7801, 
  "patriotic": 7802, 
  "counted": 7803, 
  "gesture": 7804, 
  "advocacy": 7805, 
  "broaden": 7806, 
  "telephone": 7807, 
  "plane": 7808, 
  "prosecuted": 7809, 
  "cra@@": 7810, 
  "comprises": 7811, 
  "es-@@": 7812, 
  "align": 7813, 
  "evaluation": 7814, 
  "le-@@": 7815, 
  "persecution": 7816, 
  "anybody": 7817, 
  "euphoria": 7818, 
  "simultaneous": 7819, 
  "devastated": 7820, 
  "stricter": 7821, 
  "abrupt": 7822, 
  "lots": 7823, 
  "ward": 7824, 
  "posing": 7825, 
  "work@@": 7826, 
  "retrenchment": 7827, 
  "friction": 7828, 
  "jurisdictions": 7829, 
  "contested": 7830, 
  "down@@": 7831, 
  "locations": 7832, 
  "subsidize": 7833, 
  "cheaply": 7834, 
  "session": 7835, 
  "constrain": 7836, 
  "outlined": 7837, 
  "hard-@@": 7838, 
  "invoked": 7839, 
  "abide": 7840, 
  "injury": 7841, 
  "much-@@": 7842, 
  "succeeds": 7843, 
  "starters": 7844, 
  "uneasy": 7845, 
  "holy": 7846, 
  "blueprint": 7847, 
  "plummeted": 7848, 
  "illusions": 7849, 
  "forecasting": 7850, 
  "proportions": 7851, 
  "artificially": 7852, 
  "responds": 7853, 
  "crony": 7854, 
  "colonies": 7855, 
  "hubris": 7856, 
  "discouraged": 7857, 
  "obtaining": 7858, 
  "vowed": 7859, 
  "suffice": 7860, 
  "1.1": 7861, 
  "occasional": 7862, 
  ".ampnbsp": 7863, 
  "fastest": 7864, 
  "Barak": 7865, 
  "cease-fire": 7866, 
  "honesty": 7867, 
  "fabric": 7868, 
  "Qu@@": 7869, 
  "staged": 7870, 
  "utter": 7871, 
  "unfolding": 7872, 
  "spot": 7873, 
  "Nordic": 7874, 
  "boat": 7875, 
  "ev@@": 7876, 
  "dragged": 7877, 
  "lax": 7878, 
  "lining": 7879, 
  "applications": 7880, 
  "Napoleon": 7881, 
  "hand@@": 7882, 
  "bird": 7883, 
  "Solzhenitsyn": 7884, 
  "reconciled": 7885, 
  "nationalistic": 7886, 
  "rooms": 7887, 
  "destination": 7888, 
  "boss": 7889, 
  "feeding": 7890, 
  "Shell": 7891, 
  "allegiance": 7892, 
  "Armenian": 7893, 
  "peculiar": 7894, 
  "Dick": 7895, 
  "recoveries": 7896, 
  "candidacy": 7897, 
  "£": 7898, 
  "encountered": 7899, 
  "System": 7900, 
  "START": 7901, 
  "posture": 7902, 
  "disability": 7903, 
  "develops": 7904, 
  "habit": 7905, 
  "humiliated": 7906, 
  "heated": 7907, 
  "swift": 7908, 
  "recourse": 7909, 
  "spark": 7910, 
  "petition": 7911, 
  "charity": 7912, 
  "39": 7913, 
  "woes": 7914, 
  "disdain": 7915, 
  "sway": 7916, 
  "iling": 7917, 
  "pro-democracy": 7918, 
  "castes": 7919, 
  "impetus": 7920, 
  "assigned": 7921, 
  "sions": 7922, 
  "river": 7923, 
  "2014": 7924, 
  "behaving": 7925, 
  "aided": 7926, 
  "tering": 7927, 
  "provoking": 7928, 
  "impressed": 7929, 
  "Condoleezza": 7930, 
  "dual": 7931, 
  "decay": 7932, 
  "shes": 7933, 
  "negligible": 7934, 
  "wholly": 7935, 
  "segments": 7936, 
  "license": 7937, 
  "suspects": 7938, 
  "imp@@": 7939, 
  "clinics": 7940, 
  "Euro-Atlantic": 7941, 
  "sti@@": 7942, 
  "undergo": 7943, 
  "www.@@": 7944, 
  "would-be": 7945, 
  "department": 7946, 
  "permissible": 7947, 
  "hyper@@": 7948, 
  "precarious": 7949, 
  "efficacy": 7950, 
  "cents": 7951, 
  "ologists": 7952, 
  "medium-size": 7953, 
  "sa@@": 7954, 
  "noticed": 7955, 
  "nationwide": 7956, 
  "Di@@": 7957, 
  "gay": 7958, 
  "plunged": 7959, 
  "Economy": 7960, 
  "All": 7961, 
  "steam": 7962, 
  "endure": 7963, 
  "seriousness": 7964, 
  "laboratories": 7965, 
  "men@@": 7966, 
  "intend": 7967, 
  "gang": 7968, 
  "destabilize": 7969, 
  "rhetorical": 7970, 
  "passionate": 7971, 
  "attachment": 7972, 
  "brutally": 7973, 
  "melting": 7974, 
  "lagging": 7975, 
  "frightening": 7976, 
  "man-made": 7977, 
  "label": 7978, 
  "prosecute": 7979, 
  "franc": 7980, 
  "blockade": 7981, 
  "flaw": 7982, 
  "draws": 7983, 
  "observation": 7984, 
  "random": 7985, 
  "promptly": 7986, 
  "implosion": 7987, 
  "sugar": 7988, 
  "greeted": 7989, 
  "populous": 7990, 
  "unusually": 7991, 
  "escalation": 7992, 
  "district": 7993, 
  "sand": 7994, 
  "overdue": 7995, 
  "ultra-@@": 7996, 
  "incurred": 7997, 
  "Carter": 7998, 
  "importing": 7999, 
  "continually": 8000, 
  "visa": 8001, 
  "Libyans": 8002, 
  "pping": 8003, 
  "backs": 8004, 
  "substantive": 8005, 
  "world-class": 8006, 
  "overhang": 8007, 
  "turnaround": 8008, 
  "revolutionaries": 8009, 
  "deficiency": 8010, 
  "havens": 8011, 
  "ups": 8012, 
  "daughters": 8013, 
  "alcohol": 8014, 
  "che@@": 8015, 
  "catalyst": 8016, 
  "unjust": 8017, 
  "cling": 8018, 
  "harassment": 8019, 
  "precondition": 8020, 
  "microbes": 8021, 
  "r": 8022, 
  "progressively": 8023, 
  "Aristide": 8024, 
  "shall": 8025, 
  "Hurricane": 8026, 
  "self-confidence": 8027, 
  "Fifth": 8028, 
  "hegemonic": 8029, 
  "dies": 8030, 
  "capitalized": 8031, 
  "charter": 8032, 
  "churches": 8033, 
  "narratives": 8034, 
  "jihad": 8035, 
  "cleansing": 8036, 
  "requested": 8037, 
  "widened": 8038, 
  "capital-@@": 8039, 
  "invaded": 8040, 
  "Maoist": 8041, 
  "altered": 8042, 
  "geographic": 8043, 
  "transcend": 8044, 
  "insure": 8045, 
  "virtuous": 8046, 
  "fragility": 8047, 
  "render": 8048, 
  "orthodox": 8049, 
  "outflows": 8050, 
  "withdrew": 8051, 
  "complement": 8052, 
  "SDR": 8053, 
  "discredit": 8054, 
  "impulse": 8055, 
  "laying": 8056, 
  "beauty": 8057, 
  "dust": 8058, 
  "neighborhoods": 8059, 
  "articulate": 8060, 
  "invite": 8061, 
  "trades": 8062, 
  "well-functioning": 8063, 
  "bonus": 8064, 
  "revaluation": 8065, 
  "liked": 8066, 
  "privacy": 8067, 
  "lawmakers": 8068, 
  "arrests": 8069, 
  "correction": 8070, 
  "versions": 8071, 
  "biofuels": 8072, 
  "nice": 8073, 
  "breach": 8074, 
  "deadline": 8075, 
  "civil-society": 8076, 
  "excellence": 8077, 
  "betrayal": 8078, 
  "Chavez": 8079, 
  "subordinate": 8080, 
  "protocol": 8081, 
  "tolerated": 8082, 
  "appeasement": 8083, 
  "Albanian": 8084, 
  "donations": 8085, 
  "convened": 8086, 
  "Mozambique": 8087, 
  "escaped": 8088, 
  "critique": 8089, 
  "Binyamin": 8090, 
  "Amsterdam": 8091, 
  "misrule": 8092, 
  "prejudice": 8093, 
  "pa@@": 8094, 
  "Mill": 8095, 
  "Paulson": 8096, 
  "staying": 8097, 
  "ades": 8098, 
  "violating": 8099, 
  "smarter": 8100, 
  "unifying": 8101, 
  "market-oriented": 8102, 
  "interactions": 8103, 
  "monthly": 8104, 
  "materialize": 8105, 
  "compensated": 8106, 
  "Fidel": 8107, 
  "viewers": 8108, 
  "51": 8109, 
  "athletes": 8110, 
  "antagonism": 8111, 
  "ats": 8112, 
  "1984": 8113, 
  "contexts": 8114, 
  "assessed": 8115, 
  "ines": 8116, 
  "ves": 8117, 
  "exc@@": 8118, 
  "ori@@": 8119, 
  "tactic": 8120, 
  "vivid": 8121, 
  "1962": 8122, 
  "or-@@": 8123, 
  "proximity": 8124, 
  "Mladic": 8125, 
  "exciting": 8126, 
  "uniquely": 8127, 
  "refuge": 8128, 
  "puzzle": 8129, 
  "full-time": 8130, 
  "stresses": 8131, 
  "sacrifices": 8132, 
  "accumulating": 8133, 
  "ep@@": 8134, 
  "announcing": 8135, 
  "cosmopolitan": 8136, 
  "Ar@@": 8137, 
  "0@@": 8138, 
  "debating": 8139, 
  "34": 8140, 
  "league": 8141, 
  "briefly": 8142, 
  "Bundesbank": 8143, 
  "Rica": 8144, 
  "-of-GDP": 8145, 
  "AIG": 8146, 
  "Coast": 8147, 
  "parks": 8148, 
  "accessible": 8149, 
  "biotechnology": 8150, 
  "determines": 8151, 
  "ering": 8152, 
  "recapitalize": 8153, 
  "culturally": 8154, 
  "Maghreb": 8155, 
  "History": 8156, 
  "spike": 8157, 
  "Euro-@@": 8158, 
  "53": 8159, 
  "apathy": 8160, 
  "mountain": 8161, 
  "bl@@": 8162, 
  "continuously": 8163, 
  "deception": 8164, 
  "char@@": 8165, 
  "impaired": 8166, 
  "Hariri": 8167, 
  "desires": 8168, 
  "differs": 8169, 
  "intimidation": 8170, 
  "profligate": 8171, 
  "den@@": 8172, 
  "specialists": 8173, 
  "peers": 8174, 
  "councils": 8175, 
  "multiplied": 8176, 
  "unbalanced": 8177, 
  "99": 8178, 
  "Bangkok": 8179, 
  "second-@@": 8180, 
  "restrictive": 8181, 
  "quoted": 8182, 
  "rainfall": 8183, 
  "intervened": 8184, 
  "cul@@": 8185, 
  "ff": 8186, 
  "embryos": 8187, 
  "regained": 8188, 
  "homosexuality": 8189, 
  "Federation": 8190, 
  "e.g.": 8191, 
  "ver": 8192, 
  "twin": 8193, 
  "sat": 8194, 
  "observe": 8195, 
  "constructing": 8196, 
  "covert": 8197, 
  "Summers": 8198, 
  "objections": 8199, 
  "outdated": 8200, 
  "xenophobic": 8201, 
  "minute": 8202, 
  "stretch": 8203, 
  "crushed": 8204, 
  "normalization": 8205, 
  "Kabul": 8206, 
  "taxing": 8207, 
  "sin": 8208, 
  "12th": 8209, 
  "oil-@@": 8210, 
  "disarray": 8211, 
  "VAT": 8212, 
  "rethink": 8213, 
  "hypothesis": 8214, 
  "therapies": 8215, 
  "apartheid": 8216, 
  "cro@@": 8217, 
  "noble": 8218, 
  "shooting": 8219, 
  "disciplines": 8220, 
  "topic": 8221, 
  "abilities": 8222, 
  "recommend": 8223, 
  "En@@": 8224, 
  "Car@@": 8225, 
  "Columbia": 8226, 
  "De@@": 8227, 
  "pornography": 8228, 
  "acquiring": 8229, 
  "blackmail": 8230, 
  "conversion": 8231, 
  "emphasizes": 8232, 
  "Turkmenistan": 8233, 
  "Assange": 8234, 
  "belonging": 8235, 
  "Wilson": 8236, 
  "payroll": 8237, 
  "spare": 8238, 
  "metals": 8239, 
  "Banking": 8240, 
  "6.5": 8241, 
  "solvent": 8242, 
  "technocratic": 8243, 
  "Srebrenica": 8244, 
  "ned": 8245, 
  "ge": 8246, 
  "freed": 8247, 
  "swap": 8248, 
  "suits": 8249, 
  "reserved": 8250, 
  "addresses": 8251, 
  "adventure": 8252, 
  "nerve": 8253, 
  "abolish": 8254, 
  "inheritance": 8255, 
  "que": 8256, 
  "unanimous": 8257, 
  "interdependent": 8258, 
  "Industrial": 8259, 
  "nasty": 8260, 
  "liberalize": 8261, 
  "turbines": 8262, 
  "Russian-@@": 8263, 
  "Venezuelan": 8264, 
  "assurance": 8265, 
  "unleash": 8266, 
  "shopping": 8267, 
  "ore": 8268, 
  "bul@@": 8269, 
  "forcefully": 8270, 
  "dampen": 8271, 
  "massacres": 8272, 
  "rescued": 8273, 
  "2.7": 8274, 
  "gridlock": 8275, 
  "Barcelona": 8276, 
  "protects": 8277, 
  "Koran": 8278, 
  "noting": 8279, 
  "0.3": 8280, 
  "ju@@": 8281, 
  "dictate": 8282, 
  "five-@@": 8283, 
  "Confucian": 8284, 
  "Toledo": 8285, 
  "Guinea": 8286, 
  "courageous": 8287, 
  "and-@@": 8288, 
  "Senegal": 8289, 
  "Pakistanis": 8290, 
  "QE": 8291, 
  "Tunisian": 8292, 
  "achievable": 8293, 
  "fore": 8294, 
  "1997-1998": 8295, 
  "determinant": 8296, 
  "prolong": 8297, 
  "landslide": 8298, 
  "ai": 8299, 
  "measuring": 8300, 
  "simpler": 8301, 
  "physicists": 8302, 
  "renew": 8303, 
  "cloning": 8304, 
  "Yasukuni": 8305, 
  "tional": 8306, 
  "ati@@": 8307, 
  "manifest": 8308, 
  "amounting": 8309, 
  "securitization": 8310, 
  "tipping": 8311, 
  "diffusion": 8312, 
  "Frankfurt": 8313, 
  "military-@@": 8314, 
  "blunt": 8315, 
  "theater": 8316, 
  "greedy": 8317, 
  "best-@@": 8318, 
  "anti-Semitic": 8319, 
  "slows": 8320, 
  "slogans": 8321, 
  "glaciers": 8322, 
  "book@@": 8323, 
  "copy": 8324, 
  "sink": 8325, 
  "stubbornly": 8326, 
  "purchased": 8327, 
  "risking": 8328, 
  "sins": 8329, 
  "disengagement": 8330, 
  "anti-Western": 8331, 
  "dilemmas": 8332, 
  "wildly": 8333, 
  "single-@@": 8334, 
  "cur@@": 8335, 
  "unregulated": 8336, 
  "thereafter": 8337, 
  "managerial": 8338, 
  "46": 8339, 
  "trans@@": 8340, 
  "ps": 8341, 
  "connect": 8342, 
  "universally": 8343, 
  "fertilizer": 8344, 
  "senators": 8345, 
  "earliest": 8346, 
  "positively": 8347, 
  "multi-polar": 8348, 
  "ley": 8349, 
  "victorious": 8350, 
  "cu@@": 8351, 
  "Xi": 8352, 
  "harmonious": 8353, 
  "BBC": 8354, 
  "listening": 8355, 
  "burden-sharing": 8356, 
  "lobbyists": 8357, 
  "Be@@": 8358, 
  "tribunals": 8359, 
  "arsenals": 8360, 
  "nu@@": 8361, 
  "cks": 8362, 
  "graduates": 8363, 
  "Morgan": 8364, 
  "dividend": 8365, 
  "heating": 8366, 
  "perestroika": 8367, 
  "sinking": 8368, 
  "celebration": 8369, 
  "amendments": 8370, 
  "labeled": 8371, 
  "He": 8372, 
  "Kirchner": 8373, 
  "reconsider": 8374, 
  "framed": 8375, 
  "tap": 8376, 
  "roadmap": 8377, 
  "immoral": 8378, 
  "worldview": 8379, 
  "air@@": 8380, 
  "instructions": 8381, 
  "glory": 8382, 
  "mightily": 8383, 
  "beaten": 8384, 
  "designs": 8385, 
  "Dr.": 8386, 
  "frightened": 8387, 
  "bars": 8388, 
  "lower-@@": 8389, 
  "1.8": 8390, 
  "450": 8391, 
  "detained": 8392, 
  "Kan": 8393, 
  "Lenin": 8394, 
  "monetary-policy": 8395, 
  "enters": 8396, 
  "bra@@": 8397, 
  "cite": 8398, 
  "indicating": 8399, 
  "expecting": 8400, 
  "tripled": 8401, 
  "sizeable": 8402, 
  "retire": 8403, 
  "minutes": 8404, 
  "betting": 8405, 
  "liberated": 8406, 
  "poppy": 8407, 
  "uniting": 8408, 
  "lying": 8409, 
  "ka": 8410, 
  "refinance": 8411, 
  "lity": 8412, 
  "deterred": 8413, 
  "harmonization": 8414, 
  "persistently": 8415, 
  "Si@@": 8416, 
  "unchecked": 8417, 
  "sis": 8418, 
  "histories": 8419, 
  "market-based": 8420, 
  "Stockholm": 8421, 
  "one-fifth": 8422, 
  "affirmative": 8423, 
  "Delta": 8424, 
  "we@@": 8425, 
  "criticizing": 8426, 
  "daring": 8427, 
  "punitive": 8428, 
  "alien": 8429, 
  "differential": 8430, 
  "completion": 8431, 
  "suitable": 8432, 
  "cleaner": 8433, 
  "odious": 8434, 
  "navy": 8435, 
  "circulation": 8436, 
  "illustrated": 8437, 
  "shoulder": 8438, 
  "theirs": 8439, 
  "restrain": 8440, 
  "examining": 8441, 
  "messy": 8442, 
  "taxed": 8443, 
  "appearing": 8444, 
  "supplier": 8445, 
  "spell": 8446, 
  "vaccines": 8447, 
  "fa@@": 8448, 
  "uncompetitive": 8449, 
  "diversion": 8450, 
  "dam": 8451, 
  "Pre@@": 8452, 
  "killer": 8453, 
  "chips": 8454, 
  "tumor": 8455, 
  "free-@@": 8456, 
  "bind": 8457, 
  "constituency": 8458, 
  "commissions": 8459, 
  "Yanukovych": 8460, 
  "vitality": 8461, 
  "compound": 8462, 
  "Xinjiang": 8463, 
  "campaigners": 8464, 
  "illicit": 8465, 
  "Daniel": 8466, 
  "respondents": 8467, 
  "fifteen": 8468, 
  "Mitchell": 8469, 
  "indictment": 8470, 
  "IBM": 8471, 
  "assembled": 8472, 
  "Marxist": 8473, 
  "ak@@": 8474, 
  "smoothly": 8475, 
  "distribute": 8476, 
  "pensioners": 8477, 
  "von": 8478, 
  "dollar-denominated": 8479, 
  "Chad": 8480, 
  "monitors": 8481, 
  "Freddie": 8482, 
  "clothing": 8483, 
  "2.6": 8484, 
  "petroleum": 8485, 
  "guards": 8486, 
  "mosque": 8487, 
  "unwise": 8488, 
  "indications": 8489, 
  "stock-market": 8490, 
  "quit": 8491, 
  "worthwhile": 8492, 
  "contracting": 8493, 
  "mandates": 8494, 
  "descendants": 8495, 
  "200,000": 8496, 
  "dismantle": 8497, 
  "tables": 8498, 
  "endorsement": 8499, 
  "envy": 8500, 
  "can@@": 8501, 
  "im": 8502, 
  "Pearl": 8503, 
  "timetable": 8504, 
  "satellites": 8505, 
  "asks": 8506, 
  "crucially": 8507, 
  "_@@": 8508, 
  "cking": 8509, 
  "ther": 8510, 
  "surpass": 8511, 
  "register": 8512, 
  "periodic": 8513, 
  "Silva": 8514, 
  "manages": 8515, 
  "Bhutan": 8516, 
  "acquisition": 8517, 
  "picking": 8518, 
  "precedents": 8519, 
  "insofar": 8520, 
  "Portuguese": 8521, 
  "ol@@": 8522, 
  "machinery": 8523, 
  "thriving": 8524, 
  "hard-line": 8525, 
  "48": 8526, 
  "shaken": 8527, 
  "x@@": 8528, 
  "spotlight": 8529, 
  "climb": 8530, 
  "detected": 8531, 
  "diplomat": 8532, 
  "topple": 8533, 
  "Curtain": 8534, 
  "stuff": 8535, 
  "fiscally": 8536, 
  "Mecca": 8537, 
  "bles": 8538, 
  "expressions": 8539, 
  "repaid": 8540, 
  "embodies": 8541, 
  "ut@@": 8542, 
  "prevalent": 8543, 
  "uni@@": 8544, 
  "sympathetic": 8545, 
  "Pervez": 8546, 
  "ailing": 8547, 
  "foresee": 8548, 
  "illnesses": 8549, 
  "underpin": 8550, 
  "prisoner": 8551, 
  "appalling": 8552, 
  "Bo@@": 8553, 
  "psycho@@": 8554, 
  "Greater": 8555, 
  "ss@@": 8556, 
  "crossroads": 8557, 
  "willingly": 8558, 
  "inc@@": 8559, 
  "deteriorated": 8560, 
  "admiration": 8561, 
  "therapeutic": 8562, 
  "vacation": 8563, 
  "ia": 8564, 
  "static": 8565, 
  "drafting": 8566, 
  "hu@@": 8567, 
  "mini-@@": 8568, 
  "definitive": 8569, 
  "park": 8570, 
  "screen": 8571, 
  "genius": 8572, 
  "injured": 8573, 
  "tru@@": 8574, 
  "cap@@": 8575, 
  "por@@": 8576, 
  "perpetual": 8577, 
  "Mohamed": 8578, 
  "SGP": 8579, 
  "wonders": 8580, 
  "rain": 8581, 
  "nurtured": 8582, 
  "junior": 8583, 
  "walking": 8584, 
  "sal@@": 8585, 
  "SOEs": 8586, 
  "residual": 8587, 
  "41": 8588, 
  "coexistence": 8589, 
  "post-conflict": 8590, 
  "revelations": 8591, 
  "ceased": 8592, 
  "multiplier": 8593, 
  "prosper": 8594, 
  "deteriorate": 8595, 
  "secularism": 8596, 
  "rehabilitation": 8597, 
  "marijuana": 8598, 
  "inspiring": 8599, 
  "Gu@@": 8600, 
  "amendment": 8601, 
  "Conservative": 8602, 
  "advisors": 8603, 
  "spots": 8604, 
  "mid-century": 8605, 
  "1.9": 8606, 
  "Service": 8607, 
  "amazing": 8608, 
  "chairs": 8609, 
  "ens": 8610, 
  "rich-country": 8611, 
  "Islamism": 8612, 
  "Representative": 8613, 
  "accordance": 8614, 
  "13@@": 8615, 
  "disparity": 8616, 
  "favoring": 8617, 
  "ref@@": 8618, 
  "overhaul": 8619, 
  "floor": 8620, 
  "infinite": 8621, 
  "polar": 8622, 
  "proactive": 8623, 
  "wood": 8624, 
  "oil-producing": 8625, 
  "weigh": 8626, 
  "Far": 8627, 
  "intolerance": 8628, 
  "audiences": 8629, 
  "MIT": 8630, 
  "av@@": 8631, 
  "overwhelmed": 8632, 
  "Kouchner": 8633, 
  "confidence-building": 8634, 
  "instrumental": 8635, 
  "protestors": 8636, 
  "abundance": 8637, 
  "philosophers": 8638, 
  "drift": 8639, 
  "formulate": 8640, 
  "panels": 8641, 
  "Environment": 8642, 
  "asserting": 8643, 
  "curiosity": 8644, 
  "horror": 8645, 
  "wealthier": 8646, 
  "input": 8647, 
  "bailing": 8648, 
  "uncomfortable": 8649, 
  "Bashir": 8650, 
  "incompatible": 8651, 
  "Ibrahim": 8652, 
  "Aung": 8653, 
  "eastward": 8654, 
  "social-democratic": 8655, 
  "ological": 8656, 
  "topics": 8657, 
  "preparations": 8658, 
  "scarcely": 8659, 
  "coral": 8660, 
  "Intergovernmental": 8661, 
  "nuclear-@@": 8662, 
  "lecture": 8663, 
  "Holy": 8664, 
  "foreclosures": 8665, 
  "ali@@": 8666, 
  "prediction": 8667, 
  "Q@@": 8668, 
  "highlighting": 8669, 
  "fy": 8670, 
  "paved": 8671, 
  "elaborate": 8672, 
  "X@@": 8673, 
  "architects": 8674, 
  "struggled": 8675, 
  "Quartet": 8676, 
  "associates": 8677, 
  "patronage": 8678, 
  "Wolfensohn": 8679, 
  "municipal": 8680, 
  "condemning": 8681, 
  "off-@@": 8682, 
  "longest": 8683, 
  "afterwards": 8684, 
  "incremental": 8685, 
  "completing": 8686, 
  "horrible": 8687, 
  "retirees": 8688, 
  "qui@@": 8689, 
  "Camp": 8690, 
  "SCAF": 8691, 
  "tree": 8692, 
  "coca": 8693, 
  "beside": 8694, 
  "working-age": 8695, 
  "el-Qaddafi": 8696, 
  "counting": 8697, 
  "enforcing": 8698, 
  "gre@@": 8699, 
  "combines": 8700, 
  "rough": 8701, 
  "mandated": 8702, 
  "unanimously": 8703, 
  "prosecutions": 8704, 
  "damages": 8705, 
  "68": 8706, 
  "ies": 8707, 
  "contributors": 8708, 
  "breathing": 8709, 
  "passions": 8710, 
  "ger": 8711, 
  "encouragement": 8712, 
  "F": 8713, 
  "crossing": 8714, 
  "ah@@": 8715, 
  "pre-emptive": 8716, 
  "jumped": 8717, 
  "Peninsula": 8718, 
  "diversified": 8719, 
  "suppressing": 8720, 
  "Democrat": 8721, 
  "Sunday": 8722, 
  "rubble": 8723, 
  "adapting": 8724, 
  "second-largest": 8725, 
  "wisely": 8726, 
  "preemptive": 8727, 
  "truce": 8728, 
  "cor@@": 8729, 
  "rolled": 8730, 
  "aiming": 8731, 
  "Klaus": 8732, 
  "overlook": 8733, 
  "submit": 8734, 
  "Public": 8735, 
  "humane": 8736, 
  "legality": 8737, 
  "postponing": 8738, 
  "praised": 8739, 
  "supranational": 8740, 
  "hell": 8741, 
  "no-@@": 8742, 
  "misses": 8743, 
  "straight": 8744, 
  "inciting": 8745, 
  "physically": 8746, 
  "preferential": 8747, 
  "land@@": 8748, 
  "indifferent": 8749, 
  "pronouncements": 8750, 
  "devalue": 8751, 
  "xenophobia": 8752, 
  "clarify": 8753, 
  "ure": 8754, 
  "one-time": 8755, 
  "unconventional": 8756, 
  "ancestors": 8757, 
  "incorporate": 8758, 
  "riding": 8759, 
  "14@@": 8760, 
  "inconceivable": 8761, 
  "spared": 8762, 
  "Melbourne": 8763, 
  "Un@@": 8764, 
  "routes": 8765, 
  "denominated": 8766, 
  "embarrassing": 8767, 
  "ministerial": 8768, 
  "manufactures": 8769, 
  "hosted": 8770, 
  "loud": 8771, 
  "Karadzic": 8772, 
  "Djindjic": 8773, 
  "conceivable": 8774, 
  "banner": 8775, 
  "adjusting": 8776, 
  "biased": 8777, 
  "acy": 8778, 
  "soup": 8779, 
  "burn": 8780, 
  "0.2": 8781, 
  "interviews": 8782, 
  "ls": 8783, 
  "tacit": 8784, 
  "ingrained": 8785, 
  "fleeing": 8786, 
  "contradictions": 8787, 
  "drafted": 8788, 
  "inflation-adjusted": 8789, 
  "destined": 8790, 
  "Carmen": 8791, 
  "opposes": 8792, 
  "lucrative": 8793, 
  "defects": 8794, 
  "Per@@": 8795, 
  "pictures": 8796, 
  "fur@@": 8797, 
  "Macedonia": 8798, 
  "better-@@": 8799, 
  "reassured": 8800, 
  "truths": 8801, 
  "Haider": 8802, 
  "tics": 8803, 
  "Tudjman": 8804, 
  "rupture": 8805, 
  "mantra": 8806, 
  "tion-@@": 8807, 
  "Services": 8808, 
  "permission": 8809, 
  "painfully": 8810, 
  "Co@@": 8811, 
  "procurement": 8812, 
  "sometime": 8813, 
  "prompt": 8814, 
  "opens": 8815, 
  "intransigence": 8816, 
  "mineral": 8817, 
  "credibly": 8818, 
  "employee": 8819, 
  "endgame": 8820, 
  "backgrounds": 8821, 
  "Club": 8822, 
  "chapter": 8823, 
  "64": 8824, 
  "chickens": 8825, 
  "ke": 8826, 
  "pop": 8827, 
  "formulating": 8828, 
  "band": 8829, 
  "succeeding": 8830, 
  "realistically": 8831, 
  "diverted": 8832, 
  "secrets": 8833, 
  "teacher": 8834, 
  "critic": 8835, 
  "sponsored": 8836, 
  "ian": 8837, 
  "linkages": 8838, 
  "collecting": 8839, 
  "el-@@": 8840, 
  "mortgage-backed": 8841, 
  "bling": 8842, 
  "sen@@": 8843, 
  "alternatively": 8844, 
  "glance": 8845, 
  "proportional": 8846, 
  "ally-@@": 8847, 
  "62": 8848, 
  "starved": 8849, 
  "Budapest": 8850, 
  "pie": 8851, 
  "resemble": 8852, 
  "conversely": 8853, 
  "Obrador": 8854, 
  "bans": 8855, 
  "shake": 8856, 
  "cost-effective": 8857, 
  "Arctic": 8858, 
  "Humala": 8859, 
  "obesity": 8860, 
  "Blix": 8861, 
  "directives": 8862, 
  "inform": 8863, 
  "leaks": 8864, 
  "ecosystem": 8865, 
  "anarchy": 8866, 
  "passion": 8867, 
  "twentieth-century": 8868, 
  "relentless": 8869, 
  "maker": 8870, 
  "guest": 8871, 
  "discouraging": 8872, 
  "symptom": 8873, 
  "tor@@": 8874, 
  "recovers": 8875, 
  "identification": 8876, 
  "un-@@": 8877, 
  "3.6": 8878, 
  "4,000": 8879, 
  "revise": 8880, 
  "Hungarian": 8881, 
  "granting": 8882, 
  "awkward": 8883, 
  "incorporated": 8884, 
  "surprises": 8885, 
  "Taylor": 8886, 
  "advisory": 8887, 
  "airline": 8888, 
  "concession": 8889, 
  "57": 8890, 
  "inspection": 8891, 
  "300,000": 8892, 
  "flo@@": 8893, 
  "uncontrolled": 8894, 
  "Johnson": 8895, 
  "setback": 8896, 
  "disrupted": 8897, 
  "scholar": 8898, 
  "1960s": 8899, 
  "user": 8900, 
  "contracted": 8901, 
  "g-@@": 8902, 
  "Ma@@": 8903, 
  "Tanzania": 8904, 
  "ble@@": 8905, 
  "ening": 8906, 
  "Goldstone": 8907, 
  "enriched": 8908, 
  "psychologists": 8909, 
  "suspension": 8910, 
  "self-defeating": 8911, 
  "Pradesh": 8912, 
  "tailored": 8913, 
  "altruism": 8914, 
  "depressing": 8915, 
  "empires": 8916, 
  "Shah": 8917, 
  "meaningless": 8918, 
  "ery": 8919, 
  "Rogoff": 8920, 
  "backdrop": 8921, 
  "flee": 8922, 
  "fool": 8923, 
  "milk": 8924, 
  "Deal": 8925, 
  "inferior": 8926, 
  "retrospect": 8927, 
  "shy": 8928, 
  "permitting": 8929, 
  "texts": 8930, 
  "eli@@": 8931, 
  "fostered": 8932, 
  "Business": 8933, 
  "encounter": 8934, 
  "articulated": 8935, 
  "shorter": 8936, 
  "spurred": 8937, 
  "7.5": 8938, 
  "Malawi": 8939, 
  "reformer": 8940, 
  "repeating": 8941, 
  "lent": 8942, 
  "presumed": 8943, 
  "acupuncture": 8944, 
  "Li": 8945, 
  "atory": 8946, 
  "acknowledges": 8947, 
  "waged": 8948, 
  "generational": 8949, 
  "tumors": 8950, 
  "cooperating": 8951, 
  "acc@@": 8952, 
  "Young": 8953, 
  "Mohammad": 8954, 
  "dispersed": 8955, 
  "Tocqueville": 8956, 
  "sexually": 8957, 
  "desperation": 8958, 
  "bone": 8959, 
  "Cubans": 8960, 
  "uprisings": 8961, 
  "asserted": 8962, 
  "Heights": 8963, 
  "plentiful": 8964, 
  "dropping": 8965, 
  "avoidance": 8966, 
  "recessionary": 8967, 
  "dent": 8968, 
  "cable": 8969, 
  "barring": 8970, 
  "180": 8971, 
  "slavery": 8972, 
  "hormone": 8973, 
  "abolished": 8974, 
  "exploring": 8975, 
  "Mae": 8976, 
  "ceremony": 8977, 
  "statesmen": 8978, 
  "egregious": 8979, 
  "philosophical": 8980, 
  "torn": 8981, 
  "carbon-@@": 8982, 
  "file": 8983, 
  "buys": 8984, 
  "Rubin": 8985, 
  "assisted": 8986, 
  "veterans": 8987, 
  "self-evident": 8988, 
  "Th@@": 8989, 
  "finish": 8990, 
  "pregnant": 8991, 
  "entrants": 8992, 
  "1.7": 8993, 
  "sticks": 8994, 
  "injections": 8995, 
  "warheads": 8996, 
  "‑@@": 8997, 
  "downgrade": 8998, 
  "divides": 8999, 
  "dared": 9000, 
  "occupations": 9001, 
  "sixth": 9002, 
  "Evo": 9003, 
  "Kostunica": 9004, 
  "Mandela": 9005, 
  "Future": 9006, 
  "cleaning": 9007, 
  "energies": 9008, 
  "underscore": 9009, 
  "warmer": 9010, 
  "rivalries": 9011, 
  "embryo": 9012, 
  "surging": 9013, 
  "lu@@": 9014, 
  "anti-corruption": 9015, 
  "tier": 9016, 
  "tale": 9017, 
  "delivers": 9018, 
  "concentrations": 9019, 
  "1-@@": 9020, 
  "tour": 9021, 
  "standpoint": 9022, 
  "stupid": 9023, 
  "happily": 9024, 
  "thoughtful": 9025, 
  "faculty": 9026, 
  "diaspora": 9027, 
  "exploded": 9028, 
  "med": 9029, 
  "tackled": 9030, 
  "preliminary": 9031, 
  "holiday": 9032, 
  "hardliners": 9033, 
  "secession": 9034, 
  "tired": 9035, 
  "dy": 9036, 
  "restructured": 9037, 
  "despotic": 9038, 
  "fan": 9039, 
  "variable": 9040, 
  "defiance": 9041, 
  "hor@@": 9042, 
  "watershed": 9043, 
  "pro-Western": 9044, 
  "federalism": 9045, 
  "psychiatry": 9046, 
  "denies": 9047, 
  "sentences": 9048, 
  "ruin": 9049, 
  "presumption": 9050, 
  "Luxembourg": 9051, 
  "analogies": 9052, 
  "displayed": 9053, 
  "adversary": 9054, 
  "outgoing": 9055, 
  "prompting": 9056, 
  "optimists": 9057, 
  "eighteenth": 9058, 
  "proceeded": 9059, 
  "Mohammed": 9060, 
  "references": 9061, 
  "jihadi": 9062, 
  "oc@@": 9063, 
  "Gul": 9064, 
  "doom": 9065, 
  "instant": 9066, 
  "stra@@": 9067, 
  "fee": 9068, 
  "educate": 9069, 
  "full-scale": 9070, 
  "Tamil": 9071, 
  "comprising": 9072, 
  "exercising": 9073, 
  "analyzed": 9074, 
  "lion": 9075, 
  "illiberal": 9076, 
  "Mark": 9077, 
  "reacting": 9078, 
  "upset": 9079, 
  "vigorously": 9080, 
  "urs": 9081, 
  "respectable": 9082, 
  "confrontations": 9083, 
  "waning": 9084, 
  "Han": 9085, 
  "accompany": 9086, 
  "CTBT": 9087, 
  "fies": 9088, 
  "manager": 9089, 
  "needless": 9090, 
  "waging": 9091, 
  "environments": 9092, 
  "newfound": 9093, 
  "shelter": 9094, 
  "ran@@": 9095, 
  "tandem": 9096, 
  "undergone": 9097, 
  "non-tradable": 9098, 
  "Okinawa": 9099, 
  "ya": 9100, 
  "barrels": 9101, 
  "supplemented": 9102, 
  "culprit": 9103, 
  "mid-term": 9104, 
  "auto": 9105, 
  "CDS": 9106, 
  "lagged": 9107, 
  "pessimistic": 9108, 
  "ire": 9109, 
  "voiced": 9110, 
  "Comprehensive": 9111, 
  "inflow": 9112, 
  "deprivation": 9113, 
  "shoot": 9114, 
  "dity": 9115, 
  "mitigating": 9116, 
  "Ro@@": 9117, 
  "inauguration": 9118, 
  "editors": 9119, 
  "ered": 9120, 
  "boosts": 9121, 
  "clothes": 9122, 
  "frontiers": 9123, 
  "tively": 9124, 
  "bullet": 9125, 
  "Bar@@": 9126, 
  "Arabic": 9127, 
  "matches": 9128, 
  "Province": 9129, 
  "emotion": 9130, 
  "fatigue": 9131, 
  "bal@@": 9132, 
  "palace": 9133, 
  "rankings": 9134, 
  "Nicholas": 9135, 
  "disciplined": 9136, 
  "plague": 9137, 
  "ke@@": 9138, 
  "Catholics": 9139, 
  "weakest": 9140, 
  "concludes": 9141, 
  "Universal": 9142, 
  "hazards": 9143, 
  "Kadima": 9144, 
  "illustrate": 9145, 
  "prospective": 9146, 
  "subsidizing": 9147, 
  "pandemics": 9148, 
  "jeopardizing": 9149, 
  "Intelligence": 9150, 
  "abruptly": 9151, 
  "decreasing": 9152, 
  "67": 9153, 
  "apartment": 9154, 
  "ESM": 9155, 
  "Pro@@": 9156, 
  "stays": 9157, 
  "Education": 9158, 
  "medication": 9159, 
  "highways": 9160, 
  "130": 9161, 
  "standardized": 9162, 
  "comp@@": 9163, 
  "Tung": 9164, 
  "fights": 9165, 
  "fisheries": 9166, 
  "reinvent": 9167, 
  "someday": 9168, 
  "conspicuous": 9169, 
  "poisoned": 9170, 
  "accompanying": 9171, 
  "prohibit": 9172, 
  "instincts": 9173, 
  "plummeting": 9174, 
  "downs": 9175, 
  "muted": 9176, 
  "awash": 9177, 
  "glass": 9178, 
  "violates": 9179, 
  "distinctive": 9180, 
  "editorial": 9181, 
  "dip": 9182, 
  "unsurprisingly": 9183, 
  "fin@@": 9184, 
  "nostalgic": 9185, 
  "depleted": 9186, 
  "subsistence": 9187, 
  "poet": 9188, 
  "incoming": 9189, 
  "vocal": 9190, 
  "bombed": 9191, 
  "unsettled": 9192, 
  "bullets": 9193, 
  "convictions": 9194, 
  "stabilized": 9195, 
  "citizenry": 9196, 
  "tightly": 9197, 
  "colossal": 9198, 
  "crisis-@@": 9199, 
  "timid": 9200, 
  "hits": 9201, 
  "nation-states": 9202, 
  "au@@": 9203, 
  "costing": 9204, 
  "exposing": 9205, 
  "After": 9206, 
  "aversion": 9207, 
  "propensity": 9208, 
  "ced": 9209, 
  "frustrations": 9210, 
  "Phelps": 9211, 
  "for-@@": 9212, 
  "envisaged": 9213, 
  "long-lasting": 9214, 
  "wished": 9215, 
  "embark": 9216, 
  "culminated": 9217, 
  "enrich": 9218, 
  "consultations": 9219, 
  "Index": 9220, 
  "end@@": 9221, 
  "awakening": 9222, 
  "challenger": 9223, 
  "basket": 9224, 
  "punishing": 9225, 
  "Yar@@": 9226, 
  "devoid": 9227, 
  "Presidency": 9228, 
  "disparate": 9229, 
  "once-@@": 9230, 
  "gate": 9231, 
  "lock": 9232, 
  "epidemics": 9233, 
  "euthanasia": 9234, 
  "impartial": 9235, 
  "generosity": 9236, 
  "ent-@@": 9237, 
  "convey": 9238, 
  "improves": 9239, 
  "Massachusetts": 9240, 
  "public-debt": 9241, 
  "formulated": 9242, 
  "nationalization": 9243, 
  "repeal": 9244, 
  "preceding": 9245, 
  "holes": 9246, 
  "Politburo": 9247, 
  "Brezhnev": 9248, 
  "stagnating": 9249, 
  "Ariel": 9250, 
  "Vietnamese": 9251, 
  "temptations": 9252, 
  "villagers": 9253, 
  "Soros": 9254, 
  "follow-up": 9255, 
  "bs": 9256, 
  "romantic": 9257, 
  "lofty": 9258, 
  "Last": 9259, 
  "Securities": 9260, 
  "nation-building": 9261, 
  "preservation": 9262, 
  "f": 9263, 
  "recurrence": 9264, 
  "setbacks": 9265, 
  "derail": 9266, 
  "radioactive": 9267, 
  "gs": 9268, 
  "mounted": 9269, 
  "Strategic": 9270, 
  "21st": 9271, 
  "theft": 9272, 
  "appropriately": 9273, 
  "isolating": 9274, 
  "curbing": 9275, 
  "asylum": 9276, 
  "full-fledged": 9277, 
  "hardware": 9278, 
  "loaded": 9279, 
  "hints": 9280, 
  "star@@": 9281, 
  "ck@@": 9282, 
  "tre@@": 9283, 
  "fraught": 9284, 
  "prerequisite": 9285, 
  "capital-account": 9286, 
  "behaved": 9287, 
  "Armed": 9288, 
  "stepping": 9289, 
  "sion": 9290, 
  "suicidal": 9291, 
  "skewed": 9292, 
  "consolidating": 9293, 
  "nationally": 9294, 
  "know-how": 9295, 
  "orbit": 9296, 
  "derivative": 9297, 
  "outward": 9298, 
  "Open": 9299, 
  "steer": 9300, 
  "finger": 9301, 
  "Conventions": 9302, 
  "balance-of-payments": 9303, 
  "Livni": 9304, 
  "analytical": 9305, 
  "abused": 9306, 
  "ade": 9307, 
  "pro-European": 9308, 
  "350": 9309, 
  "Blue": 9310, 
  "sister": 9311, 
  "polarized": 9312, 
  "Yasir": 9313, 
  "behaviors": 9314, 
  "empowering": 9315, 
  "Life": 9316, 
  "trans": 9317, 
  "ce@@": 9318, 
  "gn@@": 9319, 
  "unimaginable": 9320, 
  "differentials": 9321, 
  "mentally": 9322, 
  "financial-@@": 9323, 
  "enrollment": 9324, 
  "Man": 9325, 
  "lingering": 9326, 
  "et-@@": 9327, 
  "calculate": 9328, 
  "incredibly": 9329, 
  "astounding": 9330, 
  "segment": 9331, 
  "ethnically": 9332, 
  "intermediation": 9333, 
  "landmark": 9334, 
  "intrusive": 9335, 
  "fairer": 9336, 
  "maximizing": 9337, 
  "tolerable": 9338, 
  "pile": 9339, 
  "6-@@": 9340, 
  "installed": 9341, 
  "lately": 9342, 
  "comprised": 9343, 
  "il@@": 9344, 
  "mercy": 9345, 
  "hollow": 9346, 
  "attributable": 9347, 
  "sophistication": 9348, 
  "Our": 9349, 
  "referenda": 9350, 
  "defy": 9351, 
  "Pax": 9352, 
  "pathetic": 9353, 
  "poison": 9354, 
  "Andrew": 9355, 
  "ammunition": 9356, 
  "exacerbating": 9357, 
  "graphic": 9358, 
  "translates": 9359, 
  "cooking": 9360, 
  "bite": 9361, 
  "strip": 9362, 
  "cynicism": 9363, 
  "vengeance": 9364, 
  "salvation": 9365, 
  "ation@@": 9366, 
  "wrenching": 9367, 
  "workings": 9368, 
  "monumental": 9369, 
  "disturbances": 9370, 
  "insulated": 9371, 
  "bread": 9372, 
  "outer": 9373, 
  "distorting": 9374, 
  "championed": 9375, 
  "spheres": 9376, 
  "idealism": 9377, 
  "prominence": 9378, 
  "ravaged": 9379, 
  "Maliki": 9380, 
  "vain": 9381, 
  "ped@@": 9382, 
  "planes": 9383, 
  "myths": 9384, 
  "fever": 9385, 
  "breath": 9386, 
  "concert": 9387, 
  "Manmohan": 9388, 
  "lean": 9389, 
  "clans": 9390, 
  "8,000": 9391, 
  "ste@@": 9392, 
  "fringe": 9393, 
  "imaginary": 9394, 
  "blaming": 9395, 
  "denounce": 9396, 
  "evade": 9397, 
  "pigs": 9398, 
  "all-time": 9399, 
  "Belgian": 9400, 
  "Park": 9401, 
  "ana": 9402, 
  "7,000": 9403, 
  "wa@@": 9404, 
  "harms": 9405, 
  "textile": 9406, 
  "Colonel": 9407, 
  "SWF": 9408, 
  "gro@@": 9409, 
  "afloat": 9410, 
  "cked": 9411, 
  "happier": 9412, 
  "Malay": 9413, 
  "mouth": 9414, 
  "fiercely": 9415, 
  "signatories": 9416, 
  "sends": 9417, 
  "eroding": 9418, 
  "wiped": 9419, 
  "occurrence": 9420, 
  "deploying": 9421, 
  "fighter": 9422, 
  "excitement": 9423, 
  "traveling": 9424, 
  "Daily": 9425, 
  "usefulness": 9426, 
  "ys": 9427, 
  "President-elect": 9428, 
  "sequences": 9429, 
  "alert": 9430, 
  "substitution": 9431, 
  "halted": 9432, 
  "textiles": 9433, 
  "Fourth": 9434, 
  "Mi@@": 9435, 
  "cherished": 9436, 
  "appointing": 9437, 
  "carriers": 9438, 
  "UMNO": 9439, 
  "market-@@": 9440, 
  "ominous": 9441, 
  "stic": 9442, 
  "threw": 9443, 
  "Mali": 9444, 
  "MDG": 9445, 
  "fertile": 9446, 
  "mal@@": 9447, 
  "unrelated": 9448, 
  "abolition": 9449, 
  "1944": 9450, 
  "des@@": 9451, 
  "mediation": 9452, 
  "liberalized": 9453, 
  "envoy": 9454, 
  "embryonic": 9455, 
  "gen@@": 9456, 
  "ours": 9457, 
  "screens": 9458, 
  "operators": 9459, 
  "tically": 9460, 
  "utopian": 9461, 
  "ational": 9462, 
  "no-fly": 9463, 
  "bio-fuels": 9464, 
  "publications": 9465, 
  "planting": 9466, 
  "wipe": 9467, 
  "circumvent": 9468, 
  "Giscard": 9469, 
  "avoids": 9470, 
  "sterling": 9471, 
  "suggestions": 9472, 
  "Timor": 9473, 
  "disregard": 9474, 
  "disproportionately": 9475, 
  "anti-globalization": 9476, 
  "radicalization": 9477, 
  "bly": 9478, 
  "heroin": 9479, 
  "Military": 9480, 
  "interestingly": 9481, 
  "writes": 9482, 
  "draconian": 9483, 
  "mar@@": 9484, 
  "spirits": 9485, 
  "crush": 9486, 
  "associate": 9487, 
  "ashes": 9488, 
  "laureates": 9489, 
  "clouds": 9490, 
  "song": 9491, 
  "publics": 9492, 
  "Sergei": 9493, 
  "Dominican": 9494, 
  "medieval": 9495, 
  "Palme": 9496, 
  "favorably": 9497, 
  "instinct": 9498, 
  "Raúl": 9499, 
  "pivotal": 9500, 
  "converting": 9501, 
  "referring": 9502, 
  "baseline": 9503, 
  "genetics": 9504, 
  "homegrown": 9505, 
  "weighed": 9506, 
  "polity": 9507, 
  "ler": 9508, 
  "depreciate": 9509, 
  "sadness": 9510, 
  "cohesive": 9511, 
  "Ceausescu": 9512, 
  "elling": 9513, 
  "Mittal": 9514, 
  "influx": 9515, 
  "wield": 9516, 
  "-to-@@": 9517, 
  "Burundi": 9518, 
  "Nazism": 9519, 
  "pendulum": 9520, 
  "muster": 9521, 
  "folly": 9522, 
  "concentrating": 9523, 
  "directive": 9524, 
  "Process": 9525, 
  "injustices": 9526, 
  "Algerian": 9527, 
  "drastically": 9528, 
  "crack": 9529, 
  "rushed": 9530, 
  "accuse": 9531, 
  "influencing": 9532, 
  "bogged": 9533, 
  "policemen": 9534, 
  "editor": 9535, 
  "Czechs": 9536, 
  "covers": 9537, 
  "teaches": 9538, 
  "creatures": 9539, 
  "irresistible": 9540, 
  "sin@@": 9541, 
  "unsettling": 9542, 
  "ma": 9543, 
  "3.3": 9544, 
  "steal": 9545, 
  "hangs": 9546, 
  "Amazon": 9547, 
  "courses": 9548, 
  "900": 9549, 
  "thorough": 9550, 
  "And": 9551, 
  "nascent": 9552, 
  "sidelines": 9553, 
  "touted": 9554, 
  "prescriptions": 9555, 
  "hemisphere": 9556, 
  "L": 9557, 
  "airports": 9558, 
  "cru@@": 9559, 
  "extraction": 9560, 
  "So": 9561, 
  "non-violent": 9562, 
  "hosting": 9563, 
  "insecure": 9564, 
  "anticipation": 9565, 
  "ser@@": 9566, 
  "tantamount": 9567, 
  "neurons": 9568, 
  "asset-price": 9569, 
  "amend": 9570, 
  "Harbor": 9571, 
  "canceled": 9572, 
  "manipulating": 9573, 
  "raging": 9574, 
  "chaired": 9575, 
  "Queen": 9576, 
  "horizons": 9577, 
  "beneficiary": 9578, 
  "ber": 9579, 
  "startling": 9580, 
  "trump": 9581, 
  "Angola": 9582, 
  "hedging": 9583, 
  "shortsighted": 9584, 
  "atmospheric": 9585, 
  "twist": 9586, 
  "63": 9587, 
  "clerics": 9588, 
  "textbook": 9589, 
  "Le@@": 9590, 
  "escalate": 9591, 
  "M": 9592, 
  "tears": 9593, 
  "appearances": 9594, 
  "ubiquitous": 9595, 
  "2025": 9596, 
  "textbooks": 9597, 
  "span": 9598, 
  "hypocritical": 9599, 
  "expire": 9600, 
  "College": 9601, 
  "pped": 9602, 
  "plunge": 9603, 
  "ani@@": 9604, 
  "helm": 9605, 
  "joblessness": 9606, 
  "kidney": 9607, 
  "lat@@": 9608, 
  "knees": 9609, 
  "10@@": 9610, 
  "fast-@@": 9611, 
  "Mo@@": 9612, 
  "yearning": 9613, 
  "Lo@@": 9614, 
  "Age": 9615, 
  "complicity": 9616, 
  "consist": 9617, 
  "tourists": 9618, 
  "Confucianism": 9619, 
  "kick": 9620, 
  "selfish": 9621, 
  "photo": 9622, 
  "Mauritius": 9623, 
  "biologists": 9624, 
  "wo@@": 9625, 
  "export-oriented": 9626, 
  "Peres": 9627, 
  "cruelty": 9628, 
  "heal": 9629, 
  "slashed": 9630, 
  "Bi@@": 9631, 
  "stall": 9632, 
  "nominee": 9633, 
  "attributes": 9634, 
  "Zemin": 9635, 
  "entitlements": 9636, 
  "appointments": 9637, 
  "failings": 9638, 
  "preventable": 9639, 
  "Ambassador": 9640, 
  "clan": 9641, 
  "56": 9642, 
  "ushered": 9643, 
  "avi@@": 9644, 
  "stretched": 9645, 
  "Sandy": 9646, 
  "unwelcome": 9647, 
  "Strait": 9648, 
  "mosques": 9649, 
  "assertiveness": 9650, 
  "Franco": 9651, 
  "prioritize": 9652, 
  "unaware": 9653, 
  "crippled": 9654, 
  "craft": 9655, 
  "flooded": 9656, 
  "presided": 9657, 
  "Jean": 9658, 
  "derive": 9659, 
  "hearings": 9660, 
  "sted": 9661, 
  "amidst": 9662, 
  "supplying": 9663, 
  "inconsistent": 9664, 
  "1983": 9665, 
  "antly": 9666, 
  "retaining": 9667, 
  "instructive": 9668, 
  "disp@@": 9669, 
  "spin": 9670, 
  "bluntly": 9671, 
  "succumbed": 9672, 
  "broadening": 9673, 
  "guise": 9674, 
  "76": 9675, 
  "EU-wide": 9676, 
  "arithmetic": 9677, 
  "vigor": 9678, 
  "hindsight": 9679, 
  "Nigerians": 9680, 
  "capitalize": 9681, 
  "post-World": 9682, 
  "long-time": 9683, 
  "six-party": 9684, 
  "pal@@": 9685, 
  "est@@": 9686, 
  "lags": 9687, 
  "pretext": 9688, 
  "human-@@": 9689, 
  "incipient": 9690, 
  "ash@@": 9691, 
  "sn@@": 9692, 
  "11th": 9693, 
  "wives": 9694, 
  "curriculum": 9695, 
  "admitting": 9696, 
  "43": 9697, 
  "short-sighted": 9698, 
  "Rabin": 9699, 
  "Mac": 9700, 
  "outbreaks": 9701, 
  "brunt": 9702, 
  "breeds": 9703, 
  "time-@@": 9704, 
  "borrower": 9705, 
  "Accords": 9706, 
  "counter-cyclical": 9707, 
  "Cypriots": 9708, 
  "displacement": 9709, 
  "redistributive": 9710, 
  "backstop": 9711, 
  "grouping": 9712, 
  "freeing": 9713, 
  "intensifying": 9714, 
  "1977": 9715, 
  "ger@@": 9716, 
  "runaway": 9717, 
  "140": 9718, 
  "egalitarian": 9719, 
  "acknowledgement": 9720, 
  "suspend": 9721, 
  "0-@@": 9722, 
  "visionary": 9723, 
  "outrageous": 9724, 
  "charm": 9725, 
  "full-blown": 9726, 
  "v": 9727, 
  "spo@@": 9728, 
  "evacuation": 9729, 
  "delays": 9730, 
  "externalities": 9731, 
  "Cypriot": 9732, 
  "exposes": 9733, 
  "tax-@@": 9734, 
  "Kyrgyzstan": 9735, 
  "cattle": 9736, 
  "earners": 9737, 
  "redefine": 9738, 
  "section": 9739, 
  "acquisitions": 9740, 
  "teeth": 9741, 
  "bur@@": 9742, 
  "Rouge": 9743, 
  "rested": 9744, 
  "pot": 9745, 
  "employer": 9746, 
  "undesirable": 9747, 
  "6,000": 9748, 
  "¥": 9749, 
  "exuberance": 9750, 
  "installations": 9751, 
  "Khmer": 9752, 
  "thwarted": 9753, 
  "bon@@": 9754, 
  "multipolar": 9755, 
  "anti-Japanese": 9756, 
  "mask": 9757, 
  "coherence": 9758, 
  "striving": 9759, 
  "risk-free": 9760, 
  "Pi@@": 9761, 
  "heartland": 9762, 
  "PBC": 9763, 
  "prowess": 9764, 
  "ning": 9765, 
  "peacemaking": 9766, 
  "windfall": 9767, 
  "divine": 9768, 
  "fre@@": 9769, 
  "Zhu": 9770, 
  "bordering": 9771, 
  "wartime": 9772, 
  "uncovered": 9773, 
  "sword": 9774, 
  "Operation": 9775, 
  "compel": 9776, 
  "Antarctic": 9777, 
  "still-@@": 9778, 
  "underpinning": 9779, 
  "marry": 9780, 
  "weekly": 9781, 
  "spectacle": 9782, 
  "Syrians": 9783, 
  "swiftly": 9784, 
  "traction": 9785, 
  "hom@@": 9786, 
  "devaluations": 9787, 
  "pressured": 9788, 
  "statesman": 9789, 
  "subprime": 9790, 
  "coexist": 9791, 
  "cornerstone": 9792, 
  "issuance": 9793, 
  "wer": 9794, 
  "unambiguously": 9795, 
  "shop": 9796, 
  "Staff": 9797, 
  "proclaiming": 9798, 
  "navigate": 9799, 
  "F.": 9800, 
  "medals": 9801, 
  "somebody": 9802, 
  "centralization": 9803, 
  "Junichiro": 9804, 
  "veil": 9805, 
  "unpleasant": 9806, 
  "gestures": 9807, 
  "advantageous": 9808, 
  "paradoxical": 9809, 
  "gri@@": 9810, 
  "Shiites": 9811, 
  "discriminatory": 9812, 
  "Reconstruction": 9813, 
  "enhances": 9814, 
  "complicate": 9815, 
  "grounded": 9816, 
  "immensely": 9817, 
  "illegally": 9818, 
  "tors": 9819, 
  "regret": 9820, 
  ".org": 9821, 
  "loser": 9822, 
  "AAA": 9823, 
  "reviews": 9824, 
  "idle": 9825, 
  "Albanians": 9826, 
  "incitement": 9827, 
  "discounted": 9828, 
  "investigating": 9829, 
  "2.8": 9830, 
  "upheavals": 9831, 
  "Conservatives": 9832, 
  "dawn": 9833, 
  "fanaticism": 9834, 
  "intelligentsia": 9835, 
  "ot@@": 9836, 
  "dishonest": 9837, 
  "allocations": 9838, 
  "disguised": 9839, 
  "Sichuan": 9840, 
  "Biden": 9841, 
  "contrasts": 9842, 
  "−": 9843, 
  "ately": 9844, 
  "moderately": 9845, 
  "surviving": 9846, 
  "endowed": 9847, 
  "1957": 9848, 
  "egg": 9849, 
  "clearing": 9850, 
  "PIIGS": 9851, 
  "tape": 9852, 
  "approached": 9853, 
  "post-WWII": 9854, 
  "tense": 9855, 
  "killers": 9856, 
  "wheat": 9857, 
  "cult": 9858, 
  "shipping": 9859, 
  "pave": 9860, 
  "acceleration": 9861, 
  "lawlessness": 9862, 
  "BP": 9863, 
  "restaurant": 9864, 
  "twenty-first-century": 9865, 
  "wrought": 9866, 
  "liver": 9867, 
  "spy": 9868, 
  "gigantic": 9869, 
  "thesis": 9870, 
  "fulness": 9871, 
  "blessed": 9872, 
  "scared": 9873, 
  "Anglo-American": 9874, 
  "directing": 9875, 
  "concede": 9876, 
  "pushes": 9877, 
  "usher": 9878, 
  "outs": 9879, 
  "small-scale": 9880, 
  "0.6": 9881, 
  "Golden": 9882, 
  "accommodation": 9883, 
  "tsunamis": 9884, 
  "post@@": 9885, 
  "19@@": 9886, 
  ".com": 9887, 
  "sits": 9888, 
  "Truth": 9889, 
  "calculus": 9890, 
  "intolerable": 9891, 
  "cured": 9892, 
  "alienation": 9893, 
  "il": 9894, 
  "dating": 9895, 
  "publicized": 9896, 
  "ash": 9897, 
  "compounds": 9898, 
  "2000-@@": 9899, 
  "Mr": 9900, 
  "premia": 9901, 
  "Bayrou": 9902, 
  "one-quarter": 9903, 
  "legitimize": 9904, 
  "adherents": 9905, 
  "charitable": 9906, 
  "experimentation": 9907, 
  "admired": 9908, 
  "injected": 9909, 
  "epicenter": 9910, 
  "fence": 9911, 
  "buffer": 9912, 
  "correlated": 9913, 
  "apocalyptic": 9914, 
  "syndrome": 9915, 
  "violently": 9916, 
  "analyze": 9917, 
  "Zionism": 9918, 
  "insignificant": 9919, 
  "formulation": 9920, 
  "misplaced": 9921, 
  "welcoming": 9922, 
  "ruble": 9923, 
  "lengthy": 9924, 
  "wonderful": 9925, 
  "stringent": 9926, 
  "zeal": 9927, 
  "ory": 9928, 
  "all-powerful": 9929, 
  "corrected": 9930, 
  "slim": 9931, 
  "counter-productive": 9932, 
  "Il": 9933, 
  "technologically": 9934, 
  "Kenneth": 9935, 
  "belt": 9936, 
  "library": 9937, 
  "Manhattan": 9938, 
  "Y": 9939, 
  "Athens": 9940, 
  "Protection": 9941, 
  "spi@@": 9942, 
  "Christmas": 9943, 
  "boats": 9944, 
  "await": 9945, 
  "phased": 9946, 
  "offsetting": 9947, 
  "restaurants": 9948, 
  "Lagos": 9949, 
  "essay": 9950, 
  "separating": 9951, 
  "58": 9952, 
  "murders": 9953, 
  "electorates": 9954, 
  "preconditions": 9955, 
  "cameras": 9956, 
  "Ri@@": 9957, 
  "token": 9958, 
  "capitalization": 9959, 
  "Sub-Saharan": 9960, 
  "defaulted": 9961, 
  "advanced-country": 9962, 
  "practicing": 9963, 
  "groundwork": 9964, 
  "presupposes": 9965, 
  "8-@@": 9966, 
  "minerals": 9967, 
[...]
