{
  "": 70606, 
  "kalk@@": 62627, 
  "zielgerichteten": 73494, 
  "ebet@@": 53838, 
  "Szczecin": 37783, 
  "Hohen": 53110, 
  "Paare": 61939, 
  "Verantwortungsbereich": 73403, 
  "Pronk": 38086, 
  "woods": 7306, 
  "üppige": 66074, 
  "hanging": 7945, 
  "woody": 18354, 
  "nieder": 59796, 
  "localized": 29868, 
  "sation": 27826, 
  "EU-US": 28565, 
  "canes": 26376, 
  "Moreira": 41124, 
  "gefäl@@": 70625, 
  "stät@@": 50655, 
  "gab": 46440, 
  "originality": 27087, 
  "Sam@@": 4189, 
  "ei@@": 5108, 
  "Kol@@": 11859, 
  "Offers": 24708, 
  "Western": 1498, 
  "藤@@": 69856, 
  "ʃ": 60785, 
  "Euro": 5057, 
  "Gepäck": 63770, 
  "Gest@@": 45543, 
  "ellation": 35538, 
  "co-operation": 9514, 
  "umsetzung": 60139, 
  "citrus": 24061, 
  "Valle": 21295, 
  "Schre@@": 49059, 
  "Blade": 32625, 
  "Infektion@@": 66077, 
  "lings": 19391, 
  "stipulate": 28069, 
  "appropriation": 22215, 
  "athed@@": 36184, 
  "Fax-": 75027, 
  "strictest": 28696, 
  "Seller": 21243, 
  "bringing": 2381, 
  "showroom": 28441, 
  "wooded": 23640, 
  "Gärtner": 51292, 
  "streck@@": 66079, 
  "wooden": 6064, 
  "Miert": 36676, 
  "Heroes": 24719, 
  "Sack": 49879, 
  "GA@@": 7746, 
  "trieb@@": 70655, 
  "gleichzeitige": 66080, 
  "verbandes": 57784, 
  "hinder@@": 56414, 
  "south-west": 22216, 
  "Kompromiss@@": 70617, 
  "Signaturen": 63446, 
  "Betriebe": 59799, 
  "non-violent": 31727, 
  "ная": 47979, 
  "aufwirft": 70619, 
  "inevitably": 7938, 
  "Plut@@": 47102, 
  "weiterentwickeln": 70620, 
  "27.": 52972, 
  "überra@@": 59755, 
  "feasibility": 17437, 
  "271": 32626, 
  "272": 31253, 
  "273": 31452, 
  "274": 33740, 
  "275": 24303, 
  "watch@@": 7541, 
  "sustaining": 17809, 
  "278": 36061, 
  "279": 33965, 
  "СЂ": 53431, 
  "Schlim@@": 70621, 
  "關@@": 63279, 
  "icht-@@": 70622, 
  "solvent": 27969, 
  "errors": 5039, 
  "dialogs": 37275, 
  "minimize": 14745, 
  "DiskRecovery": 46637, 
  "niederländische": 70623, 
  "cooking": 6107, 
  "Sebastián": 42392, 
  "distingu@@": 42882, 
  "Schlösser": 58676, 
  "Jungfern@@": 51125, 
  "Hamilton": 6894, 
  "Beschäftigung": 58820, 
  "designing": 10981, 
  "linge": 50862, 
  "ylen": 55360, 
  "succumb": 32814, 
  "shocks": 12994, 
  "widget": 32790, 
  "Synonym": 63280, 
  "Foundation": 2956, 
  "Shr@@": 31946, 
  "Cosmo@@": 30873, 
  "affiliates": 15184, 
  "Surv@@": 32439, 
  "Umzug": 58677, 
  "ching": 3972, 
  "china": 29448, 
  "grooves": 35881, 
  "Xy@@": 42865, 
  "affiliated": 11422, 
  "theless": 38038, 
  "employability": 31931, 
  "健@@": 66081, 
  "kids": 2317, 
  "Certific@@": 42043, 
  "Fotok@@": 63281, 
  "Muro": 42788, 
  "Lordaeron": 45544, 
  "edge": 3260, 
  "climbed": 9847, 
  "ERGY": 41125, 
  "controversy": 6487, 
  "Kommentaren": 71124, 
  "ueber": 55853, 
  "Männern": 59800, 
  "geschuldet": 63283, 
  "ERGO": 43765, 
  "Isler": 41962, 
  "Isles": 25762, 
  "Mangel": 55854, 
  "Stand": 21129, 
  "stery": 30136, 
  "golden": 6457, 
  "Dexter": 29276, 
  "SPS": 42588, 
  "projection": 17870, 
  "anheben": 70626, 
  "Harvey": 14086, 
  "sters": 6126, 
  "wr@@": 9778, 
  "ätzt": 70923, 
  "Was@@": 19771, 
  "esthouse": 70627, 
  "Körper@@": 54934, 
  "stern": 24984, 
  "ticket": 3252, 
  "Küst@@": 58678, 
  "genommenen": 70628, 
  "wo@@": 4185, 
  "interpre@@": 36798, 
  "Integrität": 63312, 
  "KTOR": 61257, 
  "insecurity": 13780, 
  "42": 3586, 
  "唐@@": 66094, 
  "Karadzic": 27760, 
  "33-@@": 14886, 
  "Vorbehaltsware": 59801, 
  "ity@@": 20566, 
  "music": 783, 
  "therefore": 238, 
  "distortions": 15999, 
  "Self-@@": 28284, 
  "180@@": 22293, 
  "tening": 12191, 
  "hinzu@@": 63285, 
  "mosa@@": 49519, 
  "populations": 6499, 
  "Antidiskriminierungs@@": 70630, 
  "UNITA": 44645, 
  "Clients": 30218, 
  "Deutschland": 18093, 
  "sage@@": 35215, 
  "gün@@": 55361, 
  "Nago@@": 62956, 
  "pflanzung": 70631, 
  "bewer@@": 57461, 
  "SPA": 19984, 
  "verschwenden": 70633, 
  "gencies": 26757, 
  "volum@@": 34021, 
  "St-@@": 33741, 
  "intake": 13236, 
  "morally": 18889, 
  "locked": 5822, 
  "tic-@@": 22238, 
  "locken": 61258, 
  "Kärnten": 49520, 
  "repaid": 21425, 
  "Sainjon": 46072, 
  "locker": 17110, 
  "Ricci@@": 32394, 
  "Colombia": 7347, 
  "wertungen": 71330, 
  "Gef@@": 52061, 
  "simpel": 57063, 
  "radicalisation": 35271, 
  "Bavarian": 15979, 
  "Le": 4020, 
  "wang": 31299, 
  "wand": 30746, 
  "La": 2549, 
  "unjust": 20877, 
  "reduc@@": 30296, 
  "virtu": 68810, 
  "wann": 21890, 
  "Li": 10796, 
  "titanium": 29964, 
  "ABAP": 25682, 
  "Lu": 29773, 
  "sterben": 58679, 
  "Ls": 35884, 
  "want": 172, 
  "prinzipi@@": 70638, 
  "absolute": 4394, 
  "LG": 19191, 
  "LD": 35045, 
  "LE": 12107, 
  "LB": 37921, 
  "LC": 32960, 
  "LA": 5777, 
  "glet@@": 35272, 
  "LO": 36742, 
  "travel": 1122, 
  "LM": 36855, 
  "米@@": 67596, 
  "Jetzt": 58680, 
  "LV": 28912, 
  "LT": 12634, 
  "playback": 21846, 
  "LR": 34987, 
  "LS": 28324, 
  "LP": 21959, 
  "squab@@": 25915, 
  "-off": 10343, 
  "Falcon": 25986, 
  "晏@@": 73855, 
  "Untergrund@@": 70640, 
  "事": 67662, 
  "tutorial": 18974, 
  "LY": 33966, 
  "ता@@": 37572, 
  "Berufsk@@": 57786, 
  "flamm@@": 34769, 
  "erlebnisreichen": 66082, 
  "L.": 7400, 
  "assimilated": 37648, 
  "Verf@@": 57787, 
  "wrong": 1419, 
  "recht": 37063, 
  "L2": 42044, 
  "L3": 44145, 
  "L1": 38039, 
  "sentencing": 11066, 
  "zzanine": 35158, 
  "Städ@@": 51126, 
  "promotion": 3494, 
  "CFO": 25281, 
  "Reduzierung": 66084, 
  "hlt": 59887, 
  "murder@@": 51293, 
  "occasions": 4558, 
  "elnden": 66085, 
  "beide": 52210, 
  "Stereo@@": 52722, 
  "та": 38859, 
  "LehrerInnen": 70643, 
  "18th": 6954, 
  "Brel@@": 45652, 
  "Navigator": 34925, 
  "Lei@@": 5095, 
  "CFR": 39906, 
  "CFP": 19636, 
  "Fokus": 59803, 
  "Willy": 31825, 
  "Nachbarschaft": 59835, 
  "onc@@": 13295, 
  "sätz@@": 70644, 
  "Produktpalette": 70326, 
  "fremde": 53261, 
  "swa@@": 12100, 
  "Sánchez": 33309, 
  "welcomed": 4205, 
  "verbindlich": 70645, 
  "ortiment": 66086, 
  "assing": 18136, 
  "controllable": 38344, 
  "60th": 24054, 
  "Willi": 44248, 
  "Entwicklungs@@": 50503, 
  "vorangegangene": 75185, 
  "Wash@@": 36822, 
  "rewarded": 12385, 
  "activating": 22789, 
  "朔": 70646, 
  "朗": 70647, 
  "welcomes": 6524, 
  "Hip": 41467, 
  "木": 59805, 
  "His": 7686, 
  "Hit": 28804, 
  "本": 59798, 
  "fit": 2580, 
  "Schroeder": 34770, 
  "fix": 5063, 
  "Betriebssystem": 60617, 
  "inar": 46860, 
  "inas": 25102, 
  "Smiths": 34705, 
  "kaz@@": 42475, 
  "kam@@": 27761, 
  "fic": 14095, 
  "inal": 23135, 
  "fia": 45036, 
  "fig": 30297, 
  "pulsi@@": 70648, 
  "fik": 43138, 
  "fin": 13445, 
  "Him": 24096, 
  "fil": 40097, 
  "tik-@@": 59806, 
  "Lak@@": 6918, 
  "zucker": 45768, 
  "There": 1565, 
  "reibe": 70649, 
  "songwriter": 18028, 
  "ussel@@": 40176, 
  "antum": 51465, 
  "vouchers": 20678, 
  "top-quality": 25946, 
  "Indones@@": 38610, 
  "Mai": 24092, 
  "effects": 1383, 
  "Flä@@": 63286, 
  "AD-@@": 47376, 
  "2x@@": 41381, 
  "sixteen": 22994, 
  "saddened": 22491, 
  "customer-oriented": 40036, 
  "bure@@": 32101, 
  "Pik@@": 35885, 
  "endemic": 21930, 
  "korro@@": 66089, 
  "Viking": 26268, 
  "Bundeswehr": 42627, 
  "crackdown": 8687, 
  "Bé@@": 30129, 
  "component": 4928, 
  "Unterhaltung": 56416, 
  "arrow": 18775, 
  "Informati@@": 45118, 
  "burial": 16000, 
  "telescope": 18755, 
  "Drop@@": 42789, 
  "Gründe": 58681, 
  "allah": 24178, 
  "Burke": 16466, 
  "osis": 14060, 
  "parasites": 30340, 
  "allas": 39973, 
  "391": 39066, 
  "390": 26909, 
  "Verlauf@@": 70653, 
  "impossible": 2519, 
  "wäl@@": 61260, 
  "embro@@": 19772, 
  "Quot@@": 38873, 
  "stabilised": 32395, 
  "schung": 61261, 
  "halbe": 58682, 
  "Ombudsman": 7285, 
  "Haute-@@": 41468, 
  "ädern": 70656, 
  "freeze": 9188, 
  "乗@@": 63289, 
  "erbringt": 62100, 
  "encourage": 2203, 
  "adapt": 5797, 
  "ль@@": 24791, 
  "size": 1302, 
  "brea@@": 58683, 
  "aktuellen": 49405, 
  "stamping": 26031, 
  "Ip@@": 18957, 
  "MEDIA": 30387, 
  "IE@@": 29825, 
  "Eto@@": 34525, 
  "Passwor@@": 52974, 
  "strata": 21871, 
  "Schwarz": 37003, 
  "WIPO": 41579, 
  "redeemed": 28119, 
  "Reut@@": 44343, 
  "sheet": 5099, 
  "estimate": 5370, 
  "mirrored": 25491, 
  "gameplay": 26626, 
  "universally": 18658, 
  "chlorine": 30435, 
  "aktuelles": 70661, 
  "dwind@@": 33679, 
  "auszudrücken": 70868, 
  "Nigel": 14062, 
  "Aufenthaltsraum": 66090, 
  "dortigen": 63290, 
  "Gob@@": 27297, 
  "obersten": 76239, 
  "commented": 11330, 
  "ministries": 19071, 
  "disturbed": 18241, 
  "Ländern": 52263, 
  "competed": 20679, 
  "Lande@@": 56417, 
  "2.4@@": 33260, 
  "Niger": 18975, 
  "mischungen": 70883, 
  "demor@@": 29324, 
  "breed": 12695, 
  "bör@@": 70664, 
  "Anwender@@": 61264, 
  "tchen": 45284, 
  "tann@@": 27514, 
  "Traveller": 35098, 
  "-Spe@@": 47669, 
  "uren": 14983, 
  "giftigen": 70665, 
  "lubri@@": 44146, 
  "bl@@": 2568, 
  "žá@@": 45968, 
  "endlich": 49994, 
  "illa@@": 39957, 
  "olds": 6541, 
  "spokes@@": 3457, 
  "renovated": 5863, 
  "service": 272, 
  "Simulationen": 70666, 
  "ocity": 32627, 
  "e-oriented": 33310, 
  "needed": 693, 
  "comp@@": 5923, 
  "master": 4044, 
  "teen": 8703, 
  "보@@": 68787, 
  "Vertrauens@@": 66095, 
  "genesis": 32037, 
  "Aristo@@": 49061, 
  "Studiengänge": 70667, 
  "PvP": 31493, 
  "rewards": 10845, 
  "Ca": 19962, 
  "telec@@": 22904, 
  "pro-European": 24747, 
  "unbestreitbar": 70668, 
  "乾@@": 72813, 
  "verweigern": 59807, 
  "task": 1764, 
  "Agadir": 44724, 
  "Oracle": 12438, 
  "sea-@@": 17473, 
  "magnific@@": 24531, 
  "clean-@@": 20640, 
  "positively": 10446, 
  "ledig@@": 70242, 
  "270": 17886, 
  "ehood": 50656, 
  "ACK@@": 37208, 
  "SPAM": 45769, 
  "Maril@@": 22584, 
  "ferien": 70670, 
  "Catalunya": 21787, 
  "idly": 26797, 
  "thri@@": 8438, 
  "install@@": 16365, 
  "serhö@@": 66098, 
  "idle": 19773, 
  "Città": 42790, 
  "SPAR": 40250, 
  "IB": 23310, 
  "feeling": 2307, 
  "best-@@": 8761, 
  "Schweizerischen": 63293, 
  "müh@@": 51466, 
  "Poggio": 46073, 
  "6819": 39003, 
  "Mentor": 44240, 
  "276": 34140, 
  "aufträge": 70671, 
  "Chicago": 2658, 
  "redesigned": 22919, 
  "277": 35655, 
  "6815": 43419, 
  "spectrum": 6308, 
  "Rekord@@": 58684, 
  "Є@@": 70672, 
  "solemn@@": 46074, 
  "Č@@": 27292, 
  "З@@": 48254, 
  "miniatur@@": 38805, 
  "dozen": 4534, 
  "scrap@@": 23915, 
  "affairs": 3106, 
  "Ruf@@": 42393, 
  "wholesome": 30747, 
  "sitio": 36963, 
  "Fontaine": 22664, 
  "shell@@": 39917, 
  "Jiabao": 32038, 
  "cholester@@": 44205, 
  "Component": 39356, 
  "invali@@": 25075, 
  "Dial@@": 46638, 
  "trust@@": 17719, 
  "y-@@": 1476, 
  "exchan@@": 27955, 
  "jahres@@": 57789, 
  "They": 2134, 
  "ist-@@": 19553, 
  "simp@@": 38210, 
  "begab@@": 70673, 
  "Erlernen": 70674, 
  "Ortschaft": 75258, 
  "shipments": 12116, 
  "DEM@@": 38752, 
  "ful@@": 21013, 
  "committing": 11637, 
  "Seit": 58685, 
  "echnik": 49635, 
  "Hor@@": 5386, 
  "limitless": 32628, 
  "diminishing": 20878, 
  "cinematic": 26910, 
  "eliminates": 22183, 
  "metrics": 25048, 
  "venti@@": 35887, 
  "door-@@": 28366, 
  "mouth": 4334, 
  "forwarded": 16292, 
  "Pandora": 27584, 
  "bedrohte": 61268, 
  "delegate": 17601, 
  "two-@@": 2148, 
  "lahs": 39494, 
  "wind-@@": 27971, 
  "Mahler": 33796, 
  "Hoo@@": 14984, 
  "singer": 4162, 
  "stupid": 11294, 
  "abgeschlossene": 65997, 
  "auseinander@@": 70676, 
  "HER@@": 30482, 
  "Moo@@": 27585, 
  "besagt": 66102, 
  "Kons@@": 63296, 
  "Teilnahme@@": 66103, 
  "tech": 6414, 
  "tilien": 63297, 
  "Avat@@": 50376, 
  "yl@@": 8510, 
  "ɾ": 75043, 
  "non-EU": 22886, 
  "Mor@@": 2062, 
  "schafter": 63298, 
  "saying": 636, 
  "Züge": 59808, 
  "minimale": 66104, 
  "thiness": 45323, 
  "abel@@": 44553, 
  "ヒ@@": 66105, 
  "Buchar@@": 54529, 
  "Par@@": 2511, 
  "मि@@": 38541, 
  "berühmten": 56418, 
  "padded": 30908, 
  "メ@@": 57790, 
  "antly": 13819, 
  "Cunha": 32251, 
  "Marks": 19089, 
  "A5-00@@": 20358, 
  "tempted": 15329, 
  "cheaply": 22409, 
  "schaften": 58686, 
  "eingestellt": 57196, 
  "Resources": 11062, 
  "CHTING": 45628, 
  "Pomm@@": 46482, 
  "clicked": 26128, 
  "Vla@@": 28697, 
  "excavator": 38414, 
  "レ@@": 56420, 
  "kerns": 70682, 
  "Reisen": 48553, 
  "rics": 21322, 
  "João": 43130, 
  "than": 77, 
  "Creutzfeld@@": 61270, 
  "rico": 38871, 
  "LIVE": 33311, 
  "höchste": 56421, 
  "rick": 9764, 
  "rich": 1638, 
  "Coliseum": 28105, 
  "वि@@": 22792, 
  "rice": 7468, 
  "Milosev@@": 58688, 
  "Tarifverträge": 70683, 
  "rica": 40177, 
  "nebenan": 63300, 
  "plate": 6324, 
  "Berufsbildung": 59810, 
  "а@@": 18637, 
  "dream@@": 29965, 
  "Pöt@@": 59811, 
  "千@@": 70684, 
  "Vok@@": 44826, 
  "Tricks": 44827, 
  "Rati@@": 39136, 
  "öffentlichen": 49406, 
  "iate": 27932, 
  "resilient": 18951, 
  "öffentlicher": 61271, 
  "öffentliches": 71019, 
  "altogether": 8543, 
  "-Rei@@": 48156, 
  "bevorzugt": 61665, 
  "XLSTAT": 31781, 
  "platz": 21186, 
  "4.4": 17045, 
  "vill@@": 29706, 
  "nicely": 14096, 
  "gen-@@": 27827, 
  "boarder": 37082, 
  "Riu": 43139, 
  "patch": 8731, 
  "Rio": 5305, 
  "bod@@": 23807, 
  "launch": 2152, 
  "ara-@@": 48347, 
  "電@@": 58689, 
  "gehe": 60306, 
  "ፅ@@": 76021, 
  "Investitions@@": 57791, 
  "kodi@@": 52062, 
  "extrem@@": 35138, 
  "Höhepunkte": 66107, 
  "Roo@@": 14740, 
  "Zuck@@": 54935, 
  "Frustration": 54530, 
  "ized": 6387, 
  "clarified": 13182, 
  "sensitivity": 8976, 
  "point-@@": 22647, 
  "zahlen": 52264, 
  "Chron@@": 19542, 
  "acienda": 50117, 
  "etic": 12679, 
  "zahler": 63301, 
  "Anderson": 6205, 
  "Jahres@@": 55362, 
  "profoundly": 15899, 
  "Monster": 25982, 
  "osity": 18011, 
  "Gründer": 63302, 
  ".it": 31398, 
  "clarifies": 31542, 
  "iry": 34865, 
  "ALTEN@@": 51022, 
  "lots": 3660, 
  "vereint": 63303, 
  "irr": 51851, 
  "irs": 15525, 
  "Annotator": 39357, 
  "Escrow": 44723, 
  "iri": 27236, 
  "Vollstreckung": 66108, 
  "ousing": 35539, 
  "rumor@@": 29690, 
  "Canarian": 37143, 
  "offering": 1515, 
  "retro@@": 10012, 
  "ations": 1522, 
  "ira": 15576, 
  "charger": 26405, 
  "auffallend": 61272, 
  "ire": 2605, 
  "Advanced": 12924, 
  "ZEW": 36918, 
  "Work@@": 19367, 
  "Ausflug": 59812, 
  "Konditor@@": 51615, 
  "extend": 3037, 
  "nature": 1036, 
  "ask": 634, 
  "Robustheit": 61274, 
  "equ@@": 6054, 
  "Schauspieler": 58690, 
  "extent": 2126, 
  "butions": 44935, 
  "Shel@@": 9965, 
  "Gewalttaten": 72737, 
  "tyranny": 25717, 
  "firm@@": 24718, 
  "start-ups": 22283, 
  "zes@@": 40178, 
  "heating": 4944, 
  "einverstanden": 56607, 
  "Laura": 10203, 
  "welche": 45119, 
  "sublime": 27774, 
  "Neuchâtel": 42795, 
  "Straß@@": 57792, 
  "Forschungen": 57065, 
  "jack": 20928, 
  "eradicate": 16556, 
  "esis": 16341, 
  "halbwegs": 71078, 
  "Apartment": 18773, 
  "ppets": 28526, 
  "bloggers": 19970, 
  "Mp@@": 42200, 
  "seu@@": 52976, 
  "Government": 993, 
  "igkeiten": 58213, 
  "Dokumentations@@": 70690, 
  "esia": 26840, 
  "4.2": 14112, 
  "esie": 52724, 
  "DIM@@": 47985, 
  "co.@@": 36650, 
  "blonde": 22712, 
  "organisational": 16240, 
  "Ō@@": 70691, 
  "fra": 43863, 
  "Mitspieler": 61275, 
  "Vertretungen": 63475, 
  "union": 1830, 
  "Harrachov": 45545, 
  "fri": 54163, 
  "remained": 2620, 
  "kasten": 57066, 
  ".": 5, 
  "Leverkusen": 35147, 
  "much": 149, 
  "unior": 66111, 
  "mamm@@": 41126, 
  "監@@": 66112, 
  "fry": 25162, 
  "tallest": 24397, 
  "trock@@": 58691, 
  "aspalomas": 65775, 
  "Poseidon": 41469, 
  "Kunststoff@@": 51852, 
  "funds": 912, 
  "Arnaud": 36313, 
  "guil@@": 28325, 
  "Tutsis": 38806, 
  "haft@@": 52977, 
  "tibility": 28841, 
  "TO@@": 11369, 
  "Consensus": 30776, 
  "fahrenden": 70692, 
  "TZ@@": 38474, 
  "paradig@@": 38351, 
  "Auktion@@": 70693, 
  "doubts": 5924, 
  "Durão": 46483, 
  "Waffen": 49682, 
  "spin": 9770, 
  "skilfully": 35216, 
  "coo@@": 43505, 
  "Wiersma": 41246, 
  "TDI": 33681, 
  "Auszahlung": 59856, 
  "all&apos;@@": 34414, 
  "Flach@@": 47816, 
  "MY@@": 35656, 
  "Ÿ@@": 66381, 
  "Lagerung": 60976, 
  "Law": 4392, 
  "professionally": 15254, 
  "ugly": 12449, 
  "employ": 9695, 
  "Vorreiter": 66113, 
  "k": 946, 
  "ť@@": 47572, 
  "umsteigen": 66114, 
  "真@@": 70697, 
  "vorschrift": 70698, 
  "Vorjahres@@": 57793, 
  "deste": 48450, 
  "canoeing": 32629, 
  "embargos": 50958, 
  "conditioned": 14806, 
  "Hirsch@@": 34818, 
  "Zwischenstopp": 70699, 
  "eighteen": 22260, 
  "Trinken": 66115, 
  "Cala": 17540, 
  "rutschen": 66117, 
  "conditioner": 31492, 
  "Tourism@@": 54937, 
  "空@@": 63306, 
  "komponiert": 55363, 
  "memorial": 8876, 
  "寶@@": 63907, 
  "Verurteilungen": 71107, 
  "zah@@": 39358, 
  "Thailands": 75239, 
  "strengere": 70701, 
  "feind@@": 70702, 
  "devo@@": 29826, 
  "democracies": 11182, 
  "kick-@@": 24418, 
  "inboxx": 46276, 
  "split": 4288, 
  "Zusammenlegung": 70703, 
  "@@": 70704, 
  "lipp@@": 53556, 
  "relinqu@@": 29712, 
  "junge": 50504, 
  "tensive": 47183, 
  "boiled": 21910, 
  "effortlessly": 28183, 
  "exakten": 65565, 
  "inadvertently": 23675, 
  "rebellion": 15679, 
  "Erwachsene": 56433, 
  "桶": 71161, 
  "ary-@@": 20266, 
  "Rech@@": 45224, 
  "marched": 17236, 
  "M.@@": 9367, 
  "exerted": 23670, 
  "Reyn@@": 12839, 
  "Tak@@": 8700, 
  "Harley": 29023, 
  "cost-effectiveness": 36124, 
  "judgement": 13536, 
  "Hostal": 31728, 
  "EBA": 36677, 
  "koch": 58692, 
  "venant": 47184, 
  "ität@@": 70707, 
  "Modul": 52487, 
  "深@@": 61276, 
  "Wod@@": 52280, 
  "academic": 5331, 
  "verschiedenste": 66119, 
  "academia": 30091, 
  "mittragen": 70708, 
  "Modus": 53264, 
  "inc@@": 3415, 
  "dk@@": 40475, 
  "corporate": 2027, 
  "plaque": 23916, 
  "dring@@": 58693, 
  "fallenden": 66120, 
  "gastein": 44053, 
  "Rapid": 26624, 
  "zurzeit": 54164, 
  "Noval@@": 49636, 
  "roll@@": 8325, 
  "stream@@": 34926, 
  "FL@@": 14975, 
  "treibenden": 66121, 
  "favours": 17848, 
  "deal@@": 16204, 
  "lasse": 47027, 
  "mum@@": 22887, 
  "airbag": 32496, 
  "lassi": 61277, 
  "weltberühmten": 70731, 
  "loo@@": 10391, 
  "fonds": 41372, 
  "portrayed": 13722, 
  "dialec@@": 35702, 
  "Happy": 17243, 
  "hah": 37209, 
  "hai": 21626, 
  "polis@@": 39137, 
  "hak": 36919, 
  "hal": 39004, 
  "ham": 2618, 
  "han": 8620, 
  "endum": 55364, 
  "Oscar": 6411, 
  "Sec@@": 12025, 
  "had": 63, 
  "advancement": 19309, 
  "itu@@": 20135, 
  "hay": 23336, 
  "Baghdad": 5745, 
  "indon@@": 57795, 
  "beloved": 11703, 
  "jäger": 55095, 
  "Concep@@": 34470, 
  "ด@@": 57797, 
  "har": 11398, 
  "has": 32, 
  "hat": 7355, 
  "Karaoke": 41070, 
  "End-@@": 41872, 
  "Great": 3144, 
  "Smar@@": 34988, 
  "istan": 16441, 
  "municipal": 9848, 
  "inging": 10656, 
  "knock": 13080, 
  "elders": 21769, 
  "survival": 6085, 
  "online": 659, 
  "Mich@@": 12997, 
  "Mitterr@@": 70709, 
  "Three": 8544, 
  "unequivocally": 21499, 
  "objective": 1663, 
  "indicative": 16580, 
  "orig@@": 25468, 
  "shadow": 4562, 
  "commodi@@": 34703, 
  "beherbergt": 63307, 
  "Selbstregulierung": 70710, 
  "Subjek@@": 61278, 
  "semi": 30419, 
  "Dist@@": 30298, 
  "igrants": 47980, 
  "Schleswig-Holstein": 37509, 
  "beneficiaries": 11760, 
  "Comic@@": 54165, 
  "Übersetzen": 60167, 
  "festivities": 19153, 
  "Steven": 6430, 
  "Frames": 47483, 
  "ateg@@": 45655, 
  "reduzieren": 70715, 
  "Pentagon": 7376, 
  "ス@@": 56422, 
  "tsprech@@": 66122, 
  "Swedish": 4036, 
  "attorney": 3380, 
  "Lagerhaltung": 66123, 
  "Klassifikation": 66124, 
  "crowd": 2982, 
  "mosques": 21500, 
  "spy@@": 44054, 
  "crown": 9636, 
  "begin": 1477, 
  "Kais@@": 43140, 
  "lebigkeit": 66125, 
  "captive": 19366, 
  "glav@@": 44936, 
  "Mari@@": 8032, 
  "flug": 52410, 
  "Wies@@": 31202, 
  "Between": 27044, 
  "angu@@": 31947, 
  "Plit@@": 43506, 
  "zeugt": 63310, 
  "Antal@@": 50247, 
  "Erweiter@@": 68069, 
  "nachlässi@@": 70719, 
  "bottom": 2860, 
  "improvised": 23433, 
  "Garde": 45969, 
  "inhuman": 25763, 
  "Garda": 15054, 
  "zeuge": 63311, 
  "stands@@": 55891, 
  "Facebook": 2363, 
  "Ray": 8356, 
  "а": 21722, 
  "Gold@@": 9142, 
  "gorge": 27961, 
  "opponents": 4207, 
  "induc@@": 14120, 
  "Watts": 19774, 
  "sing@@": 16425, 
  "Erfüllungsgehilfen": 61417, 
  "derivatives": 11143, 
  "Johan@@": 26305, 
  "barcode": 23384, 
  "EURO": 27148, 
  "binden": 59818, 
  "Calle": 27183, 
  "binder": 30748, 
  "Aktualisierungen": 70721, 
  "starring": 9515, 
  "endor@@": 20716, 
  "bamboo": 26069, 
  "adet": 54938, 
  "Barri@@": 35520, 
  "acom": 27511, 
  "benches": 20898, 
  "ader": 12706, 
  "ades": 7283, 
  "chemisch": 63313, 
  "Zulassungs@@": 63314, 
  "cular": 17426, 
  "clat@@": 41214, 
  "President-in-Office": 2922, 
  "aded": 4313, 
  "entier@@": 56424, 
  "Schub": 70723, 
  "Piero": 28906, 
  "eboard": 28126, 
  "adel": 34194, 
  "aden": 25433, 
  "frische": 58695, 
  "teles@@": 47185, 
  "Etik@@": 66126, 
  "Hauptverantwortung": 70725, 
  "live-@@": 23162, 
  "net@@": 8885, 
  "pandem@@": 38935, 
  "honeymoon": 23988, 
  "lieber": 54531, 
  "administer": 18724, 
  "Aaron": 9161, 
  "Klasse": 50967, 
  "CFSP": 16900, 
  "anisch": 70727, 
  "undertakings": 10315, 
  "anbieter": 56923, 
  "onies": 23775, 
  "shoots": 16912, 
  "Dai@@": 23564, 
  "Cec@@": 34130, 
  "anbietet": 70730, 
  "publics": 34906, 
  "dick@@": 48255, 
  "addington": 48256, 
  "mbH": 36437, 
  "fabric": 9438, 
  "coordinators": 26197, 
  "altitude": 10211, 
  "metabolic": 26605, 
  "valu@@": 35603, 
  "Tec@@": 27586, 
  "raped": 11867, 
  "Christen@@": 29236, 
  "Heidel@@": 49407, 
  "symphony": 30559, 
  "Ende": 46717, 
  "greatness": 24942, 
  "Device": 27171, 
  "gemu@@": 59820, 
  "ve@@": 5646, 
  "perfumes": 35483, 
  "normaler": 63316, 
  "normales": 59821, 
  "Franciacorta": 46640, 
  "Spie@@": 39766, 
  "malicious": 15794, 
  "währung": 67504, 
  "Warn@@": 45420, 
  "verde": 38753, 
  "normalen": 58696, 
  "Pich@@": 33967, 
  "生@@": 61280, 
  "safeguard": 6175, 
  "envis@@": 22532, 
  "Gerichtsverfahren": 75425, 
  "other@@": 27237, 
  "congratulations": 8861, 
  "年@@": 65867, 
  "amerikanischen": 58697, 
  "echo@@": 21370, 
  "azo": 37922, 
  "arrays": 31060, 
  "aza": 26132, 
  "anco": 25822, 
  "non-discrimination": 19900, 
  "County": 2122, 
  "break-up": 24218, 
  "azz": 40620, 
  "open-air": 17111, 
  "unanimous": 9363, 
  "Haus@@": 29237, 
  "amerikanischer": 70734, 
  "amerikanisches": 70735, 
  "Honig": 50657, 
  "Diabetes": 27828, 
  "dues": 27972, 
  "britischer": 73360, 
  "Vorsitzende": 70736, 
  "passenger": 3649, 
  "auswahl": 62229, 
  "disgrace": 18015, 
  "own@@": 27933, 
  "Terror@@": 46641, 
  "minibar": 15457, 
  "桜@@": 70737, 
  "tis@@": 19700, 
  "Tales": 34651, 
  "Cap@@": 4771, 
  "minal": 41963, 
  "ance": 2254, 
  "Tool@@": 36248, 
  "females": 16546, 
  "Badewanne": 70738, 
  "tooth": 15726, 
  "ECOFIN": 28222, 
  "fließt": 66129, 
  "standardized": 16792, 
  "onry": 34819, 
  "rols": 20394, 
  "taurants": 55858, 
  "eventual": 12203, 
  "Her@@": 3721, 
  "quick@@": 18471, 
  "Schü": 66130, 
  "Pul@@": 13143, 
  "ritte": 49408, 
  "Some@@": 12492, 
  "LateRooms.com": 17037, 
  "PDF-Format": 64531, 
  "role": 413, 
  "stürzen": 71356, 
  "VEN@@": 38684, 
  "Aufnahme@@": 70740, 
  "roll": 4211, 
  "precau@@": 59302, 
  "Swiss@@": 30620, 
  "ă@@": 26185, 
  "E": 2015, 
  "slaves": 17019, 
  "palms": 27467, 
  "amerikanische": 63318, 
  "whenever": 5285, 
  "transported": 9771, 
  "Melbourne": 4069, 
  "ham@@": 5598, 
  "intent": 7044, 
  "OV@@": 42791, 
  "variable": 8288, 
  "transporter": 30909, 
  "Gardens": 12036, 
  "explosions": 14547, 
  "ßen": 49756, 
  "Kraus@@": 36920, 
  "PostgreSQL": 33798, 
  "mandates": 19897, 
  "Nationen": 56087, 
  "orgt": 62650, 
  "Sudanese": 14013, 
  "kämpf@@": 66511, 
  "overturned": 14781, 
  "urgie": 54166, 
  "decision": 446, 
  "green@@": 17656, 
  "bestätigte": 70744, 
  "promoted": 6224, 
  "chain": 3017, 
  "whoever": 11078, 
  "3st": 44456, 
  "oss": 49260, 
  "entrepreneur@@": 46181, 
  "ost": 36962, 
  "谢@@": 70747, 
  "osi": 13125, 
  "osk": 52727, 
  "digungen": 61284, 
  "㠠@@": 70720, 
  "abgaben": 66134, 
  "osa": 16291, 
  "chair": 4501, 
  "ose": 16675, 
  "Kra@@": 15279, 
  "Krebs@@": 53265, 
  "hän@@": 55900, 
  "macht": 46642, 
  "voc@@": 22565, 
  "fro@@": 7275, 
  "D&apos;@@": 10370, 
  "baller": 16581, 
  "Tourist": 18367, 
  "Lá@@": 39838, 
  "schöner": 56426, 
  "schönes": 50377, 
  "freelance": 18774, 
  "crates": 33363, 
  "crater": 22239, 
  "mache": 51853, 
  "schönen": 50506, 
  "schönem": 66135, 
  "summon@@": 35703, 
  "enchanting": 14862, 
  "circumstances": 2083, 
  "Tourism": 7377, 
  "third": 366, 
  "Vorjahres": 70749, 
  "Hammer@@": 30259, 
  "downloading": 9484, 
  "sprachlicher": 70750, 
  "Karo@@": 42883, 
  "Political": 12651, 
  "engagierte": 59822, 
  "Pre-@@": 22837, 
  "choice": 1176, 
  "embark": 15688, 
  "gloomy": 22341, 
  "rationality": 31203, 
  "stays": 7258, 
  "mim@@": 16557, 
  "exact": 5437, 
  "minute": 1878, 
  "Tat": 53266, 
  "Tau": 43581, 
  "cooks": 25015, 
  "Tap": 38352, 
  "Koreans": 18216, 
  "gewachsene": 66136, 
  "undene": 70753, 
  "Mitte": 28764, 
  "Nico": 28140, 
  "Tax": 12325, 
  "Blätter": 59823, 
  "PA@@": 17543, 
  "Katrina": 16193, 
  "Habit@@": 32630, 
  "defaults": 19804, 
  "Tal": 36500, 
  "Verbund": 47817, 
  "Tan": 28367, 
  "Tao": 35657, 
  "Tai": 35434, 
  "hilfs@@": 60631, 
  "付@@": 70754, 
  "308": 27749, 
  "Silvio": 21188, 
  "Git@@": 31151, 
  "309": 35691, 
  "trails": 9169, 
  "Silvia": 37855, 
  "M.": 4614, 
  "finger@@": 19375, 
  "omo@@": 41394, 
  "mauern": 70756, 
  "Ap@@": 9243, 
  "M5": 38416, 
  "M4": 34652, 
  "M6": 39005, 
  "M1": 31204, 
  "shirts": 12237, 
  "M3": 32153, 
  "M2": 36385, 
  "hegemonic": 36386, 
  "cherer": 46182, 
  "grösseren": 76753, 
  "icro": 59042, 
  "headset": 32448, 
  "Mario": 9609, 
  "Chefs": 43234, 
  "celebrated": 6129, 
  "Inhalten": 52857, 
  "CMYK": 45421, 
  "lands@@": 47334, 
  "Magna": 25049, 
  "UNESCO-@@": 47981, 
  "fizierten": 71453, 
  "boost": 2890, 
  "Lopez": 12707, 
  "Fraktion": 61287, 
  "chairing": 31532, 
  "Me": 8631, 
  "drafted": 8065, 
  "parlament@@": 59825, 
  "Ma": 20815, 
  "Konzep@@": 61288, 
  "Mb": 39205, 
  "climbs": 25199, 
  "honour": 5317, 
  "Mo": 15144, 
  "Lebensart": 66138, 
  "topicality": 35435, 
  "man@@": 2125, 
  "aku@@": 32588, 
  "Mt": 18976, 
  "Liter": 54260, 
  "vorsätzliches": 57132, 
  "Ms": 2011, 
  "Mr": 75, 
  "Datei": 52265, 
  "zylinder": 70759, 
  "dwindling": 22360, 
  "My": 3190, 
  "Recre@@": 28652, 
  "Daten": 39206, 
  "ME": 11814, 
  "MD": 17359, 
  "Lang@@": 14194, 
  "MF": 24891, 
  "MA": 9045, 
  "abends": 57799, 
  "MC": 17914, 
  "MB": 10232, 
  "MM": 37210, 
  "impacted": 17344, 
  "MO": 31729, 
  "partments": 30106, 
  "MI": 24123, 
  "Hvar": 37070, 
  "queue": 16927, 
  "MT": 19103, 
  "accomplished": 9299, 
  "bik@@": 19403, 
  "throughput": 28141, 
  "MP": 5042, 
  "MS": 8027, 
  "MR": 37649, 
  "perpetu@@": 23285, 
  "HV@@": 35604, 
  "MY": 36249, 
  "MX": 40932, 
  "bour@@": 15033, 
  "info@@": 30341, 
  "Lankan": 20761, 
  "umps": 13375, 
  "liance": 23189, 
  "Stadt@@": 36827, 
  "Jum@@": 32672, 
  "Giulia": 40251, 
  "fortführen": 70761, 
  "Biog@@": 55367, 
  "umpf": 47028, 
  "ASEAN-@@": 53267, 
  "bestimmt": 52266, 
  "Jong": 18454, 
  "Wes@@": 17730, 
  "Kyo@@": 34022, 
  "Verpackungen": 56352, 
  "Davidson": 18368, 
  "made-@@": 29643, 
  "Nei@@": 10449, 
  "undergone": 14761, 
  "cocktail": 10532, 
  "mak@@": 31949, 
  "August": 1320, 
  "working": 316, 
  "aine": 13488, 
  "utton@@": 47029, 
  "Person@@": 26126, 
  "Ermittlungen": 66140, 
  "Verordnungen": 66141, 
  "vigour": 29966, 
  "opposed": 2985, 
  "plo@@": 20695, 
  "Lo": 27395, 
  "ad@@": 1467, 
  "Millim@@": 57800, 
  "ree": 19447, 
  "Those": 15032, 
  "Iris": 32631, 
  "unvermei@@": 77834, 
  "Klaus": 16452, 
  "opädie": 62215, 
  "liere": 49653, 
  "nas@@": 14264, 
  "nad@@": 18791, 
  "Paolo": 21076, 
  "wünsch@@": 66142, 
  "milli@@": 10584, 
  "assimilation": 32396, 
  "approving": 13883, 
  "Zentrum": 29490, 
  "Management-@@": 50508, 
  "consoles": 23964, 
  "Liegen@@": 66143, 
  "ى@@": 70764, 
  "impending": 19146, 
  "Nord-Süd-@@": 70765, 
  "riders": 10376, 
  "Noti@@": 38475, 
  "oniert": 70766, 
  "ammon": 46260, 
  "Träger@@": 59826, 
  "portugiesische": 70767, 
  "Tandberg": 43887, 
  "Pays": 40401, 
  "originally": 3213, 
  "Glenn": 12826, 
  "abortion": 6075, 
  "Czechoslov@@": 42705, 
  "harmonious": 16087, 
  "agra@@": 37721, 
  "Walking": 22857, 
  "following": 393, 
  "caution": 8772, 
  "decommission@@": 37784, 
  "dulden": 74546, 
  "pinta": 45546, 
  "admired": 16582, 
  "Einteilung": 70768, 
  "sover@@": 52488, 
  "mirrors": 13920, 
  "fliegt": 63553, 
  "Maquis": 39966, 
  "Punk@@": 45860, 
  "soup": 13967, 
  "reitungen": 70770, 
  "locks": 13553, 
  "Symphony": 17008, 
  "lockt": 63325, 
  "counseling": 19114, 
  "EURAT@@": 49218, 
  "listens": 27615, 
  "litre": 16453, 
  "dosis": 48349, 
  "septic": 32961, 
  "Emanzipation": 68479, 
  "camion": 35945, 
  "Notfall": 70774, 
  "Marathon@@": 55368, 
  "Neugier": 70775, 
  "assung": 61289, 
  "thanking": 8632, 
  "锋@@": 70776, 
  "Skinner": 26241, 
  "einbezogen": 70777, 
  "Bord": 52667, 
  "LAN-@@": 52489, 
  "Pinsel": 63326, 
  "Dör@@": 48257, 
  "ﬀ@@": 66147, 
  "atal": 25565, 
  "STA": 43141, 
  "scales": 18609, 
  "STM": 44249, 
  "sour": 15966, 
  "Zucker": 43142, 
  "betrach@@": 78502, 
  "fueled": 13661, 
  "pünktlich": 61290, 
  "schweb@@": 59828, 
  "hilfreich": 57801, 
  "Wiesen": 54167, 
  "ziness": 25987, 
  "atar": 40252, 
  "atas": 35381, 
  "Corporate": 10105, 
  "Korps": 63329, 
  "temperate": 34415, 
  "kürzere": 68332, 
  "transportieren": 70779, 
  "surfing": 11771, 
  "kandi@@": 59263, 
  "Cas@@": 6155, 
  "conscious": 7893, 
  "x-@@": 12220, 
  "acional": 42553, 
  "tiques": 29400, 
  "LN": 46378, 
  "mango": 21672, 
  "Moll": 46792, 
  "wolves": 18303, 
  "pulled": 3990, 
  "essors": 40402, 
  "Zweig": 41247, 
  "orch@@": 24044, 
  "webpage": 25230, 
  "LIN": 30388, 
  "Drug": 10290, 
  "™": 5227, 
  "years": 98, 
  "SM@@": 10275, 
  "structuring": 26969, 
  "episodes": 9400, 
  "Trustees": 29491, 
  "希@@": 70780, 
  "Til@@": 17428, 
  "food-@@": 23213, 
  "Symbol@@": 51989, 
  "्य@@": 20975, 
  "nic@@": 17165, 
  "Posselt": 20507, 
  "conflu@@": 34456, 
  "disconnect": 27045, 
  "jic": 35947, 
  "Parade@@": 53795, 
  "jin": 32002, 
  "östlichen": 66151, 
  "delayed": 5475, 
  "Assist": 39839, 
  "troubles": 11806, 
  "vertritt": 63682, 
  "Carneg@@": 53295, 
  "Gitarristen": 66152, 
  "envisage": 18787, 
  "Assisi": 34704, 
  "illas": 28612, 
  "suspension": 6160, 
  "troubled": 7025, 
  "vorausgesetzt": 59830, 
  "Kunden@@": 52952, 
  "Opernhaus": 59641, 
  "recipients": 12150, 
  "civilian": 4476, 
  "Bristol": 9955, 
  "Iraqis": 12725, 
  "殊@@": 70782, 
  "Deutsche": 5913, 
  "schilder": 70783, 
  "indigenous": 8401, 
  "sorten": 75724, 
  "Gordon": 4947, 
  "sorted": 15207, 
  "Г": 59831, 
  "\\": 17787, 
  "Villa": 4431, 
  "常@@": 56428, 
  "FF": 22237, 
  "5.000": 31276, 
  "plung": 66153, 
  "Nok@@": 46454, 
  "jected": 21770, 
  "Erkennen": 70979, 
  "Yellow": 22261, 
  "Kleider": 63334, 
  "Lesotho": 41320, 
  "Grundi@@": 78970, 
  "fisherman": 22471, 
  "dignified": 20278, 
  "instability": 9108, 
  "quarter": 820, 
  "Bell@@": 10465, 
  "disrupt": 14927, 
  "ती": 36856, 
  "taucht": 60610, 
  "Felix": 18161, 
  "retrieve": 16571, 
  "bursting": 24452, 
  "Kühl@@": 63639, 
  "receipt": 9784, 
  "u.v.@@": 57803, 
  "frames": 11638, 
  "Live": 6315, 
  "abstraction": 33147, 
  "gefühl": 63335, 
  "sponsor": 10512, 
  "entering": 4374, 
  "offenbar": 65929, 
  "Travel": 9944, 
  "wegen": 46793, 
  "salads": 22050, 
  "disasters": 5775, 
  "Deborah": 19862, 
  "fil@@": 5968, 
  "weiße": 59833, 
  "gehörenden": 78724, 
  "Michigan": 5337, 
  "internen": 54940, 
  "mpfen": 70787, 
  "internes": 55859, 
  "seriously": 2301, 
  "Rundfunk": 47254, 
  "trauma": 12396, 
  "Gom@@": 15415, 
  "128@@": 39271, 
  "internet": 1537, 
  "Transfers": 48850, 
  "ECO@@": 27076, 
  "12-@@": 4548, 
  "Studio@@": 50311, 
  "realisation": 14827, 
  "Kapitel": 55317, 
  "Sy@@": 7037, 
  "counter@@": 6663, 
  "intoler@@": 31782, 
  "hairdresser": 29492, 
  "eon": 22786, 
  "incentives": 5830, 
  "Recital": 34989, 
  "maschinen": 50959, 
  "З": 62770, 
  "complicated": 4341, 
  "krank@@": 56798, 
  "Travelodge": 41248, 
  "forma@@": 44554, 
  "ET-@@": 46718, 
  "byte": 29527, 
  "añ@@": 30483, 
  "Ohr@@": 53840, 
  "beabsichtigte": 66155, 
  "concentr@@": 45324, 
  "workmanship": 34927, 
  "Lernens": 72956, 
  "SEC@@": 34078, 
  "Hi-@@": 37083, 
  "modest": 5572, 
  "initiate": 12037, 
  "Kepler": 30821, 
  "weisungen": 63338, 
  "aboard": 6879, 
  "Benidorm": 38783, 
  "Fehlermeldung": 70789, 
  "Street": 1397, 
  "neglect": 12869, 
  "einsetzt": 63339, 
  "秦@@": 66156, 
  "emotion": 11095, 
  "info": 7472, 
  "Lieb@@": 33968, 
  "oni": 8207, 
  "saving": 3895, 
  "ono": 19473, 
  "Wanderer": 49409, 
  "irradiation": 39223, 
  "spoken": 3688, 
  "OS-@@": 43054, 
  "ona": 5040, 
  "leitete": 66404, 
  "ond": 11945, 
  "one": 56, 
  "eingebrachten": 66157, 
  "Calderón": 35273, 
  "ony": 6057, 
  "ormen": 63340, 
  "punishable": 25231, 
  "periodical": 37334, 
  "rag@@": 25076, 
  "Tiefe": 61293, 
  "ons": 1252, 
  "family-@@": 26272, 
  "ລ@@": 73885, 
  "ont": 5052, 
  "Confederal": 23989, 
  "schließe": 71663, 
  "less-@@": 17655, 
  "Monday": 606, 
  "Mal@@": 3469, 
  "likeli@@": 44648, 
  "奶@@": 68212, 
  "stocks": 3090, 
  "Hisbollah": 66158, 
  "And": 2147, 
  "schließt": 66677, 
  "types": 1937, 
  "übernehme": 70181, 
  "steam@@": 28406, 
  "Bombe": 63668, 
  "Meile": 66160, 
  "automatisch": 52490, 
  "Vögeln": 66161, 
  "Frontex": 17564, 
  "té": 15270, 
  "günstige": 55861, 
  "shutt@@": 23190, 
  "560": 29522, 
  "erisches": 56429, 
  "erischer": 47745, 
  "estens": 66163, 
  "herds": 21975, 
  "specialists": 6222, 
  "Benzin@@": 66164, 
  "Aufbau@@": 60005, 
  "History": 8428, 
  "begrüßen": 58701, 
  "Mittel@@": 41249, 
  "finanzierungs@@": 71696, 
  "人@@": 58509, 
  "inflic@@": 28442, 
  "Math@@": 31106, 
  "non-stop": 25683, 
  "crossroads": 20604, 
  "Leich@@": 47485, 
  "rehab": 19320, 
  "Forschungsergebnisse": 63676, 
  "Hubert": 34586, 
  "ball@@": 4959, 
  "pho@@": 21244, 
  "substan@@": 46379, 
  "wandering": 21113, 
  "proactive": 14025, 
  "द@@": 17074, 
  "verrät": 72732, 
  "illness": 5649, 
  "Disziplinen": 66166, 
  "musik@@": 48764, 
  "Tournee": 66167, 
  "sumptuous": 25016, 
  "emed": 45657, 
  "combin@@": 34023, 
  "turned": 1322, 
  "Seminaren": 60212, 
  "Vir@@": 16536, 
  "methane": 21033, 
  "Field": 10428, 
  "Vig@@": 22533, 
  "smart@@": 10190, 
  "Kul@@": 26666, 
  "uninterrupted": 25828, 
  "borough": 8638, 
  "tourismus@@": 45120, 
  "utable": 33572, 
  "emer": 30346, 
  "cm@@": 41024, 
  "hochwertiger": 66168, 
  "-and-@@": 7566, 
  "antworten": 63343, 
  "Halt": 48765, 
  "zog": 53297, 
  "warriors": 22115, 
  "ض@@": 50118, 
  "brück@@": 51127, 
  "zom": 59834, 
  "zon": 25566, 
  "zoo": 12031, 
  "Mangel@@": 53558, 
  "parameters": 6566, 
  "intends": 5561, 
  "orally": 33994, 
  "Half": 21654, 
  "antwortet": 67815, 
  "Round@@": 28948, 
  "Hall": 3064, 
  "hochwertigem": 66384, 
  "imperatives": 35540, 
  "printer": 10965, 
  "easy@@": 21976, 
  "opposite": 3371, 
  "buffer": 12735, 
  "discerning": 25260, 
  "Nachfolger": 63346, 
  "Bari": 34685, 
  "buffet": 4912, 
  "immigration": 1968, 
  "aper@@": 41176, 
  "transp@@": 19572, 
  "EP@@": 13471, 
  "Meilenstein": 70794, 
  "printed": 5593, 
  "ghe": 36961, 
  "knowingly": 25050, 
  "US-Dollar": 52228, 
  "abre@@": 54169, 
  "Kuppel": 66170, 
  "aut@@": 14233, 
  "phic": 22763, 
  "phia": 48158, 
  "boys": 3140, 
  "phin": 40403, 
  "bew@@": 50378, 
  "TEC@@": 35377, 
  "Granit": 54170, 
  "Chef": 21823, 
  "estan": 38989, 
  "phis": 51295, 
  "Lande": 54760, 
  "Chen": 12373, 
  "redirected": 29528, 
  "fizierte": 63348, 
  "Geh@@": 39635, 
  "✭": 70796, 
  "Artef@@": 58830, 
  "oppos@@": 26758, 
  "Heiligen": 64308, 
  "stark@@": 32252, 
  "月": 68306, 
  "Boli@@": 25625, 
  "Sky": 7052, 
  "friction": 18273, 
  "whol@@": 25096, 
  "Ethiopia": 12680, 
  "✿": 63349, 
  "inconsistent": 15330, 
  "Führung": 55862, 
  "aggressive": 4917, 
  "imagined": 12585, 
  "Ὑ@@": 70798, 
  "Plat@@": 15863, 
  "øn@@": 43507, 
  "betrachten": 58703, 
  "♥": 51296, 
  "ensembles": 31730, 
  "reconciling": 26161, 
  "zahl": 61299, 
  "alizations": 30952, 
  "Spanisch@@": 66174, 
  "Dienstes": 61367, 
  "阳@@": 70799, 
  "Bianca": 33742, 
  "Leadership": 22665, 
  "presse": 29691, 
  "crip@@": 13949, 
  "ل@@": 33234, 
  "Sach@@": 25499, 
  "betrachtet": 59837, 
  "spezialisierte": 72691, 
  "Busut@@": 70800, 
  "Antoni@@": 38088, 
  "Bianco": 42482, 
  "free-trade": 22382, 
  "Bah@@": 19442, 
  "beschränken": 67503, 
  "guarded": 17210, 
  "monds": 27973, 
  "Assets": 25684, 
  "Gruy@@": 47039, 
  "altru@@": 32632, 
  "Szenario": 59838, 
  "balconies": 16375, 
  "stas@@": 52065, 
  "simplistic": 23808, 
  "antrieb": 71040, 
  "Barn@@": 22534, 
  "dasselbe": 63350, 
  "ordnungsgemäßen": 63351, 
  "awaiting": 9005, 
  "Forum@@": 47960, 
  "justified": 5516, 
  "akter@@": 70802, 
  "Ostrava": 41701, 
  "oprojek@@": 58834, 
  "addresses": 4915, 
  "keenly": 26911, 
  "-Karte": 66177, 
  "rondis@@": 50658, 
  "endeten": 66178, 
  "т@@": 19290, 
  "Facilities": 7546, 
  "Magento": 46380, 
  "architekt@@": 70804, 
  "relaunching": 38161, 
  "tika": 31783, 
  "katalog": 56431, 
  "YER": 35886, 
  "intrin@@": 66660, 
  "Shutt@@": 50345, 
  "vision": 2546, 
  "laufenden": 55864, 
  "Pfandbrief@@": 57804, 
  "unzureichend": 66179, 
  "lader": 59884, 
  "exchange-@@": 38936, 
  "Rings": 31543, 
  "höher": 57311, 
  "empfindlicher": 70805, 
  "John@@": 16583, 
  "empfindlichen": 66747, 
  "DESIGN": 42884, 
  "sil@@": 8248, 
  "approxim@@": 36003, 
  "impressions": 15467, 
  "Keram@@": 54229, 
  "Kosten@@": 49177, 
  "Stadtentwicklung": 63352, 
  "Worldwide": 18335, 
  "hl@@": 33624, 
  "830": 36314, 
  "Johnson": 2532, 
  "Slobo@@": 55865, 
  "Bruch@@": 57805, 
  "alarming": 10640, 
  "gerau@@": 58704, 
  "Designated": 30861, 
  "stipul@@": 57070, 
  "Shi@@": 4353, 
  "vaccines": 13050, 
  "Cli@@": 10181, 
  "Jonas": 22294, 
  "Resonanz": 63353, 
  "refreshed": 32497, 
  "ki-@@": 46093, 
  "enjoys": 6945, 
  "Mitsubishi": 22951, 
  "agieren": 74624, 
  "Onlineshop": 50792, 
  "Stütze": 61300, 
  "Geschäftsverkehr": 70806, 
  "Impfung": 70807, 
  "cocktails": 13124, 
  "flut@@": 38353, 
  "Harbor": 17927, 
  "Spy@@": 32350, 
  "VGA": 39975, 
  "Inhalts@@": 70808, 
  "Solven@@": 43798, 
  "Anspruch": 49137, 
  "erstein": 40702, 
  "awards": 5077, 
  "Járóka": 46291, 
  "uc@@": 22736, 
  "札": 70613, 
  "Charakteristika": 66760, 
  "cost@@": 24524, 
  "194@@": 26625, 
  "concentrated": 8335, 
  "räger": 49410, 
  "small@@": 26521, 
  "fes@@": 13560, 
  "alistischen": 61301, 
  "eboarding": 34471, 
  "alitäten": 66182, 
  "cle-@@": 36744, 
  "Seer@@": 53841, 
  "Stability": 6682, 
  "Re-@@": 37582, 
  "s": 208, 
  "fel@@": 8592, 
  "workplace": 8231, 
  "concentrates": 20899, 
  "Plooij-van": 42793, 
  "alistischer": 70810, 
  "inventive": 26898, 
  "UN@@": 7125, 
  "Terasse": 63354, 
  "allowance": 10628, 
  "succum@@": 22942, 
  "mein@@": 54153, 
  "Patienten": 56432, 
  "baden": 57806, 
  "idyll@@": 54533, 
  "Führungen": 61283, 
  "improvis@@": 27272, 
  "guitar@@": 34195, 
  "sivity": 29692, 
  "ergonom@@": 40035, 
  "grundlage": 63355, 
  "article": 2494, 
  "Pepper": 28149, 
  "puri@@": 28765, 
  "west": 2709, 
  "bitions": 45219, 
  "weltgrößten": 70813, 
  "Pv@@": 42394, 
  "klausel": 63730, 
  "akkredi@@": 61302, 
  "vertrau@@": 66185, 
  "Wirtschaftswachstum": 70814, 
  "practised": 19573, 
  "名@@": 70815, 
  "motives": 14445, 
  "präsenz": 63731, 
  "Waddington": 39067, 
  "Balz@@": 42131, 
  "wants": 1235, 
  "formen": 53560, 
  "formel": 63734, 
  "ey-@@": 31860, 
  "Dolderer": 43420, 
  "formed": 3420, 
  "readings": 16684, 
  "photos": 2472, 
  "geothermal": 29493, 
  "tightened": 17663, 
  "Eiern": 66186, 
  "offshore": 8418, 
  "gged": 10233, 
  "फ@@": 32325, 
  "Arri@@": 31066, 
  "former": 312, 
  "Briefen": 66187, 
  "memor@@": 17038, 
  "buses": 5989, 
  "Krau@@": 45121, 
  "Cesenatico": 36126, 
  "Erzeugung": 66189, 
  "bootable": 38282, 
  "co-ordination": 30584, 
  "Prep@@": 32983, 
  "Philipp@@": 19031, 
  "ja@@": 11219, 
  "Commander": 14137, 
  "biomedi@@": 32449, 
  "Hamm@@": 37316, 
  "Sizi": 70818, 
  "SOL@@": 30470, 
  "Hin": 45653, 
  "Anforderung": 70819, 
  "ausgebauten": 71504, 
  "newspaper": 2316, 
  "situation": 340, 
  "Komm@@": 39907, 
  "Size": 24425, 
  "penthouse": 29644, 
  "appel@@": 33496, 
  "Prei": 66190, 
  "all-round": 24753, 
  "self-interest": 26577, 
  "aufrufen": 61304, 
  "parti@@": 12123, 
  "engaged": 4272, 
  "Nagoya": 39359, 
  "Elevator": 10224, 
  "Lenkra@@": 66192, 
  "Prey": 48668, 
  "engages": 28689, 
  "technology": 585, 
  "Admiral": 19072, 
  "Profile": 17691, 
  "Jo": 17884, 
  "Sot@@": 15927, 
  "verified": 14205, 
  "Tra@@": 3621, 
  "Deinem": 70820, 
  "Swar@@": 33799, 
  "Deinen": 61305, 
  "otti": 14855, 
  "Mitro@@": 40473, 
  "Deines": 63357, 
  "Deiner": 59844, 
  "lead@@": 16928, 
  "gre@@": 6612, 
  "otto": 21501, 
  "elem@@": 33800, 
  "heal@@": 27513, 
  "Van@@": 11272, 
  "Mächte": 66193, 
  "otte": 23614, 
  "Drei-@@": 70651, 
  "visually": 19032, 
  "wires": 18029, 
  "edged": 12789, 
  "assigns": 32773, 
  "sickness": 21146, 
  "eling": 8528, 
  "eline": 9921, 
  "IRT": 45658, 
  "Mas": 31824, 
  "-Reform": 67322, 
  "XVI": 19190, 
  "year-round": 23127, 
  "edges": 10519, 
  "wired": 16011, 
  "Sklaven": 71932, 
  "Clean": 17776, 
  "XVN": 44250, 
  "Neuseeland": 57074, 
  "IRA": 15913, 
  "IRC": 20823, 
  "IRE": 30181, 
  "Islantilla": 45862, 
  "tracking": 7028, 
  "wane": 33261, 
  "berichtet": 50379, 
  "hammo@@": 33465, 
  "60,000": 12418, 
  "ingung": 59627, 
  "dargelegten": 70821, 
  "NUTS": 36857, 
  "彩@@": 68353, 
  "domin@@": 12063, 
  "elieg@@": 66194, 
  "Will@@": 11110, 
  "AOM@@": 49997, 
  "Wachau": 44937, 
  "Frühstück": 43421, 
  "nearby": 2140, 
  "NR@@": 8786, 
  "dimension": 4405, 
  "persistently": 28443, 
  "berichten": 54991, 
  "BOX": 41470, 
  "PAN@@": 37996, 
  "Zel@@": 14949, 
  "Stay@@": 36387, 
  "spekul@@": 63358, 
  "Spi@@": 16878, 
  "being": 124, 
  "cohesive": 21666, 
  "Diesel": 31454, 
  "COS": 24599, 
  "Conservative": 6164, 
  "Fat@@": 22071, 
  "recycled": 15956, 
  "Dieser": 61306, 
  "Dieses": 56530, 
  "satlan@@": 70822, 
  "nutrition": 11092, 
  "Berichtsjahr": 70823, 
  "linguistic": 10536, 
  "man-made": 21415, 
  "Soft@@": 27000, 
  "Fay@@": 18137, 
  "generator": 15255, 
  "übereinstimmend": 73558, 
  "Maler": 44828, 
  "characterization": 33531, 
  "dicke": 57807, 
  "schrauben": 61307, 
  "AGE": 28142, 
  "priori": 36714, 
  "leder@@": 48451, 
  "Phnom": 33148, 
  ".The": 14403, 
  "Guantanamo": 11630, 
  "лен@@": 47667, 
  "besetzt": 57075, 
  "ILL": 34756, 
  "Zyklus@@": 61308, 
  "Mad": 19613, 
  "Holocau@@": 49903, 
  "加@@": 66198, 
  "Minnesota": 6818, 
  "ellem": 59847, 
  "Kraft-@@": 69734, 
  "-Link": 47335, 
  "Haushaltsausschuss": 67902, 
  "sums": 8956, 
  "gestures": 17100, 
  "ου": 48851, 
  "Token": 47668, 
  "ehem@@": 50881, 
  "traffic": 1777, 
  "preference": 9546, 
  "secon@@": 18921, 
  "world": 130, 
  "opä@@": 55370, 
  "postal": 7850, 
  "kont@@": 63361, 
  "klingen": 55867, 
  "sensational": 19884, 
  "色": 70827, 
  "Nacht": 46292, 
  "en@@": 811, 
  "Sergio": 16180, 
  "Valent@@": 35484, 
  "ahem@@": 53561, 
  "shutter": 25859, 
  "atz@@": 38212, 
  "Konstru@@": 74492, 
  "superiority": 24453, 
  "maßes": 72001, 
  "Kulturzentrum": 57808, 
  "B6-0@@": 34773, 
  "Fujim@@": 49396, 
  "obstruct": 30437, 
  "satisfactory": 7699, 
  "Chil@@": 12814, 
  "arbeits@@": 53562, 
  "grub": 39138, 
  "NAFTA": 32397, 
  "deira": 43866, 
  "Andre@@": 21128, 
  "AR-@@": 43583, 
  "Bowles": 32816, 
  "udev": 44938, 
  "Murten": 44457, 
  "Engel": 36185, 
  "Murter": 39908, 
  "Großstadt": 66200, 
  "-Sal@@": 37335, 
  "bene@@": 46187, 
  "moreover": 2057, 
  "complementarity": 30778, 
  "diving": 6901, 
  "志@@": 61310, 
  "turn@@": 12870, 
  "Thaksin": 19519, 
  "Verzehr": 58707, 
  "heat-@@": 27238, 
  "complement@@": 50344, 
  "ın@@": 43332, 
  "präsentation": 72013, 
  "Heiz@@": 56435, 
  "An": 6878, 
  "cavity": 29449, 
  "bedenkt": 77139, 
  "Prinz@@": 53310, 
  "酒@@": 63362, 
  "ät": 53268, 
  "äu": 56436, 
  "non-standard": 39132, 
  "är": 43960, 
  "pg@@": 45510, 
  "refundable": 32040, 
  "다": 70832, 
  "dustri@@": 44148, 
  "911": 14773, 
  "restoring": 10967, 
  "Affin@@": 44458, 
  "übermittelte": 66202, 
  "averse": 29525, 
  "tigh@@": 14285, 
  "retains": 15064, 
  "finanziert": 66203, 
  "Gehen": 70833, 
  "Literatur": 50380, 
  "Cash": 9313, 
  "leadership": 1992, 
  "volcano": 14331, 
  "Out@@": 10361, 
  "luxurious": 6450, 
  "WEICON": 43769, 
  "angestellte": 66205, 
  "apit@@": 23444, 
  "Revolution": 9352, 
  "pir@@": 18304, 
  "An@@": 1608, 
  "pig@@": 15506, 
  "disabilities": 10165, 
  "cares": 16019, 
  "atives": 15021, 
  "Zeichen@@": 58866, 
  "ativen": 57809, 
  "consumer-@@": 28991, 
  "Handling": 40843, 
  "hijack@@": 31826, 
  "Millions": 26253, 
  "modern@@": 20436, 
  "auten": 63366, 
  "host@@": 17179, 
  "bekannteste": 72051, 
  "market-@@": 16774, 
  "Nm": 42885, 
  "No": 1110, 
  "18-@@": 6593, 
  "Bademantel": 59849, 
  "Ne": 38147, 
  "Hinweise": 57810, 
  "wans": 53563, 
  "Paint": 33691, 
  "aktualisierte": 66206, 
  "कार@@": 34928, 
  "lively": 7718, 
  "Luxemburger": 62626, 
  "Connec@@": 23965, 
  "24,@@": 22952, 
  "NH": 20953, 
  "NI": 7656, 
  "Sitzungen": 61311, 
  "Stirn": 72067, 
  "NL": 6984, 
  "Durban": 25567, 
  "NO": 22279, 
  "Elektrotechnik": 56437, 
  "NA": 17987, 
  "NB": 34990, 
  "NC": 19825, 
  "NE": 25104, 
  "ön@@": 34991, 
  "ley@@": 16889, 
  "Peninsula": 12548, 
  "NY": 16695, 
  "NZ": 24917, 
  "otoren": 66207, 
  "Entfaltung": 72073, 
  "series": 697, 
  "NP": 31638, 
  "Con@@": 1762, 
  "NS": 30706, 
  "bubble": 10038, 
  "ve-@@": 9342, 
  "NV": 33211, 
  "NW": 24398, 
  "witt": 18622, 
  "stipulating": 37923, 
  "durchdacht": 70836, 
  "Hannover": 20858, 
  "continents": 13843, 
  "N.": 3702, 
  "bran@@": 12495, 
  "neoliberalen": 66208, 
  "wiederkehrenden": 56438, 
  "institutions": 774, 
  "spiritu@@": 43867, 
  "witz": 15839, 
  "biomet@@": 39841, 
  "singul@@": 39139, 
  "ghter": 33574, 
  "Erkrankung": 66209, 
  "Ac@@": 4891, 
  "erwähnte": 66210, 
  "with": 16, 
  "charac@@": 54136, 
  "abused": 9531, 
  "pull": 4604, 
  "rush": 7519, 
  "parli@@": 59850, 
  "assi": 23537, 
  "monopoly": 10283, 
  "Rodriguez": 9340, 
  "Klö@@": 42895, 
  "Byrne": 15616, 
  "Spielers": 70837, 
  "秉@@": 70839, 
  "Faszination": 52067, 
  "assy": 32041, 
  "cra@@": 4188, 
  "abuses": 8135, 
  "-Bon@@": 48350, 
  "kostenfreien": 70840, 
  "ubar@@": 39197, 
  "trips": 4786, 
  "rust": 29693, 
  "größte": 55231, 
  "Cirque": 28811, 
  "eckigen": 70841, 
  "Lac@@": 18806, 
  "Airlines": 5892, 
  "watches": 13314, 
  "wildly": 18238, 
  "Quint": 43481, 
  "Richtige": 63369, 
  "ensuing": 18499, 
  "MEPs": 5173, 
  "follow-up": 8145, 
  "formulation": 18124, 
  "energe@@": 49179, 
  "watched": 4810, 
  "jargon": 27184, 
  "Humanity": 34025, 
  "uis": 12533, 
  "cream": 7134, 
  "Real": 5174, 
  "Sarawak": 42132, 
  "yoga": 15577, 
  "ideally": 7369, 
  "beautiful": 1087, 
  "Read": 15351, 
  "Passwort": 54597, 
  "freunde": 53844, 
  "unparalleled": 19733, 
  "Werbem@@": 61313, 
  "1441": 43422, 
  "Nein@@": 55870, 
  "sowieso": 59852, 
  "puppy": 25051, 
  "Lady": 7615, 
  "enheit": 29037, 
  "Kult": 54535, 
  "uning": 43610, 
  "faxes": 34036, 
  "岗@@": 70845, 
  "Molek@@": 55871, 
  "refunded": 22567, 
  "conceptu@@": 35658, 
  "Eliz@@": 31107, 
  "y-to-@@": 31639, 
  "well@@": 16064, 
  "Sing@@": 18030, 
  "Durch": 53946, 
  "schlecht@@": 70847, 
  "Schroedter": 34768, 
  "Modern@@": 27616, 
  "terten": 63046, 
  "tricky": 13146, 
  "horse-@@": 21028, 
  "stylistic": 34444, 
  "Ausflu@@": 70848, 
  "thora": 51658, 
  "Wagen": 55371, 
  "9.@@": 3849, 
  "thorn": 15836, 
  "natur@@": 11875, 
  "enrichment": 13265, 
  "Hardware": 32398, 
  "@@": 60154, 
  "Gardasee": 63371, 
  "eign": 46861, 
  "Bewilligung": 66214, 
  "recognising": 14492, 
  "uit": 23853, 
  "gebot": 54941, 
  "onlin@@": 30585, 
  "engü@@": 57812, 
  "Entspannungs@@": 74819, 
  "Kay@@": 14887, 
  "sch": 8886, 
  "Fit": 26686, 
  "ständigkeit": 70851, 
  "caused": 1345, 
  "beware": 21323, 
  "ceramic": 15489, 
  "About": 8546, 
  "verträ@@": 74985, 
  "stereot@@": 19734, 
  "Ski@@": 21911, 
  "nigh@@": 33364, 
  "Ade@@": 34026, 
  "Storn@@": 63037, 
  "conditionality": 26841, 
  "Fin": 39842, 
  "hetero@@": 43596, 
  "causes": 2931, 
  "lizen@@": 63372, 
  "Ghil@@": 50381, 
  "acry@@": 49285, 
  "sylv@@": 53845, 
  "chener": 48159, 
  "tram@@": 12829, 
  "Dod@@": 7675, 
  "Ottom@@": 43681, 
  "nau": 35891, 
  "heavy-duty": 35241, 
  "chenen": 66934, 
  "schränke": 66216, 
  "norm": 14222, 
  "ussia": 19976, 
  "Nordo@@": 57959, 
  "Medi": 50689, 
  "Pazi@@": 57814, 
  "pple": 15825, 
  "fehlten": 70854, 
  "amplifier": 32032, 
  "vakuum": 71692, 
  "estri@@": 39581, 
  "Grossetête": 33862, 
  "Perman@@": 39769, 
  "Wirtschaftsprü@@": 53355, 
  "24th": 14293, 
  "Niel@@": 43001, 
  "Spree": 38417, 
  "kostenloses": 69742, 
  "Info@@": 20151, 
  "ro": 5524, 
  "begleiter": 63374, 
  "sans": 13339, 
  "gear@@": 36240, 
  "offenkun@@": 74733, 
  "adina": 43584, 
  "ading": 7916, 
  "dic@@": 6906, 
  "insufficiently": 29924, 
  "ξ@@": 49639, 
  "sang": 12470, 
  "sand": 5429, 
  "cker@@": 24943, 
  "invol@@": 22790, 
  "small": 289, 
  "Schlosses": 66221, 
  "Icel@@": 43209, 
  "sank": 15291, 
  "self-employment": 37574, 
  "abbreviated": 28957, 
  "quicker": 12754, 
  "199": 24097, 
  "198": 30863, 
  "komfortablen": 64508, 
  "195": 24506, 
  "194": 30182, 
  "197": 30138, 
  "196": 16443, 
  "躇@@": 71134, 
  "190": 17005, 
  "193": 29038, 
  "192": 26130, 
  "past": 385, 
  "19.": 50828, 
  "displays": 7120, 
  "Richtungs@@": 63375, 
  "pass": 1430, 
  "Reyes": 21932, 
  "komfortabler": 70858, 
  "98@@": 19740, 
  "investment": 754, 
  "Worf": 29529, 
  "basierter": 70859, 
  "clock": 6058, 
  "-based": 3065, 
  "zukünftiges": 77216, 
  "geschmackvolle": 63376, 
  "Verbänden": 66225, 
  "Dermat@@": 45222, 
  "Fraunhofer-@@": 49531, 
  "io@@": 15986, 
  "prevailed": 17438, 
  "colonists": 36315, 
  "lein": 35704, 
  "Locar@@": 57815, 
  "otor": 42630, 
  "Malat@@": 45423, 
  "leid": 57816, 
  "ticus": 38272, 
  "RR@@": 38543, 
  "verschoben": 61802, 
  "hash": 25434, 
  "Gnome": 43164, 
  "regelmäßige": 61318, 
  "Charlie": 7834, 
  "棲@@": 70861, 
  "hasa": 52979, 
  "linear@@": 47158, 
  "zuliefer@@": 70862, 
  "ohn": 30420, 
  "Parten@@": 42298, 
  "civilians": 4498, 
  "Capit@@": 17057, 
  "Ltd": 5878, 
  "methoden": 57817, 
  "Spencer": 11950, 
  "criminality": 26337, 
  "AN-@@": 47255, 
  "Visby": 45661, 
  "34": 3206, 
  "Concept": 31342, 
  "Kosmetik@@": 61319, 
  "Security": 1707, 
  "Bonds": 22029, 
  "Küsten": 66228, 
  "experience": 458, 
  "knapp": 20395, 
  "otive": 50382, 
  "prior": 2237, 
  "periodic": 18109, 
  "Ya@@": 29124, 
  "kurz@@": 57818, 
  "behör@@": 63863, 
  "i.@@": 22191, 
  "moulds": 29832, 
  "ermassen": 66229, 
  "Shim@@": 24250, 
  "Pension": 19932, 
  "rov@@": 23590, 
  "benef@@": 22192, 
  "tax-free": 28285, 
  "followed": 1478, 
  "Italien@@": 63378, 
  "adidas": 16998, 
  "plain": 6889, 
  "pling": 9951, 
  "SESAR": 43235, 
  "Richmond": 11586, 
  "Worx": 46666, 
  "Dies@@": 50793, 
  "Netanyahu": 8372, 
  "minder": 42158, 
  "aufs": 53026, 
  "auft": 66231, 
  "Rufnummer": 70864, 
  "empfohlen": 56439, 
  "attendance": 9365, 
  "Crash": 29039, 
  "Mé@@": 17331, 
  "bach@@": 35046, 
  "wines": 5083, 
  "IJ@@": 42395, 
  "Gazprom": 17988, 
  "theastern": 10889, 
  "fragrance": 24663, 
  "soil": 5112, 
  "Verpack@@": 56440, 
  "Provence": 23041, 
  "ø@@": 18577, 
  "prohibi@@": 28958, 
  "more": 51, 
  "marsch": 55372, 
  "testet": 55373, 
  "Dick": 12146, 
  "door": 2010, 
  "initiated": 7851, 
  "substances": 4435, 
  "Kärntner": 49882, 
  "company": 196, 
  "materieller": 57217, 
  "corrected": 12519, 
  "adern": 63317, 
  "Vaku@@": 62968, 
  "aders": 13483, 
  "tested": 3679, 
  "unigen": 70867, 
  "ANT@@": 16596, 
  "security-@@": 32774, 
  "dische": 53846, 
  "doom": 23776, 
  "farb@@": 70869, 
  "100th": 20859, 
  "Festplatten@@": 70871, 
  "Chad": 11685, 
  "Adidas": 32962, 
  "anxieties": 27542, 
  "Gods": 33874, 
  "Jahrhundert": 48669, 
  "installing": 9564, 
  "讯": 70872, 
  "anhaltend": 70745, 
  "bias": 13940, 
  "Staunen": 70873, 
  "learn": 1561, 
  "knocked": 8982, 
  "Otta@@": 44849, 
  "band@@": 17398, 
  "changeover": 24219, 
  "Panasonic": 13437, 
  "DC@@": 21245, 
  "wieder": 35217, 
  "extrac@@": 31061, 
  "ще@@": 44902, 
  "geni@@": 29925, 
  "Garderobe": 70876, 
  "ete@@": 25594, 
  "trivi@@": 33365, 
  "Musharraf": 11407, 
  "orn@@": 13027, 
  "ologne": 38937, 
  "Propag@@": 53565, 
  "Tauch@@": 55872, 
  "mehr": 30621, 
  "Glasgow": 5339, 
  "bonded": 28482, 
  "huge": 1111, 
  "respective": 4467, 
  "liver": 11564, 
  "hens": 30780, 
  "enlarge": 20176, 
  "dismissed": 5898, 
  "Fusion": 23728, 
  "worry": 4245, 
  "gol@@": 11455, 
  "tsysteme": 70879, 
  "smug@@": 18874, 
  "Sims": 25785, 
  "Modellierung": 57079, 
  "í@@": 7740, 
  "Emil": 37288, 
  "Schlangen": 63382, 
  "mender": 57821, 
  "variant": 16001, 
  ".com.": 44716, 
  "angehen": 78357, 
  "weitreichenden": 66235, 
  "menden": 63383, 
  "lanka": 33683, 
  "abbauen": 72349, 
  "alleine": 54874, 
  "Disclaimer": 44459, 
  "gesteuerten": 70882, 
  "entage": 47486, 
  "П@@": 41632, 
  "jiang": 30092, 
  "Trinkwasser": 61428, 
  "resemble": 19310, 
  "Ereignisse": 54171, 
  "Alpin": 44066, 
  "topo@@": 26184, 
  "West@@": 5346, 
  "pinewood": 35274, 
  "Nero": 11876, 
  "media": 613, 
  "DP@@": 37510, 
  "Х@@": 49998, 
  "exclusions": 35334, 
  "go-@@": 15860, 
  "Tandem@@": 57080, 
  "replied": 7360, 
  "Universities": 28208, 
  "geschä@@": 60882, 
  "ohydr@@": 50510, 
  "Sour@@": 28690, 
  "installed": 3258, 
  "wide-ranging": 12505, 
  "resorts": 9068, 
  "gleichsam": 66237, 
  "paper": 1756, 
  "Instandhaltung": 59857, 
  "signs": 2359, 
  "Wärmebehand@@": 61321, 
  "installer": 14321, 
  "smiling": 13836, 
  "enly": 48507, 
  "DKK": 42133, 
  "roots": 6283, 
  "ausserhalb": 63385, 
  "amentary": 52269, 
  "Hins@@": 48779, 
  "wned": 15297, 
  "Kommissionen": 70886, 
  "Hero@@": 42886, 
  "B1": 39729, 
  "rounds": 6657, 
  "symptoms": 5901, 
  "Fisheries": 8189, 
  "nostalg@@": 50119, 
  "optimalen": 63163, 
  "bypass": 16758, 
  "Brussels": 2744, 
  "sauce": 12038, 
  "Löschen": 66239, 
  "colleague": 3331, 
  "gepflegte": 63386, 
  "alese": 24012, 
  "universality": 31544, 
  "MS-DOS": 45863, 
  "Elektronik": 41874, 
  "high-end": 12604, 
  "fülle": 66327, 
  "Due": 26701, 
  "leistung": 54943, 
  "Guan@@": 41067, 
  "Banker": 42476, 
  "ersetzt": 57822, 
  "Nassau": 31417, 
  "decor@@": 25469, 
  "anstelle": 63387, 
  "ablehnen": 72386, 
  "LIM@@": 46188, 
  "zugeschickt": 63388, 
  "Mitwirkung": 66240, 
  "child@@": 28566, 
  "ahm@@": 55873, 
  "Obst": 55374, 
  "Quoten": 70889, 
  "Authority": 4588, 
  "courses": 3225, 
  "Stabilitäts@@": 63389, 
  "repayment": 19154, 
  "Oswald": 30390, 
  "Messing": 52663, 
  "shocking": 9347, 
  "Quadrat@@": 65010, 
  "reactions": 8903, 
  "ingungen": 57081, 
  "architekton@@": 70891, 
  "te@@": 2443, 
  "enh@@": 18288, 
  "Saturday": 835, 
  "numeric": 31300, 
  "Köstlichkeiten": 59859, 
  "advertisers": 14610, 
  "operation": 1445, 
  "Kriegs@@": 57082, 
  "Ima@@": 29530, 
  "centuries": 5184, 
  "mail@@": 17706, 
  "16.30": 47670, 
  "Medicines": 32139, 
  "/usr": 34774, 
  "errei@@": 49412, 
  "athie": 54173, 
  "ändischen": 72408, 
  "research": 432, 
  "Th@@": 2399, 
  "conut": 48853, 
  "knall@@": 56875, 
  "saugen": 70894, 
  "Report": 4896, 
  "lebenden": 63913, 
  "offline": 16572, 
  "Brun@@": 12547, 
  "Prof.": 14488, 
  "occurs": 7536, 
  "Messag@@": 52492, 
  "besta@@": 54538, 
  "Spitzen@@": 54126, 
  "/etc": 24454, 
  "Dsch@@": 57824, 
  "Prozentsatz": 70896, 
  "homosexu@@": 48258, 
  "Builder": 28483, 
  "Positions@@": 70897, 
  "Anato@@": 42396, 
  "Nina": 22318, 
  "LAND": 35101, 
  "Nine": 13304, 
  "Lebensmittel-": 75938, 
  "ecologically": 24013, 
  "Astro@@": 19716, 
  "Bevölkerungen": 74538, 
  "aussagekräftige": 66244, 
  "mündliche": 79018, 
  "definition": 3397, 
  "pairs": 13746, 
  "gewässer": 70898, 
  "Screenshot": 50120, 
  "Feira": 30658, 
  "stellern": 70899, 
  "dabei": 41002, 
  "bestimmte": 52270, 
  "sieger": 63390, 
  "plers": 39006, 
  "zufrieden": 52069, 
  "testament": 21546, 
  "existential": 24595, 
  "fail@@": 28106, 
  "Profi": 51469, 
  "Economist": 24561, 
  "verkehrs@@": 57825, 
  "impart": 35270, 
  "russischen": 66245, 
  "precautionary": 12243, 
  "Benutzerkonto": 70903, 
  "pH-@@": 51298, 
  "12.30": 35159, 
  "Fri": 27273, 
  "Cache": 42212, 
  "Dalai": 13108, 
  "brutally": 21221, 
  "preservation": 10621, 
  "Liege": 41173, 
  "Ζ@@": 61324, 
  "seasons": 5352, 
  "zunächst": 53867, 
  "Fru": 53917, 
  "ir-@@": 41168, 
  "雙@@": 70904, 
  "ADSL": 30864, 
  "Grav@@": 42213, 
  "Belgrad": 52980, 
  "Starten": 66246, 
  "Antriebstechnik": 51337, 
  "tova": 41383, 
  "avec": 7199, 
  "moderately": 26759, 
  "aved": 45424, 
  "Reco@@": 52541, 
  "passed": 1804, 
  "Bann@@": 27396, 
  "all-out": 27390, 
  "紅@@": 66247, 
  "ographer": 16342, 
  "mentally": 11019, 
  "calculations": 11430, 
  "user-@@": 16591, 
  "aver": 18289, 
  "aves": 16559, 
  "essays": 22905, 
  "session@@": 41177, 
  "subsidise": 32042, 
  "justly": 30260, 
  "hinzugefügt": 63392, 
  "hypothetical": 26543, 
  "Ž@@": 26522, 
  "Ū@@": 70908, 
  "day@@": 12769, 
  "interviewed": 8915, 
  "Kleinen": 55669, 
  "turnkey": 31969, 
  "tedness": 40476, 
  "ellina": 41322, 
  "elling": 5121, 
  "pum@@": 33801, 
  "ainst": 59373, 
  "oland": 36250, 
  "stifle": 28878, 
  "traps": 18341, 
  "ise@@": 30865, 
  "Vertriebs@@": 52542, 
  "Serv@@": 34706, 
  "vorwärts": 63394, 
  "eiling": 21752, 
  "Cancer": 9853, 
  "condolences": 16645, 
  "Flugzeuge": 75527, 
  "getaway": 25017, 
  "erstadt": 51129, 
  "igkeits@@": 59861, 
  "patchwork": 27684, 
  "Brün@@": 45038, 
  "dismantling": 14807, 
  "Münchener": 53068, 
  "Mallor@@": 42706, 
  "File@@": 39069, 
  "vely": 15700, 
  "andinav@@": 59862, 
  "Secchi": 43233, 
  "odore": 27239, 
  "organisations": 2233, 
  "ophy@@": 39311, 
  "tiver": 49157, 
  "guarding": 25765, 
  "graffiti": 18997, 
  "zidakis": 64261, 
  "gliche": 61327, 
  "reorganisation": 27088, 
  "krei": 66251, 
  "lib@@": 20090, 
  "Stru@@": 24819, 
  "büros": 56441, 
  "sell": 1838, 
  "ﬁ": 58711, 
  "ﬂ": 72921, 
  "Triangle": 31685, 
  "Messina": 32906, 
  "Rijeka": 37023, 
  "SATA": 35659, 
  "Food": 4581, 
  "vels": 23641, 
  "self": 7412, 
  "grundsätzlich": 49989, 
  "cco": 27504, 
  "also": 52, 
  "recognizing": 16221, 
  "sely": 17127, 
  "GER@@": 31343, 
  "Addis": 31545, 
  "cci": 21748, 
  "港@@": 66253, 
  "alts@@": 60412, 
  "sels": 24124, 
  "singles": 10563, 
  "Consultant": 37651, 
  "leave": 935, 
  "virus": 4342, 
  "bom@@": 9157, 
  "Tische": 59863, 
  "luck@@": 37276, 
  "Trekking": 48670, 
  "heb@@": 44344, 
  "Easy@@": 28143, 
  "singled": 16301, 
  "trucks": 7392, 
  "Zuschauer": 54539, 
  "understands": 8776, 
  "Capitol": 9028, 
  "seize": 10704, 
  "darstellung": 59239, 
  "desch@@": 54506, 
  "sometimes": 1241, 
  "OTE": 29450, 
  "geräte": 51262, 
  "edler": 47393, 
  "barred": 12641, 
  "Summit": 4058, 
  "cultivating": 30622, 
  "sulph@@": 32288, 
  "barren": 32673, 
  "Portfolio": 30484, 
  "barrel": 7611, 
  "OTS": 40477, 
  "artei": 63395, 
  "bulletin": 27829, 
  "wording": 9543, 
  "ambiguities": 35048, 
  "unsach@@": 59865, 
  "Secretary-@@": 49490, 
  "Han": 22953, 
  "Übrigen": 59866, 
  "blended": 24754, 
  "uga": 36560, 
  "lungen": 54024, 
  "accommodations": 11868, 
  "ution": 11749, 
  "bookings": 11496, 
  "fürchter@@": 66257, 
  "australische": 66258, 
  "paddle": 29827, 
  "prü": 70916, 
  "Finanzverwaltung": 70917, 
  "Behold": 26668, 
  "Has": 19339, 
  "Hat": 18596, 
  "overwhelmed": 14838, 
  "occupation": 6537, 
  "access": 367, 
  "Bulgarian": 10440, 
  "Dunn": 18500, 
  "Melodie": 58712, 
  "Palast": 48911, 
  "double-@@": 6709, 
  "gesamt@@": 63396, 
  "Dune": 36251, 
  "-Spezialisten": 66260, 
  "00-@@": 13894, 
  "Base": 12886, 
  "cassette": 35335, 
  "増@@": 70918, 
  "removable": 27855, 
  "knowledgeable": 23129, 
  "Dirk": 26798, 
  "rundherum": 66261, 
  "愛": 66262, 
  "ographical": 23445, 
  "indifference": 20641, 
  "columns": 12594, 
  "Basi": 59867, 
  "hafter": 58713, 
  "haftes": 59868, 
  "dancers": 14061, 
  "Götter": 59869, 
  "haftet": 51659, 
  "Repair": 32775, 
  "künstlichen": 63397, 
  "Ungleichbehandlung": 70919, 
  "secular": 10070, 
  "Wifi": 37924, 
  "sunny": 7604, 
  "Ecofin": 18358, 
  "ingrad": 36388, 
  "remedy": 11067, 
  "explodiert": 70652, 
  "wast@@": 27191, 
  "Büro@@": 54540, 
  "onger": 41384, 
  "haften": 58714, 
  "Tren@@": 31962, 
  "atively": 11587, 
  "Straflosigkeit": 63398, 
  "AutoCAD": 40704, 
  "adapts": 32202, 
  "tanken": 70921, 
  "istinnen": 66263, 
  "pleasures": 21348, 
  "gehilfen": 70922, 
  "geplanten": 58810, 
  "bytes": 26190, 
  "Null@@": 52493, 
  "wrecks": 31675, 
  "Oett@@": 54174, 
  "tanker": 16956, 
  "ओं": 36679, 
  "prospectus": 22819, 
  "insane": 21847, 
  "rechtlichen": 52494, 
  "ክ@@": 66264, 
  "GROUP": 29738, 
  "einzel@@": 63192, 
  "Glacier": 22415, 
  "312": 31784, 
  "activists": 4108, 
  "Des@@": 8060, 
  "315": 31827, 
  "pay-@@": 23383, 
  "administrator": 10000, 
  "collectively": 12320, 
  "Akteure": 61328, 
  "Fiori": 35948, 
  "31.": 55875, 
  "moun@@": 39273, 
  "analog": 16122, 
  "regulator": 9379, 
  "forec@@": 6419, 
  "MON@@": 22889, 
  "unverz@@": 67173, 
  "deactivate": 33970, 
  "speed": 1666, 
  "Europarat": 70929, 
  "side@@": 10672, 
  "pan-@@": 30485, 
  "Progres@@": 45770, 
  "sentim@@": 23360, 
  "Unsere": 52982, 
  "serb@@": 62905, 
  "alization": 5882, 
  "eins@@": 54541, 
  "EPA": 11629, 
  "15th": 8640, 
  "Seiden@@": 50244, 
  "440": 24778, 
  "naïve": 26598, 
  "sparsely": 28527, 
  "就@@": 70930, 
  "Rollen@@": 63399, 
  "signifikanten": 70624, 
  "faul@@": 25078, 
  "präsentierte": 70931, 
  "untouched": 17523, 
  "Imperium": 49270, 
  "ZOW": 33326, 
  "税": 70932, 
  "outlying": 32898, 
  "Long@@": 11236, 
  "näher": 60188, 
  "wechselseitigen": 73893, 
  "empowering": 27089, 
  "chalets": 30822, 
  "last": 108, 
  "gnaden@@": 66267, 
  "tuch@@": 46814, 
  "小@@": 61331, 
  "grab@@": 7196, 
  "SPEED": 48957, 
  "3-star": 12780, 
  "Neid": 59871, 
  "Zapatero": 28326, 
  "emeal": 42214, 
  "connection": 1339, 
  "Dokument": 57086, 
  "Wilde": 32553, 
  "antin": 42478, 
  "azza": 38213, 
  "lash": 23163, 
  "Query": 41702, 
  "krä@@": 61332, 
  "azzi": 22772, 
  "Orig@@": 39431, 
  "dder": 17191, 
  "beln": 54944, 
  "ausgezeichnete": 57827, 
  "bell": 11390, 
  "olla": 27336, 
  "186@@": 41167, 
  "acted": 5735, 
  "olle": 34587, 
  "olly": 15085, 
  "less-favoured": 37336, 
  "Chávez": 17166, 
  "adaptation": 8483, 
  "Fertig@@": 57776, 
  "bels": 40550, 
  "olls": 24566, 
  "oppel@@": 51036, 
  "ollt": 77683, 
  "belt": 7407, 
  "8,@@": 5592, 
  "rubber": 7926, 
  "schere": 61334, 
  "ACT@@": 37167, 
  "Cars": 23735, 
  "Obertauern": 47336, 
  "schern": 70935, 
  "Cart": 41472, 
  "implicit": 19027, 
  "schers": 59872, 
  "suburbs": 11106, 
  "initiation": 27240, 
  "zigsten": 67193, 
  "Carl": 9606, 
  "Schreib@@": 58716, 
  "Freizeitpark": 58706, 
  "Card": 7299, 
  "Care": 7138, 
  "combatants": 28567, 
  "jun@@": 39582, 
  "unschuldig": 70937, 
  "Demokrati@@": 60180, 
  "counselling": 23994, 
  "Rücküber@@": 61335, 
  "Reise@@": 55377, 
  "Forschungszentrum": 53631, 
  "Pilot@@": 49757, 
  "lessly": 12326, 
  "adaptable": 28327, 
  "moderation": 20954, 
  "38": 3579, 
  "awake": 20766, 
  "Tsat@@": 54946, 
  "despite": 649, 
  "FS-@@": 48767, 
  "Hiroshima": 31556, 
  "Michel": 9909, 
  "presses": 14831, 
  "verg@@": 49286, 
  "Beiträgen": 59873, 
  "exponential": 35542, 
  "ANSI": 40099, 
  "IP-@@": 30953, 
  "expanded": 5037, 
  "budget": 507, 
  "Maystadt": 44726, 
  "admire": 10412, 
  "ু@@": 63401, 
  "150.000": 46547, 
  "pressed": 8048, 
  "32": 2675, 
  "Marker": 45548, 
  "geholt": 61336, 
  "Brauerei": 53269, 
  "cages": 26495, 
  "pressen": 52333, 
  "real": 381, 
  "30": 388, 
  "sicheres": 72716, 
  "sicherer": 56494, 
  "kontraproduktiv": 70939, 
  "Drucker": 44149, 
  "vol": 37084, 
  "vom": 22713, 
  "von": 3773, 
  "binding": 4212, 
  "vok": 51660, 
  "Ausstattungs@@": 72719, 
  "Tschechischen": 62365, 
  "htt@@": 44830, 
  "vor": 7303, 
  "vos": 28568, 
  "Besuch": 50961, 
  "sicheren": 66268, 
  "äuser": 50526, 
  "alog@@": 24665, 
  "voy": 12090, 
  "Tali@@": 39207, 
  "Gedankenaustausch": 66269, 
  "kommuniziert": 68642, 
  "cuisine": 3894, 
  "Minig@@": 62612, 
  "Norwich": 17192, 
  "Chek@@": 42334, 
  "Miy@@": 29645, 
  "nachträgliche": 66270, 
  "ное": 46381, 
  "Einrichtung": 51661, 
  "outermost": 13909, 
  "meteor@@": 16404, 
  "retari@@": 48958, 
  "ной": 39208, 
  "Theo": 24820, 
  "städte": 61337, 
  "Aufschlag": 70940, 
  "Vaj@@": 40023, 
  "DC-@@": 39071, 
  "Then": 17514, 
  "flooded": 12101, 
  "Eclipse": 24720, 
  "dread@@": 25786, 
  "Verunsicherung": 70941, 
  "gebotenen": 76096, 
  "Kipp@@": 44251, 
  "Raphael": 28613, 
  "material@@": 50000, 
  "relax@@": 30093, 
  "ner-@@": 18150, 
  "Damas@@": 52495, 
  "bemühen": 66271, 
  "nickname": 15689, 
  "Tig@@": 27669, 
  "infamous": 14710, 
  "kompetent": 61338, 
  "läufen": 66272, 
  "riv@@": 22472, 
  "prelimin@@": 43144, 
  "Listen@@": 63403, 
  "Ambi": 59874, 
  "kollegen": 78389, 
  "benutze": 62804, 
  "kompetenz": 63404, 
  "Names": 32253, 
  "Umweltz@@": 61340, 
  "Erziehungs@@": 61341, 
  "Programmes": 36438, 
  "bench@@": 47337, 
  "Karl": 10451, 
  "-Seite": 73458, 
  "O.": 16982, 
  "-Se@@": 46304, 
  "wardship": 27848, 
  "contraven@@": 37934, 
  "patron@@": 25860, 
  "Mein@@": 39225, 
  "FWB": 44461, 
  "inations": 45326, 
  "custodi@@": 23809, 
  "defin@@": 27046, 
  "princip@@": 16852, 
  "Bundesministerium": 50921, 
  "stim@@": 31301, 
  "abilität": 72773, 
  "ore@@": 25375, 
  "Bühnen": 60190, 
  "Grundsätze": 63405, 
  "abstention": 30586, 
  "ierender": 66274, 
  "ierendes": 67235, 
  "genossenschaft": 54542, 
  "geschoss": 66275, 
  "reap": 21133, 
  "queen": 12574, 
  "jährigen": 54175, 
  "Hydromassage": 58624, 
  "jähriges": 57828, 
  "jähriger": 61342, 
  "Kommiss@@": 66276, 
  "eers": 20456, 
  "parents": 1240, 
  "Marino": 22166, 
  "Brands": 26022, 
  "psychedel@@": 34665, 
  "Marine": 7612, 
  "Holländer": 64128, 
  "ierenden": 66277, 
  "≧@@": 72785, 
  "Oreg@@": 43892, 
  "mware": 63406, 
  "Fuengiro@@": 71584, 
  "emergency": 2054, 
  "Oh": 6902, 
  "Of": 5226, 
  "couple": 1365, 
  "emanating": 31062, 
  "emigration": 27548, 
  "wives": 10635, 
  "heilige": 67242, 
  "hostels.com": 63407, 
  "abound": 25164, 
  "emergence": 11082, 
  "Os": 15331, 
  "Or": 19096, 
  "ON": 7759, 
  "OM": 15421, 
  "OL": 19646, 
  "OK": 5647, 
  "Jav@@": 27591, 
  "einzigartig": 61343, 
  "OG": 38493, 
  "OF": 8910, 
  "OD": 28628, 
  "OC": 22648, 
  "OB": 40404, 
  "chorus": 18078, 
  "Ship@@": 23919, 
  "destination": 3964, 
  "individuals": 2268, 
  "Potenzial": 61322, 
  "ludicrous": 25522, 
  "OX": 40038, 
  "tribes": 14278, 
  "OU": 43585, 
  "OT": 24664, 
  "OS": 5098, 
  "summarise": 28879, 
  "kirche": 42887, 
  "OP": 4521, 
  "Inspec@@": 35605, 
  "Summers": 24879, 
  "einmalige": 61344, 
  "dokumentation": 64300, 
  "bi-@@": 23565, 
  "Ohn@@": 56951, 
  "Hauptplatz": 53270, 
  "ital@@": 29739, 
  "Ötz@@": 45327, 
  "ija": 39843, 
  "methode": 56444, 
  "greener": 27002, 
  "tisch": 49413, 
  "WTO@@": 57829, 
  "ቐ@@": 71229, 
  "Nap@@": 18063, 
  "a-@@": 2289, 
  "Franc": 46948, 
  "Anglo-@@": 26032, 
  "progress": 778, 
  "Blingee": 28078, 
  "Frank": 5064, 
  "measurements": 11244, 
  "novelty": 22262, 
  "verständ@@": 74114, 
  "Brabant": 43424, 
  "bitt@@": 47488, 
  "behave": 11681, 
  "anschaulich": 66281, 
  "cool@@": 15641, 
  "Reisepass": 66282, 
  "rifying": 27551, 
  "hinsichtlich": 54632, 
  "Aviation": 11987, 
  "Cin@@": 16413, 
  "straightforward": 10914, 
  "LEADER": 38613, 
  "Ausländer": 70950, 
  "inserting": 26095, 
  "Publikum": 53568, 
  "otro@@": 31785, 
  "flüssige": 66283, 
  "Gesellschaften": 55379, 
  "Kommun@@": 55950, 
  "kommerzielle": 63408, 
  "Din@@": 18400, 
  "concealed": 16865, 
  "Ɛ@@": 70954, 
  "Gesellschafter": 66285, 
  "stubborn@@": 25435, 
  "downward": 13785, 
  "gehöri@@": 70955, 
  "Firmware": 44055, 
  "earth@@": 18652, 
  "deserved": 11639, 
  "simplify": 9769, 
  "beeinträchtigt": 59877, 
  "Ost": 43145, 
  "wrinkles": 30439, 
  "tigkeits@@": 52983, 
  "deserves": 6219, 
  "pracht@@": 66286, 
  "Science-@@": 59510, 
  "DER@@": 30749, 
  "Before": 11053, 
  "Omni@@": 37449, 
  "inte": 38938, 
  "Selbständigkeit": 66287, 
  "inta": 38545, 
  "Shaw": 13927, 
  "terrorists": 5199, 
  "zialitäten": 70959, 
  "Driver": 23443, 
  "into": 81, 
  "Luxushotels": 67690, 
  "intu": 61346, 
  "Wissenschaftliche": 61347, 
  "Sachverhalt": 66288, 
  "aa@@": 37589, 
  "contributor": 15987, 
  "Shah": 16835, 
  "-Krei@@": 70961, 
  "zzled": 19013, 
  "sightseeing": 11603, 
  "uncertainties": 9057, 
  "span": 12124, 
  "Plakat": 69084, 
  "Kreditkartennummer": 67285, 
  "tasting": 13439, 
  "nails": 19851, 
  "spac": 64067, 
  "supervise": 22128, 
  "Gruyère": 41964, 
  "obsol@@": 41549, 
  "Verteiler": 66290, 
  "gases": 8822, 
  "Sein": 37450, 
  "Charme": 48768, 
  "edu@@": 40551, 
  "verstreut": 66912, 
  "downloadable": 28569, 
  "User": 8495, 
  "spas": 26043, 
  "weine": 63411, 
  "organisers": 12554, 
  "gitar@@": 58976, 
  "Daniel@@": 21408, 
  "CT@@": 13224, 
  "manische": 68094, 
  "Harn@@": 45864, 
  "ap-@@": 37969, 
  "Dienststellen": 70963, 
  "theken": 70964, 
  "Ber@@": 3089, 
  "Verstoß": 64075, 
  "bluefin": 28614, 
  "ани@@": 40859, 
  "l@@": 951, 
  "deductions": 24367, 
  "jacke": 72888, 
  "CY@@": 36680, 
  "Graben": 50276, 
  "Spezifikationen": 66292, 
  "Contest": 22662, 
  "Journ@@": 20457, 
  "Amnesty": 14169, 
  "zwischen@@": 61033, 
  "Resolution": 13245, 
  "considerable": 2718, 
  "open@@": 17678, 
  "fades": 33517, 
  "tschechischen": 58720, 
  "middle": 2014, 
  "VILLA": 44939, 
  "思@@": 57087, 
  "Booth": 24467, 
  "möchte": 48680, 
  "Memorandum": 33684, 
  "Appartementh@@": 52272, 
  "Filmfestival": 53215, 
  "leicht": 50512, 
  "maturity": 13014, 
  "Alpin@@": 46719, 
  "Lukashenko": 20469, 
  ".at": 32963, 
  "faded": 19052, 
  "Antiquitäten": 66293, 
  "mau@@": 22791, 
  "organ@@": 19291, 
  "faden": 70967, 
  "schlechteren": 70968, 
  "Eleganz": 70085, 
  "sparteien": 70969, 
  "camp": 3168, 
  "wuchs": 63413, 
  "Distribut@@": 45039, 
  "istically": 21534, 
  "influence": 1763, 
  "Bartels": 34207, 
  "rotary": 26070, 
  "globally": 7935, 
  "Catalogue": 37024, 
  "diverse": 4799, 
  "chat": 6263, 
  "eddin": 44273, 
  "Sierra": 8453, 
  "bewusstsein": 66294, 
  "Parkett": 58721, 
  "sche": 28647, 
  "Rhein-Main-@@": 51857, 
  "questionnaire": 20617, 
  "trick": 9245, 
  "Imper@@": 44462, 
  "Friedrichshain": 44345, 
  "CANoe": 45865, 
  "cushi@@": 24792, 
  "ȯ@@": 63415, 
  "uranium": 9014, 
  "Bartolomé": 46022, 
  "9.2": 22879, 
  "flagship": 11813, 
  "conceptions": 25861, 
  "mächtig": 66295, 
  "Hotline": 42879, 
  "和": 61348, 
  "kommerzi@@": 72931, 
  "δ@@": 39953, 
  "revision": 6420, 
  "Paketes": 66296, 
  "präsentiert": 52118, 
  "sard@@": 31997, 
  "Julius": 19311, 
  "Materialien": 52071, 
  "long-lasting": 22116, 
  "herkömmliche": 72868, 
  "reglem@@": 61349, 
  "suppression": 18110, 
  "Ful@@": 9047, 
  "reinsurance": 31302, 
  "Paketen": 70975, 
  "Interessierten": 66297, 
  "線": 59879, 
  "lang": 25527, 
  "lane": 9081, 
  "land": 640, 
  "methodologies": 32351, 
  "fundament@@": 50795, 
  "algorithm": 20040, 
  "hinausgeht": 70976, 
  "produkt": 58723, 
  "Leipzig": 13197, 
  "unveröffent@@": 66298, 
  "gesicherten": 61350, 
  "restlichen": 57088, 
  "Radar": 36801, 
  "beverage": 14698, 
  "lans": 42631, 
  "singen": 45629, 
  "Ferdin@@": 47106, 
  "Abdeckung": 70978, 
  "premi@@": 16030, 
  "EZB": 61352, 
  "ang@@": 4566, 
  "Wöl@@": 57830, 
  "Jia": 37997, 
  "Experten": 54543, 
  "broaden": 17536, 
  "Jim": 4645, 
  "Tabletten": 70980, 
  "IDC": 34459, 
  "broader": 4793, 
  "Collado": 44922, 
  "agues": 36004, 
  "construc@@": 21448, 
  "Registri@@": 60229, 
  "istic": 7663, 
  "Notice": 33312, 
  "bilanz": 61353, 
  "Nütz@@": 70981, 
  "transferred": 5046, 
  "Jäger": 51662, 
  "börse": 55991, 
  "istin": 57831, 
  "protection@@": 45663, 
  "Encoder": 47759, 
  "S-@@": 10710, 
  "ö@@": 17131, 
  "Jürgen": 28913, 
  "contours": 30707, 
  "参@@": 61354, 
  "hints": 15952, 
  "unverhäl@@": 66299, 
  "resources": 767, 
  "versary": 53847, 
  "uploaded": 17006, 
  "press@@": 18549, 
  "Organ": 41473, 
  "drop@@": 37827, 
  "proizvo@@": 46558, 
  "dicker": 53272, 
  "ermäßigten": 70983, 
  "liegend": 60672, 
  "Islam@@": 17989, 
  "sc@@": 2073, 
  "fundierte": 63419, 
  "Legislaturperiode": 72611, 
  "Web-Site": 52273, 
  "petitions": 14398, 
  "Clin@@": 15583, 
  "beginnend": 61355, 
  "minerals": 15012, 
  "championship": 5734, 
  "ț@@": 59880, 
  "Markt": 36128, 
  "diploma": 20078, 
  "SV@@": 21977, 
  "Estonia": 10694, 
  "real-estate": 29694, 
  "harbor": 18274, 
  "landmines": 30576, 
  "CG": 33859, 
  "f": 2615, 
  "höher@@": 70987, 
  "berühmter": 70988, 
  "fewer": 3428, 
  "gerten": 63421, 
  "archipelago": 18493, 
  "world-class": 14097, 
  "renegoti@@": 17582, 
  "co-financing": 33803, 
  "alia": 10036, 
  "Nachrichten@@": 56446, 
  "Sl@@": 16467, 
  "camer@@": 23338, 
  "batter@@": 25583, 
  "590": 37337, 
  "125@@": 35705, 
  "Template": 40770, 
  "Kontextmenü": 70991, 
  "verschlechtern": 72863, 
  "besuchten": 70992, 
  "notwendigen": 55046, 
  "gerüstet": 63422, 
  "synchron@@": 18566, 
  "alie": 11374, 
  "Mosambik": 70860, 
  "Liebling@@": 70994, 
  "video": 859, 
  "notwendiges": 70995, 
  "Pin": 42098, 
  "dynamics": 11937, 
  "Bereich": 45040, 
  "fj@@": 33662, 
  "Transformation": 40478, 
  "peninsula": 11137, 
  "Kunstwerke": 66302, 
  "Technologie-@@": 59881, 
  "ገ@@": 66303, 
  "-of-@@": 18305, 
  "multimedia": 10093, 
  "Telegra@@": 5404, 
  "Aid@@": 34653, 
  "henceforth": 28224, 
  "Blockade": 52274, 
  "Rezeption": 51299, 
  "turnaround": 14305, 
  "Hapag@@": 66304, 
  "flowing": 10665, 
  "Handels": 50957, 
  "Torrox": 43237, 
  "chefs": 14690, 
  "berüch@@": 66305, 
  "announc@@": 30779, 
  "Privatsphäre": 59882, 
  "periodi@@": 51130, 
  "gefahren": 59883, 
  "Joy@@": 13274, 
  "Freedom": 9306, 
  "accommod@@": 42045, 
  "Occup@@": 13373, 
  "Nai@@": 32710, 
  "highly": 1295, 
  "seil@@": 52497, 
  "layout": 8305, 
  "fähige": 57049, 
  "fifteen": 9796, 
  "schwe@@": 66306, 
  "UNES@@": 56447, 
  "Begründer": 71000, 
  "insisted": 4488, 
  "credits": 7382, 
  "Recycling": 41250, 
  "ould": 11974, 
  "1931": 25336, 
  "fetch": 22361, 
  "Höflichkeit": 72876, 
  "headline": 10659, 
  "Mühlen": 57832, 
  "weltberühmte": 73049, 
  "survey": 2767, 
  "ankind": 57833, 
  "mussen": 63424, 
  "makes": 586, 
  "maker": 2966, 
  "1936": 20451, 
  "Category": 16714, 
  "reprocessing": 34079, 
  "Greenwich": 22217, 
  "category": 3229, 
  "сто@@": 40771, 
  "Tito": 33863, 
  "1934": 20091, 
  "Mass@@": 18542, 
  "willkommen": 55876, 
  "ridi@@": 31450, 
  "tick@@": 12846, 
  "wand@@": 42046, 
  "SGH-@@": 47904, 
  "Tuvok": 43238, 
  "streng@@": 59073, 
  "Kosten-": 73071, 
  "Ammoni@@": 50384, 
  "Laufzeit": 71001, 
  "Princesa": 45192, 
  "Menschheit": 58724, 
  "joy@@": 24179, 
  "Solo": 31494, 
  "confidence": 1553, 
  "skirche": 50385, 
  "bingen": 61357, 
  "Immunities": 37914, 
  "Sole": 31950, 
  "him": 155, 
  "Siegel": 33627, 
  "EU@@": 14446, 
  "Siegen": 45422, 
  "eleven": 12755, 
  "assuring": 24919, 
  "Sieger": 58725, 
  "NATO": 3047, 
  "AdLINK": 38041, 
  "ÿ": 49414, 
  "face-to-face": 21848, 
  "steh@@": 52729, 
  "entfernung": 71002, 
  "macro-financial": 33680, 
  "pencil": 23591, 
  "projektes": 63426, 
  "pfe": 63427, 
  "Kronplatz": 43586, 
  "ा@@": 13087, 
  "undeclared": 27468, 
  "-Roman": 39274, 
  "losis": 48160, 
  "Schott@@": 52786, 
  "Scheck": 51663, 
  "Jed@@": 30619, 
  "Patag@@": 38089, 
  "baby": 2653, 
  "Gutschein": 57439, 
  "Beschreibung": 49759, 
  "Winch": 42084, 
  "Regener@@": 47746, 
  "customer": 1263, 
  "Madam": 941, 
  "Steuersatz": 71005, 
  "integrating": 10859, 
  "STRA@@": 44171, 
  "verkehr@@": 61263, 
  "clients": 1760, 
  "Schlau@@": 63429, 
  "abgetan": 72544, 
  "paed@@": 22568, 
  "Cie@@": 52028, 
  "reserves": 3640, 
  "LM@@": 40405, 
  "dritte": 53848, 
  "itte": 21610, 
  "erwar@@": 58726, 
  "wedge": 24920, 
  "etti": 10520, 
  "KRO@@": 43239, 
  "etto": 17180, 
  "hervor@@": 66310, 
  "Rückgabe": 57089, 
  "process": 276, 
  "lock": 4639, 
  "etta": 6412, 
  "ette": 3417, 
  "promotional": 11440, 
  "wußte": 70846, 
  "argumentierte": 66311, 
  "abgehalten": 66312, 
  "Mariahil@@": 44903, 
  "itta": 31606, 
  "gegenseitig": 63430, 
  "Bounty": 35706, 
  "etts": 29531, 
  "begehrte": 68475, 
  "rods": 19155, 
  "Valdi@@": 36308, 
  "ameters": 61359, 
  "Bam@@": 18910, 
  "D.C.": 7500, 
  "teilnimmt": 71007, 
  "Sug@@": 32949, 
  "malware": 16731, 
  "stadiums": 21653, 
  "lagoons": 37451, 
  "Remot@@": 48790, 
  "HAM@@": 47984, 
  "zeug@@": 56448, 
  "bilingual": 27397, 
  "hormones": 17138, 
  "ez@@": 13860, 
  "comedy": 5958, 
  "intelligent": 6333, 
  "RiT": 71010, 
  "Haftung": 50245, 
  "Solutions": 9791, 
  "Geruch": 66313, 
  "amerika": 66314, 
  "Nathan": 11862, 
  "Färbung": 71011, 
  "auszuprobieren": 71012, 
  "Hyperlink": 63432, 
  "Kundenorientierung": 71013, 
  "IA@@": 21542, 
  "thotel": 43771, 
  "inger@@": 29032, 
  "Grund-": 69920, 
  "gemessenen": 71014, 
  "ease": 4767, 
  "Fahrradverleih": 71016, 
  "Gospel": 29193, 
  "foremost": 7544, 
  "realized": 5969, 
  "CN@@": 8099, 
  "Erde": 54154, 
  "democracy": 1049, 
  "manpower": 25436, 
  "blem@@": 31694, 
  "house@@": 12908, 
  "VÖGELE": 40700, 
  "robot": 11628, 
  "gleich@@": 55381, 
  "One": 2590, 
  "Meci@@": 46293, 
  "last-@@": 17990, 
  "scha": 39423, 
  "geräumige": 71020, 
  "realizes": 27934, 
  "60-@@": 11772, 
  "gedacht": 57763, 
  "Vernun@@": 66317, 
  "opinion": 891, 
  "lack@@": 19863, 
  "evolutionary": 19554, 
  "thigh": 22512, 
  "vici": 47160, 
  "mute": 32289, 
  "muth": 42708, 
  "insight": 8165, 
  "Lif@@": 41633, 
  "researching": 20979, 
  "Geldern": 63433, 
  "Crimp@@": 51858, 
  "Versuch@@": 71021, 
  "deduc@@": 16696, 
  "directs": 21597, 
  "Wartung": 59886, 
  "entstand": 56449, 
  "interoperable": 38476, 
  "KT": 38870, 
  "perfect": 1301, 
  "Innenst@@": 58728, 
  "Reisende": 66318, 
  "wundern": 78064, 
  "Scientific": 14128, 
  "Emergency": 15410, 
  "Messdaten": 73507, 
  "speziellen": 56450, 
  "Chant@@": 37085, 
  "terrac@@": 45735, 
  "Brooks": 11306, 
  "Cabinet": 9321, 
  "meantime": 7160, 
  "Diversi@@": 48561, 
  "Championships": 12976, 
  "spezielles": 63435, 
  "stalled": 13287, 
  "Neujahr": 75097, 
  "sow@@": 49287, 
  "derivative": 20379, 
  "Home": 3478, 
  "Erfüll@@": 63436, 
  "wundert": 71022, 
  "auflö@@": 62726, 
  "physicians": 13205, 
  "morgen": 51850, 
  "Vec@@": 29402, 
  "Sender": 39583, 
  "staat": 49521, 
  "Register": 18853, 
  "Extensions": 47489, 
  "fai@@": 16881, 
  "avenues": 20531, 
  "Senden": 48353, 
  "Works": 11519, 
  "Tabelle": 59888, 
  "realize": 5849, 
  "ीय": 38939, 
  "furnace": 28880, 
  "Makler": 63437, 
  "恋@@": 73205, 
  "Zut@@": 48959, 
  "scenic": 13723, 
  "Flecken": 71024, 
  "Emmanuel": 23615, 
  "außer": 55382, 
  "PVC-@@": 50386, 
  "anzahl": 63438, 
  "Wenceslas": 30487, 
  "shortage": 8498, 
  "Hoteles": 39584, 
  "glasses": 11364, 
  "homogeneous": 28959, 
  "enco@@": 29571, 
  "卦": 66322, 
  "卡": 71025, 
  "Storm": 13429, 
  "Vorbereitungen": 63439, 
  "Ungar@@": 50796, 
  "spe@@": 14477, 
  "Anniversary": 28528, 
  "earnest@@": 33744, 
  "Wahrschein@@": 71026, 
  "deficiency": 20787, 
  "books": 2113, 
  "irrit@@": 16573, 
  "carbon@@": 33568, 
  "off@@": 3759, 
  "totalit@@": 49180, 
  "witness": 4635, 
  "Viren": 59889, 
  "CAMP@@": 37396, 
  "signano": 46720, 
  "ssing": 24455, 
  "fundamentally": 8966, 
  "geschmackvoll": 61361, 
  "eintritt": 63440, 
  "free@@": 12953, 
  "boutique": 12173, 
  "Coupé": 40772, 
  "stol@@": 48452, 
  "katholischen": 60395, 
  "南": 61362, 
  "gek@@": 52072, 
  "umzuwandeln": 71028, 
  "schwach": 77642, 
  "Wak@@": 19555, 
  "bedauer@@": 66669, 
  "Mobiltelefon": 71029, 
  "enders": 30249, 
  "model": 1093, 
  "EID@@": 40773, 
  "Vielen": 61364, 
  "domination": 17550, 
  "STEYR": 45664, 
  "trete": 57293, 
  "welches": 49760, 
  "greedy": 26214, 
  "herab@@": 63442, 
  "mangelhaften": 66844, 
  "-10": 32204, 
  "ا@@": 27505, 
  "crun@@": 23592, 
  "Achtung": 54177, 
  "Folklor@@": 57090, 
  "harmonische": 66325, 
  "obli@@": 26487, 
  "liant": 36886, 
  "devoting": 29041, 
  "existieren": 69158, 
  "techni@@": 51300, 
  "Angola": 16618, 
  "Harvard": 8659, 
  "Geburtstags@@": 54894, 
  "Wesentliche": 66326, 
  "transferable": 29926, 
  "could": 106, 
  "WIFI": 37981, 
  "weh@@": 53849, 
  "Jesus": 7428, 
  "length": 3358, 
  "ratification": 7792, 
  "ert@@": 31613, 
  "Reb@@": 8804, 
  "achtung": 63443, 
  "3km": 37575, 
  "steig": 49274, 
  "repeats": 26912, 
  "relays": 31640, 
  "Louisi@@": 47422, 
  "Bemerkungen": 59890, 
  "̇@@": 71031, 
  "Hotel": 501, 
  "starken": 58729, 
  "starkem": 71032, 
  "Gründen": 50363, 
  "scene": 2112, 
  "soothing": 23491, 
  "tot@@": 7888, 
  "damit": 40933, 
  "homogene": 59891, 
  "starker": 48063, 
  "scent": 21130, 
  "Ries": 39844, 
  "St.-@@": 48854, 
  "Irak": 47031, 
  "eship": 27047, 
  "Ende@@": 24191, 
  "allgemeinen": 54534, 
  "programmier@@": 71033, 
  "Eastern": 2480, 
  "festival": 3653, 
  "techn@@": 15221, 
  "nt@@": 41385, 
  "opening-up": 37147, 
  "onent": 35049, 
  "emaster": 41965, 
  "ए": 43405, 
  "Obersten": 71035, 
  "cats": 8270, 
  "allgemeiner": 66330, 
  "las@@": 10098, 
  "Wild@@": 16534, 
  "Iraq": 1018, 
  "peripheral": 12104, 
  "interests": 1015, 
  "enforcement": 3573, 
  "even@@": 21096, 
  "vigorous": 15665, 
  "quarry": 30343, 
  "Dé@@": 21271, 
  "encryp@@": 40148, 
  "heisst": 57092, 
  "gence": 32776, 
  "Roosevelt": 17304, 
  "überraschende": 71036, 
  "targeted": 3513, 
  "唸@@": 66154, 
  "Flüssigkeits@@": 66333, 
  "gency": 35707, 
  "umsonst": 55384, 
  "o@@": 801, 
  "Stange": 57988, 
  "kr@@": 22738, 
  "ektur": 61366, 
  "umgestaltet": 66334, 
  "Physiker": 71038, 
  "Golf@@": 41966, 
  "roulette": 28484, 
  "arez": 11908, 
  "Vatanen": 44252, 
  "REACH-@@": 53503, 
  "Barro@@": 34141, 
  "Bett@@": 32465, 
  "oth": 27691, 
  "WH@@": 24848, 
  "optimum": 10468, 
  "Gummi": 57477, 
  "jüngst": 71039, 
  "assumes": 12189, 
  "Kuba": 53276, 
  "Hid@@": 20033, 
  "diar@@": 22263, 
  "UCITS": 40100, 
  "heat@@": 27552, 
  "Sof@@": 27430, 
  "Schiffs@@": 52730, 
  "false": 4478, 
  "ammon@@": 29363, 
  "zucker@@": 63792, 
  "Glar@@": 45223, 
  "Pass@@": 25830, 
  "Montreux": 32777, 
  "tonight": 4536, 
  "Secret": 11913, 
  "-Spezi@@": 63449, 
  "SIR@@": 41028, 
  "händler": 55385, 
  "atia": 36252, 
  "Swedes": 28891, 
  "depict": 26565, 
  "atie": 13259, 
  "dishes": 4427, 
  "abdic@@": 30140, 
  "contest@@": 12008, 
  "atik": 41967, 
  "atim": 42554, 
  "atin": 17902, 
  "atio": 34930, 
  "Thé@@": 46721, 
  "atis": 26941, 
  "possi@@": 26760, 
  "PR@@": 3120, 
  "ungslos": 64283, 
  "Pe@@": 5387, 
  "Veranst@@": 61368, 
  "kenntnisse": 59892, 
  "Alghero": 41813, 
  "universit@@": 36899, 
  "worldwide": 1810, 
  "Progno@@": 52499, 
  "teria": 33864, 
  "Plünderung": 71041, 
  "manor": 27077, 
  "閥": 74886, 
  "Bayreu@@": 63451, 
  "Geschwister": 59893, 
  "tropische": 63452, 
  "Topol@@": 52276, 
  "spro@@": 22525, 
  "terin": 55386, 
  "SLR": 20955, 
  "Swimming-@@": 53554, 
  "Mode": 21035, 
  "nerin": 53571, 
  "Modi": 21627, 
  "tired": 7727, 
  "POOL": 48354, 
  "Reserve": 4884, 
  "so-called": 2246, 
  "Ahn@@": 48671, 
  "Diff@@": 36922, 
  "placement": 10829, 
  "Papastam@@": 66338, 
  "Montpellier": 29871, 
  "GFP": 52985, 
  "bred": 15129, 
  "remot@@": 28889, 
  "ventive": 40253, 
  "Pru@@": 22061, 
  "onau@@": 13239, 
  "Darlehen": 67237, 
  "brew": 28328, 
  "gegen@@": 58730, 
  "bres": 27351, 
  "χ@@": 45426, 
  "Ermu@@": 55064, 
  "stehen": 45771, 
  "Trichet": 22821, 
  "z.B": 43205, 
  "rings": 10485, 
  "arib@@": 44727, 
  "Goo@@": 10099, 
  "Menschen-": 71047, 
  "schmackhafte": 78577, 
  "Internetnutzer": 71048, 
  "jap@@": 23643, 
  "cottage": 15292, 
  "GMBH": 43240, 
  "greenhouse": 6353, 
  "Höfe": 50433, 
  "Informationsaustausch": 71738, 
  "Neop@@": 49063, 
  "Bäume": 58219, 
  "taps": 23094, 
  "leistungsstarker": 79051, 
  "gg@@": 15130, 
  "Entdeck@@": 71050, 
  "jav": 61372, 
  "jaw": 19253, 
  "basieren": 67574, 
  "jar": 18711, 
  "Update": 14954, 
  "terminal": 7290, 
  "entities": 8999, 
  "jal": 41703, 
  "bombings": 10507, 
  "tape": 6232, 
  "jak": 31686, 
  "jah": 21152, 
  "Radio-": 71051, 
  "riding": 5501, 
  "jad": 38546, 
  "Tscher@@": 60297, 
  "jab": 19128, 
  "hochwertige": 58731, 
  "Scho@@": 22504, 
  "parano@@": 31211, 
  "Malces@@": 49181, 
  "ди@@": 38614, 
  "iro": 16343, 
  "Komitee": 73390, 
  "pel@@": 12260, 
  "Keep": 24015, 
  "Mängeln": 71053, 
  "kab@@": 38477, 
  "produc@@": 18693, 
  "Minen@@": 63102, 
  "dot@@": 14584, 
  "Rating": 35437, 
  "aes": 49640, 
  "aer": 44555, 
  "aet": 52073, 
  "keiner": 55387, 
  "feldern": 71055, 
  "Capo@@": 33466, 
  "ganzen": 50962, 
  "aes@@": 34303, 
  "comprising": 13668, 
  "taxes": 2198, 
  "Tasse": 71056, 
  "stufe": 53572, 
  "stuff": 3623, 
  "origin@@": 24383, 
  "gerte": 60303, 
  "ganzer": 63457, 
  "straight@@": 42794, 
  "taxed": 21688, 
  "keinen": 49182, 
  "ael": 14673, 
  "憶@@": 78813, 
  "iPad": 8716, 
  "Ps": 10296, 
  "Heller": 30440, 
  "äck": 57095, 
  "schizophren@@": 21628, 
  "prises": 26523, 
  "moplas@@": 54251, 
  "frame": 4801, 
  "differentials": 37652, 
  "diplomatischen": 61374, 
  "Präpar@@": 63458, 
  "Joachim": 27048, 
  "acidi@@": 35824, 
  "Adoption": 43055, 
  "video@@": 32538, 
  "Krim": 48260, 
  "Interessens@@": 66345, 
  "consi@@": 27856, 
  "Po": 30441, 
  "PR": 8858, 
  "PS": 8467, 
  "PP": 17833, 
  "trat@@": 37430, 
  "PV": 20234, 
  "destiny": 14990, 
  "PT": 6495, 
  "PU": 37511, 
  "compar@@": 28445, 
  "nuclear": 923, 
  "Suit@@": 42155, 
  "vergla@@": 71058, 
  "PC": 3011, 
  "least-developed": 36812, 
  "PA": 7793, 
  "PF": 31455, 
  "PG": 22863, 
  "PD": 11118, 
  "PE": 14930, 
  "Cus@@": 29774, 
  "PI": 19637, 
  "PN": 13605, 
  "PO": 25200, 
  "PL": 5209, 
  "PM": 3816, 
  "P2": 42555, 
  "P3": 45772, 
  "keynote": 23676, 
  "P1": 40101, 
  "instig@@": 26524, 
  "tones": 12538, 
  "trendigen": 76301, 
  "Flus@@": 58732, 
  "Chi": 27210, 
  "mind@@": 32716, 
  "uttons": 53663, 
  "jeweilige": 57096, 
  "Ritu@@": 50007, 
  "ameri@@": 52500, 
  "timent": 41474, 
  "Berechnung": 57097, 
  "resem@@": 29647, 
  "lawsuit": 5512, 
  "Coreper": 42047, 
  "lightning": 15408, 
  "P-": 54249, 
  "Linksetzung": 63460, 
  "Sorrento": 29114, 
  "स्@@": 25261, 
  "ša": 43146, 
  "angezeigte": 71060, 
  "Circus": 25787, 
  "še": 45550, 
  "gleiches": 63461, 
  "tigation": 13305, 
  "gleichem": 66347, 
  "Yun@@": 30488, 
  "honey": 12358, 
  "gleichen": 50797, 
  "莹@@": 71061, 
  "award-winning": 12357, 
  "Almeria": 35825, 
  "wil@@": 10353, 
  "icus": 35708, 
  "zinsen": 66348, 
  "Glockenturm": 71062, 
  "mäh@@": 71063, 
  "conclude": 3919, 
  "gesund": 55428, 
  "Arafat": 17256, 
  "team@@": 37148, 
  "Haltestellen": 71004, 
  "Ask@@": 30008, 
  "gang@@": 15744, 
  "kindergarten": 22436, 
  "geändert": 49183, 
  "gespräch": 59894, 
  "Tok@@": 23810, 
  "erlebt": 59895, 
  "Yu@@": 11669, 
  "parag@@": 48770, 
  "rus@@": 19543, 
  "sch-@@": 47107, 
  "genetic": 6086, 
  "Nami@@": 39360, 
  "Macartney": 41178, 
  "entitle": 34820, 
  "Modern": 12534, 
  "-Sens@@": 57836, 
  "Zusicherung": 66350, 
  "aur@@": 13596, 
  "Headquarters": 30009, 
  "Kompl@@": 58634, 
  "Alex@@": 17484, 
  "ists": 2414, 
  "rieren": 66351, 
  "zeit@@": 40621, 
  "coherence": 11141, 
  "Klä@@": 71066, 
  "Principe": 39637, 
  "hydr@@": 18111, 
  "venge@@": 42959, 
  "Sacrédeus": 44832, 
  "STOXX": 44274, 
  "Hostels": 36681, 
  "Zap@@": 37785, 
  "岸@@": 66352, 
  "über@@": 39503, 
  "Buchen": 59462, 
  "edel@@": 35438, 
  "Andro@@": 30442, 
  "maß@@": 71067, 
  "sacrifice": 9085, 
  "fut@@": 30094, 
  "Number": 14387, 
  "tible": 13674, 
  "Böhmen": 66353, 
  "scanned": 21493, 
  "Bethlehem": 30299, 
  "öf@@": 57837, 
  "Schifffahrts@@": 58733, 
  "Battle": 12386, 
  "Eintrag@@": 63453, 
  "ы@@": 30954, 
  "arote": 57098, 
  "Mong@@": 37538, 
  "playgrounds": 32778, 
  "Cañ@@": 37295, 
  "Besichtigungen": 73510, 
  "Humank@@": 53851, 
  "Piper": 24849, 
  "HAD@@": 44421, 
  "boo@@": 8437, 
  "psychische": 71068, 
  "scapego@@": 35544, 
  "uccino": 38042, 
  "Fuel": 25232, 
  "Regelung": 56452, 
  "greater": 805, 
  "exik@@": 71071, 
  "denial": 12374, 
  "veran@@": 40648, 
  "Dun@@": 4016, 
  "carbohydrates": 29614, 
  "qualitäts@@": 61376, 
  "greifen": 59897, 
  "沿@@": 71073, 
  "Regular": 39585, 
  "thu@@": 16408, 
  "FLO@@": 38043, 
  "Straftat": 62974, 
  "r.@@": 35378, 
  "betre@@": 54951, 
  "unimaginable": 26488, 
  "spell": 7581, 
  "complemented": 19208, 
  "preci@@": 45427, 
  "phi@@": 27620, 
  "Diplomatie": 73535, 
  "Decken": 66358, 
  "ebo@@": 14144, 
  "Asturias": 36858, 
  "Cair@@": 28843, 
  "Decker": 33518, 
  "iko@@": 42888, 
  "view@@": 26799, 
  "partei@@": 57839, 
  "Vorar@@": 56540, 
  "füllung": 61388, 
  "identity": 2942, 
  "diabetes": 7348, 
  "audit": 8067, 
  "argue": 4346, 
  "off": 188, 
  "Klicks": 64282, 
  "functionalities": 27762, 
  "euthan@@": 38148, 
  "Chenn@@": 53359, 
  "Pöl@@": 43869, 
  "schriftlich": 51024, 
  "patterns": 6351, 
  "phal": 39275, 
  "PRO@@": 12616, 
  "Scro@@": 35660, 
  "oft": 25627, 
  "filesystem": 29118, 
  "Einen": 66360, 
  "diversify": 20437, 
  "audio": 4425, 
  "1.27": 33212, 
  "1.25": 24407, 
  "sä@@": 49288, 
  "reefs": 22450, 
  "newest": 9449, 
  "Programm-@@": 66361, 
  "sselt": 71077, 
  "Argum@@": 48554, 
  "storage": 3153, 
  "Vossloh": 39664, 
  "x02BC": 39167, 
  "foothills": 27483, 
  "580": 33242, 
  "Jab@@": 21570, 
  "Ri@@": 4001, 
  "Lac": 34352, 
  "geschossen": 61377, 
  "MASCHINE": 45357, 
  "web": 1616, 
  "weg": 25201, 
  "cracy": 25202, 
  "Ausbildungen": 70031, 
  "wed": 3592, 
  "wei": 20345, 
  "ampton": 14257, 
  "wen": 10823, 
  "wem": 54179, 
  "wel": 21729, 
  "Paddington": 28691, 
  "wer": 5804, 
  "neoliberal": 21671, 
  "verwechselt": 76323, 
  "wet": 8739, 
  "festgeschrieben": 70462, 
  "Wachstum": 59900, 
  "practise": 15745, 
  "villagers": 15256, 
  "KK@@": 39909, 
  "Verdi": 32498, 
  "tics": 3727, 
  "Schul@@": 24806, 
  "ungsh@@": 49184, 
  "evenings": 12229, 
  "archeological": 31546, 
  "draconian": 28098, 
  "Head@@": 18913, 
  "Kat@@": 9064, 
  "Skip@@": 49415, 
  "tice": 23450, 
  "gambling": 8557, 
  "tich": 50001, 
  "Tauern": 36316, 
  "Kag@@": 29873, 
  "tick": 14246, 
  "pier": 23215, 
  "you": 35, 
  "ähne": 71083, 
  "tico": 11540, 
  "emme": 45666, 
  "nichtig": 71084, 
  "Führ@@": 51859, 
  "Giro@@": 41817, 
  "emma": 37925, 
  "leader": 905, 
  "ra@@": 1160, 
  "liebe": 53279, 
  "aufbau": 62693, 
  "emmt": 73598, 
  "Micro@@": 13537, 
  "Agents": 32255, 
  "diso@@": 35379, 
  "misch@@": 23752, 
  "EU-15": 45667, 
  "become": 317, 
  "Golfer": 53968, 
  "liebt": 53852, 
  "Ausflugs@@": 76667, 
  "Gare": 31007, 
  "庆@@": 63470, 
  "grids": 28725, 
  "cow@@": 19129, 
  "rhin@@": 21434, 
  "geseh@@": 59391, 
  "fluss": 58734, 
  "Palmen@@": 50205, 
  "₂": 53280, 
  "G-8": 30219, 
  "gymnastics": 28805, 
  "ERG@@": 41386, 
  "chin@@": 18085, 
  "flush": 22451, 
  "authoritarian": 12393, 
  "ots": 3918, 
  "Nomin@@": 38615, 
  "recognition": 2861, 
  "Warrior": 30183, 
  "contested": 13088, 
  "B.C.": 21332, 
  "Wurm@@": 55389, 
  "Stereot@@": 52502, 
  "Defi@@": 41875, 
  "Gültigkeits@@": 71086, 
  "Sloven@@": 39362, 
  "Savi@@": 34197, 
  "winzigen": 66362, 
  "passion": 5771, 
  "Tibet@@": 48855, 
  "Citrix": 41463, 
  "Sortim@@": 61378, 
  "biology": 14181, 
  "Zand@@": 51828, 
  "autonomen": 63471, 
  "無@@": 63472, 
  "lination": 36619, 
  "demonstration": 7223, 
  "menstru@@": 32717, 
  "pressure": 899, 
  "Utopia": 41068, 
  "Donn@@": 11335, 
  "Utopie": 59903, 
  "asiens": 66364, 
  "imaginary": 23921, 
  "Kalkulation": 72042, 
  "abdecken": 71089, 
  "Southampton": 14204, 
  "heimat@@": 55572, 
  "ministr@@": 17369, 
  "lifestyle": 6444, 
  "gelesen": 63474, 
  "tiglione": 77499, 
  "Trupp@@": 71091, 
  "】": 49641, 
  "VON": 52295, 
  "Gedicht": 67435, 
  "Bod@@": 32304, 
  "langes": 44754, 
  "langer": 44652, 
  "langem": 66365, 
  "langen": 51919, 
  "Biodiver@@": 66368, 
  "」": 66369, 
  "『": 57840, 
  "』": 53076, 
  "tioners": 31027, 
  "。": 52503, 
  "Barthol@@": 36964, 
  "documentary": 6714, 
  "VOY": 46189, 
  "swimming": 2711, 
  "genannten": 50662, 
  "letters": 4523, 
  "Assy@@": 36429, 
  "unfavourable": 27124, 
  "å@@": 16845, 
  "sharpness": 33331, 
  "针@@": 71092, 
  "Schreyer": 27003, 
  "trag@@": 43870, 
  "gastronomy": 19805, 
  "り": 61912, 
  "Ö@@": 15003, 
  "alumin@@": 45329, 
  "Versicherungsunternehmen": 71093, 
  "COND@@": 40935, 
  "cultivated": 15783, 
  "prescri@@": 23188, 
  "initially": 3279, 
  "Spam@@": 41004, 
  "Mexiko": 57102, 
  "Brand@@": 11012, 
  "terminated": 17693, 
  "elinux": 47189, 
  "interrupted": 13859, 
  "Û@@": 56455, 
  "peac@@": 11579, 
  "Anhänger": 65843, 
  "Dr@@": 15526, 
  "187@@": 39883, 
  "ppen@@": 33171, 
  "liation": 31354, 
  "beratungen": 71095, 
  "undurch@@": 71096, 
  "ketball": 59904, 
  "Fotze": 61379, 
  "privaten": 51665, 
  "Aufstellungs@@": 71098, 
  "rhythmic": 29927, 
  "Essay": 47598, 
  "Jubil@@": 23631, 
  "kman": 31401, 
  "aufdecken": 71099, 
  "yarns": 34588, 
  "tson": 12407, 
  "Meca": 44728, 
  "Megapixels": 35218, 
  "radioaktive": 71100, 
  "Contract": 21933, 
  "Winzer": 54952, 
  "privilege": 10073, 
  "Unic@@": 29317, 
  "geile": 54550, 
  "Healthcare": 17112, 
  "zw@@": 35595, 
  "fragmentation": 17822, 
  "syst@@": 32954, 
  "semiti@@": 49355, 
  "Myanmar": 8516, 
  "places": 1380, 
  "zahlreichen": 51455, 
  "excitement": 9611, 
  "placed": 1792, 
  "D3@@": 45330, 
  "Vorder@@": 49064, 
  "reciproc@@": 33955, 
  "boar@@": 19292, 
  "deliver": 2358, 
  "gebil@@": 66373, 
  "treten": 54181, 
  "Executive": 4254, 
  "orials": 33954, 
  "adly": 31008, 
  "nurses": 10405, 
  "Sucher@@": 77686, 
  "arro@@": 25988, 
  "thermo@@": 18669, 
  "begleiten": 59782, 
  "ガ@@": 71106, 
  "onation": 21873, 
  "Nato": 15550, 
  "ম@@": 69112, 
  "Darwin": 17007, 
  "oscil@@": 35770, 
  "Kick": 41005, 
  "gerufene": 67783, 
  "effected": 25052, 
  "wertvolle": 70229, 
  "compared": 1293, 
  "ァ@@": 73428, 
  "Nachbesser@@": 62801, 
  "nonetheless": 4814, 
  "deadly": 6498, 
  "diamet@@": 38046, 
  "7,5": 47108, 
  "を@@": 55879, 
  "lately": 14195, 
  "aufgehoben": 58015, 
  "compares": 15784, 
  "details": 1152, 
  "邑": 71108, 
  "behold": 10954, 
  "Corp.": 6525, 
  "vergleichbare": 71109, 
  "illusion": 14822, 
  "Structure": 37856, 
  "Schlich@@": 56457, 
  "February": 1274, 
  "repeat": 3910, 
  "polizei": 54551, 
  "zhou": 29403, 
  "Your@@": 34175, 
  "Konflikt@@": 59658, 
  "sprä@@": 64348, 
  "multinationale": 66374, 
  "outlets": 9631, 
  "istently": 47033, 
  "U": 3312, 
  "ULL": 42796, 
  "möglichkeiten": 54040, 
  "multinationals": 15480, 
  "repeal": 13995, 
  "Gutach@@": 78518, 
  "machbar": 59906, 
  "DF@@": 22194, 
  "Oze@@": 60141, 
  "searches": 10661, 
  "zahlreich": 63099, 
  "verstorben": 71111, 
  "Corps": 10931, 
  "insec@@": 30010, 
  "concer@@": 19137, 
  "Charakteren": 78005, 
  "compete": 4292, 
  "searched": 11230, 
  "Nachteil": 63483, 
  "78@@": 15749, 
  "flakes": 31877, 
  "gardens": 5474, 
  "Hawaii": 9863, 
  "Deauville": 41550, 
  "dote": 26322, 
  "通@@": 63484, 
  "Spani@@": 17611, 
  "divers": 15328, 
  "magnetic": 10606, 
  "surfers": 21791, 
  "Kensington": 20034, 
  "rough@@": 11980, 
  "London": 602, 
  "nursery": 19090, 
  "äumen": 71113, 
  "cervical": 25466, 
  "onym": 47231, 
  "Metrostation": 66378, 
  "test@@": 25309, 
  "integrity": 6076, 
  "rebr@@": 33797, 
  "Mosel": 48702, 
  "Buttiglione": 40406, 
  "anderweitige": 71114, 
  "onus": 31688, 
  "Agu@@": 18224, 
  "unanimity": 12238, 
  "討@@": 71115, 
  "farben": 57068, 
  "lington": 11120, 
  "worte": 63485, 
  "massen@@": 63486, 
  "neighbours": 5838, 
  "Heim": 49065, 
  "Erläuterungen": 66379, 
  "Organisation@@": 61384, 
  "Marg@@": 32718, 
  "Einbau": 63487, 
  "worth": 1207, 
  "ssal": 49883, 
  "alternating": 28529, 
  "Harold": 19948, 
  "file": 1317, 
  "amorous": 44940, 
  "dominate": 11279, 
  "unde@@": 45551, 
  "Glo@@": 19839, 
  "Sex@@": 16819, 
  "eat@@": 27595, 
  "ECH@@": 42785, 
  "Pipe": 40039, 
  "replication": 33066, 
  "Enterprise": 5293, 
  "summarized": 31206, 
  "participatory": 30436, 
  "京@@": 58737, 
  "psychisch": 71116, 
  "Castill@@": 53854, 
  "lustigen": 58739, 
  "250@@": 20325, 
  "progression": 19934, 
  "sparung": 71117, 
  "Quell@@": 47819, 
  "eiver": 41476, 
  "platt@@": 51140, 
  "Paus@@": 49226, 
  "architektonisch": 67822, 
  "Hi": 32550, 
  "nacht": 36211, 
  "Blütezeit": 61386, 
  "Traum": 54483, 
  "abolishing": 20195, 
  "mati": 41106, 
  "speci@@": 14509, 
  "Russlands": 66380, 
  "styl@@": 45504, 
  "Dess@@": 48261, 
  "cabling": 37653, 
  "gebrau@@": 63488, 
  "erlaubnis": 71123, 
  "arres@@": 20220, 
  "Faschismus": 74617, 
  "Yuan": 35878, 
  "ramp": 18770, 
  "ნ@@": 57844, 
  "mend@@": 42479, 
  "machines": 2953, 
  "Einfluß": 66383, 
  "Schmidt": 14531, 
  "filtration": 18306, 
  "dismiss@@": 39072, 
  "üt": 57104, 
  "drü@@": 57845, 
  "Geb@@": 31304, 
  "ür": 44834, 
  "Mazda": 30184, 
  "Game": 5539, 
  "Gama": 45331, 
  "UNO@@": 47490, 
  "profession@@": 24642, 
  "ński": 34381, 
  "symbolisch": 66385, 
  "Nietzsche": 32869, 
  "projec@@": 21371, 
  "Delta@@": 45866, 
  "Befragten": 60116, 
  "vertretenden": 63490, 
  "residual": 21361, 
  "th@@": 1251, 
  "Campbell": 7932, 
  "tain@@": 11320, 
  "protection": 536, 
  "Einlagen": 71128, 
  "د@@": 41627, 
  "払@@": 69825, 
  "ebru@@": 41797, 
  "compati@@": 43091, 
  "steckt": 63491, 
  "obtained": 3597, 
  "Vil@@": 9384, 
  "ciana": 40164, 
  "Festnahmen": 71130, 
  "Jazz": 14066, 
  "standorte": 71131, 
  "Wahr@@": 58740, 
  "icons": 13362, 
  "Emper@@": 45208, 
  "ier@@": 10595, 
  "innehaben": 71132, 
  "flache": 71133, 
  "cano@@": 44835, 
  "Spruch": 71135, 
  "Little": 7924, 
  "stressed": 5373, 
  "YST@@": 37926, 
  "postponed": 9934, 
  "vá": 44346, 
  "⁵": 72387, 
  "Partner-@@": 57847, 
  "Nachrichten": 50964, 
  "chens": 39055, 
  "INTER@@": 28816, 
  "bru": 53281, 
  "king@@": 16405, 
  "Bank@@": 12294, 
  "Braun": 24866, 
  "bro": 25947, 
  "archaeological": 13938, 
  "bri": 46487, 
  "socioeconomic": 29695, 
  "flo@@": 5957, 
  "bre": 9467, 
  "bra": 15861, 
  "Google@@": 29017, 
  "vielfältig": 61389, 
  "devastation": 18836, 
  "solventen": 73874, 
  "Topolánek": 44729, 
  "Pous@@": 49761, 
  "Acht": 53855, 
  "coins": 9758, 
  "bundles": 29404, 
  "uniqu@@": 41251, 
  "⁄": 66386, 
  "Geltung": 66387, 
  "mon@@": 1972, 
  "heg@@": 43772, 
  "azzo": 31009, 
  "besuch": 55391, 
  "trin@@": 28653, 
  "bundled": 22998, 
  "echer@@": 47671, 
  "willst": 58742, 
  "separated": 7629, 
  "armament": 31740, 
  "Franc@@": 19091, 
  "gewertet": 66388, 
  "Chianti": 20736, 
  "separaten": 71138, 
  "Industrieanlagen": 52505, 
  "rigenten": 71139, 
  "24-Hour": 10196, 
  "hist@@": 33126, 
  "championships": 11716, 
  "desto": 46643, 
  "separater": 73895, 
  "separates": 22907, 
  "yard": 4323, 
  "blocking": 8529, 
  "Ie-@@": 49834, 
  "Ruhr@@": 42049, 
  "1991": 5743, 
  "1990": 4612, 
  "1993": 5376, 
  "1992": 5066, 
  "1995": 3985, 
  "1994": 4578, 
  "1997": 3265, 
  "ers": 356, 
  "1999": 2250, 
  "1998": 2943, 
  "Gebrau@@": 59907, 
  "ery": 4872, 
  "erz": 51303, 
  "versorgen": 70713, 
  "ere": 7582, 
  "erg": 40407, 
  "Initiative": 11502, 
  "era": 2258, 
  "Madrid": 3864, 
  "mages": 38283, 
  "upscale": 21989, 
  "ern": 18275, 
  "ero": 8946, 
  "eri": 20594, 
  "scripting": 29648, 
  "ON@@": 10958, 
  "BODY": 48590, 
  "Abb": 66390, 
  "Anlagenbau": 53575, 
  "Abe": 14362, 
  "indicated": 3323, 
  "渲@@": 71140, 
  "Puerta": 29172, 
  "Ralph": 15728, 
  "chirurg@@": 52883, 
  "Kompositionen": 66391, 
  "cartel": 15934, 
  "impair": 33685, 
  "indicates": 6575, 
  "f-@@": 17246, 
  "Abu": 6584, 
  "Puerto": 8107, 
  "yab@@": 37025, 
  "eloqu@@": 43241, 
  "vorgezogen": 71141, 
  "Kreis": 50034, 
  "Glück@@": 52731, 
  "谷@@": 71142, 
  "verborgen": 66392, 
  "recovery": 1941, 
  "Verlegung": 76346, 
  "carriers": 7361, 
  "provide": 348, 
  "nuts": 10559, 
  "OpenSSL": 43057, 
  "vot@@": 16377, 
  "itated": 15322, 
  "very": 88, 
  "Zivilbevölkerung": 71145, 
  "Stadthotel": 55392, 
  "Pizz@@": 38616, 
  "jeure": 51133, 
  "alcohol@@": 25282, 
  "resignation": 7948, 
  "restruc@@": 31242, 
  "Blei@@": 36859, 
  "bares": 47574, 
  "barer": 52506, 
  "ladder": 15967, 
  "Rückmeldung": 66393, 
  "Taten": 70634, 
  "pers@@": 17225, 
  "Lunch@@": 51304, 
  "barem": 73948, 
  "Schnitte": 71150, 
  "baren": 50002, 
  "arch": 10265, 
  "emann": 26723, 
  "車@@": 63493, 
  "complacent": 25262, 
  "ationist": 28654, 
  "bilities": 27049, 
  "elusive": 19484, 
  "Stunde": 53856, 
  "asiatischen": 70121, 
  "schneider": 49884, 
  "appreciate": 4015, 
  "Technische": 43425, 
  "fa@@": 5979, 
  "Delegation": 25203, 
  "Sphere": 36746, 
  "Baroque": 18788, 
  "schneiden": 61392, 
  "wertvoll": 66394, 
  "Lé@@": 28286, 
  "Zielen": 59116, 
  "motor-@@": 37857, 
  "Blu-@@": 59227, 
  "Höhen": 66395, 
  "minded": 10476, 
  "intercep@@": 16846, 
  "dik@@": 44836, 
  "stevere": 66396, 
  "cont@@": 10094, 
  "leug@@": 66398, 
  "BAT@@": 42960, 
  "E.@@": 9541, 
  "verfüg@@": 62339, 
  "UC@@": 7778, 
  "12.1": 33646, 
  "kammer@@": 50798, 
  "Fahrrad": 58534, 
  "12.5": 23729, 
  "innovative": 2252, 
  "containment": 22240, 
  "tops": 12702, 
  "certific@@": 40907, 
  "Videok@@": 63496, 
  "icher@@": 49185, 
  "organischen": 65020, 
  "GSM": 25399, 
  "Bands": 46862, 
  "tren@@": 15172, 
  "komponierte": 66401, 
  "tragen": 50121, 
  "ớ@@": 56459, 
  "achtel@@": 66402, 
  "trages": 43587, 
  "orum": 40179, 
  "ays": 9526, 
  "production": 448, 
  "Friedrich@@": 39415, 
  "AX@@": 36764, 
  "AM@@": 6348, 
  "CompactFlash": 37858, 
  "Kommentar": 52732, 
  "Beschäftig@@": 73979, 
  "coffee": 3014, 
  "schleife": 49186, 
  "​@@": 50514, 
  "repräsentative": 67159, 
  "Oman": 24755, 
  "microphone": 15953, 
  "safe": 1363, 
  "Loi@@": 48065, 
  "fuss@@": 43334, 
  "Motion": 15807, 
  "Stol@@": 32633, 
  "Beethoven": 22673, 
  "penetration": 19886, 
  "Omar": 13656, 
  "workflows": 31547, 
  "saft": 61394, 
  "lifelong": 10636, 
  "Kodi@@": 46190, 
  "KMail": 43913, 
  "abgeleitet": 52733, 
  "intel@@": 49187, 
  "Regionalpolitik": 63497, 
  "wn-@@": 35051, 
  "reasonably": 9474, 
  "Ho@@": 2692, 
  "l": 990, 
  "Archaeological": 34081, 
  "Client@@": 47257, 
  "reasonable": 3008, 
  "ophil@@": 27298, 
  "方@@": 63498, 
  "PROGRESS": 44057, 
  "dings": 13161, 
  "Phare": 38685, 
  "Quark@@": 48856, 
  "Hr@@": 32915, 
  "schlossen": 72646, 
  "dumping": 9657, 
  "Typs": 71157, 
  "ausgewogen": 72123, 
  "Maes": 32499, 
  "tsin@@": 51472, 
  "sler": 34472, 
  "gemeinsam": 48994, 
  "Gale@@": 47395, 
  "Type": 14063, 
  "Liefer-": 63499, 
  "chandel@@": 28892, 
  "perv@@": 32133, 
  "madura": 52734, 
  "marches": 24368, 
  "Gastfreundschaft": 60982, 
  "rence": 36784, 
  "trainers": 13921, 
  "andel@@": 46488, 
  "Downtown": 28184, 
  "Monnet": 30301, 
  "Werkstoffe": 57850, 
  "Gründ@@": 61522, 
  "Alge@@": 53283, 
  "陳@@": 66405, 
  "dus": 19724, 
  "lie@@": 22545, 
  "Metz@@": 36287, 
  "Meyer": 17823, 
  "Ankar@@": 55882, 
  "avi@@": 7003, 
  "disputed": 10004, 
  "lebte": 61396, 
  "barrier": 8713, 
  "artier": 63500, 
  "Salzburg": 9739, 
  "qualifications": 8062, 
  "orchester": 49417, 
  "Abtei": 54183, 
  "chargers": 33358, 
  "workforce": 7247, 
  "Primera": 41252, 
  "disputes": 6676, 
  "Taiwan@@": 47748, 
  "phon@@": 22535, 
  "taining": 39827, 
  "forcibly": 24821, 
  "detecting": 22410, 
  "adjour@@": 37026, 
  "emph@@": 49289, 
  "certified": 6791, 
  "issau": 46639, 
  "Beste": 55342, 
  "Functioning": 32554, 
  "2014-2020": 44173, 
  "Parade": 24336, 
  "amer@@": 23042, 
  "mysti@@": 30738, 
  "refugee": 8336, 
  "flawless": 26413, 
  "renew": 13006, 
  "vorbereitet": 61397, 
  "g&#124;@@": 54184, 
  "professionell": 54185, 
  "footsteps": 19293, 
  "SA-@@": 42506, 
  "boiler": 25528, 
  "Fremdsprachen": 76617, 
  "Amendments": 7148, 
  "Veran@@": 63503, 
  "render": 13806, 
  "auslösen": 77973, 
  "金@@": 58747, 
  "fangen": 66408, 
  "affects": 5590, 
  "synonymous": 18977, 
  "Schaffung": 71163, 
  "Staaten": 55883, 
  "erzi@@": 52279, 
  "Staates": 57851, 
  "datiert": 71164, 
  "another": 210, 
  "Manfred": 32916, 
  "Cook@@": 31207, 
  "borgh@@": 58135, 
  "electronic": 2369, 
  "leuchtenden": 71165, 
  "illustrate": 13741, 
  "2050": 16222, 
  "völlig": 56460, 
  "self-regulation": 24125, 
  "symmet@@": 22793, 
  "inged": 23216, 
  "public-sector": 27090, 
  "gewinn@@": 64460, 
  "Traces": 43426, 
  "ogra@@": 37654, 
  "ingen": 18776, 
  "approximately": 2693, 
  "inger": 4533, 
  "inges": 41968, 
  "rooted": 12857, 
  "Reak@@": 70387, 
  "Regelwerk": 71166, 
  "Wärmet@@": 61399, 
  "dogs": 3823, 
  "heissen": 55393, 
  "feu@@": 16704, 
  "IONS": 26004, 
  "opting": 18765, 
  "emblem": 28615, 
  "pop@@": 7270, 
  "Andersson": 32500, 
  "nachstehend": 71167, 
  "wastes": 28003, 
  "Leiter@@": 57106, 
  "cereal": 20109, 
  "wasted": 11391, 
  "呆@@": 71168, 
  "ess@@": 6285, 
  "Backup": 37277, 
  "ה@@": 51668, 
  "maximizing": 34171, 
  "self-contained": 33985, 
  "emi@@": 28844, 
  "genau@@": 63504, 
  "guild": 23339, 
  "policymaking": 31731, 
  "Elb@@": 40860, 
  "obsc@@": 17022, 
  "angeben": 59910, 
  "Haf@@": 22864, 
  "Relation": 50716, 
  "pre-accession": 20138, 
  "historical": 2028, 
  "beschränkungen": 59989, 
  "Gladi@@": 43242, 
  "ández": 56461, 
  "enhancement": 18653, 
  "Q1": 25129, 
  "Steigung": 71169, 
  "ethn@@": 21333, 
  "buchbar": 61400, 
  "respecting": 9916, 
  "portraits": 15808, 
  "FISHLABS": 40102, 
  "zweideu@@": 71170, 
  "göt@@": 71171, 
  "Junta": 47575, 
  "return": 687, 
  "enchanted": 24721, 
  "sportsmen": 27896, 
  "Javier": 17725, 
  "hervorrufen": 63506, 
  "Maestro": 30011, 
  "baroque": 17563, 
  "erfüll@@": 66410, 
  "contents": 3986, 
  "Q.": 16123, 
  "praising": 23936, 
  "Vormarsch": 71079, 
  "9,5": 52075, 
  "Voip@@": 45867, 
  "convenient": 4921, 
  "melan@@": 21730, 
  "Transpar@@": 48162, 
  "Sic@@": 37576, 
  "Berès": 31150, 
  "beauftragter": 57853, 
  "rotar@@": 45552, 
  "ections": 19092, 
  "subjects": 4733, 
  "digungs@@": 71174, 
  "cour@@": 4983, 
  "SEO-@@": 56515, 
  "Gallery": 8641, 
  "culminated": 24893, 
  "nobody": 4022, 
  "Qu": 48672, 
  "Qt": 42219, 
  "Artist": 21849, 
  "Button": 20642, 
  "Lucy": 17824, 
  "assesses": 31828, 
  "Mumbai": 11882, 
  "Jubiläums@@": 61401, 
  "germany": 40726, 
  "Luca": 24870, 
  "Table": 11840, 
  "Qi": 40861, 
  "assessed": 9171, 
  "icro@@": 33400, 
  "Tbilisi": 29116, 
  "grave": 6442, 
  "darkness": 13788, 
  "ierer": 52281, 
  "Twelve": 30489, 
  "QS": 37655, 
  "consumers": 1115, 
  "ansä@@": 66411, 
  "Sanitär@@": 66412, 
  "witnessed": 8016, 
  "Isom@@": 50122, 
  "QA": 35219, 
  "enshrined": 13561, 
  "QC": 14425, 
  "bracket": 24154, 
  "QE": 20402, 
  "QF": 44941, 
  "proponents": 22091, 
  "Menschlichkeit": 70907, 
  "QM": 40577, 
  "That": 2838, 
  "Plag@@": 39977, 
  "reserve": 3922, 
  "Aluminium-@@": 56462, 
  "Ridge": 22666, 
  "Hand@@": 18597, 
  "towering": 21884, 
  "Populismus": 71177, 
  "PAY": 43961, 
  "non-smokers": 36617, 
  "constru@@": 40168, 
  "Gör@@": 37087, 
  "dump@@": 28655, 
  "emotions": 8962, 
  "Donaur@@": 66414, 
  "Bratislava": 26993, 
  "PAL": 37998, 
  "intergovernmental": 11697, 
  "ת": 58406, 
  "sozialistischen": 59991, 
  "Santiago": 12526, 
  "ckets": 14208, 
  "Moselle": 39504, 
  "DCI": 37398, 
  "Photography": 28368, 
  "trump@@": 16595, 
  "facades": 28881, 
  "discretionary": 20102, 
  "Raumschiff": 66415, 
  "rupt@@": 31658, 
  "border@@": 24975, 
  "View@@": 36923, 
  "Langued@@": 39276, 
  "onne": 24713, 
  "Aufruhr": 71183, 
  "勝@@": 71184, 
  "DCS": 43056, 
  "rectangle": 36501, 
  "Nantes": 36062, 
  "garten@@": 50123, 
  "zweier": 69727, 
  "bahnhof": 40762, 
  "depreci@@": 35275, 
  "Edel@@": 31402, 
  "telefonisch": 57854, 
  "bicy@@": 35861, 
  "Lithuania": 8711, 
  "Wirk@@": 53514, 
  "Reaktions@@": 71185, 
  "degradation": 18530, 
  "Fahrt": 56463, 
  "Fri@@": 10644, 
  "roundabout": 22319, 
  "downtime": 30866, 
  "policymakers": 10564, 
  "covered": 2064, 
  "Loud": 29928, 
  "GD@@": 43304, 
  "beschnei@@": 71894, 
  "eme": 14814, 
  "FLA@@": 39819, 
  "runs": 1750, 
  "Milos@@": 54186, 
  "ema": 13523, 
  "metabolism": 23553, 
  "emo": 37577, 
  "emi": 24850, 
  "Agent": 17887, 
  "vielmehr": 57108, 
  "rine": 32004, 
  "gears": 22693, 
  "ems": 11707, 
  "Portraits": 47616, 
  "insurgents": 9086, 
  "wiederholten": 71186, 
  "Exportsubventionen": 71187, 
  "freshwater": 28882, 
  "emy": 31403, 
  "Stadien": 71188, 
  "stir@@": 27685, 
  "secretary": 3367, 
  "9.30": 38547, 
  "Kohäsionsfonds": 72889, 
  "oll@@": 10368, 
  "Liban@@": 52076, 
  "Jackson": 3203, 
  "Caracas": 22362, 
  "turmoil": 9513, 
  "Seu@@": 46921, 
  "Gorbachev": 27651, 
  "Domain@@": 41877, 
  "supplement@@": 39816, 
  "Einträgen": 71189, 
  "で@@": 54955, 
  "ehn@@": 40181, 
  "horrendous": 22003, 
  "discussions": 2331, 
  "brasserie": 36747, 
  "and-@@": 4442, 
  "rat@@": 9726, 
  "Malawi": 24609, 
  "techniques": 4325, 
  "erer": 28225, 
  "eres": 19402, 
  "draws": 7969, 
  "popul@@": 17104, 
  "Monitoring": 16605, 
  "CB@@": 32501, 
  "thres@@": 46950, 
  "away": 319, 
  "bereitgestellten": 55887, 
  "Mexic@@": 20995, 
  "FC@@": 39008, 
  "erledigt": 66419, 
  "Mainstre@@": 49325, 
  "epide@@": 54187, 
  "religi@@": 36562, 
  "cooperation": 544, 
  "ernal": 29040, 
  "awak": 66420, 
  "drawn": 2651, 
  "Schweizerische": 51669, 
  "Nico@@": 33036, 
  "encounters": 15887, 
  "shields": 23928, 
  "yiel@@": 49865, 
  "flexicurity": 32102, 
  "ፈ": 71192, 
  "Höh@@": 53577, 
  "Domingo": 29451, 
  "diese": 26870, 
  "Volks": 63952, 
  "handful": 7838, 
  "hir@@": 36620, 
  "legten": 57855, 
  "righ@@": 17785, 
  "niederländischen": 61402, 
  "Elektro-@@": 56219, 
  "Sever@@": 18695, 
  "travellers": 7373, 
  "KONTAK@@": 77293, 
  "autor@@": 21067, 
  "rapporteur": 838, 
  "kitchen": 2863, 
  "Versand@@": 51540, 
  "essentially": 4438, 
  "summar@@": 37431, 
  "Nax@@": 45123, 
  "MOS": 41127, 
  "Nam@@": 15043, 
  "፣": 66422, 
  "mmed": 16409, 
  "Embargos": 71194, 
  "wichtigste": 57549, 
  "regions": 1161, 
  "mer@@": 4013, 
  "thy": 8574, 
  "MOO": 36924, 
  "tackl@@": 45774, 
  "cadi@@": 42292, 
  "Dawn": 16913, 
  "disappears": 24126, 
  "hab": 39910, 
  "Erden": 61404, 
  "uniformity": 28996, 
  "tone": 5270, 
  "erman": 28036, 
  "Lenk@@": 49066, 
  "gesenkt": 71196, 
  "ス": 60279, 
  "ế@@": 58750, 
  "tons": 6300, 
  "Halbinsel": 61405, 
  "Zuweisung": 71197, 
  "Ireland": 1578, 
  "i.e": 15514, 
  "OEM@@": 55888, 
  "sammlung": 52509, 
  "Oreja": 38808, 
  "bedenk@@": 65541, 
  "telecommunications": 7583, 
  "arch@@": 8548, 
  "год": 56103, 
  "gratitude": 12244, 
  "etran@@": 52989, 
  "Fahn@@": 63509, 
  "Kerry": 6810, 
  "Gep@@": 45124, 
  "tolerances": 38419, 
  "stitute": 23593, 
  "schö@@": 51670, 
  "Gentoo": 9311, 
  "überarbeiteten": 66425, 
  "Connecticut": 8408, 
  "cz@@": 16836, 
  ".m@@": 44429, 
  "Wohlfahrtsstaat": 71200, 
  "compatriots": 28471, 
  "Hungarians": 26338, 
  "Corbey": 42399, 
  "Belize": 24804, 
  "Geber@@": 56465, 
  "ehrt": 56624, 
  "attacked": 4383, 
  "ausgiebig": 71201, 
  "therly": 29074, 
  "zuvorkomm@@": 57796, 
  "Asia-@@": 38420, 
  "attacker": 14515, 
  "Mat@@": 5490, 
  "ehre": 54188, 
  "Wrocław": 39845, 
  "Dialog": 37213, 
  "Entgegenkommen": 70635, 
  "engen@@": 33313, 
  "üll@@": 71203, 
  "win-win": 27813, 
  "gracious": 29365, 
  "CIPRA": 46294, 
  "Heinz": 27721, 
  "Saale": 49785, 
  "reciprocal": 20900, 
  "vage": 19935, 
  "Erlaubnis": 53857, 
  "vernach@@": 55394, 
  "Zwöl@@": 51671, 
  "gna": 39095, 
  "adise": 61406, 
  "tees": 22357, 
  "gne": 19267, 
  "Benazi@@": 71205, 
  "concludes": 9549, 
  "Hood": 16091, 
  "unlikely": 3511, 
  "cylinder": 16498, 
  "cons": 13306, 
  "COR@@": 19171, 
  "vogel": 48066, 
  "Fes@@": 37341, 
  "appartement": 45430, 
  "Athens": 8196, 
  "Druckerei": 53858, 
  "separatist": 16676, 
  "cona": 34491, 
  "tissue": 8890, 
  "cone": 18567, 
  "conf": 36439, 
  "Convention": 2024, 
  "sl@@": 2408, 
  "plom@@": 42135, 
  "Verwir@@": 71208, 
  "brilliantly": 22141, 
  "Colonia": 44134, 
  "PARTN@@": 45775, 
  "ulates": 36317, 
  "isionen": 71210, 
  "plut@@": 31305, 
  "skri@@": 52735, 
  "Stop": 15343, 
  "renoviert": 56466, 
  "staff@@": 18885, 
  "ulated": 12440, 
  "Piétrasanta": 46506, 
  "kunst": 46191, 
  "Spezi@@": 52990, 
  "Nice": 6915, 
  "Ägypten": 52991, 
  "seines": 50984, 
  "liv@@": 17459, 
  "Setup": 33435, 
  "Pedi@@": 25718, 
  "Müll@@": 46559, 
  "wheel": 6017, 
  "Infektions@@": 66428, 
  "Lampedusa": 25259, 
  "fuss": 21850, 
  "TAR@@": 28369, 
  "illary": 40622, 
  "hang": 6702, 
  "Samstag@@": 74866, 
  "counterparts": 9612, 
  "hand": 576, 
  "liberties": 13178, 
  "خ@@": 47109, 
  "ausschließen": 73756, 
  "ban@@": 5318, 
  "animations": 24945, 
  "Grun@@": 37512, 
  "Schwierigkeitsgrad": 71212, 
  "felder": 44556, 
  "feldes": 61407, 
  "Mausoleum": 48064, 
  "General@@": 41760, 
  "XAMP@@": 61408, 
  "whereby": 7650, 
  "Gewissens@@": 74335, 
  "humble": 15173, 
  "星@@": 71214, 
  "Konditionen": 63512, 
  "Parma": 31641, 
  "oning": 8213, 
  "gekämpft": 74337, 
  "client": 2528, 
  "Subcommittee": 31456, 
  "Cassidy": 27431, 
  "easily": 1519, 
  "Strombo@@": 54554, 
  "tabling": 18079, 
  "Victor": 12895, 
  "gil@@": 13184, 
  "pronouncements": 30750, 
  "diam@@": 36846, 
  "EKO": 51345, 
  "traditions": 5716, 
  "fen@@": 17731, 
  "Galvan@@": 49188, 
  "redi@@": 41128, 
  "Modernis@@": 53578, 
  "43": 3954, 
  "éa": 48082, 
  "Cambodia": 11520, 
  "einzunehmen": 71215, 
  "Werden": 53579, 
  "casu@@": 18290, 
  "Lorenzo": 20680, 
  "thanks": 1147, 
  "Duft": 62176, 
  "Verteidigungs@@": 74348, 
  "stellungen": 61957, 
  "kalender": 57250, 
  "toughness": 30048, 
  "Autoh@@": 53580, 
  "antes": 21097, 
  "anter": 41387, 
  "dorff": 41551, 
  "rungen": 62355, 
  "Us@@": 31883, 
  "similarities": 18875, 
  "reg@@": 6177, 
  "57@@": 15617, 
  "Story": 14356, 
  "zuweilen": 71216, 
  "shout": 21036, 
  "Entstehungs@@": 71217, 
  "fourthly": 14643, 
  "anted": 23385, 
  "द्@@": 38969, 
  "immedi@@": 36544, 
  "openings": 19735, 
  "antem": 71218, 
  "harness@@": 27125, 
  "Untersuchungen": 53581, 
  "anten": 47338, 
  "車": 71219, 
  "lic@@": 7811, 
  "usable": 12973, 
  "insensitive": 28446, 
  "Restaurant": 6611, 
  "Transc@@": 38091, 
  "come-@@": 28447, 
  "gewollt": 71222, 
  "cosmetic": 12972, 
  "s-@@": 2714, 
  "-Lou@@": 42961, 
  "Sozial@@": 49068, 
  "MASSIVE": 45553, 
  "designers": 7448, 
  "unfounded": 21296, 
  "Wind": 19172, 
  "Wine": 14599, 
  "constitution": 4285, 
  "eroded": 21297, 
  "mir": 15826, 
  "egelung": 58754, 
  "Winamp": 40778, 
  "manipulated": 19287, 
  "cooler": 19312, 
  "Krab@@": 50090, 
  "cool": 4266, 
  "Zapati@@": 35052, 
  "Währungs-": 71225, 
  "coolen": 58755, 
  "sparse": 31951, 
  "night": 408, 
  "essor": 38149, 
  "cooled": 21436, 
  "Co": 4525, 
  "fähigkeit": 55890, 
  "-Bit": 52077, 
  "Als@@": 36643, 
  "beschließt": 66433, 
  "Satt@@": 42797, 
  "Galway": 29255, 
  "Nadel": 52271, 
  "bors": 36860, 
  "Berlin": 1743, 
  "born": 1351, 
  "Italia": 18397, 
  "áz@@": 42136, 
  "borg": 23115, 
  "bore": 16194, 
  "bord": 36621, 
  "Verkehr@@": 59916, 
  "erhöhte": 66434, 
  "Schönheiten": 74410, 
  "confusing": 13758, 
  "Schule": 44686, 
  "congratulate": 2514, 
  "Ceder@@": 52992, 
  "Clou@@": 38963, 
  "Kaffe@@": 56467, 
  "Phi@@": 34589, 
  "Oldtimer": 52736, 
  "Ordin@@": 34537, 
  "Tram": 42524, 
  "asking": 2215, 
  "Tiroler": 49158, 
  "mountain-@@": 34364, 
  "Lexikon": 57110, 
  "strada": 28530, 
  "participation": 2608, 
  "Gray": 11733, 
  "Graz": 22493, 
  "Empfän@@": 71227, 
  "Aer@@": 18501, 
  "peel": 27857, 
  "Sortiment": 61410, 
  "Glu@@": 35053, 
  "coleg@@": 39433, 
  "joint-@@": 32043, 
  "Near": 23966, 
  "architectural": 8511, 
  "substitution": 23070, 
  "peer": 11453, 
  "Dachterrasse": 71228, 
  "Grab": 43058, 
  "observ@@": 22865, 
  "Grad": 45669, 
  "Hinterglem@@": 57473, 
  "Graf": 35771, 
  "Romulan": 25517, 
  "理": 71230, 
  "Ortes": 66436, 
  "球": 71231, 
  "earbei@@": 71232, 
  "Orten": 56468, 
  "busines@@": 35397, 
  "unerwünschten": 66438, 
  "captured": 5001, 
  "Wissens@@": 53859, 
  "Ocster": 43243, 
  "storniert": 69878, 
  "waf@@": 22082, 
  "step@@": 10524, 
  "konnen": 57111, 
  "therland": 19676, 
  "ESTA": 44347, 
  "wasting": 17283, 
  "Abdullah": 10550, 
  "profession": 9263, 
  "beneficial": 7356, 
  "thermische": 71595, 
  "rendering": 13986, 
  "cost-efficient": 33569, 
  "zimmer-@@": 71234, 
  "decim@@": 25310, 
  "Feminismus": 71235, 
  "Belgra@@": 45531, 
  "familiarize": 39638, 
  "euro-@@": 20529, 
  "deception": 22389, 
  "üre": 59917, 
  "Chameleon": 38914, 
  "Blase": 66440, 
  "GetYourGuide": 33865, 
  "üro": 66441, 
  "sovereign": 6158, 
  "load-@@": 41636, 
  "payment": 1788, 
  "Regency": 32353, 
  "Englisch": 46077, 
  "conservation": 6658, 
  "châ@@": 40936, 
  "Photosmart": 41970, 
  "Donal@@": 37399, 
  "Danu@@": 48962, 
  "Ann@@": 14323, 
  "ITER@@": 46644, 
  "Irish": 2446, 
  "ationen": 51474, 
  "ʃ@@": 61411, 
  "slope": 13514, 
  "Wohnen": 50614, 
  "diligence": 18757, 
  "Meisterwerk": 66442, 
  "Anđ@@": 54190, 
  "referendums": 18484, 
  "schweigen": 71236, 
  "garages": 28616, 
  "needles": 23567, 
  "Epila": 42798, 
  "gal@@": 10291, 
  "Belder": 34304, 
  "ک@@": 52993, 
  "anstrengend": 66309, 
  "mega-@@": 23217, 
  "sac@@": 20408, 
  "reproductive": 12871, 
  "ку": 42962, 
  "ancestral": 28107, 
  "maximum": 2074, 
  "Sap@@": 24049, 
  "Hoher": 53392, 
  "isie": 38284, 
  "authorization": 13899, 
  "coverings": 36440, 
  "Umfrage": 56705, 
  "firewalls": 36063, 
  "reichung": 73414, 
  "kästchen": 71239, 
  "Cream": 32565, 
  "ausgelesen": 71240, 
  "Ali@@": 9523, 
  "Mühl@@": 42889, 
  "äl@@": 37342, 
  "chancell@@": 11428, 
  "underwater": 11873, 
  "Some": 8891, 
  "Charlotten@@": 52737, 
  "Nordosten": 71242, 
  "kommunistischen": 71243, 
  "rific": 59921, 
  "erfreulich": 66443, 
  "geliebten": 71244, 
  "15-@@": 5684, 
  "Sch@@": 4697, 
  "expertise": 3755, 
  "ronen": 61412, 
  "prayer": 11016, 
  "erode": 26636, 
  "schlanke": 66444, 
  "Zö@@": 54048, 
  "harassment": 10546, 
  "MEDA-@@": 63516, 
  "1,000": 3522, 
  "Inclu@@": 26566, 
  "fasc@@": 33915, 
  "far@@": 7712, 
  "valuing": 27846, 
  "wollten": 55395, 
  "fünfte": 71247, 
  "tesa": 39277, 
  "Falls": 15390, 
  "Alanya": 40254, 
  "COMP@@": 27329, 
  "tesy": 44731, 
  "Thur@@": 15508, 
  "test": 1078, 
  "Falle": 48857, 
  "ausgesch@@": 66446, 
  "quot@@": 38355, 
  "artificially": 20726, 
  "funktions@@": 66447, 
  "Flüchtlinge": 63331, 
  "Reiches": 61413, 
  "QU@@": 19751, 
  "Afghanist@@": 46722, 
  "update": 3080, 
  "improvisation": 33971, 
  "politisch-@@": 71249, 
  "Trial": 21673, 
  "authoritarianism": 35606, 
  "AVI@@": 38245, 
  "Iberotel": 46078, 
  "occasion": 3900, 
  "later@@": 42051, 
  "जा@@": 33419, 
  "glyc@@": 32530, 
  "non-@@": 1002, 
  "leitungs@@": 60127, 
  "Berichte": 59922, 
  "konkurrenz@@": 71251, 
  "Plasma@@": 50515, 
  "ebox": 34082, 
  "Berthu": 44151, 
  "ez-@@": 35709, 
  "fried@@": 48673, 
  "Saas-Fee": 45656, 
  "commenced": 22974, 
  "spuren": 55396, 
  "cohesion": 2916, 
  "surv@@": 43683, 
  "favor@@": 16660, 
  "banquets": 26448, 
  "Keller": 23096, 
  "unausweichlich": 66449, 
  "trennen": 63517, 
  "Zür@@": 48771, 
  "songs": 4026, 
  "tribunals": 30049, 
  "concept": 1958, 
  "abgesetzt": 71252, 
  "diplomacy": 9012, 
  "Verhältnis": 54555, 
  "Deskom": 46079, 
  "Pont": 24835, 
  "父": 71253, 
  "horseback": 22052, 
  "salmon@@": 48163, 
  "supplement": 9468, 
  "Republic": 1782, 
  "sor@@": 8243, 
  "battle": 2229, 
  "igh@@": 6105, 
  "fortun@@": 42052, 
  "polluted": 20860, 
  "Republik": 49763, 
  "A330": 34474, 
  "Vorraus@@": 71254, 
  "layers": 9552, 
  "Migranten": 68342, 
  "Burg": 33213, 
  "rehear@@": 13094, 
  "Innenminister": 71255, 
  "fixen": 71256, 
  "gebundene": 66450, 
  "Burn": 32719, 
  "Schlauch": 67555, 
  "Genehmigung": 54381, 
  "aristocratic": 31011, 
  "dissatisfied": 26131, 
  "defl@@": 11387, 
  "Lenti@@": 46490, 
  "gige": 58757, 
  "Elefanten": 55125, 
  "Temper@@": 40624, 
  "AKP-@@": 63658, 
  "hellen": 61415, 
  "aland": 36802, 
  "-innen": 63518, 
  "Princes": 25948, 
  "estation": 26670, 
  "ennetz": 71257, 
  "Rolex": 33187, 
  "automobiles": 23043, 
  "Weiter@@": 55397, 
  "Artistic": 38151, 
  "öh@@": 43573, 
  "airing": 14101, 
  "hamlet": 27129, 
  "wärts@@": 66452, 
  "asso@@": 37999, 
  "Räu@@": 58759, 
  "Netto@@": 57114, 
  "gue": 6849, 
  "artific@@": 38940, 
  "smuggling": 11781, 
  "turns": 3869, 
  "gekennzeichnet": 58760, 
  "gun": 2990, 
  "gum": 21459, 
  "gul": 21222, 
  "ೈ": 74597, 
  "ain@@": 4692, 
  "Aussehen": 61416, 
  "gut": 15206, 
  "Str@@": 12496, 
  "Szenen": 53286, 
  "guy": 4111, 
  "FlexRay": 41323, 
  "Gior@@": 39587, 
  "incl.": 34854, 
  "Aten@@": 40312, 
  "cose": 35277, 
  "gef@@": 41971, 
  "verifiable": 30708, 
  "cosa": 40625, 
  "ship@@": 12465, 
  "": 63229, 
  "CMC": 32290, 
  "ง@@": 53582, 
  "park@@": 30391, 
  "Wasserfälle": 65428, 
  "на": 25688, 
  "inde@@": 17928, 
  "cost": 642, 
  "не": 38549, 
  "": 71260, 
  "entsprechendes": 60086, 
  "forging": 20861, 
  "Wy@@": 10058, 
  "veranstaltete": 67221, 
  "Ziff": 47820, 
  "CMS": 18225, 
  "iors": 35951, 
  "cosy": 6146, 
  "но": 31734, 
  "iti@@": 10433, 
  "raschen": 74716, 
  "Form": 11601, 
  "foregoing": 32314, 
  "shares": 1454, 
  "Ford": 3913, 
  "Cockpit": 46560, 
  "威@@": 71261, 
  "bureaucratic": 8918, 
  "Füssen": 48998, 
  "lerk@@": 66171, 
  "": 71262, 
  "": 56469, 
  "shared": 2390, 
  "oaks": 34143, 
  "Renewable": 31457, 
  "Fort": 7871, 
  "Dublin-@@": 54755, 
  "Lawal": 44349, 
  "bap@@": 28984, 
  "Vitam@@": 54956, 
  "Datenschutzbestimmungen": 71263, 
  "Fuhr@@": 49189, 
  "deepened": 25652, 
  "smil@@": 18758, 
  "diensten": 52994, 
  "Hund@@": 24304, 
  "boten": 64650, 
  "English": 1298, 
  "TENs": 35055, 
  "Custom@@": 38092, 
  "Distribution": 22093, 
  "teaches": 14478, 
  "teacher": 3982, 
  "VMware": 37453, 
  "Counter@@": 31113, 
  "sending": 3242, 
  "box-@@": 23888, 
  "Portugal": 3408, 
  "spontaneous": 19197, 
  "noch@@": 50663, 
  "overriding": 23785, 
  "Pres@@": 5673, 
  "versuch": 59924, 
  "Vertrieb@@": 59925, 
  "burdensome": 31952, 
  "möglich": 46386, 
  "Fähn@@": 63523, 
  "sour@@": 20035, 
  "domains": 15642, 
  "Lin@@": 6971, 
  "pillow": 24277, 
  "430": 26627, 
  "Commun@@": 37723, 
  "Benalmádena": 46561, 
  "regardless": 4296, 
  "ctions": 15671, 
  "extra": 1593, 
  "lusion@@": 61419, 
  "Remo": 42923, 
  "klickt": 69909, 
  "Isaak": 47656, 
  "losing": 2633, 
  "Lat@@": 6920, 
  "RS-@@": 39009, 
  "Isaac": 20621, 
  "rün@@": 53861, 
  "Pine": 28915, 
  "first-rate": 30851, 
  "Chats": 51863, 
  "ational@@": 57116, 
  "Customers": 23264, 
  "Endur@@": 41095, 
  "Arbeiten": 51672, 
  "Dies": 28692, 
  "Tang@@": 34654, 
  "Fels": 50124, 
  "Diet": 28993, 
  "Angreifern": 68265, 
  "Fell": 44837, 
  "wonderfully": 20788, 
  "Comm@@": 11392, 
  "Feld": 46951, 
  "bige": 66457, 
  "eships": 28004, 
  "rainfall": 16309, 
  "favour@@": 42497, 
  "incident": 2306, 
  "jedenfalls": 58525, 
  "refres@@": 44059, 
  "WM@@": 26567, 
  "neugierig": 71267, 
  "exhibitor": 33917, 
  "korrekten": 62471, 
  "lea@@": 13742, 
  "Orch@@": 30198, 
  "länger": 54111, 
  "repar@@": 31063, 
  "Tomm@@": 39708, 
  "Cov@@": 35661, 
  "Sneaker": 54192, 
  "abgerufen": 61420, 
  "Ki-moon": 21298, 
  "ibn": 44558, 
  "defeats": 17399, 
  "zeuger": 71270, 
  "fortified": 20110, 
  "unnötige": 66459, 
  "acon": 24793, 
  "trand": 57728, 
  "Webinar": 48963, 
  "abyte": 34416, 
  "decker": 35710, 
  "Johann": 19840, 
  "glass@@": 32399, 
  "zeugen": 63525, 
  "disinfection": 38617, 
  "torante": 42299, 
  "Gahler": 42269, 
  "trans": 30050, 
  "beantrag@@": 66460, 
  "Archiv@@": 56470, 
  "ERT": 38686, 
  "regularly": 3455, 
  "ERP": 21015, 
  "a.com": 13817, 
  "chip": 7486, 
  "et-style": 34867, 
  "chiv": 52362, 
  "sake": 6766, 
  "weighting": 27974, 
  "set-@@": 21797, 
  "chin": 15976, 
  "zaht@@": 45668, 
  "In@@": 1446, 
  "ERN": 47190, 
  "chia": 32103, 
  "occur": 4181, 
  "schrei@@": 55398, 
  "chie": 24155, 
  "NPCs": 42300, 
  "pret@@": 31306, 
  "conductor": 16138, 
  "Christi@@": 7335, 
  "discussion": 1709, 
  "spreads": 13423, 
  "Is@@": 5642, 
  "sillon": 40689, 
  "lounge": 6077, 
  "Teg@@": 39621, 
  "Gent@@": 33745, 
  "Altiero": 46562, 
  "propylene": 50101, 
  "kreiert": 66462, 
  "Schir@@": 44559, 
  "economy": 419, 
  "armies": 17858, 
  "product": 669, 
  "unbeatable": 23191, 
  "energiespar@@": 71272, 
  "-ups": 19093, 
  "Ausrüstungen": 63527, 
  "escalate": 22955, 
  "ψ@@": 54957, 
  "P.@@": 11068, 
  "britann@@": 40325, 
  "Indi@@": 13597, 
  "Blö@@": 59928, 
  "Schuh": 52738, 
  "Hochebene": 61422, 
  "produce": 1541, 
  "Whi@@": 38480, 
  "zeichnung": 59929, 
  "Wenz@@": 42556, 
  "Martin": 2255, 
  "Publish@@": 35545, 
  "drastic": 12974, 
  "Model": 15212, 
  "Modem": 48858, 
  "Keynes": 24032, 
  "modernism": 33106, 
  "günstigste": 63528, 
  "thwar@@": 20196, 
  "grandson": 18452, 
  "vorher@@": 71273, 
  "Shia": 16205, 
  "freund@@": 57117, 
  "duc@@": 13812, 
  "you-@@": 28617, 
  "Neuschwanstein": 46080, 
  "Radio": 5212, 
  "Computer-@@": 51476, 
  "species": 2784, 
  "Ship": 29318, 
  "AVC": 45364, 
  "kurs": 51673, 
  "werks@@": 62521, 
  "itism": 34150, 
  "polation": 42963, 
  "agrams": 49291, 
  "approx": 10141, 
  "serving": 3091, 
  "Sheet": 33537, 
  "endes": 49524, 
  "Hall@@": 16643, 
  "sletter": 74129, 
  "Mechanical": 35925, 
  "sexually": 9418, 
  "raised": 1271, 
  "Jap": 54958, 
  "Jan": 6368, 
  "brain": 3269, 
  "stile": 42480, 
  "Jam": 32130, 
  "tablets": 12175, 
  "api@@": 20122, 
  "Qui@@": 27897, 
  "endem": 59930, 
  "onien": 47487, 
  "still": 151, 
  "Mandela": 9455, 
  "RT": 20977, 
  "RU": 37454, 
  "threat": 1607, 
  "000,000": 22494, 
  "RP": 24457, 
  "RS": 21978, 
  "Anregungen": 61423, 
  "facility": 3024, 
  "Privat@@": 41972, 
  "RY": 42632, 
  "RD": 36347, 
  "RE": 25470, 
  "RF": 23192, 
  "sharehol@@": 26033, 
  "spacious": 4017, 
  "RC": 14322, 
  "trenn@@": 59931, 
  "RM": 33519, 
  "EU-Mitgliedstaaten": 71274, 
  "RO": 8177, 
  "RH": 39278, 
  "RI": 10669, 
  "Satur@@": 38285, 
  "emigrants": 37927, 
  "correspondence": 15303, 
  "nom": 28962, 
  "non": 8254, 
  "nod": 13492, 
  "som": 11549, 
  "willige": 61425, 
  "plain@@": 10320, 
  "alist": 5291, 
  "IZ@@": 29968, 
  "introduce": 3110, 
  "sol": 18944, 
  "yields": 8813, 
  "Deckung": 74531, 
  "adrenaline": 28070, 
  "-Scott": 50004, 
  "alism": 5530, 
  "Brenta": 39010, 
  "wealthy": 6722, 
  "besichtigt": 71268, 
  "R.": 7981, 
  "now": 93, 
  "neuere": 63417, 
  "alise": 7742, 
  "nor": 1413, 
  "nos": 18935, 
  "formulierten": 66464, 
  "itze": 53862, 
  "carrying": 2864, 
  "thankful": 22594, 
  "Hollywood": 3784, 
  "drop": 2534, 
  "Mountainbike-@@": 63530, 
  "beings": 6079, 
  "Pocket@@": 43962, 
  "Annul@@": 71276, 
  "magazin": 47576, 
  "lieben": 56498, 
  "Lieferanten@@": 71277, 
  "dron": 30623, 
  "drom": 45212, 
  "Skin": 30490, 
  "ARPRO": 41376, 
  "Agricultural": 19340, 
  "jährliche": 62776, 
  "spieler": 54959, 
  "Tin@@": 15437, 
  "Jeff@@": 17541, 
  "Colour": 36831, 
  "raises": 5995, 
  "Passes": 44351, 
  "prompted": 5719, 
  "challenged": 7511, 
  "Attersee": 45776, 
  "Museum": 2846, 
  "ächte": 61427, 
  "begraben": 71280, 
  "Haushal@@": 74694, 
  "Legal": 6242, 
  "challenges": 1622, 
  "stabilität": 70728, 
  "beliebige": 66466, 
  "year": 90, 
  "GU@@": 19750, 
  "naming": 13532, 
  "Simulation": 43652, 
  "monitors": 10392, 
  "Petition": 47259, 
  "Gil": 29731, 
  "си@@": 36312, 
  "Helaba": 45777, 
  "ron@@": 8284, 
  "furthermore": 2099, 
  "Energiepaket": 71282, 
  "thirst": 26725, 
  "Kontra@@": 55399, 
  "Norwegian": 10825, 
  "León": 38047, 
  "wholeheartedly": 14762, 
  "fy": 7209, 
  "бо@@": 38421, 
  "Tarifa": 15458, 
  "Netzwerks": 69912, 
  "ebuil@@": 21851, 
  "zählt": 56513, 
  "glück": 71284, 
  "im@@": 1917, 
  "advantaged": 43149, 
  "gesorgt": 63531, 
  "ला@@": 33520, 
  "improvement": 2621, 
  "ñ": 48487, 
  "ин@@": 38214, 
  "divergence": 28108, 
  "diagnostic": 14523, 
  "Regim@@": 24573, 
  "advantages": 4413, 
  "ir@@": 3022, 
  "ʋ@@": 73760, 
  "Produktions-": 79053, 
  "hegemoni@@": 71287, 
  "Pumpen": 57118, 
  "Europe@@": 31735, 
  "UEN@@": 50005, 
  "on-@@": 2091, 
  "liefert": 58762, 
  "fa": 9083, 
  "transition": 3717, 
  "Harbour": 13058, 
  "br@@": 5021, 
  "int": 9472, 
  "ro-@@": 31592, 
  "frieden": 57119, 
  "Erik": 20849, 
  "invitation": 7790, 
  "510": 29238, 
  "outcry": 19443, 
  "abi@@": 29935, 
  "Thessalon@@": 49643, 
  "Eric": 5286, 
  "Zeb@@": 34053, 
  "fe": 8070, 
  "blind": 6652, 
  "gegenstände": 66335, 
  "bling": 5381, 
  "zurückzu@@": 56495, 
  "ff": 2498, 
  "ዓ@@": 58764, 
  "rint": 36861, 
  "Flick@@": 49525, 
  "Ч@@": 53863, 
  "Sklaverei": 71290, 
  "fabrik": 38422, 
  "intra-Community": 38293, 
  "rink": 28087, 
  "bibliothek": 47419, 
  "Medicine": 8986, 
  "博@@": 54960, 
  "ring": 2823, 
  "konzepten": 71291, 
  "rina": 31786, 
  "tomorrow": 1747, 
  "к@@": 17970, 
  "constructing": 16765, 
  "Pubs": 51306, 
  "gutgeschrieben": 71146, 
  "Analysen": 54961, 
  "-Rep@@": 44352, 
  "Blottnitz": 42053, 
  "caught": 2804, 
  "aufheben": 75351, 
  "Kosov@@": 37859, 
  "Abruzzo": 36319, 
  "remotely": 17305, 
  "Lieutenant": 17642, 
  "Erwerb": 55894, 
  "Von@@": 19906, 
  "aufgenommenen": 74855, 
  "nightlife": 13194, 
  "restriktiven": 71293, 
  "cooling": 9112, 
  "Response": 25862, 
  "Windows-@@": 41535, 
  "authorized": 6735, 
  "daneben": 70412, 
  "stattfindenden": 59932, 
  "interest-@@": 32044, 
  "asymmetric": 29239, 
  "brains": 14247, 
  "schlecht": 56292, 
  "BN@@": 22822, 
  "diebstahl": 74872, 
  "cré@@": 22117, 
  "Bugzilla": 45554, 
  "soren": 71299, 
  "schi@@": 32354, 
  "Gahrton": 41973, 
  "Poker@@": 27154, 
  "bemerken": 71300, 
  "Led@@": 21049, 
  "Zoo": 14000, 
  "ff-@@": 39639, 
  "appreciated": 8458, 
  "png": 45778, 
  "kein": 40066, 
  "professionals": 4209, 
  "Brüssel@@": 71301, 
  "Ruck@@": 48164, 
  "ъ@@": 40685, 
  "箱@@": 66471, 
  "Niag@@": 54537, 
  "characters": 3820, 
  "ganz@@": 59934, 
  "recruit": 12411, 
  "ec@@": 1715, 
  "applet": 39140, 
  "text@@": 39434, 
  "vocals": 23056, 
  "apples": 20139, 
  "Kill@@": 30051, 
  "laminate": 37928, 
  "Settlement": 26727, 
  "whel@@": 36803, 
  "vernetzten": 64743, 
  "gli": 34128, 
  "documentation": 5492, 
  "junk": 16489, 
  "Issu@@": 26979, 
  "Gär@@": 57120, 
  "Marcos": 25471, 
  "ML-@@": 45555, 
  "dynamically": 24278, 
  "Weiterbildungs@@": 53823, 
  "Chau@@": 28935, 
  "Demet@@": 32502, 
  "bugs": 11470, 
  "einnimmt": 66473, 
  "Anfängen": 60560, 
  "ー@@": 49644, 
  "Heal@@": 23701, 
  "Quartier": 43773, 
  "oleum": 32779, 
  "Dorint": 41974, 
  "Commune": 40776, 
  "inkel": 57121, 
  "freigestellt": 71303, 
  "Fran@@": 8264, 
  "Pomp@@": 29278, 
  "Brandschutz@@": 66806, 
  "Jet@@": 18276, 
  "auswählen": 64753, 
  "Opi@@": 47749, 
  "Aneignung": 74915, 
  "Petra": 26089, 
  "plague": 20468, 
  "equipment": 1311, 
  "Seehöhe": 71305, 
  "rannten": 68943, 
  "Abonn@@": 59229, 
  "Uigh@@": 19502, 
  "珠@@": 60564, 
  "일@@": 77151, 
  "atu@@": 38340, 
  "authorising": 28726, 
  "Off": 14567, 
  "File": 14274, 
  "Attach@@": 44494, 
  "attractiveness": 24507, 
  "neatly": 23492, 
  "teach@@": 36186, 
  "äume": 63533, 
  "Publikums@@": 74021, 
  "verzö@@": 61162, 
  "biotechn@@": 45556, 
  "Break@@": 13508, 
  "lehnt": 74924, 
  "Pak@@": 26842, 
  "precedents": 30955, 
  "aufgebaut": 59266, 
  "bot@@": 4477, 
  "CONCEPT": 46516, 
  "Kollektiv@@": 71310, 
  "Ensem@@": 58765, 
  "Toren": 54193, 
  "Devise": 66476, 
  "Zábor@@": 74804, 
  "reform": 1060, 
  "third-@@": 6687, 
  "Module": 23446, 
  "expliz@@": 71312, 
  "プ@@": 66477, 
  "CAC@@": 39640, 
  "onium": 44772, 
  "Elektronik-@@": 58766, 
  "ökologisch": 63535, 
  "sonen": 56315, 
  "Kompass": 52283, 
  "Web": 1883, 
  "Giann@@": 36749, 
  "Weg": 44560, 
  "colum@@": 14574, 
  "Wei": 32590, 
  "scoreboard": 21460, 
  "Wen": 21299, 
  "Galeote": 36441, 
  "Schnees@@": 52507, 
  "Wer": 53287, 
  "sibly": 36622, 
  "gletscher": 48355, 
  "30-40": 41006, 
  "perfekt": 50666, 
  "Domenico": 37566, 
  "wood-@@": 21624, 
  "９@@": 71315, 
  "TA@@": 16445, 
  "schlägt": 63536, 
  "snack": 13659, 
  "se-@@": 11290, 
  "uncensored": 37168, 
  "dana": 26756, 
  "HSH": 42710, 
  "Mitgliedern": 51864, 
  "Beweg@@": 55895, 
  "ationalen": 71316, 
  "lesbar": 71317, 
  "dkrö@@": 62589, 
  "enriched": 14211, 
  "Konstantin@@": 50248, 
  "öfen": 63537, 
  "amera": 46863, 
  "stain": 25018, 
  "ielle": 46193, 
  "Luther": 18809, 
  "Africans": 14971, 
  "admissible": 29394, 
  "agentur": 49645, 
  "Legalisierung": 66481, 
  "egi@@": 21470, 
  "schreibung": 58767, 
  "Knor@@": 51995, 
  "SCH@@": 19864, 
  "interregional": 37513, 
  "cyclists": 13941, 
  "Siusi": 38215, 
  "SYN@@": 43963, 
  "Ausschüsse": 71318, 
  "jeher": 71319, 
  "stroll": 10738, 
  "hing": 19615, 
  "糖@@": 71320, 
  "Costasur": 25766, 
  "arly": 17635, 
  "barocke": 71321, 
  "Eigen@@": 52302, 
  "Martha": 16661, 
  "ammlung": 61638, 
  "poul@@": 41491, 
  "Intellectual": 29696, 
  "Bethleh@@": 66486, 
  "ши@@": 44838, 
  "21.@@": 12719, 
  "map@@": 42620, 
  "DÜ@@": 46194, 
  "ierbarkeit": 64476, 
  "Sandwiches": 56051, 
  "Salz@@": 38093, 
  "EMF": 40182, 
  "EMA": 18936, 
  "EMC": 30443, 
  "burst": 8444, 
  "Tamp@@": 10413, 
  "zipat@@": 71323, 
  "Zoll@@": 40675, 
  "EMI": 22715, 
  "kop@@": 37703, 
  "anchored": 19173, 
  "公": 71324, 
  "actively": 4582, 
  "Lotterie": 59935, 
  "ägyptischen": 63541, 
  "EMS": 25884, 
  "staunch": 25631, 
  "perior": 66488, 
  "oberen": 60580, 
  "endete": 56476, 
  "wahrheits@@": 71326, 
  "attraktive": 55401, 
  "Akkumul@@": 71327, 
  "衆@@": 71328, 
  "suspects": 6109, 
  "schreien": 66489, 
  "Meisterschaft": 56477, 
  "Ecke": 52739, 
  "andale": 43416, 
  "colours": 5676, 
  "Lithu@@": 42301, 
  "Krieger": 46388, 
  "Krieges": 59936, 
  "wechsel": 52995, 
  "ablan@@": 49155, 
  "Members": 1016, 
  "Auftritte": 63542, 
  "nicest": 30261, 
  "cardiovascular": 16803, 
  "sorrow": 23117, 
  "therapies": 16052, 
  "intimid@@": 13113, 
  "Wert": 49646, 
  "Langstrecken@@": 68441, 
  "Gesetz": 50134, 
  "employer": 9096, 
  "Nächten": 71332, 
  "broch@@": 52740, 
  "ind": 13064, 
  "Joseph": 5222, 
  "Tu@@": 5575, 
  "männer": 61434, 
  "Team": 5557, 
  "Werk": 46042, 
  "MI@@": 15429, 
  "sel@@": 4895, 
  "Gesch@@": 49764, 
  "aturen": 59738, 
  "recovered": 6071, 
  "cor@@": 2751, 
  "resides": 25990, 
  "blad@@": 48262, 
  "Sprün@@": 52996, 
  "MF@@": 33686, 
  "sper@@": 21187, 
  "finder@@": 46723, 
  "ł@@": 13945, 
  "Strateg@@": 31642, 
  "enland": 40545, 
  "Unicode": 29319, 
  "Escape": 32045, 
  "ehrten": 69324, 
  "Screenshots": 52284, 
  "Tutorial": 45671, 
  "Handy@@": 45672, 
  "Script@@": 48263, 
  "zab@@": 36925, 
  "ovski": 39720, 
  "madness": 19053, 
  "esens": 63543, 
  "jeans": 14507, 
  "Sachs": 10701, 
  "arsen@@": 22495, 
  "serwartungen": 66491, 
  "exploit": 8879, 
  "amine": 17460, 
  "aming": 6598, 
  "perpetrators": 14102, 
  "Sache": 47990, 
  "charismatic": 19458, 
  "moderne": 46216, 
  "FEKO": 46541, 
  "emart": 59937, 
  "Disc@@": 28109, 
  "vierten": 54963, 
  "Brems@@": 61436, 
  "baseball": 6805, 
  "tropical": 7271, 
  "Personal": 11775, 
  "Recon@@": 28329, 
  "dictator": 11596, 
  "outsi@@": 21712, 
  "Vall@@": 18475, 
  "pomm@@": 44255, 
  "Hektik": 65668, 
  "apier": 38094, 
  "dr@@": 4238, 
  "Jugendliche": 57861, 
  "dedly": 29075, 
  "Telekom": 25767, 
  "empathy": 23076, 
  "Kazakh@@": 42106, 
  "make-@@": 33630, 
  "suspected": 4440, 
  "Vincent": 12375, 
  "skiers": 14915, 
  "millenn@@": 31990, 
  "n@@": 796, 
  "Papier@@": 52035, 
  "Balearic": 28486, 
  "line-@@": 19638, 
  "Südkorea": 71338, 
  "bereiten": 66495, 
  "ide-@@": 34822, 
  "bereitet": 63545, 
  "Fujimori": 37279, 
  "fines": 9493, 
  "bereiter": 71341, 
  "schau": 44839, 
  "ludic@@": 47492, 
  ".In": 40690, 
  "眼@@": 63546, 
  "rass@@": 33636, 
  "Fiji": 19792, 
  "PowerPoint": 28355, 
  "Anth@@": 38095, 
  "fool": 19921, 
  "GNP": 23990, 
  "in-depth": 10217, 
  "97-@@": 30344, 
  "Ravenna": 29532, 
  "GNU": 9259, 
  "SON@@": 32634, 
  "metric": 18151, 
  "Betten": 53289, 
  "FS@@": 24667, 
  "&apos;ll": 724, 
  "Better": 15944, 
  "polic@@": 22072, 
  "Dead": 13427, 
  "ulo@@": 37841, 
  "Haustür": 71342, 
  "motivated": 7069, 
  "waterway": 24691, 
  "GNI": 34439, 
  "sivität": 71343, 
  "Israel": 1112, 
  "schwarzes": 66497, 
  "develop": 1248, 
  "Treffer": 75732, 
  "Releas@@": 41071, 
  "Citadines": 41798, 
  "inquire": 32104, 
  "Wörthersee": 44708, 
  "Alessandro": 30567, 
  "ausgebildeten": 66499, 
  "inquiry": 3800, 
  "Indonesien": 75119, 
  "besitzt": 56479, 
  "Treffen": 50801, 
  "unnels": 48456, 
  "wettbewerbs": 71345, 
  "schwarzen": 56480, 
  "k@@": 973, 
  "bedarf": 52510, 
  "Feste": 52511, 
  "Sty@@": 23515, 
  "verschluss": 63547, 
  "meteorological": 34027, 
  "foam": 15971, 
  "bewaffnet": 71347, 
  "schnittstellen": 70471, 
  "Arbeitssicherheit": 61439, 
  "teb@@": 43964, 
  "Degra": 47397, 
  "gefordert": 63549, 
  "leer": 48786, 
  "swallow": 23953, 
  "europaweit": 66794, 
  "d-looking": 26761, 
  "gründlich": 70028, 
  "SDR": 38941, 
  "kontinent@@": 71349, 
  "Peruvian": 23677, 
  "Budweiser": 36862, 
  "purpos@@": 20824, 
  "Oomen-Ruijten": 24523, 
  "letin": 56737, 
  "glacier": 16460, 
  "krati@@": 65676, 
  "fres@@": 24660, 
  "kri@@": 37860, 
  "alleviate": 15468, 
  "Presti@@": 50249, 
  "SDL": 14336, 
  "aktuelle": 49418, 
  "loy@@": 6488, 
  "SDK": 30659, 
  "taxi": 6369, 
  "Puma": 29076, 
  "livestock": 11055, 
  "Service": 1503, 
  "grass-@@": 40123, 
  "Luxus-@@": 55403, 
  "anti-grass": 40626, 
  "taxe": 47705, 
  "deh@@": 48559, 
  "Simbabwe": 66502, 
  "sweeping": 9232, 
  "Pump": 41253, 
  "relevant": 1888, 
  "Marb@@": 51973, 
  "greetings": 26843, 
  "richten@@": 71351, 
  "Start-": 56738, 
  "Vidal-Quadras": 40777, 
  "Agro@@": 42217, 
  "Tab": 36086, 
  "Ha@@": 5449, 
  "Ahti@@": 61440, 
  "sal@@": 4340, 
  "renewed": 5819, 
  "europ": 54964, 
  "euros": 3742, 
  "forward-looking": 5503, 
  "Solana": 13276, 
  "insufficient": 7617, 
  "Spot": 28426, 
  "versy": 47493, 
  "verse": 13497, 
  "versa": 16002, 
  "Deleg@@": 35711, 
  "Betäub@@": 71354, 
  "professionelles": 71355, 
  "professioneller": 66503, 
  "disproportionate": 14145, 
  "Laur@@": 9203, 
  "ami": 12701, 
  "dafi": 51458, 
  "Ehem@@": 58771, 
  "amm": 42711, 
  "laundering": 11610, 
  "amo": 21174, 
  "Symbiose": 78117, 
  "ama": 7532, 
  "ffles": 24220, 
  "stung": 35546, 
  "kurse": 58772, 
  "ame": 6881, 
  "amy": 12285, 
  "earnest": 18336, 
  "Luxembourg": 5324, 
  "wohnten": 71357, 
  "synthetische": 71358, 
  "inets": 47192, 
  "amp": 6615, 
  "ams": 5559, 
  "hörten": 76069, 
  "amt": 28186, 
  "unglaublich": 55931, 
  "litres": 19466, 
  "Marburg": 44561, 
  "Brunner": 42198, 
  "fortune": 10170, 
  "heightened": 14464, 
  "Colum@@": 40327, 
  "sa-@@": 41637, 
  "superfluous": 22595, 
  "conducts": 22195, 
  "Brüsseler": 61442, 
  "annually": 7231, 
  "unspoiled": 31308, 
  "vedere": 50968, 
  "Klassi@@": 53774, 
  "output": 3657, 
  "kommand@@": 59938, 
  "Batzeli": 45557, 
  "decimal": 30429, 
  "noti@@": 24985, 
  "Polem@@": 63551, 
  "twelve": 9097, 
  "oble": 46797, 
  "tubs": 32682, 
  "verbal": 14922, 
  "abund@@": 52267, 
  "Parall@@": 39435, 
  "Frank@@": 12638, 
  "search@@": 18080, 
  "ßes": 63552, 
  "Texts": 48251, 
  "exposes": 27127, 
  "Ī@@": 57864, 
  "edom": 30137, 
  "langwei@@": 71360, 
  "wahren": 57865, 
  "Haushalts-": 71361, 
  "intend": 4449, 
  "entschul@@": 70970, 
  "minibus": 28823, 
  "hav@@": 39317, 
  "capability": 7694, 
  "Ja@@": 12915, 
  "Symantec": 38810, 
  "appe@@": 18257, 
  "basing": 28170, 
  "1852": 42400, 
  "1853": 41975, 
  "1854": 41880, 
  "punk@@": 42746, 
  "1857": 40706, 
  "Verst@@": 54557, 
  "od@@": 4848, 
  "übliche": 61443, 
  "Nyl@@": 52768, 
  "flourishing": 22958, 
  "Chilean": 19014, 
  "enzel": 41324, 
  "assembly": 5128, 
  "Life@@": 22289, 
  "sixth": 4935, 
  "Busquin": 36187, 
  "HI-@@": 44464, 
  "privat@@": 27975, 
  "Goth@@": 29969, 
  "provok@@": 59422, 
  "Panorama-@@": 57866, 
  "innocence": 16035, 
  "assemble": 17762, 
  "exciting": 3743, 
  "Leonardo": 13039, 
  "enzer": 49419, 
  "cogn@@": 19180, 
  "Osz@@": 61445, 
  "Villach": 44943, 
  "Tochtergesellschaften": 75245, 
  "ér@@": 7770, 
  "Köhler": 46563, 
  "ideology": 10125, 
  "Tet@@": 27274, 
  "mantel@@": 47398, 
  "conceals": 38000, 
  "atisierung": 61446, 
  "backup": 9289, 
  "Intergovernmental": 8122, 
  "oben@@": 66505, 
  "freeing": 22569, 
  "outlook": 6163, 
  "Romanti@@": 50516, 
  "Ronda": 33687, 
  "Nachhal@@": 63555, 
  "W@@": 423, 
  "Julie": 12540, 
  "tol@@": 32273, 
  "Gold": 5648, 
  "stabilisation": 16535, 
  "attraktiv": 66899, 
  "shrinking": 14691, 
  "entrust": 30560, 
  "intervention": 3074, 
  "unheimlich": 59939, 
  "Vill@@": 15998, 
  "technolog@@": 27898, 
  "Schnittstellen": 60622, 
  "discover@@": 38811, 
  "qualifying": 9575, 
  "mit@@": 12625, 
  "Tschechoslowakei": 75276, 
  "specific@@": 40331, 
  "stark": 13191, 
  "start": 368, 
  "gaze": 20303, 
  "Check-In": 16806, 
  "stars": 2802, 
  "ymp@@": 41799, 
  "Piave": 42800, 
  "teamwork": 25887, 
  "marily": 41183, 
  "eingegebenen": 71368, 
  "allergic": 20956, 
  "kurzfristiger": 71369, 
  "diagnose": 25679, 
  "kunft@@": 75286, 
  "Irene": 20896, 
  "ሴ": 71370, 
  "OF@@": 30492, 
  "Euroland": 46195, 
  "livi@@": 41618, 
  "Os@@": 4783, 
  "pitches": 14069, 
  "philosophers": 29828, 
  "Zertifikat": 62655, 
  "Celsius": 23542, 
  "know-how": 7705, 
  "two-thirds": 8754, 
  "intensively": 21046, 
  "podcast": 28146, 
  "Original": 21321, 
  "Kennzeichnung": 59940, 
  "fraud": 2755, 
  "Verfolgung": 67580, 
  "embedded": 9023, 
  "default": 3612, 
  "äki": 43965, 
  "ΕU": 34246, 
  "Belarusian": 22667, 
  "Nieren": 72044, 
  "tiv@@": 11017, 
  "az.org": 44945, 
  "uch@@": 24251, 
  "Konzernen": 66508, 
  "Exhibition": 13850, 
  "new-@@": 17222, 
  "intents": 37088, 
  "Charles": 3577, 
  "600": 3735, 
  "transporters": 37724, 
  "FER@@": 33263, 
  "ho@@": 1902, 
  "stress@@": 43428, 
  "mosaics": 34083, 
  "unternehmens@@": 71374, 
  "quantum": 18091, 
  "Vertrau@@": 65232, 
  "RFID": 26796, 
  "Rechtsanwälte": 51041, 
  "ox@@": 14674, 
  "Ferdinand": 15989, 
  "60.": 58773, 
  "dreamed": 20433, 
  "hr@@": 11123, 
  "報": 71376, 
  "Erfindung": 59941, 
  "cabinets": 24871, 
  "stationed": 17501, 
  "Annex": 13884, 
  "堆": 71377, 
  "riesig": 66509, 
  "Sportwetten": 50790, 
  "einst@@": 71379, 
  "zoll@@": 57453, 
  "hochgradig": 71380, 
  "terminating": 33866, 
  "Chur": 42964, 
  "Bekannte": 66510, 
  "Smi@@": 39074, 
  "Erk@@": 48773, 
  "forcing": 6568, 
  "poor": 1327, 
  "Engine": 20157, 
  "ద@@": 71381, 
  "nummern": 66512, 
  "60s": 14248, 
  "Porträt": 71382, 
  "stationen": 60117, 
  "Chá@@": 55898, 
  "insomuch": 38423, 
  "Topo@@": 42557, 
  "Minsk": 23922, 
  "registry": 16700, 
  "Entry": 35278, 
  "sound-@@": 32291, 
  "pool": 1614, 
  "est@@": 4514, 
  "Cascais": 44732, 
  "witsch": 51494, 
  "Erwägung": 76114, 
  "Rechn@@": 55899, 
  "studio": 4176, 
  "Kultur@@": 30781, 
  "Bru": 50125, 
  "Joom@@": 49159, 
  "brochen": 71383, 
  "sharks": 15324, 
  "stripes": 23157, 
  "foto@@": 47551, 
  "-Sport@@": 55770, 
  "sender@@": 53290, 
  "Bri": 61448, 
  "ghters": 35953, 
  "Unterrichts": 71385, 
  "cores": 29776, 
  "overseas": 4687, 
  "Party@@": 42137, 
  "Aufbruch": 66514, 
  "Verkehr": 53584, 
  "Kuala": 19319, 
  "AU@@": 16065, 
  "änderte": 78041, 
  "semantic": 31458, 
  "ceases": 33420, 
  "Soldaten": 58777, 
  "eholders": 32105, 
  "ги@@": 43775, 
  "metal-@@": 34776, 
  "month": 414, 
  "unrest": 8076, 
  "thoughtful": 19209, 
  "espiel": 66515, 
  "Neuordnung": 72765, 
  "dou@@": 10306, 
  "unsch": 58778, 
  "religious": 2226, 
  "etik@@": 56483, 
  "leite": 59942, 
  "ing-room": 35726, 
  "bookers": 47907, 
  "Rik@@": 35772, 
  "orische": 71387, 
  "corps": 17276, 
  "ه@@": 46864, 
  "pledged": 7279, 
  "volle": 52997, 
  "nal": 25279, 
  "Rit@@": 22218, 
  "schrittweisen": 74933, 
  "Galaad": 46004, 
  "Pakete": 66518, 
  "volunteer": 10096, 
  "ektions@@": 58779, 
  "pledges": 14856, 
  "Stämmen": 71389, 
  "Dir@@": 23286, 
  "resounding": 25376, 
  "patently": 32870, 
  "brauch": 73622, 
  "activated": 9141, 
  "horror": 9442, 
  "Pyth@@": 42054, 
  "Recru@@": 35662, 
  "26@@": 7698, 
  "fassa@@": 59943, 
  "ziele": 65914, 
  "Cappato": 36065, 
  "decide": 1890, 
  "Bish@@": 25472, 
  "Service@@": 43137, 
  "Obamas": 34823, 
  "Selb@@": 59790, 
  "enhancements": 21141, 
  "Retiro": 43245, 
  "Aristoteles": 57127, 
  "tivi@@": 34824, 
  "anas": 27398, 
  "dden@@": 34475, 
  "vu": 21923, 
  "irl@@": 27652, 
  "ausgeschlossen": 50250, 
  "Rési@@": 53291, 
  "Canary": 13015, 
  "pflicht@@": 66520, 
  "evolent": 29096, 
  "libraries": 9908, 
  "es.com": 7653, 
  "reaffir@@": 33688, 
  "territori@@": 38252, 
  "ồ@@": 63563, 
  "anan": 39279, 
  "anal": 30052, 
  "Hobby@@": 53868, 
  "herum@@": 58780, 
  "locomotive": 31953, 
  "Mariah@@": 58781, 
  "Ischi@@": 58700, 
  "Algh@@": 55406, 
  "Produkt-": 71392, 
  "Mail@@": 17871, 
  "atore": 36623, 
  "oso": 23490, 
  "GUE": 15892, 
  "diment": 34592, 
  "atori": 39846, 
  "Entle@@": 50055, 
  "GUI": 23644, 
  "streets": 2388, 
  "expansive": 22687, 
  "osexu@@": 47828, 
  "GUS": 54196, 
  "orgasm": 32871, 
  "ators": 2952, 
  "陶@@": 71394, 
  "Sponsoring": 55260, 
  "atory": 6377, 
  "Mangels": 57128, 
  "ar@@": 890, 
  "bass": 11910, 
  "ails": 12039, 
  "Korea": 1874, 
  "Patient": 30302, 
  "Mash@@": 34084, 
  "Releases": 40481, 
  "infiziert": 66521, 
  "investing": 6179, 
  "dirt": 13198, 
  "Lösungs@@": 66522, 
  "discre@@": 26557, 
  "Elo@@": 39506, 
  "Black@@": 5334, 
  "Fingerab@@": 69887, 
  "learned": 3280, 
  "Bildverarbeitungs@@": 68008, 
  "teilnehmern": 73826, 
  "beta-@@": 34558, 
  "Plaza": 7815, 
  "zeichn@@": 66523, 
  "oti@@": 12170, 
  "wettbewer@@": 58508, 
  "Nachbar@@": 59945, 
  "dung": 42159, 
  "Produkte": 42401, 
  "Reiseziele": 71396, 
  "ballet": 16786, 
  "According": 22403, 
  "999": 23211, 
  "tracks": 4765, 
  "Bezirks@@": 62839, 
  "Arabisch": 66525, 
  "utz@@": 34028, 
  "excess": 6778, 
  "eventful": 27330, 
  "Design-@@": 52285, 
  "Hosting": 41441, 
  "Produkts": 66526, 
  "subscri@@": 36255, 
  "arena": 8811, 
  "šek": 41800, 
  "Biom@@": 32780, 
  "conviction": 5896, 
  "Doll": 41390, 
  "produkts": 63565, 
  "inspired": 3793, 
  "losses": 2541, 
  "troops": 1833, 
  "asa": 17367, 
  "compon@@": 47193, 
  "enstrah@@": 71195, 
  "base": 1291, 
  "Herzog@@": 51740, 
  "advertising": 2431, 
  "Nev@@": 14226, 
  "Treff@@": 56484, 
  "seriös": 69616, 
  "sealing": 21772, 
  "successors": 24369, 
  "Joan": 14548, 
  "inspires": 24305, 
  "Einkomm@@": 74461, 
  "image@@": 39280, 
  "dire": 12043, 
  "expen@@": 34825, 
  "requiring": 6609, 
  "S1": 42218, 
  "coff@@": 14170, 
  "S5": 40862, 
  "schmu@@": 58783, 
  "Okin@@": 48613, 
  "qu@@": 1395, 
  "Stereoscopic": 43871, 
  "S.": 5852, 
  "S-": 50668, 
  "pizzas": 30700, 
  "seventeenth": 38481, 
  "aufgibt": 71400, 
  "Mancha": 45226, 
  "Kreditkarte": 59379, 
  "Gas@@": 12845, 
  "fahrungen": 66548, 
  "ate-General": 55901, 
  "To@@": 3754, 
  "process@@": 31197, 
  "gründete": 65313, 
  "revelation": 14212, 
  "240": 14966, 
  "card@@": 29452, 
  "Olivenöl": 61453, 
  "wöchentliche": 70607, 
  "Editoren": 71401, 
  "TRADOS": 47901, 
  "gebiete": 59946, 
  "Connor": 13647, 
  "nähe": 58802, 
  "Visier": 71402, 
  "Raster": 55365, 
  "instruc@@": 24822, 
  "schwer@@": 56486, 
  "Limits": 38876, 
  "水@@": 61454, 
  "氣@@": 71403, 
  "dion": 29777, 
  "Sp": 41516, 
  "Su": 37514, 
  "St": 3100, 
  "Them@@": 34198, 
  "Banking": 12347, 
  "Si": 36682, 
  "So": 6517, 
  "Europol": 9512, 
  "Glam@@": 30167, 
  "7000": 32256, 
  "Sa": 29342, 
  "blut@@": 59947, 
  "producing": 3491, 
  "fungs@@": 57038, 
  "Browser": 30053, 
  "lamp@@": 32292, 
  "grill": 20131, 
  "örtlichen": 61455, 
  "organization": 2240, 
  "forst@@": 66527, 
  "SS": 13493, 
  "oversight": 10329, 
  "SQ": 50251, 
  "SP": 22765, 
  "SW": 6099, 
  "SV": 11056, 
  "ST": 17630, 
  "SK": 12040, 
  "aufzurufen": 66528, 
  "SI": 20762, 
  "bekämpft": 66529, 
  "SO": 23097, 
  "budgets": 5361, 
  "SM": 28262, 
  "SL": 15712, 
  "SC": 15584, 
  "SB": 21324, 
  "SA": 4512, 
  "SG": 31690, 
  "SF": 22473, 
  "SE": 5959, 
  "SD": 13807, 
  "740": 34029, 
  "persevere": 35850, 
  "pri@@": 3832, 
  "IBM": 9922, 
  "Auss@@": 66531, 
  "747": 30588, 
  "IBA": 40779, 
  "IBB": 48560, 
  "Sn@@": 12587, 
  "endlosen": 78570, 
  "terrible": 5024, 
  "Berichterstat@@": 66532, 
  "Wiens": 49526, 
  "Jungfrau@@": 46033, 
  "Tall@@": 25233, 
  "voor": 31264, 
  "้@@": 51676, 
  "-like": 14474, 
  "arti@@": 15607, 
  "barri@@": 16499, 
  "Kampf@@": 51083, 
  "movi@@": 24997, 
  "Counter-@@": 40519, 
  "Einbruch": 71404, 
  "Korhola": 44465, 
  "Opening": 29194, 
  "römische": 59948, 
  "ingia": 39313, 
  "Aege@@": 61457, 
  "utilize": 20681, 
  "surpassed": 19901, 
  "Falk": 38152, 
  "Carte": 43065, 
  "reject": 4636, 
  "vigilance": 20326, 
  "vorhersehbar": 71406, 
  "assimil@@": 33972, 
  "SOA": 37617, 
  "Lower": 12642, 
  "esysteme": 71407, 
  "communicating": 14795, 
  "transatlantischen": 78386, 
  "Kreta": 48235, 
  "Sni@@": 28147, 
  "volks@@": 59949, 
  "Emirates": 10948, 
  "promoter": 22860, 
  "acci": 38771, 
  "scout24.@@": 63566, 
  "productivity": 5231, 
  "horizontal": 10090, 
  "geachtet": 66534, 
  "stein@@": 34085, 
  "compulsory": 7256, 
  "UDP": 41704, 
  "criticize": 20879, 
  "Sofort@@": 58786, 
  "Mexico": 2133, 
  "bezeichnung": 66535, 
  "high-precision": 39364, 
  "Perk@@": 21970, 
  "unterhalb": 59950, 
  "mobilise": 18550, 
  "anytime": 14489, 
  "Provinz@@": 66536, 
  "verteidigt": 71411, 
  "promotes": 9641, 
  "2372": 37874, 
  "Sik@@": 20738, 
  "divor@@": 29179, 
  "Tausch": 64080, 
  "partnerships": 7630, 
  "Marathon": 14976, 
  "atur@@": 18522, 
  "pflichtigen": 66538, 
  "knots": 29334, 
  "remnants": 21437, 
  "sha@@": 4314, 
  "Stufen": 66539, 
  "charities": 13509, 
  "MBA": 23763, 
  "thermal": 6556, 
  "Nebel@@": 58297, 
  "BE": 14420, 
  "Präsentationen": 71413, 
  "ı@@": 22794, 
  "Atlas": 21518, 
  "leichte": 59951, 
  "SON": 38356, 
  "Barrel": 45781, 
  "Hotell@@": 55408, 
  "Ausgangs@@": 67680, 
  "駄@@": 67047, 
  "Konsolidi@@": 71414, 
  "systeme": 45974, 
  "His@@": 10565, 
  "Universität": 34305, 
  "wishful": 30709, 
  "Märkten": 59952, 
  "man-@@": 17991, 
  "当@@": 58085, 
  "territorial": 6587, 
  "Ägyp@@": 59954, 
  "systems": 558, 
  "founders": 13754, 
  "Asset": 15062, 
  "mise": 23558, 
  "Intra@@": 42802, 
  "Dirig@@": 59955, 
  "ced": 5740, 
  "trotz@@": 63569, 
  "Intergroup": 42220, 
  "streng": 63017, 
  "Früh@@": 49647, 
  "cen": 49648, 
  "gebogen": 71418, 
  "cel": 30710, 
  "unser@@": 48499, 
  "Bournemouth": 29533, 
  "BG": 18634, 
  "FAM@@": 39847, 
  "Protag@@": 55409, 
  "ces": 4196, 
  "cer": 17260, 
  "permissible": 20568, 
  "delay@@": 50517, 
  "antiquity": 32122, 
  "kleineren": 59956, 
  "Hosts": 38031, 
  "Tosc@@": 38618, 
  "Night@@": 19268, 
  "faire": 15106, 
  "Creutz@@": 51479, 
  "publ@@": 54669, 
  "bless": 27862, 
  "micro@@": 4406, 
  "cute": 16620, 
  "radial": 37344, 
  "Flash@@": 33467, 
  "fairy": 20037, 
  "SAVE": 37027, 
  "obligated": 23645, 
  "seit@@": 50970, 
  "lifestyles": 22570, 
  "predatory": 27155, 
  "barrels": 9799, 
  "Tätigkeiten": 69655, 
  "kritischen": 57875, 
  "Afghans": 15759, 
  "Stockhausen": 41391, 
  "LO@@": 9583, 
  "BA": 7461, 
  "gezogen": 57876, 
  "BSE@@": 63570, 
  "each": 225, 
  "artikulieren": 78545, 
  "woul@@": 15154, 
  "punitive": 20525, 
  "Seil@@": 50864, 
  "künstlerische": 59957, 
  "Clu": 66540, 
  "Guillaume": 36502, 
  "absurdity": 31643, 
  "Lu@@": 3854, 
  "kritischer": 71421, 
  "Berufserfahrung": 73847, 
  "Ey@@": 21167, 
  "esen@@": 43873, 
  "Mas@@": 4738, 
  "testify": 12064, 
  "TET@@": 42890, 
  "Tag": 31884, 
  "safety": 633, 
  "Ef@@": 29279, 
  "7": 573, 
  "toskanischen": 75717, 
  "ador@@": 21209, 
  "vorteilhaft": 75432, 
  "thou@@": 46564, 
  "Town": 5170, 
  "stead": 13611, 
  "mei@@": 19887, 
  "effekte": 71423, 
  "earns": 13307, 
  "Shakes@@": 42803, 
  "Buchstabe": 67373, 
  "favored": 14575, 
  "betreffende": 57878, 
  "ghly": 48965, 
  "Korn@@": 36804, 
  "houses": 2298, 
  "ˇ@@": 66542, 
  "upper@@": 17620, 
  "Priv@@": 36966, 
  "cac@@": 28531, 
  "Curricul@@": 40183, 
  "endungen": 63208, 
  "turnout": 12631, 
  "speculation": 5307, 
  "oli@@": 20643, 
  "Weiterentwicklungen": 66543, 
  "dishwasher": 27092, 
  "unresolved": 15884, 
  "tations": 25709, 
  "ese-@@": 16775, 
  "rai@@": 14380, 
  "Nature": 9666, 
  "Accession": 25473, 
  "evision": 52079, 
  "ख@@": 28287, 
  "ँ@@": 42481, 
  "Simone": 29494, 
  "american": 33367, 
  "Brok": 15760, 
  "Passi@@": 43429, 
  "velop": 57122, 
  "inno@@": 25311, 
  "Cast@@": 14585, 
  "schwim@@": 61458, 
  "Vorbild": 71426, 
  "Samba": 32720, 
  "BM": 32192, 
  "Handel": 35019, 
  "inter-@@": 10245, 
  "endo@@": 22342, 
  "warte": 50971, 
  "Unternehmenskultur": 75660, 
  "patriarch@@": 35712, 
  "remembran@@": 48675, 
  "zili@@": 52861, 
  "abgeholt": 59958, 
  "Intranet": 41982, 
  "IS-@@": 37183, 
  "condition@@": 39500, 
  "ئ@@": 63572, 
  "visions": 14213, 
  "ecommerce": 14875, 
  "Luftverschmutzung": 71622, 
  "vision@@": 26793, 
  "horse": 4380, 
  "ASP@@": 42558, 
  "Klar@@": 43589, 
  "Autos": 47249, 
  "blossom": 32402, 
  "schaffen": 55410, 
  "ة@@": 63573, 
  "Olympus": 13430, 
  "effekts": 74230, 
  "dug": 17964, 
  "Geschehnisse": 72104, 
  "station": 1118, 
  "funktionieren": 61459, 
  "Südost@@": 63574, 
  "hindered": 21405, 
  "Assu@@": 41705, 
  "hundred": 4249, 
  "Tauf@@": 37578, 
  "trapped": 8380, 
  "Verkün@@": 71430, 
  "Delta": 9266, 
  "Rechten": 63576, 
  "besei@@": 66544, 
  "1919": 23545, 
  "1918": 20253, 
  "asco": 20123, 
  "EM@@": 9236, 
  "risks": 1677, 
  "1911": 26671, 
  "1910": 25515, 
  "tive": 3391, 
  "rawi": 37184, 
  "1915": 26913, 
  "1914": 21461, 
  "1917": 22143, 
  "1916": 28727, 
  "poor@@": 36188, 
  "grew": 3452, 
  "obligations": 3588, 
  "Residenz": 44570, 
  "front": 960, 
  "gres": 38482, 
  "state-owned": 13246, 
  "south-eastern": 31257, 
  "Puer@@": 49190, 
  "neural": 30220, 
  "beh@@": 11416, 
  "grey": 8985, 
  "≠": 66545, 
  "≡": 71432, 
  "Melch@@": 44466, 
  "Senate": 1869, 
  "pflichten": 71433, 
  "verdienst@@": 66546, 
  "cr@@": 4155, 
  "gren": 22536, 
  "toward": 2288, 
  "Engad@@": 48966, 
  "tri@@": 2234, 
  "procedural": 10697, 
  "ahnhof": 53869, 
  "shifted": 10702, 
  "880": 34247, 
  "ichtlin@@": 66547, 
  "contraception": 19575, 
  "oppon@@": 51135, 
  "welen": 68831, 
  "lik@@": 11917, 
  "organe": 52998, 
  "888": 30752, 
  "SAR@@": 40292, 
  "randomly": 21462, 
  "berfläche": 66801, 
  "Window": 26871, 
  "opposing": 9597, 
  "High": 2599, 
  "Penn": 11712, 
  "spannungs@@": 61463, 
  "null": 31404, 
  "organs": 9923, 
  "Penh": 34992, 
  "bade@@": 54558, 
  "Sichuan": 24360, 
  "Selec@@": 30095, 
  "qualitativ": 59960, 
  "opt-in": 37787, 
  "Price": 9366, 
  "euch": 48165, 
  "red-@@": 11924, 
  "otom@@": 45227, 
  "Bearbeitung": 57129, 
  "past@@": 9981, 
  "-Log@@": 50518, 
  "aBDE": 47110, 
  "nav": 43284, 
  "archa@@": 48166, 
  "bioethanol": 29687, 
  "arkt": 46083, 
  "Seek@@": 36257, 
  "arks": 13438, 
  "Wochenende": 51307, 
  "Associations": 33097, 
  "aired": 13457, 
  "Kaiserin": 53242, 
  "verschuldet": 71436, 
  "Bau@@": 10972, 
  "sektor": 61464, 
  "Asbest": 66775, 
  "multilingual": 15809, 
  "Vorsch@@": 71438, 
  "Musikern": 71439, 
  "pad": 13650, 
  "port-@@": 30824, 
  "Chief": 3461, 
  "hired": 6492, 
  "aires": 8820, 
  "BT": 13789, 
  "Sitges": 38386, 
  "privatised": 34932, 
  "Vatikan": 63578, 
  "bzw": 34777, 
  "enswertes": 71440, 
  "astery": 55902, 
  "König@@": 33689, 
  "sturdy": 25080, 
  "Viewer": 29874, 
  "Abschlus@@": 71441, 
  "confinement": 24356, 
  "init": 40855, 
  "asters": 16003, 
  "einzuwenden": 70952, 
  "27.@@": 14681, 
  "part-time": 11245, 
  "astern": 54559, 
  "electrons": 29573, 
  "SketchUp": 43684, 
  "Boll@@": 18453, 
  "velocity": 25991, 
  "physics": 11183, 
  "enswerten": 66549, 
  "嘛@@": 72504, 
  "phenomenon": 5576, 
  "atischen": 70785, 
  "weht": 63966, 
  "Erfolg": 49420, 
  "NES@@": 43513, 
  "Beauftragten": 66550, 
  "wehr": 50006, 
  "resol@@": 37579, 
  "Mathi@@": 45527, 
  "Fin@@": 5246, 
  "ütz@@": 54560, 
  "inventing": 25711, 
  "velle": 22605, 
  "atisches": 55903, 
  "atischer": 59840, 
  "jung@@": 29320, 
  "eering": 31012, 
  "Rez@@": 30029, 
  "distressing": 24156, 
  "Inhaltes": 71446, 
  "nehme": 58790, 
  "Fic@@": 48458, 
  "justice": 1686, 
  "Cai@@": 29585, 
  "fax": 4785, 
  "Cruz": 10566, 
  "French": 791, 
  "bett@@": 55411, 
  "sym@@": 31344, 
  "ques": 6505, 
  "quer": 25053, 
  "einkommen": 66551, 
  "quet": 18380, 
  "entren@@": 36503, 
  "criticising": 20682, 
  "bungs@@": 72839, 
  "quez": 15729, 
  "Olymp@@": 21396, 
  "US-Bundes@@": 71450, 
  "Michelle": 8211, 
  "etc..": 29240, 
  "utting": 22585, 
  "us@@": 1737, 
  "bereiches": 61259, 
  "financing": 2596, 
  "Casaca": 36624, 
  "feels": 4216, 
  "Greco": 40409, 
  "Eaton": 28028, 
  "pretending": 20587, 
  "competing": 6672, 
  "combinations": 13867, 
  "Maxime": 43247, 
  "doctr@@": 34240, 
  "alledem": 66552, 
  "konzert": 55904, 
  "co-operate": 25719, 
  "vings": 33805, 
  "celebrates": 12527, 
  "performers": 11723, 
  "adhering": 27936, 
  "retaliation": 17261, 
  "Themes": 46084, 
  "stored": 4966, 
  "Schwangerschaft": 63580, 
  "hype": 21519, 
  "Weizen@@": 56490, 
  "Afrika-@@": 71455, 
  "konzern": 63581, 
  "Guides": 34826, 
  "Nissan": 15155, 
  "obi@@": 36258, 
  "patriotism": 27093, 
  "Franco": 16140, 
  "prim@@": 10191, 
  "éon": 45782, 
  "locale": 29454, 
  "Anna@@": 27787, 
  "Mutter@@": 52080, 
  "kitesur@@": 43590, 
  "Ex@@": 4123, 
  "spring@@": 19435, 
  "culture": 1182, 
  "面": 66555, 
  "5-00@@": 51308, 
  "abbau@@": 72230, 
  "mediators": 31405, 
  "Mama": 31108, 
  "Westphal@@": 43959, 
  "n-@@": 16206, 
  "gebrauchte": 71457, 
  "fications": 16764, 
  "locals": 8309, 
  "kunft": 66556, 
  "Jacob@@": 22453, 
  "berechtigt": 50058, 
  "Ser@@": 7239, 
  "acknowled@@": 28845, 
  "pictures": 2362, 
  "utopia": 31445, 
  "tolls": 24221, 
  "opped": 20327, 
  "Geschäftsverkehrs": 71458, 
  "FACULTAD": 46196, 
  "Realty": 17299, 
  "tolle": 50389, 
  "forman@@": 22151, 
  "Job@@": 23937, 
  "Eingreifen": 71459, 
  "order@@": 38048, 
  "stagnation": 18639, 
  "Isabella": 33918, 
  "jeden": 47339, 
  "jedem": 51136, 
  "missing": 2087, 
  "wai@@": 13959, 
  "Mi": 42139, 
  "sts": 4241, 
  "mistrust": 22160, 
  "Überlieferung": 63582, 
  "spray": 13524, 
  "ranked": 5756, 
  "jedes": 51865, 
  "rup@@": 13092, 
  "zipper": 39912, 
  "turbin@@": 51866, 
  "asser@@": 18377, 
  "collaborators": 23646, 
  "gewor@@": 62985, 
  "77@@": 13792, 
  "phishing": 33421, 
  "urbanisation": 34714, 
  "minorities": 4960, 
  "Steve": 3422, 
  "Provinzen": 66558, 
  "ཱ@@": 71460, 
  "Hamp@@": 19269, 
  "subsidiar@@": 56491, 
  "assem@@": 34593, 
  "forgotten": 6081, 
  "ausschalten": 70021, 
  "Napo@@": 45674, 
  "experimental": 9952, 
  "counsel@@": 18890, 
  "Absenden": 71461, 
  "ynthia": 21210, 
  "manipulieren": 71463, 
  "schlu": 58791, 
  "address": 842, 
  "solvency": 29195, 
  "WARR@@": 52081, 
  "gro@@": 4671, 
  "jah@@": 25019, 
  "Booger@@": 63584, 
  "Beschränkungen": 61466, 
  "Abra@@": 40904, 
  "Abonnement": 73331, 
  "indik@@": 63585, 
  "Obasanjo": 40167, 
  "Saudis": 27408, 
  "gleich": 47987, 
  "lecturers": 34594, 
  "genießen": 54124, 
  "Pain@@": 26255, 
  "Emmy": 19278, 
  "irresponsibility": 33868, 
  "add": 1231, 
  "langt": 61467, 
  "mentation": 21372, 
  "Protection": 4624, 
  "Portal": 20059, 
  "xis@@": 48356, 
  "worm@@": 37455, 
  "threaten": 8452, 
  "ppchen": 57133, 
  "ebel@@": 51677, 
  "tigung": 54969, 
  "empty": 4828, 
  "Tunn@@": 49071, 
  "appetiz@@": 29829, 
  "lived": 2945, 
  "EST@@": 26273, 
  "Manufac@@": 46059, 
  "Wegbereiter": 72865, 
  "modelling": 22496, 
  "N": 3054, 
  "Switch": 34030, 
  "Broadcasting": 21479, 
  "lives": 1094, 
  "Donna": 21435, 
  "Pick": 26914, 
  "Hassan": 15165, 
  "BAL@@": 32504, 
  "exacerbate": 22788, 
  "Beweise": 74901, 
  "Alster": 44643, 
  "truhe": 71464, 
  "pact": 8063, 
  "lak@@": 35102, 
  "intriguing": 17086, 
  "furgonetas": 33172, 
  "interaktive": 59964, 
  "ausgaben": 63586, 
  "ved@@": 35823, 
  "Nach": 54970, 
  "Kinofil@@": 73022, 
  "Hallenbad": 61273, 
  "Brad@@": 8084, 
  "peti@@": 18184, 
  "Degu@@": 49886, 
  "Maus@@": 49351, 
  "pace": 3467, 
  "ought": 4300, 
  "ML": 21502, 
  "leys": 21773, 
  "richtet": 55906, 
  "richter": 57134, 
  "guide": 3135, 
  "pack": 5799, 
  "Qatar": 9496, 
  "costly": 7592, 
  "deurop@@": 56771, 
  "Appe@@": 16478, 
  "ël": 26016, 
  "00h": 39979, 
  "Privath@@": 63319, 
  "00m": 32450, 
  "00s": 21655, 
  "Papayannakis": 37456, 
  "Géné@@": 36504, 
  "payers": 26568, 
  "concentration": 6381, 
  "Paste": 45218, 
  "灯": 76290, 
  "communal": 16195, 
  "Esther": 31644, 
  "sump@@": 47261, 
  "grant": 4220, 
  "Luke": 9479, 
  "Verheugen": 14639, 
  "molding": 34567, 
  "MW": 23717, 
  "issi@@": 37657, 
  "Whis@@": 30740, 
  "Extraordinary": 36189, 
  "abende": 71059, 
  "egel@@": 36129, 
  "grand": 4109, 
  "Maske": 57135, 
  "itäten": 63588, 
  "gr@@": 2593, 
  "Gaulle": 21855, 
  "composition": 6543, 
  "Mauritania": 22571, 
  "awar@@": 24499, 
  "fatty": 21393, 
  "hinab@@": 71858, 
  "Mitverantwortung": 71466, 
  "interfer@@": 21412, 
  "geschi@@": 56492, 
  "friends": 1046, 
  "youngsters": 13431, 
  "verlässt": 71467, 
  "Frei@@": 17992, 
  "Movies": 30141, 
  "001": 22890, 
  "000": 2793, 
  "erhebliche": 59965, 
  "Stag@@": 43430, 
  "lia": 8463, 
  "60": 1436, 
  "mobi": 48861, 
  "lib": 21926, 
  "Kommunismus": 67732, 
  "Fan@@": 23538, 
  "Mord@@": 48922, 
  "obviously": 2144, 
  "Collector": 38929, 
  "calibrated": 31955, 
  "influx": 15042, 
  "ос@@": 43874, 
  "consistency": 8644, 
  "antine": 31152, 
  "Eingabe": 57868, 
  "Grafton": 38506, 
  "Kenntnis": 56142, 
  "Fas@@": 20287, 
  "Living": 15490, 
  "empowered": 21749, 
  "exploits": 23340, 
  "bearer": 27241, 
  "rechts": 48357, 
  "Cavallo": 43153, 
  "settlements": 9139, 
  "technicians": 15309, 
  "reviewed": 7226, 
  "rechte": 50972, 
  "will@@": 15077, 
  "UV-@@": 37515, 
  "Witz": 55798, 
  "Reconstruction": 27050, 
  "demag@@": 71470, 
  "wirkliches": 64687, 
  "Giulio": 41976, 
  "lit": 9027, 
  "PIM": 44105, 
  "PIN": 30867, 
  "disseminate": 29875, 
  "informal": 7251, 
  "Strandnähe": 71471, 
  "PIC": 31345, 
  "PID": 44562, 
  "sanft": 58793, 
  "shortcut": 28330, 
  "loqui@@": 33869, 
  "dies@@": 33067, 
  "Landschafts@@": 59966, 
  "questioned": 5668, 
  "Commodore": 28187, 
  "Berkeley": 15548, 
  "wy@@": 6783, 
  "terungs@@": 66565, 
  "operators": 3632, 
  "Brig@@": 25377, 
  "Kazim@@": 49294, 
  "do-@@": 20016, 
  "Graphic": 37516, 
  "ight": 6143, 
  "Sicherheitssystem": 71598, 
  "showing": 2424, 
  "dentum": 66901, 
  "rufe": 59967, 
  "toll@@": 22586, 
  "esion": 54971, 
  "gewünscht": 60147, 
  "Diesel@@": 55907, 
  "1996-@@": 36972, 
  "logical": 6823, 
  "Antigua": 30711, 
  "dearly": 29321, 
  "Madeleine": 19956, 
  "gbar": 57880, 
  "Kulturhauptstadt": 66566, 
  "Nea": 45353, 
  "ponds": 26449, 
  "success": 825, 
  "Vorstands@@": 66567, 
  "Heim@@": 46037, 
  "Keynesian": 34306, 
  "multicultural": 22795, 
  "jack@@": 21485, 
  "ees": 8777, 
  "eer": 18485, 
  "eel": 23386, 
  "een": 7854, 
  "anony@@": 54561, 
  "fizierungen": 75987, 
  "beidseitig": 66568, 
  "popular": 1140, 
  "eed": 13334, 
  "terminology": 16647, 
  "Gebrauchs": 71475, 
  "premium": 5182, 
  "pt@@": 11255, 
  "sketch": 18185, 
  "cones": 29534, 
  "Dancing": 17749, 
  "Zah@@": 19382, 
  "radicalism": 33632, 
  "moo@@": 26525, 
  "fake": 8995, 
  "dnisses": 75181, 
  "Zappalà": 45337, 
  "lips": 15022, 
  "dnissen": 70985, 
  "Laos": 20996, 
  "Herrschaft": 52741, 
  "äler": 66680, 
  "mor@@": 2914, 
  "Butterfly": 36805, 
  "kodex": 69133, 
  "Tapp@@": 39803, 
  "ѓ@@": 54972, 
  "schön": 47340, 
  "AMA": 20471, 
  "mediterran@@": 51718, 
  "AME": 32919, 
  "AMD": 26600, 
  "AMG": 41801, 
  "competitions": 10459, 
  "tubes": 13952, 
  "Verarbeitung": 57882, 
  "Root@@": 42805, 
  "depres@@": 37457, 
  "97@@": 18511, 
  "AMP": 36442, 
  "AMS": 39281, 
  "uniqué": 23628, 
  "shotels": 54162, 
  "straße": 23311, 
  "Antlitz": 71477, 
  "folios": 49767, 
  "Protestant": 21798, 
  "Bild": 34417, 
  "Strategien": 57883, 
  "systemati@@": 46197, 
  "Shalit": 32106, 
  "negativen": 66570, 
  "Hän@@": 44804, 
  "Berges": 57884, 
  "Economics": 12307, 
  "opposes": 16697, 
  "allegi@@": 40627, 
  "Scherz": 54562, 
  "gman": 44354, 
  "assists": 9828, 
  "viewpoints": 28449, 
  "negatives": 32674, 
  "14,@@": 15018, 
  "spannender": 71478, 
  "Mekka": 55908, 
  "Taylor": 4760, 
  "Kell@@": 29649, 
  "岩@@": 71479, 
  "tse@@": 53870, 
  "samkeiten": 66572, 
  "sive-@@": 37150, 
  "ure@@": 35279, 
  "for@@": 2385, 
  "Distanz": 66573, 
  "rund@@": 52742, 
  "angry": 5726, 
  "silence": 6230, 
  "führen": 50254, 
  "efel@@": 44355, 
  "accessible": 3817, 
  "rats": 16207, 
  "Baron": 22167, 
  "spitze": 41121, 
  "Söl@@": 46355, 
  "Staatlichen": 57138, 
  "Schütz@@": 50391, 
  "watt": 23696, 
  "Steh@@": 52286, 
  "zu-@@": 53292, 
  "presupposes": 29196, 
  "Gershwin": 38688, 
  "würdigt": 76053, 
  "Sängerin": 60249, 
  "LIMIT@@": 38050, 
  "Ainardi": 46706, 
  "institut": 49072, 
  "Norman": 11341, 
  "Normal": 34086, 
  "tatsächliche": 63520, 
  "placing": 6850, 
  "6.7": 20442, 
  "Steg@@": 45975, 
  "Überlegungen": 56822, 
  "visas": 9747, 
  "getra@@": 63598, 
  "Koch": 19717, 
  "sich": 14720, 
  "Integration@@": 63599, 
  "Β@@": 54973, 
  "swi@@": 2320, 
  "ps@@": 26414, 
  "withholding": 22219, 
  "Comfort": 21667, 
  "PvP-@@": 57139, 
  "komfortable": 66575, 
  "Fragmente": 69200, 
  "tober": 39365, 
  "standardisierte": 71483, 
  "erlangen": 71484, 
  "arithme@@": 47578, 
  "Albufeira": 33156, 
  "tobel": 40104, 
  "tragically": 25020, 
  "scope": 2552, 
  "injection": 9628, 
  "nepo@@": 35547, 
  "SUN@@": 35337, 
  "zul@@": 45976, 
  "hero@@": 15648, 
  "Lay@@": 24426, 
  "Beibehaltung": 71486, 
  "Textform": 51680, 
  "vacancies": 22095, 
  "Nassauer": 31637, 
  "Rush@@": 26601, 
  "Nord-@@": 47111, 
  "Laf@@": 31347, 
  "prosecutor": 6270, 
  "performances": 5104, 
  "politik": 41072, 
  "undered": 25378, 
  "similar": 976, 
  "assassin@@": 17834, 
  "echner": 44495, 
  "broadened": 28279, 
  "ordered": 2771, 
  "interventions": 10448, 
  "Tv": 40865, 
  "Asyl@@": 66577, 
  "auszeichnet": 58794, 
  "accessibility": 12917, 
  "audible": 26333, 
  "Aviv": 17694, 
  "To": 3670, 
  "Edward": 7165, 
  "dding": 14155, 
  "Th": 47494, 
  "RM@@": 31309, 
  "evocative": 29197, 
  "Minim@@": 38916, 
  "PRIN@@": 43335, 
  "Redner": 61983, 
  "incen@@": 25234, 
  "ancestors": 18416, 
  "acceler@@": 32967, 
  "TX": 34087, 
  "TY": 37788, 
  "TV": 762, 
  "thematisiert": 71492, 
  "TT": 28808, 
  "TU": 34249, 
  "fears": 3538, 
  "TS": 10178, 
  "TP": 26915, 
  "Siddharta": 38762, 
  "ega-@@": 34476, 
  "application": 998, 
  "TL": 40184, 
  "TM": 9924, 
  "芦@@": 76115, 
  "TH": 31737, 
  "TI": 34707, 
  "department": 2340, 
  "Versicherung": 49263, 
  "Jaz@@": 43248, 
  "TE": 15870, 
  "TB": 16880, 
  "TC": 26215, 
  "arithmetic": 32818, 
  "TA": 12535, 
  "Customer": 8222, 
  "smiles": 19833, 
  "Stanford": 10171, 
  "verfallen": 71494, 
  "23@@": 6249, 
  "wohl": 42055, 
  "；": 71495, 
  "Estonian": 25407, 
  "T1": 42891, 
  "T.": 10977, 
  "Tiber@@": 42447, 
  "＄": 71496, 
  "graphically": 33633, 
  "fier@@": 15691, 
  "）": 57885, 
  "Mobiliar": 61475, 
  "，": 71497, 
  "ή@@": 46085, 
  "ausländische": 57886, 
  "e": 421, 
  "estro@@": 45041, 
  "Nennung": 71499, 
  "turbines": 17486, 
  "］": 71331, 
  "utilised": 24479, 
  "Per@@": 2683, 
  "Kauppi": 35751, 
  "membranes": 32711, 
  "eville": 24460, 
  "0.25": 28871, 
  "everywhere": 4730, 
  "opp@@": 10916, 
  "infringing": 29876, 
  "Widerstandes": 71500, 
  "ovina": 43812, 
  "Tochter@@": 71501, 
  "zögerlich": 71502, 
  "scratches": 30782, 
  "Gourmet@@": 53000, 
  "year@@": 11658, 
  "standort": 63603, 
  "Novi@@": 44653, 
  "hinweisen": 54564, 
  "umm@@": 21443, 
  "two@@": 32592, 
  "compact": 5999, 
  "gliedert": 74905, 
  "birthplace": 20487, 
  "100@@": 9972, 
  "flü@@": 47579, 
  "Nog": 41184, 
  "Schadenersatz@@": 61476, 
  "Ritter@@": 47001, 
  "FirstSpirit": 45675, 
  "aussergewöhnliche": 71505, 
  "Cote": 37001, 
  "Absichtserklärungen": 76166, 
  "lichkeit": 49596, 
  "Not": 7315, 
  "Nou": 32006, 
  "Nov": 8704, 
  "Now": 5910, 
  "friendly": 1761, 
  "Nor": 37517, 
  "Nos": 6554, 
  "chts@@": 60939, 
  "shar@@": 10779, 
  "les-@@": 41392, 
  "Bergamo": 39913, 
  "KM@@": 27254, 
  "celebrities": 9421, 
  "Raab": 42304, 
  "genius": 13893, 
  "spielerisch": 71508, 
  "wave": 4105, 
  "pot@@": 11915, 
  "Solidarität": 59969, 
  "Großen": 61477, 
  "muscular": 22330, 
  "telling": 3300, 
  "yourselves": 16906, 
  "denomin@@": 40866, 
  "Acquisition": 29574, 
  "圓@@": 63604, 
  "Embryo": 52743, 
  "Charlotte": 10641, 
  "No.": 3392, 
  "豫@@": 73626, 
  "資": 71509, 
  "beliebt": 66582, 
  "Interessierte": 55620, 
  "positions": 2244, 
  "watered": 25832, 
  "angriff": 66574, 
  "Monopo@@": 43431, 
  "Großes": 58795, 
  "standard@@": 40185, 
  "befragten": 71510, 
  "akut": 59970, 
  "Fürst": 50973, 
  "cloister": 39507, 
  "enforce": 9204, 
  "Spät@@": 51311, 
  "bean@@": 39849, 
  "Index": 9499, 
  "facilitating": 13277, 
  "touristischen": 77015, 
  "hilosophie": 71511, 
  "Inder": 59971, 
  "wordings": 38843, 
  "Mistral": 32346, 
  "vas@@": 31013, 
  "jump": 5708, 
  "concur@@": 20263, 
  "Camera": 24610, 
  "ò@@": 20880, 
  "notwithstanding": 15837, 
  "Mod@@": 28846, 
  "vince": 54061, 
  "Patch@@": 43875, 
  "pper@@": 41706, 
  "IGC": 12532, 
  "Mönch": 47112, 
  "neighbour@@": 42559, 
  "s-Ro@@": 52131, 
  "Geburtstag": 52744, 
  "legisl@@": 35486, 
  "einige": 46198, 
  "Grid": 27899, 
  "Totalit@@": 54602, 
  "Etagen@@": 66583, 
  "troly@@": 36190, 
  "miser@@": 36402, 
  "stru@@": 18226, 
  "internationalen": 50519, 
  "auszusprechen": 71513, 
  "Steuer": 54567, 
  "sportive": 40215, 
  "bi@@": 1988, 
  "Freigabe": 66584, 
  "Madel@@": 47750, 
  "raff@@": 36052, 
  "Ausbildung": 50974, 
  "fikationen": 70551, 
  "Wohnhäuser": 66586, 
  "verbleibt": 61478, 
  "budd@@": 45128, 
  "fifteenth": 39142, 
  "radicals": 23730, 
  "Fish@@": 21438, 
  "vri@@": 32338, 
  "1.5@@": 20798, 
  "signposted": 37280, 
  "kidnapped": 12691, 
  "vereinbart": 53872, 
  "د": 47886, 
  "Diskotheken": 71517, 
  "Scen@@": 33314, 
  "convert": 8091, 
  "genz": 57887, 
  "ج": 63078, 
  "Palace": 4436, 
  "Anwendungs@@": 57888, 
  "Fell@@": 29198, 
  "far-@@": 13369, 
  "net.@@": 41638, 
  "Back": 12009, 
  "Bach": 20739, 
  "blumen@@": 76677, 
  "Enhes@@": 59973, 
  "Freier": 51323, 
  "bereichs@@": 71518, 
  "Coel@@": 53001, 
  "Damp@@": 45868, 
  "Arti@@": 27748, 
  "gene": 9890, 
  "salvation": 22740, 
  "Constantin@@": 37028, 
  "patents": 7673, 
  "Voc@@": 38217, 
  "ء": 54473, 
  "foresee": 23387, 
  "airspace": 13968, 
  "Doctor": 12815, 
  "subsidi@@": 24358, 
  "Assistance": 17247, 
  "manage": 2663, 
  "Melan@@": 42561, 
  "Pionier": 59974, 
  "ا": 47505, 
  "gut@@": 16748, 
  "sunn@@": 51482, 
  "Cornillet": 41883, 
  "wür@@": 57140, 
  "atedly": 30012, 
  "Fribourg": 35380, 
  "Open-Sour@@": 66587, 
  "iration": 48264, 
  "Lecce": 42965, 
  "überwachung": 58798, 
  "1,500": 10509, 
  "ظ": 72005, 
  "Seminare": 56977, 
  "symbolische": 71521, 
  "camera": 2158, 
  "czy@@": 32804, 
  "ranks": 6278, 
  "Bird-of-Prey": 44563, 
  "IGN": 39064, 
  "Bou@@": 8887, 
  "historically": 9109, 
  "Steuerung": 58377, 
  "Wellness@@": 50975, 
  "formally": 6924, 
  "stätter": 51137, 
  "Markus": 22004, 
  "advis@@": 30303, 
  "about": 59, 
  "visibility": 9829, 
  "charming": 4964, 
  "ystick": 38711, 
  "Dj@@": 8455, 
  "Direkt@@": 51681, 
  "س": 47465, 
  "stätten": 52513, 
  "Run@@": 23071, 
  "weitergehende": 61480, 
  "rivalry": 15945, 
  "appointed": 3350, 
  "resize": 40482, 
  "Benchmarking": 51138, 
  "fängt": 63605, 
  "Geschenke": 59975, 
  "medium-@@": 22602, 
  "poin@@": 18081, 
  "Kunden": 42004, 
  "е@@": 19444, 
  "lapse": 21373, 
  "eto@@": 40446, 
  "leitenden": 59976, 
  "ط": 52455, 
  "recession": 3019, 
  "fänge": 66896, 
  "easier": 2319, 
  "incremental": 23917, 
  "business-@@": 21050, 
  "VIII": 23388, 
  "servants": 10521, 
  "Aceh": 32593, 
  "Sain@@": 17639, 
  "meet": 793, 
  "ص": 71522, 
  "verfahrens": 67113, 
  "stiegs@@": 74776, 
  "All-In-One": 39143, 
  "Beschäftigten": 77509, 
  "fung@@": 17847, 
  "votre": 36683, 
  "Israeli": 2245, 
  "Notfall@@": 63606, 
  "links": 1973, 
  "fallenen": 73748, 
  "Osse@@": 41325, 
  "Karriere": 55912, 
  "tseller": 31014, 
  "PayPal": 17332, 
  "prioritise": 23866, 
  "Nou@@": 27553, 
  "ations-": 52745, 
  "234": 31328, 
  "Mr.": 422, 
  "pulling": 8580, 
  "ieves": 42141, 
  "sought": 2999, 
  "geziel@@": 70277, 
  "bowl": 10239, 
  "Giard@@": 50976, 
  "Reifen": 55913, 
  "sically": 53002, 
  "Eindämmung": 71525, 
  "Apartament@@": 52746, 
  "embodiment": 33173, 
  "defective": 19033, 
  "picturesque": 7385, 
  "empfehlen": 50520, 
  "meanwhile": 2294, 
  "SCO@@": 36320, 
  "Böden": 66591, 
  "sentiments": 18258, 
  "232": 26010, 
  "Reservation": 34868, 
  "Hume": 28963, 
  "Beauty-@@": 55914, 
  "Anstoß": 77841, 
  "Lionel": 21189, 
  "fare": 6822, 
  "H10": 38970, 
  "führ@@": 59977, 
  "employee": 4746, 
  "Strategi@@": 65650, 
  "Bushill-@@": 66593, 
  "farm": 3520, 
  "peeling": 32968, 
  "Parallelen": 71527, 
  "ires": 8036, 
  "Mrs": 575, 
  "Burg@@": 33548, 
  "politisch": 59416, 
  "glieder": 71529, 
  "trees": 3218, 
  "tland": 33264, 
  "Mrd": 52774, 
  "ired": 16820, 
  "ḏ": 71530, 
  "merklich": 71531, 
  "angesichts": 58387, 
  "Cabo": 35104, 
  "famous": 1279, 
  "Institution@@": 52514, 
  "1930@@": 50230, 
  "streifen": 75341, 
  "Avaaz": 34031, 
  "Arzneimittel@@": 61482, 
  "Guard": 8398, 
  "Arrangements": 47113, 
  "fill@@": 22411, 
  "siger": 51483, 
  "embra@@": 54474, 
  "favourites": 15643, 
  "plätze": 58799, 
  "akzeptierten": 66595, 
  "insofern": 61483, 
  "kursen": 71534, 
  "Verschuldung": 71535, 
  "Activ@@": 20054, 
  "fälle": 55915, 
  "Suanzes-Carpegna": 44946, 
  "atine": 43723, 
  "klassi@@": 55412, 
  "usch@@": 51600, 
  "basement": 12677, 
  "ens": 2624, 
  "rati": 47014, 
  "Glasgo@@": 42892, 
  "ms@@": 19422, 
  "egesellschaft": 53141, 
  "including": 190, 
  "costume": 15713, 
  "fällt": 55413, 
  "ų@@": 71536, 
  "Ord@@": 33606, 
  "gion": 24590, 
  "pol@@": 5982, 
  "63@@": 21754, 
  "Nichteinhaltung": 62644, 
  "Distri@@": 32156, 
  "RAF": 17932, 
  "Orchester@@": 61484, 
  "freigegeben": 66596, 
  "asi@@": 8265, 
  "RAC": 37345, 
  "ourn@@": 48678, 
  "thank@@": 32820, 
  "d&apos;état": 37861, 
  "temporal": 26399, 
  "RAM": 15363, 
  "objektiv": 71537, 
  "innovativsten": 76349, 
  "Jähr@@": 71538, 
  "RAI": 38424, 
  "RAW": 25021, 
  "nordöstlichen": 71539, 
  "ser@@": 4628, 
  "RAR": 42966, 
  "Seri@@": 23193, 
  "backpackers": 34709, 
  "bin": 4062, 
  "emark@@": 33509, 
  "Avail@@": 42713, 
  "Arbeitsmarkt@@": 59979, 
  "iertesten": 66195, 
  "पर@@": 38754, 
  "-Station": 71540, 
  "eably": 46412, 
  "dź": 46725, 
  "quartered": 47739, 
  "articulation": 32969, 
  "frontal": 30013, 
  "reservoir": 21473, 
  "Brecht": 39899, 
  "訃@@": 71541, 
  "Alma@@": 33714, 
  "gewaltsam": 66600, 
  "ffle": 12611, 
  "mission@@": 28533, 
  "Sohn@@": 66601, 
  "optimal": 7931, 
  "left-wing": 17117, 
  "Venus": 16367, 
  "Wörtern": 66602, 
  "instrumenten": 71542, 
  "projekte": 53873, 
  "kilometres": 6307, 
  "Layer": 25833, 
  "withdraw@@": 53591, 
  "laun@@": 16531, 
  "Tinten@@": 66603, 
  "痴": 71543, 
  "gewissen": 77817, 
  "university": 2826, 
  "enk@@": 8306, 
  "復@@": 71544, 
  "slide": 6660, 
  "Insi@@": 47823, 
  "agonal": 43336, 
  "taschen": 59980, 
  "TD@@": 41478, 
  "Käufer": 48679, 
  "prevailing": 13547, 
  "Statistics": 14156, 
  "attachments": 25301, 
  "ener@@": 36443, 
  "Schlach@@": 55414, 
  "Bertrand": 30660, 
  "stigen": 53447, 
  "Contractor": 28571, 
  "constitute": 5922, 
  "stiger": 59981, 
  "investigative": 16957, 
  "Tele@@": 38051, 
  "separating": 18242, 
  "Dire@@": 53592, 
  "multiple-@@": 33973, 
  "transitions": 26162, 
  "Prox@@": 47675, 
  "Gegenleistung": 58738, 
  "wartet": 54570, 
  "zione": 23867, 
  "depriving": 27571, 
  "CEE": 33468, 
  "zubehör": 57143, 
  "hervorragenden": 66605, 
  "sprinzip": 71545, 
  "entertainment": 3405, 
  "CEO": 3205, 
  "CEN": 45129, 
  "zioni": 37400, 
  "Anreize": 71546, 
  "bij": 38276, 
  "thoch@@": 57881, 
  "gepackt": 71547, 
  "CET": 23647, 
  "CES": 29616, 
  "endea@@": 31738, 
  "hervorragender": 63608, 
  "gloves": 16619, 
  "irrevoc@@": 28994, 
  "cause": 1052, 
  "exo@@": 30910, 
  "Brüdern": 71548, 
  "aloge": 59773, 
  "post-crisis": 35733, 
  "Fleming": 21718, 
  "mois@@": 53448, 
  "Gästeh@@": 72407, 
  "Sachsenhausen": 46087, 
  "Nahr@@": 54974, 
  "galaxies": 18876, 
  "delegates": 8185, 
  "honour@@": 46865, 
  "hihostels.com": 42222, 
  "anonym@@": 47676, 
  "Aurora": 22043, 
  "heime": 63609, 
  "delegated": 22572, 
  "Barceloneta": 42714, 
  "resumed": 8773, 
  "Gallag@@": 54368, 
  "Vorschrift": 69221, 
  "premier@@": 9596, 
  "determining": 9322, 
  "Owen": 12862, 
  "stiftung": 46952, 
  "timer": 21273, 
  "times": 429, 
  "Ruhe@@": 66607, 
  "timen": 66608, 
  "confrontations": 27617, 
  "zuzüglich": 61485, 
  "timed": 20417, 
  "59-@@": 25795, 
  "Reproduktion": 58800, 
  "aissance": 22248, 
  "magnetischen": 71551, 
  "Fett": 55916, 
  "Prophet": 18565, 
  "Messung": 57144, 
  "confuse": 20661, 
  "seventeen": 30104, 
  "Personen-": 71070, 
  "MEN@@": 35775, 
  "KEY@@": 39508, 
  "Ide@@": 27432, 
  "aperture": 33384, 
  "Mehrwertsteuer@@": 63610, 
  "geführten": 61486, 
  "folge": 54572, 
  "Ced@@": 21211, 
  "Contracts": 34828, 
  "orthop@@": 31831, 
  "KED@@": 66611, 
  "echan@@": 33747, 
  "pay@@": 5606, 
  "erschienen": 53671, 
  "Frau": 41185, 
  "tarif@@": 46922, 
  "ones": 1412, 
  "ankle": 9812, 
  "Marketing-@@": 52205, 
  "survi@@": 11569, 
  "Past@@": 26657, 
  "feder": 53593, 
  "Vorgehensweisen": 63611, 
  "unerträglich": 71553, 
  "釉@@": 61488, 
  "parap@@": 22986, 
  "Bildergalerie": 63612, 
  "Kabel@@": 53875, 
  "je@@": 6613, 
  "lists": 4506, 
  "chemicals": 6138, 
  ".png": 51414, 
  "막@@": 71554, 
  "liste": 39209, 
  "natural": 834, 
  "Hauptanliegen": 71556, 
  "zag@@": 38002, 
  "catered": 30753, 
  "topbonus": 37215, 
  "Einsatz@@": 50808, 
  "osc@@": 35338, 
  "groes@@": 59653, 
  "verbinden": 59986, 
  "unreliable": 23951, 
  "Gastgeber@@": 63614, 
  "景": 66498, 
  "submitted": 1759, 
  "@@": 71558, 
  "剥@@": 58801, 
  "ss": 5236, 
  "Djibouti": 35664, 
  "при@@": 40552, 
  "konstru@@": 54573, 
  "zugeben": 66613, 
  "verbindet": 56503, 
  "sq": 17480, 
  "Zink": 49650, 
  "crisis-@@": 28042, 
  "enforced": 11235, 
  "sp": 24794, 
  "sweeteners": 34032, 
  "Unfall": 71559, 
  "Flying": 22741, 
  "algorith@@": 44256, 
  "Fertigung": 52515, 
  "ordinarily": 37422, 
  "horrors": 22320, 
  "TRIPS": 35966, 
  "Other": 7919, 
  "Kaninchen": 63615, 
  "manchmal": 56055, 
  "Interview": 35548, 
  "Editions": 38153, 
  "CLE@@": 38218, 
  "sk": 9741, 
  "Administrator": 24921, 
  "besto@@": 30227, 
  "SIGN@@": 44257, 
  "herkömmlichen": 76520, 
  "Zwang@@": 71561, 
  "betreffen": 62683, 
  "grundsätzlicher": 71563, 
  "McKin@@": 21912, 
  "battles": 8944, 
  "relatives": 5917, 
  "Erreichbarkeit": 59987, 
  "7.7": 22243, 
  "grundsätzlichen": 66615, 
  "könig": 49474, 
  "Abstra@@": 40780, 
  "Nachteile": 63616, 
  "Kälte": 66616, 
  "Λ@@": 60579, 
  "blades": 22474, 
  "Pueblo": 39590, 
  "schiffe": 66617, 
  "Drehen": 71564, 
  "PIN@@": 41130, 
  "regt": 63617, 
  "discos": 28148, 
  "Prozed@@": 71565, 
  "schlä@@": 53594, 
  "Pop@@": 17211, 
  "Lock@@": 11479, 
  "counterbalance": 37401, 
  "Centres": 28657, 
  "zeugnissen": 76543, 
  "Geographic": 25992, 
  "rege": 71206, 
  "intrinsic": 24722, 
  "gallery": 4908, 
  "probable": 13023, 
  "indu": 53876, 
  "ure": 3096, 
  "urg": 34477, 
  "科": 63618, 
  "ura": 8994, 
  "url": 39914, 
  "denburg": 43956, 
  "urn": 14876, 
  "uro": 16426, 
  "uri": 19328, 
  "brought": 1026, 
  "Fellow": 31646, 
  "astonishing": 13364, 
  "uru": 27653, 
  "pologie": 50809, 
  "fluor@@": 19815, 
  "inda": 25130, 
  "Bauweise": 71566, 
  "urs": 3731, 
  "种": 66618, 
  "gest": 17786, 
  "bia": 16388, 
  "Islam": 5482, 
  "indi": 23341, 
  "ury": 12621, 
  "秋": 71567, 
  "Turmes": 36130, 
  "scheid": 43776, 
  "underpins": 32355, 
  "kühlt": 66620, 
  "Park": 1376, 
  "TUIfly": 38755, 
  "schein": 46954, 
  "Rande": 52748, 
  "halting": 23194, 
  "south-east": 17284, 
  "fores@@": 21374, 
  "Wetter": 52288, 
  "underdevelopment": 38877, 
  "echt@@": 47677, 
  "kühle": 69285, 
  "übertrieben": 71570, 
  "Agam@@": 43514, 
  "skosten": 63619, 
  "abstentions": 34765, 
  "bestanden": 61345, 
  "Alkohol@@": 66622, 
  "Lumix": 33748, 
  "unfinished": 21598, 
  "übersichtlichen": 71571, 
  "nes@@": 21656, 
  "brighter": 22497, 
  "destabilisation": 38287, 
  "Part": 12506, 
  "Verhandlungs@@": 66623, 
  "übersichtlicher": 71572, 
  "inherited": 12856, 
  "Befestigungs@@": 71573, 
  "emon@@": 36131, 
  "bestandes": 66624, 
  "FYROM": 28507, 
  "achieve": 1043, 
  "betriebene": 75409, 
  "zweifelt": 76398, 
  "menschliches": 71574, 
  "menschlicher": 71575, 
  "Galax@@": 46726, 
  "Marquis": 36863, 
  "LAB@@": 35025, 
  "Wall@@": 13510, 
  "kopf": 39283, 
  "maritime": 5573, 
  "decentralisation": 27211, 
  "verbesser@@": 71576, 
  "Rosner": 40628, 
  "shoch@@": 55918, 
  "Fitness": 18292, 
  "starred": 12456, 
  "dwellings": 31739, 
  "menschlichen": 59990, 
  "professors": 18227, 
  "susp@@": 27716, 
  "Bezirke": 61489, 
  "tobacco": 4820, 
  "Dei@@": 22921, 
  "themen@@": 66625, 
  "tuned": 16821, 
  "experiments": 9258, 
  "mittag@@": 65682, 
  "embracing": 16874, 
  "tunes": 22363, 
  "Austrian": 4085, 
  "löst": 58527, 
  "LEONARDO": 50521, 
  "embryonic": 21599, 
  "Yanukov@@": 27799, 
  "widow": 15936, 
  "oi@@": 34307, 
  "punkt": 49468, 
  "multiplying": 33469, 
  "römischen": 58803, 
  "shot@@": 20307, 
  "Montepulciano": 36444, 
  "Fahrt@@": 63620, 
  "Theor@@": 49528, 
  "Sohnes": 76615, 
  "Billig@@": 71581, 
  "Bosco": 35639, 
  "Send": 29535, 
  "immigrant": 10387, 
  "officials": 487, 
  "faces": 2617, 
  "ocracy": 31064, 
  "operated": 5362, 
  "marken@@": 58804, 
  "Seychelles": 23283, 
  "Neut@@": 34054, 
  "conductivity": 37789, 
  "Apartamentos": 29206, 
  "Wisconsin": 8749, 
  "Regionen": 54977, 
  "oted": 11064, 
  "Homosexu@@": 50393, 
  "nightmare": 12351, 
  "illusory": 36750, 
  "tene": 49422, 
  "tend": 4419, 
  "Cau@@": 24986, 
  "macros": 37458, 
  "Verges@@": 71582, 
  "Andalusi@@": 50810, 
  "alteten": 71583, 
  "minim@@": 12808, 
  "tyre": 21375, 
  "Verschulden": 53842, 
  "tens": 4824, 
  "auszutauschen": 63621, 
  "Citi@@": 26763, 
  "Herstellers": 55417, 
  "mainly": 2208, 
  "tent": 9844, 
  "ken": 6949, 
  "diversi@@": 29482, 
  "kel": 20939, 
  "seams": 29915, 
  "200-@@": 19156, 
  "Sit@@": 26764, 
  "Goldener": 45338, 
  "ked": 5027, 
  "Emirate": 46576, 
  "interfere": 12208, 
  "ergonomic": 29070, 
  "kicking": 12095, 
  "X.@@": 34365, 
  "verw@@": 56504, 
  "Spazier@@": 66626, 
  "key": 504, 
  "Parallel@@": 55919, 
  "one-stop": 26526, 
  "gestellte": 61490, 
  "ket": 21992, 
  "kes": 6108, 
  "ker": 2704, 
  "mage": 21077, 
  "süß": 71585, 
  "hits": 3988, 
  "Venedig": 54198, 
  "internationally": 5630, 
  "limits": 2904, 
  "situ@@": 21246, 
  "vn@@": 42861, 
  "PA-@@": 43309, 
  "Tian@@": 43967, 
  "sein": 20569, 
  "strains": 15654, 
  "kans": 52725, 
  "Quebec": 16045, 
  "Institutionen": 58805, 
  "83@@": 23018, 
  "estimation": 28766, 
  "has@@": 33214, 
  "17@@": 2667, 
  "lierungen": 71568, 
  "Karls@@": 50811, 
  "diplomats": 8655, 
  "15.00": 29360, 
  "Differ@@": 26416, 
  "Kne@@": 38619, 
  "forty": 15793, 
  "Agencies": 35047, 
  "3G": 17152, 
  "periode": 54199, 
  "laim@@": 20409, 
  "-Bus": 48823, 
  "Einleitung": 56845, 
  "gesprochen": 66629, 
  "tath@@": 45536, 
  "erased": 25054, 
  "widri@@": 63332, 
  "sin@@": 6194, 
  "thanked": 16020, 
  "ков@@": 46384, 
  "a2@@": 44733, 
  "Alle@@": 48563, 
  "immense": 9676, 
  "liberals": 15773, 
  "ri@@": 1124, 
  "Olympischen": 58806, 
  "lage@@": 46700, 
  "ship": 1640, 
  "Conserv@@": 27469, 
  "Editing": 4866, 
  "aler@@": 28005, 
  "Bail@@": 29455, 
  "ausgestatteten": 72633, 
  "shoulders": 11503, 
  "optionally": 26988, 
  "controlled": 2951, 
  "tors": 4487, 
  "retrospective": 23616, 
  "ärztlichen": 77573, 
  "Ostsee": 57146, 
  "opold": 53543, 
  "Themen@@": 59993, 
  "Wellington": 18712, 
  "begrenzungen": 71590, 
  "Courses": 36865, 
  "controller": 9328, 
  "-LSB-": 323, 
  "abortions": 17212, 
  "illar": 47751, 
  "smoking": 4954, 
  "ausgestattetes": 63625, 
  "zentrums": 58807, 
  "wood": 1850, 
  "debtor": 29929, 
  "Sturm": 42806, 
  "adores": 36761, 
  "Inclusive": 38457, 
  "Jean-@@": 16468, 
  "13,@@": 13829, 
  "Einstell@@": 63626, 
  "stsein": 71592, 
  "形@@": 71593, 
  "Sturz": 57147, 
  "dynamism": 18112, 
  "broadly": 8699, 
  "orgas@@": 45977, 
  "forfei@@": 28188, 
  "Kompromiss": 66632, 
  "zusehen": 71594, 
  "enken": 63948, 
  "Kalender": 54979, 
  "conveni@@": 42601, 
  "Repräsent@@": 58808, 
  "Konstruktion": 51798, 
  "examines": 19737, 
  "quired": 29536, 
  "Qaddafi": 15746, 
  "bark@@": 26216, 
  "900@@": 19498, 
  "arm@@": 11021, 
  "zeitschrift": 63627, 
  "asiatische": 66453, 
  "ive": 24138, 
  "Juli@@": 16921, 
  "examined": 5678, 
  "hearted": 17665, 
  "jord@@": 47035, 
  "cometh": 35487, 
  "gespräche": 57565, 
  "endgültigen": 65338, 
  "inciner@@": 25996, 
  "Eurogroup": 31691, 
  "Typen": 63628, 
  "stimmungs@@": 66634, 
  "thereby": 4145, 
  "Spart@@": 22766, 
  "parti": 32047, 
  "divergences": 36625, 
  "anon": 41338, 
  "Flusses": 66635, 
  "Leitfaden": 69366, 
  "Bangkok": 10248, 
  "parts": 997, 
  "speaker": 4233, 
  "northwest": 10744, 
  "Vor-": 61491, 
  "Autoren@@": 66636, 
  "atop@@": 40867, 
  "party": 519, 
  "Ecu@@": 40041, 
  "massa@@": 53005, 
  "sprin@@": 11291, 
  "handic@@": 45211, 
  "http": 2189, 
  "estadt": 51682, 
  "Abkommen": 66637, 
  "regul@@": 14938, 
  "Curie": 39509, 
  "Grosch": 37090, 
  "buy-@@": 21503, 
  "colouring": 36866, 
  "Evi@@": 36067, 
  "Schneeschuh@@": 61492, 
  "impeccable": 24222, 
  "Cardassia": 44467, 
  "destruction": 4432, 
  "rift": 12596, 
  "scarcely": 16685, 
  "Kazon": 44013, 
  "Experimente": 53596, 
  "ू@@": 23777, 
  "els-@@": 47856, 
  "grenzten": 71596, 
  "dissip@@": 26339, 
  "ské": 31707, 
  "suppl@@": 19544, 
  "rife": 23568, 
  "insurmountable": 31593, 
  "riff": 35713, 
  "40-@@": 9401, 
  "Taxifahrer": 76399, 
  "Neuigkeit": 63632, 
  "corporation": 10763, 
  "Vorderseite": 61493, 
  "grenzung": 71597, 
  "Milch": 53877, 
  "drilling": 8577, 
  "fond@@": 26450, 
  "MacOS": 37281, 
  "Flower": 23594, 
  "emaking": 24280, 
  "increasingly": 1671, 
  "す@@": 54050, 
  "Rechtsstreitigkeiten": 78494, 
  "egender": 66638, 
  "UNIF@@": 43154, 
  "Zei@@": 33870, 
  "InstallShield": 43272, 
  "distant": 8278, 
  "CS@@": 8562, 
  "möglichkeit": 56507, 
  "advertised": 17768, 
  "lecker": 57893, 
  "geschafft": 58809, 
  "pat@@": 5803, 
  "Gaming": 23632, 
  "Bellevue": 28450, 
  "Osten": 51484, 
  "density": 11722, 
  "headed": 4112, 
  "akon@@": 50103, 
  "Auge": 52516, 
  "maladministration": 34077, 
  "a.@@": 9024, 
  "梁": 71599, 
  "4-": 46253, 
  "Divi@@": 26728, 
  "Reiset@@": 58811, 
  "み@@": 56881, 
  "Guantánamo": 17400, 
  "indignation": 23072, 
  "HKD": 43432, 
  "Industriestand@@": 68419, 
  "hin@@": 9759, 
  "zusammenhängenden": 66639, 
  "Check-out": 54201, 
  "GWN": 42715, 
  "disappearance": 10377, 
  "Ak@@": 6535, 
  "vener@@": 23985, 
  "WAR@@": 39591, 
  "ALTENER": 43337, 
  "vorstehenden": 58812, 
  "압@@": 71600, 
  "Limit": 34778, 
  "Nelson": 8040, 
  "ierbar": 66640, 
  "propeller": 35956, 
  "intersection": 17378, 
  "ierten@@": 55419, 
  "motivating": 29307, 
  "Final@@": 53067, 
  "demic": 48344, 
  "loss": 1048, 
  "Cookies": 34779, 
  "necessary": 485, 
  "Proper@@": 47788, 
  "lost": 723, 
  "header": 11445, 
  "tles": 33174, 
  "tler": 26491, 
  "rots": 23493, 
  "rott": 46566, 
  "Hitze": 61494, 
  "Embedded-@@": 66641, 
  "payments": 2172, 
  "Canadi@@": 14939, 
  "lose": 2071, 
  "Clam@@": 45435, 
  "dresser": 41257, 
  "Ril@@": 18579, 
  "awes@@": 42056, 
  "tled": 15430, 
  "leere": 66642, 
  "cer@@": 7139, 
  "irgendwie": 55420, 
  "Nützlichkeit": 71602, 
  "Folie": 53598, 
  "Thunder": 18759, 
  "lizenz@@": 57148, 
  "Mayan": 32293, 
  "unterschiedlichste": 67247, 
  "U2": 27051, 
  "U-": 54980, 
  "U.": 21629, 
  "enforc@@": 27618, 
  "EEK": 39888, 
  "omateri@@": 62795, 
  "EEE": 51868, 
  "home": 231, 
  "unlautere": 66644, 
  "EEF": 49651, 
  "EEA": 31692, 
  "EEC": 14400, 
  "Bohemia": 26602, 
  "solving": 8671, 
  "moderates": 26438, 
  "overlay": 34829, 
  "contributing": 6921, 
  "broad": 2453, 
  "objected": 19776, 
  "jewell@@": 42306, 
  "Kulturen": 44947, 
  "grinding": 18697, 
  "cradle": 25789, 
  "moderated": 30096, 
  "inflammation": 18993, 
  "deprivation": 23714, 
  "him@@": 19777, 
  "Strang": 48775, 
  "demonstrated": 4282, 
  "Blauen": 57877, 
  "limitations": 8990, 
  "Mose": 53967, 
  "块": 76091, 
  "CI@@": 15231, 
  "Trib@@": 42808, 
  "parquet": 28102, 
  "Hansestadt": 57073, 
  "Straight": 35105, 
  "mal@@": 4791, 
  "Up": 8081, 
  "rasch": 55043, 
  "Um": 46491, 
  "Un": 23265, 
  "Tenerife": 19393, 
  "モ@@": 66242, 
  "tripwolf": 38878, 
  "glichem": 63634, 
  "Dreh@@": 54202, 
  "mac@@": 12933, 
  "amnesty": 19390, 
  "Textil@@": 53576, 
  "Euratom": 20644, 
  "az@@": 5469, 
  "Miteinander": 61495, 
  "ao@@": 30589, 
  "UT": 19313, 
  "UV": 18792, 
  "UP": 18337, 
  "US": 294, 
  "nightclub": 16993, 
  "UM": 20222, 
  "UL": 26569, 
  "zauber@@": 66492, 
  "UI": 35056, 
  "UK": 705, 
  "UE": 22514, 
  "Jordi": 39075, 
  "UG": 41552, 
  "Statistik": 56147, 
  "UA": 39144, 
  "UC": 18243, 
  "UB": 35890, 
  "Garibaldi": 40553, 
  "Communists": 27255, 
  "Katholiken": 68771, 
  "开@@": 63636, 
  "fettered": 55421, 
  "previously": 1780, 
  "Buen@@": 42952, 
  "PREMI@@": 42402, 
  "Rosa@@": 49192, 
  "Klamt": 42307, 
  "gramm": 53509, 
  "cocoa": 19341, 
  "ultrasound": 26096, 
  "Internal": 7861, 
  "scharfe": 61496, 
  "victim@@": 22956, 
  "pointless": 16966, 
  "4D": 39955, 
  "Straße": 29456, 
  "Theorin": 43218, 
  "Jamie": 8760, 
  "gruppe": 44060, 
  "weges": 63455, 
  "ité": 8475, 
  "itä": 66649, 
  "共@@": 65905, 
  "ità": 31885, 
  "Ehepaar": 78591, 
  "afrika": 66650, 
  "ernannt": 70786, 
  "Daphne": 24306, 
  "Queb@@": 43249, 
  "acquis@@": 39850, 
  "4A": 40590, 
  "⁄@@": 55422, 
  "Apri": 62123, 
  "Seuchen": 71611, 
  "ausstellungen": 59994, 
  "north": 1985, 
  "itably": 30222, 
  "melden": 57149, 
  "tor-@@": 17101, 
  "echter": 48231, 
  "inspirieren": 66196, 
  "fountains": 25654, 
  "blaming": 16901, 
  "Chamber": 4398, 
  "Feinsten": 63641, 
  "strawberries": 29575, 
  "gain": 2139, 
  "García-@@": 49267, 
  "Ergebnis@@": 64220, 
  "Austr@@": 27687, 
  "itable": 15332, 
  "highest": 1463, 
  "Metro@@": 20346, 
  "fassten": 71612, 
  "astra": 44840, 
  "安@@": 55423, 
  "Sitzung": 59996, 
  "Astrid": 39601, 
  "ausbau": 71613, 
  "itin": 44948, 
  "Kinnock": 16360, 
  "King@@": 11528, 
  "Forstwirtschaft": 71615, 
  "Einstein": 20662, 
  "CON@@": 20267, 
  "itis": 22264, 
  "display": 2349, 
  "urging": 8291, 
  "bacter@@": 28104, 
  "diligently": 30590, 
  "Associ@@": 4281, 
  "künften": 69452, 
  "devis@@": 48969, 
  "Söhne": 51182, 
  "universal": 4402, 
  "Doorn": 44949, 
  "Regional-": 76936, 
  "re-@@": 1584, 
  "beats": 12999, 
  "Kozlodu@@": 40412, 
  "hun@@": 14408, 
  "390@@": 38484, 
  "Xia@@": 32920, 
  "education": 822, 
  "Function": 39710, 
  "functions": 2837, 
  "phthal@@": 41073, 
  "Kabila": 33175, 
  "acle": 17707, 
  "Geneva": 5353, 
  "ingredients": 5889, 
  "vertrags": 61497, 
  "Jr.": 13089, 
  "Neves": 34753, 
  "Million": 14272, 
  "lur@@": 15774, 
  "Jamendo": 38944, 
  "Wells": 11351, 
  "Domus": 44206, 
  "Delivery": 24307, 
  "orienti@@": 63643, 
  "old": 433, 
  "4m": 20599, 
  "顾@@": 71618, 
  "cardboard": 19529, 
  "Geschmack": 53006, 
  "Welle": 46297, 
  "al-Assad": 14465, 
  "Centers": 13479, 
  "proclaim": 28874, 
  "finca": 40938, 
  "7,00": 51071, 
  "edian": 12643, 
  "Hin@@": 12096, 
  "stat": 26217, 
  "star": 1264, 
  "Regionale": 53599, 
  "unge": 32257, 
  "्र@@": 22866, 
  "hasen": 71621, 
  "stay": 464, 
  "Personnel": 32862, 
  "stag": 37929, 
  "foil": 18277, 
  "k.@@": 32921, 
  "stab": 22767, 
  "Њ@@": 52518, 
  "additionally": 6686, 
  "stan": 29930, 
  "Ray@@": 15515, 
  "ceas@@": 28370, 
  "else": 1491, 
  "8000": 30541, 
  "kHz": 35551, 
  "accidents": 5779, 
  "hne": 49769, 
  "Nachbarländern": 75058, 
  "Nation@@": 10920, 
  "Lamp@@": 36967, 
  "Gry@@": 46866, 
  "olf": 26729, 
  "Lob@@": 27270, 
  "Papoutsis": 41074, 
  "Pharmac@@": 39366, 
  "15-20": 34144, 
  "indirectly": 10841, 
  "abhängi@@": 71625, 
  "Corsica": 26451, 
  "aided": 16469, 
  "Wich@@": 30444, 
  "Frontier": 24252, 
  "psychiat@@": 15398, 
  "commercialisation": 31015, 
  "Consoli@@": 45678, 
  "gested": 24823, 
  "perverted": 32922, 
  "CIDE@@": 61500, 
  "consists": 4237, 
  "र@@": 13851, 
  "emul@@": 23837, 
  "Gasth@@": 58813, 
  "schmuck": 58454, 
  "ensored": 57894, 
  "Unterbrechung": 71627, 
  "Phu@@": 48359, 
  "analogen": 71628, 
  "aud": 15240, 
  "langu@@": 17825, 
  "auf": 10130, 
  "dyn@@": 28619, 
  "Honda": 11377, 
  "disability": 9585, 
  "pensions": 5398, 
  "Kori@@": 50255, 
  "painters": 25993, 
  "Crus@@": 24872, 
  "aus": 8948, 
  "bays": 21300, 
  "Ph.D.": 21731, 
  "swap": 12076, 
  "Vorgabe": 71629, 
  "recycle": 27722, 
  "aux": 4761, 
  "sorry": 4610, 
  "sway": 19423, 
  "lu@@": 4071, 
  "marsh@@": 15692, 
  "dilu@@": 21362, 
  "collaborate": 17666, 
  "kündigt": 59997, 
  "wirksamkeit": 71630, 
  "t-oriented": 45043, 
  "kraft@@": 55425, 
  "void": 14343, 
  "Harley-Davidson": 36482, 
  "iSC": 45365, 
  "Arab@@": 19806, 
  "1000@@": 25438, 
  "浮@@": 71631, 
  "persönlicher": 58814, 
  "oves": 46551, 
  "voir": 14857, 
  "Brescia": 34830, 
  "Laufenden": 63217, 
  "Ehud": 27471, 
  "agen@@": 19304, 
  "crops": 7190, 
  "120@@": 12192, 
  "Diamantopoulou": 34780, 
  "subsidising": 32721, 
  "unrelated": 16983, 
  "enhance": 4839, 
  "Helms-Burton": 34308, 
  "Colosseum": 37432, 
  "Sonn@@": 21904, 
  "Urbino": 44357, 
  "Wohnwagen": 71632, 
  "Ek@@": 24824, 
  "Cuisine": 36132, 
  "pendi@@": 35387, 
  "ppm": 37411, 
  "Unterrichts@@": 57895, 
  "Bro@@": 3087, 
  "bescheiden": 63645, 
  "likely": 660, 
  "trifft": 56958, 
  "EULEX": 44259, 
  "vergol@@": 71633, 
  "subordinate": 24016, 
  "Communist": 6441, 
  "Arizona": 4889, 
  "Kindheit": 77052, 
  "predec@@": 47417, 
  "Sparten": 63648, 
  "Wellness-": 61501, 
  "steinen": 62791, 
  "spokesman": 1272, 
  "fjord": 31406, 
  "Fette": 59595, 
  "propri": 55921, 
  "foodstuffs": 13414, 
  "Wasser": 47088, 
  "Queen": 4032, 
  "reviving": 22979, 
  "metadata": 27710, 
  "mee": 36506, 
  "med": 5987, 
  "niche": 16454, 
  "mea": 42809, 
  "Dong": 29889, 
  "substitutes": 22286, 
  "linien@@": 57151, 
  "Spedi@@": 57879, 
  "men": 461, 
  "disposable": 22005, 
  "ミ": 76417, 
  "Stecker": 61502, 
  "met": 1287, 
  "nicht": 14313, 
  "Runes": 45679, 
  "Götz@@": 50127, 
  "mes": 8745, 
  "mer": 3875, 
  "bewertung": 70460, 
  "Waffen@@": 49652, 
  "Camcorder": 49529, 
  "contraction": 17756, 
  "slices": 22275, 
  "Motivation": 53007, 
  "grenze": 57896, 
  "sign@@": 6037, 
  "Versand": 49530, 
  "Extra": 29971, 
  "weiterentwickelt": 71640, 
  "recordings": 10500, 
  "breath@@": 14363, 
  "Packaging": 25379, 
  "jog@@": 33176, 
  "grenzt": 66658, 
  "Issues": 29791, 
  "crises": 6546, 
  "Stadtr@@": 61503, 
  "lucrative": 11011, 
  "Taus@@": 56905, 
  "rafting": 25790, 
  "Ferienwohnung": 55922, 
  "erup@@": 20901, 
  "4x@@": 31046, 
  "Lyon": 11938, 
  "icop@@": 39876, 
  "Werkzeug@@": 54576, 
  "Russians": 8925, 
  "mobility": 4475, 
  "fear@@": 18531, 
  "Nationalgalerie": 49888, 
  "Erschließung": 63650, 
  "disposes": 33909, 
  "objectively": 21934, 
  "sliced": 20153, 
  "Mineral@@": 56882, 
  "loyment": 43710, 
  "guests": 1132, 
  "jackets": 18640, 
  "-Back@@": 50009, 
  "Freuden": 71641, 
  "Piano": 24192, 
  "Häuser@@": 63651, 
  "tertiary": 35714, 
  "tnamen": 66661, 
  "ommissar": 52749, 
  "Gramm": 50732, 
  "öffnen": 55923, 
  "ätte": 58816, 
  "carpet": 10576, 
  "ej@@": 32007, 
  "WHO": 13326, 
  "eci@@": 17248, 
  "Libertas": 45069, 
  "Alexand@@": 33755, 
  "anwendungen": 66662, 
  "izvo@@": 56509, 
  "survive": 5332, 
  "möge": 66663, 
  "overlooked": 12721, 
  "klore": 71644, 
  "öffnet": 61505, 
  "involvement": 3335, 
  "вЂ": 39643, 
  "tra@@": 3824, 
  "erkenn@@": 58817, 
  "Ger@@": 4291, 
  "istor@@": 44654, 
  "disruption": 10902, 
  "Giscard": 31548, 
  "Requi@@": 40328, 
  "Marfil": 43515, 
  "Energiever@@": 63652, 
  "room": 353, 
  "̣@@": 61506, 
  "roof": 5079, 
  "Steering": 37032, 
  "movies": 4363, 
  "Nipp@@": 34145, 
  "proper@@": 35943, 
  "ә@@": 57897, 
  "exceptions": 8791, 
  "ations@@": 30330, 
  "root": 5632, 
  "nisch": 55426, 
  "Dorf@@": 43019, 
  "Gre@@": 5365, 
  "Not@@": 14153, 
  "Athleten": 59999, 
  "Chrome": 22118, 
  "Corporation": 4784, 
  "climax": 25502, 
  "Wizard": 23639, 
  "stressing": 17194, 
  "implementations": 32923, 
  "10,000": 5053, 
  "foods": 6325, 
  "ssier": 48681, 
  "ሽ@@": 71645, 
  "rump@@": 48865, 
  "mitglieder": 71917, 
  "Silken": 43156, 
  "autonomy": 8652, 
  "Spit@@": 18461, 
  "auti@@": 28451, 
  "Abhaltung": 77170, 
  "fairer": 16308, 
  "amazing": 4229, 
  "Fortsch@@": 66666, 
  "dispense": 30144, 
  "morgan@@": 53187, 
  "atmosphär@@": 63655, 
  "config": 27185, 
  "autonome": 51870, 
  "Läh@@": 66308, 
  "XPress": 50256, 
  "市": 53878, 
  "Lucas": 11975, 
  "Spinelli": 37862, 
  "element@@": 44485, 
  "believers": 19270, 
  "provis@@": 33580, 
  "manuals": 20328, 
[...]
