{
  "eos": 0, 
  "UNK": 1, 
  ",": 2, 
  "die": 3, 
  ".": 4, 
  "der": 5, 
  "und": 6, 
  "in": 7, 
  "zu": 8, 
  "den": 9, 
  "von": 10, 
  "das": 11, 
  "ist": 12, 
  "eine": 13, 
  "&quot;": 14, 
  "sich": 15, 
  "dass": 16, 
  "für": 17, 
  "es": 18, 
  "des": 19, 
  "auf": 20, 
  "-": 21, 
  "nicht": 22, 
  "@-@": 23, 
  "als": 24, 
  "im": 25, 
  "ein": 26, 
  "mit": 27, 
  "sie": 28, 
  "dem": 29, 
  "werden": 30, 
  "um": 31, 
  "wie": 32, 
  "sind": 33, 
  "einer": 34, 
  "an": 35, 
  "auch": 36, 
  "wird": 37, 
  "hat": 38, 
  "haben": 39, 
  "oder": 40, 
  "aus": 41, 
  "diese": 42, 
  "wenn": 43, 
  "aber": 44, 
  "einen": 45, 
  "über": 46, 
  "bei": 47, 
  ":": 48, 
  "so": 49, 
  "durch": 50, 
  "er": 51, 
  "ihre": 52, 
  "wir": 53, 
  "einem": 54, 
  "man": 55, 
  "zur": 56, 
  "vor": 57, 
  "nach": 58, 
  "nur": 59, 
  "sein": 60, 
  "noch": 61, 
  ")": 62, 
  "(": 63, 
  "war": 64, 
  "USA": 65, 
  "mehr": 66, 
  "dieser": 67, 
  "was": 68, 
  "kann": 69, 
  "Welt": 70, 
  "doch": 71, 
  "können": 72, 
  "wurde": 73, 
  "zum": 74, 
  "seine": 75, 
  "dies": 76, 
  "eines": 77, 
  ";": 78, 
  "?": 79, 
  "%": 80, 
  "Länder": 81, 
  "Menschen": 82, 
  "zwischen": 83, 
  "Regierung": 84, 
  "unter": 85, 
  "würde": 86, 
  "gegen": 87, 
  "China": 88, 
  "Jahren": 89, 
  "könnte": 90, 
  "am": 91, 
  "müssen": 92, 
  "keine": 93, 
  "während": 94, 
  "ihrer": 95, 
  "andere": 96, 
  "EU": 97, 
  "immer": 98, 
  "Jahr": 99, 
  "anderen": 100, 
  "selbst": 101, 
  "Europa": 102, 
  "gibt": 103, 
  "viele": 104, 
  "Land": 105, 
  "bis": 106, 
  "US": 107, 
  "wurden": 108, 
  "sollte": 109, 
  "muss": 110, 
  "Ländern": 111, 
  "seiner": 112, 
  "ich": 113, 
  "da": 114, 
  "Jahre": 115, 
  "alle": 116, 
  "politischen": 117, 
  "waren": 118, 
  "dazu": 119, 
  "Zeit": 120, 
  "ihren": 121, 
  "sondern": 122, 
  "Politik": 123, 
  "wäre": 124, 
  "damit": 125, 
  "ohne": 126, 
  "weil": 127, 
  "jedoch": 128, 
  "politische": 129, 
  "ver@@": 130, 
  "heute": 131, 
  "uns": 132, 
  "allerdings": 133, 
  "dieses": 134, 
  "Staaten": 135, 
  "sollten": 136, 
  "vom": 137, 
  "letzten": 138, 
  "tatsächlich": 139, 
  "neue": 140, 
  "seit": 141, 
  "Dollar": 142, 
  "viel": 143, 
  "weniger": 144, 
  "un@@": 145, 
  "diesem": 146, 
  "wieder": 147, 
  "ihr": 148, 
  "er@@": 149, 
  "Russland": 150, 
  "ten": 151, 
  "Wirtschaft": 152, 
  "zwei": 153, 
  "nun": 154, 
  "Präsident": 155, 
  "denen": 156, 
  "diesen": 157, 
  "neuen": 158, 
  "sogar": 159, 
  "Macht": 160, 
  "darauf": 161, 
  "te": 162, 
  "&amp;": 163, 
  "machen": 164, 
  "würden": 165, 
  "könnten": 166, 
  "dann": 167, 
  "also": 168, 
  "obwohl": 169, 
  "sehr": 170, 
  "ob": 171, 
  "dabei": 172, 
  "meisten": 173, 
  "gegenüber": 174, 
  "Krise": 175, 
  "Entwicklung": 176, 
  "etwa": 177, 
  "hatte": 178, 
  "aufgrund": 179, 
  "jetzt": 180, 
  "weiter": 181, 
  "Regierungen": 182, 
  "ein@@": 183, 
  "dafür": 184, 
  "einige": 185, 
  "ihnen": 186, 
  "Wachstum": 187, 
  "ab@@": 188, 
  "wo": 189, 
  "an@@": 190, 
  "lassen": 191, 
  "seinen": 192, 
  "davon": 193, 
  "führen": 194, 
  "amerikanischen": 195, 
  "Frage": 196, 
  "Demokratie": 197, 
  "Unternehmen": 198, 
  "vielleicht": 199, 
  "sowie": 200, 
  "indem": 201, 
  "Irak": 202, 
  "kein": 203, 
  "daher": 204, 
  "großen": 205, 
  "Landes": 206, 
  "Ende": 207, 
  "europäischen": 208, 
  "Unterstützung": 209, 
  "Banken": 210, 
  "Problem": 211, 
  "ge@@": 212, 
  "schon": 213, 
  "Millionen": 214, 
  "en": 215, 
  "ebenso": 216, 
  "Chinas": 217, 
  "auf@@": 218, 
  "Krieg": 219, 
  "bereits": 220, 
  "zwar": 221, 
  "Milliarden": 222, 
  "tun": 223, 
  "aus@@": 224, 
  "denn": 225, 
  "Amerika": 226, 
  "große": 227, 
  "geht": 228, 
  "globalen": 229, 
  "wirtschaftlichen": 230, 
  "Rolle": 231, 
  "drei": 232, 
  "Teil": 233, 
  "innerhalb": 234, 
  "deren": 235, 
  "besteht": 236, 
  "internationalen": 237, 
  "allem": 238, 
  "Fall": 239, 
  "etwas": 240, 
  "Maßnahmen": 241, 
  "Japan": 242, 
  "angesichts": 243, 
  "Iran": 244, 
  "hätte": 245, 
  "beiden": 246, 
  "Probleme": 247, 
  "steht": 248, 
  "eigenen": 249, 
  "bringen": 250, 
  "Art": 251, 
  "be@@": 252, 
  "Weise": 253, 
  "darüber": 254, 
  "Region": 255, 
  "Bush": 256, 
  "Indien": 257, 
  "unsere": 258, 
  "natürlich": 259, 
  "Israel": 260, 
  "Deutschland": 261, 
  "stehen": 262, 
  "Kosten": 263, 
  "Grund": 264, 
  "gut": 265, 
  "stellen": 266, 
  "Ver@@": 267, 
  "scheint": 268, 
  "Geld": 269, 
  "Leben": 270, 
  "warum": 271, 
  "sei": 272, 
  "liegt": 273, 
  "sowohl": 274, 
  "kommen": 275, 
  "wirtschaftliche": 276, 
  "wenig": 277, 
  "ab": 278, 
  "Geschichte": 279, 
  "einfach": 280, 
  "Zukunft": 281, 
  "BIP": 282, 
  "internationale": 283, 
  "ter": 284, 
  "weit": 285, 
  "einmal": 286, 
  "Vereinigten": 287, 
  "amerikanische": 288, 
  "Sicherheit": 289, 
  "Staat": 290, 
  "Weg": 291, 
  "zu@@": 292, 
  "t": 293, 
  "Investitionen": 294, 
  "e": 295, 
  "über@@": 296, 
  "geben": 297, 
  "halten": 298, 
  "Euro": 299, 
  "vielen": 300, 
  "Lage": 301, 
  "ganz": 302, 
  "Politiker": 303, 
  "ersten": 304, 
  "s": 305, 
  "Union": 306, 
  "bleiben": 307, 
  "Frankreich": 308, 
  "hatten": 309, 
  "nbsp": 310, 
  "wahrscheinlich": 311, 
  "Obama": 312, 
  "Auswirkungen": 313, 
  "trotz": 314, 
  "Amerikas": 315, 
  "Partei": 316, 
  "lange": 317, 
  "nichts": 318, 
  "globale": 319, 
  "sch@@": 320, 
  "allen": 321, 
  "Präsidenten": 322, 
  "IWF": 323, 
  "Europas": 324, 
  "Institutionen": 325, 
  "System": 326, 
  "gen": 327, 
  "hin": 328, 
  "genau": 329, 
  "ins": 330, 
  "Frauen": 331, 
  "aller": 332, 
  "bleibt": 333, 
  "Beziehungen": 334, 
  "weitere": 335, 
  "Reformen": 336, 
  "öffentlichen": 337, 
  "t@@": 338, 
  "weiterhin": 339, 
  "Eurozone": 340, 
  "ent@@": 341, 
  "beim": 342, 
  "en@@": 343, 
  "insbesondere": 344, 
  "seinem": 345, 
  "wollen": 346, 
  "außerdem": 347, 
  "Bedeutung": 348, 
  "Prozent": 349, 
  "chinesischen": 350, 
  "sten": 351, 
  "beispielsweise": 352, 
  "dessen": 353, 
  "Bevölkerung": 354, 
  "Ab@@": 355, 
  "k@@": 356, 
  "alles": 357, 
  "schließlich": 358, 
  "Führung": 359, 
  "fast": 360, 
  "Ziel": 361, 
  "Westen": 362, 
  "darin": 363, 
  "gehen": 364, 
  "besser": 365, 
  "Gesellschaft": 366, 
  "ihm": 367, 
  "Europäischen": 368, 
  "s@@": 369, 
  "An@@": 370, 
  "finden": 371, 
  "gab": 372, 
  "vor@@": 373, 
  "Interessen": 374, 
  "ung": 375, 
  "Beispiel": 376, 
  "solche": 377, 
  "nehmen": 378, 
  "enden": 379, 
  "ihrem": 380, 
  "Türkei": 381, 
  "ihn": 382, 
  "ern": 383, 
  "soll": 384, 
  "eher": 385, 
  "bedeutet": 386, 
  "nie": 387, 
  "nachdem": 388, 
  "macht": 389, 
  "kommt": 390, 
  "keinen": 391, 
  "Lösung": 392, 
  "nationalen": 393, 
  "erreichen": 394, 
  "erst": 395, 
  "20": 396, 
  "Amerikaner": 397, 
  "eren": 398, 
  "Wahlen": 399, 
  "hinaus": 400, 
  "Recht": 401, 
  "europäische": 402, 
  "sehen": 403, 
  "de": 404, 
  "wären": 405, 
  "lediglich": 406, 
  "Finanz@@": 407, 
  "stark": 408, 
  "K@@": 409, 
  "st@@": 410, 
  "möglicherweise": 411, 
  "Gewalt": 412, 
  "Mitglieder": 413, 
  "jeder": 414, 
  "hoch": 415, 
  "derartige": 416, 
  "dort": 417, 
  "S@@": 418, 
  "erhalten": 419, 
  "worden": 420, 
  "ende": 421, 
  "Osten": 422, 
  "Bereich": 423, 
  "nächsten": 424, 
  "daran": 425, 
  "kaum": 426, 
  "Tatsache": 427, 
  "wirklich": 428, 
  "Großbritannien": 429, 
  "pro": 430, 
  "Strategie": 431, 
  "Einfluss": 432, 
  "klar": 433, 
  "Wert": 434, 
  "a": 435, 
  "hätten": 436, 
  "Inflation": 437, 
  "führt": 438, 
  "besonders": 439, 
  "um@@": 440, 
  "zudem": 441, 
  "möglich": 442, 
  "Schulden": 443, 
  "chinesische": 444, 
  "stellt": 445, 
  "schaffen": 446, 
  "160": 447, 
  "unserer": 448, 
  "allein": 449, 
  "konnte": 450, 
  "Fragen": 451, 
  "beide": 452, 
  "#": 453, 
  "deutlich": 454, 
  "Bürger": 455, 
  "öffentliche": 456, 
  "Erfolg": 457, 
  "New": 458, 
  "lichen": 459, 
  "Richtung": 460, 
  "bereit": 461, 
  "Kontrolle": 462, 
  "lässt": 463, 
  "verhindern": 464, 
  "Aus@@": 465, 
  "Rezession": 466, 
  "Druck": 467, 
  "Wirtschafts@@": 468, 
  "ge": 469, 
  "wissen": 470, 
  "Stabilität": 471, 
  "B@@": 472, 
  "welche": 473, 
  "ungen": 474, 
  "bisher": 475, 
  "Vor@@": 476, 
  "Ein@@": 477, 
  "jene": 478, 
  "Ausgaben": 479, 
  "wohl": 480, 
  "zumindest": 481, 
  "ungs@@": 482, 
  "Un@@": 483, 
  "leben": 484, 
  "Armut": 485, 
  "politischer": 486, 
  "hier": 487, 
  "dennoch": 488, 
  "all": 489, 
  "Möglichkeit": 490, 
  "statt": 491, 
  "erste": 492, 
  "Vergangenheit": 493, 
  "ihres": 494, 
  "oft": 495, 
  "zunehmend": 496, 
  "Form": 497, 
  "P@@": 498, 
  "gemacht": 499, 
  "g@@": 500, 
  "Sch@@": 501, 
  "ert": 502, 
  "Parteien": 503, 
  "Mittel": 504, 
  "deshalb": 505, 
  "derzeit": 506, 
  "Kampf": 507, 
  "d@@": 508, 
  "Wahl": 509, 
  "Hilfe": 510, 
  "hinsichtlich": 511, 
  "unterstützen": 512, 
  "zehn": 513, 
  "unter@@": 514, 
  "f@@": 515, 
  "Putin": 516, 
  "häufig": 517, 
  "Sie": 518, 
  "Märkte": 519, 
  "weltweit": 520, 
  "Ergebnis": 521, 
  "einzige": 522, 
  "Risiken": 523, 
  "NATO": 524, 
  "Markt": 525, 
  "glauben": 526, 
  "Europäische": 527, 
  "Ressourcen": 528, 
  "Russlands": 529, 
  "anderer": 530, 
  "Bemühungen": 531, 
  "größten": 532, 
  "2008": 533, 
  "Situation": 534, 
  "geführt": 535, 
  "Seite": 536, 
  "nämlich": 537, 
  "schen": 538, 
  "anders": 539, 
  "tes": 540, 
  "Afghanistan": 541, 
  "Gefahr": 542, 
  "sagen": 543, 
  "z@@": 544, 
  "seines": 545, 
  "Weltwirtschaft": 546, 
  "Gemeinschaft": 547, 
  "UNO": 548, 
  "hohen": 549, 
  "erte": 550, 
  "Entscheidung": 551, 
  "dadurch": 552, 
  "ziehen": 553, 
  "Nationen": 554, 
  "Kinder": 555, 
  "Entscheidungen": 556, 
  "Finanzkrise": 557, 
  "je": 558, 
  "gerade": 559, 
  "Asien": 560, 
  "Grenzen": 561, 
  "einigen": 562, 
  "Prozess": 563, 
  "später": 564, 
  "F@@": 565, 
  "reichen": 566, 
  "Einkommen": 567, 
  "Afrika": 568, 
  "erten": 569, 
  "Jahrhundert": 570, 
  "Arbeitslosigkeit": 571, 
  "helfen": 572, 
  "G@@": 573, 
  "-@@": 574, 
  "genug": 575, 
  "Ziele": 576, 
  "gleichzeitig": 577, 
  "Führer": 578, 
  "liche": 579, 
  "Arbeit": 580, 
  "Nahen": 581, 
  "ebenfalls": 582, 
  "setzen": 583, 
  "Jahrhunderts": 584, 
  "EZB": 585, 
  "falls": 586, 
  "Mal": 587, 
  "Risiko": 588, 
  "erreicht": 589, 
  "Öffentlichkeit": 590, 
  "vergangenen": 591, 
  "scher": 592, 
  "führte": 593, 
  "kam": 594, 
  "neu": 595, 
  "sollen": 596, 
  "zurück": 597, 
  "zurück@@": 598, 
  "arabischen": 599, 
  "schnell": 600, 
  "bevor": 601, 
  "Revolution": 602, 
  "R@@": 603, 
  "Zahl": 604, 
  "geworden": 605, 
  "D@@": 606, 
  "Freiheit": 607, 
  "habe": 608, 
  "liegen": 609, 
  "jede": 610, 
  "Wirtschaftswachstum": 611, 
  "Veränderungen": 612, 
  "lich": 613, 
  "ger": 614, 
  "Mehrheit": 615, 
  "Regime": 616, 
  "Globalisierung": 617, 
  "zeigen": 618, 
  "Folgen": 619, 
  "diejenigen": 620, 
  "L@@": 621, 
  "Jahres": 622, 
  "sch": 623, 
  "russischen": 624, 
  "hohe": 625, 
  "schwer": 626, 
  "stärker": 627, 
  "vier": 628, 
  "o": 629, 
  "spielen": 630, 
  "A@@": 631, 
  "privaten": 632, 
  "wer": 633, 
  "Vertrauen": 634, 
  "Frieden": 635, 
  "manche": 636, 
  "nationale": 637, 
  "Grundlage": 638, 
  "m@@": 639, 
  "sche": 640, 
  "gilt": 641, 
  "Interesse": 642, 
  "zusammen": 643, 
  "demokratischen": 644, 
  "Europäer": 645, 
  "erkennen": 646, 
  "in@@": 647, 
  "fünf": 648, 
  "trotzdem": 649, 
  "Handel": 650, 
  "hinter": 651, 
  "Gegensatz": 652, 
  "Zusammenarbeit": 653, 
  "staatlichen": 654, 
  "Anteil": 655, 
  "E@@": 656, 
  "Hamas": 657, 
  "wichtige": 658, 
  "einschließlich": 659, 
  "sicher": 660, 
  "wichtig": 661, 
  "überhaupt": 662, 
  "handelt": 663, 
  "gar": 664, 
  "jüngsten": 665, 
  "relativ": 666, 
  "Bezug": 667, 
  "bekommen": 668, 
  "weiteren": 669, 
  "Bedrohung": 670, 
  "ere": 671, 
  "M@@": 672, 
  "Ukraine": 673, 
  "durch@@": 674, 
  "10": 675, 
  "T@@": 676, 
  "gute": 677, 
  "Korruption": 678, 
  "N@@": 679, 
  "Preis": 680, 
  "Herausforderung": 681, 
  "al": 682, 
  "Gruppen": 683, 
  "größte": 684, 
  "gebracht": 685, 
  "Terrorismus": 686, 
  "Bank": 687, 
  "dar": 688, 
  "Schritt": 689, 
  "Angst": 690, 
  "Investoren": 691, 
  "H@@": 692, 
  "Auf@@": 693, 
  "Nachfrage": 694, 
  "betrachtet": 695, 
  "Gruppe": 696, 
  "Volkswirtschaften": 697, 
  "50": 698, 
  "politisch": 699, 
  "Kommission": 700, 
  "Er@@": 701, 
  "größere": 702, 
  "Verantwortung": 703, 
  "fördern": 704, 
  "Bedingungen": 705, 
  "Höhe": 706, 
  "Firmen": 707, 
  "konnten": 708, 
  "entwickeln": 709, 
  "erhöhen": 710, 
  "Reaktion": 711, 
  "Ansicht": 712, 
  "ts": 713, 
  "mag": 714, 
  "will": 715, 
  "alten": 716, 
  "weltweiten": 717, 
  "paar": 718, 
  "g": 719, 
  "b@@": 720, 
  "eigene": 721, 
  "Pakistan": 722, 
  "weder": 723, 
  "Fähigkeit": 724, 
  "zeigt": 725, 
  "Anfang": 726, 
  "staatliche": 727, 
  "Werte": 728, 
  "Antwort": 729, 
  "arbeiten": 730, 
  "Entwicklungsländer": 731, 
  "Ansatz": 732, 
  "Verhandlungen": 733, 
  "überall": 734, 
  "aktuellen": 735, 
  "ging": 736, 
  "scheinen": 737, 
  "Folge": 738, 
  "jedes": 739, 
  "letztlich": 740, 
  "brauchen": 741, 
  "Hoffnung": 742, 
  "gewesen": 743, 
  "Griechenland": 744, 
  "gemeinsame": 745, 
  "30": 746, 
  "höhere": 747, 
  "ens": 748, 
  "al@@": 749, 
  "versuchen": 750, 
  "el": 751, 
  "Integration": 752, 
  "leisten": 753, 
  "Tag": 754, 
  "licher": 755, 
  "Verfassung": 756, 
  "el@@": 757, 
  "Bildung": 758, 
  "gewinnen": 759, 
  "notwendig": 760, 
  "gemeinsamen": 761, 
  "gestellt": 762, 
  "2009": 763, 
  "Entwicklungsländern": 764, 
  "Be@@": 765, 
  "Preise": 766, 
  "momentan": 767, 
  "Herausforderungen": 768, 
  "Schaffung": 769, 
  "inzwischen": 770, 
  "sorgen": 771, 
  "Jahrzehnten": 772, 
  "Aufgabe": 773, 
  "Sicherheits@@": 774, 
  "Hälfte": 775, 
  "besten": 776, 
  "Rahmen": 777, 
  "Seiten": 778, 
  "ch@@": 779, 
  "l@@": 780, 
  "lang": 781, 
  "Zinssätze": 782, 
  "damals": 783, 
  "wichtigsten": 784, 
  "Erholung": 785, 
  "Hinblick": 786, 
  "ti@@": 787, 
  "militärische": 788, 
  "ste": 789, 
  "Fehler": 790, 
  "of": 791, 
  "Debatte": 792, 
  "Klimawandel": 793, 
  "Ebene": 794, 
  "Anstieg": 795, 
  "Italien": 796, 
  "wesentlich": 797, 
  "Über@@": 798, 
  "entwickelt": 799, 
  "zunächst": 800, 
  "W@@": 801, 
  "alen": 802, 
  "westlichen": 803, 
  "wodurch": 804, 
  "starken": 805, 
  "Verfügung": 806, 
  "Steuern": 807, 
  "demokratische": 808, 
  "versucht": 809, 
  "wobei": 810, 
  "Meinung": 811, 
  "Vorteile": 812, 
  "braucht": 813, 
  "k": 814, 
  "niemand": 815, 
  "September": 816, 
  "Währung": 817, 
  "ganzen": 818, 
  "Anzahl": 819, 
  "politik": 820, 
  "Zentralbank": 821, 
  "sozialen": 822, 
  "&apos;": 823, 
  "Spanien": 824, 
  "o@@": 825, 
  "schwierig": 826, 
  "neuer": 827, 
  "UN": 828, 
  "Reihe": 829, 
  "stattdessen": 830, 
  "Konflikt": 831, 
  "verstehen": 832, 
  "Opfer": 833, 
  "Ausmaß": 834, 
  "soziale": 835, 
  "as": 836, 
  "großer": 837, 
  "Ausland": 838, 
  "C@@": 839, 
  "höher": 840, 
  "/": 841, 
  "bestehen": 842, 
  "teilweise": 843, 
  "n@@": 844, 
  "Schutz": 845, 
  "Medien": 846, 
  "zusammen@@": 847, 
  "Chance": 848, 
  "fallen": 849, 
  "Kapital": 850, 
  "steigen": 851, 
  "bieten": 852, 
  "verloren": 853, 
  "Zinsen": 854, 
  "unser": 855, 
  "Produktion": 856, 
  "ändern": 857, 
  "verringern": 858, 
  "wichtiger": 859, 
  "gesamten": 860, 
  "2010": 861, 
  "Idee": 862, 
  "ale": 863, 
  "insgesamt": 864, 
  "starke": 865, 
  "Zusammenbruch": 866, 
  "Die": 867, 
  "Zugang": 868, 
  "beinahe": 869, 
  "bedarf": 870, 
  "Zusammenhang": 871, 
  "Kredite": 872, 
  "laut": 873, 
  "sieht": 874, 
  "Bereichen": 875, 
  "leicht": 876, 
  "verfügen": 877, 
  "ja": 878, 
  "verantwortlich": 879, 
  "end": 880, 
  "wegen": 881, 
  "entwickelten": 882, 
  "Palästinenser": 883, 
  "Außenpolitik": 884, 
  "Staates": 885, 
  "2": 886, 
  "Zeiten": 887, 
  "Versuch": 888, 
  "Forschung": 889, 
  "solchen": 890, 
  "Schwierigkeiten": 891, 
  "durchaus": 892, 
  "jedem": 893, 
  "lösen": 894, 
  "tragen": 895, 
  "mir": 896, 
  "schützen": 897, 
  "St@@": 898, 
  "Regeln": 899, 
  "verschiedenen": 900, 
  "Einsatz": 901, 
  "freien": 902, 
  "vielmehr": 903, 
  "h@@": 904, 
  "manchmal": 905, 
  "Kapital@@": 906, 
  "unterstützt": 907, 
  "bekannt": 908, 
  "Thema": 909, 
  "Wähler": 910, 
  "Ökonomen": 911, 
  "Kultur": 912, 
  "erforderlich": 913, 
  "betrachten": 914, 
  "abzu@@": 915, 
  "Wahl@@": 916, 
  "stand": 917, 
  "Brasilien": 918, 
  "Unabhängigkeit": 919, 
  "Krieges": 920, 
  "Aufmerksamkeit": 921, 
  "Rechte": 922, 
  "G": 923, 
  "Wohlstand": 924, 
  "russische": 925, 
  "Re@@": 926, 
  "Ägypten": 927, 
  "Steuer@@": 928, 
  "In@@": 929, 
  "Möglichkeiten": 930, 
  "ter@@": 931, 
  "on": 932, 
  "e@@": 933, 
  "Fällen": 934, 
  "palästinensischen": 935, 
  "recht": 936, 
  "größeren": 937, 
  "Öl": 938, 
  "ar@@": 939, 
  "verfügt": 940, 
  "Nutzen": 941, 
  "2007": 942, 
  "zugleich": 943, 
  "langfristigen": 944, 
  "somit": 945, 
  "40": 946, 
  "chen": 947, 
  "Menschenrechte": 948, 
  "zweite": 949, 
  "Handels@@": 950, 
  "Hand": 951, 
  "Strategien": 952, 
  "ausländische": 953, 
  "2001": 954, 
  "ben": 955, 
  "heutigen": 956, 
  "bar": 957, 
  "darum": 958, 
  "militärischen": 959, 
  "sches": 960, 
  "Haushalte": 961, 
  "französischen": 962, 
  "Gesellschaften": 963, 
  "legen": 964, 
  "wirtschaftlicher": 965, 
  "mich": 966, 
  "Arbeitsplätze": 967, 
  "gegeben": 968, 
  "hin@@": 969, 
  "finanzielle": 970, 
  "Ergebnisse": 971, 
  "heißt": 972, 
  "w@@": 973, 
  "bringt": 974, 
  "verbessern": 975, 
  "ungefähr": 976, 
  "gt": 977, 
  "Notwendigkeit": 978, 
  "gleichen": 979, 
  "George": 980, 
  "Zeitpunkt": 981, 
  "re@@": 982, 
  "Dinge": 983, 
  "2000": 984, 
  "Armee": 985, 
  "Informationen": 986, 
  "erung": 987, 
  "Parlament": 988, 
  "Mitte": 989, 
  "erstens": 990, 
  "n": 991, 
  "jeden": 992, 
  "gemeinsam": 993, 
  "nach@@": 994, 
  "bietet": 995, 
  "wenige": 996, 
  "Abkommen": 997, 
  "bare": 998, 
  "Monaten": 999, 
  "Status": 1000, 
  "1": 1001, 
  "Um@@": 1002, 
  "Infrastruktur": 1003, 
  "dürfte": 1004, 
  "Gefühl": 1005, 
  "Jahrzehnt": 1006, 
  "Rest": 1007, 
  "armen": 1008, 
  "Punkt": 1009, 
  "Regierungs@@": 1010, 
  "Mitgliedsstaaten": 1011, 
  "übernehmen": 1012, 
  "ak@@": 1013, 
  "i@@": 1014, 
  "CO2": 1015, 
  "tigen": 1016, 
  "ä@@": 1017, 
  "Wahrheit": 1018, 
  "Militär@@": 1019, 
  "erfolgreich": 1020, 
  "anstatt": 1021, 
  "länger": 1022, 
  "Israels": 1023, 
  "Haupt@@": 1024, 
  "dagegen": 1025, 
  "groß": 1026, 
  "Weltbank": 1027, 
  "Wandel": 1028, 
  "mehrere": 1029, 
  "bald": 1030, 
  "Förderung": 1031, 
  "Al": 1032, 
  "gegenwärtigen": 1033, 
  "beitragen": 1034, 
  "bewusst": 1035, 
  "zweitens": 1036, 
  "3": 1037, 
  "Staats@@": 1038, 
  "Regionen": 1039, 
  "langfristige": 1040, 
  "Fortschritte": 1041, 
  "leider": 1042, 
  "J@@": 1043, 
  "Kraft": 1044, 
  "Verhalten": 1045, 
  "eindeutig": 1046, 
  "Finanzmärkte": 1047, 
  "Energie": 1048, 
  "Spiel": 1049, 
  "zweiten": 1050, 
  "außerhalb": 1051, 
  "liches": 1052, 
  "Mexiko": 1053, 
  "ehemaligen": 1054, 
  "völlig": 1055, 
  "u@@": 1056, 
  "Haltung": 1057, 
  "Chinesen": 1058, 
  "entweder": 1059, 
  "Position": 1060, 
  "Behörden": 1061, 
  "Modell": 1062, 
  "Markt@@": 1063, 
  "Gesetz": 1064, 
  "auszu@@": 1065, 
  "Ordnung": 1066, 
  "treffen": 1067, 
  "daraus": 1068, 
  "verlieren": 1069, 
  "men": 1070, 
  "zahlen": 1071, 
  "15": 1072, 
  "Plan": 1073, 
  "Truppen": 1074, 
  "Premierminister": 1075, 
  "nen": 1076, 
  "25": 1077, 
  "vermeiden": 1078, 
  "los": 1079, 
  "Vergleich": 1080, 
  "Unter@@": 1081, 
  "seien": 1082, 
  "O@@": 1083, 
  "aktuelle": 1084, 
  "private": 1085, 
  "Opposition": 1086, 
  "ermöglichen": 1087, 
  "2004": 1088, 
  "fest": 1089, 
  "Platz": 1090, 
  "erwarten": 1091, 
  "Armen": 1092, 
  "or@@": 1093, 
  "Lateinamerika": 1094, 
  "selbstverständlich": 1095, 
  "d": 1096, 
  "kürzlich": 1097, 
  "Kopf": 1098, 
  "on@@": 1099, 
  "nutzen": 1100, 
  "Polen": 1101, 
  "Beginn": 1102, 
  "kurzem": 1103, 
  "Vereinten": 1104, 
  "Öl@@": 1105, 
  "Ge@@": 1106, 
  "p@@": 1107, 
  "eigentlich": 1108, 
  "Realität": 1109, 
  "Washington": 1110, 
  "m": 1111, 
  "getan": 1112, 
  "kurz": 1113, 
  "gesagt": 1114, 
  "Administration": 1115, 
  "em": 1116, 
  "Bewegung": 1117, 
  "erklären": 1118, 
  "2005": 1119, 
  "ges": 1120, 
  "Nachbarn": 1121, 
  "Teilen": 1122, 
  "konzentrieren": 1123, 
  "Amt": 1124, 
  "Welt@@": 1125, 
  "1990er": 1126, 
  "all@@": 1127, 
  "fragen": 1128, 
  "nimmt": 1129, 
  "Kredit@@": 1130, 
  "stellte": 1131, 
  "Jahrzehnte": 1132, 
  "derart": 1133, 
  "grundlegende": 1134, 
  "Islam": 1135, 
  "8": 1136, 
  "höheren": 1137, 
  "zuvor": 1138, 
  "erklärt": 1139, 
  "Z@@": 1140, 
  "jener": 1141, 
  "Gründe": 1142, 
  "Technologien": 1143, 
  "entscheiden": 1144, 
  "unmöglich": 1145, 
  "Organisation": 1146, 
  "tern": 1147, 
  "Hinsicht": 1148, 
  "gezeigt": 1149, 
  "behaupten": 1150, 
  "Gesundheit": 1151, 
  "Emissionen": 1152, 
  "her@@": 1153, 
  "weiß": 1154, 
  "Faktoren": 1155, 
  "folgen": 1156, 
  "st": 1157, 
  "Demokratien": 1158, 
  "system": 1159, 
  "Syrien": 1160, 
  "Generation": 1161, 
  "Reform": 1162, 
  "enorme": 1163, 
  "profitieren": 1164, 
  "bin": 1165, 
  "Kräfte": 1166, 
  "kommenden": 1167, 
  "gekommen": 1168, 
  "israelischen": 1169, 
  "bessere": 1170, 
  "kleinen": 1171, 
  "verfolgen": 1172, 
  "unternehmen": 1173, 
  "begann": 1174, 
  "teten": 1175, 
  "and": 1176, 
  "sp@@": 1177, 
  "Vorstellung": 1178, 
  "erster": 1179, 
  "Waffen": 1180, 
  "kaufen": 1181, 
  "verlassen": 1182, 
  "Haushalts@@": 1183, 
  "falsch": 1184, 
  "Großteil": 1185, 
  "offensichtlich": 1186, 
  "London": 1187, 
  "Barack": 1188, 
  "wiederum": 1189, 
  "Volkswirtschaft": 1190, 
  "Grund@@": 1191, 
  "nahe": 1192, 
  "si@@": 1193, 
  "sprechen": 1194, 
  "erhöht": 1195, 
  "Japans": 1196, 
  "ers": 1197, 
  "meine": 1198, 
  "verbunden": 1199, 
  "früher": 1200, 
  "hält": 1201, 
  "Wettbewerb": 1202, 
  "geschaffen": 1203, 
  "offen": 1204, 
  "außer": 1205, 
  "Angriff": 1206, 
  "Verbesserung": 1207, 
  "direkt": 1208, 
  "Verbrechen": 1209, 
  "sen": 1210, 
  "gen@@": 1211, 
  "Sektor": 1212, 
  "Anreize": 1213, 
  "französische": 1214, 
  "Vertrag": 1215, 
  "di@@": 1216, 
  "5": 1217, 
  "Arbeits@@": 1218, 
  "Sowjetunion": 1219, 
  "erneut": 1220, 
  "Falle": 1221, 
  "$": 1222, 
  "weisen": 1223, 
  "ange@@": 1224, 
  "Geldpolitik": 1225, 
  "Unterschiede": 1226, 
  "Kosovo": 1227, 
  "schlecht": 1228, 
  "a@@": 1229, 
  "gesehen": 1230, 
  "Dienstleistungen": 1231, 
  "wichtigen": 1232, 
  "Personen": 1233, 
  "Gegenteil": 1234, 
  "rasch": 1235, 
  "Bericht": 1236, 
  "neues": 1237, 
  "Zentralbanken": 1238, 
  "Niveau": 1239, 
  "Sache": 1240, 
  "darunter": 1241, 
  "sechs": 1242, 
  "Wachstums": 1243, 
  "Organisationen": 1244, 
  "tief": 1245, 
  "Kandidaten": 1246, 
  "gesamte": 1247, 
  "Sieg": 1248, 
  "Einführung": 1249, 
  "mit@@": 1250, 
  "Augen": 1251, 
  "Leute": 1252, 
  "I@@": 1253, 
  "Männer": 1254, 
  "Programm": 1255, 
  "gewährleisten": 1256, 
  "Regimes": 1257, 
  "setzt": 1258, 
  "bilden": 1259, 
  "stärken": 1260, 
  "solange": 1261, 
  "2006": 1262, 
  "Depression": 1263, 
  "lichkeit": 1264, 
  "Behandlung": 1265, 
  "enormen": 1266, 
  "Mann": 1267, 
  "Erklärung": 1268, 
  "zi@@": 1269, 
  "befinden": 1270, 
  "akzeptieren": 1271, 
  "ö@@": 1272, 
  "li@@": 1273, 
  "finanziellen": 1274, 
  "tung": 1275, 
  "Konflikte": 1276, 
  "Finanzierung": 1277, 
  "!": 1278, 
  "modernen": 1279, 
  "senken": 1280, 
  "Rück@@": 1281, 
  "nötig": 1282, 
  "praktisch": 1283, 
  "de@@": 1284, 
  "ganze": 1285, 
  "ender": 1286, 
  "60": 1287, 
  "ausge@@": 1288, 
  "Wissenschaft": 1289, 
  "deutschen": 1290, 
  "alte": 1291, 
  "Umständen": 1292, 
  "kosten": 1293, 
  "Fortschritt": 1294, 
  "sk@@": 1295, 
  "ger@@": 1296, 
  "Tage": 1297, 
  "gezwungen": 1298, 
  "Alternative": 1299, 
  "Krankheiten": 1300, 
  "B.": 1301, 
  "ei@@": 1302, 
  "Ideen": 1303, 
  "internationaler": 1304, 
  "genauso": 1305, 
  "Kapitalismus": 1306, 
  "baren": 1307, 
  "Neu@@": 1308, 
  "Aktivitäten": 1309, 
  "Weltkrieg": 1310, 
  "unseren": 1311, 
  "am@@": 1312, 
  "wachsende": 1313, 
  "reagieren": 1314, 
  "Widerstand": 1315, 
  "einzu@@": 1316, 
  "Gesetze": 1317, 
  "Wahrscheinlichkeit": 1318, 
  "kleine": 1319, 
  "100": 1320, 
  "denken": 1321, 
  "Selbst@@": 1322, 
  "wert": 1323, 
  "Tat": 1324, 
  "beginnen": 1325, 
  "Gipfel": 1326, 
  "Entwicklungs@@": 1327, 
  "wichtigste": 1328, 
  "Verhältnis": 1329, 
  "abhängig": 1330, 
  "Mitgliedschaft": 1331, 
  "investieren": 1332, 
  "bei@@": 1333, 
  "Verbindung": 1334, 
  "Internet": 1335, 
  "bedeuten": 1336, 
  "Rückgang": 1337, 
  "Konsens": 1338, 
  "normalerweise": 1339, 
  "Kalten": 1340, 
  "Patienten": 1341, 
  "Dollars": 1342, 
  "Nordkorea": 1343, 
  "Zu@@": 1344, 
  "Ungleichheit": 1345, 
  "Erhöhung": 1346, 
  "ung@@": 1347, 
  "Beziehung": 1348, 
  "Libanon": 1349, 
  "freie": 1350, 
  "at@@": 1351, 
  "Erfahrung": 1352, 
  "Billionen": 1353, 
  "Schulden@@": 1354, 
  "r@@": 1355, 
  "Namen": 1356, 
  "YORK": 1357, 
  "Wettbewerbsfähigkeit": 1358, 
  "handeln": 1359, 
  "früheren": 1360, 
  "Putins": 1361, 
  "letzte": 1362, 
  "Terroristen": 1363, 
  "bewegen": 1364, 
  "wachsenden": 1365, 
  "ähnliche": 1366, 
  "genommen": 1367, 
  "genannten": 1368, 
  "Atomwaffen": 1369, 
  "erscheinen": 1370, 
  "Ausdruck": 1371, 
  "tiger": 1372, 
  "Monat": 1373, 
  "freilich": 1374, 
  "funktionieren": 1375, 
  "Natur": 1376, 
  "japanischen": 1377, 
  "z.": 1378, 
  "tige": 1379, 
  "Ministerpräsident": 1380, 
  "britischen": 1381, 
  "erfordert": 1382, 
  "Ereignisse": 1383, 
  "Sicht": 1384, 
  "es@@": 1385, 
  "ließ": 1386, 
  "erklärte": 1387, 
  "Stimmen": 1388, 
  "Macht@@": 1389, 
  "ähnlich": 1390, 
  "bestimmt": 1391, 
  "ausländischen": 1392, 
  "Forderungen": 1393, 
  "leiden": 1394, 
  "gehören": 1395, 
  "Sanktionen": 1396, 
  "möchte": 1397, 
  "vermutlich": 1398, 
  "aufzu@@": 1399, 
  "Spannungen": 1400, 
  "Gelegenheit": 1401, 
  "Soldaten": 1402, 
  "Umfang": 1403, 
  "darf": 1404, 
  "se": 1405, 
  "Exporte": 1406, 
  "V@@": 1407, 
  "Technologie": 1408, 
  "angeht": 1409, 
  "Kongress": 1410, 
  "ur@@": 1411, 
  "Chancen": 1412, 
  "treten": 1413, 
  "Republik": 1414, 
  "überdies": 1415, 
  "kon@@": 1416, 
  "Internationalen": 1417, 
  "jüngste": 1418, 
  "einst": 1419, 
  "erscheint": 1420, 
  "Schritte": 1421, 
  "Themen": 1422, 
  "einzelnen": 1423, 
  "Argentinien": 1424, 
  "der@@": 1425, 
  "retten": 1426, 
  "Gründen": 1427, 
  "britische": 1428, 
  "guten": 1429, 
  "Anleihen": 1430, 
  "derartigen": 1431, 
  "Obamas": 1432, 
  "regionale": 1433, 
  "brachte": 1434, 
  "Zweiten": 1435, 
  "größer": 1436, 
  "Volk": 1437, 
  "anti@@": 1438, 
  "gern": 1439, 
  "vieler": 1440, 
  "Sarkozy": 1441, 
  "anderes": 1442, 
  "politisches": 1443, 
  "Bekämpfung": 1444, 
  "weiterer": 1445, 
  "Herrschaft": 1446, 
  "Ent@@": 1447, 
  "sagte": 1448, 
  "Rückkehr": 1449, 
  "teilen": 1450, 
  "Vertreter": 1451, 
  "Fed": 1452, 
  "Atom@@": 1453, 
  "tete": 1454, 
  "reduzieren": 1455, 
  "konfrontiert": 1456, 
  "beste": 1457, 
  "Initiative": 1458, 
  "gesch@@": 1459, 
  "anzu@@": 1460, 
  "Legitimität": 1461, 
  "miteinander": 1462, 
  "ken": 1463, 
  "tet": 1464, 
  "Indiens": 1465, 
  "Zweifel": 1466, 
  "Basis": 1467, 
  "Amtszeit": 1468, 
  "lose": 1469, 
  "jährlich": 1470, 
  "beruht": 1471, 
  "westliche": 1472, 
  "Tod": 1473, 
  "hauptsächlich": 1474, 
  "wonach": 1475, 
  "asiatischen": 1476, 
  "Monate": 1477, 
  "ten@@": 1478, 
  "eln": 1479, 
  "nahezu": 1480, 
  "Stelle": 1481, 
  "erwartet": 1482, 
  "neben": 1483, 
  "machte": 1484, 
  "y@@": 1485, 
  "Fonds": 1486, 
  "Umsetzung": 1487, 
  "W.": 1488, 
  "Südkorea": 1489, 
  "langfristig": 1490, 
  "führenden": 1491, 
  "Teile": 1492, 
  "lag": 1493, 
  "au@@": 1494, 
  "ch": 1495, 
  "junge": 1496, 
  "2003": 1497, 
  "führende": 1498, 
  "Währungs@@": 1499, 
  "Währungen": 1500, 
  "suchen": 1501, 
  "November": 1502, 
  "Prinzipien": 1503, 
  "befindet": 1504, 
  "untergraben": 1505, 
  "gleich": 1506, 
  "tig": 1507, 
  "frei": 1508, 
  "Bauern": 1509, 
  "Kommunismus": 1510, 
  "Dezember": 1511, 
  "musste": 1512, 
  "Linie": 1513, 
  "unwahrscheinlich": 1514, 
  "gehört": 1515, 
  "Ära": 1516, 
  "grundlegenden": 1517, 
  "wirtschaftlich": 1518, 
  "Menge": 1519, 
  "Botschaft": 1520, 
  "4": 1521, 
  "Wasser": 1522, 
  "z": 1523, 
  "anderswo": 1524, 
  "elle": 1525, 
  "ation": 1526, 
  "Verluste": 1527, 
  "regionalen": 1528, 
  "le": 1529, 
  "6": 1530, 
  "gten": 1531, 
  "gestiegen": 1532, 
  "zukünftige": 1533, 
  "Entwicklungen": 1534, 
  "Systems": 1535, 
  "erweisen": 1536, 
  "Clinton": 1537, 
  "j@@": 1538, 
  "se@@": 1539, 
  "Daten": 1540, 
  "gi@@": 1541, 
  "danach": 1542, 
  "Experten": 1543, 
  "weltweite": 1544, 
  "Verlust": 1545, 
  "den@@": 1546, 
  "Aufstieg": 1547, 
  "rund": 1548, 
  "Engagement": 1549, 
  "tischen": 1550, 
  "niemals": 1551, 
  "Krisen": 1552, 
  "gegenwärtig": 1553, 
  "frühen": 1554, 
  "Nation": 1555, 
  "len": 1556, 
  "voll": 1557, 
  "2@@": 1558, 
  "gesetzt": 1559, 
  "ler": 1560, 
  "menschlichen": 1561, 
  "Geld@@": 1562, 
  "hoffen": 1563, 
  "Saudi": 1564, 
  "at": 1565, 
  "nahm": 1566, 
  "eingesetzt": 1567, 
  "Israelis": 1568, 
  "verfolgt": 1569, 
  "Studien": 1570, 
  "Familie": 1571, 
  "strategische": 1572, 
  "Versprechen": 1573, 
  "religiösen": 1574, 
  "Militär": 1575, 
  "jungen": 1576, 
  "Mangel": 1577, 
  "Vision": 1578, 
  "hoch@@": 1579, 
  "Wissenschaftler": 1580, 
  "gleich@@": 1581, 
  "Leistungen": 1582, 
  "Defizite": 1583, 
  "nächste": 1584, 
  "darstellt": 1585, 
  "fällt": 1586, 
  "losen": 1587, 
  "lernen": 1588, 
  "findet": 1589, 
  "Vorteil": 1590, 
  "kamen": 1591, 
  "Groß@@": 1592, 
  "Energie@@": 1593, 
  "wider": 1594, 
  "dienen": 1595, 
  "Drittel": 1596, 
  "angeblich": 1597, 
  "bezeichnet": 1598, 
  "dringend": 1599, 
  "Anstrengungen": 1600, 
  "aler": 1601, 
  "unabhängig": 1602, 
  "islamischen": 1603, 
  "möglichen": 1604, 
  "wollte": 1605, 
  "Staatsanleihen": 1606, 
  "ges@@": 1607, 
  "Katastrophe": 1608, 
  "l": 1609, 
  "richtig": 1610, 
  "Programme": 1611, 
  "echte": 1612, 
  "Verringerung": 1613, 
  "enen": 1614, 
  "gegenwärtige": 1615, 
  "geraten": 1616, 
  "schlimmer": 1617, 
  "ster": 1618, 
  "zufolge": 1619, 
  "Bank@@": 1620, 
  "Stadt": 1621, 
  "Lösungen": 1622, 
  "zentrale": 1623, 
  "verstärkt": 1624, 
  "Identität": 1625, 
  "Verbündeten": 1626, 
  "Universitäten": 1627, 
  "schließen": 1628, 
  "Märkten": 1629, 
  "deutsche": 1630, 
  "globaler": 1631, 
  "Frau": 1632, 
  "is": 1633, 
  "Industrieländern": 1634, 
  "geschehen": 1635, 
  "Führungs@@": 1636, 
  "strategischen": 1637, 
  "gehalten": 1638, 
  "Theorie": 1639, 
  "fordern": 1640, 
  "ellen": 1641, 
  "Regulierung": 1642, 
  "Aussichten": 1643, 
  "meinen": 1644, 
  "Bushs": 1645, 
  "dürfen": 1646, 
  "Krankheit": 1647, 
  "är@@": 1648, 
  "Annahme": 1649, 
  "Wochen": 1650, 
  "andererseits": 1651, 
  "jenen": 1652, 
  "funktioniert": 1653, 
  "tische": 1654, 
  "argumentieren": 1655, 
  "Georgien": 1656, 
  "schien": 1657, 
  "meiner": 1658, 
  "Worten": 1659, 
  "nationaler": 1660, 
  "Hisbollah": 1661, 
  "Rechts@@": 1662, 
  "daß": 1663, 
  "äußerst": 1664, 
  "Maß": 1665, 
  "te@@": 1666, 
  "Veränderung": 1667, 
  "Phase": 1668, 
  "Arbeiter": 1669, 
  "verschiedene": 1670, 
  "Russen": 1671, 
  "gte": 1672, 
  "amp": 1673, 
  "zen": 1674, 
  "Gegen@@": 1675, 
  "Unterschied": 1676, 
  "ischen": 1677, 
  "fen": 1678, 
  "traditionellen": 1679, 
  "finanzieren": 1680, 
  "Kern@@": 1681, 
  "allgemein": 1682, 
  "realen": 1683, 
  "Kritik": 1684, 
  "rei@@": 1685, 
  "gung": 1686, 
  "legt": 1687, 
  "beschränkt": 1688, 
  "us": 1689, 
  "kämpfen": 1690, 
  "Schul@@": 1691, 
  "iranischen": 1692, 
  "et@@": 1693, 
  "ausgesetzt": 1694, 
  "fiel": 1695, 
  "Anleger": 1696, 
  "Instabilität": 1697, 
  "einge@@": 1698, 
  "Verständnis": 1699, 
  "ismus": 1700, 
  "ermöglicht": 1701, 
  "Religion": 1702, 
  "elt": 1703, 
  "Muslime": 1704, 
  "7": 1705, 
  "Produktivität": 1706, 
  "darstellen": 1707, 
  "Moment": 1708, 
  "keiner": 1709, 
  "Erwärmung": 1710, 
  "Prinzip": 1711, 
  "2011": 1712, 
  "bezahlen": 1713, 
  "wieder@@": 1714, 
  "Mit@@": 1715, 
  "Kreml": 1716, 
  "Anerkennung": 1717, 
  "20.": 1718, 
  "lei@@": 1719, 
  "Einheit": 1720, 
  "entscheidende": 1721, 
  "besch@@": 1722, 
  "heit": 1723, 
  "führten": 1724, 
  "Gespräche": 1725, 
  "os": 1726, 
  "ra@@": 1727, 
  "Export@@": 1728, 
  "größtenteils": 1729, 
  "Diskussion": 1730, 
  "wachsen": 1731, 
  "langsam": 1732, 
  "schneller": 1733, 
  "bestimmte": 1734, 
  "1980er": 1735, 
  "Nach@@": 1736, 
  "Schaden": 1737, 
  "2002": 1738, 
  "Bau@@": 1739, 
  "Sozial@@": 1740, 
  "Gesamt@@": 1741, 
  "ni@@": 1742, 
  "Gerechtigkeit": 1743, 
  "mindestens": 1744, 
  "Buch": 1745, 
  "afrikanischen": 1746, 
  "Einnahmen": 1747, 
  "Erweiterung": 1748, 
  "ehemalige": 1749, 
  "moderne": 1750, 
  "ausreichend": 1751, 
  "amerikanischer": 1752, 
  "Wissen": 1753, 
  "ber@@": 1754, 
  "Anzeichen": 1755, 
  "Kon@@": 1756, 
  "wer@@": 1757, 
  "Arten": 1758, 
  "Schicksal": 1759, 
  "Währungsfonds": 1760, 
  "zer@@": 1761, 
  "japanische": 1762, 
  "Taliban": 1763, 
  "Erfahrungen": 1764, 
  "Grenze": 1765, 
  "le@@": 1766, 
  "verursacht": 1767, 
  "Schwellenländer": 1768, 
  "mögen": 1769, 
  "Vorschlag": 1770, 
  "herrscht": 1771, 
  "Ausnahme": 1772, 
  "einzigen": 1773, 
  "entstehen": 1774, 
  "öffentlich": 1775, 
  "Ch@@": 1776, 
  "Ort": 1777, 
  "beigetragen": 1778, 
  "Intervention": 1779, 
  "Fähigkeiten": 1780, 
  "Treffen": 1781, 
  "systeme": 1782, 
  "stimmt": 1783, 
  "Mai": 1784, 
  "Problemen": 1785, 
  "israelische": 1786, 
  "gel@@": 1787, 
  "mi@@": 1788, 
  "März": 1789, 
  "Ansichten": 1790, 
  "unterschiedlichen": 1791, 
  "ü@@": 1792, 
  "entfernt": 1793, 
  "Beschäftigung": 1794, 
  "muslimischen": 1795, 
  "Gaza": 1796, 
  "erzielen": 1797, 
  "Power": 1798, 
  "Gesundheits@@": 1799, 
  "Argument": 1800, 
  "be": 1801, 
  "unterschiedliche": 1802, 
  "ar": 1803, 
  "hängt": 1804, 
  "ker": 1805, 
  "Verbreitung": 1806, 
  "Diplomatie": 1807, 
  "Gericht": 1808, 
  "Januar": 1809, 
  "Präsidentschaft": 1810, 
  "Verbraucher": 1811, 
  "Beitrag": 1812, 
  "Sinn": 1813, 
  "to": 1814, 
  "Mitgliedern": 1815, 
  "Gegner": 1816, 
  "ene": 1817, 
  "Produkte": 1818, 
  "Taiwan": 1819, 
  "Glaubwürdigkeit": 1820, 
  "Wege": 1821, 
  "jemals": 1822, 
  "einiger": 1823, 
  "Familien": 1824, 
  "Maße": 1825, 
  "Partner": 1826, 
  "mussten": 1827, 
  "wissenschaftlichen": 1828, 
  "Person": 1829, 
  "fe": 1830, 
  "enten": 1831, 
  "Regierungschefs": 1832, 
  "ts@@": 1833, 
  "allzu": 1834, 
  "acht": 1835, 
  "Scheitern": 1836, 
  "Investitions@@": 1837, 
  "genden": 1838, 
  "allgemeinen": 1839, 
  "erter": 1840, 
  "Umwelt@@": 1841, 
  "la@@": 1842, 
  "ationen": 1843, 
  "Unsicherheit": 1844, 
  "Landwirtschaft": 1845, 
  "müssten": 1846, 
  "infolgedessen": 1847, 
  "·": 1848, 
  "Juni": 1849, 
  "oben": 1850, 
  "gezogen": 1851, 
  "Konsequenzen": 1852, 
  "Verpflichtungen": 1853, 
  "Woche": 1854, 
  "Kurs": 1855, 
  "Faktor": 1856, 
  "egal": 1857, 
  "historischen": 1858, 
  "offizielle": 1859, 
  "Raum": 1860, 
  "heutzutage": 1861, 
  "bewältigen": 1862, 
  "John": 1863, 
  "Verteidigung": 1864, 
  "heraus": 1865, 
  "AIDS": 1866, 
  "Cambridge": 1867, 
  "Sprache": 1868, 
  "the": 1869, 
  "müsste": 1870, 
  "Vermögenswerte": 1871, 
  "it@@": 1872, 
  "zusätzliche": 1873, 
  "entschieden": 1874, 
  "cht": 1875, 
  "Erwartungen": 1876, 
  "Agenda": 1877, 
  "Abhängigkeit": 1878, 
  "beenden": 1879, 
  "Schuld": 1880, 
  "ische": 1881, 
  "langen": 1882, 
  "richtige": 1883, 
  "lautet": 1884, 
  "11.": 1885, 
  "ne": 1886, 
  "Politikern": 1887, 
  "Stärkung": 1888, 
  "Ausbildung": 1889, 
  "maßnahmen": 1890, 
  "gewählt": 1891, 
  "Großen": 1892, 
  "systems": 1893, 
  "Irland": 1894, 
  "markt": 1895, 
  "Waren": 1896, 
  "sierung": 1897, 
  "Westens": 1898, 
  "Stärke": 1899, 
  "Wasser@@": 1900, 
  "Souveränität": 1901, 
  "Leistung": 1902, 
  "b": 1903, 
  "Mitglied": 1904, 
  "niedrig": 1905, 
  "kurzfristig": 1906, 
  "sti@@": 1907, 
  "entscheidend": 1908, 
  "1989": 1909, 
  "gingen": 1910, 
  "Arbeitskräfte": 1911, 
  "Marktes": 1912, 
  "zeit": 1913, 
  "Blair": 1914, 
  "eh@@": 1915, 
  "Sorgen": 1916, 
  "abge@@": 1917, 
  "Koalition": 1918, 
  "ri@@": 1919, 
  "her": 1920, 
  "verringert": 1921, 
  "Saddam": 1922, 
  "Proteste": 1923, 
  "endlich": 1924, 
  "erwiesen": 1925, 
  "bestand": 1926, 
  "hervor": 1927, 
  "Verbindungen": 1928, 
  "Anhänger": 1929, 
  "staatlicher": 1930, 
  "zweifellos": 1931, 
  "sagt": 1932, 
  "Bereitschaft": 1933, 
  "hoher": 1934, 
  "arabische": 1935, 
  "werde": 1936, 
  "dasselbe": 1937, 
  "Industrieländer": 1938, 
  "spielt": 1939, 
  "weiter@@": 1940, 
  "schaft": 1941, 
  "fühlen": 1942, 
  "angesehen": 1943, 
  "Rat": 1944, 
  "York": 1945, 
  "begonnen": 1946, 
  "Asiens": 1947, 
  "tions@@": 1948, 
  "än@@": 1949, 
  "solcher": 1950, 
  ".@@": 1951, 
  "gleiche": 1952, 
  "überzeugt": 1953, 
  "Preis@@": 1954, 
  "vertreten": 1955, 
  "Entscheidungsträger": 1956, 
  "sin@@": 1957, 
  "Sinne": 1958, 
  "det": 1959, 
  "th@@": 1960, 
  "Sorge": 1961, 
  "indischen": 1962, 
  "Gleichgewicht": 1963, 
  "Ökonomie": 1964, 
  "Wirkung": 1965, 
  "setzte": 1966, 
  "1999": 1967, 
  "Bedenken": 1968, 
  "Priorität": 1969, 
  "nahmen": 1970, 
  "che": 1971, 
  "allgemeine": 1972, 
  "gewissen": 1973, 
  "zukünftigen": 1974, 
  "moralische": 1975, 
  "anischen": 1976, 
  "Ausweitung": 1977, 
  "zunehmende": 1978, 
  "Änderungen": 1979, 
  "siert": 1980, 
  "Indonesien": 1981, 
  "hören": 1982, 
  "80": 1983, 
  "erleben": 1984, 
  "Nationalismus": 1985, 
  "schlagen": 1986, 
  "versch@@": 1987, 
  "steigende": 1988, 
  "mögliche": 1989, 
  "sterben": 1990, 
  "schlechte": 1991, 
  "bestimmen": 1992, 
  "menschliche": 1993, 
  "Umfeld": 1994, 
  "ß@@": 1995, 
  "Liberalisierung": 1996, 
  "kl@@": 1997, 
  "Wachstums@@": 1998, 
  "einander": 1999, 
  "Wechselkurs": 2000, 
  "Geschäfts@@": 2001, 
  "Arabien": 2002, 
  "Moskau": 2003, 
  "desto": 2004, 
  "sobald": 2005, 
  "äre": 2006, 
  "schwieriger": 2007, 
  "Juli": 2008, 
  "wider@@": 2009, 
  "op@@": 2010, 
  "fall": 2011, 
  "sichern": 2012, 
  "Sicherheitsrat": 2013, 
  "Größe": 2014, 
  "aufzubauen": 2015, 
  "programme": 2016, 
  "trägt": 2017, 
  "aten": 2018, 
  "Libyen": 2019, 
  "Wirklichkeit": 2020, 
  "Anspruch": 2021, 
  "Umwelt": 2022, 
  "prozess": 2023, 
  "zugrunde": 2024, 
  "gefallen": 2025, 
  "v@@": 2026, 
  "Beobachter": 2027, 
  "gelten": 2028, 
  "ben@@": 2029, 
  "ft": 2030, 
  "Frankreichs": 2031, 
  "HIV": 2032, 
  "me": 2033, 
  "Grad": 2034, 
  "gende": 2035, 
  "Güter": 2036, 
  "verkaufen": 2037, 
  "bestimmten": 2038, 
  "zwangsläufig": 2039, 
  "frei@@": 2040, 
  "entwickelte": 2041, 
  "bereich": 2042, 
  "jeweiligen": 2043, 
  "Gas@@": 2044, 
  "ähnlicher": 2045, 
  "überzeugen": 2046, 
  "erenden": 2047, 
  "entspricht": 2048, 
  "geb@@": 2049, 
  "Verfahren": 2050, 
  "Gewinne": 2051, 
  "steigern": 2052, 
  "ank@@": 2053, 
  "pro@@": 2054, 
  "fehlt": 2055, 
  "offiziellen": 2056, 
  "Lebens": 2057, 
  "Trend": 2058, 
  "beeinflussen": 2059, 
  "könne": 2060, 
  "Gebiet": 2061, 
  "Runde": 2062, 
  "Transparenz": 2063, 
  "massiven": 2064, 
  "Partei@@": 2065, 
  "zahlreiche": 2066, 
  "as@@": 2067, 
  "schem": 2068, 
  "Industrie": 2069, 
  "U@@": 2070, 
  "massive": 2071, 
  "programm": 2072, 
  "Kriege": 2073, 
  "Polizei": 2074, 
  "Konzept": 2075, 
  "passiert": 2076, 
  "derer": 2077, 
  "Federal": 2078, 
  "volle": 2079, 
  "Studie": 2080, 
  "Dialog": 2081, 
  "Glauben": 2082, 
  "Finanzsystem": 2083, 
  "Beitritt": 2084, 
  "Elite": 2085, 
  "ations@@": 2086, 
  "abgesehen": 2087, 
  "Universität": 2088, 
  "steigt": 2089, 
  "werte": 2090, 
  "wächst": 2091, 
  "Ungleichgewichte": 2092, 
  "vollständig": 2093, 
  "ul@@": 2094, 
  "Kindern": 2095, 
  "hielt": 2096, 
  "Bild": 2097, 
  "bel@@": 2098, 
  "ru@@": 2099, 
  "Oktober": 2100, 
  "Solidarität": 2101, 
  "Chaos": 2102, 
  "eingeführt": 2103, 
  "Pro@@": 2104, 
  "tieren": 2105, 
  "verurteilt": 2106, 
  "land": 2107, 
  "bekämpfen": 2108, 
  "staaten": 2109, 
  "dern": 2110, 
  "ro@@": 2111, 
  "aufrecht": 2112, 
  "70": 2113, 
  "Konferenz": 2114, 
  "Regel": 2115, 
  "Lebens@@": 2116, 
  "Dynamik": 2117, 
  "behauptet": 2118, 
  "Terror": 2119, 
  "entscheidender": 2120, 
  "verpflichtet": 2121, 
  "tut": 2122, 
  "länder": 2123, 
  "beträgt": 2124, 
  "überwiegend": 2125, 
  "erende": 2126, 
  "wissenschaftliche": 2127, 
  "werfen": 2128, 
  "Senkung": 2129, 
  "unabhängige": 2130, 
  "wiederholt": 2131, 
  "ne@@": 2132, 
  "ber": 2133, 
  "steigenden": 2134, 
  "weiteres": 2135, 
  "enorm": 2136, 
  "möchten": 2137, 
  "mal": 2138, 
  "unbedingt": 2139, 
  "Grenz@@": 2140, 
  "lokalen": 2141, 
  "Praxis": 2142, 
  "verändert": 2143, 
  "selten": 2144, 
  "geringer": 2145, 
  "jemand": 2146, 
  "betrifft": 2147, 
  "innen": 2148, 
  "umfassende": 2149, 
  "manchen": 2150, 
  "endes": 2151, 
  "tungs@@": 2152, 
  "religiöse": 2153, 
  "ot@@": 2154, 
  "erheblich": 2155, 
  "Willen": 2156, 
  "E": 2157, 
  "gefunden": 2158, 
  "offenen": 2159, 
  "zusätzlich": 2160, 
  "ans": 2161, 
  "Überwachung": 2162, 
  "ergeben": 2163, 
  "bestehenden": 2164, 
  "Potenzial": 2165, 
  "ser@@": 2166, 
  "erinnern": 2167, 
  "Aufbau": 2168, 
  "ärmsten": 2169, 
  "Aussicht": 2170, 
  "Zeitraum": 2171, 
  "aufge@@": 2172, 
  "Zahlen": 2173, 
  "fest@@": 2174, 
  "arme": 2175, 
  "Di@@": 2176, 
  "Einigung": 2177, 
  "verstärken": 2178, 
  "Paris": 2179, 
  "niedriger": 2180, 
  "ungeachtet": 2181, 
  "1998": 2182, 
  "Bürgern": 2183, 
  "Haushalt": 2184, 
  "angewiesen": 2185, 
  "9": 2186, 
  "verhindert": 2187, 
  "ausschließlich": 2188, 
  "ums": 2189, 
  "Produktions@@": 2190, 
  "vorbei": 2191, 
  "angenommen": 2192, 
  "Republikaner": 2193, 
  "Konsum": 2194, 
  "Deutschlands": 2195, 
  "vergessen": 2196, 
  "lokale": 2197, 
  "Wunsch": 2198, 
  "Kooperation": 2199, 
  "gewisse": 2200, 
  "Tradition": 2201, 
  "18@@": 2202, 
  "kommunistischen": 2203, 
  "gefährlich": 2204, 
  "chten": 2205, 
  "gelegt": 2206, 
  "denke": 2207, 
  "Reserve": 2208, 
  "Subventionen": 2209, 
  "Peking": 2210, 
  "Klima@@": 2211, 
  "lagen": 2212, 
  "Streitkräfte": 2213, 
  "zählen": 2214, 
  "verändern": 2215, 
  "palästinensische": 2216, 
  "eben": 2217, 
  "konzentriert": 2218, 
  "schw@@": 2219, 
  "Juden": 2220, 
  "Löhne": 2221, 
  "19.": 2222, 
  "Zunahme": 2223, 
  "Angelegenheiten": 2224, 
  "ke": 2225, 
  "Stimme": 2226, 
  "1997": 2227, 
  "verb@@": 2228, 
  "mein": 2229, 
  "erlebt": 2230, 
  "reale": 2231, 
  "ständig": 2232, 
  "ergreifen": 2233, 
  "unserem": 2234, 
  "oftmals": 2235, 
  "Franzosen": 2236, 
  "getroffen": 2237, 
  "irakischen": 2238, 
  "tungen": 2239, 
  "Zivilgesellschaft": 2240, 
  "Fälle": 2241, 
  "Hoch@@": 2242, 
  "Autorität": 2243, 
  "voll@@": 2244, 
  "erfüllen": 2245, 
  "Rede": 2246, 
  "tem": 2247, 
  "Ökonomien": 2248, 
  "Wirtschaftspolitik": 2249, 
  "ern@@": 2250, 
  "ag@@": 2251, 
  "Projekt": 2252, 
  "Unternehmens@@": 2253, 
  "hei@@": 2254, 
  "unmittelbar": 2255, 
  "Reform@@": 2256, 
  "Systeme": 2257, 
  "Osteuropa": 2258, 
  "Übergang": 2259, 
  "treiben": 2260, 
  "Chef": 2261, 
  "läuft": 2262, 
  "niedrigen": 2263, 
  "Städten": 2264, 
  "Haus": 2265, 
  "istischen": 2266, 
  "he@@": 2267, 
  "stellten": 2268, 
  "behandelt": 2269, 
  "größerer": 2270, 
  "ernsthafte": 2271, 
  "ko@@": 2272, 
  "Finanzminister": 2273, 
  "benötigt": 2274, 
  "Kopenhagen": 2275, 
  "offenbar": 2276, 
  "wenigen": 2277, 
  "tionen": 2278, 
  "standen": 2279, 
  "gs": 2280, 
  "anische": 2281, 
  "alismus": 2282, 
  "Wechselkurse": 2283, 
  "Artikel": 2284, 
  "Ersparnisse": 2285, 
  "reicht": 2286, 
  "gelang": 2287, 
  "einsetzen": 2288, 
  "National@@": 2289, 
  "Kritiker": 2290, 
  "Nutzung": 2291, 
  "Straßen": 2292, 
  "ökonomischen": 2293, 
  "blieb": 2294, 
  "Kollegen": 2295, 
  "Rhetorik": 2296, 
  "verwendet": 2297, 
  "3@@": 2298, 
  "Malaria": 2299, 
  "De@@": 2300, 
  "Qualität": 2301, 
  "Journalisten": 2302, 
  "Wirtschaftskrise": 2303, 
  "Süden": 2304, 
  "klare": 2305, 
  "April": 2306, 
  "Boden": 2307, 
  "Menschheit": 2308, 
  "sah": 2309, 
  "Aktien": 2310, 
  "Defizit": 2311, 
  "Richter": 2312, 
  "außen": 2313, 
  "Allgemeinen": 2314, 
  "Abbas": 2315, 
  "Methode": 2316, 
  "sicherzustellen": 2317, 
  "Demokraten": 2318, 
  "Forderung": 2319, 
  "zwei@@": 2320, 
  "Anpassung": 2321, 
  "Studenten": 2322, 
  "Kluft": 2323, 
  "unseres": 2324, 
  "alität": 2325, 
  "davor": 2326, 
  "umgesetzt": 2327, 
  "gering": 2328, 
  "bi@@": 2329, 
  "Suche": 2330, 
  "...": 2331, 
  "zwingen": 2332, 
  "Pläne": 2333, 
  "fer@@": 2334, 
  "wahren": 2335, 
  "Verteidigungs@@": 2336, 
  "mehreren": 2337, 
  "unbe@@": 2338, 
  "bedroht": 2339, 
  "plötzlich": 2340, 
  "bezahlt": 2341, 
  "umzusetzen": 2342, 
  "vollkommen": 2343, 
  "lichem": 2344, 
  "überwinden": 2345, 
  "schlechter": 2346, 
  "verlangen": 2347, 
  "Rechtsstaatlichkeit": 2348, 
  "Blick": 2349, 
  "ernst": 2350, 
  "Al@@": 2351, 
  "stieg": 2352, 
  "i": 2353, 
  "Gebieten": 2354, 
  "weg": 2355, 
  "steuern": 2356, 
  "Lehre": 2357, 
  "Generationen": 2358, 
  "Arbeitsplätzen": 2359, 
  "Reserven": 2360, 
  "Bestimmungen": 2361, 
  "verlangt": 2362, 
  "Kombination": 2363, 
  "schafft": 2364, 
  "normalen": 2365, 
  "Städte": 2366, 
  "beteiligt": 2367, 
  "spiegelt": 2368, 
  "Schulen": 2369, 
  "Forschungs@@": 2370, 
  "letzter": 2371, 
  "tisch": 2372, 
  "Methoden": 2373, 
  "Wort": 2374, 
  "Zweck": 2375, 
  "sen@@": 2376, 
  "Beschränkungen": 2377, 
  "u": 2378, 
  "ließen": 2379, 
  "Wesentlichen": 2380, 
  "genannte": 2381, 
  "Gewerkschaften": 2382, 
  "Liquidität": 2383, 
  "Menschenrechts@@": 2384, 
  "Hause": 2385, 
  "Klimawandels": 2386, 
  "ss@@": 2387, 
  "Zeichen": 2388, 
  "Arbeitnehmer": 2389, 
  "August": 2390, 
  "Laufe": 2391, 
  "Medikamente": 2392, 
  "Währungsunion": 2393, 
  "Zusammen@@": 2394, 
  "historische": 2395, 
  "A": 2396, 
  "Kontinent": 2397, 
  "ären": 2398, 
  "em@@": 2399, 
  "indische": 2400, 
  "Mitarbeiter": 2401, 
  "Angriffe": 2402, 
  "Reichen": 2403, 
  "General": 2404, 
  "unver@@": 2405, 
  "sieben": 2406, 
  "sofort": 2407, 
  "Reduzierung": 2408, 
  "direkte": 2409, 
  "öffentlicher": 2410, 
  "schwachen": 2411, 
  "Bo@@": 2412, 
  "Initiativen": 2413, 
  "Mitteln": 2414, 
  "jährlichen": 2415, 
  "iranische": 2416, 
  "zieht": 2417, 
  "gewonnen": 2418, 
  "moralischen": 2419, 
  "Umgang": 2420, 
  "Besuch": 2421, 
  "traditionelle": 2422, 
  "brechen": 2423, 
  "harte": 2424, 
  "barkeit": 2425, 
  "heraus@@": 2426, 
  "Zentrum": 2427, 
  "2012": 2428, 
  "tion": 2429, 
  "richtigen": 2430, 
  "wählen": 2431, 
  "Struktur": 2432, 
  "Problems": 2433, 
  "is@@": 2434, 
  "verdienen": 2435, 
  "Staats-": 2436, 
  "Kreditvergabe": 2437, 
  "Ideologie": 2438, 
  "lo@@": 2439, 
  "ernsthaft": 2440, 
  "1@@": 2441, 
  "Steuerzahler": 2442, 
  "höchst": 2443, 
  "gleichermaßen": 2444, 
  "Nord@@": 2445, 
  "bislang": 2446, 
  "Minderheiten": 2447, 
  "gaben": 2448, 
  "erkannt": 2449, 
  "Schwäche": 2450, 
  "Mon@@": 2451, 
  "Niedergang": 2452, 
  "voller": 2453, 
  "bewegung": 2454, 
  "Eliten": 2455, 
  "istische": 2456, 
  "Machthaber": 2457, 
  "En@@": 2458, 
  "erfordern": 2459, 
  "Haushaltsdefizite": 2460, 
  "derartiger": 2461, 
  "alisierung": 2462, 
  "Argumente": 2463, 
  "formen": 2464, 
  "Schluss": 2465, 
  "finanziert": 2466, 
  "überraschend": 2467, 
  "zurückzuführen": 2468, 
  "Staatsschulden": 2469, 
  "Diskussionen": 2470, 
  "Anreiz": 2471, 
  "Partnerschaft": 2472, 
  "Steuersenkungen": 2473, 
  "sonst": 2474, 
  "Unruhen": 2475, 
  "rä@@": 2476, 
  "rat": 2477, 
  "Ursache": 2478, 
  "europäischer": 2479, 
  "jeweils": 2480, 
  "warten": 2481, 
  "zei@@": 2482, 
  "Gefahren": 2483, 
  "krise": 2484, 
  "Ölpreise": 2485, 
  "kurzfristigen": 2486, 
  "Lei@@": 2487, 
  "Chávez": 2488, 
  "Beweise": 2489, 
  "ländern": 2490, 
  "raten": 2491, 
  "durchgeführt": 2492, 
  "Norden": 2493, 
  "erfolgreiche": 2494, 
  "keinerlei": 2495, 
  "glaubt": 2496, 
  "f": 2497, 
  "markt@@": 2498, 
  "echten": 2499, 
  "dürften": 2500, 
  "schwache": 2501, 
  "Reaktionen": 2502, 
  "wann": 2503, 
  "Zustimmung": 2504, 
  "lage": 2505, 
  "ausgelöst": 2506, 
  "reiche": 2507, 
  "onen": 2508, 
  "ven": 2509, 
  "Bedrohungen": 2510, 
  "sieren": 2511, 
  "Invasion": 2512, 
  "dritte": 2513, 
  "ergibt": 2514, 
  "Liste": 2515, 
  "stellung": 2516, 
  "anderem": 2517, 
  "gestalten": 2518, 
  "ur": 2519, 
  "bzw.": 2520, 
  "Gang": 2521, 
  "extrem": 2522, 
  "unternommen": 2523, 
  "begrenzt": 2524, 
  "mittlerweile": 2525, 
  "einzusetzen": 2526, 
  "Palästina": 2527, 
  "Rechten": 2528, 
  "Volks@@": 2529, 
  "übertragen": 2530, 
  "Hongkong": 2531, 
  "ähnlichen": 2532, 
  "us@@": 2533, 
  "tiert": 2534, 
  "bedeutende": 2535, 
  "Paul": 2536, 
  "Kar@@": 2537, 
  "besseren": 2538, 
  "reich": 2539, 
  "Spar@@": 2540, 
  "Formen": 2541, 
  "hart": 2542, 
  "wollten": 2543, 
  "Kriegs@@": 2544, 
  "sowjetischen": 2545, 
  "umfassenden": 2546, 
  "aufgenommen": 2547, 
  "ohnehin": 2548, 
  "Kim": 2549, 
  "Ablehnung": 2550, 
  "21.": 2551, 
  "türkischen": 2552, 
  "drängen": 2553, 
  "natürlichen": 2554, 
  "losigkeit": 2555, 
  "übrigen": 2556, 
  "Zerstörung": 2557, 
  "Tagen": 2558, 
  "stre@@": 2559, 
  "Land@@": 2560, 
  "Serbien": 2561, 
  "gemäß": 2562, 
  "1970er": 2563, 
  "Logik": 2564, 
  "zunehmenden": 2565, 
  "ften": 2566, 
  "12": 2567, 
  "kulturellen": 2568, 
  "sh@@": 2569, 
  "machten": 2570, 
  "aktiv": 2571, 
  "tz@@": 2572, 
  "Vermögen": 2573, 
  "Innovation": 2574, 
  "einfachen": 2575, 
  "anten": 2576, 
  "Bereiche": 2577, 
  "werten": 2578, 
  "gelingt": 2579, 
  "Szenario": 2580, 
  "Hypotheken": 2581, 
  "Institution": 2582, 
  "Ursachen": 2583, 
  "schrieb": 2584, 
  "ck@@": 2585, 
  "Muster": 2586, 
  "zeigte": 2587, 
  "Marktwirtschaft": 2588, 
  "1991": 2589, 
  "ol@@": 2590, 
  "einfache": 2591, 
  "eng": 2592, 
  "eri@@": 2593, 
  "demokratischer": 2594, 
  "betroffen": 2595, 
  "Anwendung": 2596, 
  "1990": 2597, 
  "Unterdrückung": 2598, 
  "Interventionen": 2599, 
  "positive": 2600, 
  "Verpflichtung": 2601, 
  "geschieht": 2602, 
  "Aktionen": 2603, 
  "rate": 2604, 
  "Waffen@@": 2605, 
  "verbessert": 2606, 
  "potenziell": 2607, 
  "Aufwertung": 2608, 
  "stärksten": 2609, 
  "Massen@@": 2610, 
  "spricht": 2611, 
  "ach@@": 2612, 
  "Änderung": 2613, 
  "Steigerung": 2614, 
  "Glück": 2615, 
  "Standards": 2616, 
  "mt": 2617, 
  "Respekt": 2618, 
  "Fehl@@": 2619, 
  "Modernisierung": 2620, 
  "elten": 2621, 
  "teil@@": 2622, 
  "Brüssel": 2623, 
  "Vorschläge": 2624, 
  "Soft": 2625, 
  "Finanzsektor": 2626, 
  "wahre": 2627, 
  "Staatsverschuldung": 2628, 
  "Nachricht": 2629, 
  "Angebot": 2630, 
  "vollen": 2631, 
  "nennen": 2632, 
  "erer": 2633, 
  "kulturelle": 2634, 
  "Erderwärmung": 2635, 
  "entsprechend": 2636, 
  "ei": 2637, 
  "ständigen": 2638, 
  "gest@@": 2639, 
  "Friedens@@": 2640, 
  "sozialer": 2641, 
  "Beschäftigungs@@": 2642, 
  "eres": 2643, 
  "Der": 2644, 
  "späten": 2645, 
  "Notenbank": 2646, 
  "sämtliche": 2647, 
  "gelangen": 2648, 
  "folgenden": 2649, 
  "zurückzu@@": 2650, 
  "tenden": 2651, 
  "rechte": 2652, 
  "ls": 2653, 
  "500": 2654, 
  "est@@": 2655, 
  "frühere": 2656, 
  "Versuche": 2657, 
  "fand": 2658, 
  "bezeichnen": 2659, 
  "wei@@": 2660, 
  "zentralen": 2661, 
  "Beweis": 2662, 
  "Wiederherstellung": 2663, 
  "ate": 2664, 
  "Sonder@@": 2665, 
  "Lehren": 2666, 
  "behalten": 2667, 
  "200": 2668, 
  "Y@@": 2669, 
  "liberalen": 2670, 
  "Quelle": 2671, 
  "überlassen": 2672, 
  "Le@@": 2673, 
  "Niederlage": 2674, 
  "selbst@@": 2675, 
  "Spitze": 2676, 
  "negativen": 2677, 
  "hervor@@": 2678, 
  "Schwellenländern": 2679, 
  "18": 2680, 
  "sektor": 2681, 
  "Außenminister": 2682, 
  "zugunsten": 2683, 
  "Minderheit": 2684, 
  "Zivilisten": 2685, 
  "Wladimir": 2686, 
  "gruppen": 2687, 
  "schwach": 2688, 
  "ir@@": 2689, 
  "Februar": 2690, 
  "sofern": 2691, 
  "Steuer": 2692, 
  "akzeptiert": 2693, 
  "Schlüssel@@": 2694, 
  "rück@@": 2695, 
  "fordert": 2696, 
  "tra@@": 2697, 
  "gelöst": 2698, 
  "Öffnung": 2699, 
  "jüngst": 2700, 
  "verhalten": 2701, 
  "tigkeit": 2702, 
  "gruppe": 2703, 
  "Nähe": 2704, 
  "großes": 2705, 
  "schlag": 2706, 
  "ökonomische": 2707, 
  "digen": 2708, 
  "per": 2709, 
  "laufen": 2710, 
  "Behauptung": 2711, 
  "erzielt": 2712, 
  "testen": 2713, 
  "tritt": 2714, 
  "Hintergrund": 2715, 
  "Keynes": 2716, 
  "Nuklear@@": 2717, 
  "Renminbi": 2718, 
  "Straße": 2719, 
  "denjenigen": 2720, 
  "institutionelle": 2721, 
  "Einklang": 2722, 
  "Analyse": 2723, 
  "Street": 2724, 
  "Bildungs@@": 2725, 
  "Abwertung": 2726, 
  "gerecht": 2727, 
  "ör@@": 2728, 
  "hielten": 2729, 
  "ener": 2730, 
  "elte": 2731, 
  "erungen": 2732, 
  "seitdem": 2733, 
  "Lohn@@": 2734, 
  "ens@@": 2735, 
  "ausgeschlossen": 2736, 
  "anschließend": 2737, 
  "Besorgnis": 2738, 
  "af@@": 2739, 
  "il@@": 2740, 
  "Überleben": 2741, 
  "Verträge": 2742, 
  "seitens": 2743, 
  "geändert": 2744, 
  "Gründung": 2745, 
  "verschärft": 2746, 
  "reduziert": 2747, 
  "cht@@": 2748, 
  "dank": 2749, 
  "Privat@@": 2750, 
  "anerkannt": 2751, 
  "Fatah": 2752, 
  "Jobs": 2753, 
  "ersetzen": 2754, 
  "Strukturen": 2755, 
  "Palästinensern": 2756, 
  "Lockerung": 2757, 
  "trat": 2758, 
  "Akteure": 2759, 
  "unterscheiden": 2760, 
  "Jahrzehnts": 2761, 
  "Pro": 2762, 
  "heutige": 2763, 
  "с@@": 2764, 
  "anhaltenden": 2765, 
  "jährliche": 2766, 
  "Drogen@@": 2767, 
  "weist": 2768, 
  "offene": 2769, 
  "Eindruck": 2770, 
  "tigte": 2771, 
  "и@@": 2772, 
  "Handeln": 2773, 
  "anhaltende": 2774, 
  "Gedanken": 2775, 
  "Kampagne": 2776, 
  "Zustand": 2777, 
  "international": 2778, 
  "Eltern": 2779, 
  "greifen": 2780, 
  "unterdessen": 2781, 
  "ignorieren": 2782, 
  "geprägt": 2783, 
  "ausgegeben": 2784, 
  "Haushaltsdefizit": 2785, 
  "hierfür": 2786, 
  "leidet": 2787, 
  "Ministerpräsidenten": 2788, 
  "Planeten": 2789, 
  "Perspektive": 2790, 
  "Importe": 2791, 
  "Schweden": 2792, 
  "wenden": 2793, 
  "unten": 2794, 
  "Einstellung": 2795, 
  "sinken": 2796, 
  "entstanden": 2797, 
  "Boom": 2798, 
  "wirken": 2799, 
  "unabhängigen": 2800, 
  "ausgehen": 2801, 
  "deuten": 2802, 
  "entgegen": 2803, 
  "persönlichen": 2804, 
  "Rettung": 2805, 
  "Portugal": 2806, 
  "Afrikas": 2807, 
  "bauen": 2808, 
  "ad@@": 2809, 
  "droht": 2810, 
  "ausgedrückt": 2811, 
  "Aspekt": 2812, 
  "wirkliche": 2813, 
  "ethnischen": 2814, 
  "Alternativen": 2815, 
  "Arbeitsmarkt": 2816, 
  "bestätigt": 2817, 
  "Einwanderer": 2818, 
  "Kyoto": 2819, 
  "genen": 2820, 
  "Aufgaben": 2821, 
  "mittel": 2822, 
  "Finanzmärkten": 2823, 
  "verleihen": 2824, 
  "ente": 2825, 
  "kleiner": 2826, 
  "ah@@": 2827, 
  "nachhaltige": 2828, 
  "Gläubiger": 2829, 
  "gemessen": 2830, 
  "verstanden": 2831, 
  "nt": 2832, 
  "Bündnis": 2833, 
  "tende": 2834, 
  "schlechten": 2835, 
  "Internationale": 2836, 
  "vorher": 2837, 
  "herbeizuführen": 2838, 
  "versuchte": 2839, 
  "entscheidenden": 2840, 
  "ran@@": 2841, 
  "nis": 2842, 
  "guter": 2843, 
  "griechischen": 2844, 
  "erungs@@": 2845, 
  "gefährdet": 2846, 
  "Freunde": 2847, 
  "barer": 2848, 
  "riesigen": 2849, 
  "lie@@": 2850, 
  "ze": 2851, 
  "gelernt": 2852, 
  "ff@@": 2853, 
  "Deflation": 2854, 
  "drittens": 2855, 
  "mer@@": 2856, 
  "verteidigen": 2857, 
  "kurzfristige": 2858, 
  "stärkere": 2859, 
  "beschränken": 2860, 
  "uner@@": 2861, 
  "verbreitet": 2862, 
  "weg@@": 2863, 
  "oren": 2864, 
  "om@@": 2865, 
  "wirksam": 2866, 
  "tiven": 2867, 
  "effektiv": 2868, 
  "Verbrauch": 2869, 
  "Ost@@": 2870, 
  "ation@@": 2871, 
  "hilft": 2872, 
  "ati@@": 2873, 
  "irgendwann": 2874, 
  "ds": 2875, 
  "Werten": 2876, 
  "ßen": 2877, 
  "militärischer": 2878, 
  "Renten@@": 2879, 
  "dauern": 2880, 
  "überrascht": 2881, 
  "erinnert": 2882, 
  "Verfassungs@@": 2883, 
  "folgt": 2884, 
  "Vietnam": 2885, 
  "90": 2886, 
  "märkte": 2887, 
  "trifft": 2888, 
  "rechten": 2889, 
  "Beispiele": 2890, 
  "beschäftigt": 2891, 
  "Diktatur": 2892, 
  "weitgehend": 2893, 
  "gegangen": 2894, 
  "umgehen": 2895, 
  "erlangen": 2896, 
  "ell": 2897, 
  "schlimmsten": 2898, 
  "Prioritäten": 2899, 
  "benötigen": 2900, 
  "islamische": 2901, 
  "Nachfolger": 2902, 
  "entschlossen": 2903, 
  "höchsten": 2904, 
  "dramatisch": 2905, 
  "neigen": 2906, 
  "leichter": 2907, 
  "Anlagen": 2908, 
  "Verwaltung": 2909, 
  "Krisen@@": 2910, 
  "Manager": 2911, 
  "Schiiten": 2912, 
  "ertes": 2913, 
  "Handels": 2914, 
  "aufzunehmen": 2915, 
  "Befürworter": 2916, 
  "fahren": 2917, 
  "Präsidentschaftswahlen": 2918, 
  "tigt": 2919, 
  "schreiben": 2920, 
  "Bestandteil": 2921, 
  "verglichen": 2922, 
  "eller": 2923, 
  "geblieben": 2924, 
  "Her@@": 2925, 
  "Frei@@": 2926, 
  "kraft": 2927, 
  "jährigen": 2928, 
  "diesmal": 2929, 
  "Erde": 2930, 
  "tierte": 2931, 
  "Wahlkampf": 2932, 
  "mer": 2933, 
  "notwendigen": 2934, 
  "ziemlich": 2935, 
  "Atmosphäre": 2936, 
  "Bewegungen": 2937, 
  "Gefängnis": 2938, 
  "langem": 2939, 
  "Sommer": 2940, 
  "nieder@@": 2941, 
  "vorgeschlagen": 2942, 
  "Wiederaufbau": 2943, 
  "Anlass": 2944, 
  "ali@@": 2945, 
  "Immobilien@@": 2946, 
  "vorhanden": 2947, 
  "profitiert": 2948, 
  "Extremisten": 2949, 
  "Projekte": 2950, 
  "institutionellen": 2951, 
  "tr@@": 2952, 
  "Debatten": 2953, 
  "zunehmen": 2954, 
  "dete": 2955, 
  "len@@": 2956, 
  "gesellschaftlichen": 2957, 
  "zusätzlichen": 2958, 
  "ssi@@": 2959, 
  "4@@": 2960, 
  "Konflikts": 2961, 
  "Endes": 2962, 
  "geringe": 2963, 
  "Schule": 2964, 
  "Yen": 2965, 
  "liefern": 2966, 
  "ed@@": 2967, 
  "zwanzig": 2968, 
  "д@@": 2969, 
  "sparen": 2970, 
  "gewiss": 2971, 
  "ner": 2972, 
  "tiges": 2973, 
  "sf@@": 2974, 
  "überleben": 2975, 
  "dung": 2976, 
  "Klima": 2977, 
  "Kreditgeber": 2978, 
  "Hilfs@@": 2979, 
  "legte": 2980, 
  "Sp@@": 2981, 
  "zuerst": 2982, 
  "Ro@@": 2983, 
  "Überzeugung": 2984, 
  "Hände": 2985, 
  "einfacher": 2986, 
  "stes": 2987, 
  "ausgeben": 2988, 
  "Instrument": 2989, 
  "mü@@": 2990, 
  "Sektoren": 2991, 
  "Gen@@": 2992, 
  "tre@@": 2993, 
  "Zuge": 2994, 
  "WTO": 2995, 
  "elles": 2996, 
  "Erkenntnis": 2997, 
  "Einkommens@@": 2998, 
  "fri@@": 2999, 
  "führung": 3000, 
  "produktion": 3001, 
  "Fernseh@@": 3002, 
  "deten": 3003, 
  "1930er": 3004, 
  "kennen": 3005, 
  "durchschnittlich": 3006, 
  "ländlichen": 3007, 
  "Ruf": 3008, 
  "Pakistans": 3009, 
  "beruhen": 3010, 
  "natürliche": 3011, 
  "tsch@@": 3012, 
  "erfüllt": 3013, 
  "Ru@@": 3014, 
  "welcher": 3015, 
  "mu@@": 3016, 
  "Effekt": 3017, 
  "Hu": 3018, 
  "reden": 3019, 
  "Gra@@": 3020, 
  "andernfalls": 3021, 
  "Licht": 3022, 
  "Wall": 3023, 
  "eigenes": 3024, 
  "Westjordanland": 3025, 
  "verwenden": 3026, 
  "nuklearen": 3027, 
  "glaube": 3028, 
  "Front": 3029, 
  "Bau": 3030, 
  "verdient": 3031, 
  "ster@@": 3032, 
  "weithin": 3033, 
  "Rückzug": 3034, 
  "Ausbruch": 3035, 
  "weise": 3036, 
  "möglichkeiten": 3037, 
  "Deutschen": 3038, 
  "auslösen": 3039, 
  "geln": 3040, 
  "Familien@@": 3041, 
  "Abschwung": 3042, 
  "führer": 3043, 
  "In": 3044, 
  "or": 3045, 
  "Wesen": 3046, 
  "womöglich": 3047, 
  "Süd@@": 3048, 
  "to@@": 3049, 
  "entgegen@@": 3050, 
  "digt": 3051, 
  "zerstört": 3052, 
  "Angelegenheit": 3053, 
  "Inflations@@": 3054, 
  "Aufnahme": 3055, 
  "Anti@@": 3056, 
  "Protektionismus": 3057, 
  "arbeitet": 3058, 
  "Absicht": 3059, 
  "erzeugen": 3060, 
  "alter": 3061, 
  "Se@@": 3062, 
  "übernommen": 3063, 
  "sprach": 3064, 
  "y": 3065, 
  "begannen": 3066, 
  "steckt": 3067, 
  "Denken": 3068, 
  "durchzusetzen": 3069, 
  "Chile": 3070, 
  "ell@@": 3071, 
  "stattfinden": 3072, 
  "definiert": 3073, 
  "gungen": 3074, 
  "gestärkt": 3075, 
  "stützen": 3076, 
  "diplomatischen": 3077, 
  "Besitz": 3078, 
  "argumentiert": 3079, 
  "alisiert": 3080, 
  "preise": 3081, 
  "ters": 3082, 
  "näher": 3083, 
  "Beteiligung": 3084, 
  "anhand": 3085, 
  "struktur": 3086, 
  "fielen": 3087, 
  "gesellschaftliche": 3088, 
  "Kaida": 3089, 
  "wirft": 3090, 
  "Verteilung": 3091, 
  "Bi@@": 3092, 
  "Robert": 3093, 
  "stimmen": 3094, 
  "Gazastreifen": 3095, 
  "Bewusstsein": 3096, 
  "Hunger": 3097, 
  "Inter@@": 3098, 
  "Südafrika": 3099, 
  "sicherheit": 3100, 
  "gelungen": 3101, 
  "Allianz": 3102, 
  "Normen": 3103, 
  "prä@@": 3104, 
  "gender": 3105, 
  "zeit@@": 3106, 
  "Spielraum": 3107, 
  "rechnen": 3108, 
  "ordnung": 3109, 
  "Aspekte": 3110, 
  "regelmäßig": 3111, 
  "persönliche": 3112, 
  "Versagen": 3113, 
  "niedrige": 3114, 
  "stecken": 3115, 
  "voraus": 3116, 
  "diplomatische": 3117, 
  "esen": 3118, 
  "Par@@": 3119, 
  "beeinflusst": 3120, 
  "qu@@": 3121, 
  "bares": 3122, 
  "Westeuropa": 3123, 
  "investiert": 3124, 
  "Stellung": 3125, 
  "tat": 3126, 
  "kontrollieren": 3127, 
  "schwere": 3128, 
  "Mor@@": 3129, 
  "Militärs": 3130, 
  "Fach@@": 3131, 
  "Amerikanern": 3132, 
  "schweren": 3133, 
  "wahr@@": 3134, 
  "weitem": 3135, 
  "ing": 3136, 
  "probleme": 3137, 
  "gkeit": 3138, 
  "Feind": 3139, 
  "fürchten": 3140, 
  "cken": 3141, 
  "umfasst": 3142, 
  "scheinbar": 3143, 
  "erreichte": 3144, 
  "langer": 3145, 
  "riesige": 3146, 
  "genutzt": 3147, 
  "Kern": 3148, 
  "wachstum": 3149, 
  "aufrechtzuerhalten": 3150, 
  "Nachrichten": 3151, 
  "gef@@": 3152, 
  "Mittelschicht": 3153, 
  "Positionen": 3154, 
  "England": 3155, 
  "are": 3156, 
  "umso": 3157, 
  "verursachen": 3158, 
  "Voraussetzung": 3159, 
  "Kulturen": 3160, 
  "Banken@@": 3161, 
  "stürzen": 3162, 
  "е@@": 3163, 
  "Tages": 3164, 
  "ek@@": 3165, 
  "falsche": 3166, 
  "Stagnation": 3167, 
  "Viertel": 3168, 
  "Einzel@@": 3169, 
  "begegnen": 3170, 
  "unge@@": 3171, 
  "aufnehmen": 3172, 
  "dieselbe": 3173, 
  "Luft": 3174, 
  "Sturz": 3175, 
  "dar@@": 3176, 
  "Teilnahme": 3177, 
  "rechts@@": 3178, 
  "gäbe": 3179, 
  "Bestrebungen": 3180, 
  "tion@@": 3181, 
  "radikale": 3182, 
  "liberale": 3183, 
  "West@@": 3184, 
  "schwächen": 3185, 
  "Mittel@@": 3186, 
  "Finanzsystems": 3187, 
  "rechtfertigen": 3188, 
  "hal@@": 3189, 
  "Reichtum": 3190, 
  "alt": 3191, 
  "ersetzt": 3192, 
  "strategie": 3193, 
  "Schätzungen": 3194, 
  "Anti": 3195, 
  "pf@@": 3196, 
  "Ungarn": 3197, 
  "Stil": 3198, 
  "Auge": 3199, 
  "Instrumente": 3200, 
  "fanden": 3201, 
  "Mauer": 3202, 
  "ursprünglich": 3203, 
  "eintreten": 3204, 
  "Hypotheken@@": 3205, 
  "blieben": 3206, 
  "scheitern": 3207, 
  "ren@@": 3208, 
  "Mi@@": 3209, 
  "infolge": 3210, 
  "produzieren": 3211, 
  "dungen": 3212, 
  "16": 3213, 
  "lich@@": 3214, 
  "Regulierungs@@": 3215, 
  "ari@@": 3216, 
  "Linke": 3217, 
  "ales": 3218, 
  "ons": 3219, 
  "Not@@": 3220, 
  "erlaubt": 3221, 
  "zuletzt": 3222, 
  "schaften": 3223, 
  "Kuba": 3224, 
  "reicher": 3225, 
  "verfahren": 3226, 
  "pl@@": 3227, 
  "Kunden": 3228, 
  "haltung": 3229, 
  "iert": 3230, 
  "Alter": 3231, 
  "getötet": 3232, 
  "Wunder": 3233, 
  "Vater": 3234, 
  "Kanada": 3235, 
  "medizinische": 3236, 
  "stoßen": 3237, 
  "gefährden": 3238, 
  "hinweg": 3239, 
  "fin@@": 3240, 
  "beginnt": 3241, 
  "S": 3242, 
  "Effizienz": 3243, 
  "fällen": 3244, 
  "forderte": 3245, 
  "Presse": 3246, 
  "anscheinend": 3247, 
  "Australien": 3248, 
  "The": 3249, 
  "Kind": 3250, 
  "Vielfalt": 3251, 
  "bewahren": 3252, 
  "wiederherzustellen": 3253, 
  "Nigeria": 3254, 
  "Stabilisierung": 3255, 
  "Verschuldung": 3256, 
  "Demonstranten": 3257, 
  "Minister": 3258, 
  "ap@@": 3259, 
  "Mo@@": 3260, 
  "lan@@": 3261, 
  "tierten": 3262, 
  "mo@@": 3263, 
  "Unfähigkeit": 3264, 
  "bedeutenden": 3265, 
  "Innovationen": 3266, 
  "Tagesordnung": 3267, 
  "min@@": 3268, 
  "abgesch@@": 3269, 
  "arbeit": 3270, 
  "scht": 3271, 
  "gene": 3272, 
  "Kapazitäten": 3273, 
  "Gebiete": 3274, 
  "sodass": 3275, 
  "ef@@": 3276, 
  "hilfreich": 3277, 
  "kan@@": 3278, 
  "schi@@": 3279, 
  "zuzu@@": 3280, 
  "Singapur": 3281, 
  "C": 3282, 
  "Tempo": 3283, 
  "leiten": 3284, 
  "passieren": 3285, 
  "Sektors": 3286, 
  "risiko": 3287, 
  "entwicklung": 3288, 
  "geh@@": 3289, 
  "Medwedew": 3290, 
  "wi@@": 3291, 
  "lieber": 3292, 
  "Islamisten": 3293, 
  "Musharraf": 3294, 
  "demokratisch": 3295, 
  "Gewicht": 3296, 
  "Schwerpunkt": 3297, 
  "ethnische": 3298, 
  "Mitgliedsländer": 3299, 
  "positiv": 3300, 
  "Mittelpunkt": 3301, 
  "Zeitalter": 3302, 
  "rechts": 3303, 
  "gesenkt": 3304, 
  "Mittleren": 3305, 
  "Erfolge": 3306, 
  "Hoffnungen": 3307, 
  "zerstören": 3308, 
  "Höhepunkt": 3309, 
  "potenziellen": 3310, 
  "ut@@": 3311, 
  "Ex@@": 3312, 
  "d.h.": 3313, 
  "effektive": 3314, 
  "behörde": 3315, 
  "Kauf": 3316, 
  "11": 3317, 
  "Chirac": 3318, 
  "Management": 3319, 
  "Mubarak": 3320, 
  "ing@@": 3321, 
  "gedrängt": 3322, 
  "Volkes": 3323, 
  "Bundes@@": 3324, 
  "sicherlich": 3325, 
  "enthalten": 3326, 
  "Begriff": 3327, 
  "rufen": 3328, 
  "Merkel": 3329, 
  "Wertpapiere": 3330, 
  "Einrichtungen": 3331, 
  "geschlossen": 3332, 
  "schwierige": 3333, 
  "Übereinkunft": 3334, 
  "Preisen": 3335, 
  "Venezuela": 3336, 
  "notwendige": 3337, 
  "Netto@@": 3338, 
  "Milliarde": 3339, 
  "Bürgerkrieg": 3340, 
  "Zins@@": 3341, 
  "sierten": 3342, 
  "annehmen": 3343, 
  "Mächte": 3344, 
  "drastisch": 3345, 
  "fördert": 3346, 
  "For@@": 3347, 
  "Krediten": 3348, 
  "h": 3349, 
  "Kompromiss": 3350, 
  "Existenz": 3351, 
  "Mission": 3352, 
  "Informations@@": 3353, 
  "verbundenen": 3354, 
  "erhebliche": 3355, 
  "besitzen": 3356, 
  "Ber@@": 3357, 
  "hi@@": 3358, 
  "gem": 3359, 
  "einzelne": 3360, 
  "versorgung": 3361, 
  "richten": 3362, 
  "berücksichtigen": 3363, 
  "Wachstumsrate": 3364, 
  "ori@@": 3365, 
  "Regierungsführung": 3366, 
  "Beamten": 3367, 
  "Verbesserungen": 3368, 
  "OECD": 3369, 
  "13": 3370, 
  "Bilanzen": 3371, 
  "Mädchen": 3372, 
  "Bar@@": 3373, 
  "erender": 3374, 
  "Linken": 3375, 
  "liegenden": 3376, 
  "Strukturreformen": 3377, 
  "meinem": 3378, 
  "verkauft": 3379, 
  "Rei@@": 3380, 
  "potenzielle": 3381, 
  "Bürger@@": 3382, 
  "teuer": 3383, 
  "gew@@": 3384, 
  "sierte": 3385, 
  "Geschwindigkeit": 3386, 
  "äu@@": 3387, 
  "75": 3388, 
  "stehenden": 3389, 
  "aufstrebenden": 3390, 
  "Kommunisten": 3391, 
  "steuer": 3392, 
  "frage": 3393, 
  "Feinde": 3394, 
  "loser": 3395, 
  "herzustellen": 3396, 
  "jedenfalls": 3397, 
  "welchen": 3398, 
  "besondere": 3399, 
  "tlich": 3400, 
  "tliche": 3401, 
  "Erklärungen": 3402, 
  "direkten": 3403, 
  "Vorstellungen": 3404, 
  "gewählten": 3405, 
  "Export": 3406, 
  "deutet": 3407, 
  "Denk@@": 3408, 
  "gefördert": 3409, 
  "Männern": 3410, 
  "Richtlinien": 3411, 
  "Vi@@": 3412, 
  "umgekehrt": 3413, 
  "tere": 3414, 
  "gesunken": 3415, 
  "x@@": 3416, 
  "veröffentlicht": 3417, 
  "reagiert": 3418, 
  "chs": 3419, 
  "spüren": 3420, 
  "Prognosen": 3421, 
  "Industrie@@": 3422, 
  "problem": 3423, 
  "Aktien@@": 3424, 
  "Gerichtshof": 3425, 
  "gewählte": 3426, 
  "man@@": 3427, 
  "offiziell": 3428, 
  "verschaffen": 3429, 
  "Erinnerung": 3430, 
  "Briten": 3431, 
  "neu@@": 3432, 
  "Verwendung": 3433, 
  "sahen": 3434, 
  "Gas": 3435, 
  "im@@": 3436, 
  "Roma": 3437, 
  "bestehende": 3438, 
  "bedingt": 3439, 
  "drei@@": 3440, 
  "schlägt": 3441, 
  "Kom@@": 3442, 
  "genügend": 3443, 
  "Gene": 3444, 
  "Peripherie": 3445, 
  "derzeitigen": 3446, 
  "Befürchtungen": 3447, 
  "sa@@": 3448, 
  "Bewältigung": 3449, 
  "irakische": 3450, 
  "Energien": 3451, 
  "stischen": 3452, 
  "dritten": 3453, 
  "solches": 3454, 
  "ignoriert": 3455, 
  "Korea": 3456, 
  "Untersuchungen": 3457, 
  "bar@@": 3458, 
  "Untersuchung": 3459, 
  "Konfrontation": 3460, 
  "unweigerlich": 3461, 
  "Maßnahme": 3462, 
  "schwierigen": 3463, 
  "orientierten": 3464, 
  "Schwächen": 3465, 
  "els": 3466, 
  "alisten": 3467, 
  "Kohle": 3468, 
  "ASEAN": 3469, 
  "ativen": 3470, 
  "aner": 3471, 
  "Sparmaßnahmen": 3472, 
  "Durchschnitt": 3473, 
  "traditionell": 3474, 
  "and@@": 3475, 
  "entsprechende": 3476, 
  "schnelle": 3477, 
  "glücklicherweise": 3478, 
  "gutes": 3479, 
  "fälle": 3480, 
  "Widerspruch": 3481, 
  "ok@@": 3482, 
  "berücksichtigt": 3483, 
  "Mechanismen": 3484, 
  "knapp": 3485, 
  "Wei@@": 3486, 
  "müsse": 3487, 
  "gefangen": 3488, 
  "brachten": 3489, 
  "Medien@@": 3490, 
  "Modelle": 3491, 
  "Verbot": 3492, 
  "stand@@": 3493, 
  "Aktivisten": 3494, 
  "35": 3495, 
  "durchschnittliche": 3496, 
  "afrikanische": 3497, 
  "ent": 3498, 
  "Parlamentswahlen": 3499, 
  "stiegen": 3500, 
  "Mark@@": 3501, 
  "einig": 3502, 
  "Kirche": 3503, 
  "wünschen": 3504, 
  "Friedens": 3505, 
  "geleitet": 3506, 
  "mächtigen": 3507, 
  "Entschlossenheit": 3508, 
  "Privatisierung": 3509, 
  "Mischung": 3510, 
  "Grunde": 3511, 
  "Information": 3512, 
  "höherer": 3513, 
  "ieren": 3514, 
  "folgte": 3515, 
  "14": 3516, 
  "Traum": 3517, 
  "mittels": 3518, 
  "weit@@": 3519, 
  "bloß": 3520, 
  "Charakter": 3521, 
  "beseitigen": 3522, 
  "Geschäfte": 3523, 
  "wirtschaft": 3524, 
  "alisieren": 3525, 
  "schweigen": 3526, 
  "Bet@@": 3527, 
  "starker": 3528, 
  "Liquiditäts@@": 3529, 
  "lau@@": 3530, 
  "erfolgreichen": 3531, 
  "anzunehmen": 3532, 
  "pp@@": 3533, 
  "asiatische": 3534, 
  "Wandels": 3535, 
  "Mensch": 3536, 
  "erst@@": 3537, 
  "r": 3538, 
  "betrug": 3539, 
  "konservativen": 3540, 
  "Diskriminierung": 3541, 
  "schlicht": 3542, 
  "positiven": 3543, 
  "begrenzen": 3544, 
  "extreme": 3545, 
  "setzung": 3546, 
  "kommunistische": 3547, 
  "negative": 3548, 
  "verwandeln": 3549, 
  "Schocks": 3550, 
  "irgendwie": 3551, 
  "organisation": 3552, 
  "Raketen": 3553, 
  "Tunesien": 3554, 
  "Durch@@": 3555, 
  "Ängste": 3556, 
  "krieg": 3557, 
  "bt": 3558, 
  "Nein": 3559, 
  "Anführer": 3560, 
  "Sichtweise": 3561, 
  "bot": 3562, 
  "mel@@": 3563, 
  "aktive": 3564, 
  "vi@@": 3565, 
  "anfällig": 3566, 
  "wirksame": 3567, 
  "kom@@": 3568, 
  "1980": 3569, 
  "angemessene": 3570, 
  "besitzt": 3571, 
  "zog": 3572, 
  "Mechanismus": 3573, 
  "ses": 3574, 
  "türkische": 3575, 
  "Ko@@": 3576, 
  "Bedürfnisse": 3577, 
  "gel": 3578, 
  "oni@@": 3579, 
  "punkt": 3580, 
  "technischen": 3581, 
  "Konzentration": 3582, 
  "Million": 3583, 
  "erfahren": 3584, 
  "Schlüssel": 3585, 
  "reform": 3586, 
  "Völker": 3587, 
  "Resolution": 3588, 
  "Qu@@": 3589, 
  "Autos": 3590, 
  "Erbe": 3591, 
  "Meer": 3592, 
  "stärkeren": 3593, 
  "Reagan": 3594, 
  "chen@@": 3595, 
  "Doha": 3596, 
  "ierten": 3597, 
  "rein": 3598, 
  "ini@@": 3599, 
  "ernsthaften": 3600, 
  "sinnvoll": 3601, 
  "Erträge": 3602, 
  "spar@@": 3603, 
  "interessiert": 3604, 
  "höchste": 3605, 
  "Voraussetzungen": 3606, 
  "gend": 3607, 
  "David": 3608, 
  "pakistanischen": 3609, 
  "у@@": 3610, 
  "reisen": 3611, 
  "lung": 3612, 
  "agieren": 3613, 
  "Geist": 3614, 
  "Wirtschaftswachstums": 3615, 
  "c@@": 3616, 
  "Präsenz": 3617, 
  "theit": 3618, 
  "Generalsekretär": 3619, 
  "derjenigen": 3620, 
  "fte": 3621, 
  "nung": 3622, 
  "unterstützte": 3623, 
  "industrie": 3624, 
  "Ahmadinedschad": 3625, 
  "Phänomen": 3626, 
  "entsprechenden": 3627, 
  "inter@@": 3628, 
  "Spiel@@": 3629, 
  "&#91;": 3630, 
  "&#93;": 3631, 
  "fließen": 3632, 
  "bo@@": 3633, 
  "teure": 3634, 
  "Optionen": 3635, 
  "Freiheiten": 3636, 
  "gespielt": 3637, 
  "Ärzte": 3638, 
  "Dauer": 3639, 
  "beobachten": 3640, 
  "gegründet": 3641, 
  "anerkennen": 3642, 
  "stets": 3643, 
  "niveau": 3644, 
  "druck": 3645, 
  "geschafft": 3646, 
  "Super@@": 3647, 
  "Führungsrolle": 3648, 
  "fähigkeit": 3649, 
  "vielfach": 3650, 
  "vermögen": 3651, 
  "ß": 3652, 
  "Strom@@": 3653, 
  "Haus@@": 3654, 
  "beschlossen": 3655, 
  "Miss@@": 3656, 
  "Trends": 3657, 
  "ca.": 3658, 
  "Bundesstaaten": 3659, 
  "Einwohner": 3660, 
  "inneren": 3661, 
  "Berichte": 3662, 
  "Konjunktur@@": 3663, 
  "17": 3664, 
  "setzten": 3665, 
  "Mandat": 3666, 
  "zug": 3667, 
  "Verhandlungs@@": 3668, 
  "geschwächt": 3669, 
  "stra@@": 3670, 
  "Ma@@": 3671, 
  "komplexen": 3672, 
  "Antworten": 3673, 
  "1995": 3674, 
  "tert": 3675, 
  "Stillstand": 3676, 
  "beider": 3677, 
  "absolut": 3678, 
  "D": 3679, 
  "handelte": 3680, 
  "spät": 3681, 
  "streben": 3682, 
  "tu@@": 3683, 
  "Konflikten": 3684, 
  "behandeln": 3685, 
  "holen": 3686, 
  "Ambitionen": 3687, 
  "ma@@": 3688, 
  "ausfallen": 3689, 
  "ns": 3690, 
  "ansteigen": 3691, 
  "lateinamerikanischen": 3692, 
  "Sparquote": 3693, 
  "Titel": 3694, 
  "rech@@": 3695, 
  "hingegen": 3696, 
  "gelassen": 3697, 
  "Stimmung": 3698, 
  "Geschäft": 3699, 
  "Großbritanniens": 3700, 
  "Bedarf": 3701, 
  "do@@": 3702, 
  "letztendlich": 3703, 
  "fort@@": 3704, 
  "Demokratisierung": 3705, 
  "hohem": 3706, 
  "sitzen": 3707, 
  "tiefer": 3708, 
  "Araber": 3709, 
  "nde": 3710, 
  "Tri@@": 3711, 
  "fer": 3712, 
  "е": 3713, 
  "Risiko@@": 3714, 
  "unglücklicherweise": 3715, 
  "welchem": 3716, 
  "tischer": 3717, 
  "friedlichen": 3718, 
  "300": 3719, 
  "Ziel@@": 3720, 
  "Händen": 3721, 
  "He@@": 3722, 
  "herrschenden": 3723, 
  "G20": 3724, 
  "Emissions@@": 3725, 
  "Inland": 3726, 
  "enz": 3727, 
  "ologie": 3728, 
  "Sicherheitsrates": 3729, 
  "systemen": 3730, 
  "Lebensstandard": 3731, 
  "Einkommens": 3732, 
  "Polizei@@": 3733, 
  "Entwicklungshilfe": 3734, 
  "aufgebaut": 3735, 
  "z.B.": 3736, 
  "ie": 3737, 
  "Berlusconi": 3738, 
  "Aktionäre": 3739, 
  "Herrscher": 3740, 
  "Gewinn": 3741, 
  "Unternehmer": 3742, 
  "Tony": 3743, 
  "harten": 3744, 
  "öffnen": 3745, 
  "Gemeinschaften": 3746, 
  "stände": 3747, 
  "Bei@@": 3748, 
  "..": 3749, 
  "är": 3750, 
  "Ostasien": 3751, 
  "bemüht": 3752, 
  "Best@@": 3753, 
  "stische": 3754, 
  "ausländischer": 3755, 
  "achten": 3756, 
  "gewinnt": 3757, 
  "Sudan": 3758, 
  "Welle": 3759, 
  "wenigsten": 3760, 
  "Darfur": 3761, 
  "hr@@": 3762, 
  "Justiz": 3763, 
  "diskutieren": 3764, 
  "Dilemma": 3765, 
  "Straf@@": 3766, 
  "0.000": 3767, 
  "Einwanderung": 3768, 
  "haft": 3769, 
  "Wachstumsraten": 3770, 
  "voran": 3771, 
  "gendes": 3772, 
  "ssen": 3773, 
  "gewachsen": 3774, 
  "Lehr@@": 3775, 
  "verliert": 3776, 
  "verbreitete": 3777, 
  "muslimische": 3778, 
  "gefährliche": 3779, 
  "Strom": 3780, 
  "per@@": 3781, 
  "Lissabon": 3782, 
  "staatlich": 3783, 
  "vergeben": 3784, 
  "verursachten": 3785, 
  "anzukurbeln": 3786, 
  "Einschränkungen": 3787, 
  "bewegt": 3788, 
  "etablieren": 3789, 
  "tief@@": 3790, 
  "1994": 3791, 
  "Moral": 3792, 
  "täglich": 3793, 
  "historisch": 3794, 
  "enz@@": 3795, 
  "Per@@": 3796, 
  "nahme": 3797, 
  "erforderlichen": 3798, 
  "schieben": 3799, 
  "Ak@@": 3800, 
  "1960er": 3801, 
  "geringen": 3802, 
  "lu@@": 3803, 
  "alisierte": 3804, 
  "geholfen": 3805, 
  "hen": 3806, 
  "Fußball@@": 3807, 
  "lichsten": 3808, 
  "wür@@": 3809, 
  "Option": 3810, 
  "Verlauf": 3811, 
  "aren": 3812, 
  "ms": 3813, 
  "ad": 3814, 
  "Au@@": 3815, 
  "Aufschwung": 3816, 
  "Konsum@@": 3817, 
  "wuchs": 3818, 
  "wesen": 3819, 
  "2015": 3820, 
  "regiert": 3821, 
  "teren": 3822, 
  "nötigen": 3823, 
  "ta@@": 3824, 
  "Mao": 3825, 
  "Taten": 3826, 
  "schlug": 3827, 
  "Banker": 3828, 
  "allmählich": 3829, 
  "abkommen": 3830, 
  "vier@@": 3831, 
  "Bill": 3832, 
  "fe@@": 3833, 
  "emp@@": 3834, 
  "Vorgänger": 3835, 
  "beträchtliche": 3836, 
  "Stunden": 3837, 
  "teil": 3838, 
  "zahlreichen": 3839, 
  "Hauptstadt": 3840, 
  "erhielt": 3841, 
  "wohl@@": 3842, 
  "regeln": 3843, 
  "weiten": 3844, 
  "Verkauf": 3845, 
  "Sunniten": 3846, 
  "Herzen": 3847, 
  "normale": 3848, 
  "schnellen": 3849, 
  "ang@@": 3850, 
  "nicht@@": 3851, 
  "bildung": 3852, 
  "27": 3853, 
  "aufweisen": 3854, 
  "mittel@@": 3855, 
  "isch": 3856, 
  "Dänemark": 3857, 
  "Dollar@@": 3858, 
  "aussehen": 3859, 
  "sicherer": 3860, 
  "vorzu@@": 3861, 
  "Handel@@": 3862, 
  "Me@@": 3863, 
  "Zeit@@": 3864, 
  "ob@@": 3865, 
  "nukleare": 3866, 
  "israelisch": 3867, 
  "bedingungen": 3868, 
  "tiefe": 3869, 
  "Produktivitäts@@": 3870, 
  "Finanzinstitutionen": 3871, 
  "Gesam@@": 3872, 
  "Institute": 3873, 
  "Immobilien": 3874, 
  "Vorgehensweise": 3875, 
  "stelle": 3876, 
  "Gesundheitswesen": 3877, 
  "rechtlichen": 3878, 
  "Versorgung": 3879, 
  "war@@": 3880, 
  "wahr": 3881, 
  "Definition": 3882, 
  "chte": 3883, 
  "Aufrechterhaltung": 3884, 
  "USD": 3885, 
  "gefordert": 3886, 
  "solle": 3887, 
  "Bereitstellung": 3888, 
  "bewerten": 3889, 
  "Li@@": 3890, 
  "Massenvernichtungswaffen": 3891, 
  "p": 3892, 
  "gegenseitig": 3893, 
  "Investition": 3894, 
  "eins": 3895, 
  "Protokoll": 3896, 
  "lä@@": 3897, 
  "senden": 3898, 
  "Drogen": 3899, 
  "diskutiert": 3900, 
  "bes@@": 3901, 
  "Quartal": 3902, 
  "rechtliche": 3903, 
  "University": 3904, 
  "klaren": 3905, 
  "befreien": 3906, 
  "preis@@": 3907, 
  "for@@": 3908, 
  "Umstände": 3909, 
  "zen@@": 3910, 
  "angemessen": 3911, 
  "betreiben": 3912, 
  "neun": 3913, 
  "Kontext": 3914, 
  "finanzieller": 3915, 
  "anfangen": 3916, 
  "Version": 3917, 
  "Konkurrenz": 3918, 
  "vers@@": 3919, 
  "erheblichen": 3920, 
  "Zeitungen": 3921, 
  "friedliche": 3922, 
  "ermutigen": 3923, 
  "erwies": 3924, 
  "König": 3925, 
  "aufgeben": 3926, 
  "Konjunktur": 3927, 
  "radikalen": 3928, 
  "Lektion": 3929, 
  "Or@@": 3930, 
  "Abzug": 3931, 
  "Wechselkurs@@": 3932, 
  "und@@": 3933, 
  "Flüchtlinge": 3934, 
  "Ar@@": 3935, 
  "Furcht": 3936, 
  "Lateinamerikas": 3937, 
  "Ereignis": 3938, 
  "wies": 3939, 
  "6@@": 3940, 
  "auszugleichen": 3941, 
  "verk@@": 3942, 
  "verboten": 3943, 
  "besorgt": 3944, 
  "bewegungen": 3945, 
  "et": 3946, 
  "Spitzen@@": 3947, 
  "Su@@": 3948, 
  "internen": 3949, 
  "bilateralen": 3950, 
  "meinte": 3951, 
  "nte": 3952, 
  "wirkt": 3953, 
  "Inseln": 3954, 
  "24": 3955, 
  "Teil@@": 3956, 
  "nachhaltigen": 3957, 
  "verteilt": 3958, 
  "rasche": 3959, 
  "Urteil": 3960, 
  "Körper": 3961, 
  "breite": 3962, 
  "Bevölkerungs@@": 3963, 
  "Kraft@@": 3964, 
  "Firma": 3965, 
  "Bankensystem": 3966, 
  "schulden": 3967, 
  "tiefen": 3968, 
  "eu@@": 3969, 
  "Wirtschaftsleistung": 3970, 
  "ansehen": 3971, 
  "Offenheit": 3972, 
  "genannt": 3973, 
  "Fahr@@": 3974, 
  "niedrigeren": 3975, 
  "schaden": 3976, 
  "einzig": 3977, 
  "Prä@@": 3978, 
  "zurückkehren": 3979, 
  "о@@": 3980, 
  "aufzugeben": 3981, 
  "jüdischen": 3982, 
  "Steuereinnahmen": 3983, 
  "makroökonomische": 3984, 
  "stoppen": 3985, 
  "Computer@@": 3986, 
  "1992": 3987, 
  "one": 3988, 
  "Tragödie": 3989, 
  "Fernsehen": 3990, 
  "Gegenzug": 3991, 
  "Besch@@": 3992, 
  "kontrolliert": 3993, 
  "vorbereitet": 3994, 
  "autoritären": 3995, 
  "Computer": 3996, 
  "Jordanien": 3997, 
  "cher": 3998, 
  "Zentral@@": 3999, 
  "Lande": 4000, 
  "sicheren": 4001, 
  "Worte": 4002, 
  "erzeugt": 4003, 
  "Elemente": 4004, 
  "hinzu": 4005, 
  "Nicolas": 4006, 
  "bekannten": 4007, 
  "wirtschaftliches": 4008, 
  "Ostens": 4009, 
  "beschleunigen": 4010, 
  "Fakten": 4011, 
  "moralisch": 4012, 
  "Vereinbarung": 4013, 
  "starkes": 4014, 
  "Hei@@": 4015, 
  "fi@@": 4016, 
  "ow": 4017, 
  "hört": 4018, 
  "entsteht": 4019, 
  "kern": 4020, 
  "konservative": 4021, 
  "ermöglichte": 4022, 
  "des@@": 4023, 
  "aufbauen": 4024, 
  "falschen": 4025, 
  "hundert": 4026, 
  "ment@@": 4027, 
  "Finanzkrisen": 4028, 
  "sse": 4029, 
  "global": 4030, 
  "multilateralen": 4031, 
  "trug": 4032, 
  "Con@@": 4033, 
  "Japaner": 4034, 
  "sorgt": 4035, 
  "ausüben": 4036, 
  "Tiere": 4037, 
  "ausgaben": 4038, 
  "folgende": 4039, 
  "ür@@": 4040, 
  "gewaltigen": 4041, 
  "Wirtschafts-": 4042, 
  "end@@": 4043, 
  "dient": 4044, 
  "bemühen": 4045, 
  "fehl@@": 4046, 
  "zt": 4047, 
  "berei@@": 4048, 
  "Ausgang": 4049, 
  "Vielzahl": 4050, 
  "einzugehen": 4051, 
  "bestätigen": 4052, 
  "Wer@@": 4053, 
  "Nicht@@": 4054, 
  "Dis@@": 4055, 
  "betroffenen": 4056, 
  "praktische": 4057, 
  "Summe": 4058, 
  "technische": 4059, 
  "definieren": 4060, 
  "reformen": 4061, 
  "nden": 4062, 
  "abzielen": 4063, 
  "Extremismus": 4064, 
  "vernünftige": 4065, 
  "Kolumbien": 4066, 
  "Argumentation": 4067, 
  "Übernahme": 4068, 
  "Finanzinstitute": 4069, 
  "Berater": 4070, 
  "lebt": 4071, 
  "fluss": 4072, 
  "bewirken": 4073, 
  "garantiert": 4074, 
  "Wel@@": 4075, 
  "töten": 4076, 
  "ant": 4077, 
  "zulassen": 4078, 
  "erhält": 4079, 
  "erlauben": 4080, 
  "Sohn": 4081, 
  "lige": 4082, 
  "Mar@@": 4083, 
  "н@@": 4084, 
  "Weltbevölkerung": 4085, 
  "Prozesses": 4086, 
  "Kandidat": 4087, 
  "Nahrungsmittel@@": 4088, 
  "Tibet": 4089, 
  "hunderte": 4090, 
  "verbesserte": 4091, 
  "griechische": 4092, 
  "Diplomaten": 4093, 
  "Streben": 4094, 
  "Last": 4095, 
  "getragen": 4096, 
  "doppelt": 4097, 
  "Medizin": 4098, 
  "Team": 4099, 
  "umzu@@": 4100, 
  "auszugeben": 4101, 
  "ark@@": 4102, 
  "Bosnien": 4103, 
  "lle": 4104, 
  "begründet": 4105, 
  "Regelungen": 4106, 
  "по@@": 4107, 
  "hinaus@@": 4108, 
  "erkennbar": 4109, 
  "tä@@": 4110, 
  "Kriterien": 4111, 
  "immerhin": 4112, 
  "mitteln": 4113, 
  "welt@@": 4114, 
  "Beamte": 4115, 
  "Direktinvestitionen": 4116, 
  "Häuser": 4117, 
  "Gold": 4118, 
  "preisen": 4119, 
  "anlagen": 4120, 
  "и": 4121, 
  "Thailand": 4122, 
  "quo": 4123, 
  "freier": 4124, 
  "Friedensprozess": 4125, 
  "durchsetzen": 4126, 
  "Prozesse": 4127, 
  "sichere": 4128, 
  "Misstrauen": 4129, 
  "Grundlagen": 4130, 
  "mangelnde": 4131, 
  "Anschein": 4132, 
  "men@@": 4133, 
  "bewaffneten": 4134, 
  "modell": 4135, 
  "unklar": 4136, 
  "Bürokratie": 4137, 
  "kleineren": 4138, 
  "Weigerung": 4139, 
  "Romney": 4140, 
  "Flexibilität": 4141, 
  "Rechnung": 4142, 
  "zeigten": 4143, 
  "Haiti": 4144, 
  "Krieg@@": 4145, 
  "ausgerichtet": 4146, 
  "steil": 4147, 
  "zivilen": 4148, 
  "zeiten": 4149, 
  "Missbrauch": 4150, 
  "ersch@@": 4151, 
  "keineswegs": 4152, 
  "fl@@": 4153, 
  "lebens@@": 4154, 
  "derartiges": 4155, 
  "ler@@": 4156, 
  "basis": 4157, 
  "arm": 4158, 
  "Verwaltungs@@": 4159, 
  "Jahres@@": 4160, 
  "F": 4161, 
  "Darlehen": 4162, 
  "veröffentlichten": 4163, 
  "entschied": 4164, 
  "Arbeitskräften": 4165, 
  "wo@@": 4166, 
  "Rand": 4167, 
  "Gewinn@@": 4168, 
  "dargestellt": 4169, 
  "automatisch": 4170, 
  "Not": 4171, 
  "Malaysia": 4172, 
  "äl@@": 4173, 
  "ziele": 4174, 
  "religiöser": 4175, 
  "в@@": 4176, 
  "interne": 4177, 
  "best@@": 4178, 
  "verschärfen": 4179, 
  "technologischen": 4180, 
  "Blase": 4181, 
  "erhöhte": 4182, 
  "internationales": 4183, 
  "banken": 4184, 
  "Gleichheit": 4185, 
  "Assad": 4186, 
  "gebieten": 4187, 
  "Griff": 4188, 
  "rich@@": 4189, 
  "Kinder@@": 4190, 
  "zufrieden": 4191, 
  "Vorherrschaft": 4192, 
  "kt": 4193, 
  "Absichten": 4194, 
  "medizinischen": 4195, 
  "Durchsetzung": 4196, 
  "Garantie": 4197, 
  "wie@@": 4198, 
  "voraus@@": 4199, 
  "Besetzung": 4200, 
  "chinesischer": 4201, 
  "R": 4202, 
  "au": 4203, 
  "po@@": 4204, 
  "san@@": 4205, 
  "Das": 4206, 
  "regionaler": 4207, 
  "Versicherungs@@": 4208, 
  "ägyptischen": 4209, 
  "einkommen": 4210, 
  "Provinz": 4211, 
  "Ku@@": 4212, 
  "Panik": 4213, 
  "Voll@@": 4214, 
  "bezeichnete": 4215, 
  "90er": 4216, 
  "Milosevic": 4217, 
  "hängen": 4218, 
  "mp@@": 4219, 
  "betragen": 4220, 
  "Mut": 4221, 
  "Beseitigung": 4222, 
  "gerechtfertigt": 4223, 
  "unterstützten": 4224, 
  "Klasse": 4225, 
  "Hindernisse": 4226, 
  "Wurzeln": 4227, 
  "auen": 4228, 
  "Nordkoreas": 4229, 
  "Optimismus": 4230, 
  "sucht": 4231, 
  "entlang": 4232, 
  "Gold@@": 4233, 
  "gs@@": 4234, 
  "verständlich": 4235, 
  "angefangen": 4236, 
  "Einzelnen": 4237, 
  "gh@@": 4238, 
  "einerseits": 4239, 
  "verst@@": 4240, 
  "deutliche": 4241, 
  "dieselben": 4242, 
  "stabil": 4243, 
  "anzuerkennen": 4244, 
  "niedrigere": 4245, 
  "Bürokraten": 4246, 
  "Aufsicht": 4247, 
  "Gesch@@": 4248, 
  "Hindernis": 4249, 
  "gründen": 4250, 
  "ai@@": 4251, 
  "unterschiedlich": 4252, 
  "Wider@@": 4253, 
  "Wieder@@": 4254, 
  "geringere": 4255, 
  "fassen": 4256, 
  "existieren": 4257, 
  "produziert": 4258, 
  "teste": 4259, 
  "einzuführen": 4260, 
  "Arbeitsplatz": 4261, 
  "übermäßige": 4262, 
  "märkten": 4263, 
  "Griechenlands": 4264, 
  "lungen": 4265, 
  "Lebensmittel@@": 4266, 
  "Traditionen": 4267, 
  "unmittelbare": 4268, 
  "örtlichen": 4269, 
  "vollständige": 4270, 
  "nisse": 4271, 
  "eng@@": 4272, 
  "Erdbeben": 4273, 
  "welches": 4274, 
  "facto": 4275, 
  "dige": 4276, 
  "gefasst": 4277, 
  "sto@@": 4278, 
  "strukturen": 4279, 
  "Kommunikation": 4280, 
  "aufrechterhalten": 4281, 
  "oberste": 4282, 
  "Hussein": 4283, 
  "45": 4284, 
  "Schweiz": 4285, 
  "wendet": 4286, 
  "Staat@@": 4287, 
  "übrig": 4288, 
  "spezielle": 4289, 
  "güter": 4290, 
  "vertrauen": 4291, 
  "finanziell": 4292, 
  "ani@@": 4293, 
  "gescheitert": 4294, 
  "vermitteln": 4295, 
  "arten": 4296, 
  "abgelehnt": 4297, 
  "ehemaliger": 4298, 
  "Ur@@": 4299, 
  "geschlagen": 4300, 
  "Zwischenzeit": 4301, 
  "islamistischen": 4302, 
  "gestattet": 4303, 
  "fahr@@": 4304, 
  "taten": 4305, 
  "festgelegt": 4306, 
  "Tests": 4307, 
  "Todesfälle": 4308, 
  "Jacques": 4309, 
  "mechanismen": 4310, 
  "Anliegen": 4311, 
  "erkennt": 4312, 
  "Po@@": 4313, 
  "reichsten": 4314, 
  "Agrar@@": 4315, 
  "Isolation": 4316, 
  "jährige": 4317, 
  "nen@@": 4318, 
  "stoff@@": 4319, 
  "150": 4320, 
  "ha@@": 4321, 
  "Referendum": 4322, 
  "sicherstellen": 4323, 
  "zumal": 4324, 
  "durchzuführen": 4325, 
  "Zielen": 4326, 
  "standards": 4327, 
  "Austausch": 4328, 
  "zentraler": 4329, 
  "geschützt": 4330, 
  "dlichen": 4331, 
  "Schäden": 4332, 
  "bildet": 4333, 
  "Insel": 4334, 
  "stehende": 4335, 
  "Demonstrationen": 4336, 
  "erheben": 4337, 
  "privater": 4338, 
  "verschwinden": 4339, 
  "Schutz@@": 4340, 
  "Vorschriften": 4341, 
  "Standpunkt": 4342, 
  "Mutter": 4343, 
  "DNA": 4344, 
  "2020": 4345, 
  "komplexe": 4346, 
  "Österreich": 4347, 
  "Gefühle": 4348, 
  "unterscheidet": 4349, 
  "Herbst": 4350, 
  "gsten": 4351, 
  "Finanzen": 4352, 
  "Geschichten": 4353, 
  "Wählern": 4354, 
  "Party": 4355, 
  "usw.": 4356, 
  "geschah": 4357, 
  "Kräften": 4358, 
  "kontrolle": 4359, 
  "arbeits@@": 4360, 
  "anbieten": 4361, 
  "hohes": 4362, 
  "zogen": 4363, 
  "Quellen": 4364, 
  "ergriffen": 4365, 
  "erhielten": 4366, 
  "essen": 4367, 
  "Nicht": 4368, 
  "durchschnittlichen": 4369, 
  "Sonnen@@": 4370, 
  "2013": 4371, 
  "Simbabwe": 4372, 
  "ah": 4373, 
  "ierte": 4374, 
  "Wachstum@@": 4375, 
  "Bühne": 4376, 
  "Entscheidungsfindung": 4377, 
  "Niederlanden": 4378, 
  "italienischen": 4379, 
  "Staatsausgaben": 4380, 
  "tendenziell": 4381, 
  "begleitet": 4382, 
  "Finanzministerium": 4383, 
  "zig": 4384, 
  "wirklichen": 4385, 
  "angeführt": 4386, 
  "0,@@": 4387, 
  "1,5": 4388, 
  "1967": 4389, 
  "ast@@": 4390, 
  "uren": 4391, 
  "ungsp@@": 4392, 
  "heißen": 4393, 
  "Popularität": 4394, 
  "me@@": 4395, 
  "geschäft": 4396, 
  "Tsunami": 4397, 
  "1,@@": 4398, 
  "Einrichtung": 4399, 
  "Finanz-": 4400, 
  "los@@": 4401, 
  "bil@@": 4402, 
  "zählt": 4403, 
  "bevorstehenden": 4404, 
  "Folter": 4405, 
  "Rumänien": 4406, 
  "regierung": 4407, 
  "Harvard": 4408, 
  "effektiver": 4409, 
  "ändert": 4410, 
  "Nachrichten@@": 4411, 
  "ie@@": 4412, 
  "besseres": 4413, 
  "stoffe": 4414, 
  "ischer": 4415, 
  "Verb@@": 4416, 
  "Jahrhunderte": 4417, 
  "Gemeinden": 4418, 
  "feststellen": 4419, 
  "abhängen": 4420, 
  "т@@": 4421, 
  "P": 4422, 
  "Siedlungen": 4423, 
  "Belastung": 4424, 
  "Integrität": 4425, 
  "relativen": 4426, 
  "bung": 4427, 
  "gebraucht": 4428, 
  "versuchten": 4429, 
  "steigender": 4430, 
  "bloße": 4431, 
  "haften": 4432, 
  "Vereinbarungen": 4433, 
  "rü@@": 4434, 
  "dig": 4435, 
  "Anforderungen": 4436, 
  "Erkenntnisse": 4437, 
  "voranzutreiben": 4438, 
  "verhandeln": 4439, 
  "Ökonom": 4440, 
  "kraft@@": 4441, 
  "Nacht": 4442, 
  "voneinander": 4443, 
  "Deregulierung": 4444, 
  "genießen": 4445, 
  "Brennstoffe": 4446, 
  "jenes": 4447, 
  "smus": 4448, 
  "begreifen": 4449, 
  "Rechts": 4450, 
  "Medikamenten": 4451, 
  "All@@": 4452, 
  "widmen": 4453, 
  "liegende": 4454, 
  "ausreichen": 4455, 
  "globales": 4456, 
  "Finanzpolitik": 4457, 
  "traf": 4458, 
  "Leiden": 4459, 
  "Luft@@": 4460, 
  "7@@": 4461, 
  "1945": 4462, 
  "Besatzung": 4463, 
  "wesentlichen": 4464, 
  "ausgeht": 4465, 
  "Verfolgung": 4466, 
  "behindert": 4467, 
  "Arbeitslosenquote": 4468, 
  "Wut": 4469, 
  "5@@": 4470, 
  "gra@@": 4471, 
  "derzeitige": 4472, 
  "Rohstoff@@": 4473, 
  "beurteilen": 4474, 
  "art": 4475, 
  "National": 4476, 
  "zahlungen": 4477, 
  "Einschätzung": 4478, 
  "Überlegungen": 4479, 
  "ft@@": 4480, 
  "glaubten": 4481, 
  "tiv": 4482, 
  "beteiligen": 4483, 
  "vorstellen": 4484, 
  "anischer": 4485, 
  "multilaterale": 4486, 
  "hierzu": 4487, 
  "Äußerungen": 4488, 
  "zurzeit": 4489, 
  "Burma": 4490, 
  "Hand@@": 4491, 
  "Greenspan": 4492, 
  "existiert": 4493, 
  "Qaida": 4494, 
  "Versuchung": 4495, 
  "behauptete": 4496, 
  "verfassungs@@": 4497, 
  "ck": 4498, 
  "ner@@": 4499, 
  "messen": 4500, 
  "ang": 4501, 
  "schwerer": 4502, 
  "mar@@": 4503, 
  "geringeren": 4504, 
  "drücken": 4505, 
  "versprechen": 4506, 
  "ernste": 4507, 
  "bekannte": 4508, 
  "Erhaltung": 4509, 
  "itäts@@": 4510, 
  "erstmals": 4511, 
  "Kranken@@": 4512, 
  "Würde": 4513, 
  "Prüfung": 4514, 
  "gefragt": 4515, 
  "brach": 4516, 
  "tri@@": 4517, 
  "käme": 4518, 
  "enti@@": 4519, 
  "fehlen": 4520, 
  "auftreten": 4521, 
  "form": 4522, 
  "aufgegeben": 4523, 
  "alternative": 4524, 
  "Praktiken": 4525, 
  "da@@": 4526, 
  "fonds": 4527, 
  "umsetzen": 4528, 
  "meint": 4529, 
  "beides": 4530, 
  "Katastrophen": 4531, 
  "Umverteilung": 4532, 
  "bekam": 4533, 
  "gefolgt": 4534, 
  "ats": 4535, 
  "Revolutionen": 4536, 
  "AKP": 4537, 
  "Intelligenz": 4538, 
  "Berlin": 4539, 
  "Eigen@@": 4540, 
  "gerettet": 4541, 
  "ys": 4542, 
  "geboren": 4543, 
  "Klein@@": 4544, 
  "eigen@@": 4545, 
  "Tendenz": 4546, 
  "ideologische": 4547, 
  "erfolgen": 4548, 
  "gesprochen": 4549, 
  "untergräbt": 4550, 
  "Bewertung": 4551, 
  "großem": 4552, 
  "Supermacht": 4553, 
  "lesen": 4554, 
  "strukturellen": 4555, 
  "veröffentlichte": 4556, 
  "v": 4557, 
  "breiten": 4558, 
  "Schw@@": 4559, 
  "tel@@": 4560, 
  "Politik@@": 4561, 
  "Reformer": 4562, 
  "Angela": 4563, 
  "dungs@@": 4564, 
  "bereiten": 4565, 
  "verbinden": 4566, 
  "Öl-": 4567, 
  "Rekord@@": 4568, 
  "Vorbild": 4569, 
  "Ergebnissen": 4570, 
  "U": 4571, 
  "versprach": 4572, 
  "Eigentum": 4573, 
  "sicher@@": 4574, 
  "Stand": 4575, 
  "leistungs@@": 4576, 
  "Stellen": 4577, 
  "x": 4578, 
  "formulierte": 4579, 
  "organisiert": 4580, 
  "früh": 4581, 
  "par@@": 4582, 
  "gehandelt": 4583, 
  "beendet": 4584, 
  "verabschiedet": 4585, 
  "vergleichbar": 4586, 
  "inmitten": 4587, 
  "bilaterale": 4588, 
  "programmen": 4589, 
  "1996": 4590, 
  "Sozialleistungen": 4591, 
  "Iraker": 4592, 
  "untersucht": 4593, 
  "Jean": 4594, 
  "oh@@": 4595, 
  "solch": 4596, 
  "ität": 4597, 
  "Deng": 4598, 
  "verzichten": 4599, 
  "Defizit@@": 4600, 
  "real": 4601, 
  "verzeichnen": 4602, 
  "dahin": 4603, 
  "wa@@": 4604, 
  "syrischen": 4605, 
  "Wirksamkeit": 4606, 
  "organisationen": 4607, 
  "Gutes": 4608, 
  "Jong": 4609, 
  "Reise": 4610, 
  "gewaltige": 4611, 
  "zukommen": 4612, 
  "heits@@": 4613, 
  "Wirtschaftswissenschaftler": 4614, 
  "gewährleistet": 4615, 
  "Princeton": 4616, 
  "Arafat": 4617, 
  "jenem": 4618, 
  "tausende": 4619, 
  "übernimmt": 4620, 
  "Fehlen": 4621, 
  "Bu@@": 4622, 
  "Finanzierungs@@": 4623, 
  "tigung": 4624, 
  "arbeiter": 4625, 
  "Kor@@": 4626, 
  "Durchbruch": 4627, 
  "extremen": 4628, 
  "gebunden": 4629, 
  "tlichen": 4630, 
  "behörden": 4631, 
  "schicken": 4632, 
  "Zwei@@": 4633, 
  "boom": 4634, 
  "Gewalt@@": 4635, 
  "ironischerweise": 4636, 
  "stu@@": 4637, 
  "entsprechen": 4638, 
  "mächte": 4639, 
  "Tausende": 4640, 
  "finanzierung": 4641, 
  "alisierten": 4642, 
  "projekte": 4643, 
  "Abschaffung": 4644, 
  "ings": 4645, 
  "а@@": 4646, 
  "belegen": 4647, 
  "enger": 4648, 
  "Test": 4649, 
  "Aussage": 4650, 
  "Reich": 4651, 
  "Schatten": 4652, 
  "Zer@@": 4653, 
  "lenken": 4654, 
  "Liga": 4655, 
  "gefährlichen": 4656, 
  "aden": 4657, 
  "übertrieben": 4658, 
  "grundlegend": 4659, 
  "entlassen": 4660, 
  "Leid": 4661, 
  "mächtige": 4662, 
  "bekommt": 4663, 
  "Zellen": 4664, 
  "Bolivien": 4665, 
  "unfähig": 4666, 
  "Anpassungen": 4667, 
  "form@@": 4668, 
  "Jugoslawien": 4669, 
  "gehabt": 4670, 
  "gewisser": 4671, 
  "offenkundig": 4672, 
  "Geldes": 4673, 
  "einiges": 4674, 
  "beg@@": 4675, 
  "Konservativen": 4676, 
  "kleinere": 4677, 
  "Abrüstung": 4678, 
  "fall@@": 4679, 
  "hel@@": 4680, 
  "sprachen": 4681, 
  "Obersten": 4682, 
  "verhaftet": 4683, 
  "Met@@": 4684, 
  "Durchschnitts@@": 4685, 
  "mischen": 4686, 
  "leihen": 4687, 
  "Gegenden": 4688, 
  "stri@@": 4689, 
  "Schweigen": 4690, 
  "effizienter": 4691, 
  "multi@@": 4692, 
  "Gesetzes@@": 4693, 
  "Arbeitgeber": 4694, 
  "Milizen": 4695, 
  "beschränkungen": 4696, 
  "Schröder": 4697, 
  "sische": 4698, 
  "glichen": 4699, 
  "Gesicht": 4700, 
  "defizit": 4701, 
  "Gel@@": 4702, 
  "verschiedener": 4703, 
  "keinem": 4704, 
  "Große": 4705, 
  "Sitz": 4706, 
  "Job": 4707, 
  "he": 4708, 
  "anzupassen": 4709, 
  "nissen": 4710, 
  "Haushaltspolitik": 4711, 
  "mechanismus": 4712, 
  "benutzt": 4713, 
  "stabilen": 4714, 
  "versprochen": 4715, 
  "enthält": 4716, 
  "quote": 4717, 
  "stolz": 4718, 
  "nationalistischen": 4719, 
  "Überprüfung": 4720, 
  "mes": 4721, 
  "Lager": 4722, 
  "Nachhaltigkeit": 4723, 
  "Kredi@@": 4724, 
  "Pflicht": 4725, 
  "gehende": 4726, 
  "Wert@@": 4727, 
  "bemerkenswert": 4728, 
  "Punkte": 4729, 
  "Steuererhöhungen": 4730, 
  "erhöhten": 4731, 
  "flü@@": 4732, 
  "Brasiliens": 4733, 
  "industriellen": 4734, 
  "voran@@": 4735, 
  "Verbraucher@@": 4736, 
  "entscheidungen": 4737, 
  "konkrete": 4738, 
  "verlust": 4739, 
  "Umstrukturierung": 4740, 
  "aufs": 4741, 
  "Frühling": 4742, 
  "gabe": 4743, 
  "abzielt": 4744, 
  "verpflichten": 4745, 
  "Gesetzes": 4746, 
  "unterschiedlicher": 4747, 
  "kollektive": 4748, 
  "rapide": 4749, 
  "age": 4750, 
  "Bekenntnis": 4751, 
  "Sarkozys": 4752, 
  "anstreben": 4753, 
  "Vermögens@@": 4754, 
  "klein": 4755, 
  "errichten": 4756, 
  "Entscheidungs@@": 4757, 
  "Anpassungs@@": 4758, 
  "Orten": 4759, 
  "tene": 4760, 
  "Bernanke": 4761, 
  "betrieben": 4762, 
  "derselben": 4763, 
  "Meinungsumfragen": 4764, 
  "verwandelt": 4765, 
  "ex@@": 4766, 
  "zutiefst": 4767, 
  "üblichen": 4768, 
  "Autonomie": 4769, 
  "erholt": 4770, 
  "Rohstoffpreise": 4771, 
  "kritisiert": 4772, 
  "Gelder": 4773, 
  "Ansehen": 4774, 
  "Expansion": 4775, 
  "Balkan": 4776, 
  "Lauf": 4777, 
  "wenigstens": 4778, 
  "Inflationsrate": 4779, 
  "regieren": 4780, 
  "argumentierte": 4781, 
  "weichen": 4782, 
  "Sub@@": 4783, 
  "mehr@@": 4784, 
  "geschichte": 4785, 
  "fung": 4786, 
  "geführten": 4787, 
  "ani": 4788, 
  "Jemen": 4789, 
  "gewalt": 4790, 
  "Mengen": 4791, 
  "Doktrin": 4792, 
  "Regulierungsbehörden": 4793, 
  "tive": 4794, 
  "übersehen": 4795, 
  "ativer": 4796, 
  "5,@@": 4797, 
  "wert@@": 4798, 
  "mark@@": 4799, 
  "gungs@@": 4800, 
  "Jerusalem": 4801, 
  "ose": 4802, 
  "Gaddafi": 4803, 
  "soweit": 4804, 
  "wahrgenommen": 4805, 
  "Welthandelsorganisation": 4806, 
  "sion@@": 4807, 
  "bestenfalls": 4808, 
  "überaus": 4809, 
  "rie@@": 4810, 
  "Abschreckung": 4811, 
  "1.": 4812, 
  "Brown": 4813, 
  "Ali": 4814, 
  "grenzen": 4815, 
  "spiel": 4816, 
  "ün@@": 4817, 
  "schuldig": 4818, 
  "unmittelbaren": 4819, 
  "faire": 4820, 
  "Gefolge": 4821, 
  "Behauptungen": 4822, 
  "9@@": 4823, 
  "betreffen": 4824, 
  "spielte": 4825, 
  "Technik": 4826, 
  "stabile": 4827, 
  "Terror@@": 4828, 
  "Annäherung": 4829, 
  "herum": 4830, 
  "Energi@@": 4831, 
  "tisches": 4832, 
  "Abschluss": 4833, 
  "schiitischen": 4834, 
  "zes": 4835, 
  "junger": 4836, 
  "Spiele": 4837, 
  "unk@@": 4838, 
  "drohen": 4839, 
  "ungs": 4840, 
  "Renditen": 4841, 
  "trag@@": 4842, 
  "Unternehmens": 4843, 
  "Straßen@@": 4844, 
  "galt": 4845, 
  "abhalten": 4846, 
  "lt": 4847, 
  "kräfte": 4848, 
  "Eis@@": 4849, 
  "Ansätze": 4850, 
  "tin@@": 4851, 
  "gebiet": 4852, 
  "erlassen": 4853, 
  "ost@@": 4854, 
  "rat@@": 4855, 
  "bezüglich": 4856, 
  "Hinter@@": 4857, 
  "ausmachen": 4858, 
  "Ober@@": 4859, 
  "Arabischen": 4860, 
  "sub@@": 4861, 
  "ken@@": 4862, 
  "we@@": 4863, 
  "Beurteilung": 4864, 
  "dliche": 4865, 
  "Ri@@": 4866, 
  "stell@@": 4867, 
  "fortsetzen": 4868, 
  "makroökonomischen": 4869, 
  "Königreich": 4870, 
  "technologische": 4871, 
  "Schwer@@": 4872, 
  "Verteidigungsminister": 4873, 
  "Betracht": 4874, 
  "zweiter": 4875, 
  "Buch@@": 4876, 
  "Prozentpunkte": 4877, 
  "ant@@": 4878, 
  "22": 4879, 
  "ine": 4880, 
  "richtet": 4881, 
  "Migration": 4882, 
  "Zwischen@@": 4883, 
  "Toleranz": 4884, 
  "griff": 4885, 
  "gens": 4886, 
  "Ausschuss": 4887, 
  "2050": 4888, 
  "verlor": 4889, 
  "app@@": 4890, 
  "vorsichtig": 4891, 
  "ure": 4892, 
  "ermutigt": 4893, 
  "vermieden": 4894, 
  "äußern": 4895, 
  "mäßig": 4896, 
  "aufkommen": 4897, 
  "betont": 4898, 
  "Preisstabilität": 4899, 
  "risiken": 4900, 
  "formuliert": 4901, 
  "gr@@": 4902, 
  "Berufs@@": 4903, 
  "ks": 4904, 
  "Veröffentlichung": 4905, 
  "eter": 4906, 
  "abgehalten": 4907, 
  "attraktiv": 4908, 
  "ante": 4909, 
  "lan": 4910, 
  "eingestellt": 4911, 
  "heim@@": 4912, 
  "Schuld@@": 4913, 
  "üblicherweise": 4914, 
  "Wahrnehmung": 4915, 
  "lebenden": 4916, 
  "terung": 4917, 
  "bek@@": 4918, 
  "Wiederwahl": 4919, 
  "produk@@": 4920, 
  "Philippinen": 4921, 
  "fertig": 4922, 
  "ließe": 4923, 
  "Sh@@": 4924, 
  "tau@@": 4925, 
  "Rücktritt": 4926, 
  "irgendeine": 4927, 
  "Umfragen": 4928, 
  "Heimat": 4929, 
  "Mittel-": 4930, 
  "gu@@": 4931, 
  "Abbau": 4932, 
  "verantwortungs@@": 4933, 
  "Ni@@": 4934, 
  "Bevölkerungen": 4935, 
  "grün@@": 4936, 
  "strei@@": 4937, 
  "no@@": 4938, 
  "irgendeiner": 4939, 
  "Vermächtnis": 4940, 
  "fungen": 4941, 
  "Inder": 4942, 
  "Aufstand": 4943, 
  "gang": 4944, 
  "zigen": 4945, 
  "schienen": 4946, 
  "decken": 4947, 
  "zunehmender": 4948, 
  "unvermeidlich": 4949, 
  "gesellschaften": 4950, 
  "Schlussfolgerung": 4951, 
  "sinkt": 4952, 
  "Fi@@": 4953, 
  "strukturelle": 4954, 
  "gewähren": 4955, 
  "Stammes@@": 4956, 
  "terer": 4957, 
  "fs": 4958, 
  "Kenntnis": 4959, 
  "abgeschlossen": 4960, 
  "garantieren": 4961, 
  "mitglieder": 4962, 
  "grund@@": 4963, 
  "Immobilienpreise": 4964, 
  "regierungen": 4965, 
  "Subprime": 4966, 
  "Leistungsbilanzdefizit": 4967, 
  "Zwecke": 4968, 
  "kar@@": 4969, 
  "Sen@@": 4970, 
  "seh@@": 4971, 
  "gkeiten": 4972, 
  "Komplexität": 4973, 
  "geschickt": 4974, 
  "Disziplin": 4975, 
  "fort": 4976, 
  "Sozialismus": 4977, 
  "Zahlungs@@": 4978, 
  "zusammenzu@@": 4979, 
  "Leuten": 4980, 
  "du": 4981, 
  "afghanischen": 4982, 
  "Ju@@": 4983, 
  "Operationen": 4984, 
  "Nahrungsmittel": 4985, 
  "zugute": 4986, 
  "hafte": 4987, 
  "fragte": 4988, 
  "wahrscheinlicher": 4989, 
  "Symbol": 4990, 
  "hierbei": 4991, 
  "null": 4992, 
  "Wirtschaft@@": 4993, 
  "Real@@": 4994, 
  "Diagnose": 4995, 
  "nationalistische": 4996, 
  "Finanzsektors": 4997, 
  "sätze": 4998, 
  "Ursprung": 4999, 
  "Menschen@@": 5000, 
  "halben": 5001, 
  "sionen": 5002, 
  "Krebs": 5003, 
  "ener@@": 5004, 
  "Kur@@": 5005, 
  "Belastungen": 5006, 
  "verbreiteten": 5007, 
  "nah@@": 5008, 
  "Zentralasien": 5009, 
  "ärer": 5010, 
  "Energiequellen": 5011, 
  "Vorgehen": 5012, 
  "Argentiniens": 5013, 
  "Gleich@@": 5014, 
  "zuge@@": 5015, 
  "Laden": 5016, 
  "Rebellen": 5017, 
  "mon@@": 5018, 
  "wesentliche": 5019, 
  "eingeschränkt": 5020, 
  "Ägyptens": 5021, 
  "Auffassung": 5022, 
  "Anklage": 5023, 
  "zweier": 5024, 
  "Pakt": 5025, 
  "berichten": 5026, 
  "Tra@@": 5027, 
  "sozialistischen": 5028, 
  "so@@": 5029, 
  "Jelzin": 5030, 
  "Kommunistischen": 5031, 
  "Trennung": 5032, 
  "gerne": 5033, 
  "verursachte": 5034, 
  "enter": 5035, 
  "1979": 5036, 
  "4,@@": 5037, 
  "Si@@": 5038, 
  "nachhaltig": 5039, 
  "einstellen": 5040, 
  "umwelt@@": 5041, 
  "schauen": 5042, 
  "zusammenarbeiten": 5043, 
  "Gerichte": 5044, 
  "Propaganda": 5045, 
  "untersuchen": 5046, 
  "International": 5047, 
  "freiheit": 5048, 
  "Devisenreserven": 5049, 
  "bank": 5050, 
  "bau": 5051, 
  "tlicher": 5052, 
  "schafts@@": 5053, 
  "ents": 5054, 
  "klar@@": 5055, 
  "stammen": 5056, 
  "Jahrestag": 5057, 
  "solide": 5058, 
  "erische": 5059, 
  "steuer@@": 5060, 
  "kümmern": 5061, 
  "äch@@": 5062, 
  "minister": 5063, 
  "alem": 5064, 
  "for": 5065, 
  "gerichtet": 5066, 
  "befürchten": 5067, 
  "schau@@": 5068, 
  "orientierte": 5069, 
  "j": 5070, 
  "Krankheits@@": 5071, 
  "Ersten": 5072, 
  "behindern": 5073, 
  "Branchen": 5074, 
  "Gesamtnachfrage": 5075, 
  "tigten": 5076, 
  "Italiens": 5077, 
  "greift": 5078, 
  "Eindämmung": 5079, 
  "Turbulenzen": 5080, 
  "Holocaust": 5081, 
  "Verfechter": 5082, 
  "Produkt": 5083, 
  "heiten": 5084, 
  "ständige": 5085, 
  "räumen": 5086, 
  "8@@": 5087, 
  "Fiskalpolitik": 5088, 
  "Zinssatz": 5089, 
  "son@@": 5090, 
  "17@@": 5091, 
  "glaubte": 5092, 
  "Mehrheits@@": 5093, 
  "Gott": 5094, 
  "Pfund": 5095, 
  "Produzenten": 5096, 
  "eingeleitet": 5097, 
  "Ta@@": 5098, 
  "geltend": 5099, 
  "1993": 5100, 
  "strebt": 5101, 
  "anteil": 5102, 
  "besetzten": 5103, 
  "billiger": 5104, 
  "tigem": 5105, 
  "dachten": 5106, 
  "Prei@@": 5107, 
  "tor@@": 5108, 
  "Opfern": 5109, 
  "dende": 5110, 
  "tausend": 5111, 
  "südlichen": 5112, 
  "Kriegs": 5113, 
  "womit": 5114, 
  "heben": 5115, 
  "Bemühen": 5116, 
  "Merkmale": 5117, 
  "Gleiche": 5118, 
  "spiegeln": 5119, 
  "gesetz": 5120, 
  "recht@@": 5121, 
  "kra@@": 5122, 
  "Vorfeld": 5123, 
  "wand@@": 5124, 
  "auswirken": 5125, 
  "ologen": 5126, 
  "Dienste": 5127, 
  "tro@@": 5128, 
  "KGB": 5129, 
  "B": 5130, 
  "enge": 5131, 
  "Kompromisse": 5132, 
  "Überschuss": 5133, 
  "Unrecht": 5134, 
  "Netzwerk": 5135, 
  "löste": 5136, 
  "Fisch@@": 5137, 
  "dauerhaft": 5138, 
  "erschwert": 5139, 
  "Mikro@@": 5140, 
  "Einmischung": 5141, 
  "stabilisieren": 5142, 
  "Haup@@": 5143, 
  "erleichtern": 5144, 
  "rau@@": 5145, 
  "Hass": 5146, 
  "trä@@": 5147, 
  "Aufsichts@@": 5148, 
  "höchstwahrscheinlich": 5149, 
  "Parlaments": 5150, 
  "2.": 5151, 
  "Regelung": 5152, 
  "eintritt": 5153, 
  "wissenschaftlicher": 5154, 
  "atomaren": 5155, 
  "enzen": 5156, 
  "Forum": 5157, 
  "Dienst": 5158, 
  "gter": 5159, 
  "unden": 5160, 
  "geleistet": 5161, 
  "Reduktion": 5162, 
  "mangelt": 5163, 
  "G8": 5164, 
  "Aktivität": 5165, 
  "Eigentumsrechte": 5166, 
  "Charles": 5167, 
  "Niederlande": 5168, 
  "Sozi@@": 5169, 
  "umfassen": 5170, 
  "sei@@": 5171, 
  "verspricht": 5172, 
  "sor@@": 5173, 
  "sichtbar": 5174, 
  "bereitet": 5175, 
  "ursprünglichen": 5176, 
  "fu@@": 5177, 
  "anz@@": 5178, 
  "sowjetische": 5179, 
  "Gesundheitsfürsorge": 5180, 
  "Glaube": 5181, 
  "Film": 5182, 
  "übernahm": 5183, 
  "enst@@": 5184, 
  "л@@": 5185, 
  "begrenzte": 5186, 
  "Hu@@": 5187, 
  "post@@": 5188, 
  "ausgesprochen": 5189, 
  "Hinweis": 5190, 
  "Zentralregierung": 5191, 
  "ziel@@": 5192, 
  "alistische": 5193, 
  "gelder": 5194, 
  "forderten": 5195, 
  "betonen": 5196, 
  "widerspiegelt": 5197, 
  "festgestellt": 5198, 
  "herauszu@@": 5199, 
  "Euro@@": 5200, 
  "Schuldenkrise": 5201, 
  "haf@@": 5202, 
  "Auseinandersetzung": 5203, 
  "Senat": 5204, 
  "Irans": 5205, 
  "Fest@@": 5206, 
  "Auseinandersetzungen": 5207, 
  "Berichterstattung": 5208, 
  "wusste": 5209, 
  "ka": 5210, 
  "the@@": 5211, 
  "befand": 5212, 
  "fäl@@": 5213, 
  "Individuen": 5214, 
  "billi@@": 5215, 
  "festzustellen": 5216, 
  "Gesundheitsversorgung": 5217, 
  "erhoben": 5218, 
  "jahr": 5219, 
  "Vorsitzenden": 5220, 
  "Kurden": 5221, 
  "Generäle": 5222, 
  "chter": 5223, 
  "Wiederbelebung": 5224, 
  "italienische": 5225, 
  "Menschenrechten": 5226, 
  "begrüßen": 5227, 
  "errichtet": 5228, 
  "begrenzten": 5229, 
  "verfügbar": 5230, 
  "les": 5231, 
  "wen@@": 5232, 
  "Vordergrund": 5233, 
  "Gates": 5234, 
  "Rezessionen": 5235, 
  "Intellektuelle": 5236, 
  "Entstehung": 5237, 
  "Ster@@": 5238, 
  "Schlag": 5239, 
  "grundsätzlich": 5240, 
  "kurze": 5241, 
  "gere": 5242, 
  "schlägen": 5243, 
  "schließt": 5244, 
  "gemeinsamer": 5245, 
  "Kampf@@": 5246, 
  "wunder@@": 5247, 
  "Augenblick": 5248, 
  "gesellschaft": 5249, 
  "Behörde": 5250, 
  "erfolgte": 5251, 
  "Börse": 5252, 
  "kun@@": 5253, 
  "landwirtschaftliche": 5254, 
  "Eigenschaften": 5255, 
  "vergleichen": 5256, 
  "Wettbewerbs@@": 5257, 
  "ord@@": 5258, 
  "nachzudenken": 5259, 
  "Gast@@": 5260, 
  "Myanmar": 5261, 
  "Image": 5262, 
  "teln": 5263, 
  "Kurs@@": 5264, 
  "vertrag": 5265, 
  "Hy@@": 5266, 
  "kommun@@": 5267, 
  "genetische": 5268, 
  "Hauptgrund": 5269, 
  "Verhältnisse": 5270, 
  "nten": 5271, 
  "grüne": 5272, 
  "ht": 5273, 
  "Befreiung": 5274, 
  "Rating": 5275, 
  "Bilder": 5276, 
  "Ermordung": 5277, 
  "reformieren": 5278, 
  "verstärkte": 5279, 
  "u.a.": 5280, 
  "effizient": 5281, 
  "Reichweite": 5282, 
  "gn@@": 5283, 
  "Kämpfe": 5284, 
  "betreffenden": 5285, 
  "Netanjahu": 5286, 
  "gelingen": 5287, 
  "Nato": 5288, 
  "moderner": 5289, 
  "punkte": 5290, 
  "Bilanz": 5291, 
  "begangen": 5292, 
  "gewann": 5293, 
  "friedlich": 5294, 
  "erkannte": 5295, 
  "erweist": 5296, 
  "Governance": 5297, 
  "ablehnen": 5298, 
  "obersten": 5299, 
  "gers": 5300, 
  "licht": 5301, 
  "Tatsachen": 5302, 
  "но@@": 5303, 
  "fiskalische": 5304, 
  "hinzu@@": 5305, 
  "ausgestattet": 5306, 
  "tik": 5307, 
  "й": 5308, 
  "leistungen": 5309, 
  "Völkermord": 5310, 
  "Afghanistans": 5311, 
  "ack@@": 5312, 
  "grundlegender": 5313, 
  "Situationen": 5314, 
  "terte": 5315, 
  "diert": 5316, 
  "w": 5317, 
  "schwäch@@": 5318, 
  "übermäßig": 5319, 
  "anti": 5320, 
  "ver": 5321, 
  "Weltkriegs": 5322, 
  "Zahlungen": 5323, 
  "dauerhafte": 5324, 
  "Wählerschaft": 5325, 
  "auszuüben": 5326, 
  "erholen": 5327, 
  "benutzen": 5328, 
  "Abstimmung": 5329, 
  "Errungenschaften": 5330, 
  "Umfrage": 5331, 
  "geplant": 5332, 
  "kontrollierten": 5333, 
  "Serben": 5334, 
  "versäumt": 5335, 
  "negativ": 5336, 
  "impliziert": 5337, 
  "6,@@": 5338, 
  "Zeitung": 5339, 
  "anzugehen": 5340, 
  "gedacht": 5341, 
  "Außen@@": 5342, 
  "Kernwaffen": 5343, 
  "nungen": 5344, 
  "gestatten": 5345, 
  "Sozialisten": 5346, 
  "Global": 5347, 
  "begriffen": 5348, 
  "raschen": 5349, 
  "Gerichts@@": 5350, 
  "umzugehen": 5351, 
  "geeignet": 5352, 
  "verschwunden": 5353, 
  "geistigen": 5354, 
  "zivile": 5355, 
  "gerufen": 5356, 
  "DPJ": 5357, 
  "kommission": 5358, 
  "kenn@@": 5359, 
  "Resultat": 5360, 
  "Budget": 5361, 
  "Massen": 5362, 
  "sm@@": 5363, 
  "erischen": 5364, 
  "weite": 5365, 
  "jegliche": 5366, 
  "dachte": 5367, 
  "breiter": 5368, 
  "Meinungen": 5369, 
  "dieren": 5370, 
  "Massaker": 5371, 
  "Kal@@": 5372, 
  "Ihnen": 5373, 
  "McCain": 5374, 
  "west@@": 5375, 
  "verbieten": 5376, 
  "bestrebt": 5377, 
  "Epidemie": 5378, 
  "fähig": 5379, 
  "lösung": 5380, 
  "leben@@": 5381, 
  "humanitäre": 5382, 
  "Kredit": 5383, 
  "einführen": 5384, 
  "beschäftigen": 5385, 
  "kel": 5386, 
  "russischer": 5387, 
  "gesetze": 5388, 
  "steten": 5389, 
  "Gefangenen": 5390, 
  "м": 5391, 
  "wichtiges": 5392, 
  "miss@@": 5393, 
  "tatsächlichen": 5394, 
  "massiv": 5395, 
  "aufhören": 5396, 
  "Abu": 5397, 
  "gesetzten": 5398, 
  "füllen": 5399, 
  "beschrieben": 5400, 
  "Wohn@@": 5401, 
  "Außenministerin": 5402, 
  "о": 5403, 
  "it": 5404, 
  "ст@@": 5405, 
  "Ã": 5406, 
  "Mitgliedsländern": 5407, 
  "leg@@": 5408, 
  "atoren": 5409, 
  "Stalin": 5410, 
  "Flug@@": 5411, 
  "Kapitalflüsse": 5412, 
  "stammt": 5413, 
  "beweisen": 5414, 
  "getrieben": 5415, 
  "Überraschung": 5416, 
  "Gesetzen": 5417, 
  "maß@@": 5418, 
  "Wissenschaftlern": 5419, 
  "Leiter": 5420, 
  "bisherigen": 5421, 
  "eigener": 5422, 
  "Verbündete": 5423, 
  "Verlierer": 5424, 
  "Leben@@": 5425, 
  "herbeiführen": 5426, 
  "ehen": 5427, 
  "beibehalten": 5428, 
  "Hin@@": 5429, 
  "Verantwortlichkeit": 5430, 
  "Instanz": 5431, 
  "Blut@@": 5432, 
  "geren": 5433, 
  "eingehen": 5434, 
  "quellen": 5435, 
  "experten": 5436, 
  "beherrscht": 5437, 
  "Landes@@": 5438, 
  "üt@@": 5439, 
  "Gehälter": 5440, 
  "morgen": 5441, 
  "Herstellung": 5442, 
  "spiel@@": 5443, 
  "auszuweiten": 5444, 
  "Ansprüche": 5445, 
  "einzelner": 5446, 
  "mäßigen": 5447, 
  "besuchen": 5448, 
  "republikanischen": 5449, 
  "handel": 5450, 
  "verhandlungen": 5451, 
  "Tschetschenien": 5452, 
  "position": 5453, 
  "folgten": 5454, 
  "damaligen": 5455, 
  "Kairo": 5456, 
  "To@@": 5457, 
  "Schach@@": 5458, 
  "Abgeordneten": 5459, 
  "echter": 5460, 
  "lokaler": 5461, 
  "Rechtfertigung": 5462, 
  "bedrohen": 5463, 
  "Michail": 5464, 
  "Ausbreitung": 5465, 
  "geschrieben": 5466, 
  "Kalifornien": 5467, 
  "Terroranschläge": 5468, 
  "fei@@": 5469, 
  "Gipfeltreffen": 5470, 
  "gro@@": 5471, 
  "Schock": 5472, 
  "externen": 5473, 
  "War@@": 5474, 
  "Lula": 5475, 
  "bl@@": 5476, 
  "Kontinents": 5477, 
  "verankert": 5478, 
  "führender": 5479, 
  "Raketen@@": 5480, 
  "Pat@@": 5481, 
  "Frauen@@": 5482, 
  "groß@@": 5483, 
  "größeres": 5484, 
  "gesetz@@": 5485, 
  "nachhaltiges": 5486, 
  "lichste": 5487, 
  "Kunst": 5488, 
  "Heimat@@": 5489, 
  "tern@@": 5490, 
  "Bio@@": 5491, 
  "ffen": 5492, 
  "gestaltet": 5493, 
  "в": 5494, 
  "Einwanderungs@@": 5495, 
  "militärisch": 5496, 
  "Mobilität": 5497, 
  "Konsumenten": 5498, 
  "bild": 5499, 
  "fol@@": 5500, 
  "Gegebenheiten": 5501, 
  "geäußert": 5502, 
  "schätzen": 5503, 
  "Kreditaufnahme": 5504, 
  "Spitzenpolitiker": 5505, 
  "400": 5506, 
  "Aufsichtsbehörden": 5507, 
  "Ben": 5508, 
  "realistische": 5509, 
  "Kontroll@@": 5510, 
  "Territorium": 5511, 
  "etten": 5512, 
  "br@@": 5513, 
  "Nationalisten": 5514, 
  "blase": 5515, 
  "situation": 5516, 
  "Gesetzgebung": 5517, 
  "angeboten": 5518, 
  "Verhaftung": 5519, 
  "Teilung": 5520, 
  "Störungen": 5521, 
  "Menschenleben": 5522, 
  "gesp@@": 5523, 
  "Gazprom": 5524, 
  "Universitäts@@": 5525, 
  "Bal@@": 5526, 
  "lungs@@": 5527, 
  "menschlicher": 5528, 
  "dramatische": 5529, 
  "satz": 5530, 
  "Zinssätzen": 5531, 
  "Warnung": 5532, 
  "Index": 5533, 
  "Tür": 5534, 
  "Sach@@": 5535, 
  "NGOs": 5536, 
  "No@@": 5537, 
  "wachsender": 5538, 
  "65": 5539, 
  "lik@@": 5540, 
  "M": 5541, 
  "werk": 5542, 
  "Billion": 5543, 
  "gestürzt": 5544, 
  "wasser@@": 5545, 
  "я": 5546, 
  "Werk": 5547, 
  "ren": 5548, 
  "WHO": 5549, 
  "nachdenken": 5550, 
  "Pi@@": 5551, 
  "Pre@@": 5552, 
  "Funktion": 5553, 
  "benden": 5554, 
  "polnischen": 5555, 
  "breit": 5556, 
  "к@@": 5557, 
  "gewöhnlichen": 5558, 
  "nungs@@": 5559, 
  "ihrerseits": 5560, 
  "jenseits": 5561, 
  "gegenseitigen": 5562, 
  "Vermögenswerten": 5563, 
  "ders": 5564, 
  "vertraut": 5565, 
  "aktiven": 5566, 
  "Nutz@@": 5567, 
  "unterliegen": 5568, 
  "Christen": 5569, 
  "Internet@@": 5570, 
  "bedingten": 5571, 
  "Eigenkapital": 5572, 
  "Agenturen": 5573, 
  "Weißen": 5574, 
  "su@@": 5575, 
  "Notenbanken": 5576, 
  "billigen": 5577, 
  "vorhandenen": 5578, 
  "Vorsitzende": 5579, 
  "gesunde": 5580, 
  "Kurzem": 5581, 
  "Euros": 5582, 
  "Auftrag": 5583, 
  "Belege": 5584, 
  "Auslands@@": 5585, 
  "fel@@": 5586, 
  "ort": 5587, 
  "jüngeren": 5588, 
  "я@@": 5589, 
  "Kämpfer": 5590, 
  "mann": 5591, 
  "festen": 5592, 
  "einzudämmen": 5593, 
  "Währungspolitik": 5594, 
  "I": 5595, 
  "Direktor": 5596, 
  "ziger": 5597, 
  "tatsächliche": 5598, 
  "setz@@": 5599, 
  "Verbindlichkeiten": 5600, 
  "uni@@": 5601, 
  "persönlich": 5602, 
  "Börsen@@": 5603, 
  "erschien": 5604, 
  "Forscher": 5605, 
  "Zivilisation": 5606, 
  "schrittweise": 5607, 
  "Gipfels": 5608, 
  "einnehmen": 5609, 
  "ösen": 5610, 
  "World": 5611, 
  "acht@@": 5612, 
  "Wir@@": 5613, 
  "kte": 5614, 
  "prozesses": 5615, 
  "kredite": 5616, 
  "Spaltung": 5617, 
  "investitionen": 5618, 
  "bedienen": 5619, 
  "aktuell": 5620, 
  "Richard": 5621, 
  "Standard": 5622, 
  "": 5623, 
  "Lehman": 5624, 
  "selben": 5625, 
  "Durchführung": 5626, 
  "Absch@@": 5627, 
  "Ronald": 5628, 
  "beträchtlichen": 5629, 
  "Koordination": 5630, 
  "unzureichend": 5631, 
  "durchgesetzt": 5632, 
  "landwirtschaftlichen": 5633, 
  "spek@@": 5634, 
  "So@@": 5635, 
  "ligen": 5636, 
  "widerspiegeln": 5637, 
  "Dritten": 5638, 
  "Theorien": 5639, 
  "exportieren": 5640, 
  "traten": 5641, 
  "Ha@@": 5642, 
  "Stadt@@": 5643, 
  "mittleren": 5644, 
  "verweisen": 5645, 
  "Einhaltung": 5646, 
  "beeinträchtigen": 5647, 
  "schul@@": 5648, 
  "Störung": 5649, 
  "vorstellbar": 5650, 
  "Sitze": 5651, 
  "Bagdad": 5652, 
  "riskieren": 5653, 
  "Dra@@": 5654, 
  "Versicherung": 5655, 
  "Lebensmittel": 5656, 
  "vergrößern": 5657, 
  "16@@": 5658, 
  "verfügbaren": 5659, 
  "schläge": 5660, 
  "arabisch": 5661, 
  "überdenken": 5662, 
  "Devisen@@": 5663, 
  "hinterlassen": 5664, 
  "Binnennachfrage": 5665, 
  "Annan": 5666, 
  "autoritäre": 5667, 
  "Haushalten": 5668, 
  "ou@@": 5669, 
  "Tokio": 5670, 
  "Dimension": 5671, 
  "zeugen": 5672, 
  "bedeutete": 5673, 
  "präsentiert": 5674, 
  "Phasen": 5675, 
  "2,5": 5676, 
  "tag": 5677, 
  "marktes": 5678, 
  "Summen": 5679, 
  "tö@@": 5680, 
  "verschlimmern": 5681, 
  "Ereignissen": 5682, 
  "Tier@@": 5683, 
  "partei@@": 5684, 
  "externe": 5685, 
  "mis@@": 5686, 
  "unterzeichnet": 5687, 
  "zugeben": 5688, 
  "boten": 5689, 
  "ep@@": 5690, 
  "gesunden": 5691, 
  "Hitler": 5692, 
  "namens": 5693, 
  "anpassen": 5694, 
  "Einigkeit": 5695, 
  "nor@@": 5696, 
  "bestraft": 5697, 
  "lig": 5698, 
  "andernorts": 5699, 
  "scheren": 5700, 
  "wirtschafts@@": 5701, 
  "entstand": 5702, 
  "ett": 5703, 
  "zwanzigsten": 5704, 
  "Gouverneur": 5705, 
  "Nationalen": 5706, 
  "gem@@": 5707, 
  "Zugriff": 5708, 
  "vorübergehend": 5709, 
  "Ausgaben@@": 5710, 
  "hergestellt": 5711, 
  "Übereinkommen": 5712, 
  "Ho@@": 5713, 
  "ec@@": 5714, 
  "genauer": 5715, 
  "herrschen": 5716, 
  "lichere": 5717, 
  "Erinnerungen": 5718, 
  "п@@": 5719, 
  "schwächer": 5720, 
  "Nahrung": 5721, 
  "zwölf": 5722, 
  "Ex": 5723, 
  "Kohle@@": 5724, 
  "erin": 5725, 
  "Bankrott": 5726, 
  "nachzu@@": 5727, 
  "jüngster": 5728, 
  "Madrid": 5729, 
  "zeichnet": 5730, 
  "Friedman": 5731, 
  "wär@@": 5732, 
  "Ki@@": 5733, 
  "Charta": 5734, 
  "Sahara": 5735, 
  "beruhte": 5736, 
  "Man@@": 5737, 
  "auseinander": 5738, 
  "legten": 5739, 
  "ativ": 5740, 
  "High": 5741, 
  "Drohungen": 5742, 
  "finanzierten": 5743, 
  "Beendigung": 5744, 
  "beträchtlich": 5745, 
  "rief": 5746, 
  "Empfehlungen": 5747, 
  "Neben@@": 5748, 
  "denkt": 5749, 
  "istisch": 5750, 
  "programms": 5751, 
  "fähigen": 5752, 
  "schla@@": 5753, 
  "Ö@@": 5754, 
  "besuchte": 5755, 
  "agi@@": 5756, 
  "Übereinstimmung": 5757, 
  "liger": 5758, 
  "asi@@": 5759, 
  "nachfrage": 5760, 
  "IPCC": 5761, 
  "abzuhalten": 5762, 
  "streng": 5763, 
  "deutlicher": 5764, 
  "pen@@": 5765, 
  "bel": 5766, 
  "Kolonial@@": 5767, 
  "westlicher": 5768, 
  "Wind@@": 5769, 
  "Wen": 5770, 
  "engen": 5771, 
  "gebrochen": 5772, 
  "verdoppelt": 5773, 
  "denden": 5774, 
  "ette": 5775, 
  "Frustration": 5776, 
  "Attraktivität": 5777, 
  "Gesprächen": 5778, 
  "Professor": 5779, 
  "Teilnehmer": 5780, 
  "gemeinsames": 5781, 
  "Illusion": 5782, 
  "keines": 5783, 
  "allgemeiner": 5784, 
  "Vorsicht": 5785, 
  "Förder@@": 5786, 
  "Merkmal": 5787, 
  "Botschafter": 5788, 
  "Schuldenlast": 5789, 
  "Wohnungs@@": 5790, 
  "staat": 5791, 
  "ж@@": 5792, 
  "rates": 5793, 
  "Beachtung": 5794, 
  "Energieversorgung": 5795, 
  "aller@@": 5796, 
  "Rivalen": 5797, 
  "direk@@": 5798, 
  "schuld": 5799, 
  "Regional@@": 5800, 
  "UdSSR": 5801, 
  "griffen": 5802, 
  "außergewöhnlich": 5803, 
  "Anschläge": 5804, 
  "beschleunigt": 5805, 
  "entkommen": 5806, 
  "führ@@": 5807, 
  "tsp@@": 5808, 
  "wechsel": 5809, 
  "befassen": 5810, 
  "verbreiten": 5811, 
  "Mitgliedstaaten": 5812, 
  "belaufen": 5813, 
  "Abdullah": 5814, 
  "Erreichung": 5815, 
  "Rande": 5816, 
  "denselben": 5817, 
  "23": 5818, 
  "ungewöhnlich": 5819, 
  "Analysten": 5820, 
  "tender": 5821, 
  "Bas@@": 5822, 
  "unde": 5823, 
  "wehr@@": 5824, 
  "sum@@": 5825, 
  "anzubieten": 5826, 
  "sprache": 5827, 
  "ре@@": 5828, 
  "spanischen": 5829, 
  "vorigen": 5830, 
  "wagen": 5831, 
  "Brothers": 5832, 
  "Kommentatoren": 5833, 
  "Rom": 5834, 
  "tor": 5835, 
  "nützlich": 5836, 
  "untereinander": 5837, 
  "Hilfsleistungen": 5838, 
  "tin": 5839, 
  "Syriens": 5840, 
  "Tisch": 5841, 
  "amp@@": 5842, 
  "ko": 5843, 
  "besonderen": 5844, 
  "mung": 5845, 
  "Kreditnehmer": 5846, 
  "Interpretation": 5847, 
  "lat@@": 5848, 
  "endete": 5849, 
  "ähnelt": 5850, 
  "Zivil@@": 5851, 
  "Konsolidierung": 5852, 
  "wehren": 5853, 
  "Versorgungs@@": 5854, 
  "schwer@@": 5855, 
  "hol@@": 5856, 
  "äußerte": 5857, 
  "Differenzen": 5858, 
  "runde": 5859, 
  "Sackgasse": 5860, 
  "stellungen": 5861, 
  "wussten": 5862, 
  "Küste": 5863, 
  "kop@@": 5864, 
  "üben": 5865, 
  "dramatischen": 5866, 
  "individuelle": 5867, 
  "ma": 5868, 
  "Handels-": 5869, 
  "enormer": 5870, 
  "dreißig": 5871, 
  "wahlen": 5872, 
  "dlich": 5873, 
  "erreichten": 5874, 
  "lock@@": 5875, 
  "tät": 5876, 
  "fern": 5877, 
  "Golf": 5878, 
  "zehn@@": 5879, 
  "kal@@": 5880, 
  "Unzufriedenheit": 5881, 
  "Muslimen": 5882, 
  "Sicherheitskräfte": 5883, 
  "Ob@@": 5884, 
  "EFSF": 5885, 
  "verschlimmert": 5886, 
  "Effektivität": 5887, 
  "abel": 5888, 
  "ade": 5889, 
  "Anstrengung": 5890, 
  "bedingte": 5891, 
  "Netzwerke": 5892, 
  "grenze": 5893, 
  "ets": 5894, 
  "birgt": 5895, 
  "1973": 5896, 
  "östlichen": 5897, 
  "ziert": 5898, 
  "19@@": 5899, 
  "Jungen": 5900, 
  "ни@@": 5901, 
  "teilung": 5902, 
  "Vertrags@@": 5903, 
  "bestanden": 5904, 
  "ausgehenden": 5905, 
  "Fundament": 5906, 
  "genetischen": 5907, 
  "welle": 5908, 
  "ss": 5909, 
  "willkommen": 5910, 
  "Skepsis": 5911, 
  "ech@@": 5912, 
  "Nobelpreisträger": 5913, 
  "Kan@@": 5914, 
  "ideologischen": 5915, 
  "berichtet": 5916, 
  "erfolgt": 5917, 
  "Übertragung": 5918, 
  "plan": 5919, 
  "relative": 5920, 
  "dien@@": 5921, 
  "Lebenserwartung": 5922, 
  "kostet": 5923, 
  "lö@@": 5924, 
  "19": 5925, 
  "Beiträge": 5926, 
  "erend": 5927, 
  "sozi@@": 5928, 
  "längst": 5929, 
  "Mehr@@": 5930, 
  "hervorgebracht": 5931, 
  "hinnehmen": 5932, 
  "Hinweise": 5933, 
  "Partnerschaften": 5934, 
  "etz@@": 5935, 
  "4.": 5936, 
  "T": 5937, 
  "angegriffen": 5938, 
  "Financial": 5939, 
  "Kenia": 5940, 
  "Schwellenmärkte": 5941, 
  "alleine": 5942, 
  "bereiche": 5943, 
  "Erkrankungen": 5944, 
  "digung": 5945, 
  "überwachen": 5946, 
  "Mahmud": 5947, 
  "Gu@@": 5948, 
  "half": 5949, 
  "har@@": 5950, 
  "entfallen": 5951, 
  "ret@@": 5952, 
  "Hal@@": 5953, 
  "schen@@": 5954, 
  "gebiete": 5955, 
  "з@@": 5956, 
  "mexikanischen": 5957, 
  "absch@@": 5958, 
  "üh@@": 5959, 
  "Tuberkulose": 5960, 
  "angekündigt": 5961, 
  "schreiten": 5962, 
  "sende": 5963, 
  "Regierungsvertreter": 5964, 
  "vorkommen": 5965, 
  "ausdrücklich": 5966, 
  "Natur@@": 5967, 
  "unterstreicht": 5968, 
  "Streit": 5969, 
  "Stand@@": 5970, 
  "Amts@@": 5971, 
  "Ausgleich": 5972, 
  "dis@@": 5973, 
  "stetig": 5974, 
  "einschränken": 5975, 
  "Vermeidung": 5976, 
  "spezi@@": 5977, 
  "Dienstleistungs@@": 5978, 
  "Wiedervereinigung": 5979, 
  "eb@@": 5980, 
  "Arbeitslosen@@": 5981, 
  "zahlt": 5982, 
  "bewaffnete": 5983, 
  "ph@@": 5984, 
  "bewiesen": 5985, 
  "Iraner": 5986, 
  "beraten": 5987, 
  "wünschenswert": 5988, 
  "Q@@": 5989, 
  "versicherung": 5990, 
  "ausgeweitet": 5991, 
  "Gestaltung": 5992, 
  "Köpfe": 5993, 
  "weigern": 5994, 
  "Times": 5995, 
  "hr": 5996, 
  "lauf@@": 5997, 
  "hand@@": 5998, 
  "sexuelle": 5999, 
  "wal@@": 6000, 
  "ägyptische": 6001, 
  "c": 6002, 
  "lern": 6003, 
  "Formulierung": 6004, 
  "Erneuerung": 6005, 
  "konventionellen": 6006, 
  "versteht": 6007, 
  "engagieren": 6008, 
  "unverzichtbar": 6009, 
  "bern": 6010, 
  "Spieler": 6011, 
  "bemühungen": 6012, 
  "hindern": 6013, 
  "fern@@": 6014, 
  "beeinträchtigt": 6015, 
  "Oligarchen": 6016, 
  "denk@@": 6017, 
  "Ausnahmen": 6018, 
  "Sal@@": 6019, 
  "mach@@": 6020, 
  "ator": 6021, 
  "Den@@": 6022, 
  "umfangreiche": 6023, 
  "entziehen": 6024, 
  "Partnern": 6025, 
  "Anbetracht": 6026, 
  "Do@@": 6027, 
  "ass@@": 6028, 
  "reise": 6029, 
  "organisierten": 6030, 
  "Gesellschafts@@": 6031, 
  "lin@@": 6032, 
  "vernünftigen": 6033, 
  "sich@@": 6034, 
  "Tro@@": 6035, 
  "Chicago": 6036, 
  "Vollbeschäftigung": 6037, 
  "du@@": 6038, 
  "est": 6039, 
  "Übergangs@@": 6040, 
  "außenpolitischen": 6041, 
  "schung": 6042, 
  "zw@@": 6043, 
  "zwingt": 6044, 
  "hinter@@": 6045, 
  "Belgien": 6046, 
  "Herz@@": 6047, 
  "durchführen": 6048, 
  "vollständigen": 6049, 
  "Philosophie": 6050, 
  "Handlungen": 6051, 
  "Operation": 6052, 
  "Zugeständnisse": 6053, 
  "trugen": 6054, 
  "Fuß@@": 6055, 
  "gut@@": 6056, 
  "tur@@": 6057, 
  "verletzt": 6058, 
  "übersch@@": 6059, 
  "geld": 6060, 
  "zugenommen": 6061, 
  "Köni@@": 6062, 
  "beherrschen": 6063, 
  "strategischer": 6064, 
  "Wendepunkt": 6065, 
  "ehr@@": 6066, 
  "Saudis": 6067, 
  "gener@@": 6068, 
  "mor@@": 6069, 
  "gehörten": 6070, 
  "tätigen": 6071, 
  "Weißrussland": 6072, 
  "letztes": 6073, 
  "llen": 6074, 
  "bu@@": 6075, 
  "sunnitischen": 6076, 
  "üm@@": 6077, 
  "strenge": 6078, 
  "bau@@": 6079, 
  "anhalten": 6080, 
  "besitz": 6081, 
  "benötigten": 6082, 
  "Aktion": 6083, 
  "säkularen": 6084, 
  "eh": 6085, 
  "annähernd": 6086, 
  "gewinn@@": 6087, 
  "ön@@": 6088, 
  "Feuer": 6089, 
  "halb": 6090, 
  "wirkungs@@": 6091, 
  "Rettungs@@": 6092, 
  "dig@@": 6093, 
  "Geheim@@": 6094, 
  "ast": 6095, 
  "Ei@@": 6096, 
  "beschreiben": 6097, 
  "Rates": 6098, 
  "gewöhnlich": 6099, 
  "fossilen": 6100, 
  "verlagert": 6101, 
  "Bücher": 6102, 
  "versetzen": 6103, 
  "größter": 6104, 
  "inen": 6105, 
  "analy@@": 6106, 
  "Im@@": 6107, 
  "Kapitalmärkte": 6108, 
  "schte": 6109, 
  "Gewinner": 6110, 
  "Vorsitzender": 6111, 
  "verbesserten": 6112, 
  "bewe@@": 6113, 
  "schutz": 6114, 
  "mithilfe": 6115, 
  "herstellen": 6116, 
  "christlichen": 6117, 
  "effektiven": 6118, 
  "Verhaltens@@": 6119, 
  "dauerhaften": 6120, 
  "Aussagen": 6121, 
  "Führern": 6122, 
  "rücken": 6123, 
  "Dissidenten": 6124, 
  "tig@@": 6125, 
  "qualifizierte": 6126, 
  "Staatsführung": 6127, 
  "sitz@@": 6128, 
  "ve": 6129, 
  "PLO": 6130, 
  "Industrien": 6131, 
  "Gehirn": 6132, 
  "Einkommen@@": 6133, 
  "vorherrschende": 6134, 
  "Aussöhnung": 6135, 
  "träge": 6136, 
  "bef@@": 6137, 
  "kritischen": 6138, 
  "Vereinigung": 6139, 
  "lehnen": 6140, 
  "mten": 6141, 
  "stands": 6142, 
  "jemanden": 6143, 
  "Verhinderung": 6144, 
  "kollektiven": 6145, 
  "willens": 6146, 
  "Absicherung": 6147, 
  "End@@": 6148, 
  "mancher": 6149, 
  "20@@": 6150, 
  "Akteur": 6151, 
  "bindung": 6152, 
  "bet@@": 6153, 
  "innere": 6154, 
  "innenpolitischen": 6155, 
  "Befugnisse": 6156, 
  "Gegenwart": 6157, 
  "Drei@@": 6158, 
  "Annahmen": 6159, 
  "blockieren": 6160, 
  "Aktienmarkt": 6161, 
  "Abkommens": 6162, 
  "süd@@": 6163, 
  "mungs@@": 6164, 
  "gewisses": 6165, 
  "Vertrauens": 6166, 
  "Stück": 6167, 
  "Häfen": 6168, 
  "Berkeley": 6169, 
  "etabliert": 6170, 
  "Google": 6171, 
  "Konzerne": 6172, 
  "Koordinierung": 6173, 
  "geteilt": 6174, 
  "kehren": 6175, 
  "Mindest@@": 6176, 
  "Ausländer": 6177, 
  "Todes@@": 6178, 
  "einheitlichen": 6179, 
  "gleicher": 6180, 
  "mobilisieren": 6181, 
  "Herkunft": 6182, 
  "Informationstechnologie": 6183, 
  "Es": 6184, 
  "Triumph": 6185, 
  "komplexer": 6186, 
  "linge": 6187, 
  "respektieren": 6188, 
  "wor@@": 6189, 
  "gemeinschaft": 6190, 
  "Wohlergehen": 6191, 
  "Pri@@": 6192, 
  "Anlage@@": 6193, 
  "Patent@@": 6194, 
  "Mexikos": 6195, 
  "Ruanda": 6196, 
  "hervorrufen": 6197, 
  "Sharon": 6198, 
  "Import@@": 6199, 
  "Ebenen": 6200, 
  "Zoll@@": 6201, 
  "stisch": 6202, 
  "feld": 6203, 
  "motiviert": 6204, 
  "empfinden": 6205, 
  "Wechselkurses": 6206, 
  "letz@@": 6207, 
  "bedeutender": 6208, 
  "schätzt": 6209, 
  "Zufall": 6210, 
  "Zusammenhalt": 6211, 
  "Element": 6212, 
  "aufgefordert": 6213, 
  "weiche": 6214, 
  "sorgfältig": 6215, 
  "Beteiligten": 6216, 
  "drängt": 6217, 
  "verabschieden": 6218, 
  "Produktivitätswachstum": 6219, 
  "mte": 6220, 
  "erfasst": 6221, 
  "cke": 6222, 
  "Kriegen": 6223, 
  "blei@@": 6224, 
  "gebaut": 6225, 
  "Hor@@": 6226, 
  "tzen": 6227, 
  "Taktik": 6228, 
  "muster": 6229, 
  "nutz@@": 6230, 
  "Zi@@": 6231, 
  "21": 6232, 
  "gener": 6233, 
  "pakistanische": 6234, 
  "Ein": 6235, 
  "sä@@": 6236, 
  "basiert": 6237, 
  "verurteilen": 6238, 
  "macht@@": 6239, 
  "prü@@": 6240, 
  "eg@@": 6241, 
  "LDP": 6242, 
  "fein@@": 6243, 
  "quoten": 6244, 
  "San": 6245, 
  "besagt": 6246, 
  "hochgradig": 6247, 
  "Angriffen": 6248, 
  "terroristische": 6249, 
  "konkurrieren": 6250, 
  "Plans": 6251, 
  "integrieren": 6252, 
  "neten": 6253, 
  "bedeutsam": 6254, 
  "wach@@": 6255, 
  "abhängt": 6256, 
  "dr@@": 6257, 
  "mess@@": 6258, 
  "Pf@@": 6259, 
  "erklärten": 6260, 
  "außen@@": 6261, 
  "Programmen": 6262, 
  "Ankurbelung": 6263, 
  "Kongo": 6264, 
  "laufenden": 6265, 
  "produktive": 6266, 
  "häufiger": 6267, 
  "gebildet": 6268, 
  "eingesch@@": 6269, 
  "Gore": 6270, 
  "Fuß": 6271, 
  "Transaktionen": 6272, 
  "Microsoft": 6273, 
  "kompliziert": 6274, 
  "zwang": 6275, 
  "gewährt": 6276, 
  "erwarteten": 6277, 
  "organisieren": 6278, 
  "verlangsamt": 6279, 
  "irgendetwas": 6280, 
  "teilnehmen": 6281, 
  "zustimmen": 6282, 
  "Planung": 6283, 
  "nächstes": 6284, 
  "Posten": 6285, 
  "stoffen": 6286, 
  "ade@@": 6287, 
  "Körper@@": 6288, 
  "eingetreten": 6289, 
  "mil@@": 6290, 
  "pe@@": 6291, 
  "indi@@": 6292, 
  "hau@@": 6293, 
  "Kosten@@": 6294, 
  "Physik": 6295, 
  "Wertpapier@@": 6296, 
  "ärmeren": 6297, 
  "bestände": 6298, 
  "löst": 6299, 
  "Ganzen": 6300, 
  "1950er": 6301, 
  "Nachbarschaft": 6302, 
  "gar@@": 6303, 
  "Pu@@": 6304, 
  "intellektuellen": 6305, 
  "schulen": 6306, 
  "gerechnet": 6307, 
  "Masse": 6308, 
  "Streitigkeiten": 6309, 
  "Garantien": 6310, 
  "einrichtungen": 6311, 
  "bemerkenswerte": 6312, 
  "Waffenstillstand": 6313, 
  "eingerichtet": 6314, 
  "verlangsamen": 6315, 
  "plant": 6316, 
  "dischen": 6317, 
  "schenken": 6318, 
  "region": 6319, 
  "Berliner": 6320, 
  "Im": 6321, 
  "offensichtliche": 6322, 
  "polnische": 6323, 
  "é": 6324, 
  "werken": 6325, 
  "Tran@@": 6326, 
  "speziellen": 6327, 
  "flo@@": 6328, 
  "gegen@@": 6329, 
  "Auswahl": 6330, 
  "Ad@@": 6331, 
  "syrische": 6332, 
  "ankurbeln": 6333, 
  "Struktur@@": 6334, 
  "Zusammenbruchs": 6335, 
  "fan@@": 6336, 
  "gliche": 6337, 
  "radikal": 6338, 
  "belastet": 6339, 
  "Freund": 6340, 
  "benötigte": 6341, 
  "ute": 6342, 
  "Co@@": 6343, 
  "Mess@@": 6344, 
  "Ersatz": 6345, 
  "esische": 6346, 
  "wolle": 6347, 
  "Truppen@@": 6348, 
  "links": 6349, 
  "ors": 6350, 
  "Führungskräfte": 6351, 
  "indirekt": 6352, 
  "finanzierte": 6353, 
  "Stunde": 6354, 
  "Versicherungen": 6355, 
  "Steuerung": 6356, 
  "Material": 6357, 
  "verfolgte": 6358, 
  "ach": 6359, 
  "Alan": 6360, 
  "Unternehmen@@": 6361, 
  "Funktionäre": 6362, 
  "Augenmerk": 6363, 
  "wiederholen": 6364, 
  "Ganze": 6365, 
  "management": 6366, 
  "spartei": 6367, 
  "Ne@@": 6368, 
  "Labour": 6369, 
  "Konvention": 6370, 
  "angehören": 6371, 
  "Neigung": 6372, 
  "strategisch": 6373, 
  "Gr@@": 6374, 
  "Provinzen": 6375, 
  "erwerben": 6376, 
  "fähi@@": 6377, 
  "Verfall": 6378, 
  "Vertretern": 6379, 
  "skeptisch": 6380, 
  "Beschäftigten": 6381, 
  "Indi@@": 6382, 
  "Fußball": 6383, 
  "Schwankungen": 6384, 
  "organisierte": 6385, 
  "kehrte": 6386, 
  "Besteuerung": 6387, 
  "schreibt": 6388, 
  "Begeisterung": 6389, 
  "reagierte": 6390, 
  "Intellektuellen": 6391, 
  "quelle": 6392, 
  "sogenannten": 6393, 
  "effiziente": 6394, 
  "Diktator": 6395, 
  "Effekte": 6396, 
  "korrupten": 6397, 
  "Einzelpersonen": 6398, 
  "Leitung": 6399, 
  "Pflanzen": 6400, 
  "sicht@@": 6401, 
  "Angaben": 6402, 
  "globalisierten": 6403, 
  "angewandt": 6404, 
  "II": 6405, 
  "Wille": 6406, 
  "Wohl@@": 6407, 
  "zin@@": 6408, 
  "stoff": 6409, 
  "ue": 6410, 
  "Vertrages": 6411, 
  "erfolgreicher": 6412, 
  "geschäfte": 6413, 
  "inner@@": 6414, 
  "verschieben": 6415, 
  "Haushaltskonsolidierung": 6416, 
  "ungsin@@": 6417, 
  "Hillary": 6418, 
  "populistischen": 6419, 
  "Mand@@": 6420, 
  "Menschenrechtsverletzungen": 6421, 
  "getreten": 6422, 
  "igen": 6423, 
  "einheitliche": 6424, 
  "teilte": 6425, 
  "revolutionären": 6426, 
  "kauft": 6427, 
  "Lehrer": 6428, 
  "gekennzeichnet": 6429, 
  "Serbiens": 6430, 
  "ess@@": 6431, 
  "James": 6432, 
  "angepasst": 6433, 
  "widerstehen": 6434, 
  "südlich": 6435, 
  "überlegen": 6436, 
  "tiv@@": 6437, 
  "Gruppierungen": 6438, 
  "Atomprogramm": 6439, 
  "ho@@": 6440, 
  "Armuts@@": 6441, 
  "Gemein@@": 6442, 
  "vorher@@": 6443, 
  "erstaunlich": 6444, 
  "tan@@": 6445, 
  "bricht": 6446, 
  "alt@@": 6447, 
  "Betrag": 6448, 
  "strah@@": 6449, 
  "DC": 6450, 
  "Überwachungs@@": 6451, 
  "Zypern": 6452, 
  "Ger@@": 6453, 
  "problemen": 6454, 
  "Olympischen": 6455, 
  "Ölpreis": 6456, 
  "währung": 6457, 
  "El": 6458, 
  "regime": 6459, 
  "verkörpert": 6460, 
  "Gremium": 6461, 
  "fried@@": 6462, 
  "drastische": 6463, 
  "verein@@": 6464, 
  "lli@@": 6465, 
  "damalige": 6466, 
  "Auslandsschulden": 6467, 
  "erweiterten": 6468, 
  "beziehen": 6469, 
  "hofft": 6470, 
  "Aufklärung": 6471, 
  "komplex": 6472, 
  "Hersteller": 6473, 
  "diges": 6474, 
  "Ausgab@@": 6475, 
  "Betrug": 6476, 
  "80er": 6477, 
  "sicherte": 6478, 
  "Premierministers": 6479, 
  "sach@@": 6480, 
  "nützen": 6481, 
  "Ironie": 6482, 
  "verknüpft": 6483, 
  "Kri@@": 6484, 
  "meines": 6485, 
  "brüche": 6486, 
  "demokrati@@": 6487, 
  "Finanzstabilität": 6488, 
  "Ghana": 6489, 
  "welt": 6490, 
  "wiesen": 6491, 
  "üch@@": 6492, 
  "insofern": 6493, 
  "Legitimation": 6494, 
  "bestimmungen": 6495, 
  "gelangt": 6496, 
  "standes": 6497, 
  "28": 6498, 
  "wechsel@@": 6499, 
  "momentanen": 6500, 
  "Schlagzeilen": 6501, 
  "mitten": 6502, 
  "überwacht": 6503, 
  "dlicher": 6504, 
  "Geberländer": 6505, 
  "beu@@": 6506, 
  "zäh@@": 6507, 
  "wohin": 6508, 
  "trag": 6509, 
  "integriert": 6510, 
  "verheerenden": 6511, 
  "Sowjet@@": 6512, 
  "Erdgas": 6513, 
  "Anschluss": 6514, 
  "Kriegsverbrechen": 6515, 
  "ständen": 6516, 
  "außer@@": 6517, 
  "Präsidentschaftswahl": 6518, 
  "р@@": 6519, 
  "überraschen": 6520, 
  "erneuerbare": 6521, 
  "Auflösung": 6522, 
  "postkommunistischen": 6523, 
  "lieben": 6524, 
  "Blasen": 6525, 
  "Verletzung": 6526, 
  "vermittelt": 6527, 
  "überein": 6528, 
  "Ersparnissen": 6529, 
  "kurzen": 6530, 
  "klassischen": 6531, 
  "100.000": 6532, 
  "revolution": 6533, 
  "gemäßigten": 6534, 
  "Meinungs@@": 6535, 
  "schere": 6536, 
  "gefällt": 6537, 
  "politischem": 6538, 
  "Maos": 6539, 
  "Bro@@": 6540, 
  "fehlende": 6541, 
  "bedürfen": 6542, 
  "reserven": 6543, 
  "äh@@": 6544, 
  "beschädigt": 6545, 
  "Populismus": 6546, 
  "strategien": 6547, 
  "Janukowitsch": 6548, 
  "kapit@@": 6549, 
  "Überschüsse": 6550, 
  "einsetzt": 6551, 
  "spanische": 6552, 
  "Gelegenheiten": 6553, 
  "Versammlung": 6554, 
  "Evolution": 6555, 
  "Friedensabkommen": 6556, 
  "herr@@": 6557, 
  "Zwangs@@": 6558, 
  "bereit@@": 6559, 
  "Georgiens": 6560, 
  "Umgebung": 6561, 
  "willen": 6562, 
  "blicken": 6563, 
  "Ungleichheiten": 6564, 
  "verleiht": 6565, 
  "korrupte": 6566, 
  "erstes": 6567, 
  "Verlagerung": 6568, 
  "Tages@@": 6569, 
  "Handelsdefizit": 6570, 
  "erschüttert": 6571, 
  "zentrum": 6572, 
  "aufstrebende": 6573, 
  "gerät": 6574, 
  "daten": 6575, 
  "buch": 6576, 
  "unlängst": 6577, 
  "Untätigkeit": 6578, 
  "ku@@": 6579, 
  "herum@@": 6580, 
  "Hunderte": 6581, 
  "Abwesenheit": 6582, 
  "la": 6583, 
  "Dutzend": 6584, 
  "bekämpft": 6585, 
  "Einbeziehung": 6586, 
  "Moslems": 6587, 
  "por@@": 6588, 
  "vernünftig": 6589, 
  "gespalten": 6590, 
  "ien": 6591, 
  "Bil@@": 6592, 
  "Europäern": 6593, 
  "Polizisten": 6594, 
  "Freihandelsabkommen": 6595, 
  "preis": 6596, 
  "ac@@": 6597, 
  "Zahlungsunfähigkeit": 6598, 
  "vereint": 6599, 
  "Ankündigung": 6600, 
  "klarer": 6601, 
  "entdeckt": 6602, 
  "Kategorie": 6603, 
  "langsamer": 6604, 
  "tot": 6605, 
  "toren": 6606, 
  "offensichtlichen": 6607, 
  "trafen": 6608, 
  "Abkehr": 6609, 
  "längere": 6610, 
  "glich": 6611, 
  "festzulegen": 6612, 
  "stat@@": 6613, 
  "ordnen": 6614, 
  "Flu@@": 6615, 
  "schei@@": 6616, 
  "ethischen": 6617, 
  "regel@@": 6618, 
  "sischen": 6619, 
  "Zone": 6620, 
  "lü@@": 6621, 
  "erschienen": 6622, 
  "plan@@": 6623, 
  "Maßstab": 6624, 
  "zurückzukehren": 6625, 
  "einhergehen": 6626, 
  "General@@": 6627, 
  "übt": 6628, 
  "offener": 6629, 
  "Renten": 6630, 
  "Weltordnung": 6631, 
  "Versprechungen": 6632, 
  "vorge@@": 6633, 
  "Papst": 6634, 
  "reine": 6635, 
  "Por@@": 6636, 
  "steilen": 6637, 
  "klingt": 6638, 
  "geopolitischen": 6639, 
  "eig@@": 6640, 
  "go@@": 6641, 
  "Waffe": 6642, 
  "stattgefunden": 6643, 
  "gehenden": 6644, 
  "eit": 6645, 
  "fair": 6646, 
  "Wirtschaftsentwicklung": 6647, 
  "treibt": 6648, 
  "qui@@": 6649, 
  "zunichte": 6650, 
  "reg@@": 6651, 
  "ckt": 6652, 
  "Bewohner": 6653, 
  "Diktatoren": 6654, 
  "physi@@": 6655, 
  "bestimmter": 6656, 
  "Einbruch": 6657, 
  "berühmten": 6658, 
  "eigentliche": 6659, 
  "konzipiert": 6660, 
  "grünen": 6661, 
  "gescheiterten": 6662, 
  "Rendite": 6663, 
  "Statistiken": 6664, 
  "illegale": 6665, 
  "Staatsfonds": 6666, 
  "islamistische": 6667, 
  "bewertet": 6668, 
  "stimmten": 6669, 
  "Verhaltens": 6670, 
  "Exporten": 6671, 
  "amen": 6672, 
  "transatlantischen": 6673, 
  "pri@@": 6674, 
  "O": 6675, 
  "älteren": 6676, 
  "14@@": 6677, 
  "X@@": 6678, 
  "son": 6679, 
  "gegenseitige": 6680, 
  "theorie": 6681, 
  "vieles": 6682, 
  "istischer": 6683, 
  "allesamt": 6684, 
  "moralischer": 6685, 
  "dsch@@": 6686, 
  "flüsse": 6687, 
  "Sport@@": 6688, 
  "ai": 6689, 
  "Kreis": 6690, 
  "Gorbatschow": 6691, 
  "ausgeglichen": 6692, 
  "Terroranschlägen": 6693, 
  "Chamenei": 6694, 
  "verteilung": 6695, 
  "Energiesicherheit": 6696, 
  "niemanden": 6697, 
  "Berücksichtigung": 6698, 
  "Botschaften": 6699, 
  "Rechenschaft": 6700, 
  "Aussch@@": 6701, 
  "Lo@@": 6702, 
  "angemessenen": 6703, 
  "Karriere": 6704, 
  "tak@@": 6705, 
  "energi@@": 6706, 
  "isoliert": 6707, 
  "Algerien": 6708, 
  "Geburt": 6709, 
  "bruch": 6710, 
  "Präsidentenwahlen": 6711, 
  "klingen": 6712, 
  "sam": 6713, 
  "verliehen": 6714, 
  "Gleichberechtigung": 6715, 
  "Reden": 6716, 
  "Teufelskreis": 6717, 
  "humanitären": 6718, 
  "vorschriften": 6719, 
  "teilt": 6720, 
  "Betonung": 6721, 
  "tigsten": 6722, 
  "vorgeschlagenen": 6723, 
  "Palästinenser@@": 6724, 
  "land@@": 6725, 
  "erforderliche": 6726, 
  "Husseins": 6727, 
  "Somalia": 6728, 
  "Rücken": 6729, 
  "unterdrücken": 6730, 
  "Gleichgültigkeit": 6731, 
  "Überzeugungen": 6732, 
  "äuß@@": 6733, 
  "Monopol": 6734, 
  "Zensur": 6735, 
  "Halbinsel": 6736, 
  "Maastricht": 6737, 
  "Saddams": 6738, 
  "würdigen": 6739, 
  "höheres": 6740, 
  "stan@@": 6741, 
  "exportiert": 6742, 
  "kriti@@": 6743, 
  "vereinen": 6744, 
  "Erwartung": 6745, 
  "sicht": 6746, 
  "aggressive": 6747, 
  "gei@@": 6748, 
  "Prognose": 6749, 
  "eindeutige": 6750, 
  "Norwegen": 6751, 
  "Arbeiten": 6752, 
  "Nar@@": 6753, 
  "eini@@": 6754, 
  "Uni@@": 6755, 
  "Dar@@": 6756, 
  "adi@@": 6757, 
  "änderte": 6758, 
  "alistischen": 6759, 
  "Todesstrafe": 6760, 
  "Am@@": 6761, 
  "Mythos": 6762, 
  "freundliche": 6763, 
  "Osama": 6764, 
  "Religionen": 6765, 
  "Pleite": 6766, 
  "Regen@@": 6767, 
  "Kürzungen": 6768, 
  "weitaus": 6769, 
  "meist": 6770, 
  "Feindseligkeit": 6771, 
  "Volatilität": 6772, 
  "öse": 6773, 
  "aufgeb@@": 6774, 
  "befürworten": 6775, 
  "Rahmenwerk": 6776, 
  "Produkten": 6777, 
  "endsten": 6778, 
  "Kultur@@": 6779, 
  "städtischen": 6780, 
  "Marokko": 6781, 
  "heit@@": 6782, 
  "Schwellenmärkten": 6783, 
  "Lektionen": 6784, 
  "arbeitete": 6785, 
  "schießen": 6786, 
  "kontraproduktiv": 6787, 
  "Milit@@": 6788, 
  "ton": 6789, 
  "gestützt": 6790, 
  "L": 6791, 
  "flu@@": 6792, 
  "Loyalität": 6793, 
  "Dominanz": 6794, 
  "Cent": 6795, 
  "unsicher": 6796, 
  "abgeben": 6797, 
  "verkehr": 6798, 
  "Personal": 6799, 
  "zugegeben": 6800, 
  "ökologischen": 6801, 
  "lingen": 6802, 
  "Fra@@": 6803, 
  "Zwang": 6804, 
  "Militärausgaben": 6805, 
  "Schach": 6806, 
  "FARC": 6807, 
  "ev@@": 6808, 
  "Rechenschaftspflicht": 6809, 
  "Null": 6810, 
  "Flucht": 6811, 
  "leu@@": 6812, 
  "Sech@@": 6813, 
  "fallenden": 6814, 
  "paradoxerweise": 6815, 
  "gänzlich": 6816, 
  "gewalt@@": 6817, 
  "aufeinander": 6818, 
  "Einheiten": 6819, 
  "stands@@": 6820, 
  "erlebte": 6821, 
  "lasten": 6822, 
  "Kohlendioxid": 6823, 
  "einzustellen": 6824, 
  "ethnischer": 6825, 
  "gefährlicher": 6826, 
  "Präventiv@@": 6827, 
  "Rohstoffe": 6828, 
  "fünfzig": 6829, 
  "Bel@@": 6830, 
  "City": 6831, 
  "wirk@@": 6832, 
  "teri@@": 6833, 
  "irgendwo": 6834, 
  "sions@@": 6835, 
  "schsten": 6836, 
  "verdoppeln": 6837, 
  "same": 6838, 
  "Verschlechterung": 6839, 
  "achen": 6840, 
  "schwankungen": 6841, 
  "übersteigen": 6842, 
  "Nordamerika": 6843, 
  "Verschiebung": 6844, 
  "gerichtete": 6845, 
  "alitäten": 6846, 
  "schaft@@": 6847, 
  "Vorsitz": 6848, 
  "bin@@": 6849, 
  "Erreichen": 6850, 
  "verlagern": 6851, 
  "Nixon": 6852, 
  "Emp@@": 6853, 
  "Thatcher": 6854, 
  "Signal": 6855, 
  "8,@@": 6856, 
  "Kreditkosten": 6857, 
  "angetrieben": 6858, 
  "xi@@": 6859, 
  "kten": 6860, 
  "praktischen": 6861, 
  "zustande": 6862, 
  "diger": 6863, 
  "lebten": 6864, 
  "Oberhand": 6865, 
  "Fortschritts": 6866, 
  "ferner": 6867, 
  "schief": 6868, 
  "Stütz@@": 6869, 
  "om": 6870, 
  "schrumpfen": 6871, 
  "sagten": 6872, 
  "wesens": 6873, 
  "fiskalischen": 6874, 
  "täglichen": 6875, 
  "fizi@@": 6876, 
  "star@@": 6877, 
  "verteilen": 6878, 
  "kritische": 6879, 
  "000": 6880, 
  "Sieger": 6881, 
  "Len@@": 6882, 
  "liefert": 6883, 
  "übrige": 6884, 
  "Ihre": 6885, 
  "herrschaft": 6886, 
  "ausgleichen": 6887, 
  "Bestimmung": 6888, 
  "fragt": 6889, 
  "Thaksin": 6890, 
  "Chen": 6891, 
  "beschreibt": 6892, 
  "schnell@@": 6893, 
  "überwunden": 6894, 
  "Prozentsatz": 6895, 
  "Lu@@": 6896, 
  "gesorgt": 6897, 
  "belegt": 6898, 
  "Büro": 6899, 
  "erleiden": 6900, 
  "Hongkongs": 6901, 
  "Akzeptanz": 6902, 
  "herrschende": 6903, 
  "Einsicht": 6904, 
  "Gaulle": 6905, 
  "Fluss": 6906, 
  "artige": 6907, 
  "terten": 6908, 
  "Sicherung": 6909, 
  "Regierung@@": 6910, 
  "einsch@@": 6911, 
  "staates": 6912, 
  "angestiegen": 6913, 
  "verbindet": 6914, 
  "kre@@": 6915, 
  "Akt": 6916, 
  "dik@@": 6917, 
  "ti": 6918, 
  "Vizepräsident": 6919, 
  "dro@@": 6920, 
  "Car@@": 6921, 
  "theoretisch": 6922, 
  "außenpolitische": 6923, 
  "hilfe": 6924, 
  "Mach@@": 6925, 
  "Europ@@": 6926, 
  "asen": 6927, 
  "meistens": 6928, 
  "ausreichende": 6929, 
  "Historiker": 6930, 
  "fizierung": 6931, 
  "oll@@": 6932, 
  "met@@": 6933, 
  "Verlangsamung": 6934, 
  "Sa@@": 6935, 
  "ände": 6936, 
  "Persönlichkeiten": 6937, 
  "Roten": 6938, 
  "künftige": 6939, 
  "reich@@": 6940, 
  "Kl@@": 6941, 
  "positionen": 6942, 
  "missionen": 6943, 
  "daraufhin": 6944, 
  "lands": 6945, 
  "Leistungs@@": 6946, 
  "hafter": 6947, 
  "Papiere": 6948, 
  "Center": 6949, 
  "Jahrhunderten": 6950, 
  "muß": 6951, 
  "einflussreiche": 6952, 
  "Käufer": 6953, 
  "Polens": 6954, 
  "Gar@@": 6955, 
  "Kapazität": 6956, 
  "destabili@@": 6957, 
  "Ti@@": 6958, 
  "Krankenhäuser": 6959, 
  "é@@": 6960, 
  "Medi@@": 6961, 
  "Afrikaner": 6962, 
  "sammeln": 6963, 
  "ausgeübt": 6964, 
  "fre@@": 6965, 
  "räu@@": 6966, 
  "starben": 6967, 
  "gewalttätigen": 6968, 
  "Kremls": 6969, 
  "ban@@": 6970, 
  "offizieller": 6971, 
  "Wohlstands": 6972, 
  "Nazis": 6973, 
  "teilten": 6974, 
  "außergewöhnliche": 6975, 
  "Exil": 6976, 
  "Mu@@": 6977, 
  "Justiz@@": 6978, 
  "Fol@@": 6979, 
  "vari@@": 6980, 
  "sexuellen": 6981, 
  "26": 6982, 
  "linken": 6983, 
  "veranlasst": 6984, 
  "Experiment": 6985, 
  "1.@@": 6986, 
  "innovative": 6987, 
  "Fokus": 6988, 
  "möglichst": 6989, 
  "anzen": 6990, 
  "eck@@": 6991, 
  "Pal@@": 6992, 
  "Ausgabe": 6993, 
  "Plan@@": 6994, 
  "Zukunfts@@": 6995, 
  "м@@": 6996, 
  "Analysen": 6997, 
  "deckt": 6998, 
  ",@@": 6999, 
  "geldpolitischen": 7000, 
  "verbundene": 7001, 
  "Errichtung": 7002, 
  "schancen": 7003, 
  "mern": 7004, 
  "sprach@@": 7005, 
  "kapital@@": 7006, 
  "plus": 7007, 
  "nern": 7008, 
  "Bundesregierung": 7009, 
  "drehen": 7010, 
  "gänge": 7011, 
  "tag@@": 7012, 
  "15@@": 7013, 
  "konferenz": 7014, 
  "berufen": 7015, 
  "ay@@": 7016, 
  "Freunden": 7017, 
  "agen": 7018, 
  "produkte": 7019, 
  "geführte": 7020, 
  "endet": 7021, 
  "Konz@@": 7022, 
  "alien": 7023, 
  "tives": 7024, 
  "Aufständischen": 7025, 
  "Einhalt": 7026, 
  "big": 7027, 
  "At@@": 7028, 
  "Anwälte": 7029, 
  "Szenarien": 7030, 
  "absolute": 7031, 
  "Atomwaffen@@": 7032, 
  "Mubaraks": 7033, 
  "Kaufkraft": 7034, 
  "hervorbringen": 7035, 
  "ukrainischen": 7036, 
  "Reservewährung": 7037, 
  "Sturm": 7038, 
  "außerordentlich": 7039, 
  "kam@@": 7040, 
  "Präsidentschaftskandidaten": 7041, 
  "1982": 7042, 
  "zufällig": 7043, 
  "fungs@@": 7044, 
  "vertritt": 7045, 
  "aktivitäten": 7046, 
  "wirkung": 7047, 
  "präsentieren": 7048, 
  "geringem": 7049, 
  "do": 7050, 
  "systematisch": 7051, 
  "Bruch": 7052, 
  "gangs": 7053, 
  "teurer": 7054, 
  "Ost": 7055, 
  "reak@@": 7056, 
  "�": 7057, 
  "ermordet": 7058, 
  "wirksamer": 7059, 
  "extremer": 7060, 
  "resultierende": 7061, 
  "tausenden": 7062, 
  "umgehend": 7063, 
  "Kontakt": 7064, 
  "lieferungen": 7065, 
  "beseitigt": 7066, 
  "Gandhi": 7067, 
  "Mängel": 7068, 
  "finanzi@@": 7069, 
  "vereinbar": 7070, 
  "technologie": 7071, 
  "Schüler": 7072, 
  "beschloss": 7073, 
  "einf@@": 7074, 
  "beleben": 7075, 
  "orten": 7076, 
  "Cameron": 7077, 
  "Weltwirtschaftskrise": 7078, 
  "perfekt": 7079, 
  "einheimischen": 7080, 
  "einziges": 7081, 
  "Il": 7082, 
  "fünf@@": 7083, 
  "hervorgerufen": 7084, 
  "Visionen": 7085, 
  "küh@@": 7086, 
  "kürzen": 7087, 
  "tier@@": 7088, 
  "fun@@": 7089, 
  "brutalen": 7090, 
  "Überlegenheit": 7091, 
  "Chefs": 7092, 
  "fällig": 7093, 
  "Kapitals": 7094, 
  "gewarnt": 7095, 
  "Begründung": 7096, 
  "Versäumnis": 7097, 
  "Kat@@": 7098, 
  "Fortsetzung": 7099, 
  "kultur": 7100, 
  "Auftrieb": 7101, 
  "Frühjahr": 7102, 
  "Ärmsten": 7103, 
  "regierenden": 7104, 
  "kämpft": 7105, 
  "Ä@@": 7106, 
  "passt": 7107, 
  "Akteuren": 7108, 
  "erb@@": 7109, 
  "W": 7110, 
  "att@@": 7111, 
  "Vertrags": 7112, 
  "kapital": 7113, 
  "bit@@": 7114, 
  "go": 7115, 
  "mus": 7116, 
  "planen": 7117, 
  "spor@@": 7118, 
  "Lücke": 7119, 
  "Nahost": 7120, 
  "ра@@": 7121, 
  "Gesetz@@": 7122, 
  "Zurückhaltung": 7123, 
  "Vorwürfe": 7124, 
  "förderung": 7125, 
  "Emotionen": 7126, 
  "tionäre": 7127, 
  "Umweltschutz": 7128, 
  "Ausmaßes": 7129, 
  "schwarzen": 7130, 
  "ück@@": 7131, 
  "Stolz": 7132, 
  "Kapitalzuflüsse": 7133, 
  "besetzt": 7134, 
  "vertiefen": 7135, 
  "Kaukasus": 7136, 
  "Acht": 7137, 
  "Auslandshilfe": 7138, 
  "berechtigt": 7139, 
  "herauszufinden": 7140, 
  "Bürgermeister": 7141, 
  "Ir@@": 7142, 
  "Bevölkerungswachstum": 7143, 
  "überprüfen": 7144, 
  "erleichtert": 7145, 
  "fließt": 7146, 
  "gol@@": 7147, 
  "bescheidene": 7148, 
  "ewig": 7149, 
  "Entwurf": 7150, 
  "ll@@": 7151, 
  "Handlungs@@": 7152, 
  "sts": 7153, 
  "Klim@@": 7154, 
  "Stress": 7155, 
  "derung": 7156, 
  "0@@": 7157, 
  "Auto": 7158, 
  "Schwierigkeit": 7159, 
  "herrschte": 7160, 
  "vorübergehende": 7161, 
  "nötige": 7162, 
  "parlamentarische": 7163, 
  "identifizieren": 7164, 
  "export@@": 7165, 
  "Com@@": 7166, 
  "überzeugend": 7167, 
  "Rech@@": 7168, 
  "ehrlich": 7169, 
  "resist@@": 7170, 
  "Multilateralismus": 7171, 
  "Kin@@": 7172, 
  "aufen": 7173, 
  "Menschlichkeit": 7174, 
  "verw@@": 7175, 
  "Virus": 7176, 
  "Kontakte": 7177, 
  "überlebt": 7178, 
  "Fabriken": 7179, 
  "Impulse": 7180, 
  "kommende": 7181, 
  "Du@@": 7182, 
  "zustand": 7183, 
  "här@@": 7184, 
  "Strafe": 7185, 
  "Einfluss@@": 7186, 
  "billig": 7187, 
  "Grundsätze": 7188, 
  "Unterstützer": 7189, 
  "rascher": 7190, 
  "alis@@": 7191, 
  "Ban": 7192, 
  "fuhr": 7193, 
  "asse": 7194, 
  "Früh@@": 7195, 
  "urs": 7196, 
  "üst@@": 7197, 
  "stärkste": 7198, 
  "Wal@@": 7199, 
  "Wähler@@": 7200, 
  "aufzuhalten": 7201, 
  "funktionierende": 7202, 
  "vorgesehen": 7203, 
  "äm@@": 7204, 
  "N": 7205, 
  "Schau@@": 7206, 
  "Abstand": 7207, 
  "arbeiteten": 7208, 
  "erkannten": 7209, 
  "Eigentümer": 7210, 
  "Äthiopien": 7211, 
  "bekämpfung": 7212, 
  "funktionierenden": 7213, 
  "merk@@": 7214, 
  "stütz@@": 7215, 
  "Stra@@": 7216, 
  "weigerte": 7217, 
  "EWU": 7218, 
  "schneiden": 7219, 
  "Wirtschaftsnationen": 7220, 
  "reichende": 7221, 
  "licheren": 7222, 
  "anz": 7223, 
  "niedrigem": 7224, 
  "legitime": 7225, 
  "Zentralbank@@": 7226, 
  "zige": 7227, 
  "Rau@@": 7228, 
  "kennt": 7229, 
  "bens": 7230, 
  "ße": 7231, 
  "1981": 7232, 
  "Hedgefonds": 7233, 
  "zentren": 7234, 
  "versagt": 7235, 
  "zerstör@@": 7236, 
  "kosten@@": 7237, 
  "Pap@@": 7238, 
  "Programms": 7239, 
  "The@@": 7240, 
  "strengere": 7241, 
  "Symptome": 7242, 
  "schä@@": 7243, 
  "grenz@@": 7244, 
  "anzustreben": 7245, 
  "vorn": 7246, 
  "Ernährung": 7247, 
  "Establishment": 7248, 
  "kämpften": 7249, 
  "teuren": 7250, 
  "armer": 7251, 
  "wohnen": 7252, 
  "Einlagen": 7253, 
  "eil@@": 7254, 
  "Immigranten": 7255, 
  "Desaster": 7256, 
  "err@@": 7257, 
  "Ansatzes": 7258, 
  "unabhängiger": 7259, 
  "aufgehoben": 7260, 
  "Probe": 7261, 
  "Bri@@": 7262, 
  "krisen": 7263, 
  "Persönlichkeit": 7264, 
  "Handelspartner": 7265, 
  "warf": 7266, 
  "neo@@": 7267, 
  "Fundamentalismus": 7268, 
  "Außen-": 7269, 
  "gesetzlichen": 7270, 
  "warnte": 7271, 
  "jahrelang": 7272, 
  "Zei@@": 7273, 
  "prof@@": 7274, 
  "strit@@": 7275, 
  "Bestand": 7276, 
  "Kreativität": 7277, 
  "erweitern": 7278, 
  "exporte": 7279, 
  "wur@@": 7280, 
  "inländischen": 7281, 
  "Ressentiments": 7282, 
  "zukünftiger": 7283, 
  "verwickelt": 7284, 
  "basierte": 7285, 
  "Gordon": 7286, 
  "Wälder": 7287, 
  "dert": 7288, 
  "Realitäten": 7289, 
  "Experten@@": 7290, 
  "eröffnet": 7291, 
  "zeu@@": 7292, 
  "wissenschaft": 7293, 
  "Publikum": 7294, 
  "glob@@": 7295, 
  "Fremd@@": 7296, 
  "Verzweiflung": 7297, 
  "infrage": 7298, 
  "kin@@": 7299, 
  "lohnt": 7300, 
  "spenden": 7301, 
  "Verfügbarkeit": 7302, 
  "ät@@": 7303, 
  "rö@@": 7304, 
  "unterdrückt": 7305, 
  "hab@@": 7306, 
  "Nationalstaaten": 7307, 
  "ron@@": 7308, 
  "aut": 7309, 
  "Erwägung": 7310, 
  "ment": 7311, 
  "Wettbewerbs": 7312, 
  "außergewöhnlichen": 7313, 
  "facht": 7314, 
  "Fox": 7315, 
  "abzuwenden": 7316, 
  "Woods": 7317, 
  "bevorzugen": 7318, 
  "Geschäftsleute": 7319, 
  "Aktienkurse": 7320, 
  "win@@": 7321, 
  "stärkt": 7322, 
  "genießt": 7323, 
  "Des@@": 7324, 
  "verschlechtert": 7325, 
  "öffentliches": 7326, 
  "Fukushima": 7327, 
  "akzeptabel": 7328, 
  "wofür": 7329, 
  "stete": 7330, 
  "Anziehungskraft": 7331, 
  "gtes": 7332, 
  "ausschließen": 7333, 
  "wel@@": 7334, 
  "Brennstoffen": 7335, 
  "Schwarz@@": 7336, 
  "überzeu@@": 7337, 
  "Unsicherheiten": 7338, 
  "landes": 7339, 
  "Ungleichgewicht": 7340, 
  "Finanzmittel": 7341, 
  "Liberalen": 7342, 
  "verkündete": 7343, 
  "Ehre": 7344, 
  "stitu@@": 7345, 
  "tis": 7346, 
  "Shanghai": 7347, 
  "Trichet": 7348, 
  "hundert@@": 7349, 
  "kräften": 7350, 
  "imstande": 7351, 
  "Islamischen": 7352, 
  "enheit": 7353, 
  "erwar@@": 7354, 
  "rückgängig": 7355, 
  "sektoren": 7356, 
  "Signale": 7357, 
  "schrift": 7358, 
  "Nahrungs@@": 7359, 
  "во@@": 7360, 
  "dische": 7361, 
  "langfristiger": 7362, 
  "vorausgesetzt": 7363, 
  "veran@@": 7364, 
  "hier@@": 7365, 
  "schwächt": 7366, 
  "Staatsbürgerschaft": 7367, 
  "Vorwurf": 7368, 
  "populistische": 7369, 
  "amerikanisch": 7370, 
  "на@@": 7371, 
  "Royal": 7372, 
  "Kongresses": 7373, 
  "Hugo": 7374, 
  "arbei@@": 7375, 
  "Sport": 7376, 
  "zunimmt": 7377, 
  "spielten": 7378, 
  "verfolgten": 7379, 
  "handel@@": 7380, 
  "handels@@": 7381, 
  "Protest": 7382, 
  "liber@@": 7383, 
  "Recht@@": 7384, 
  "chtet": 7385, 
  "Kampfes": 7386, 
  "brech@@": 7387, 
  "leistung": 7388, 
  "18.": 7389, 
  "Schweizer": 7390, 
  "blockiert": 7391, 
  "Profite": 7392, 
  "Wirtschaftsreformen": 7393, 
  "sichts@@": 7394, 
  "dring@@": 7395, 
  "örtliche": 7396, 
  "Entdeckung": 7397, 
  "ähnliches": 7398, 
  "Donald": 7399, 
  "Nor@@": 7400, 
  "wir@@": 7401, 
  "verbringen": 7402, 
  "ankommt": 7403, 
  "Vorteilen": 7404, 
  "Mugabe": 7405, 
  "verträge": 7406, 
  "Kontrollen": 7407, 
  "baut": 7408, 
  "Ernennung": 7409, 
  "Wahlsieg": 7410, 
  "Diktaturen": 7411, 
  "Häufigkeit": 7412, 
  "Motive": 7413, 
  "Papier": 7414, 
  "Berichten": 7415, 
  "Eine": 7416, 
  "Sti@@": 7417, 
  "Protesten": 7418, 
  "Mohammed": 7419, 
  "mächtig": 7420, 
  "drückt": 7421, 
  "Vor": 7422, 
  "IMF": 7423, 
  "Uneinigkeit": 7424, 
  "sicherten": 7425, 
  "Elend": 7426, 
  "wahl@@": 7427, 
  "glaubwürdige": 7428, 
  "Liu": 7429, 
  "menden": 7430, 
  "geplanten": 7431, 
  "ahmen": 7432, 
  "ruft": 7433, 
  "geldpolitische": 7434, 
  "kultureller": 7435, 
  "kräf@@": 7436, 
  "bereichen": 7437, 
  "Sie@@": 7438, 
  "mitzu@@": 7439, 
  "geld@@": 7440, 
  "quantitative": 7441, 
  "Roosevelt": 7442, 
  "zone": 7443, 
  "nunmehr": 7444, 
  "status": 7445, 
  "Beitritts@@": 7446, 
  "Los": 7447, 
  "Min@@": 7448, 
  "Maynard": 7449, 
  "verwurzelt": 7450, 
  "Weiter@@": 7451, 
  "assen": 7452, 
  "beobachtet": 7453, 
  "obgleich": 7454, 
  "steigerung": 7455, 
  "akademischen": 7456, 
  "fü@@": 7457, 
  "belieb@@": 7458, 
  "Lähmung": 7459, 
  "orischen": 7460, 
  "Komponente": 7461, 
  "Oberfläche": 7462, 
  "vorgeworfen": 7463, 
  "bremsen": 7464, 
  "zielen": 7465, 
  "erisch": 7466, 
  "Tötung": 7467, 
  "Generalversammlung": 7468, 
  "repräsentiert": 7469, 
  "Booms": 7470, 
  "behandlung": 7471, 
  "Bur@@": 7472, 
  "Wohnungen": 7473, 
  "günsti@@": 7474, 
  "mehrerer": 7475, 
  "terroristischen": 7476, 
  "Prot@@": 7477, 
  "ff": 7478, 
  "Ausrichtung": 7479, 
  "expor@@": 7480, 
  "schuf": 7481, 
  "Warnungen": 7482, 
  "2030": 7483, 
  "Far@@": 7484, 
  "beruhigen": 7485, 
  "Schwächung": 7486, 
  "Explosion": 7487, 
  "entstehenden": 7488, 
  "Löhnen": 7489, 
  "jüdische": 7490, 
  "ßt": 7491, 
  "Konvergenz": 7492, 
  "raum": 7493, 
  "besitzer": 7494, 
  "Ungerechtigkeit": 7495, 
  "Ungewissheit": 7496, 
  "lichung": 7497, 
  "langfristiges": 7498, 
  "getrennt": 7499, 
  "Budgets": 7500, 
  "versorgen": 7501, 
  "zer": 7502, 
  "Ausweg": 7503, 
  "Kasachstan": 7504, 
  "Finanzunternehmen": 7505, 
  "El@@": 7506, 
  "fangen": 7507, 
  "deter": 7508, 
  "mal@@": 7509, 
  "nord@@": 7510, 
  "Firmen@@": 7511, 
  "sorgte": 7512, 
  "Ukrainer": 7513, 
  "mäch@@": 7514, 
  "aufgestellt": 7515, 
  "ste@@": 7516, 
  "überschüsse": 7517, 
  "alternativen": 7518, 
  "Ägypter": 7519, 
  "Ressourcen@@": 7520, 
  "lig@@": 7521, 
  "Solar@@": 7522, 
  "aufweist": 7523, 
  "kul@@": 7524, 
  "teils": 7525, 
  "Höchst@@": 7526, 
  "mei@@": 7527, 
  "industrielle": 7528, 
  "zung": 7529, 
  "geopolitische": 7530, 
  "Interessen@@": 7531, 
  "ко@@": 7532, 
  "Beschränkung": 7533, 
  "Tonnen": 7534, 
  "Wissens@@": 7535, 
  "Offizi@@": 7536, 
  "Organismen": 7537, 
  "Migranten": 7538, 
  "trieb": 7539, 
  "anerkennt": 7540, 
  "kritisieren": 7541, 
  "Betrieb": 7542, 
  "wachen": 7543, 
  "85": 7544, 
  "Kam@@": 7545, 
  "rang": 7546, 
  "mier@@": 7547, 
  "suchte": 7548, 
  "geöffnet": 7549, 
  "endem": 7550, 
  "erwähnt": 7551, 
  "hochrangige": 7552, 
  "Jintao": 7553, 
  "vermehrt": 7554, 
  "ökonomischer": 7555, 
  "Präsidentenamt": 7556, 
  "wechseln": 7557, 
  "Konsequenz": 7558, 
  "beziehungen": 7559, 
  "Erfolgs@@": 7560, 
  "dreht": 7561, 
  "leger": 7562, 
  "dauerte": 7563, 
  "Systemen": 7564, 
  "berech@@": 7565, 
  "Deal": 7566, 
  "gearbeitet": 7567, 
  "vierten": 7568, 
  "folglich": 7569, 
  "ki@@": 7570, 
  "geschätzt": 7571, 
  "israelischer": 7572, 
  "altet": 7573, 
  "ober@@": 7574, 
  "ierung": 7575, 
  "wettbewerbsfähig": 7576, 
  "Zusammensetzung": 7577, 
  "fra@@": 7578, 
  "Bestrafung": 7579, 
  "dere": 7580, 
  "schn@@": 7581, 
  "Demokratischen": 7582, 
  "Sozialversicherungs@@": 7583, 
  "Einflusses": 7584, 
  "manipulieren": 7585, 
  "zeichnen": 7586, 
  "Branche": 7587, 
  "verhält": 7588, 
  "Neues": 7589, 
  "genheit": 7590, 
  "erschweren": 7591, 
  "Ausbildungs@@": 7592, 
  "verletz@@": 7593, 
  "beizutragen": 7594, 
  "zurückgegangen": 7595, 
  "beiträgt": 7596, 
  "bereitschaft": 7597, 
  "Früchte": 7598, 
  "aussichten": 7599, 
  "Mark": 7600, 
  "resultierenden": 7601, 
  "wohlhabenden": 7602, 
  "Drohung": 7603, 
  "loses": 7604, 
  "verlängern": 7605, 
  "ath@@": 7606, 
  "Steuerpolitik": 7607, 
  "Wahlkampf@@": 7608, 
  "ia": 7609, 
  "Gol@@": 7610, 
  "hu@@": 7611, 
  "ut": 7612, 
  "Tech": 7613, 
  "künftigen": 7614, 
  "Blut": 7615, 
  "thei@@": 7616, 
  "Juschtschenko": 7617, 
  "Gebäude": 7618, 
  "forderungen": 7619, 
  "Vertrauens@@": 7620, 
  "blasen": 7621, 
  "Hegemonie": 7622, 
  "pre@@": 7623, 
  "FSB": 7624, 
  "hö@@": 7625, 
  "ро@@": 7626, 
  "erzählt": 7627, 
  "Feuer@@": 7628, 
  "mische": 7629, 
  "hy@@": 7630, 
  "dominiert": 7631, 
  "ative": 7632, 
  "dortigen": 7633, 
  "Vernunft": 7634, 
  "Führungspersönlichkeiten": 7635, 
  "Nieder@@": 7636, 
  "greif@@": 7637, 
  "siven": 7638, 
  "zur@@": 7639, 
  "Beine": 7640, 
  "Bündnisses": 7641, 
  "Engagements": 7642, 
  "Fiskal@@": 7643, 
  "schwächeren": 7644, 
  "ump@@": 7645, 
  "Zusagen": 7646, 
  "bestrafen": 7647, 
  "konzentrierte": 7648, 
  "beteiligten": 7649, 
  "höchster": 7650, 
  "Erforschung": 7651, 
  "Budget@@": 7652, 
  "Guantánamo": 7653, 
  "gehörte": 7654, 
  "teur": 7655, 
  "Innenpolitik": 7656, 
  "Selbstverteidigung": 7657, 
  "vorherrschenden": 7658, 
  "zögern": 7659, 
  "offen@@": 7660, 
  "teilungen": 7661, 
  "misch": 7662, 
  "appen": 7663, 
  "achtet": 7664, 
  "Krebs@@": 7665, 
  "zöger@@": 7666, 
  "Einheitswährung": 7667, 
  "Ausbau": 7668, 
  "beruhi@@": 7669, 
  "unnötig": 7670, 
  "Größenordnung": 7671, 
  "pi@@": 7672, 
  "inn@@": 7673, 
  "Tendenzen": 7674, 
  "Leistungsbilanz@@": 7675, 
  "Chef@@": 7676, 
  "klassi@@": 7677, 
  "beinhalten": 7678, 
  "übermäßigen": 7679, 
  "а": 7680, 
  "berühmte": 7681, 
  "spartner": 7682, 
  "Vorbereitung": 7683, 
  "sfähigkeit": 7684, 
  "geschlossenen": 7685, 
  "bilanz": 7686, 
  "Begrenzung": 7687, 
  "Bretton": 7688, 
  "Temperaturen": 7689, 
  "Bedingung": 7690, 
  "schten": 7691, 
  "langsamen": 7692, 
  "gegenüber@@": 7693, 
  "vernachlässi@@": 7694, 
  "ernannt": 7695, 
  "endgültig": 7696, 
  "ches": 7697, 
  "Transport": 7698, 
  "Wohlfahrtsstaat": 7699, 
  "Rezept": 7700, 
  "ater@@": 7701, 
  "nordkoreanischen": 7702, 
  "800": 7703, 
  "vertrauens@@": 7704, 
  "ick": 7705, 
  "kur@@": 7706, 
  "benachbarten": 7707, 
  "gefähr@@": 7708, 
  "gste": 7709, 
  "600": 7710, 
  "gelitten": 7711, 
  "0,5": 7712, 
  "Asiaten": 7713, 
  "erzielten": 7714, 
  "х": 7715, 
  "geheim@@": 7716, 
  "gutem": 7717, 
  "verwaltung": 7718, 
  "Konzepte": 7719, 
  "itäten": 7720, 
  "weißen": 7721, 
  "Osteuropas": 7722, 
  "gere@@": 7723, 
  "formulieren": 7724, 
  "religiös": 7725, 
  "prozesse": 7726, 
  "mensch@@": 7727, 
  "sech@@": 7728, 
  "ethische": 7729, 
  "vorantreiben": 7730, 
  "verd@@": 7731, 
  "springen": 7732, 
  "beispiel@@": 7733, 
  "Manipulation": 7734, 
  "angeführten": 7735, 
  "trägen": 7736, 
  "ya": 7737, 
  "rechtlich": 7738, 
  "ling": 7739, 
  "steigerungen": 7740, 
  "eröffnen": 7741, 
  "bes": 7742, 
  "annimmt": 7743, 
  "Erd@@": 7744, 
  "Leistungsbilanzüberschuss": 7745, 
  "Verzerrungen": 7746, 
  "erklär@@": 7747, 
  "Euroländer": 7748, 
  "Bat@@": 7749, 
  "ser": 7750, 
  "haltenden": 7751, 
  "Handelsabkommen": 7752, 
  "sinkenden": 7753, 
  "lautete": 7754, 
  "Ganzes": 7755, 
  "Einschränkung": 7756, 
  "verbleibenden": 7757, 
  "heuer": 7758, 
  "Föderation": 7759, 
  "einher": 7760, 
  "Details": 7761, 
  "Veto": 7762, 
  "ankt": 7763, 
  "Industriepolitik": 7764, 
  "einzuleiten": 7765, 
  "brü@@": 7766, 
  "ausgebildet": 7767, 
  "öl@@": 7768, 
  "schädlich": 7769, 
  "Artenvielfalt": 7770, 
  "1,3": 7771, 
  "homo@@": 7772, 
  "verhand@@": 7773, 
  "gangen": 7774, 
  "erem": 7775, 
  "anstelle": 7776, 
  "lit@@": 7777, 
  "freiwillige": 7778, 
  "Biologie": 7779, 
  "Arabern": 7780, 
  "Har@@": 7781, 
  "Pol@@": 7782, 
  "feiern": 7783, 
  "bür@@": 7784, 
  "strengen": 7785, 
  "Bon@@": 7786, 
  "lichkeiten": 7787, 
  "Get@@": 7788, 
  "erfahr@@": 7789, 
  "läu@@": 7790, 
  "kauf@@": 7791, 
  "angeb@@": 7792, 
  "vergrößert": 7793, 
  "klu@@": 7794, 
  "Arbeitnehmern": 7795, 
  "Depressionen": 7796, 
  "auer": 7797, 
  "Viktor": 7798, 
  "angelegte": 7799, 
  "innenpolitische": 7800, 
  "bekamen": 7801, 
  "wirksamen": 7802, 
  "demselben": 7803, 
  "Stimm@@": 7804, 
  "gesetzte": 7805, 
  "Versch@@": 7806, 
  "händler": 7807, 
  "Haf@@": 7808, 
  "notwendigerweise": 7809, 
  "Alexander": 7810, 
  "schiitische": 7811, 
  "müh@@": 7812, 
  "ris@@": 7813, 
  "Schriftsteller": 7814, 
  "tens": 7815, 
  "mangel": 7816, 
  "Meinungsfreiheit": 7817, 
  "Verkehrs@@": 7818, 
  "Präzedenzfall": 7819, 
  "Kol@@": 7820, 
  "Gegenstand": 7821, 
  "Boris": 7822, 
  "fache": 7823, 
  "gnis": 7824, 
  "palästinensischer": 7825, 
  "elung": 7826, 
  "Motor": 7827, 
  "Anhäufung": 7828, 
  "Sachs": 7829, 
  "vorzugehen": 7830, 
  "gerichteten": 7831, 
  "linie": 7832, 
  "Aufhebung": 7833, 
  "ernsten": 7834, 
  "Den": 7835, 
  "dauert": 7836, 
  "widersetzen": 7837, 
  "Eing@@": 7838, 
  "viel@@": 7839, 
  "Helden": 7840, 
  "Wechsel@@": 7841, 
  "Problem@@": 7842, 
  "Einbindung": 7843, 
  "träumen": 7844, 
  "Leu@@": 7845, 
  "kn@@": 7846, 
  "zustellen": 7847, 
  "befreit": 7848, 
  "Nich@@": 7849, 
  "etablierten": 7850, 
  "angebot": 7851, 
  "Privatsektor": 7852, 
  "Anhebung": 7853, 
  "festlegen": 7854, 
  "bezeich@@": 7855, 
  "staats@@": 7856, 
  "vielerlei": 7857, 
  "Funktionen": 7858, 
  "anzuheben": 7859, 
  "anlässlich": 7860, 
  "unterworfen": 7861, 
  "bezahlten": 7862, 
  "Zölle": 7863, 
  "Selbstvertrauen": 7864, 
  "heran@@": 7865, 
  "Inhaftierung": 7866, 
  "intellektuelle": 7867, 
  "verantwor@@": 7868, 
  "Stabilitätspakt": 7869, 
  "tik@@": 7870, 
  "Teheran": 7871, 
  "dität": 7872, 
  "betrachteten": 7873, 
  "tum": 7874, 
  "ard": 7875, 
  "Nord": 7876, 
  "ausgeprägt": 7877, 
  "ore": 7878, 
  "то@@": 7879, 
  "hoffe": 7880, 
  "Senator": 7881, 
  "Pipeline": 7882, 
  "anhält": 7883, 
  "Griechen": 7884, 
  "irgendein": 7885, 
  "üssen": 7886, 
  "Uhr": 7887, 
  "greifende": 7888, 
  "Termin@@": 7889, 
  "verbot": 7890, 
  "Achse": 7891, 
  "firmen": 7892, 
  "Flü@@": 7893, 
  "erneuten": 7894, 
  "Peru": 7895, 
  "sicherung": 7896, 
  "Wiederholung": 7897, 
  "Ausgabenkürzungen": 7898, 
  "zahl@@": 7899, 
  "Wichtigkeit": 7900, 
  "Mütter": 7901, 
  "menge": 7902, 
  "Prag": 7903, 
  "1987": 7904, 
  "Strafen": 7905, 
  "bedroh@@": 7906, 
  "Bezahlung": 7907, 
  "str@@": 7908, 
  "Hilf@@": 7909, 
  "schützt": 7910, 
  "späteren": 7911, 
  "Beste": 7912, 
  "republikanische": 7913, 
  "ju@@": 7914, 
  "ausschuss": 7915, 
  "produkten": 7916, 
  "Führungen": 7917, 
  "derte": 7918, 
  "spann@@": 7919, 
  "tenen": 7920, 
  "aggressiv": 7921, 
  "reichlich": 7922, 
  "dre@@": 7923, 
  "Autoren": 7924, 
  "miert": 7925, 
  "entscheidet": 7926, 
  "sozial@@": 7927, 
  "Palästinensischen": 7928, 
  "Mannes": 7929, 
  "Taiwans": 7930, 
  "gerechte": 7931, 
  "teile": 7932, 
  "Ertrag": 7933, 
  "freu@@": 7934, 
  "drän@@": 7935, 
  "Einwohnern": 7936, 
  "interpretiert": 7937, 
  "geriet": 7938, 
  "ingen": 7939, 
  "ana": 7940, 
  "Software": 7941, 
  "Resultate": 7942, 
  "Experimente": 7943, 
  "züge": 7944, 
  "dienst@@": 7945, 
  "Händler": 7946, 
  "ausgebildete": 7947, 
  "Landung": 7948, 
  "700": 7949, 
  "Partner@@": 7950, 
  "Londoner": 7951, 
  "schwacher": 7952, 
  "1988": 7953, 
  "fahrt": 7954, 
  "genaue": 7955, 
  "natürlicher": 7956, 
  "Siedler": 7957, 
  "Bruchteil": 7958, 
  "б@@": 7959, 
  "sion": 7960, 
  "Anhängern": 7961, 
  "Bundesstaat": 7962, 
  "asiatischer": 7963, 
  "deck@@": 7964, 
  "ist@@": 7965, 
  "stimmte": 7966, 
  "rein@@": 7967, 
  "hinterher": 7968, 
  "hör@@": 7969, 
  "Glaubens@@": 7970, 
  "Gütern": 7971, 
  "Einkünfte": 7972, 
  "undenkbar": 7973, 
  "mengen": 7974, 
  "Binnenmarkt": 7975, 
  "begünstigen": 7976, 
  "kette": 7977, 
  "satz@@": 7978, 
  "branche": 7979, 
  "ong": 7980, 
  "Gut": 7981, 
  "tätig": 7982, 
  "gelegentlich": 7983, 
  "diesjährigen": 7984, 
  "serbischen": 7985, 
  "1929": 7986, 
  "stischer": 7987, 
  "Fort@@": 7988, 
  "dienst": 7989, 
  "abzubauen": 7990, 
  "einzigartige": 7991, 
  "stabiler": 7992, 
  "Führerschaft": 7993, 
  "ann@@": 7994, 
  "gefühl": 7995, 
  "einziger": 7996, 
  "Vorrang": 7997, 
  "Fertigkeiten": 7998, 
  "1,4": 7999, 
  "az@@": 8000, 
  "bezieht": 8001, 
  "angen": 8002, 
  "diente": 8003, 
  "belasten": 8004, 
  "Rahmenbedingungen": 8005, 
  "größe": 8006, 
  "Wende": 8007, 
  "individuellen": 8008, 
  "anstieg": 8009, 
  "genau@@": 8010, 
  "akt": 8011, 
  "uri@@": 8012, 
  "veränderte": 8013, 
  "aktionen": 8014, 
  "Dutzende": 8015, 
  "Kapitalflucht": 8016, 
  "punkten": 8017, 
  "bewältigt": 8018, 
  "ströme": 8019, 
  "Lebensqualität": 8020, 
  "Liebe": 8021, 
  "verlaufen": 8022, 
  "Auftreten": 8023, 
  "Barrel": 8024, 
  "Mächten": 8025, 
  "schloss": 8026, 
  "abzugeben": 8027, 
  "sie@@": 8028, 
  "kürz@@": 8029, 
  "u.": 8030, 
  "andauernden": 8031, 
  "Amtsantritt": 8032, 
  "lers": 8033, 
  "Lettland": 8034, 
  "Netz": 8035, 
  "verantwortung": 8036, 
  "gerückt": 8037, 
  "rus@@": 8038, 
  "Arbeit@@": 8039, 
  "durchgeführten": 8040, 
  "Untergang": 8041, 
  "aussch@@": 8042, 
  "Glaubens": 8043, 
  "ausweiten": 8044, 
  "vertre@@": 8045, 
  "verzweifelt": 8046, 
  "anstrebt": 8047, 
  "erneute": 8048, 
  "Produkt@@": 8049, 
  "dur@@": 8050, 
  "Skeptiker": 8051, 
  "Kommunikations@@": 8052, 
  "ache": 8053, 
  "sol@@": 8054, 
  "anisch": 8055, 
  "Trans@@": 8056, 
  "blutigen": 8057, 
  "wachstums": 8058, 
  "Geistes@@": 8059, 
  "schie@@": 8060, 
  "del@@": 8061, 
  "Bahrain": 8062, 
  "Wohl": 8063, 
  "versicherungen": 8064, 
  "quantitativen": 8065, 
  "demokratisches": 8066, 
  "gesund": 8067, 
  "dynamische": 8068, 
  "neunzehnten": 8069, 
  "auff@@": 8070, 
  "Südostasien": 8071, 
  "Spielregeln": 8072, 
  "fairen": 8073, 
  "Mord": 8074, 
  "rise": 8075, 
  "Atlantiks": 8076, 
  "kostspielig": 8077, 
  "fortgesetzte": 8078, 
  "forschung": 8079, 
  "kurzer": 8080, 
  "Act": 8081, 
  "ologischen": 8082, 
  "Technokraten": 8083, 
  "Berechnungen": 8084, 
  "schl@@": 8085, 
  "einheiten": 8086, 
  "Rumsfeld": 8087, 
  "erweitert": 8088, 
  "Tab@@": 8089, 
  "zweifel@@": 8090, 
  "Rußland": 8091, 
  "Autonomiebehörde": 8092, 
  "bri@@": 8093, 
  "anzusehen": 8094, 
  "erweise": 8095, 
  "re": 8096, 
  "Bewer@@": 8097, 
  "worauf": 8098, 
  "Protest@@": 8099, 
  "logi@@": 8100, 
  "Barrieren": 8101, 
  "leitete": 8102, 
  "Fünftel": 8103, 
  "Konjunkturerholung": 8104, 
  "gewinne": 8105, 
  "Angehörigen": 8106, 
  "gütern": 8107, 
  "überschritten": 8108, 
  "dahinter": 8109, 
  "eingeräumt": 8110, 
  "baltischen": 8111, 
  "zahl": 8112, 
  "Geh@@": 8113, 
  "Berlusconis": 8114, 
  "abzuwarten": 8115, 
  "krimin@@": 8116, 
  "verheerende": 8117, 
  "Schmerzen": 8118, 
  "medi@@": 8119, 
  "gesetzlich": 8120, 
  "42": 8121, 
  "Staaten@@": 8122, 
  "Auswirkung": 8123, 
  "versetzt": 8124, 
  "Hard": 8125, 
  "irischen": 8126, 
  "Fin@@": 8127, 
  "Mode": 8128, 
  "3,5": 8129, 
  "ergab": 8130, 
  "gan@@": 8131, 
  "einräumen": 8132, 
  "Konjunkturpaket": 8133, 
  "weigert": 8134, 
  "fehlte": 8135, 
  "ausgewo@@": 8136, 
  "Nazi": 8137, 
  "Gründer": 8138, 
  "fähige": 8139, 
  "umgeben": 8140, 
  "hit@@": 8141, 
  "Sachen": 8142, 
  "Rio": 8143, 
  "Gange": 8144, 
  "beschließen": 8145, 
  "Gedanke": 8146, 
  "Entwicklungsziele": 8147, 
  "Ruhe": 8148, 
  "gipfel": 8149, 
  "spürbar": 8150, 
  "besserer": 8151, 
  "basierten": 8152, 
  "digten": 8153, 
  "Kauf@@": 8154, 
  "Schlussfolgerungen": 8155, 
  "ginge": 8156, 
  "üb@@": 8157, 
  "Leit@@": 8158, 
  "sitzt": 8159, 
  "richtete": 8160, 
  "Herz": 8161, 
  "Castro": 8162, 
  "Jahr@@": 8163, 
  "fürchtet": 8164, 
  "freundlichen": 8165, 
  "Treibhausgasemissionen": 8166, 
  "ffe": 8167, 
  "endgültigen": 8168, 
  "stol@@": 8169, 
  "res": 8170, 
  "zurückziehen": 8171, 
  "säkulare": 8172, 
  "entgehen": 8173, 
  "reichenden": 8174, 
  "nutzt": 8175, 
  "Boden@@": 8176, 
  "II.": 8177, 
  "hinweg@@": 8178, 
  "let@@": 8179, 
  "Energiepolitik": 8180, 
  "unzu@@": 8181, 
  "regulieren": 8182, 
  "mas": 8183, 
  "imp@@": 8184, 
  "absoluten": 8185, 
  "genommenen": 8186, 
  "überholt": 8187, 
  "1.000": 8188, 
  "Maschinen": 8189, 
  "Olmert": 8190, 
  "erei": 8191, 
  "stür@@": 8192, 
  "jähriger": 8193, 
  "kurs": 8194, 
  "booms": 8195, 
  "Stufe": 8196, 
  "klein@@": 8197, 
  "langjährigen": 8198, 
  "trau@@": 8199, 
  "Havel": 8200, 
  "12.": 8201, 
  "Bankensystems": 8202, 
  "fang": 8203, 
  "steh@@": 8204, 
  "Peter": 8205, 
  "Arbeitsplatz@@": 8206, 
  "Verdacht": 8207, 
  "mangel@@": 8208, 
  "Ingenieure": 8209, 
  "Sozialdemokraten": 8210, 
  "hinausgehen": 8211, 
  "sätzen": 8212, 
  "Indikatoren": 8213, 
  "Standard@@": 8214, 
  "Pl@@": 8215, 
  "erh@@": 8216, 
  "Segen": 8217, 
  "ars": 8218, 
  "Johannes": 8219, 
  "10@@": 8220, 
  "wachstums@@": 8221, 
  "gelte": 8222, 
  "5.000": 8223, 
  "entwickelnden": 8224, 
  "1970": 8225, 
  "anwenden": 8226, 
  "Zahlungsbilanz@@": 8227, 
  "Beratung": 8228, 
  "Schranken": 8229, 
  "Modells": 8230, 
  "Marx": 8231, 
  "angeklagt": 8232, 
  "brin@@": 8233, 
  "Umschuldung": 8234, 
  "RMB": 8235, 
  "korrigieren": 8236, 
  "Lebensstandards": 8237, 
  "Verwirrung": 8238, 
  "spezifische": 8239, 
  "übersteigt": 8240, 
  "tödliche": 8241, 
  "wertvolle": 8242, 
  "beantworten": 8243, 
  "Le": 8244, 
  "auferlegt": 8245, 
  "enttäuscht": 8246, 
  "Ausstoß": 8247, 
  "stro@@": 8248, 
  "Marine": 8249, 
  "teu@@": 8250, 
  "beinhaltet": 8251, 
  "problematisch": 8252, 
  "Schuldenquote": 8253, 
  "union": 8254, 
  "Täter": 8255, 
  "not@@": 8256, 
  "zweimal": 8257, 
  "arisierung": 8258, 
  "engere": 8259, 
  "erlitten": 8260, 
  "erwartete": 8261, 
  "Mil@@": 8262, 
  "pan@@": 8263, 
  "Erfüllung": 8264, 
  "Sicherheitspolitik": 8265, 
  "schluss": 8266, 
  "Arbeitern": 8267, 
  "Projekts": 8268, 
  "Flut": 8269, 
  "beheben": 8270, 
  "bericht": 8271, 
  "saudischen": 8272, 
  "Chin@@": 8273, 
  "kredit@@": 8274, 
  "Gi@@": 8275, 
  "bedauerlicherweise": 8276, 
  "freund@@": 8277, 
  "Stärken": 8278, 
  "reagierten": 8279, 
  "gesetzliche": 8280, 
  "libanesischen": 8281, 
  "schufen": 8282, 
  "far@@": 8283, 
  "9,@@": 8284, 
  "mittelfristig": 8285, 
  "erbar": 8286, 
  "primär": 8287, 
  "sinkende": 8288, 
  "Naturwissenschaften": 8289, 
  "dens": 8290, 
  "explo@@": 8291, 
  "achte": 8292, 
  "Einsatz@@": 8293, 
  "Gegnern": 8294, 
  "0ern": 8295, 
  "verbrauch": 8296, 
  "einnahmen": 8297, 
  "grad": 8298, 
  "senkt": 8299, 
  "Privilegien": 8300, 
  "Kanzlerin": 8301, 
  "manager": 8302, 
  "fil@@": 8303, 
  "Kandidatur": 8304, 
  "je@@": 8305, 
  "angeblichen": 8306, 
  "modelle": 8307, 
  "American": 8308, 
  "Dek@@": 8309, 
  "mende": 8310, 
  "berg": 8311, 
  "bereitstellen": 8312, 
  "zurecht": 8313, 
  "zeitlich": 8314, 
  "japanischer": 8315, 
  "neunziger": 8316, 
  "vierte": 8317, 
  "Wiederaufnahme": 8318, 
  "geholt": 8319, 
  "eingegangen": 8320, 
  "Kanzler": 8321, 
  "Ehud": 8322, 
  "Verschwendung": 8323, 
  "sam@@": 8324, 
  "Meeresspiegel": 8325, 
  "weisung": 8326, 
  "bezeichneten": 8327, 
  "Entstehen": 8328, 
  "institutioneller": 8329, 
  "Eigen": 8330, 
  "afghanische": 8331, 
  "beklagen": 8332, 
  "bote": 8333, 
  "klassische": 8334, 
  "Kampagnen": 8335, 
  "els@@": 8336, 
  "Kurzum": 8337, 
  "MASS": 8338, 
  "gewaltig": 8339, 
  "ücken": 8340, 
  "zellen": 8341, 
  "verstärkten": 8342, 
  "historischer": 8343, 
  "steile": 8344, 
  "Vorhersagen": 8345, 
  "Chruschtschow": 8346, 
  "Gunsten": 8347, 
  "drängte": 8348, 
  "sal@@": 8349, 
  "unzählige": 8350, 
  "läh@@": 8351, 
  "Kompetenz": 8352, 
  "gebenen": 8353, 
  "Sri": 8354, 
  "geistige": 8355, 
  "Vorhaben": 8356, 
  "Geldmenge": 8357, 
  "tigkeiten": 8358, 
  "1968": 8359, 
  "Goldman": 8360, 
  "vorangetrieben": 8361, 
  "Immobilienblase": 8362, 
  "veränderten": 8363, 
  "Feh@@": 8364, 
  "Eigenheim@@": 8365, 
  "My@@": 8366, 
  "Seoul": 8367, 
  "Rechtssystem": 8368, 
  "Hilfen": 8369, 
  "jetzigen": 8370, 
  "Infrastruktur@@": 8371, 
  "anzugreifen": 8372, 
  "Tieren": 8373, 
  "Pragmatismus": 8374, 
  "überschreiten": 8375, 
  "dan@@": 8376, 
  "diszipl@@": 8377, 
  "Kop@@": 8378, 
  "Mangels": 8379, 
  "typischerweise": 8380, 
  "Verabschiedung": 8381, 
  "Dschihad": 8382, 
  "methoden": 8383, 
  "last": 8384, 
  "ungs-": 8385, 
  "soliden": 8386, 
  "Interessens@@": 8387, 
  "Aufstände": 8388, 
  "Wahlbeteiligung": 8389, 
  "volles": 8390, 
  "Hurrikan": 8391, 
  "Yuan": 8392, 
  "abgeschafft": 8393, 
  "Schwelle": 8394, 
  "Koizumi": 8395, 
  "Arm": 8396, 
  "chtung": 8397, 
  "gri@@": 8398, 
  "Diskurs": 8399, 
  "netze": 8400, 
  "nete": 8401, 
  "nannte": 8402, 
  "tierung": 8403, 
  "entgegenzuwirken": 8404, 
  "einbezogen": 8405, 
  "Sü@@": 8406, 
  "weitergehen": 8407, 
  "demonstrieren": 8408, 
  "seinerseits": 8409, 
  "Interessengruppen": 8410, 
  "fossile": 8411, 
  "Deutsche": 8412, 
  "Daten@@": 8413, 
  "nachhaltiger": 8414, 
  "verlorenen": 8415, 
  "projekt": 8416, 
  "gnissen": 8417, 
  "ic@@": 8418, 
  "Energieeffizienz": 8419, 
  "Schuldenerlass": 8420, 
  "mie": 8421, 
  "Finnland": 8422, 
  "Waren@@": 8423, 
  "zieh@@": 8424, 
  "amm@@": 8425, 
  "Mobilisierung": 8426, 
  "net": 8427, 
  "mungen": 8428, 
  "hebt": 8429, 
  "freiwillig": 8430, 
  "Sozialversicherung": 8431, 
  "Stu@@": 8432, 
  "einheimische": 8433, 
  "Weltpolitik": 8434, 
  "protektionistische": 8435, 
  "belohnt": 8436, 
  "koreanischen": 8437, 
  "Risikos": 8438, 
  "produzierenden": 8439, 
  "glaubwürdig": 8440, 
  "Verbrauchern": 8441, 
  "jahrzehntelang": 8442, 
  "zahlung": 8443, 
  "ass": 8444, 
  "halt@@": 8445, 
  "isten": 8446, 
  "Arbeitslosenrate": 8447, 
  "Tu@@": 8448, 
  "dran": 8449, 
  "verwal@@": 8450, 
  "beschrieb": 8451, 
  "Pluralismus": 8452, 
  "Henry": 8453, 
  "Säulen": 8454, 
  "träglich": 8455, 
  "ws": 8456, 
  "Fu@@": 8457, 
  "Tschernobyl": 8458, 
  "zeug": 8459, 
  "D.C.": 8460, 
  "Arbeitsmärkte": 8461, 
  "ativ@@": 8462, 
  "Bestätigung": 8463, 
  "Religions@@": 8464, 
  "Zerfall": 8465, 
  "Spaniens": 8466, 
  "Leistungsbilanzdefizite": 8467, 
  "drastischen": 8468, 
  "zugs@@": 8469, 
  "gek@@": 8470, 
  "−": 8471, 
  "digkeit": 8472, 
  "artigen": 8473, 
  "bisschen": 8474, 
  "nachkommen": 8475, 
  "durchgeführte": 8476, 
  "illegalen": 8477, 
  "anken": 8478, 
  "0": 8479, 
  "europäisches": 8480, 
  "beach@@": 8481, 
  "zuzulassen": 8482, 
  "Irakkrieg": 8483, 
  "Freihandel": 8484, 
  ".000": 8485, 
  "Überleben@@": 8486, 
  "Bedürfnissen": 8487, 
  "Staatschefs": 8488, 
  "brauch@@": 8489, 
  "gemäßigte": 8490, 
  "osteuropäischen": 8491, 
  "Verachtung": 8492, 
  "Wir": 8493, 
  "umfassend": 8494, 
  "ernden": 8495, 
  "Fran@@": 8496, 
  "Eigenheimpreise": 8497, 
  "wünscht": 8498, 
  "Spektrum": 8499, 
  "verständlicherweise": 8500, 
  "38": 8501, 
  "versi@@": 8502, 
  "Impf@@": 8503, 
  "nördlichen": 8504, 
  "Sam@@": 8505, 
  "Unterfangen": 8506, 
  "bemerkenswer@@": 8507, 
  "nehmer": 8508, 
  "Mühe": 8509, 
  "Humankapital": 8510, 
  "Dmitri": 8511, 
  "Präsidenten@@": 8512, 
  "betrachtete": 8513, 
  "wohingegen": 8514, 
  "Ozean": 8515, 
  "sl@@": 8516, 
  "schein@@": 8517, 
  "Sinai": 8518, 
  "Meinungsäußerung": 8519, 
  "Entwicklung@@": 8520, 
  "schüren": 8521, 
  "ina": 8522, 
  "Mitarbeitern": 8523, 
  "effek@@": 8524, 
  "Hil@@": 8525, 
  "Binnen@@": 8526, 
  "Vorwand": 8527, 
  "bedeutsame": 8528, 
  "Benjamin": 8529, 
  "Ja": 8530, 
  "respektiert": 8531, 
  "typisch": 8532, 
  "Umweltverschmutzung": 8533, 
  "Gehalts@@": 8534, 
  "Ansteckung": 8535, 
  "selb@@": 8536, 
  "Blairs": 8537, 
  "Indikator": 8538, 
  "zutage": 8539, 
  "Skandal": 8540, 
  "Test@@": 8541, 
  "aussieht": 8542, 
  "Rettungspaket": 8543, 
  "beitreten": 8544, 
  "sehe": 8545, 
  "Nationale": 8546, 
  "wasser": 8547, 
  "rin@@": 8548, 
  "französischer": 8549, 
  "deu@@": 8550, 
  "Industrialisierung": 8551, 
  "anisches": 8552, 
  "Haag": 8553, 
  "geri@@": 8554, 
  "Dringlichkeit": 8555, 
  "Hardliner": 8556, 
  "reißen": 8557, 
  "Einwanderern": 8558, 
  "Fre@@": 8559, 
  "Morales": 8560, 
  "Nachteile": 8561, 
  "Bösen": 8562, 
  "gerechten": 8563, 
  "Mathematik": 8564, 
  "Staatsan@@": 8565, 
  "Verlusten": 8566, 
  "begehen": 8567, 
  "möglicher": 8568, 
  "irgendwelche": 8569, 
  "ausmacht": 8570, 
  "sierter": 8571, 
  "gegenüberstehen": 8572, 
  "Trade": 8573, 
  "arabischer": 8574, 
  "Tea": 8575, 
  "geprägten": 8576, 
  "Häuserpreise": 8577, 
  "Jugend": 8578, 
  "Krankenhaus": 8579, 
  "verdammt": 8580, 
  "vertrau@@": 8581, 
  "änderungen": 8582, 
  "Übel": 8583, 
  "Mad@@": 8584, 
  "Atomenergie": 8585, 
  "trans@@": 8586, 
  "belie@@": 8587, 
  "samkeit": 8588, 
  "kontrollen": 8589, 
  "Gastgeber": 8590, 
  "Schulbildung": 8591, 
  "Elektro@@": 8592, 
  "Wissens": 8593, 
  "unausweichlich": 8594, 
  "Wetter@@": 8595, 
  "änder@@": 8596, 
  "Kurz@@": 8597, 
  "Zaum": 8598, 
  "lateinamerikanische": 8599, 
  "Meinungsverschiedenheiten": 8600, 
  "Schätzung": 8601, 
  "erung@@": 8602, 
  "äd@@": 8603, 
  "stützt": 8604, 
  "rechnet": 8605, 
  "eien": 8606, 
  "Offen@@": 8607, 
  "schwei@@": 8608, 
  "Stat@@": 8609, 
  "Lasten": 8610, 
  "künstlich": 8611, 
  "ick@@": 8612, 
  "verstoßen": 8613, 
  "populär": 8614, 
  "dominieren": 8615, 
  "engagiert": 8616, 
  "argentinischen": 8617, 
  "spruch": 8618, 
  "kel@@": 8619, 
  "institution@@": 8620, 
  "brasilianischen": 8621, 
  "herausge@@": 8622, 
  "Mah@@": 8623, 
  "Kapitalkontrollen": 8624, 
  "benen": 8625, 
  "stein": 8626, 
  "Duma": 8627, 
  "Ph@@": 8628, 
  "endgültige": 8629, 
  "tigungen": 8630, 
  "Neubewertung": 8631, 
  "Freilassung": 8632, 
  "unan@@": 8633, 
  "entdecken": 8634, 
  "Präsidentin": 8635, 
  "absehbarer": 8636, 
  "ra": 8637, 
  "17.": 8638, 
  "kum@@": 8639, 
  "ministerium": 8640, 
  "Forschungsergebnisse": 8641, 
  "hörte": 8642, 
  "halbes": 8643, 
  "tritts@@": 8644, 
  "zel@@": 8645, 
  "ш@@": 8646, 
  "vorgehen": 8647, 
  "gewöhnt": 8648, 
  "Industrienationen": 8649, 
  "Sek@@": 8650, 
  "Hochschul@@": 8651, 
  "gestellten": 8652, 
  "gl@@": 8653, 
  "umfassender": 8654, 
  "Verurteilung": 8655, 
  "Stabilitäts-": 8656, 
  "Brenn@@": 8657, 
  "Bindungen": 8658, 
  "wehr": 8659, 
  "Staatsfinanzen": 8660, 
  "Hut": 8661, 
  "Geld-": 8662, 
  "unaus@@": 8663, 
  "ologische": 8664, 
  "geo@@": 8665, 
  "1,2": 8666, 
  "rhet@@": 8667, 
  "äten": 8668, 
  "beabsichtigt": 8669, 
  "Fo@@": 8670, 
  "üsse": 8671, 
  "hieraus": 8672, 
  "legitim": 8673, 
  "bs": 8674, 
  "Konkurs": 8675, 
  "ältere": 8676, 
  "Trinkwasser": 8677, 
  "Eingreifen": 8678, 
  "einzigartigen": 8679, 
  "OSZE": 8680, 
  "Sparen": 8681, 
  "persönlicher": 8682, 
  "traditioneller": 8683, 
  "Aut@@": 8684, 
  "Muslimbruderschaft": 8685, 
  "gnung": 8686, 
  "kor@@": 8687, 
  "modi@@": 8688, 
  "Weisheit": 8689, 
  "Wünsche": 8690, 
  "stünde": 8691, 
  "François": 8692, 
  "abgelöst": 8693, 
  "Anfälligkeit": 8694, 
  "Unilateralismus": 8695, 
  "mäßige": 8696, 
  "Mutter@@": 8697, 
  "Ecuador": 8698, 
  "Landwirte": 8699, 
  "Rand@@": 8700, 
  "äts@@": 8701, 
  "wertes": 8702, 
  "terweise": 8703, 
  "erfinden": 8704, 
  "senkungen": 8705, 
  "Ehr@@": 8706, 
  "Unterschieden": 8707, 
  "Mag@@": 8708, 
  "ly": 8709, 
  "IT": 8710, 
  "Militärmacht": 8711, 
  "Raum@@": 8712, 
  "Lang@@": 8713, 
  "wandte": 8714, 
  "abgegeben": 8715, 
  "kapazitäten": 8716, 
  "Aufruf": 8717, 
  "Mäßigung": 8718, 
  "deutsch": 8719, 
  "wartet": 8720, 
  "sprech@@": 8721, 
  "berater": 8722, 
  "Spekulanten": 8723, 
  "+": 8724, 
  "antwortete": 8725, 
  "Symbole": 8726, 
  "generell": 8727, 
  "Energiepreise": 8728, 
  "ungleich@@": 8729, 
  "sträger": 8730, 
  "Cheney": 8731, 
  "Haushaltsdefiziten": 8732, 
  "Korrektur": 8733, 
  "ligkeit": 8734, 
  "erlebten": 8735, 
  "SZR": 8736, 
  "disziplin": 8737, 
  "zurückgehen": 8738, 
  "inländische": 8739, 
  "Innen@@": 8740, 
  "sky": 8741, 
  "Herrsch@@": 8742, 
  "ansonsten": 8743, 
  "Reser@@": 8744, 
  "verluste": 8745, 
  "rückgang": 8746, 
  "Lebensstil": 8747, 
  "Elektrizität": 8748, 
  "passen": 8749, 
  "mancherorts": 8750, 
  "oli@@": 8751, 
  "ausgelegt": 8752, 
  "Bra@@": 8753, 
  "starb": 8754, 
  "anrichten": 8755, 
  "West": 8756, 
  "fühlt": 8757, 
  "einzuschränken": 8758, 
  "Beschwerden": 8759, 
  "Joseph": 8760, 
  "Wunden": 8761, 
  "gewich@@": 8762, 
  "rührt": 8763, 
  "versuche": 8764, 
  "kat@@": 8765, 
  "binden": 8766, 
  "brachen": 8767, 
  "Estland": 8768, 
  "Erdogan": 8769, 
  "Drucks": 8770, 
  "strö@@": 8771, 
  "intensiven": 8772, 
  "verfügte": 8773, 
  "verabschiedete": 8774, 
  "begünstigt": 8775, 
  "tt": 8776, 
  "Grundsatz": 8777, 
  "vorsieht": 8778, 
  "Transformation": 8779, 
  "ta": 8780, 
  "wa": 8781, 
  "Mer@@": 8782, 
  "Nachteil": 8783, 
  "agte": 8784, 
  "kommen@@": 8785, 
  "Last@@": 8786, 
  "Englisch": 8787, 
  "ves": 8788, 
  "schlü@@": 8789, 
  "Strei@@": 8790, 
  "SARS": 8791, 
  "nachzukommen": 8792, 
  "со@@": 8793, 
  "produkt": 8794, 
  "schrei@@": 8795, 
  "ase": 8796, 
  "festgelegten": 8797, 
  "fach@@": 8798, 
  "ven@@": 8799, 
  "Slowakei": 8800, 
  "lob@@": 8801, 
  "ökonomen": 8802, 
  "früherer": 8803, 
  "trennen": 8804, 
  "Nordafrika": 8805, 
  "drohte": 8806, 
  "Existenz@@": 8807, 
  "schule": 8808, 
  "westlich": 8809, 
  "weitreichende": 8810, 
  "Missachtung": 8811, 
  "begrüßt": 8812, 
  "Differenz": 8813, 
  "Siedlungs@@": 8814, 
  "Smith": 8815, 
  "vergleichbare": 8816, 
  "Fehlern": 8817, 
  "Inlands@@": 8818, 
  "verbergen": 8819, 
  "sis": 8820, 
  "Gremien": 8821, 
  "unheil@@": 8822, 
  "Arabiens": 8823, 
  "änge": 8824, 
  "Autor": 8825, 
  "täten": 8826, 
  "betonte": 8827, 
  "Türken": 8828, 
  "erlangt": 8829, 
  "Bulgarien": 8830, 
  "Sonne": 8831, 
  "industri@@": 8832, 
  "therapie": 8833, 
  "verschoben": 8834, 
  "Dingen": 8835, 
  "riebenen": 8836, 
  "Schle@@": 8837, 
  "Investment@@": 8838, 
  "Rate": 8839, 
  "alli@@": 8840, 
  "nennt": 8841, 
  "Aktienmärkte": 8842, 
  "Normal@@": 8843, 
  "Wettstreit": 8844, 
  "zeichnete": 8845, 
  "bevorstehende": 8846, 
  "gewalttätige": 8847, 
  "Konflikt@@": 8848, 
  "Konjunkturprogramme": 8849, 
  "Ü@@": 8850, 
  "einseitig": 8851, 
  "bene": 8852, 
  "gesichert": 8853, 
  "Anteile": 8854, 
  "15.": 8855, 
  "Pflege": 8856, 
  "geworfen": 8857, 
  "sektors": 8858, 
  "Rat@@": 8859, 
  "äres": 8860, 
  "nähert": 8861, 
  "sinn@@": 8862, 
  "Geschäftsbanken": 8863, 
  "Einzelne": 8864, 
  "gie": 8865, 
  "Gräueltaten": 8866, 
  "behält": 8867, 
  "bedeutend": 8868, 
  "auseinandersetzen": 8869, 
  "restlichen": 8870, 
  "Nachkriegszeit": 8871, 
  "massiver": 8872, 
  "zunehmendem": 8873, 
  "ökonomisch": 8874, 
  "Tum@@": 8875, 
  "basieren": 8876, 
  "Euroraum": 8877, 
  "Südasien": 8878, 
  "beunruhigend": 8879, 
  "Kasten": 8880, 
  "Klassen@@": 8881, 
  "dorthin": 8882, 
  "Arbeitslosen": 8883, 
  "bedacht": 8884, 
  "schu@@": 8885, 
  "lauten": 8886, 
  "Katastrophen@@": 8887, 
  "dominierten": 8888, 
  "Angehörige": 8889, 
  "Davos": 8890, 
  "vereinbarten": 8891, 
  "glücklich": 8892, 
  "Kli@@": 8893, 
  "Repression": 8894, 
  "fortgesetzt": 8895, 
  "zurückgekehrt": 8896, 
  "interpretieren": 8897, 
  "Parlamente": 8898, 
  "nis@@": 8899, 
  "umfassendere": 8900, 
  "Uran": 8901, 
  "Klarheit": 8902, 
  "Sprachen": 8903, 
  "Calderón": 8904, 
  "dri@@": 8905, 
  "allgemein@@": 8906, 
  "Antrag": 8907, 
  "relevant": 8908, 
  "unteren": 8909, 
  "elt@@": 8910, 
  "brüchen": 8911, 
  "Abschwächung": 8912, 
  "Transport@@": 8913, 
  "Währungsreserven": 8914, 
  "Verantwortlichen": 8915, 
  "tors": 8916, 
  "rationale": 8917, 
  "Zugehörigkeit": 8918, 
  "Integrations@@": 8919, 
  "Lee": 8920, 
  "identifiziert": 8921, 
  "irgend@@": 8922, 
  "Rahmen@@": 8923, 
  "nah": 8924, 
  "studieren": 8925, 
  "gie@@": 8926, 
  "sinnvolle": 8927, 
  "Fer@@": 8928, 
  "zurückgreifen": 8929, 
  "Imperialismus": 8930, 
  "verhelfen": 8931, 
  "befanden": 8932, 
  "Kernschmelze": 8933, 
  "sank": 8934, 
  "ro": 8935, 
  "zusammenzuarbeiten": 8936, 
  "realistisch": 8937, 
  "zugelassen": 8938, 
  "hinzukommt": 8939, 
  "Kok@@": 8940, 
  "Realwirtschaft": 8941, 
  "strömen": 8942, 
  "unrealistisch": 8943, 
  "tödlichen": 8944, 
  "parallel": 8945, 
  "schaffte": 8946, 
  "kommuni@@": 8947, 
  "eingeladen": 8948, 
  "un": 8949, 
  "Wil@@": 8950, 
  "Th@@": 8951, 
  "kehrten": 8952, 
  "Vernichtung": 8953, 
  "qualifizierten": 8954, 
  "zumeist": 8955, 
  "Verzögerung": 8956, 
  "ausgehende": 8957, 
  "Eigenkapital@@": 8958, 
  "ecks": 8959, 
  "Bedürfnis": 8960, 
  "Stile": 8961, 
  "Pazifik": 8962, 
  "währenden": 8963, 
  "bevorzugt": 8964, 
  "Zorn": 8965, 
  "Gier": 8966, 
  "Vorfall": 8967, 
  "schlimmste": 8968, 
  "festzuhalten": 8969, 
  "inakzeptabel": 8970, 
  "Ideologien": 8971, 
  "ide@@": 8972, 
  "Rom@@": 8973, 
  "ratifiziert": 8974, 
  "artig": 8975, 
  "Sprach@@": 8976, 
  "ähn@@": 8977, 
  "enes": 8978, 
  "willigen": 8979, 
  "konsum": 8980, 
  "Wohlfahrts@@": 8981, 
  "unterstütz@@": 8982, 
  "Heimatland": 8983, 
  "ständiger": 8984, 
  "Tor@@": 8985, 
  "Jiang": 8986, 
  "ungünsti@@": 8987, 
  "verschrieben": 8988, 
  "gebildeten": 8989, 
  "See": 8990, 
  "kunft": 8991, 
  "drück@@": 8992, 
  "Gaddafis": 8993, 
  "Bonds": 8994, 
  "2.000": 8995, 
  "hoffnungs@@": 8996, 
  "bed@@": 8997, 
  "Kapit@@": 8998, 
  "Weile": 8999, 
  "ellem": 9000, 
  "Regulierer": 9001, 
  "10.000": 9002, 
  "prüfen": 9003, 
  "Variante": 9004, 
  "Finanzsysteme": 9005, 
  "gendste": 9006, 
  "riskante": 9007, 
  "aufhalten": 9008, 
  "1985": 9009, 
  "umsich@@": 9010, 
  "Studenten@@": 9011, 
  "einhei@@": 9012, 
  "verantwortlichen": 9013, 
  "seri@@": 9014, 
  "fossiler": 9015, 
  "moder@@": 9016, 
  "schön": 9017, 
  "verkündet": 9018, 
  "warnen": 9019, 
  "katastrophalen": 9020, 
  "Koh@@": 9021, 
  "gescheiterte": 9022, 
  "mächten": 9023, 
  "Ges@@": 9024, 
  "Wind": 9025, 
  "aktivi@@": 9026, 
  "Bündnisse": 9027, 
  "Außenwelt": 9028, 
  "vorzubereiten": 9029, 
  "Geschäft@@": 9030, 
  "zentral@@": 9031, 
  "frucht@@": 9032, 
  "vorgenommen": 9033, 
  "bten": 9034, 
  "gelt": 9035, 
  "Hi@@": 9036, 
  "Hürden": 9037, 
  "dynamik": 9038, 
  "unterziehen": 9039, 
  "Hel@@": 9040, 
  "verständ@@": 9041, 
  "las@@": 9042, 
  "Entfernung": 9043, 
  "Strich": 9044, 
  "э@@": 9045, 
  "vorhersagen": 9046, 
  "Seele": 9047, 
  "öpf@@": 9048, 
  "Iraks": 9049, 
  "sichert": 9050, 
  "Landschaft": 9051, 
  "Verlängerung": 9052, 
  "eck": 9053, 
  "ungewiss": 9054, 
  "ausgeglichenen": 9055, 
  "schreck@@": 9056, 
  "Gen": 9057, 
  "prognostiziert": 9058, 
  "Board": 9059, 
  "Oberste": 9060, 
  "exzessive": 9061, 
  "biologischen": 9062, 
  "8.": 9063, 
  "Fairness": 9064, 
  "auszuschließen": 9065, 
  "kooper@@": 9066, 
  "Che@@": 9067, 
  "Armenien": 9068, 
  "Vide@@": 9069, 
  "präsentierte": 9070, 
  "politi@@": 9071, 
  "Verträgen": 9072, 
  "dazu@@": 9073, 
  "wen": 9074, 
  "ak": 9075, 
  "erischer": 9076, 
  "Blo@@": 9077, 
  "1960": 9078, 
  "schlimm": 9079, 
  "Gemü@@": 9080, 
  "hän@@": 9081, 
  "agiert": 9082, 
  "dynamischen": 9083, 
  "stern": 9084, 
  "langjährige": 9085, 
  "vorherigen": 9086, 
  "Versöhnung": 9087, 
  "alisi@@": 9088, 
  "ärmer": 9089, 
  "Vietnam@@": 9090, 
  "Antisemitismus": 9091, 
  "Angestellten": 9092, 
  "Ra@@": 9093, 
  "brutal": 9094, 
  "Südossetien": 9095, 
  "parlamentarischen": 9096, 
  "sur@@": 9097, 
  "klug": 9098, 
  "gespräche": 9099, 
  "unterstreichen": 9100, 
  "Feld": 9101, 
  "Norm": 9102, 
  "vit@@": 9103, 
  "arti@@": 9104, 
  "überwältigende": 9105, 
  "Mel@@": 9106, 
  "Schmerz": 9107, 
  "grundlage": 9108, 
  "Abchasien": 9109, 
  "Geduld": 9110, 
  "zun@@": 9111, 
  "Erste": 9112, 
  "Nigerias": 9113, 
  "zielt": 9114, 
  "Formel": 9115, 
  "Bomben": 9116, 
  "korrupt": 9117, 
  "zusamment@@": 9118, 
  "durchzu@@": 9119, 
  "vornehmen": 9120, 
  "16.": 9121, 
  "Arzt": 9122, 
  "viertens": 9123, 
  "hinein": 9124, 
  "Tode": 9125, 
  "Unterscheidung": 9126, 
  "untermauern": 9127, 
  "stattfindenden": 9128, 
  "stätigkeit": 9129, 
  "Anwesenheit": 9130, 
  "Bestände": 9131, 
  "Twitter": 9132, 
  "ordnete": 9133, 
  "ressourcen": 9134, 
  "Stimmen@@": 9135, 
  "waffen@@": 9136, 
  "verstärk@@": 9137, 
  "Hollande": 9138, 
  "Mal@@": 9139, 
  "System@@": 9140, 
  "kluge": 9141, 
  "Jiabao": 9142, 
  "bewirkt": 9143, 
  "rän@@": 9144, 
  "Türen": 9145, 
  "erschüt@@": 9146, 
  "Plat@@": 9147, 
  "Netz@@": 9148, 
  "territoriale": 9149, 
  "Ap@@": 9150, 
  "beher@@": 9151, 
  "feste": 9152, 
  "aufnahme": 9153, 
  "Arme": 9154, 
  "befrie@@": 9155, 
  "flich": 9156, 
  "7,@@": 9157, 
  "Halb@@": 9158, 
  "Vormarsch": 9159, 
  "Ethik": 9160, 
  "öhnen": 9161, 
  "Kuwait": 9162, 
  "bewusste": 9163, 
  "beamten": 9164, 
  "vereini@@": 9165, 
  "atives": 9166, 
  "physische": 9167, 
  "regi@@": 9168, 
  "ci@@": 9169, 
  "este": 9170, 
  "leuten": 9171, 
  "chefs": 9172, 
  "fallende": 9173, 
  "Schi@@": 9174, 
  "Stahl@@": 9175, 
  "bürgerlichen": 9176, 
  "UN@@": 9177, 
  "Spi@@": 9178, 
  "Offiziere": 9179, 
  "ermöglichten": 9180, 
  "Wiederauf@@": 9181, 
  "hieß": 9182, 
  "Neuausrichtung": 9183, 
  "lindern": 9184, 
  "Verschwörung": 9185, 
  "wahrnehmen": 9186, 
  "bitten": 9187, 
  "Michael": 9188, 
  "gre@@": 9189, 
  "Istanbul": 9190, 
  "Minimum": 9191, 
  "machbar": 9192, 
  "fungieren": 9193, 
  "hochentwickelten": 9194, 
  "Brücke": 9195, 
  "angemessener": 9196, 
  "utz@@": 9197, 
  "Komponenten": 9198, 
  "schlossen": 9199, 
  "Kreisen": 9200, 
  "Tschechoslowakei": 9201, 
  "schadet": 9202, 
  "platz": 9203, 
  "Stre@@": 9204, 
  "Unruhe": 9205, 
  "kurzfristiger": 9206, 
  "Vorfahren": 9207, 
  "31": 9208, 
  "Liber@@": 9209, 
  "geeignete": 9210, 
  "Erschütterungen": 9211, 
  "verpflich@@": 9212, 
  "sinn": 9213, 
  "ergänzen": 9214, 
  "ausbildung": 9215, 
  "ökologische": 9216, 
  "Jugendlichen": 9217, 
  "porte": 9218, 
  "swert": 9219, 
  "vernichten": 9220, 
  "satzes": 9221, 
  "naiv": 9222, 
  "soziales": 9223, 
  "schätzungsweise": 9224, 
  "trags@@": 9225, 
  "instabil": 9226, 
  "Verein@@": 9227, 
  "schicht": 9228, 
  "rassi@@": 9229, 
  "genetisch": 9230, 
  "befürwortet": 9231, 
  "bereitzustellen": 9232, 
  "verschlechtern": 9233, 
  "Rice": 9234, 
  "Moskauer": 9235, 
  "Liberalismus": 9236, 
  "gkeits@@": 9237, 
  "Behandlungs@@": 9238, 
  "ч@@": 9239, 
  "Haft": 9240, 
  "Investmentbanken": 9241, 
  "illegal": 9242, 
  "steigert": 9243, 
  "Start": 9244, 
  "signalisieren": 9245, 
  "Nahe": 9246, 
  "konventionelle": 9247, 
  "Zentralbanker": 9248, 
  "sperren": 9249, 
  "Dienst@@": 9250, 
  "Motto": 9251, 
  "Ausübung": 9252, 
  "Rich@@": 9253, 
  "geboten": 9254, 
  "zentr@@": 9255, 
  "heimlich": 9256, 
  "fizierte": 9257, 
  "Misere": 9258, 
  "Hab@@": 9259, 
  "koordinieren": 9260, 
  "brauchte": 9261, 
  "gewissem": 9262, 
  "Bilanz@@": 9263, 
  "blick": 9264, 
  "IF@@": 9265, 
  "Rassismus": 9266, 
  "mak@@": 9267, 
  "stritten": 9268, 
  "Mün@@": 9269, 
  "Les@@": 9270, 
  "Tätigkeit": 9271, 
  "ehrt": 9272, 
  "angelegt": 9273, 
  "School": 9274, 
  "Anleihen@@": 9275, 
  "vertei@@": 9276, 
  "gestaltung": 9277, 
  "nationales": 9278, 
  "unterhalb": 9279, 
  "zweites": 9280, 
  "Oxford": 9281, 
  "Auslandsinvestitionen": 9282, 
  "revolutionäre": 9283, 
  "vorgesch@@": 9284, 
  "Brutto@@": 9285, 
  "Ratifizierung": 9286, 
  "einzurichten": 9287, 
  "vollem": 9288, 
  "Monarchie": 9289, 
  "ehrgeizige": 9290, 
  "sache": 9291, 
  "Beobachtung": 9292, 
  "zwischen@@": 9293, 
  "Defizits": 9294, 
  "belast@@": 9295, 
  "sturz": 9296, 
  "hochrangigen": 9297, 
  "seite": 9298, 
  "wä@@": 9299, 
  "schrecklichen": 9300, 
  "Enron": 9301, 
  "Zelle": 9302, 
  "britischer": 9303, 
  "Bed@@": 9304, 
  "neuem": 9305, 
  "Win@@": 9306, 
  "pflanzen": 9307, 
  "koordinierte": 9308, 
  "Raf@@": 9309, 
  "Schlag@@": 9310, 
  "schlag@@": 9311, 
  "Einkommensverteilung": 9312, 
  "stadt": 9313, 
  "erweiterte": 9314, 
  "fter": 9315, 
  "problemati@@": 9316, 
  "HAVEN": 9317, 
  "stal@@": 9318, 
  "lehr@@": 9319, 
  "expan@@": 9320, 
  "vorherzusagen": 9321, 
  "Identitäten": 9322, 
  "Haushaltsdefizits": 9323, 
  "ärkte": 9324, 
  "Spekulationen": 9325, 
  "Globalisierungs@@": 9326, 
  "Werbung": 9327, 
  "Tau@@": 9328, 
  "kunden": 9329, 
  "haushaltspolitische": 9330, 
  "gesucht": 9331, 
  "auseinander@@": 9332, 
  "ernsthafter": 9333, 
  "Betrachtung": 9334, 
  "€": 9335, 
  "vorhersehbar": 9336, 
  "tiver": 9337, 
  "zulegen": 9338, 
  "Umstand": 9339, 
  "Sex": 9340, 
  "verband": 9341, 
  "konjunk@@": 9342, 
  "Freude": 9343, 
  "endere": 9344, 
  "vorgeschlagene": 9345, 
  "seither": 9346, 
  "dex": 9347, 
  "großzügig": 9348, 
  "cks": 9349, 
  "Zyklus": 9350, 
  "aggressiven": 9351, 
  "Rückzahlung": 9352, 
  "1950": 9353, 
  "Monats": 9354, 
  "unzähligen": 9355, 
  "Verteidigungspolitik": 9356, 
  "digungen": 9357, 
  "ausgegangen": 9358, 
  "Nation@@": 9359, 
  "flori@@": 9360, 
  "unterschieden": 9361, 
  "Vorgaben": 9362, 
  "gebildete": 9363, 
  "rieben": 9364, 
  "ablen": 9365, 
  "Ji@@": 9366, 
  "dementsprechend": 9367, 
  "minimieren": 9368, 
  "Parallelen": 9369, 
  "tos": 9370, 
  "zweifeln": 9371, 
  "normal": 9372, 
  "Schwung": 9373, 
  "fizierten": 9374, 
  "menschliches": 9375, 
  "Unterernährung": 9376, 
  "Handelsliberalisierung": 9377, 
  "Ruder": 9378, 
  "abstra@@": 9379, 
  "wozu": 9380, 
  "dreimal": 9381, 
  "tur": 9382, 
  "leitet": 9383, 
  "klares": 9384, 
  "Übergangsphase": 9385, 
  "einleiten": 9386, 
  "Gemeinwesen": 9387, 
  "Franklin": 9388, 
  "einzuräumen": 9389, 
  "ansieht": 9390, 
  "gemeint": 9391, 
  "vielversprech@@": 9392, 
  "Malari@@": 9393, 
  "Großunternehmen": 9394, 
  "greifenden": 9395, 
  "Gleichgewichts": 9396, 
  "Post@@": 9397, 
  "integrierten": 9398, 
  "digungs@@": 9399, 
  "Rennen": 9400, 
  "pläne": 9401, 
  "georgischen": 9402, 
  "Führers": 9403, 
  "regierende": 9404, 
  "bös@@": 9405, 
  "einkommens": 9406, 
  "triebenen": 9407, 
  "Projekten": 9408, 
  "einseitige": 9409, 
  "neueren": 9410, 
  "Faschismus": 9411, 
  "nirgends": 9412, 
  "ini": 9413, 
  "gelei@@": 9414, 
  "Regulierungen": 9415, 
  "wem": 9416, 
  "ank": 9417, 
  "geordnete": 9418, 
  "Atomkraft": 9419, 
  "Sel@@": 9420, 
  "Finanzwelt": 9421, 
  "Schließung": 9422, 
  "optimistisch": 9423, 
  "beru@@": 9424, 
  "Betriebs@@": 9425, 
  "Stalins": 9426, 
  "fr@@": 9427, 
  "Haushaltsdisziplin": 9428, 
  "haftigkeit": 9429, 
  "Verrat": 9430, 
  "Bestreben": 9431, 
  "of@@": 9432, 
  "Besitz@@": 9433, 
  "gestorben": 9434, 
  "Wolfowitz": 9435, 
  "Kulturrevolution": 9436, 
  "Urbanisierung": 9437, 
  "zieren": 9438, 
  "Kroatien": 9439, 
  "etablierte": 9440, 
  "harter": 9441, 
  "essen@@": 9442, 
  "andauernde": 9443, 
  "Haushalts": 9444, 
  "änderung": 9445, 
  "Redefreiheit": 9446, 
  "Cou@@": 9447, 
  "Ayatollah": 9448, 
  "listen": 9449, 
  "wick@@": 9450, 
  "thilfe": 9451, 
  "beeindruckende": 9452, 
  "aufbringen": 9453, 
  "Höhen": 9454, 
  "dierten": 9455, 
  "Zus@@": 9456, 
  "fenden": 9457, 
  "Teams": 9458, 
  "Nachdruck": 9459, 
  "Rein@@": 9460, 
  "geldern": 9461, 
  "beizu@@": 9462, 
  "teter": 9463, 
  "aussichts@@": 9464, 
  "Gestalt": 9465, 
  "Enttäuschung": 9466, 
  "längeren": 9467, 
  "Sparpolitik": 9468, 
  "glicher": 9469, 
  "inhaftiert": 9470, 
  "geres": 9471, 
  "änden": 9472, 
  "schm@@": 9473, 
  "Yukos": 9474, 
  "bemerkte": 9475, 
  "Augen@@": 9476, 
  "wander@@": 9477, 
  "Kohlenstoffemissionen": 9478, 
  "wäl@@": 9479, 
  "modernisieren": 9480, 
  "annehm@@": 9481, 
  "wahrschein@@": 9482, 
  "konstruktive": 9483, 
  "Trau@@": 9484, 
  "leugnen": 9485, 
  "finanz@@": 9486, 
  "fis@@": 9487, 
  "unkte": 9488, 
  "Pa@@": 9489, 
  "veröffentlichen": 9490, 
  "Geheimdienst@@": 9491, 
  "Yorker": 9492, 
  "exzessiven": 9493, 
  "Schuldner": 9494, 
  "kontrollierte": 9495, 
  "dicht": 9496, 
  "Industri@@": 9497, 
  "herbeigeführt": 9498, 
  "renden": 9499, 
  "Quart@@": 9500, 
  "stärke": 9501, 
  "Eng@@": 9502, 
  "transparent": 9503, 
  "typischen": 9504, 
  "bor@@": 9505, 
  "präzise": 9506, 
  "bestätigte": 9507, 
  "bewahrt": 9508, 
  "Kunst@@": 9509, 
  "13@@": 9510, 
  "tauschen": 9511, 
  "nisses": 9512, 
  "ga": 9513, 
  "Mannschaft": 9514, 
  "Beleg": 9515, 
  "Beschreibung": 9516, 
  "Kompetenzen": 9517, 
  "interessen": 9518, 
  "orte": 9519, 
  "lus@@": 9520, 
  "Stiftung": 9521, 
  "Gerichtsverfahren": 9522, 
  "wü@@": 9523, 
  "serbische": 9524, 
  "Vakuum": 9525, 
  "Tat@@": 9526, 
  "russisch": 9527, 
  "Leistungsfähigkeit": 9528, 
  "Kleinbauern": 9529, 
  "günstig": 9530, 
  "Nachkriegs@@": 9531, 
  "schwieri@@": 9532, 
  "Rohstoffen": 9533, 
  "multinationale": 9534, 
  "erstellen": 9535, 
  "Handelsbilanz": 9536, 
  "angebracht": 9537, 
  "wesentlicher": 9538, 
  "ßer": 9539, 
  "verarmten": 9540, 
  "Verbündeter": 9541, 
  "Obasanjo": 9542, 
  "Fel@@": 9543, 
  "jemandem": 9544, 
  "neben@@": 9545, 
  "lichkeits@@": 9546, 
  "beunruhi@@": 9547, 
  "legitimen": 9548, 
  "hil@@": 9549, 
  "verbin@@": 9550, 
  "zte": 9551, 
  "Rüstungs@@": 9552, 
  "Dörfer": 9553, 
  "halb@@": 9554, 
  "grundsätzliche": 9555, 
  "Verantwortlichkeiten": 9556, 
  "studi@@": 9557, 
  "potenzial": 9558, 
  "dringen": 9559, 
  "abnehmen": 9560, 
  "intensi@@": 9561, 
  "Kürze": 9562, 
  "bungen": 9563, 
  "gebenden": 9564, 
  "Lügen": 9565, 
  "Kontroversen": 9566, 
  "funk@@": 9567, 
  "ehemals": 9568, 
  "importieren": 9569, 
  "Business": 9570, 
  "sierungs@@": 9571, 
  "bewähr@@": 9572, 
  "zeichen": 9573, 
  "argentinische": 9574, 
  "ame": 9575, 
  "Vertretung": 9576, 
  "Wertschöpfung": 9577, 
  "Diversifizierung": 9578, 
  "Gegengewicht": 9579, 
  "festigen": 9580, 
  "onen@@": 9581, 
  "Hatoyama": 9582, 
  "vorne": 9583, 
  "q@@": 9584, 
  "Impuls": 9585, 
  "Feinden": 9586, 
  "erfunden": 9587, 
  "absichtlich": 9588, 
  "ва@@": 9589, 
  "Zivilbevölkerung": 9590, 
  "Bahn": 9591, 
  "Tschechischen": 9592, 
  "unterliegt": 9593, 
  "Konkurrenten": 9594, 
  "halfen": 9595, 
  "beharren": 9596, 
  "Kreditwürdigkeit": 9597, 
  "stößt": 9598, 
  "Verteidigungsausgaben": 9599, 
  "gesteigert": 9600, 
  "Spenden": 9601, 
  "zweifelhaft": 9602, 
  "zählung": 9603, 
  "Genuss": 9604, 
  "Weltgesundheitsorganisation": 9605, 
  "charakter@@": 9606, 
  "Besatzungs@@": 9607, 
  "vorzustellen": 9608, 
  "isolieren": 9609, 
  "fes@@": 9610, 
  "beharr@@": 9611, 
  "Materialien": 9612, 
  "Gegenreaktion": 9613, 
  "wahl": 9614, 
  "sa": 9615, 
  "intensive": 9616, 
  "täuschen": 9617, 
  "ziel": 9618, 
  "unterhalten": 9619, 
  "pflich@@": 9620, 
  "jüngere": 9621, 
  "muslimischer": 9622, 
  "imperi@@": 9623, 
  "produktiven": 9624, 
  "Golfstaaten": 9625, 
  "langwieri@@": 9626, 
  "verweigern": 9627, 
  "kämpfte": 9628, 
  "gas": 9629, 
  "beizubehalten": 9630, 
  "Nizza": 9631, 
  "dauer": 9632, 
  "ört": 9633, 
  "Thomas": 9634, 
  "eigen": 9635, 
  "ursprüngliche": 9636, 
  "bro@@": 9637, 
  "hervorzubringen": 9638, 
  "3.": 9639, 
  "saudische": 9640, 
  "abi@@": 9641, 
  "ay": 9642, 
  "Paket": 9643, 
  "Wenn": 9644, 
  "ähneln": 9645, 
  "versagen": 9646, 
  "Genfer": 9647, 
  "reduzierung": 9648, 
  "gesundheitlichen": 9649, 
  "Sicherheitsfragen": 9650, 
  "K": 9651, 
  "Darstellung": 9652, 
  "mexikanische": 9653, 
  "Prote@@": 9654, 
  "Geber": 9655, 
  "qualität": 9656, 
  "Befreiungs@@": 9657, 
  "rücksichts@@": 9658, 
  "250": 9659, 
  "reformiert": 9660, 
  "gebende": 9661, 
  "betrieb": 9662, 
  "unbekannt": 9663, 
  "Tiefe": 9664, 
  "ufen": 9665, 
  "wissen@@": 9666, 
  "че@@": 9667, 
  "FDI": 9668, 
  "Ton": 9669, 
  "sinnlos": 9670, 
  "graus@@": 9671, 
  "Premier": 9672, 
  "Oppositions@@": 9673, 
  "vage": 9674, 
  "speziell": 9675, 
  "Anlei@@": 9676, 
  "37": 9677, 
  "Musik": 9678, 
  "technischer": 9679, 
  "einigermaßen": 9680, 
  "zierte": 9681, 
  "od@@": 9682, 
  "entschlossen@@": 9683, 
  "momentane": 9684, 
  "währ@@": 9685, 
  "verblüff@@": 9686, 
  "ternden": 9687, 
  "Zell@@": 9688, 
  "Ausbeutung": 9689, 
  "Alters@@": 9690, 
  "Tourismus": 9691, 
  "zent@@": 9692, 
  "Beliebtheit": 9693, 
  "kleines": 9694, 
  "nei@@": 9695, 
  "geringerem": 9696, 
  "Polit@@": 9697, 
  "Unterzeichnung": 9698, 
  "Vorgän@@": 9699, 
  "ürz@@": 9700, 
  "ampnbsp": 9701, 
  "si": 9702, 
  "bigen": 9703, 
  "regelmäßigen": 9704, 
  "Erfindung": 9705, 
  "lass": 9706, 
  "entes": 9707, 
  "Forsch@@": 9708, 
  "erstaun@@": 9709, 
  "abe": 9710, 
  "steuert": 9711, 
  "zten": 9712, 
  "verteidigt": 9713, 
  "kritisch": 9714, 
  "Belohnung": 9715, 
  "Analogie": 9716, 
  "Organe": 9717, 
  "Wertes": 9718, 
  "Dokumente": 9719, 
  "bender": 9720, 
  "Einladung": 9721, 
  "umge@@": 9722, 
  "Inflationserwartungen": 9723, 
  "traumati@@": 9724, 
  "orthodoxen": 9725, 
  "Kommunen": 9726, 
  "Sparer": 9727, 
  "36": 9728, 
  "deutlichen": 9729, 
  "hung@@": 9730, 
  "Goldstandard": 9731, 
  "plötzliche": 9732, 
  "Revolutions@@": 9733, 
  "arische": 9734, 
  "Weltgemeinschaft": 9735, 
  "Aufruhr": 9736, 
  "beiseite": 9737, 
  "Freiheits@@": 9738, 
  "fal@@": 9739, 
  "Kilometer": 9740, 
[...]
