{
  "eos": 0, 
  "UNK": 1, 
  "the": 2, 
  ",": 3, 
  ".": 4, 
  "of": 5, 
  "to": 6, 
  "and": 7, 
  "in": 8, 
  "a": 9, 
  "that": 10, 
  "is": 11, 
  "&apos;s": 12, 
  "for": 13, 
  "as": 14, 
  "it": 15, 
  "be": 16, 
  "are": 17, 
  "not": 18, 
  "on": 19, 
  "with": 20, 
  "but": 21, 
  "-": 22, 
  "by": 23, 
  "&apos;&apos;": 24, 
  "have": 25, 
  "has": 26, 
  "this": 27, 
  "will": 28, 
  "``": 29, 
  "from": 30, 
  "their": 31, 
  "its": 32, 
  "an": 33, 
  "more": 34, 
  "was": 35, 
  "they": 36, 
  "at": 37, 
  "or": 38, 
  "would": 39, 
  "can": 40, 
  "countries": 41, 
  "US": 42, 
  "which": 43, 
  "than": 44, 
  "world": 45, 
  "if": 46, 
  "we": 47, 
  "all": 48, 
  "one": 49, 
  "-RRB-": 50, 
  "-LRB-": 51, 
  "been": 52, 
  "so": 53, 
  "only": 54, 
  "China": 55, 
  "economic": 56, 
  "his": 57, 
  "new": 58, 
  ":": 59, 
  "there": 60, 
  "government": 61, 
  "no": 62, 
  "other": 63, 
  "political": 64, 
  "even": 65, 
  "about": 66, 
  "%": 67, 
  "should": 68, 
  "when": 69, 
  "such": 70, 
  "who": 71, 
  "were": 72, 
  "now": 73, 
  "also": 74, 
  "Europe": 75, 
  "these": 76, 
  "most": 77, 
  "what": 78, 
  "people": 79, 
  "many": 80, 
  ";": 81, 
  "he": 82, 
  "some": 83, 
  "do": 84, 
  "could": 85, 
  "global": 86, 
  "?": 87, 
  "years": 88, 
  "European": 89, 
  "financial": 90, 
  "country": 91, 
  "growth": 92, 
  "because": 93, 
  "must": 94, 
  "into": 95, 
  "may": 96, 
  "America": 97, 
  "had": 98, 
  "much": 99, 
  "power": 100, 
  "over": 101, 
  "time": 102, 
  "them": 103, 
  "economy": 104, 
  "policy": 105, 
  "out": 106, 
  "while": 107, 
  "between": 108, 
  "after": 109, 
  "up": 110, 
  "those": 111, 
  "like": 112, 
  "EU": 113, 
  "Russia": 114, 
  "I": 115, 
  "crisis": 116, 
  "our": 117, 
  "international": 118, 
  "first": 119, 
  "two": 120, 
  "any": 121, 
  "public": 122, 
  "both": 123, 
  "well": 124, 
  "how": 125, 
  "against": 126, 
  "indeed": 127, 
  "today": 128, 
  "way": 129, 
  "system": 130, 
  "United": 131, 
  "year": 132, 
  "state": 133, 
  "need": 134, 
  "market": 135, 
  "too": 136, 
  "American": 137, 
  "less": 138, 
  "make": 139, 
  "military": 140, 
  "just": 141, 
  "markets": 142, 
  "own": 143, 
  "change": 144, 
  "does": 145, 
  "become": 146, 
  "since": 147, 
  "last": 148, 
  "war": 149, 
  "where": 150, 
  "debt": 151, 
  "leaders": 152, 
  "s": 153, 
  "national": 154, 
  "support": 155, 
  "$": 156, 
  "trade": 157, 
  "-@@": 158, 
  "yet": 159, 
  "President": 160, 
  "governments": 161, 
  "still": 162, 
  "banks": 163, 
  "long": 164, 
  "without": 165, 
  "far": 166, 
  "un@@": 167, 
  "foreign": 168, 
  "being": 169, 
  "same": 170, 
  "might": 171, 
  "did": 172, 
  "future": 173, 
  "important": 174, 
  "example": 175, 
  "through": 176, 
  "rates": 177, 
  "recent": 178, 
  "then": 179, 
  "high": 180, 
  "social": 181, 
  "Japan": 182, 
  "interest": 183, 
  "policies": 184, 
  "Chinese": 185, 
  "States": 186, 
  "Iraq": 187, 
  "real": 188, 
  "n&apos;t": 189, 
  "Israel": 190, 
  "under": 191, 
  "end": 192, 
  "made": 193, 
  "India": 194, 
  "security": 195, 
  "re@@": 196, 
  "current": 197, 
  "good": 198, 
  "capital": 199, 
  "fiscal": 200, 
  "likely": 201, 
  "democracy": 202, 
  "right": 203, 
  "take": 204, 
  "prices": 205, 
  "human": 206, 
  "large": 207, 
  "course": 208, 
  "before": 209, 
  "part": 210, 
  "states": 211, 
  "nuclear": 212, 
  "rather": 213, 
  "rate": 214, 
  "very": 215, 
  "work": 216, 
  "development": 217, 
  "use": 218, 
  "Germany": 219, 
  "problem": 220, 
  "another": 221, 
  "investment": 222, 
  "past": 223, 
  "us": 224, 
  "however": 225, 
  "better": 226, 
  "energy": 227, 
  "Bush": 228, 
  "Iran": 229, 
  "risk": 230, 
  "often": 231, 
  "Union": 232, 
  "major": 233, 
  "during": 234, 
  "oil": 235, 
  "including": 236, 
  "result": 237, 
  "you": 238, 
  "help": 239, 
  "why": 240, 
  "billion": 241, 
  "problems": 242, 
  "fact": 243, 
  "institutions": 244, 
  "order": 245, 
  "thus": 246, 
  "three": 247, 
  "money": 248, 
  "economies": 249, 
  "moreover": 250, 
  "few": 251, 
  "able": 252, 
  "whether": 253, 
  "little": 254, 
  "among": 255, 
  "around": 256, 
  "Obama": 257, 
  "poor": 258, 
  "West": 259, 
  "--": 260, 
  "rights": 261, 
  "East": 262, 
  "given": 263, 
  "tax": 264, 
  "France": 265, 
  "down": 266, 
  "means": 267, 
  "process": 268, 
  "role": 269, 
  "region": 270, 
  "back": 271, 
  "developing": 272, 
  "ed": 273, 
  "others": 274, 
  "already": 275, 
  "Bank": 276, 
  "members": 277, 
  "different": 278, 
  "second": 279, 
  "GDP": 280, 
  "increase": 281, 
  "central": 282, 
  "reform": 283, 
  "case": 284, 
  "demand": 285, 
  "spending": 286, 
  "higher": 287, 
  "within": 288, 
  "ing": 289, 
  "democratic": 290, 
  "least": 291, 
  "Asia": 292, 
  "clear": 293, 
  "needs": 294, 
  "come": 295, 
  "ago": 296, 
  "private": 297, 
  "almost": 298, 
  "next": 299, 
  "law": 300, 
  "life": 301, 
  "led": 302, 
  "million": 303, 
  "each": 304, 
  "itself": 305, 
  "peace": 306, 
  "never": 307, 
  "needed": 308, 
  "point": 309, 
  "&amp;": 310, 
  "in@@": 311, 
  "strong": 312, 
  "domestic": 313, 
  "history": 314, 
  "greater": 315, 
  "inflation": 316, 
  "price": 317, 
  "society": 318, 
  "perhaps": 319, 
  "remains": 320, 
  "seems": 321, 
  "World": 322, 
  "regime": 323, 
  "free": 324, 
  "women": 325, 
  "costs": 326, 
  "income": 327, 
  "control": 328, 
  "Africa": 329, 
  "despite": 330, 
  "remain": 331, 
  "health": 332, 
  "see": 333, 
  "once": 334, 
  "interests": 335, 
  "continue": 336, 
  "put": 337, 
  "currency": 338, 
  "administration": 339, 
  "climate": 340, 
  "politics": 341, 
  "force": 342, 
  "used": 343, 
  "every": 344, 
  "especially": 345, 
  "French": 346, 
  "possible": 347, 
  "rise": 348, 
  "IMF": 349, 
  "off": 350, 
  "common": 351, 
  "further": 352, 
  "growing": 353, 
  "want": 354, 
  "say": 355, 
  "themselves": 356, 
  "best": 357, 
  "euro": 358, 
  "UN": 359, 
  "population": 360, 
  "difficult": 361, 
  "level": 362, 
  "former": 363, 
  "great": 364, 
  "number": 365, 
  "president": 366, 
  "Arab": 367, 
  "The": 368, 
  "place": 369, 
  "es": 370, 
  "Western": 371, 
  "get": 372, 
  "him": 373, 
  "true": 374, 
  "set": 375, 
  "election": 376, 
  "longer": 377, 
  "enough": 378, 
  "question": 379, 
  "recently": 380, 
  "go": 381, 
  "forces": 382, 
  "based": 383, 
  "resources": 384, 
  "Turkey": 385, 
  "Putin": 386, 
  "eurozone": 387, 
  "dollar": 388, 
  "instead": 389, 
  "business": 390, 
  "decades": 391, 
  "companies": 392, 
  "my": 393, 
  "believe": 394, 
  "small": 395, 
  "member": 396, 
  "South": 397, 
  "again": 398, 
  "though": 399, 
  "monetary": 400, 
  "sense": 401, 
  "provide": 402, 
  "century": 403, 
  "citizens": 404, 
  "Russian": 405, 
  "ever": 406, 
  "key": 407, 
  "stability": 408, 
  "know": 409, 
  "lead": 410, 
  "face": 411, 
  "efforts": 412, 
  "issues": 413, 
  "old": 414, 
  "left": 415, 
  "unemployment": 416, 
  "rule": 417, 
  "Americans": 418, 
  "sector": 419, 
  "long-term": 420, 
  "benefits": 421, 
  "terms": 422, 
  "serious": 423, 
  "Middle": 424, 
  "cost": 425, 
  "reforms": 426, 
  "Korea": 427, 
  "view": 428, 
  "leadership": 429, 
  "simply": 430, 
  "early": 431, 
  "always": 432, 
  "War": 433, 
  "making": 434, 
  "rich": 435, 
  "per": 436, 
  "low": 437, 
  "issue": 438, 
  "education": 439, 
  "reduce": 440, 
  "exchange": 441, 
  "labor": 442, 
  "until": 443, 
  "elections": 444, 
  "although": 445, 
  "party": 446, 
  "big": 447, 
  "Palestinian": 448, 
  "increasingly": 449, 
  "find": 450, 
  "particularly": 451, 
  "reason": 452, 
  "ated": 453, 
  "poverty": 454, 
  "research": 455, 
  "hard": 456, 
  "North": 457, 
  "value": 458, 
  "times": 459, 
  "regional": 460, 
  "community": 461, 
  "local": 462, 
  "workers": 463, 
  "budget": 464, 
  "home": 465, 
  "relations": 466, 
  "strategy": 467, 
  "credit": 468, 
  "said": 469, 
  "investors": 470, 
  "emerging": 471, 
  "politicians": 472, 
  "conflict": 473, 
  "bank": 474, 
  "children": 475, 
  "deficit": 476, 
  "decade": 477, 
  "lower": 478, 
  "her": 479, 
  "parties": 480, 
  "turn": 481, 
  "whose": 482, 
  "run": 483, 
  "Council": 484, 
  "day": 485, 
  "approach": 486, 
  "ate": 487, 
  "al": 488, 
  "create": 489, 
  "open": 490, 
  "risks": 491, 
  "effective": 492, 
  "services": 493, 
  "action": 494, 
  "finance": 495, 
  "several": 496, 
  "form": 497, 
  "Minister": 498, 
  "non-@@": 499, 
  "fall": 500, 
  "share": 501, 
  "ways": 502, 
  "c@@": 503, 
  "together": 504, 
  "increased": 505, 
  "think": 506, 
  "jobs": 507, 
  "violence": 508, 
  "rising": 509, 
  "developed": 510, 
  "Party": 511, 
  "levels": 512, 
  "hope": 513, 
  "pay": 514, 
  "ting": 515, 
  "similar": 516, 
  "groups": 517, 
  "ation": 518, 
  "seen": 519, 
  "potential": 520, 
  "opposition": 521, 
  "called": 522, 
  "information": 523, 
  "necessary": 524, 
  "NATO": 525, 
  "threat": 526, 
  "Afghanistan": 527, 
  "return": 528, 
  "officials": 529, 
  "done": 530, 
  "success": 531, 
  "seem": 532, 
  "toward": 533, 
  "nor": 534, 
  "Soviet": 535, 
  "measures": 536, 
  "weapons": 537, 
  "agreement": 538, 
  "across": 539, 
  "challenge": 540, 
  "Pakistan": 541, 
  "cause": 542, 
  "rules": 543, 
  "idea": 544, 
  "changes": 545, 
  "y": 546, 
  "deal": 547, 
  "failed": 548, 
  "ted": 549, 
  "lack": 550, 
  "short": 551, 
  "balance": 552, 
  "nothing": 553, 
  "recession": 554, 
  "failure": 555, 
  "majority": 556, 
  "according": 557, 
  "conditions": 558, 
  "taken": 559, 
  "Latin": 560, 
  "position": 561, 
  "firms": 562, 
  "ts": 563, 
  "rest": 564, 
  "half": 565, 
  "months": 566, 
  "powerful": 567, 
  "main": 568, 
  "British": 569, 
  "modern": 570, 
  "away": 571, 
  "influence": 572, 
  "er": 573, 
  "makes": 574, 
  "something": 575, 
  "became": 576, 
  "ating": 577, 
  "really": 578, 
  "beyond": 579, 
  "pressure": 580, 
  "20": 581, 
  "values": 582, 
  "production": 583, 
  "freedom": 584, 
  "food": 585, 
  "look": 586, 
  "group": 587, 
  "requires": 588, 
  "either": 589, 
  "debate": 590, 
  "young": 591, 
  "give": 592, 
  "term": 593, 
  "deficits": 594, 
  "huge": 595, 
  "systems": 596, 
  "technology": 597, 
  "fear": 598, 
  "here": 599, 
  "aid": 600, 
  "assets": 601, 
  "religious": 602, 
  "found": 603, 
  "bad": 604, 
  "leading": 605, 
  "civil": 606, 
  "created": 607, 
  "prevent": 608, 
  "increasing": 609, 
  "significant": 610, 
  "Europeans": 611, 
  "progress": 612, 
  "ability": 613, 
  "bring": 614, 
  "Central": 615, 
  "lost": 616, 
  "German": 617, 
  "age": 618, 
  "media": 619, 
  "ers": 620, 
  "having": 621, 
  "massive": 622, 
  "keep": 623, 
  "model": 624, 
  "water": 625, 
  "s@@": 626, 
  "strategic": 627, 
  "banking": 628, 
  "legal": 629, 
  "response": 630, 
  "areas": 631, 
  "program": 632, 
  "consider": 633, 
  "start": 634, 
  "Britain": 635, 
  "doing": 636, 
  "dis@@": 637, 
  "decline": 638, 
  "employment": 639, 
  "globalization": 640, 
  "leader": 641, 
  "natural": 642, 
  "play": 643, 
  "later": 644, 
  "five": 645, 
  "anti-@@": 646, 
  "1990": 647, 
  "access": 648, 
  "consequences": 649, 
  "matter": 650, 
  "ECB": 651, 
  "over@@": 652, 
  "single": 653, 
  "things": 654, 
  "exports": 655, 
  "impact": 656, 
  "official": 657, 
  "Ukraine": 658, 
  "challenges": 659, 
  "@/@": 660, 
  "corruption": 661, 
  "alone": 662, 
  "Greece": 663, 
  "situation": 664, 
  "advanced": 665, 
  "effect": 666, 
  "finally": 667, 
  "began": 668, 
  "move": 669, 
  "period": 670, 
  "ensure": 671, 
  "terrorism": 672, 
  "full": 673, 
  "probably": 674, 
  "presidential": 675, 
  "live": 676, 
  "four": 677, 
  "Muslim": 678, 
  "let": 679, 
  "2008": 680, 
  "Asian": 681, 
  "Prime": 682, 
  "late": 683, 
  "cooperation": 684, 
  "Italy": 685, 
  "consumption": 686, 
  "Commission": 687, 
  "worse": 688, 
  "average": 689, 
  "care": 690, 
  "defense": 691, 
  "soon": 692, 
  "clearly": 693, 
  "wealth": 694, 
  "individual": 695, 
  "close": 696, 
  "fundamental": 697, 
  "evidence": 698, 
  "de@@": 699, 
  "job": 700, 
  "behind": 701, 
  "#": 702, 
  "nations": 703, 
  "integration": 704, 
  "men": 705, 
  "total": 706, 
  "funds": 707, 
  "wrong": 708, 
  "effort": 709, 
  "10": 710, 
  "emissions": 711, 
  "require": 712, 
  "focus": 713, 
  "solution": 714, 
  "recovery": 715, 
  "lives": 716, 
  "goods": 717, 
  "effects": 718, 
  "Islamic": 719, 
  "opportunity": 720, 
  "confidence": 721, 
  "third": 722, 
  "programs": 723, 
  "taking": 724, 
  "popular": 725, 
  "hand": 726, 
  "experience": 727, 
  "side": 728, 
  "t": 729, 
  "Japanese": 730, 
  "taxes": 731, 
  "mean": 732, 
  "traditional": 733, 
  "p@@": 734, 
  "living": 735, 
  "collapse": 736, 
  "she": 737, 
  "cut": 738, 
  "science": 739, 
  "took": 740, 
  "Fund": 741, 
  "came": 742, 
  "capacity": 743, 
  "Egypt": 744, 
  "moral": 745, 
  "decision": 746, 
  "achieve": 747, 
  "man": 748, 
  "Israeli": 749, 
  "comes": 750, 
  "everyone": 751, 
  "gas": 752, 
  "allow": 753, 
  "powers": 754, 
  "Hamas": 755, 
  "act": 756, 
  "International": 757, 
  "vote": 758, 
  "attention": 759, 
  "coming": 760, 
  "S@@": 761, 
  "held": 762, 
  "working": 763, 
  "o": 764, 
  "largely": 765, 
  "hold": 766, 
  "understand": 767, 
  "t@@": 768, 
  "1": 769, 
  "following": 770, 
  "top": 771, 
  "Brazil": 772, 
  "Security": 773, 
  "particular": 774, 
  "avoid": 775, 
  "me": 776, 
  "using": 777, 
  "di@@": 778, 
  "largest": 779, 
  "campaign": 780, 
  "New": 781, 
  "negotiations": 782, 
  "Spain": 783, 
  "competition": 784, 
  "plan": 785, 
  "benefit": 786, 
  "e": 787, 
  "successful": 788, 
  "economists": 789, 
  "cases": 790, 
  "reality": 791, 
  "limited": 792, 
  "Palestinians": 793, 
  "ti@@": 794, 
  "y@@": 795, 
  "responsibility": 796, 
  "kind": 797, 
  "call": 798, 
  "line": 799, 
  "industrial": 800, 
  "above": 801, 
  "produce": 802, 
  "annual": 803, 
  "expected": 804, 
  "50": 805, 
  "reasons": 806, 
  "C@@": 807, 
  "supply": 808, 
  "actually": 809, 
  "outside": 810, 
  "basic": 811, 
  "decisions": 812, 
  "culture": 813, 
  "cuts": 814, 
  "infrastructure": 815, 
  "towards": 816, 
  "contrast": 817, 
  "status": 818, 
  "certain": 819, 
  "step": 820, 
  "show": 821, 
  "attacks": 822, 
  "brought": 823, 
  "o@@": 824, 
  "alternative": 825, 
  "known": 826, 
  "minister": 827, 
  "independent": 828, 
  "relative": 829, 
  "rapid": 830, 
  "ates": 831, 
  "self-@@": 832, 
  "governance": 833, 
  "relatively": 834, 
  "highly": 835, 
  "en@@": 836, 
  "death": 837, 
  "African": 838, 
  "stock": 839, 
  "accept": 840, 
  "ly": 841, 
  "thought": 842, 
  "con@@": 843, 
  "certainly": 844, 
  "Mexico": 845, 
  "30": 846, 
  "land": 847, 
  "general": 848, 
  "revolution": 849, 
  "address": 850, 
  "behavior": 851, 
  "productivity": 852, 
  "results": 853, 
  "family": 854, 
  "standards": 855, 
  "building": 856, 
  "de": 857, 
  "days": 858, 
  "bonds": 859, 
  "direct": 860, 
  "concerns": 861, 
  "authorities": 862, 
  "voters": 863, 
  "environment": 864, 
  "era": 865, 
  "weak": 866, 
  "fully": 867, 
  "words": 868, 
  "allowed": 869, 
  "environmental": 870, 
  "nearly": 871, 
  "Nations": 872, 
  "b@@": 873, 
  "elsewhere": 874, 
  "stimulus": 875, 
  "protect": 876, 
  "throughout": 877, 
  "sometimes": 878, 
  "agenda": 879, 
  "re-@@": 880, 
  "d@@": 881, 
  "neither": 882, 
  "build": 883, 
  "warming": 884, 
  "e@@": 885, 
  "fight": 886, 
  "appears": 887, 
  "scientific": 888, 
  "2": 889, 
  "unlikely": 890, 
  "structural": 891, 
  "creating": 892, 
  "respect": 893, 
  "helped": 894, 
  "forced": 895, 
  "Great": 896, 
  "independence": 897, 
  "deep": 898, 
  "easy": 899, 
  "investments": 900, 
  "intervention": 901, 
  "individuals": 902, 
  "larger": 903, 
  "crises": 904, 
  "due": 905, 
  "thing": 906, 
  "unfortunately": 907, 
  "answer": 908, 
  "2009": 909, 
  "nation": 910, 
  "meeting": 911, 
  "maintain": 912, 
  "caused": 913, 
  "stop": 914, 
  "millions": 915, 
  "industry": 916, 
  "2010": 917, 
  "dangerous": 918, 
  "news": 919, 
  "goal": 920, 
  "eventually": 921, 
  "argue": 922, 
  "insurance": 923, 
  "quickly": 924, 
  "societies": 925, 
  "cultural": 926, 
  "nbsp": 927, 
  "required": 928, 
  "movement": 929, 
  "ten": 930, 
  "commitment": 931, 
  "nature": 932, 
  "September": 933, 
  "f@@": 934, 
  "events": 935, 
  "becoming": 936, 
  "parts": 937, 
  "Syria": 938, 
  "turned": 939, 
  "merely": 940, 
  "housing": 941, 
  "ch@@": 942, 
  "reserves": 943, 
  "reducing": 944, 
  "followed": 945, 
  "established": 946, 
  "include": 947, 
  "claim": 948, 
  "th": 949, 
  "policymakers": 950, 
  "elected": 951, 
  "dollars": 952, 
  "union": 953, 
  "simple": 954, 
  "co@@": 955, 
  "therefore": 956, 
  "basis": 957, 
  "sure": 958, 
  "along": 959, 
  "outcome": 960, 
  "shift": 961, 
  "generation": 962, 
  "moment": 963, 
  "provided": 964, 
  "Argentina": 965, 
  "1980": 966, 
  "whole": 967, 
  "thinking": 968, 
  "ally": 969, 
  "offer": 970, 
  "owing": 971, 
  "external": 972, 
  "reach": 973, 
  "area": 974, 
  "li@@": 975, 
  "seek": 976, 
  "carbon": 977, 
  "report": 978, 
  "performance": 979, 
  "currently": 980, 
  "disease": 981, 
  "going": 982, 
  "g@@": 983, 
  "entire": 984, 
  "membership": 985, 
  "relationship": 986, 
  "mass": 987, 
  "Gaza": 988, 
  "beginning": 989, 
  "account": 990, 
  "liberal": 991, 
  "assistance": 992, 
  "organizations": 993, 
  "3": 994, 
  "similarly": 995, 
  "increases": 996, 
  "month": 997, 
  "meet": 998, 
  "choice": 999, 
  "a@@": 1000, 
  "police": 1001, 
  "feel": 1002, 
  "2000": 1003, 
  "George": 1004, 
  "terrorist": 1005, 
  "creation": 1006, 
  "attack": 1007, 
  "2001": 1008, 
  "your": 1009, 
  "London": 1010, 
  "questions": 1011, 
  "A@@": 1012, 
  "loss": 1013, 
  "recognize": 1014, 
  "internal": 1015, 
  "critical": 1016, 
  "ous": 1017, 
  "am": 1018, 
  "P@@": 1019, 
  "office": 1020, 
  "begin": 1021, 
  "wants": 1022, 
  "source": 1023, 
  "40": 1024, 
  "Treaty": 1025, 
  "chance": 1026, 
  "concern": 1027, 
  "ar@@": 1028, 
  "knowledge": 1029, 
  "economics": 1030, 
  "l@@": 1031, 
  "im@@": 1032, 
  "size": 1033, 
  "160": 1034, 
  "willing": 1035, 
  "regions": 1036, 
  "Washington": 1037, 
  "complex": 1038, 
  "regulation": 1039, 
  "institutional": 1040, 
  "N@@": 1041, 
  "sh@@": 1042, 
  "roughly": 1043, 
  "sustainable": 1044, 
  "authority": 1045, 
  "e-@@": 1046, 
  "Poland": 1047, 
  "zed": 1048, 
  "incentives": 1049, 
  "ties": 1050, 
  "ideas": 1051, 
  "improve": 1052, 
  "raise": 1053, 
  "Saudi": 1054, 
  "k": 1055, 
  "legitimacy": 1056, 
  "management": 1057, 
  "corporate": 1058, 
  "army": 1059, 
  "proposed": 1060, 
  "tion": 1061, 
  "grow": 1062, 
  "obvious": 1063, 
  "2007": 1064, 
  "trying": 1065, 
  "victory": 1066, 
  "talks": 1067, 
  "drug": 1068, 
  "positive": 1069, 
  "available": 1070, 
  "Islam": 1071, 
  "prime": 1072, 
  "principle": 1073, 
  "Sarkozy": 1074, 
  "products": 1075, 
  "Congress": 1076, 
  "impossible": 1077, 
  "essential": 1078, 
  "actions": 1079, 
  "personal": 1080, 
  "laws": 1081, 
  "politically": 1082, 
  "differences": 1083, 
  "historical": 1084, 
  "continued": 1085, 
  "path": 1086, 
  "anything": 1087, 
  "i@@": 1088, 
  "export": 1089, 
  "develop": 1090, 
  "under@@": 1091, 
  "savings": 1092, 
  "reduced": 1093, 
  "fail": 1094, 
  "summit": 1095, 
  "ans": 1096, 
  "promote": 1097, 
  "ations": 1098, 
  "ultimately": 1099, 
  "technologies": 1100, 
  "easily": 1101, 
  "vision": 1102, 
  "paid": 1103, 
  "capitalism": 1104, 
  "spread": 1105, 
  "ethnic": 1106, 
  "so-called": 1107, 
  "scale": 1108, 
  "damage": 1109, 
  "try": 1110, 
  "losses": 1111, 
  "st@@": 1112, 
  "appear": 1113, 
  "rapidly": 1114, 
  "opportunities": 1115, 
  "transition": 1116, 
  "head": 1117, 
  "understanding": 1118, 
  "changed": 1119, 
  "gain": 1120, 
  "unless": 1121, 
  "2005": 1122, 
  "Barack": 1123, 
  "factors": 1124, 
  "press": 1125, 
  "ri@@": 1126, 
  "L@@": 1127, 
  "w@@": 1128, 
  "al-@@": 1129, 
  "ahead": 1130, 
  "cities": 1131, 
  "saving": 1132, 
  "welfare": 1133, 
  "continues": 1134, 
  "justice": 1135, 
  "theory": 1136, 
  "boom": 1137, 
  "consensus": 1138, 
  "company": 1139, 
  "lending": 1140, 
  "E@@": 1141, 
  "opinion": 1142, 
  "le": 1143, 
  "aimed": 1144, 
  "2004": 1145, 
  "additional": 1146, 
  "matters": 1147, 
  "save": 1148, 
  "wars": 1149, 
  "core": 1150, 
  "Lebanon": 1151, 
  "M@@": 1152, 
  "v@@": 1153, 
  "competitive": 1154, 
  "suggests": 1155, 
  "Fed": 1156, 
  "himself": 1157, 
  "or@@": 1158, 
  "Muslims": 1159, 
  "II": 1160, 
  "special": 1161, 
  "an@@": 1162, 
  "forward": 1163, 
  "committed": 1164, 
  "11": 1165, 
  "15": 1166, 
  "Indian": 1167, 
  "sides": 1168, 
  "story": 1169, 
  "asset": 1170, 
  "be@@": 1171, 
  "seemed": 1172, 
  "protection": 1173, 
  "pre@@": 1174, 
  "trillion": 1175, 
  "quality": 1176, 
  "tions": 1177, 
  "25": 1178, 
  "troops": 1179, 
  "le@@": 1180, 
  "treatment": 1181, 
  "prosperity": 1182, 
  "extreme": 1183, 
  "stable": 1184, 
  "Kosovo": 1185, 
  "default": 1186, 
  "financing": 1187, 
  "on@@": 1188, 
  "demands": 1189, 
  "inequality": 1190, 
  "D@@": 1191, 
  "loans": 1192, 
  "Georgia": 1193, 
  "ant": 1194, 
  "Eastern": 1195, 
  "directly": 1196, 
  "constitution": 1197, 
  "follow": 1198, 
  "buy": 1199, 
  "5": 1200, 
  "output": 1201, 
  "various": 1202, 
  "diplomatic": 1203, 
  "responsible": 1204, 
  "asked": 1205, 
  "G@@": 1206, 
  "claims": 1207, 
  "agreed": 1208, 
  "class": 1209, 
  "allies": 1210, 
  "six": 1211, 
  "usually": 1212, 
  "started": 1213, 
  "National": 1214, 
  "immediate": 1215, 
  "vast": 1216, 
  "doubt": 1217, 
  "expect": 1218, 
  "net": 1219, 
  "present": 1220, 
  "steps": 1221, 
  "existing": 1222, 
  "leave": 1223, 
  "households": 1224, 
  "coalition": 1225, 
  "happened": 1226, 
  "whatever": 1227, 
  "Iraqi": 1228, 
  "H@@": 1229, 
  "importance": 1230, 
  "thousands": 1231, 
  "difference": 1232, 
  "d": 1233, 
  "democracies": 1234, 
  "upon": 1235, 
  "ordinary": 1236, 
  "presidency": 1237, 
  "happen": 1238, 
  "Federal": 1239, 
  "reduction": 1240, 
  "favor": 1241, 
  "none": 1242, 
  "ro@@": 1243, 
  "produced": 1244, 
  "else": 1245, 
  "mis@@": 1246, 
  "went": 1247, 
  "inter@@": 1248, 
  "B@@": 1249, 
  "amount": 1250, 
  "sanctions": 1251, 
  "neighbors": 1252, 
  "contrary": 1253, 
  "Iranian": 1254, 
  "ground": 1255, 
  "limits": 1256, 
  "General": 1257, 
  "unlike": 1258, 
  "compared": 1259, 
  "slow": 1260, 
  "Internet": 1261, 
  "&apos;": 1262, 
  "lose": 1263, 
  "otherwise": 1264, 
  "stronger": 1265, 
  "severe": 1266, 
  "reached": 1267, 
  "short-term": 1268, 
  "achieved": 1269, 
  "worldwide": 1270, 
  "record": 1271, 
  "negative": 1272, 
  "Cold": 1273, 
  "designed": 1274, 
  "abroad": 1275, 
  "direction": 1276, 
  "out@@": 1277, 
  "surplus": 1278, 
  "service": 1279, 
  "overall": 1280, 
  "earlier": 1281, 
  "2006": 1282, 
  "facing": 1283, 
  "trust": 1284, 
  "data": 1285, 
  "soft": 1286, 
  "th@@": 1287, 
  "whereas": 1288, 
  "tried": 1289, 
  "T@@": 1290, 
  "liquidity": 1291, 
  "widely": 1292, 
  "project": 1293, 
  "argument": 1294, 
  "framework": 1295, 
  "competitiveness": 1296, 
  "al@@": 1297, 
  "ings": 1298, 
  "mostly": 1299, 
  "attempt": 1300, 
  "calls": 1301, 
  "er@@": 1302, 
  "truth": 1303, 
  "R@@": 1304, 
  "suggest": 1305, 
  "effectively": 1306, 
  "enormous": 1307, 
  "standard": 1308, 
  "built": 1309, 
  "Secretary": 1310, 
  "shows": 1311, 
  "ra@@": 1312, 
  "innovation": 1313, 
  "study": 1314, 
  "plans": 1315, 
  "Republic": 1316, 
  "task": 1317, 
  "c": 1318, 
  "fighting": 1319, 
  "test": 1320, 
  "am@@": 1321, 
  "Kremlin": 1322, 
  "spend": 1323, 
  "boost": 1324, 
  "sovereign": 1325, 
  "excessive": 1326, 
  "spent": 1327, 
  "vital": 1328, 
  "ding": 1329, 
  "previous": 1330, 
  "providing": 1331, 
  "projects": 1332, 
  "principles": 1333, 
  "struggle": 1334, 
  "below": 1335, 
  "extent": 1336, 
  "crucial": 1337, 
  "activities": 1338, 
  "name": 1339, 
  "threats": 1340, 
  "ab@@": 1341, 
  "serve": 1342, 
  "radical": 1343, 
  "candidate": 1344, 
  "hundreds": 1345, 
  "advantage": 1346, 
  "game": 1347, 
  "widespread": 1348, 
  "whom": 1349, 
  "structure": 1350, 
  "burden": 1351, 
  "anyone": 1352, 
  "Taiwan": 1353, 
  "stand": 1354, 
  "goals": 1355, 
  "safety": 1356, 
  "agree": 1357, 
  "substantial": 1358, 
  "provides": 1359, 
  "talk": 1360, 
  "crimes": 1361, 
  "takes": 1362, 
  "imbalances": 1363, 
  "giving": 1364, 
  "victims": 1365, 
  "ze": 1366, 
  "n@@": 1367, 
  "Greek": 1368, 
  "establish": 1369, 
  "A": 1370, 
  "wages": 1371, 
  "farmers": 1372, 
  "argued": 1373, 
  "goes": 1374, 
  "YORK": 1375, 
  "everything": 1376, 
  "constitutional": 1377, 
  "ar": 1378, 
  "meanwhile": 1379, 
  "equal": 1380, 
  "points": 1381, 
  "near": 1382, 
  "consumers": 1383, 
  "told": 1384, 
  "normal": 1385, 
  "gains": 1386, 
  "collective": 1387, 
  "ons": 1388, 
  "borders": 1389, 
  "secure": 1390, 
  "students": 1391, 
  "scientists": 1392, 
  "body": 1393, 
  "electoral": 1394, 
  "parliament": 1395, 
  "thereby": 1396, 
  "Court": 1397, 
  "2@@": 1398, 
  "reflects": 1399, 
  "adopted": 1400, 
  "reflect": 1401, 
  "60": 1402, 
  "zing": 1403, 
  "Clinton": 1404, 
  "book": 1405, 
  "protests": 1406, 
  "shown": 1407, 
  "drugs": 1408, 
  "businesses": 1409, 
  "G-20": 1410, 
  "sources": 1411, 
  "regimes": 1412, 
  "prove": 1413, 
  "person": 1414, 
  "falling": 1415, 
  "becomes": 1416, 
  "center": 1417, 
  "F@@": 1418, 
  "win": 1419, 
  "si@@": 1420, 
  "ded": 1421, 
  "ism": 1422, 
  "absence": 1423, 
  "ac@@": 1424, 
  "worked": 1425, 
  "100": 1426, 
  "property": 1427, 
  "supported": 1428, 
  "ves": 1429, 
  "city": 1430, 
  "currencies": 1431, 
  "space": 1432, 
  "Ireland": 1433, 
  "safe": 1434, 
  "fair": 1435, 
  "sectors": 1436, 
  "running": 1437, 
  "federal": 1438, 
  "k@@": 1439, 
  "Communist": 1440, 
  "involved": 1441, 
  "armed": 1442, 
  "4": 1443, 
  "school": 1444, 
  "1970": 1445, 
  "m@@": 1446, 
  "conflicts": 1447, 
  "addition": 1448, 
  "gap": 1449, 
  "st": 1450, 
  "expansion": 1451, 
  "worth": 1452, 
  "target": 1453, 
  "circumstances": 1454, 
  "hit": 1455, 
  "getting": 1456, 
  "mainly": 1457, 
  "December": 1458, 
  "improved": 1459, 
  "regulatory": 1460, 
  "supposed": 1461, 
  "won": 1462, 
  "identity": 1463, 
  "sought": 1464, 
  "views": 1465, 
  "Monetary": 1466, 
  "O@@": 1467, 
  "ent": 1468, 
  "efficient": 1469, 
  "specific": 1470, 
  "hands": 1471, 
  "imports": 1472, 
  "join": 1473, 
  "November": 1474, 
  "est": 1475, 
  "equity": 1476, 
  "lo@@": 1477, 
  "subsidies": 1478, 
  "!": 1479, 
  "ask": 1480, 
  "causes": 1481, 
  "permanent": 1482, 
  "practice": 1483, 
  "ruling": 1484, 
  "faced": 1485, 
  "candidates": 1486, 
  "lies": 1487, 
  "6": 1488, 
  "faces": 1489, 
  "consumer": 1490, 
  "house": 1491, 
  "week": 1492, 
  "language": 1493, 
  "worst": 1494, 
  "Al": 1495, 
  "shared": 1496, 
  "type": 1497, 
  "sovereignty": 1498, 
  "John": 1499, 
  "ine": 1500, 
  "mi@@": 1501, 
  "wage": 1502, 
  "alliance": 1503, 
  "danger": 1504, 
  "fell": 1505, 
  "treaty": 1506, 
  "45": 1507, 
  "y-@@": 1508, 
  "po@@": 1509, 
  "Saddam": 1510, 
  "vulnerable": 1511, 
  "trading": 1512, 
  "smaller": 1513, 
  "flows": 1514, 
  "macroeconomic": 1515, 
  "fuel": 1516, 
  "managed": 1517, 
  "seeking": 1518, 
  "generally": 1519, 
  "related": 1520, 
  "communities": 1521, 
  "partners": 1522, 
  "round": 1523, 
  "j@@": 1524, 
  "partly": 1525, 
  "exist": 1526, 
  "looks": 1527, 
  "biggest": 1528, 
  "strengthen": 1529, 
  "message": 1530, 
  "Kingdom": 1531, 
  "expectations": 1532, 
  "forms": 1533, 
  "push": 1534, 
  "terrorists": 1535, 
  "industries": 1536, 
  "tend": 1537, 
  "sub@@": 1538, 
  "concerned": 1539, 
  "learned": 1540, 
  "prospects": 1541, 
  "Moscow": 1542, 
  "factor": 1543, 
  "depends": 1544, 
  "likewise": 1545, 
  "activity": 1546, 
  "received": 1547, 
  "W.": 1548, 
  "lesson": 1549, 
  "lot": 1550, 
  "post-@@": 1551, 
  "mind": 1552, 
  "unable": 1553, 
  "seriously": 1554, 
  "nowadays": 1555, 
  "lines": 1556, 
  "instability": 1557, 
  "respond": 1558, 
  "cancer": 1559, 
  "ones": 1560, 
  "significantly": 1561, 
  "borrowing": 1562, 
  "Blair": 1563, 
  "arms": 1564, 
  "2003": 1565, 
  "diplomacy": 1566, 
  "faster": 1567, 
  "middle": 1568, 
  "peaceful": 1569, 
  "Reserve": 1570, 
  "stage": 1571, 
  "weeks": 1572, 
  "religion": 1573, 
  "sp@@": 1574, 
  "encourage": 1575, 
  "places": 1576, 
  "solutions": 1577, 
  "equally": 1578, 
  "gave": 1579, 
  "medical": 1580, 
  "nevertheless": 1581, 
  "for@@": 1582, 
  "red": 1583, 
  "Libya": 1584, 
  "possibility": 1585, 
  "manage": 1586, 
  "combined": 1587, 
  "revenues": 1588, 
  "liberalization": 1589, 
  "active": 1590, 
  "positions": 1591, 
  "m": 1592, 
  "focused": 1593, 
  "invest": 1594, 
  "affairs": 1595, 
  "belief": 1596, 
  "rural": 1597, 
  "operations": 1598, 
  "recognized": 1599, 
  "agencies": 1600, 
  "base": 1601, 
  "everywhere": 1602, 
  "killed": 1603, 
  "sign": 1604, 
  "organization": 1605, 
  "poorest": 1606, 
  "Indonesia": 1607, 
  "parliamentary": 1608, 
  "imposed": 1609, 
  "priority": 1610, 
  "9": 1611, 
  "intellectual": 1612, 
  "disaster": 1613, 
  "speech": 1614, 
  "changing": 1615, 
  "ne@@": 1616, 
  "technological": 1617, 
  "K@@": 1618, 
  "models": 1619, 
  "closer": 1620, 
  "Russians": 1621, 
  "saw": 1622, 
  "als": 1623, 
  "promises": 1624, 
  "funding": 1625, 
  "deeply": 1626, 
  "Hezbollah": 1627, 
  "primary": 1628, 
  "sufficient": 1629, 
  "ors": 1630, 
  "bubble": 1631, 
  "efficiency": 1632, 
  "raising": 1633, 
  "remained": 1634, 
  "se": 1635, 
  "range": 1636, 
  "met": 1637, 
  "commercial": 1638, 
  "conservative": 1639, 
  "austerity": 1640, 
  "trend": 1641, 
  "border": 1642, 
  "controls": 1643, 
  "credibility": 1644, 
  "March": 1645, 
  "u@@": 1646, 
  "sts": 1647, 
  "Development": 1648, 
  "accounts": 1649, 
  "participation": 1650, 
  "virtually": 1651, 
  "State": 1652, 
  "suffering": 1653, 
  "destruction": 1654, 
  "multilateral": 1655, 
  "crime": 1656, 
  "ready": 1657, 
  "ended": 1658, 
  "learn": 1659, 
  "elite": 1660, 
  "explain": 1661, 
  "promise": 1662, 
  "afford": 1663, 
  "Arabia": 1664, 
  "uncertainty": 1665, 
  "played": 1666, 
  "restore": 1667, 
  "numbers": 1668, 
  "zation": 1669, 
  "heart": 1670, 
  "gold": 1671, 
  "bilateral": 1672, 
  "raised": 1673, 
  "appropriate": 1674, 
  "el": 1675, 
  "rhetoric": 1676, 
  "violent": 1677, 
  "it@@": 1678, 
  "des": 1679, 
  "Hong": 1680, 
  "at@@": 1681, 
  "hardly": 1682, 
  "considered": 1683, 
  "experts": 1684, 
  "guarantee": 1685, 
  "targets": 1686, 
  "intelligence": 1687, 
  "construction": 1688, 
  "universal": 1689, 
  "impose": 1690, 
  "current-account": 1691, 
  "ble": 1692, 
  "incomes": 1693, 
  "patients": 1694, 
  "quite": 1695, 
  "families": 1696, 
  "looking": 1697, 
  "Israelis": 1698, 
  "helping": 1699, 
  "well-@@": 1700, 
  "movements": 1701, 
  "8": 1702, 
  "air": 1703, 
  "proposal": 1704, 
  "degree": 1705, 
  "limit": 1706, 
  "ca": 1707, 
  "child": 1708, 
  "final": 1709, 
  "as@@": 1710, 
  "presence": 1711, 
  "cutting": 1712, 
  "expensive": 1713, 
  "ty": 1714, 
  "mo@@": 1715, 
  "court": 1716, 
  "prospect": 1717, 
  "Treasury": 1718, 
  "...": 1719, 
  "York": 1720, 
  "strength": 1721, 
  "Revolution": 1722, 
  "minority": 1723, 
  "inevitable": 1724, 
  "greatest": 1725, 
  "diseases": 1726, 
  "sound": 1727, 
  "bankers": 1728, 
  "bo@@": 1729, 
  "context": 1730, 
  "May": 1731, 
  "blame": 1732, 
  "Serbia": 1733, 
  "light": 1734, 
  "manufacturing": 1735, 
  "UK": 1736, 
  "depend": 1737, 
  "gra@@": 1738, 
  "southern": 1739, 
  "driven": 1740, 
  "measure": 1741, 
  "decided": 1742, 
  "sharply": 1743, 
  "occupation": 1744, 
  "ary": 1745, 
  "2011": 1746, 
  "continuing": 1747, 
  "continent": 1748, 
  "initiative": 1749, 
  "announced": 1750, 
  "visit": 1751, 
  "road": 1752, 
  "l": 1753, 
  "es@@": 1754, 
  "Organization": 1755, 
  "agreements": 1756, 
  "pro@@": 1757, 
  "regard": 1758, 
  "knows": 1759, 
  "resolution": 1760, 
  "7": 1761, 
  "agricultural": 1762, 
  "Copenhagen": 1763, 
  "populations": 1764, 
  "option": 1765, 
  "believed": 1766, 
  "precisely": 1767, 
  "vi@@": 1768, 
  "list": 1769, 
  "break": 1770, 
  "em@@": 1771, 
  "holding": 1772, 
  "June": 1773, 
  "Y@@": 1774, 
  "fast": 1775, 
  "Taliban": 1776, 
  "born": 1777, 
  "legislation": 1778, 
  "tive": 1779, 
  "studies": 1780, 
  "capita": 1781, 
  "schools": 1782, 
  "desire": 1783, 
  "civilian": 1784, 
  "resulting": 1785, 
  "truly": 1786, 
  "unity": 1787, 
  "Beijing": 1788, 
  "over-@@": 1789, 
  "dialogue": 1790, 
  "determined": 1791, 
  "importantly": 1792, 
  "op@@": 1793, 
  "Cambridge": 1794, 
  "January": 1795, 
  "fund": 1796, 
  "ex@@": 1797, 
  "ministers": 1798, 
  "household": 1799, 
  "scenario": 1800, 
  "fears": 1801, 
  "works": 1802, 
  "Kong": 1803, 
  "ment": 1804, 
  "communism": 1805, 
  "associated": 1806, 
  "amp": 1807, 
  "succeed": 1808, 
  "sustained": 1809, 
  "ic": 1810, 
  "immigrants": 1811, 
  "opening": 1812, 
  "declared": 1813, 
  "gone": 1814, 
  "Turkish": 1815, 
  "Wall": 1816, 
  "Korean": 1817, 
  "Republican": 1818, 
  "2002": 1819, 
  "meant": 1820, 
  "leaving": 1821, 
  "moving": 1822, 
  "18@@": 1823, 
  "z@@": 1824, 
  "easier": 1825, 
  "broader": 1826, 
  "cal": 1827, 
  "wanted": 1828, 
  "decide": 1829, 
  "training": 1830, 
  "authoritarian": 1831, 
  "temporary": 1832, 
  "lessons": 1833, 
  "AIDS": 1834, 
  "divided": 1835, 
  "subject": 1836, 
  "pre-@@": 1837, 
  "3@@": 1838, 
  "universities": 1839, 
  "solidarity": 1840, 
  "demonstrated": 1841, 
  "University": 1842, 
  "terror": 1843, 
  "J@@": 1844, 
  "accepted": 1845, 
  "payments": 1846, 
  "12": 1847, 
  "occur": 1848, 
  "profits": 1849, 
  "implies": 1850, 
  "choose": 1851, 
  "worry": 1852, 
  "securities": 1853, 
  "enlargement": 1854, 
  "moderate": 1855, 
  "skills": 1856, 
  "tensions": 1857, 
  "highest": 1858, 
  "genetic": 1859, 
  "legitimate": 1860, 
  "urban": 1861, 
  "sell": 1862, 
  "defined": 1863, 
  "team": 1864, 
  "transparency": 1865, 
  "understood": 1866, 
  "pursue": 1867, 
  "promised": 1868, 
  "car@@": 1869, 
  "emerged": 1870, 
  "compromise": 1871, 
  "ongoing": 1872, 
  "adjustment": 1873, 
  "entirely": 1874, 
  "nationalism": 1875, 
  "W@@": 1876, 
  "options": 1877, 
  "opponents": 1878, 
  "kept": 1879, 
  "ch": 1880, 
  "to@@": 1881, 
  "conventional": 1882, 
  "Palestine": 1883, 
  "ve": 1884, 
  "I@@": 1885, 
  "resistance": 1886, 
  "possibly": 1887, 
  "broad": 1888, 
  "immigration": 1889, 
  "dramatic": 1890, 
  "drive": 1891, 
  "sort": 1892, 
  "latest": 1893, 
  "settlement": 1894, 
  "eight": 1895, 
  "prepared": 1896, 
  "underlying": 1897, 
  "debts": 1898, 
  "July": 1899, 
  "1989": 1900, 
  "rulers": 1901, 
  "friends": 1902, 
  "ness": 1903, 
  "ideological": 1904, 
  "ative": 1905, 
  "regulators": 1906, 
  "sharp": 1907, 
  "says": 1908, 
  "so@@": 1909, 
  "te": 1910, 
  "implement": 1911, 
  "economist": 1912, 
  "qu@@": 1913, 
  "n": 1914, 
  "ds": 1915, 
  "structures": 1916, 
  "estimated": 1917, 
  "practices": 1918, 
  "defeat": 1919, 
  "wide": 1920, 
  "h@@": 1921, 
  "choices": 1922, 
  "Depression": 1923, 
  "faith": 1924, 
  "receive": 1925, 
  "perceived": 1926, 
  "suffer": 1927, 
  "October": 1928, 
  "par@@": 1929, 
  "imagine": 1930, 
  "generate": 1931, 
  "occurred": 1932, 
  "ad@@": 1933, 
  "combination": 1934, 
  "immediately": 1935, 
  "deliver": 1936, 
  "malaria": 1937, 
  "contribute": 1938, 
  "room": 1939, 
  "alized": 1940, 
  "secular": 1941, 
  "speak": 1942, 
  "board": 1943, 
  "paying": 1944, 
  "surprise": 1945, 
  "1999": 1946, 
  "deaths": 1947, 
  "experienced": 1948, 
  "viewed": 1949, 
  "senior": 1950, 
  "offered": 1951, 
  "high-@@": 1952, 
  "technical": 1953, 
  "Paris": 1954, 
  "bond": 1955, 
  "uses": 1956, 
  "pace": 1957, 
  "bound": 1958, 
  "bear": 1959, 
  "ci@@": 1960, 
  "bringing": 1961, 
  "soldiers": 1962, 
  "comprehensive": 1963, 
  "excess": 1964, 
  "chief": 1965, 
  "rely": 1966, 
  "promoting": 1967, 
  "corrupt": 1968, 
  "unprecedented": 1969, 
  "80": 1970, 
  "ap@@": 1971, 
  "communist": 1972, 
  "carry": 1973, 
  "wo": 1974, 
  "proposals": 1975, 
  "unique": 1976, 
  "tradition": 1977, 
  "allowing": 1978, 
  "represent": 1979, 
  "offers": 1980, 
  "analysis": 1981, 
  "starting": 1982, 
  "aim": 1983, 
  "nationalist": 1984, 
  "Nobel": 1985, 
  "solve": 1986, 
  "recognition": 1987, 
  "institution": 1988, 
  "commitments": 1989, 
  "ending": 1990, 
  "field": 1991, 
  "revenue": 1992, 
  "establishment": 1993, 
  "Jewish": 1994, 
  "estimates": 1995, 
  "V@@": 1996, 
  "regardless": 1997, 
  "r@@": 1998, 
  "someone": 1999, 
  "launched": 2000, 
  "ously": 2001, 
  "potentially": 2002, 
  "includes": 2003, 
  "Democratic": 2004, 
  "tell": 2005, 
  "organized": 2006, 
  "per@@": 2007, 
  "maintaining": 2008, 
  "represents": 2009, 
  "CO2": 2010, 
  "surely": 2011, 
  "controlled": 2012, 
  "dramatically": 2013, 
  "players": 2014, 
  "typically": 2015, 
  "enable": 2016, 
  "deeper": 2017, 
  "ma@@": 2018, 
  "percentage": 2019, 
  "mechanism": 2020, 
  "homes": 2021, 
  "keeping": 2022, 
  "HIV": 2023, 
  "trial": 2024, 
  "product": 2025, 
  "wider": 2026, 
  "zone": 2027, 
  "a-@@": 2028, 
  "green": 2029, 
  "signs": 2030, 
  "treated": 2031, 
  "commodity": 2032, 
  "die": 2033, 
  "do@@": 2034, 
  ".@@": 2035, 
  "supplies": 2036, 
  "physical": 2037, 
  "critics": 2038, 
  "opposed": 2039, 
  "concept": 2040, 
  "economically": 2041, 
  "electricity": 2042, 
  "mission": 2043, 
  "mechanisms": 2044, 
  "attempts": 2045, 
  "rec@@": 2046, 
  "distribution": 2047, 
  "losing": 2048, 
  "survive": 2049, 
  "linked": 2050, 
  "charge": 2051, 
  "mistake": 2052, 
  "improving": 2053, 
  "trouble": 2054, 
  "Islamist": 2055, 
  "Nigeria": 2056, 
  "affected": 2057, 
  "undermine": 2058, 
  "Economic": 2059, 
  "heavily": 2060, 
  "battle": 2061, 
  "resolve": 2062, 
  "flow": 2063, 
  "70": 2064, 
  "les": 2065, 
  "happens": 2066, 
  "humanity": 2067, 
  "shocks": 2068, 
  "productive": 2069, 
  "declining": 2070, 
  "el@@": 2071, 
  "ideology": 2072, 
  "inevitably": 2073, 
  "yes": 2074, 
  "Christian": 2075, 
  "useful": 2076, 
  "legacy": 2077, 
  "leads": 2078, 
  "playing": 2079, 
  "extremely": 2080, 
  "dependent": 2081, 
  "ur@@": 2082, 
  "causing": 2083, 
  "relief": 2084, 
  "ist": 2085, 
  "supporting": 2086, 
  "ec@@": 2087, 
  "overcome": 2088, 
  "hopes": 2089, 
  "remarkable": 2090, 
  "practical": 2091, 
  "proved": 2092, 
  "complete": 2093, 
  "agriculture": 2094, 
  "survival": 2095, 
  "Vladimir": 2096, 
  "determine": 2097, 
  "cash": 2098, 
  "pattern": 2099, 
  "stake": 2100, 
  "sc@@": 2101, 
  "invasion": 2102, 
  "tri@@": 2103, 
  "conference": 2104, 
  "unions": 2105, 
  "ter": 2106, 
  "·": 2107, 
  "implemented": 2108, 
  "la@@": 2109, 
  "fewer": 2110, 
  "restrictions": 2111, 
  "closed": 2112, 
  "Trade": 2113, 
  "Parliament": 2114, 
  "ters": 2115, 
  "ying": 2116, 
  "summer": 2117, 
  "event": 2118, 
  "territory": 2119, 
  "ratio": 2120, 
  "1960": 2121, 
  "engage": 2122, 
  "initiatives": 2123, 
  "ged": 2124, 
  "supporters": 2125, 
  "Democrats": 2126, 
  "ably": 2127, 
  "House": 2128, 
  "firm": 2129, 
  "gained": 2130, 
  "quarter": 2131, 
  "Stability": 2132, 
  "threatened": 2133, 
  "dealing": 2134, 
  "no@@": 2135, 
  "strategies": 2136, 
  "style": 2137, 
  "objective": 2138, 
  "transfer": 2139, 
  "observers": 2140, 
  "depression": 2141, 
  "word": 2142, 
  "August": 2143, 
  "twentieth": 2144, 
  "ni@@": 2145, 
  "ingly": 2146, 
  "nonetheless": 2147, 
  "Kim": 2148, 
  "criticism": 2149, 
  "sh": 2150, 
  "€": 2151, 
  "considerable": 2152, 
  "he@@": 2153, 
  "votes": 2154, 
  "published": 2155, 
  "fallen": 2156, 
  "-based": 2157, 
  "April": 2158, 
  "billions": 2159, 
  "issued": 2160, 
  "downturn": 2161, 
  "1930": 2162, 
  "shape": 2163, 
  "putting": 2164, 
  "double": 2165, 
  "exposed": 2166, 
  "returns": 2167, 
  "turning": 2168, 
  "modest": 2169, 
  "package": 2170, 
  "allows": 2171, 
  "necessarily": 2172, 
  "referendum": 2173, 
  "pressures": 2174, 
  "centuries": 2175, 
  "seven": 2176, 
  "t-@@": 2177, 
  "corporations": 2178, 
  "Dutch": 2179, 
  "dominated": 2180, 
  "Vietnam": 2181, 
  "requirements": 2182, 
  "D": 2183, 
  "costly": 2184, 
  "mortgage": 2185, 
  "Italian": 2186, 
  "grew": 2187, 
  "strengthening": 2188, 
  "restructuring": 2189, 
  "aging": 2190, 
  "wrote": 2191, 
  "obviously": 2192, 
  "reasonable": 2193, 
  "begun": 2194, 
  "developments": 2195, 
  "ality": 2196, 
  "slowdown": 2197, 
  "ling": 2198, 
  "ity": 2199, 
  "willingness": 2200, 
  "affect": 2201, 
  "planet": 2202, 
  "genuine": 2203, 
  "adopt": 2204, 
  "stands": 2205, 
  "barriers": 2206, 
  "implications": 2207, 
  "creditors": 2208, 
  "television": 2209, 
  "image": 2210, 
  "setting": 2211, 
  "sustain": 2212, 
  "suffered": 2213, 
  "regulations": 2214, 
  "generations": 2215, 
  "realize": 2216, 
  "reports": 2217, 
  "alism": 2218, 
  "cycle": 2219, 
  "defend": 2220, 
  "cells": 2221, 
  "pension": 2222, 
  "showed": 2223, 
  "hours": 2224, 
  "woman": 2225, 
  "purpose": 2226, 
  "bottom": 2227, 
  "race": 2228, 
  "credible": 2229, 
  "amounts": 2230, 
  "criminal": 2231, 
  "p": 2232, 
  "figure": 2233, 
  "backed": 2234, 
  "revolutionary": 2235, 
  "historic": 2236, 
  "Brussels": 2237, 
  "mere": 2238, 
  "saying": 2239, 
  "pushed": 2240, 
  "objectives": 2241, 
  "advance": 2242, 
  "gives": 2243, 
  "emerge": 2244, 
  "served": 2245, 
  "standing": 2246, 
  "supposedly": 2247, 
  "joint": 2248, 
  "outcomes": 2249, 
  "taxpayers": 2250, 
  "rescue": 2251, 
  "got": 2252, 
  "appreciation": 2253, 
  "Sweden": 2254, 
  "died": 2255, 
  "described": 2256, 
  "proven": 2257, 
  "Abbas": 2258, 
  "gi@@": 2259, 
  "Kyoto": 2260, 
  "discussion": 2261, 
  "weight": 2262, 
  "Mubarak": 2263, 
  "arrangements": 2264, 
  "In": 2265, 
  "dictatorship": 2266, 
  "buying": 2267, 
  "gh@@": 2268, 
  "i": 2269, 
  "2012": 2270, 
  "appeared": 2271, 
  "R": 2272, 
  "elites": 2273, 
  "logic": 2274, 
  "exchange-rate": 2275, 
  "prison": 2276, 
  "healthy": 2277, 
  "exists": 2278, 
  "moved": 2279, 
  "establishing": 2280, 
  "zero": 2281, 
  "partner": 2282, 
  "acts": 2283, 
  "eyes": 2284, 
  "elements": 2285, 
  "discipline": 2286, 
  "grown": 2287, 
  "mortgages": 2288, 
  "attractive": 2289, 
  "ants": 2290, 
  "completely": 2291, 
  "mandate": 2292, 
  "fl@@": 2293, 
  "plants": 2294, 
  "failures": 2295, 
  "ently": 2296, 
  "killing": 2297, 
  "pro-@@": 2298, 
  "fi@@": 2299, 
  "father": 2300, 
  "dominant": 2301, 
  "contributed": 2302, 
  "closely": 2303, 
  "dynamic": 2304, 
  "accounting": 2305, 
  "risky": 2306, 
  "viable": 2307, 
  "Chávez": 2308, 
  "added": 2309, 
  "capable": 2310, 
  "ho@@": 2311, 
  "Street": 2312, 
  "opposite": 2313, 
  "reflected": 2314, 
  "1@@": 2315, 
  "migration": 2316, 
  "borrow": 2317, 
  "tools": 2318, 
  "Jews": 2319, 
  "addressed": 2320, 
  "planning": 2321, 
  "cheap": 2322, 
  "computer": 2323, 
  "son": 2324, 
  "ance": 2325, 
  "strongly": 2326, 
  "weakness": 2327, 
  "charges": 2328, 
  "convinced": 2329, 
  "surpluses": 2330, 
  "journalists": 2331, 
  "tic": 2332, 
  "felt": 2333, 
  "voting": 2334, 
  "assume": 2335, 
  "priorities": 2336, 
  "Paul": 2337, 
  "replaced": 2338, 
  "unsustainable": 2339, 
  "leverage": 2340, 
  "bodies": 2341, 
  "fate": 2342, 
  "ence": 2343, 
  "ensuring": 2344, 
  "university": 2345, 
  "expand": 2346, 
  "front": 2347, 
  "included": 2348, 
  "protest": 2349, 
  "exception": 2350, 
  "enemy": 2351, 
  "humans": 2352, 
  "ag@@": 2353, 
  "united": 2354, 
  "encouraging": 2355, 
  "aggressive": 2356, 
  "Berlin": 2357, 
  "C": 2358, 
  "equivalent": 2359, 
  "aside": 2360, 
  "signed": 2361, 
  "arguments": 2362, 
  "transformation": 2363, 
  "figures": 2364, 
  "mon@@": 2365, 
  "daily": 2366, 
  "perspective": 2367, 
  "suddenly": 2368, 
  "populist": 2369, 
  "marked": 2370, 
  "wave": 2371, 
  "ul@@": 2372, 
  "shock": 2373, 
  "profound": 2374, 
  "Gulf": 2375, 
  "holds": 2376, 
  "reported": 2377, 
  "embrace": 2378, 
  "peoples": 2379, 
  "add": 2380, 
  "cor@@": 2381, 
  "Mao": 2382, 
  "se@@": 2383, 
  "root": 2384, 
  "ce": 2385, 
  "producers": 2386, 
  "stance": 2387, 
  "clean": 2388, 
  "deflation": 2389, 
  "shareholders": 2390, 
  "enterprises": 2391, 
  "except": 2392, 
  "ging": 2393, 
  "successfully": 2394, 
  "et@@": 2395, 
  "compete": 2396, 
  "host": 2397, 
  "sales": 2398, 
  "mutual": 2399, 
  "expenditures": 2400, 
  "Venezuela": 2401, 
  "illegal": 2402, 
  "pi@@": 2403, 
  "emerging-market": 2404, 
  "Medvedev": 2405, 
  "min@@": 2406, 
  "tests": 2407, 
  "professional": 2408, 
  "tough": 2409, 
  "northern": 2410, 
  "carried": 2411, 
  "Burma": 2412, 
  "contracts": 2413, 
  "18": 2414, 
  "Portugal": 2415, 
  "passed": 2416, 
  "ad": 2417, 
  "cre@@": 2418, 
  "incentive": 2419, 
  "4@@": 2420, 
  "ge": 2421, 
  "read": 2422, 
  "kill": 2423, 
  "managers": 2424, 
  "meaning": 2425, 
  "aware": 2426, 
  "replace": 2427, 
  "one-@@": 2428, 
  "thanks": 2429, 
  "Committee": 2430, 
  "bailout": 2431, 
  "equality": 2432, 
  "surprising": 2433, 
  "networks": 2434, 
  "remaining": 2435, 
  "WTO": 2436, 
  "welcome": 2437, 
  "publicly": 2438, 
  "species": 2439, 
  "achieving": 2440, 
  "withdrawal": 2441, 
  "low-@@": 2442, 
  "fixed": 2443, 
  "parents": 2444, 
  "Syrian": 2445, 
  "coal": 2446, 
  "is@@": 2447, 
  "ge@@": 2448, 
  "Chile": 2449, 
  "Netherlands": 2450, 
  "series": 2451, 
  "heads": 2452, 
  "driving": 2453, 
  "correct": 2454, 
  "latter": 2455, 
  "Qaeda": 2456, 
  "ha@@": 2457, 
  "cover": 2458, 
  "polls": 2459, 
  "stress": 2460, 
  "threaten": 2461, 
  "genes": 2462, 
  "Cuba": 2463, 
  "previously": 2464, 
  "expanding": 2465, 
  "primarily": 2466, 
  "managing": 2467, 
  "Sudan": 2468, 
  "ut@@": 2469, 
  "inside": 2470, 
  "Pact": 2471, 
  "brain": 2472, 
  "urgent": 2473, 
  "budgets": 2474, 
  "har@@": 2475, 
  "ship": 2476, 
  "pushing": 2477, 
  "animals": 2478, 
  "Republicans": 2479, 
  "regarded": 2480, 
  "Constitution": 2481, 
  "up@@": 2482, 
  "confront": 2483, 
  "engaged": 2484, 
  "easing": 2485, 
  "examples": 2486, 
  "ruled": 2487, 
  "harm": 2488, 
  "Musharraf": 2489, 
  "dream": 2490, 
  "calling": 2491, 
  "humanitarian": 2492, 
  "exactly": 2493, 
  "claimed": 2494, 
  "educational": 2495, 
  "fire": 2496, 
  "sent": 2497, 
  "ir@@": 2498, 
  "appeal": 2499, 
  "1991": 2500, 
  "stay": 2501, 
  "enemies": 2502, 
  "af@@": 2503, 
  "debates": 2504, 
  "hence": 2505, 
  "processes": 2506, 
  "go@@": 2507, 
  "et": 2508, 
  "fied": 2509, 
  "financed": 2510, 
  "bu@@": 2511, 
  "rejected": 2512, 
  "date": 2513, 
  "February": 2514, 
  "ins": 2515, 
  "emergency": 2516, 
  "knew": 2517, 
  "refused": 2518, 
  "robust": 2519, 
  "partnership": 2520, 
  "quo": 2521, 
  "civilians": 2522, 
  "ess": 2523, 
  "difficulties": 2524, 
  "fuels": 2525, 
  "existence": 2526, 
  "gu@@": 2527, 
  "trends": 2528, 
  "black": 2529, 
  "badly": 2530, 
  "Hu": 2531, 
  "material": 2532, 
  "paper": 2533, 
  "table": 2534, 
  "emergence": 2535, 
  "formal": 2536, 
  "ownership": 2537, 
  "gradually": 2538, 
  "modernization": 2539, 
  "weaker": 2540, 
  "sea": 2541, 
  "wish": 2542, 
  "mid-@@": 2543, 
  "scope": 2544, 
  "failing": 2545, 
  "decision-making": 2546, 
  "fortunately": 2547, 
  "integrated": 2548, 
  "renminbi": 2549, 
  "constraints": 2550, 
  "b": 2551, 
  "concerning": 2552, 
  "reserve": 2553, 
  "demanding": 2554, 
  "ages": 2555, 
  "om@@": 2556, 
  "ks": 2557, 
  "d-@@": 2558, 
  "cally": 2559, 
  "remember": 2560, 
  "joined": 2561, 
  "Shia": 2562, 
  "initially": 2563, 
  "courts": 2564, 
  "applied": 2565, 
  "fragile": 2566, 
  "Euro": 2567, 
  "finding": 2568, 
  "rational": 2569, 
  "resort": 2570, 
  "reaction": 2571, 
  "intended": 2572, 
  "believes": 2573, 
  "ignore": 2574, 
  "streets": 2575, 
  "producing": 2576, 
  "accession": 2577, 
  "It": 2578, 
  "mistakes": 2579, 
  "heavy": 2580, 
  "identify": 2581, 
  "Australia": 2582, 
  "essentially": 2583, 
  "fossil": 2584, 
  "an-@@": 2585, 
  "enter": 2586, 
  "g": 2587, 
  "Berlusconi": 2588, 
  "activists": 2589, 
  "posed": 2590, 
  "repeatedly": 2591, 
  "au@@": 2592, 
  "1998": 2593, 
  "Sunni": 2594, 
  "Hussein": 2595, 
  "dead": 2596, 
  "educated": 2597, 
  "Chancellor": 2598, 
  "Chirac": 2599, 
  "famous": 2600, 
  "judges": 2601, 
  "pri@@": 2602, 
  "guarantees": 2603, 
  "We": 2604, 
  "written": 2605, 
  "super@@": 2606, 
  "Financial": 2607, 
  "ving": 2608, 
  "version": 2609, 
  "ou@@": 2610, 
  "systemic": 2611, 
  "accountability": 2612, 
  "Rights": 2613, 
  "accompanied": 2614, 
  "threatening": 2615, 
  "kinds": 2616, 
  "conducted": 2617, 
  "Keynes": 2618, 
  "tra@@": 2619, 
  "suggested": 2620, 
  "missile": 2621, 
  "wind": 2622, 
  "Canada": 2623, 
  "alize": 2624, 
  "Merkel": 2625, 
  "us@@": 2626, 
  "evolution": 2627, 
  "extended": 2628, 
  "Fatah": 2629, 
  "mark": 2630, 
  "heard": 2631, 
  "Pakistani": 2632, 
  "actual": 2633, 
  "exercise": 2634, 
  "granted": 2635, 
  "demonstrate": 2636, 
  "reaching": 2637, 
  "extra": 2638, 
  "network": 2639, 
  "apply": 2640, 
  "blood": 2641, 
  "assumed": 2642, 
  "condition": 2643, 
  "presidents": 2644, 
  "de-@@": 2645, 
  "tor@@": 2646, 
  "pain": 2647, 
  "ambitious": 2648, 
  "complicated": 2649, 
  "launch": 2650, 
  "link": 2651, 
  "aggregate": 2652, 
  "painful": 2653, 
  "preventing": 2654, 
  "Colombia": 2655, 
  "co-@@": 2656, 
  "apparently": 2657, 
  "shares": 2658, 
  "creates": 2659, 
  "notion": 2660, 
  "Arabs": 2661, 
  "resulted": 2662, 
  "spirit": 2663, 
  "sustainability": 2664, 
  "protectionism": 2665, 
  "consequence": 2666, 
  "expressed": 2667, 
  "design": 2668, 
  "abuse": 2669, 
  "der@@": 2670, 
  "headed": 2671, 
  "users": 2672, 
  "consolidation": 2673, 
  "advice": 2674, 
  "obligations": 2675, 
  "TV": 2676, 
  "send": 2677, 
  "inflows": 2678, 
  "opened": 2679, 
  "narrow": 2680, 
  "bi@@": 2681, 
  "balanced": 2682, 
  "relevant": 2683, 
  "u": 2684, 
  "addressing": 2685, 
  "stories": 2686, 
  "200": 2687, 
  "voice": 2688, 
  "employees": 2689, 
  "Germans": 2690, 
  "introduced": 2691, 
  "responses": 2692, 
  "discrimination": 2693, 
  "wing": 2694, 
  "weakened": 2695, 
  "5@@": 2696, 
  "cell": 2697, 
  "enhance": 2698, 
  "Defense": 2699, 
  "conduct": 2700, 
  "returned": 2701, 
  "ic@@": 2702, 
  "mental": 2703, 
  "apparent": 2704, 
  "Egyptian": 2705, 
  "ru@@": 2706, 
  "instruments": 2707, 
  "expression": 2708, 
  "acting": 2709, 
  "uncertain": 2710, 
  "represented": 2711, 
  "Con@@": 2712, 
  "ultimate": 2713, 
  "bed": 2714, 
  "An@@": 2715, 
  "90": 2716, 
  "encouraged": 2717, 
  "ators": 2718, 
  "Spanish": 2719, 
  "usual": 2720, 
  "fueled": 2721, 
  "hi@@": 2722, 
  "initial": 2723, 
  "via": 2724, 
  "function": 2725, 
  "transparent": 2726, 
  "cra@@": 2727, 
  "ver@@": 2728, 
  "generated": 2729, 
  "notably": 2730, 
  "Thailand": 2731, 
  "proportion": 2732, 
  "sexual": 2733, 
  "Supreme": 2734, 
  "chaos": 2735, 
  "Afghan": 2736, 
  "escape": 2737, 
  "happening": 2738, 
  "renewed": 2739, 
  "ces": 2740, 
  "People": 2741, 
  "U@@": 2742, 
  "Atlantic": 2743, 
  "on-@@": 2744, 
  "contain": 2745, 
  "engagement": 2746, 
  "te@@": 2747, 
  "executive": 2748, 
  "placed": 2749, 
  "manner": 2750, 
  "Social": 2751, 
  "confrontation": 2752, 
  "brings": 2753, 
  "minds": 2754, 
  "anniversary": 2755, 
  "ban": 2756, 
  "operate": 2757, 
  "500": 2758, 
  "predict": 2759, 
  "facts": 2760, 
  "back@@": 2761, 
  "south": 2762, 
  "prefer": 2763, 
  "1997": 2764, 
  "simultaneously": 2765, 
  "original": 2766, 
  "frequently": 2767, 
  "participants": 2768, 
  "actors": 2769, 
  "compensation": 2770, 
  "flexibility": 2771, 
  "justified": 2772, 
  "ren@@": 2773, 
  "arrest": 2774, 
  "Robert": 2775, 
  "ethical": 2776, 
  "eliminate": 2777, 
  "empire": 2778, 
  "explanation": 2779, 
  "Ahmadinejad": 2780, 
  "du@@": 2781, 
  "der": 2782, 
  "search": 2783, 
  "speed": 2784, 
  "abandon": 2785, 
  "atmosphere": 2786, 
  "bubbles": 2787, 
  "ent@@": 2788, 
  "leaves": 2789, 
  "14": 2790, 
  "multi-@@": 2791, 
  "effectiveness": 2792, 
  "draw": 2793, 
  "aries": 2794, 
  "medicine": 2795, 
  "slowly": 2796, 
  "G-8": 2797, 
  "ry": 2798, 
  "Singapore": 2799, 
  "Yeltsin": 2800, 
  "birth": 2801, 
  "minorities": 2802, 
  "gets": 2803, 
  "estate": 2804, 
  "warning": 2805, 
  "ourselves": 2806, 
  "stopped": 2807, 
  "concluded": 2808, 
  "ator": 2809, 
  "destroy": 2810, 
  "Re@@": 2811, 
  "targeted": 2812, 
  "ms": 2813, 
  "sions": 2814, 
  "sophisticated": 2815, 
  "fourth": 2816, 
  "bigger": 2817, 
  "twice": 2818, 
  "the@@": 2819, 
  "released": 2820, 
  "variety": 2821, 
  "youth": 2822, 
  "Czech": 2823, 
  "extraordinary": 2824, 
  "Assembly": 2825, 
  "expense": 2826, 
  "preserve": 2827, 
  "surprisingly": 2828, 
  "door": 2829, 
  "strengthened": 2830, 
  "drop": 2831, 
  "barely": 2832, 
  "wonder": 2833, 
  "harder": 2834, 
  "volatility": 2835, 
  "newly": 2836, 
  "selling": 2837, 
  "alist": 2838, 
  "reverse": 2839, 
  "resource": 2840, 
  "coordination": 2841, 
  "representatives": 2842, 
  "plant": 2843, 
  "rarely": 2844, 
  "sheets": 2845, 
  "Jordan": 2846, 
  "divide": 2847, 
  "approaches": 2848, 
  "realistic": 2849, 
  "poorer": 2850, 
  "worried": 2851, 
  "ed@@": 2852, 
  "protecting": 2853, 
  "expanded": 2854, 
  "bankruptcy": 2855, 
  "solar": 2856, 
  "mar@@": 2857, 
  "ure": 2858, 
  "treat": 2859, 
  "stimulate": 2860, 
  "ats": 2861, 
  "ful": 2862, 
  "collapsed": 2863, 
  "review": 2864, 
  "periphery": 2865, 
  "advocates": 2866, 
  "England": 2867, 
  "ends": 2868, 
  "su@@": 2869, 
  "rating": 2870, 
  "Romania": 2871, 
  "Hungary": 2872, 
  "transport": 2873, 
  "Reagan": 2874, 
  "war@@": 2875, 
  "operation": 2876, 
  "sensitive": 2877, 
  "x": 2878, 
  "capabilities": 2879, 
  "pose": 2880, 
  "yield": 2881, 
  "promising": 2882, 
  "acceptable": 2883, 
  "diversity": 2884, 
  "wi@@": 2885, 
  "alizing": 2886, 
  "revealed": 2887, 
  "strike": 2888, 
  "helps": 2889, 
  "lie": 2890, 
  "academic": 2891, 
  "um": 2892, 
  "ph@@": 2893, 
  "advantages": 2894, 
  "rose": 2895, 
  "combat": 2896, 
  "wisdom": 2897, 
  "absolute": 2898, 
  "man@@": 2899, 
  "adequate": 2900, 
  "alike": 2901, 
  "ignored": 2902, 
  "openly": 2903, 
  "wa@@": 2904, 
  "rightly": 2905, 
  "ered": 2906, 
  "conclusion": 2907, 
  "statement": 2908, 
  "unemployed": 2909, 
  "16": 2910, 
  "enjoy": 2911, 
  "ges": 2912, 
  "track": 2913, 
  "improvement": 2914, 
  "prisoners": 2915, 
  "Authority": 2916, 
  "bra@@": 2917, 
  "oppose": 2918, 
  "Polish": 2919, 
  "destroyed": 2920, 
  "block": 2921, 
  "Plan": 2922, 
  "command": 2923, 
  "secret": 2924, 
  "13": 2925, 
  "contribution": 2926, 
  "consistent": 2927, 
  "bill": 2928, 
  "stem": 2929, 
  "surveillance": 2930, 
  "weakening": 2931, 
  "stocks": 2932, 
  "division": 2933, 
  "drawn": 2934, 
  "extremists": 2935, 
  "concrete": 2936, 
  "proper": 2937, 
  "winning": 2938, 
  "directed": 2939, 
  "dispute": 2940, 
  "contributions": 2941, 
  "facilities": 2942, 
  "f": 2943, 
  "looked": 2944, 
  "picture": 2945, 
  "w": 2946, 
  "ders": 2947, 
  "popularity": 2948, 
  "Human": 2949, 
  "openness": 2950, 
  "accused": 2951, 
  "large-scale": 2952, 
  "presented": 2953, 
  "justify": 2954, 
  "pressing": 2955, 
  "somewhat": 2956, 
  "focusing": 2957, 
  "overwhelming": 2958, 
  "protected": 2959, 
  "bul@@": 2960, 
  "shed": 2961, 
  "privatization": 2962, 
  "invested": 2963, 
  "investing": 2964, 
  "staff": 2965, 
  "street": 2966, 
  "wake": 2967, 
  "fy": 2968, 
  "atory": 2969, 
  "measured": 2970, 
  "weaken": 2971, 
  "lived": 2972, 
  "grounds": 2973, 
  "exit": 2974, 
  "insist": 2975, 
  "alternatives": 2976, 
  "abandoned": 2977, 
  "tu@@": 2978, 
  "Global": 2979, 
  "succeeded": 2980, 
  "refugees": 2981, 
  "responsibilities": 2982, 
  "colleagues": 2983, 
  "ments": 2984, 
  "gen@@": 2985, 
  "extend": 2986, 
  "diverse": 2987, 
  "inf@@": 2988, 
  "types": 2989, 
  "donors": 2990, 
  "successor": 2991, 
  "proliferation": 2992, 
  "sites": 2993, 
  "decisive": 2994, 
  "sk@@": 2995, 
  "Sea": 2996, 
  "sold": 2997, 
  "happy": 2998, 
  "recover": 2999, 
  "trials": 3000, 
  "flexible": 3001, 
  "subsequent": 3002, 
  "hunger": 3003, 
  "bit": 3004, 
  "aftermath": 3005, 
  "turmoil": 3006, 
  "mor@@": 3007, 
  "profit": 3008, 
  "27": 3009, 
  "liberty": 3010, 
  "-RSB-": 3011, 
  "-LSB-": 3012, 
  "fought": 3013, 
  "intellectuals": 3014, 
  "missiles": 3015, 
  "seeks": 3016, 
  "researchers": 3017, 
  "discussions": 3018, 
  "ambitions": 3019, 
  "twenty-first": 3020, 
  "wait": 3021, 
  "books": 3022, 
  "en": 3023, 
  "inability": 3024, 
  "fundamentally": 3025, 
  "caught": 3026, 
  "attitude": 3027, 
  "dly": 3028, 
  "OECD": 3029, 
  "visible": 3030, 
  "demographic": 3031, 
  "falls": 3032, 
  "retirement": 3033, 
  "pursued": 3034, 
  "Arafat": 3035, 
  "fo@@": 3036, 
  "Bolivia": 3037, 
  "perfect": 3038, 
  "minimum": 3039, 
  "alization": 3040, 
  "earth": 3041, 
  "ot@@": 3042, 
  "interested": 3043, 
  "Ch@@": 3044, 
  "inflationary": 3045, 
  "delivered": 3046, 
  "ard": 3047, 
  "apart": 3048, 
  "Tunisia": 3049, 
  "stagnation": 3050, 
  "Haiti": 3051, 
  "purposes": 3052, 
  "repression": 3053, 
  "maintained": 3054, 
  "dependence": 3055, 
  "ob@@": 3056, 
  "bold": 3057, 
  "participate": 3058, 
  "emphasis": 3059, 
  "regarding": 3060, 
  "eastern": 3061, 
  "fails": 3062, 
  "ars": 3063, 
  "state-owned": 3064, 
  "monitoring": 3065, 
  "female": 3066, 
  "avoided": 3067, 
  "showing": 3068, 
  "California": 3069, 
  "geopolitical": 3070, 
  "David": 3071, 
  "com@@": 3072, 
  "neighboring": 3073, 
  "somehow": 3074, 
  "Malaysia": 3075, 
  "Denmark": 3076, 
  "planned": 3077, 
  "resist": 3078, 
  "ter@@": 3079, 
  "ses": 3080, 
  "ls": 3081, 
  "learning": 3082, 
  "politician": 3083, 
  "mention": 3084, 
  "foundation": 3085, 
  "DC": 3086, 
  "qui@@": 3087, 
  "engineering": 3088, 
  "ology": 3089, 
  "links": 3090, 
  "7@@": 3091, 
  "judge": 3092, 
  "norms": 3093, 
  "meaningful": 3094, 
  "ches": 3095, 
  "waiting": 3096, 
  "centers": 3097, 
  "moves": 3098, 
  "zes": 3099, 
  "circle": 3100, 
  "ver": 3101, 
  "methods": 3102, 
  "reductions": 3103, 
  "ing@@": 3104, 
  "torture": 3105, 
  "Romney": 3106, 
  "17": 3107, 
  "patient": 3108, 
  "historically": 3109, 
  "approval": 3110, 
  "argues": 3111, 
  "devastating": 3112, 
  "pa@@": 3113, 
  "King": 3114, 
  "Milosevic": 3115, 
  "substantially": 3116, 
  "equipment": 3117, 
  "ought": 3118, 
  "tens": 3119, 
  "Stalin": 3120, 
  "75": 3121, 
  "voted": 3122, 
  "responded": 3123, 
  "separate": 3124, 
  "comparable": 3125, 
  "agency": 3126, 
  "suicide": 3127, 
  "ws": 3128, 
  "hundred": 3129, 
  "Greenspan": 3130, 
  "car": 3131, 
  "entrepreneurs": 3132, 
  "stated": 3133, 
  "reliable": 3134, 
  "undoubtedly": 3135, 
  "private-sector": 3136, 
  "ill": 3137, 
  "pped": 3138, 
  "seemingly": 3139, 
  "pl@@": 3140, 
  "attitudes": 3141, 
  "negotiating": 3142, 
  "fresh": 3143, 
  "pursuing": 3144, 
  "pe@@": 3145, 
  "evil": 3146, 
  "annually": 3147, 
  "mobility": 3148, 
  "transfers": 3149, 
  "lasting": 3150, 
  "properly": 3151, 
  "reluctant": 3152, 
  "ev@@": 3153, 
  "predicted": 3154, 
  "fit": 3155, 
  "component": 3156, 
  "doctors": 3157, 
  "accountable": 3158, 
  "warned": 3159, 
  "discuss": 3160, 
  "influential": 3161, 
  "implementation": 3162, 
  "memory": 3163, 
  "pass": 3164, 
  "disputes": 3165, 
  "retain": 3166, 
  "aims": 3167, 
  "fields": 3168, 
  "S": 3169, 
  "sharing": 3170, 
  "one-third": 3171, 
  "s-@@": 3172, 
  "feeling": 3173, 
  "transformed": 3174, 
  "cars": 3175, 
  "Lisbon": 3176, 
  "sion": 3177, 
  "funded": 3178, 
  "broken": 3179, 
  "ys": 3180, 
  "threatens": 3181, 
  "sentiment": 3182, 
  "earnings": 3183, 
  "false": 3184, 
  "chronic": 3185, 
  "officers": 3186, 
  "tragedy": 3187, 
  "dangers": 3188, 
  "Doha": 3189, 
  "write": 3190, 
  "coordinated": 3191, 
  "anti@@": 3192, 
  "hand@@": 3193, 
  "king": 3194, 
  "lay": 3195, 
  "US-@@": 3196, 
  "seeing": 3197, 
  "Peace": 3198, 
  "1950": 3199, 
  "inadequate": 3200, 
  "commit": 3201, 
  "Protocol": 3202, 
  "stood": 3203, 
  "long-@@": 3204, 
  "internationally": 3205, 
  "ring": 3206, 
  "wealthy": 3207, 
  "reconciliation": 3208, 
  "greenhouse": 3209, 
  "import": 3210, 
  "ps": 3211, 
  "unilateral": 3212, 
  "sooner": 3213, 
  "def@@": 3214, 
  "quick": 3215, 
  "territorial": 3216, 
  "concentrated": 3217, 
  "negotiate": 3218, 
  "valuable": 3219, 
  "globally": 3220, 
  "experiences": 3221, 
  "inv@@": 3222, 
  "reconstruction": 3223, 
  "impressive": 3224, 
  "chosen": 3225, 
  "reject": 3226, 
  "me@@": 3227, 
  "disorder": 3228, 
  "seats": 3229, 
  "cs": 3230, 
  "fish": 3231, 
  "Islamists": 3232, 
  "doctrine": 3233, 
  "White": 3234, 
  "newspaper": 3235, 
  "carefully": 3236, 
  "football": 3237, 
  "isolation": 3238, 
  "love": 3239, 
  "significance": 3240, 
  "Zimbabwe": 3241, 
  "spring": 3242, 
  "Yugoslavia": 3243, 
  "God": 3244, 
  "6@@": 3245, 
  "waste": 3246, 
  "definition": 3247, 
  "cur@@": 3248, 
  "peak": 3249, 
  "ck": 3250, 
  "prevented": 3251, 
  "ents": 3252, 
  "saved": 3253, 
  "monopoly": 3254, 
  "ov": 3255, 
  "entry": 3256, 
  "colonial": 3257, 
  "abuses": 3258, 
  "reliance": 3259, 
  "innovative": 3260, 
  "generous": 3261, 
  "tool": 3262, 
  "English": 3263, 
  "nobody": 3264, 
  "panic": 3265, 
  "hoped": 3266, 
  "recognizing": 3267, 
  "offset": 3268, 
  "yields": 3269, 
  "nominal": 3270, 
  "territories": 3271, 
  "discovered": 3272, 
  "patterns": 3273, 
  "administrative": 3274, 
  "yen": 3275, 
  "Roma": 3276, 
  "taxation": 3277, 
  "0-@@": 3278, 
  "rare": 3279, 
  "runs": 3280, 
  "finances": 3281, 
  "operating": 3282, 
  "35": 3283, 
  "reputation": 3284, 
  "brutal": 3285, 
  "judgment": 3286, 
  "hear": 3287, 
  "white": 3288, 
  "offering": 3289, 
  "ved": 3290, 
  "functioning": 3291, 
  "24": 3292, 
  "Foreign": 3293, 
  "Darfur": 3294, 
  "naturally": 3295, 
  "occupied": 3296, 
  "governing": 3297, 
  "declined": 3298, 
  "express": 3299, 
  "ur": 3300, 
  "sufficiently": 3301, 
  "Chairman": 3302, 
  "perception": 3303, 
  "sphere": 3304, 
  "quantitative": 3305, 
  "hedge": 3306, 
  "raises": 3307, 
  "ade": 3308, 
  "aspects": 3309, 
  "h": 3310, 
  "supervision": 3311, 
  "realized": 3312, 
  "attract": 3313, 
  "meetings": 3314, 
  "friendly": 3315, 
  "Iraqis": 3316, 
  "lend": 3317, 
  "inspired": 3318, 
  "scheme": 3319, 
  "In@@": 3320, 
  "P": 3321, 
  "ck@@": 3322, 
  "Nicolas": 3323, 
  "settlements": 3324, 
  "ali@@": 3325, 
  "vo@@": 3326, 
  "sed": 3327, 
  "tribal": 3328, 
  "1995": 3329, 
  "roots": 3330, 
  "honor": 3331, 
  "release": 3332, 
  "greatly": 3333, 
  "genocide": 3334, 
  "health-care": 3335, 
  "socialist": 3336, 
  "imposing": 3337, 
  "hostile": 3338, 
  "Bill": 3339, 
  "E": 3340, 
  "19": 3341, 
  "Bosnia": 3342, 
  "Jerusalem": 3343, 
  "define": 3344, 
  "intervene": 3345, 
  "girls": 3346, 
  "repeated": 3347, 
  "Tibet": 3348, 
  "realities": 3349, 
  "generals": 3350, 
  "dominate": 3351, 
  "Hitler": 3352, 
  "Netanyahu": 3353, 
  "indicate": 3354, 
  "imply": 3355, 
  "implementing": 3356, 
  "tor": 3357, 
  "Tony": 3358, 
  "provision": 3359, 
  "surge": 3360, 
  "sur@@": 3361, 
  "cultures": 3362, 
  "materials": 3363, 
  "ASEAN": 3364, 
  "2015": 3365, 
  "western": 3366, 
  "richer": 3367, 
  "Department": 3368, 
  "arguing": 3369, 
  "imperial": 3370, 
  "mainstream": 3371, 
  "analysts": 3372, 
  "protectionist": 3373, 
  "nu@@": 3374, 
  "backing": 3375, 
  "stabilize": 3376, 
  "tiny": 3377, 
  "tackle": 3378, 
  "phenomenon": 3379, 
  "unrest": 3380, 
  "Summit": 3381, 
  "ely": 3382, 
  "numerous": 3383, 
  "near-@@": 3384, 
  "nine": 3385, 
  "animal": 3386, 
  "Mediterranean": 3387, 
  "criteria": 3388, 
  "formed": 3389, 
  "prior": 3390, 
  "gar@@": 3391, 
  "bailouts": 3392, 
  "catastrophe": 3393, 
  "principal": 3394, 
  "giant": 3395, 
  "rival": 3396, 
  "enforcement": 3397, 
  "newspapers": 3398, 
  "lawyers": 3399, 
  "sex": 3400, 
  "extremism": 3401, 
  "divisions": 3402, 
  "Mahmoud": 3403, 
  "houses": 3404, 
  "ced": 3405, 
  "coup": 3406, 
  "sensible": 3407, 
  "convince": 3408, 
  "resolved": 3409, 
  "Khamenei": 3410, 
  "we@@": 3411, 
  "travel": 3412, 
  "heat": 3413, 
  "0.@@": 3414, 
  "plays": 3415, 
  "features": 3416, 
  "underway": 3417, 
  "Laden": 3418, 
  "draft": 3419, 
  "ite": 3420, 
  "300": 3421, 
  "ological": 3422, 
  "sees": 3423, 
  "founded": 3424, 
  "onto": 3425, 
  "estimate": 3426, 
  "sting": 3427, 
  "sec@@": 3428, 
  "fication": 3429, 
  "consistently": 3430, 
  "demonstrations": 3431, 
  "achievement": 3432, 
  "marks": 3433, 
  "bri@@": 3434, 
  "tolerance": 3435, 
  "breaking": 3436, 
  "eye": 3437, 
  "inefficient": 3438, 
  "tively": 3439, 
  "nowhere": 3440, 
  "ies": 3441, 
  "informed": 3442, 
  "approved": 3443, 
  "dignity": 3444, 
  "damaged": 3445, 
  "Deng": 3446, 
  "regularly": 3447, 
  "benefited": 3448, 
  "transform": 3449, 
  "Army": 3450, 
  "Web": 3451, 
  "judicial": 3452, 
  "contract": 3453, 
  "renewable": 3454, 
  "Bernanke": 3455, 
  "slightly": 3456, 
  "ice": 3457, 
  "earthquake": 3458, 
  "removed": 3459, 
  "Senate": 3460, 
  "Irish": 3461, 
  "constant": 3462, 
  "involve": 3463, 
  "prosperous": 3464, 
  "alive": 3465, 
  "executives": 3466, 
  "capitalist": 3467, 
  "match": 3468, 
  "intense": 3469, 
  "appreciate": 3470, 
  "transactions": 3471, 
  "adopting": 3472, 
  "involvement": 3473, 
  "connected": 3474, 
  "insufficient": 3475, 
  "Alliance": 3476, 
  "propaganda": 3477, 
  "ths": 3478, 
  "smart": 3479, 
  "richest": 3480, 
  "identified": 3481, 
  "ran": 3482, 
  "gaining": 3483, 
  "male": 3484, 
  "avoiding": 3485, 
  "solid": 3486, 
  "disarmament": 3487, 
  "wall": 3488, 
  "yed": 3489, 
  "1.5": 3490, 
  "undermining": 3491, 
  "chain": 3492, 
  "arrested": 3493, 
  "protesters": 3494, 
  "turns": 3495, 
  "ol@@": 3496, 
  "expenditure": 3497, 
  "ep@@": 3498, 
  "toxic": 3499, 
  "Board": 3500, 
  "tends": 3501, 
  "rooted": 3502, 
  "sudden": 3503, 
  "anger": 3504, 
  "17@@": 3505, 
  "interest-rate": 3506, 
  "capture": 3507, 
  "fundamentals": 3508, 
  "donor": 3509, 
  "fairly": 3510, 
  "gradual": 3511, 
  "albeit": 3512, 
  "fold": 3513, 
  "assessment": 3514, 
  "longer-term": 3515, 
  "shifted": 3516, 
  "lu@@": 3517, 
  "undermined": 3518, 
  "DNA": 3519, 
  "constitute": 3520, 
  "joining": 3521, 
  "phase": 3522, 
  "foreigners": 3523, 
  "sa@@": 3524, 
  "ati@@": 3525, 
  "mother": 3526, 
  "puts": 3527, 
  "difficulty": 3528, 
  "forever": 3529, 
  "older": 3530, 
  "crash": 3531, 
  "innocent": 3532, 
  "improvements": 3533, 
  "assumption": 3534, 
  "uni@@": 3535, 
  "imperative": 3536, 
  "pur@@": 3537, 
  "alists": 3538, 
  "pollution": 3539, 
  "Millennium": 3540, 
  "16@@": 3541, 
  "As": 3542, 
  "advances": 3543, 
  "sl@@": 3544, 
  "bureaucracy": 3545, 
  "right-wing": 3546, 
  "adverse": 3547, 
  "involving": 3548, 
  "lenders": 3549, 
  "pride": 3550, 
  "nineteenth": 3551, 
  "bid": 3552, 
  "content": 3553, 
  "character": 3554, 
  "forests": 3555, 
  "um@@": 3556, 
  "guaranteed": 3557, 
  "alongside": 3558, 
  "selection": 3559, 
  "voices": 3560, 
  "electorate": 3561, 
  "creative": 3562, 
  "site": 3563, 
  "purchasing": 3564, 
  "autonomy": 3565, 
  "murder": 3566, 
  "asking": 3567, 
  "sets": 3568, 
  "likelihood": 3569, 
  "sen@@": 3570, 
  "1992": 3571, 
  "confronted": 3572, 
  "Catholic": 3573, 
  "tactics": 3574, 
  "restoring": 3575, 
  "ever-@@": 3576, 
  "desirable": 3577, 
  "convergence": 3578, 
  "competing": 3579, 
  "noted": 3580, 
  "halt": 3581, 
  "surface": 3582, 
  "neo-@@": 3583, 
  "forcing": 3584, 
  "deny": 3585, 
  "z": 3586, 
  "Southeast": 3587, 
  "Administration": 3588, 
  "explained": 3589, 
  "Northern": 3590, 
  "superpower": 3591, 
  "ships": 3592, 
  "om": 3593, 
  "tied": 3594, 
  "instance": 3595, 
  "worthy": 3596, 
  "traditions": 3597, 
  "statements": 3598, 
  "pursuit": 3599, 
  "downward": 3600, 
  "computers": 3601, 
  "Sharon": 3602, 
  "dilemma": 3603, 
  "unwilling": 3604, 
  "democratization": 3605, 
  "limiting": 3606, 
  "No": 3607, 
  "traditionally": 3608, 
  "1994": 3609, 
  "explains": 3610, 
  "magnitude": 3611, 
  "appointed": 3612, 
  "Justice": 3613, 
  "Energy": 3614, 
  "integrity": 3615, 
  "coherent": 3616, 
  "obstacles": 3617, 
  "finds": 3618, 
  "cross-border": 3619, 
  "hidden": 3620, 
  "triggered": 3621, 
  "lacks": 3622, 
  "favorable": 3623, 
  "Le@@": 3624, 
  "bin": 3625, 
  "unstable": 3626, 
  "sing": 3627, 
  "1.@@": 3628, 
  "chances": 3629, 
  "shifting": 3630, 
  "contemporary": 3631, 
  "speaking": 3632, 
  "tion@@": 3633, 
  "island": 3634, 
  "charged": 3635, 
  "chose": 3636, 
  "purchases": 3637, 
  "F": 3638, 
  "achievements": 3639, 
  "League": 3640, 
  "interventions": 3641, 
  "ratios": 3642, 
  "plus": 3643, 
  "pen@@": 3644, 
  "foundations": 3645, 
  "couple": 3646, 
  "attacked": 3647, 
  "slower": 3648, 
  "fellow": 3649, 
  "distant": 3650, 
  "impoverished": 3651, 
  "isolated": 3652, 
  "2020": 3653, 
  "counter": 3654, 
  "speculative": 3655, 
  "fa@@": 3656, 
  "Al@@": 3657, 
  "Austria": 3658, 
  "gender": 3659, 
  "disasters": 3660, 
  "communication": 3661, 
  "film": 3662, 
  "8@@": 3663, 
  "grave": 3664, 
  "art": 3665, 
  "judiciary": 3666, 
  "est@@": 3667, 
  "embraced": 3668, 
  "Bo@@": 3669, 
  "under-@@": 3670, 
  "22": 3671, 
  "communications": 3672, 
  "fashion": 3673, 
  "prominent": 3674, 
  "comparison": 3675, 
  "victim": 3676, 
  "talking": 3677, 
  "optimism": 3678, 
  "delay": 3679, 
  "two-thirds": 3680, 
  "counter@@": 3681, 
  "pointed": 3682, 
  "instrument": 3683, 
  "element": 3684, 
  "student": 3685, 
  "deals": 3686, 
  "refusal": 3687, 
  "adapt": 3688, 
  "civilization": 3689, 
  "down@@": 3690, 
  "borrowers": 3691, 
  "owners": 3692, 
  "typical": 3693, 
  "bl@@": 3694, 
  "Mo@@": 3695, 
  "bureaucratic": 3696, 
  "representative": 3697, 
  "mu@@": 3698, 
  "unit": 3699, 
  "binding": 3700, 
  "ast@@": 3701, 
  "Nazi": 3702, 
  "troubled": 3703, 
  "persistent": 3704, 
  "dec@@": 3705, 
  "writing": 3706, 
  "survey": 3707, 
  "understandable": 3708, 
  "employers": 3709, 
  "expertise": 3710, 
  "outlook": 3711, 
  "careful": 3712, 
  "migrants": 3713, 
  "cks": 3714, 
  "res": 3715, 
  "entered": 3716, 
  "trigger": 3717, 
  "tested": 3718, 
  "fying": 3719, 
  "ven@@": 3720, 
  "ideal": 3721, 
  "doubts": 3722, 
  "earn": 3723, 
  "depreciation": 3724, 
  "grand": 3725, 
  "fin@@": 3726, 
  "negotiated": 3727, 
  "stri@@": 3728, 
  "count": 3729, 
  "dominance": 3730, 
  "urgently": 3731, 
  "Jacques": 3732, 
  "refuse": 3733, 
  "tsunami": 3734, 
  "assuming": 3735, 
  "acknowledge": 3736, 
  "tru@@": 3737, 
  "med": 3738, 
  "disastrous": 3739, 
  "government-@@": 3740, 
  "unfair": 3741, 
  "guide": 3742, 
  "mounting": 3743, 
  "normally": 3744, 
  "sm": 3745, 
  "bombing": 3746, 
  "da": 3747, 
  "fies": 3748, 
  "x@@": 3749, 
  "wife": 3750, 
  "Harvard": 3751, 
  "whenever": 3752, 
  "deposits": 3753, 
  "ber@@": 3754, 
  "sight": 3755, 
  "evident": 3756, 
  "admit": 3757, 
  "north": 3758, 
  "Yemen": 3759, 
  "desperate": 3760, 
  "destructive": 3761, 
  "to-@@": 3762, 
  "images": 3763, 
  "bre@@": 3764, 
  "situations": 3765, 
  "tasks": 3766, 
  "epidemic": 3767, 
  "Pacific": 3768, 
  "lowering": 3769, 
  "aspect": 3770, 
  "roads": 3771, 
  "Agency": 3772, 
  "visited": 3773, 
  "classes": 3774, 
  "extensive": 3775, 
  "enting": 3776, 
  "state-@@": 3777, 
  "Myanmar": 3778, 
  "wor@@": 3779, 
  "ari@@": 3780, 
  "ed-@@": 3781, 
  "conservatives": 3782, 
  "requiring": 3783, 
  "mixed": 3784, 
  "in-@@": 3785, 
  "momentum": 3786, 
  "reduces": 3787, 
  "declines": 3788, 
  "commodities": 3789, 
  "relationships": 3790, 
  "inc@@": 3791, 
  "multiple": 3792, 
  "2013": 3793, 
  "ta@@": 3794, 
  "periods": 3795, 
  "weapon": 3796, 
  "bureaucrats": 3797, 
  "produces": 3798, 
  "arise": 3799, 
  "Indians": 3800, 
  "striking": 3801, 
  "struggling": 3802, 
  "regular": 3803, 
  "demanded": 3804, 
  "purchase": 3805, 
  "acceptance": 3806, 
  "ple@@": 3807, 
  "answers": 3808, 
  "meltdown": 3809, 
  "enabled": 3810, 
  "amp@@": 3811, 
  "Convention": 3812, 
  "balances": 3813, 
  "pragmatic": 3814, 
  "Earth": 3815, 
  "interesting": 3816, 
  "ets": 3817, 
  "actively": 3818, 
  "damaging": 3819, 
  "serves": 3820, 
  "missing": 3821, 
  "Belarus": 3822, 
  "1967": 3823, 
  "bar@@": 3824, 
  "Spring": 3825, 
  "bomb": 3826, 
  "article": 3827, 
  "philosophy": 3828, 
  "declaration": 3829, 
  "supports": 3830, 
  "ned": 3831, 
  "ancient": 3832, 
  "shing": 3833, 
  "poorly": 3834, 
  "weather": 3835, 
  "Brown": 3836, 
  "fac@@": 3837, 
  "signal": 3838, 
  "two-@@": 3839, 
  "rejection": 3840, 
  "Mexican": 3841, 
  "parallel": 3842, 
  "Qaddafi": 3843, 
  "prolonged": 3844, 
  "enhanced": 3845, 
  "marginal": 3846, 
  "half-@@": 3847, 
  "prepare": 3848, 
  "obtain": 3849, 
  "biological": 3850, 
  "loan": 3851, 
  "o-@@": 3852, 
  "Holocaust": 3853, 
  "revolutions": 3854, 
  "ton": 3855, 
  "dark": 3856, 
  "ironically": 3857, 
  "skilled": 3858, 
  "fu@@": 3859, 
  "unknown": 3860, 
  "schemes": 3861, 
  "ical": 3862, 
  "functions": 3863, 
  "severely": 3864, 
  "foster": 3865, 
  "owned": 3866, 
  "Q@@": 3867, 
  "mix": 3868, 
  "st-@@": 3869, 
  "ning": 3870, 
  "ju@@": 3871, 
  "acted": 3872, 
  "triumph": 3873, 
  "liabilities": 3874, 
  "procedures": 3875, 
  "ber": 3876, 
  "testing": 3877, 
  "Thaksin": 3878, 
  "generating": 3879, 
  "campaigns": 3880, 
  "restored": 3881, 
  "Constitutional": 3882, 
  "thousand": 3883, 
  "forget": 3884, 
  "flo@@": 3885, 
  "denied": 3886, 
  "ten@@": 3887, 
  "1990s": 3888, 
  "ste@@": 3889, 
  "unacceptable": 3890, 
  "transatlantic": 3891, 
  "assess": 3892, 
  "Square": 3893, 
  "disp@@": 3894, 
  "Cyprus": 3895, 
  "explicit": 3896, 
  "Switzerland": 3897, 
  "mortality": 3898, 
  "accepting": 3899, 
  "compelling": 3900, 
  "conclude": 3901, 
  "diagnosis": 3902, 
  "reversed": 3903, 
  "sti@@": 3904, 
  "silence": 3905, 
  "Institute": 3906, 
  "boosting": 3907, 
  "fe@@": 3908, 
  "McCain": 3909, 
  "successes": 3910, 
  "tendency": 3911, 
  "chairman": 3912, 
  "re-election": 3913, 
  "cheaper": 3914, 
  "Z@@": 3915, 
  "village": 3916, 
  "Princeton": 3917, 
  "eli@@": 3918, 
  "weaknesses": 3919, 
  "exposure": 3920, 
  "perform": 3921, 
  "provisions": 3922, 
  "diplomats": 3923, 
  "innovations": 3924, 
  "fill": 3925, 
  "predictable": 3926, 
  "sters": 3927, 
  "treaties": 3928, 
  "watch": 3929, 
  "shes": 3930, 
  "punishment": 3931, 
  "ordered": 3932, 
  "customers": 3933, 
  "long-run": 3934, 
  "hor@@": 3935, 
  "blamed": 3936, 
  "City": 3937, 
  "confident": 3938, 
  "solely": 3939, 
  "considering": 3940, 
  "enterprise": 3941, 
  "map": 3942, 
  "re": 3943, 
  "receiving": 3944, 
  "Health": 3945, 
  "facto": 3946, 
  "committee": 3947, 
  "telling": 3948, 
  "ils": 3949, 
  "persuade": 3950, 
  "keeps": 3951, 
  "ratings": 3952, 
  "method": 3953, 
  "racial": 3954, 
  "Rome": 3955, 
  "returning": 3956, 
  "i.e.": 3957, 
  "exceed": 3958, 
  "freely": 3959, 
  "Lula": 3960, 
  "deepening": 3961, 
  "FDI": 3962, 
  "statistics": 3963, 
  "sub-prime": 3964, 
  "honest": 3965, 
  "engine": 3966, 
  "Mar@@": 3967, 
  "bur@@": 3968, 
  "9@@": 3969, 
  "code": 3970, 
  "duty": 3971, 
  "land@@": 3972, 
  "fix": 3973, 
  "neighbor": 3974, 
  "controlling": 3975, 
  "governed": 3976, 
  "r": 3977, 
  "accomplished": 3978, 
  "fer@@": 3979, 
  "night": 3980, 
  "5.@@": 3981, 
  "dictator": 3982, 
  "eliminating": 3983, 
  "pensions": 3984, 
  "bloody": 3985, 
  "strikes": 3986, 
  "Center": 3987, 
  "eventual": 3988, 
  "Church": 3989, 
  "immense": 3990, 
  "signals": 3991, 
  "and@@": 3992, 
  "Policy": 3993, 
  "distinct": 3994, 
  "ineffective": 3995, 
  "involves": 3996, 
  "steel": 3997, 
  "claiming": 3998, 
  "adding": 3999, 
  "counterparts": 4000, 
  "AKP": 4001, 
  "feared": 4002, 
  "volatile": 4003, 
  "ill-@@": 4004, 
  "hour": 4005, 
  "constructive": 4006, 
  "explicitly": 4007, 
  "This": 4008, 
  "sports": 4009, 
  "tur@@": 4010, 
  "aspirations": 4011, 
  "flawed": 4012, 
  "experiencing": 4013, 
  "index": 4014, 
  "targeting": 4015, 
  "happiness": 4016, 
  "promoted": 4017, 
  "worries": 4018, 
  "struck": 4019, 
  "purely": 4020, 
  "Baghdad": 4021, 
  "expert": 4022, 
  "respected": 4023, 
  "Chen": 4024, 
  "Mr.": 4025, 
  "looming": 4026, 
  "De@@": 4027, 
  "fed": 4028, 
  "director": 4029, 
  "flight": 4030, 
  "concentration": 4031, 
  "mood": 4032, 
  "gs": 4033, 
  "rep@@": 4034, 
  "controversial": 4035, 
  "safer": 4036, 
  "documents": 4037, 
  "fraud": 4038, 
  "Philippines": 4039, 
  "lands": 4040, 
  "os": 4041, 
  "seat": 4042, 
  "tering": 4043, 
  "younger": 4044, 
  "awareness": 4045, 
  "lowest": 4046, 
  "follows": 4047, 
  "shifts": 4048, 
  "experiment": 4049, 
  "familiar": 4050, 
  "convincing": 4051, 
  "trip": 4052, 
  "Africans": 4053, 
  "maybe": 4054, 
  "ched": 4055, 
  "psychological": 4056, 
  "1996": 4057, 
  "vulnerability": 4058, 
  "withdraw": 4059, 
  "representation": 4060, 
  "connection": 4061, 
  "debt-@@": 4062, 
  "suspicion": 4063, 
  "tly": 4064, 
  "da@@": 4065, 
  "coverage": 4066, 
  "Gazprom": 4067, 
  "sum": 4068, 
  "violations": 4069, 
  "dic@@": 4070, 
  "plausible": 4071, 
  "emotional": 4072, 
  "feature": 4073, 
  "challenging": 4074, 
  "outright": 4075, 
  "freedoms": 4076, 
  "recessions": 4077, 
  "explosion": 4078, 
  "Ali": 4079, 
  "21": 4080, 
  "intention": 4081, 
  "deregulation": 4082, 
  "friend": 4083, 
  "sending": 4084, 
  "150": 4085, 
  "ching": 4086, 
  "cer@@": 4087, 
  "work@@": 4088, 
  "Agreement": 4089, 
  "feed": 4090, 
  "ranging": 4091, 
  "obstacle": 4092, 
  "differently": 4093, 
  "é": 4094, 
  "named": 4095, 
  "defending": 4096, 
  "qualified": 4097, 
  "scene": 4098, 
  "player": 4099, 
  "well-being": 4100, 
  "mobile": 4101, 
  "undertaken": 4102, 
  "Kenya": 4103, 
  "pays": 4104, 
  "spoke": 4105, 
  "worrying": 4106, 
  "hegemony": 4107, 
  "stakes": 4108, 
  "legislative": 4109, 
  "Forum": 4110, 
  "specifically": 4111, 
  "informal": 4112, 
  "quest": 4113, 
  "bility": 4114, 
  "ory": 4115, 
  "tre@@": 4116, 
  "col@@": 4117, 
  "uring": 4118, 
  "prevention": 4119, 
  "courage": 4120, 
  "representing": 4121, 
  "euros": 4122, 
  "storm": 4123, 
  "micro@@": 4124, 
  "Lebanese": 4125, 
  "den@@": 4126, 
  "entitled": 4127, 
  "Angela": 4128, 
  "2050": 4129, 
  "shadow": 4130, 
  "vehicles": 4131, 
  "guard": 4132, 
  "Friedman": 4133, 
  "progressive": 4134, 
  "alleged": 4135, 
  "residents": 4136, 
  "condemned": 4137, 
  "beings": 4138, 
  "essence": 4139, 
  "forgotten": 4140, 
  "interpretation": 4141, 
  "dity": 4142, 
  "volume": 4143, 
  "dynamism": 4144, 
  "counter-@@": 4145, 
  "entering": 4146, 
  "hospital": 4147, 
  "soaring": 4148, 
  "midst": 4149, 
  "blow": 4150, 
  "motivated": 4151, 
  "complexity": 4152, 
  "projected": 4153, 
  "hatred": 4154, 
  "makers": 4155, 
  "Growth": 4156, 
  "serving": 4157, 
  "poses": 4158, 
  "naval": 4159, 
  "farm": 4160, 
  "details": 4161, 
  "begins": 4162, 
  "constrained": 4163, 
  "post": 4164, 
  "hin@@": 4165, 
  "devoted": 4166, 
  "Prize": 4167, 
  "por@@": 4168, 
  "globalized": 4169, 
  "bro@@": 4170, 
  "cast": 4171, 
  "unpopular": 4172, 
  "suspect": 4173, 
  "resolving": 4174, 
  "consideration": 4175, 
  "indigenous": 4176, 
  "subjects": 4177, 
  "gre@@": 4178, 
  "officially": 4179, 
  "determination": 4180, 
  "tension": 4181, 
  "medium": 4182, 
  "che@@": 4183, 
  "twenty": 4184, 
  "morality": 4185, 
  "ran@@": 4186, 
  "cooperative": 4187, 
  "bor@@": 4188, 
  "demonstrates": 4189, 
  "ational": 4190, 
  "socialism": 4191, 
  "overseas": 4192, 
  "revive": 4193, 
  "contained": 4194, 
  "terrible": 4195, 
  "Mon@@": 4196, 
  "regulated": 4197, 
  "virtual": 4198, 
  "cking": 4199, 
  "dioxide": 4200, 
  "vicious": 4201, 
  "stabilization": 4202, 
  "contagion": 4203, 
  "deserve": 4204, 
  "Brothers": 4205, 
  "theories": 4206, 
  "bought": 4207, 
  "first-@@": 4208, 
  "Third": 4209, 
  "é@@": 4210, 
  "evolutionary": 4211, 
  "ease": 4212, 
  "Israeli-Palestinian": 4213, 
  "absent": 4214, 
  "intentions": 4215, 
  "professionals": 4216, 
  "Group": 4217, 
  "discussed": 4218, 
  "reinforced": 4219, 
  "forecast": 4220, 
  "prevailing": 4221, 
  "beliefs": 4222, 
  "NPT": 4223, 
  "23": 4224, 
  "ming": 4225, 
  "Cairo": 4226, 
  "peacekeeping": 4227, 
  "distance": 4228, 
  "bs": 4229, 
  "recall": 4230, 
  "desperately": 4231, 
  "waves": 4232, 
  "note": 4233, 
  "cal@@": 4234, 
  "mobilize": 4235, 
  "ath@@": 4236, 
  "pat@@": 4237, 
  "risen": 4238, 
  "devaluation": 4239, 
  "-led": 4240, 
  "trained": 4241, 
  "engineers": 4242, 
  "enforce": 4243, 
  "Annan": 4244, 
  "professor": 4245, 
  "spreading": 4246, 
  "components": 4247, 
  "software": 4248, 
  "feasible": 4249, 
  "-year": 4250, 
  "bitter": 4251, 
  "confirmed": 4252, 
  "dra@@": 4253, 
  "contributing": 4254, 
  "ented": 4255, 
  "tered": 4256, 
  "illness": 4257, 
  "sit": 4258, 
  "manipulation": 4259, 
  "frequent": 4260, 
  "Gaulle": 4261, 
  "undertake": 4262, 
  "eager": 4263, 
  "recognizes": 4264, 
  "ists": 4265, 
  "formation": 4266, 
  "stabilizing": 4267, 
  "Gorbachev": 4268, 
  "hot": 4269, 
  "ass@@": 4270, 
  "accumulation": 4271, 
  "liberals": 4272, 
  "implied": 4273, 
  "ics": 4274, 
  "19@@": 4275, 
  "reinforce": 4276, 
  "challenged": 4277, 
  "characterized": 4278, 
  "resentment": 4279, 
  "Assad": 4280, 
  "treating": 4281, 
  "acc@@": 4282, 
  "alliances": 4283, 
  "sub-Saharan": 4284, 
  "introduction": 4285, 
  "tariffs": 4286, 
  "check": 4287, 
  "anywhere": 4288, 
  "il@@": 4289, 
  "trans@@": 4290, 
  "non@@": 4291, 
  "Ar@@": 4292, 
  "starts": 4293, 
  "findings": 4294, 
  "Shanghai": 4295, 
  "ak": 4296, 
  "speci@@": 4297, 
  "fairness": 4298, 
  "facilitate": 4299, 
  "channels": 4300, 
  "beneficial": 4301, 
  "criticized": 4302, 
  "imported": 4303, 
  "winners": 4304, 
  "displaced": 4305, 
  "steadily": 4306, 
  "passing": 4307, 
  "dropped": 4308, 
  "promotion": 4309, 
  "ke": 4310, 
  "tional": 4311, 
  "defeated": 4312, 
  "hard-@@": 4313, 
  "hostility": 4314, 
  "free-trade": 4315, 
  "anxiety": 4316, 
  "multi@@": 4317, 
  "considerations": 4318, 
  "aged": 4319, 
  "tors": 4320, 
  "Caucasus": 4321, 
  "surrounding": 4322, 
  "insurgency": 4323, 
  "proof": 4324, 
  "silent": 4325, 
  "Charles": 4326, 
  "harsh": 4327, 
  "burdens": 4328, 
  "acknowledged": 4329, 
  "namely": 4330, 
  "free-market": 4331, 
  "permit": 4332, 
  "cope": 4333, 
  "tro@@": 4334, 
  "Balkans": 4335, 
  "decent": 4336, 
  "shut": 4337, 
  "sole": 4338, 
  "Tokyo": 4339, 
  "cold": 4340, 
  "tightening": 4341, 
  "favored": 4342, 
  "defining": 4343, 
  "foreign-policy": 4344, 
  "holders": 4345, 
  "accelerate": 4346, 
  "reporting": 4347, 
  "blind": 4348, 
  "fraction": 4349, 
  "distinction": 4350, 
  "background": 4351, 
  "neglect": 4352, 
  "ture": 4353, 
  "ceiling": 4354, 
  "Gates": 4355, 
  "superior": 4356, 
  "remove": 4357, 
  "enabling": 4358, 
  "stick": 4359, 
  "knowing": 4360, 
  "dynamics": 4361, 
  "dozens": 4362, 
  "half-century": 4363, 
  "witnessed": 4364, 
  "dire": 4365, 
  "mer": 4366, 
  "dying": 4367, 
  "&apos;@@": 4368, 
  "Chicago": 4369, 
  "teams": 4370, 
  "advocate": 4371, 
  "orders": 4372, 
  "introduce": 4373, 
  "voluntary": 4374, 
  "downside": 4375, 
  "unified": 4376, 
  "doomed": 4377, 
  "Mikhail": 4378, 
  "accurate": 4379, 
  "adoption": 4380, 
  "physics": 4381, 
  "pres@@": 4382, 
  "exporters": 4383, 
  "traders": 4384, 
  "bridge": 4385, 
  "ai@@": 4386, 
  "Madrid": 4387, 
  "online": 4388, 
  "narrative": 4389, 
  "chemical": 4390, 
  "exploit": 4391, 
  "memories": 4392, 
  "observed": 4393, 
  "implicit": 4394, 
  "hum@@": 4395, 
  "inter-@@": 4396, 
  "Baltic": 4397, 
  "induced": 4398, 
  "men@@": 4399, 
  "holdings": 4400, 
  "sacrifice": 4401, 
  "clinical": 4402, 
  "high-tech": 4403, 
  "Consensus": 4404, 
  "names": 4405, 
  "1,000": 4406, 
  "foremost": 4407, 
  "hospitals": 4408, 
  "vers": 4409, 
  "eted": 4410, 
  "employed": 4411, 
  "que": 4412, 
  "Mugabe": 4413, 
  "pipeline": 4414, 
  "adjustments": 4415, 
  "confined": 4416, 
  "fra@@": 4417, 
  "steady": 4418, 
  "excluded": 4419, 
  "EMU": 4420, 
  "versus": 4421, 
  "deemed": 4422, 
  "gene": 4423, 
  "investor": 4424, 
  "ex-@@": 4425, 
  "roles": 4426, 
  "profitable": 4427, 
  "demise": 4428, 
  "burst": 4429, 
  "antly": 4430, 
  "pressed": 4431, 
  "units": 4432, 
  "optimistic": 4433, 
  "enacted": 4434, 
  "shaped": 4435, 
  "precedent": 4436, 
  "cl@@": 4437, 
  "Com@@": 4438, 
  "euro-zone": 4439, 
  "forest": 4440, 
  "rebuild": 4441, 
  "watching": 4442, 
  "ori@@": 4443, 
  "ss": 4444, 
  "ranks": 4445, 
  "broadly": 4446, 
  "disappear": 4447, 
  "When": 4448, 
  "air@@": 4449, 
  "year-old": 4450, 
  "1993": 4451, 
  "dd@@": 4452, 
  "captured": 4453, 
  "equilibrium": 4454, 
  "bust": 4455, 
  "feelings": 4456, 
  "budgetary": 4457, 
  "behave": 4458, 
  "experiments": 4459, 
  "conviction": 4460, 
  "broke": 4461, 
  "ens": 4462, 
  "famously": 4463, 
  "applies": 4464, 
  "Act": 4465, 
  "foreseeable": 4466, 
  "overwhelmingly": 4467, 
  "therapy": 4468, 
  "concessions": 4469, 
  "commission": 4470, 
  "Gu@@": 4471, 
  "uranium": 4472, 
  "practically": 4473, 
  "5-@@": 4474, 
  "automatic": 4475, 
  "doubled": 4476, 
  "enjoyed": 4477, 
  "ess@@": 4478, 
  "bias": 4479, 
  "prevail": 4480, 
  "factions": 4481, 
  "fine": 4482, 
  "the-@@": 4483, 
  "prof@@": 4484, 
  "citizen": 4485, 
  "ak@@": 4486, 
  "irrelevant": 4487, 
  "describe": 4488, 
  "Abdullah": 4489, 
  "secondary": 4490, 
  "contraction": 4491, 
  "revival": 4492, 
  "upper": 4493, 
  "commentators": 4494, 
  "ster": 4495, 
  "strange": 4496, 
  "Keynesian": 4497, 
  "globe": 4498, 
  "oc@@": 4499, 
  "cap@@": 4500, 
  "Association": 4501, 
  "DPJ": 4502, 
  "poll": 4503, 
  "minor": 4504, 
  "vis-à-vis": 4505, 
  "bet": 4506, 
  "camps": 4507, 
  "ically": 4508, 
  "Belgium": 4509, 
  "drawing": 4510, 
  "boundaries": 4511, 
  "cul@@": 4512, 
  "machine": 4513, 
  "paradox": 4514, 
  "0@@": 4515, 
  "preparing": 4516, 
  "al-Qaeda": 4517, 
  "wh@@": 4518, 
  "ia": 4519, 
  "competitors": 4520, 
  "Gore": 4521, 
  "ban@@": 4522, 
  "cas@@": 4523, 
  "altogether": 4524, 
  "real-estate": 4525, 
  "techniques": 4526, 
  "redistribution": 4527, 
  "speculation": 4528, 
  "fulfill": 4529, 
  "settle": 4530, 
  "200@@": 4531, 
  "bio@@": 4532, 
  "shot": 4533, 
  "remarkably": 4534, 
  "head@@": 4535, 
  "proc@@": 4536, 
  "Article": 4537, 
  "ethics": 4538, 
  "scenarios": 4539, 
  "approximately": 4540, 
  "lacking": 4541, 
  "imp@@": 4542, 
  "exc@@": 4543, 
  "1979": 4544, 
  "veto": 4545, 
  "Iranians": 4546, 
  "Co@@": 4547, 
  "emphasized": 4548, 
  "buildings": 4549, 
  "grows": 4550, 
  "survived": 4551, 
  "morally": 4552, 
  "backlash": 4553, 
  "tomorrow": 4554, 
  "industrialized": 4555, 
  "accident": 4556, 
  "constantly": 4557, 
  "novel": 4558, 
  "oriented": 4559, 
  "minded": 4560, 
  "1945": 4561, 
  "vested": 4562, 
  "worker": 4563, 
  "bel@@": 4564, 
  "-and-@@": 4565, 
  "bling": 4566, 
  "hurt": 4567, 
  "east": 4568, 
  "sake": 4569, 
  "soared": 4570, 
  "strict": 4571, 
  "province": 4572, 
  "parity": 4573, 
  "losers": 4574, 
  "declare": 4575, 
  "14@@": 4576, 
  "confronting": 4577, 
  "skepticism": 4578, 
  "USSR": 4579, 
  "lit@@": 4580, 
  "mal@@": 4581, 
  "impression": 4582, 
  "marriage": 4583, 
  "surprised": 4584, 
  "What": 4585, 
  "policymaking": 4586, 
  "er-@@": 4587, 
  "reactions": 4588, 
  "career": 4589, 
  "frustration": 4590, 
  "Kurdish": 4591, 
  "countless": 4592, 
  "box": 4593, 
  "ballot": 4594, 
  "classic": 4595, 
  "ani": 4596, 
  "perfectly": 4597, 
  "cyclical": 4598, 
  "reference": 4599, 
  "extending": 4600, 
  "Microsoft": 4601, 
  "dismissed": 4602, 
  "clash": 4603, 
  "loyalty": 4604, 
  "atic": 4605, 
  "breakthrough": 4606, 
  "compensate": 4607, 
  "g-@@": 4608, 
  "foreign-exchange": 4609, 
  "biology": 4610, 
  "furthermore": 4611, 
  "Abu": 4612, 
  "Lehman": 4613, 
  "repeat": 4614, 
  "formula": 4615, 
  "adjust": 4616, 
  "temperature": 4617, 
  "combine": 4618, 
  "enrichment": 4619, 
  "dubious": 4620, 
  "ach@@": 4621, 
  "discredited": 4622, 
  "automatically": 4623, 
  "nets": 4624, 
  "Car@@": 4625, 
  "ser@@": 4626, 
  "eliminated": 4627, 
  "inclusive": 4628, 
  "scarce": 4629, 
  "end@@": 4630, 
  "collateral": 4631, 
  "laid": 4632, 
  "hom@@": 4633, 
  "Ghana": 4634, 
  "firmly": 4635, 
  "400": 4636, 
  "diminished": 4637, 
  "rel@@": 4638, 
  "discourse": 4639, 
  "investigation": 4640, 
  "acquire": 4641, 
  "sky": 4642, 
  "Nixon": 4643, 
  "26": 4644, 
  "Bangladesh": 4645, 
  "ve@@": 4646, 
  "criminals": 4647, 
  "spreads": 4648, 
  "with@@": 4649, 
  "iness": 4650, 
  "En@@": 4651, 
  "multinational": 4652, 
  "cy": 4653, 
  "stra@@": 4654, 
  "crops": 4655, 
  "bloc": 4656, 
  "teachers": 4657, 
  "strongest": 4658, 
  "edge": 4659, 
  "Serbs": 4660, 
  "reward": 4661, 
  "conf@@": 4662, 
  "pping": 4663, 
  "2.5": 4664, 
  "ot": 4665, 
  "plenty": 4666, 
  "followers": 4667, 
  "id": 4668, 
  "IPCC": 4669, 
  "ath": 4670, 
  "soci@@": 4671, 
  "packages": 4672, 
  "relied": 4673, 
  "agents": 4674, 
  "ery": 4675, 
  "B": 4676, 
  "everybody": 4677, 
  "deployed": 4678, 
  "equ@@": 4679, 
  "three-@@": 4680, 
  "forecasts": 4681, 
  "mess": 4682, 
  "integrate": 4683, 
  "deterrence": 4684, 
  "raw": 4685, 
  "Cup": 4686, 
  "ya": 4687, 
  "reflecting": 4688, 
  "nuclear-@@": 4689, 
  "hu@@": 4690, 
  "istic": 4691, 
  "initiated": 4692, 
  "cing": 4693, 
  "mothers": 4694, 
  "Richard": 4695, 
  "indicators": 4696, 
  "allocation": 4697, 
  "insisted": 4698, 
  "Si@@": 4699, 
  "homeowners": 4700, 
  "existed": 4701, 
  "ase": 4702, 
  "Ab@@": 4703, 
  "customs": 4704, 
  "des@@": 4705, 
  "cooperate": 4706, 
  "sovereign-debt": 4707, 
  "banned": 4708, 
  "relies": 4709, 
  "obligation": 4710, 
  "misguided": 4711, 
  "Ro@@": 4712, 
  "carrying": 4713, 
  "Google": 4714, 
  "wed": 4715, 
  "grasp": 4716, 
  "rebels": 4717, 
  "discovery": 4718, 
  "Community": 4719, 
  "arrived": 4720, 
  "alistic": 4721, 
  "devi@@": 4722, 
  "collectively": 4723, 
  "relying": 4724, 
  "vastly": 4725, 
  "wishes": 4726, 
  "28": 4727, 
  "Cooperation": 4728, 
  "vely": 4729, 
  "20@@": 4730, 
  "town": 4731, 
  "citizenship": 4732, 
  "derivatives": 4733, 
  "miracle": 4734, 
  "application": 4735, 
  "attempted": 4736, 
  "tells": 4737, 
  "cohesion": 4738, 
  "entrenched": 4739, 
  "postcommunist": 4740, 
  "Ronald": 4741, 
  "bled": 4742, 
  "Ex@@": 4743, 
  "factory": 4744, 
  "transnational": 4745, 
  "shortage": 4746, 
  "characteristics": 4747, 
  "sive": 4748, 
  "origin": 4749, 
  "Pope": 4750, 
  "intensive": 4751, 
  "symptoms": 4752, 
  "tragic": 4753, 
  "Law": 4754, 
  "Ethiopia": 4755, 
  "denial": 4756, 
  "hal@@": 4757, 
  "cabinet": 4758, 
  "ke@@": 4759, 
  "prone": 4760, 
  "artificial": 4761, 
  "ang": 4762, 
  "upward": 4763, 
  "minimal": 4764, 
  "irrational": 4765, 
  "error": 4766, 
  "Declaration": 4767, 
  "possibilities": 4768, 
  "breast": 4769, 
  "reading": 4770, 
  "10@@": 4771, 
  "proud": 4772, 
  "assist": 4773, 
  "rampant": 4774, 
  "train": 4775, 
  "Chechnya": 4776, 
  "ay@@": 4777, 
  "Conference": 4778, 
  "ns": 4779, 
  "ement": 4780, 
  "second-@@": 4781, 
  "fueling": 4782, 
  "iled": 4783, 
  "WWII": 4784, 
  "ici@@": 4785, 
  "overnight": 4786, 
  "off@@": 4787, 
  "invited": 4788, 
  "symbol": 4789, 
  "piece": 4790, 
  "bombs": 4791, 
  "Royal": 4792, 
  "predecessor": 4793, 
  "Prague": 4794, 
  "Times": 4795, 
  "comp@@": 4796, 
  "grade": 4797, 
  "post@@": 4798, 
  "ler": 4799, 
  "scandals": 4800, 
  "ah": 4801, 
  "distributed": 4802, 
  "deliberately": 4803, 
  "symbolic": 4804, 
  "wise": 4805, 
  "Swedish": 4806, 
  "partial": 4807, 
  "absorb": 4808, 
  "Charter": 4809, 
  "crop": 4810, 
  "censorship": 4811, 
  "anticipated": 4812, 
  "governmental": 4813, 
  "exclusively": 4814, 
  "contains": 4815, 
  "premium": 4816, 
  "buyers": 4817, 
  "odds": 4818, 
  "interference": 4819, 
  "logical": 4820, 
  "populism": 4821, 
  "decrease": 4822, 
  "regain": 4823, 
  "creditor": 4824, 
  "sadly": 4825, 
  "ines": 4826, 
  "Somalia": 4827, 
  "militias": 4828, 
  "skeptical": 4829, 
  "Labour": 4830, 
  "document": 4831, 
  "occurs": 4832, 
  "architecture": 4833, 
  "suffers": 4834, 
  "checks": 4835, 
  "acute": 4836, 
  "Climate": 4837, 
  "futures": 4838, 
  "temperatures": 4839, 
  "widening": 4840, 
  "EFSF": 4841, 
  "proclaimed": 4842, 
  "studied": 4843, 
  "earned": 4844, 
  "arrangement": 4845, 
  "Red": 4846, 
  "calculations": 4847, 
  "substitute": 4848, 
  "pull": 4849, 
  "insecurity": 4850, 
  "sin@@": 4851, 
  "liquid": 4852, 
  "patent": 4853, 
  "lan@@": 4854, 
  "comparative": 4855, 
  "offensive": 4856, 
  "tr@@": 4857, 
  "constitutes": 4858, 
  "Wen": 4859, 
  "cu@@": 4860, 
  "connections": 4861, 
  "separation": 4862, 
  "bearing": 4863, 
  "platform": 4864, 
  "accounted": 4865, 
  "comm@@": 4866, 
  "negotiation": 4867, 
  "arguably": 4868, 
  "systematic": 4869, 
  "tically": 4870, 
  "dy": 4871, 
  "reasonably": 4872, 
  "salaries": 4873, 
  "catch": 4874, 
  "lender": 4875, 
  "split": 4876, 
  "performed": 4877, 
  "bal@@": 4878, 
  "Congo": 4879, 
  "erupted": 4880, 
  "calm": 4881, 
  "internet": 4882, 
  "talent": 4883, 
  "indirect": 4884, 
  "propose": 4885, 
  "filled": 4886, 
  "inclusion": 4887, 
  "skeptics": 4888, 
  "missions": 4889, 
  "eling": 4890, 
  "unnecessary": 4891, 
  "cautious": 4892, 
  "bly": 4893, 
  "public-sector": 4894, 
  "endorsed": 4895, 
  "emerges": 4896, 
  "Gandhi": 4897, 
  "sw@@": 4898, 
  "destroying": 4899, 
  "Brazilian": 4900, 
  "extension": 4901, 
  "affects": 4902, 
  "govern": 4903, 
  "stic": 4904, 
  "v": 4905, 
  "LDP": 4906, 
  "notice": 4907, 
  "neighborhood": 4908, 
  "rated": 4909, 
  "sentiments": 4910, 
  "reformers": 4911, 
  "games": 4912, 
  "panel": 4913, 
  "shortcomings": 4914, 
  "Socialist": 4915, 
  "prevailed": 4916, 
  "restricted": 4917, 
  "taught": 4918, 
  "indifference": 4919, 
  "unite": 4920, 
  "determining": 4921, 
  "spends": 4922, 
  "ony": 4923, 
  "clu@@": 4924, 
  "sectarian": 4925, 
  "indebted": 4926, 
  "He@@": 4927, 
  "av@@": 4928, 
  "opposing": 4929, 
  "dozen": 4930, 
  "cure": 4931, 
  "misleading": 4932, 
  "spe@@": 4933, 
  "65": 4934, 
  "remote": 4935, 
  "Geneva": 4936, 
  "capability": 4937, 
  "Kurds": 4938, 
  "justification": 4939, 
  "recovered": 4940, 
  "stuck": 4941, 
  "founding": 4942, 
  "T": 4943, 
  "availability": 4944, 
  "br@@": 4945, 
  "settled": 4946, 
  "forge": 4947, 
  "ots": 4948, 
  "ese": 4949, 
  "solved": 4950, 
  "gross": 4951, 
  "Mi@@": 4952, 
  "sted": 4953, 
  "attempting": 4954, 
  "public-@@": 4955, 
  "margin": 4956, 
  "Koizumi": 4957, 
  "slowing": 4958, 
  "Liu": 4959, 
  "undermines": 4960, 
  "rivals": 4961, 
  "bases": 4962, 
  "ases": 4963, 
  "accelerated": 4964, 
  "preferred": 4965, 
  "luxury": 4966, 
  "distress": 4967, 
  "del@@": 4968, 
  "extremist": 4969, 
  "traffic": 4970, 
  "centralized": 4971, 
  "degrees": 4972, 
  "predecessors": 4973, 
  "evi@@": 4974, 
  "exporting": 4975, 
  "iting": 4976, 
  "reveal": 4977, 
  "originally": 4978, 
  "unification": 4979, 
  "Chief": 4980, 
  "Premier": 4981, 
  "Free": 4982, 
  "str@@": 4983, 
  "regulate": 4984, 
  "display": 4985, 
  "pick": 4986, 
  "consolidate": 4987, 
  "announcement": 4988, 
  "Office": 4989, 
  "transmission": 4990, 
  "assumptions": 4991, 
  "Cameron": 4992, 
  "val@@": 4993, 
  "uted": 4994, 
  "heading": 4995, 
  "Yushchenko": 4996, 
  "adaptation": 4997, 
  "locked": 4998, 
  "�": 4999, 
  "acquired": 5000, 
  "partnerships": 5001, 
  "dimension": 5002, 
  "understands": 5003, 
  "enduring": 5004, 
  "electric": 5005, 
  "inaction": 5006, 
  "ron@@": 5007, 
  "biodiversity": 5008, 
  "burning": 5009, 
  "defaults": 5010, 
  "overly": 5011, 
  "request": 5012, 
  "choosing": 5013, 
  "Maastricht": 5014, 
  "mer@@": 5015, 
  "portfolio": 5016, 
  "temptation": 5017, 
  "rises": 5018, 
  "route": 5019, 
  "cked": 5020, 
  "ty-@@": 5021, 
  "thinks": 5022, 
  "post-war": 5023, 
  "located": 5024, 
  "bondholders": 5025, 
  "Ban": 5026, 
  "fundamentalism": 5027, 
  "radically": 5028, 
  "Schröder": 5029, 
  "securing": 5030, 
  "invented": 5031, 
  "form@@": 5032, 
  "sub-@@": 5033, 
  "Berkeley": 5034, 
  "stations": 5035, 
  "assault": 5036, 
  "Khrushchev": 5037, 
  "gases": 5038, 
  "collaboration": 5039, 
  "scandal": 5040, 
  "militants": 5041, 
  "association": 5042, 
  "Swiss": 5043, 
  "wn": 5044, 
  "hazard": 5045, 
  "atten@@": 5046, 
  "fifth": 5047, 
  "mentioned": 5048, 
  "defensive": 5049, 
  "origins": 5050, 
  "covered": 5051, 
  "ger": 5052, 
  "personnel": 5053, 
  "sto@@": 5054, 
  "bargain": 5055, 
  "ce-@@": 5056, 
  "GNP": 5057, 
  "Moldova": 5058, 
  "Sh@@": 5059, 
  "rebalancing": 5060, 
  "Ben": 5061, 
  "mat@@": 5062, 
  "lec@@": 5063, 
  "Asians": 5064, 
  "consent": 5065, 
  "Sunnis": 5066, 
  "ades": 5067, 
  "religions": 5068, 
  "villages": 5069, 
  "tradable": 5070, 
  "poised": 5071, 
  "q@@": 5072, 
  "solving": 5073, 
  "completed": 5074, 
  "resilience": 5075, 
  "6.@@": 5076, 
  "run-up": 5077, 
  "keen": 5078, 
  "entity": 5079, 
  "rigid": 5080, 
  "timing": 5081, 
  "If": 5082, 
  "retail": 5083, 
  "islands": 5084, 
  "sal@@": 5085, 
  "spectacular": 5086, 
  "secured": 5087, 
  "Program": 5088, 
  "motives": 5089, 
  "bail": 5090, 
  "probability": 5091, 
  "Trichet": 5092, 
  "exchanges": 5093, 
  "tes": 5094, 
  "prize": 5095, 
  "ther": 5096, 
  "reforming": 5097, 
  "excuse": 5098, 
  "dri@@": 5099, 
  "San": 5100, 
  "provinces": 5101, 
  "virus": 5102, 
  "responding": 5103, 
  "Nuclear": 5104, 
  "compare": 5105, 
  "ast": 5106, 
  "pact": 5107, 
  "facility": 5108, 
  "downs": 5109, 
  "minimize": 5110, 
  "Chechen": 5111, 
  "brief": 5112, 
  "TB": 5113, 
  "immigrant": 5114, 
  "outsiders": 5115, 
  "ong": 5116, 
  "statistical": 5117, 
  "indicates": 5118, 
  "riots": 5119, 
  "coun@@": 5120, 
  "medium-term": 5121, 
  "nation@@": 5122, 
  "parliaments": 5123, 
  "Round": 5124, 
  "bears": 5125, 
  "brink": 5126, 
  "irresponsible": 5127, 
  "Roosevelt": 5128, 
  "trap": 5129, 
  "star": 5130, 
  "scholars": 5131, 
  "disappeared": 5132, 
  "ment@@": 5133, 
  "underground": 5134, 
  "shor@@": 5135, 
  "balancing": 5136, 
  "organize": 5137, 
  "witness": 5138, 
  "ach": 5139, 
  "Thatcher": 5140, 
  "empty": 5141, 
  "tide": 5142, 
  "react": 5143, 
  "phrase": 5144, 
  "Norway": 5145, 
  "ap": 5146, 
  "formidable": 5147, 
  "exceptions": 5148, 
  "differ": 5149, 
  "meantime": 5150, 
  "warnings": 5151, 
  "ward": 5152, 
  "decisively": 5153, 
  "For@@": 5154, 
  "PLO": 5155, 
  "Leader": 5156, 
  "unpredictable": 5157, 
  "assured": 5158, 
  "ideals": 5159, 
  "tremendous": 5160, 
  "civilized": 5161, 
  "uns@@": 5162, 
  "incapable": 5163, 
  "accomplish": 5164, 
  "interim": 5165, 
  "entities": 5166, 
  "detailed": 5167, 
  "dealt": 5168, 
  "conservation": 5169, 
  "occasion": 5170, 
  "excellent": 5171, 
  "Th@@": 5172, 
  "ant@@": 5173, 
  "booms": 5174, 
  "nationalists": 5175, 
  "attracted": 5176, 
  "her@@": 5177, 
  "Alan": 5178, 
  "tissue": 5179, 
  "tanks": 5180, 
  "ration": 5181, 
  "grant": 5182, 
  "warfare": 5183, 
  "bli@@": 5184, 
  "fighters": 5185, 
  "judged": 5186, 
  "harmful": 5187, 
  "Green": 5188, 
  "radiation": 5189, 
  "assumes": 5190, 
  "Government": 5191, 
  "arian": 5192, 
  "ining": 5193, 
  "ti": 5194, 
  "sheer": 5195, 
  "object": 5196, 
  "affair": 5197, 
  "motion": 5198, 
  "cri@@": 5199, 
  "vacuum": 5200, 
  "outsourcing": 5201, 
  "persist": 5202, 
  "affecting": 5203, 
  "barrel": 5204, 
  "unclear": 5205, 
  "ation@@": 5206, 
  "outs": 5207, 
  "totally": 5208, 
  "ame": 5209, 
  "implying": 5210, 
  "medicines": 5211, 
  "Ri@@": 5212, 
  "distressed": 5213, 
  "routinely": 5214, 
  "etc": 5215, 
  "Tiananmen": 5216, 
  "la": 5217, 
  "teaching": 5218, 
  "organisms": 5219, 
  "messages": 5220, 
  "monitor": 5221, 
  "winner": 5222, 
  "zz@@": 5223, 
  "imbalance": 5224, 
  "cro@@": 5225, 
  "rally": 5226, 
  "medi@@": 5227, 
  "forth": 5228, 
  "threshold": 5229, 
  "ana": 5230, 
  "guilty": 5231, 
  "repressive": 5232, 
  "Per@@": 5233, 
  "Morocco": 5234, 
  "100,000": 5235, 
  "benign": 5236, 
  "imagination": 5237, 
  "restraint": 5238, 
  "invariably": 5239, 
  "illusion": 5240, 
  "engaging": 5241, 
  "humiliation": 5242, 
  "assassination": 5243, 
  "revived": 5244, 
  "ering": 5245, 
  "ambition": 5246, 
  "carbon-@@": 5247, 
  "15@@": 5248, 
  "affordable": 5249, 
  "sale": 5250, 
  "containment": 5251, 
  "bills": 5252, 
  "far-reaching": 5253, 
  "Hague": 5254, 
  "sick": 5255, 
  "blo@@": 5256, 
  "stems": 5257, 
  "fertility": 5258, 
  "hon@@": 5259, 
  "len@@": 5260, 
  "payment": 5261, 
  "peripheral": 5262, 
  "suppose": 5263, 
  "seeds": 5264, 
  "fired": 5265, 
  "stark": 5266, 
  "blocked": 5267, 
  "coupled": 5268, 
  "temporarily": 5269, 
  "reflection": 5270, 
  "rewards": 5271, 
  "complain": 5272, 
  "socially": 5273, 
  "station": 5274, 
  "beat": 5275, 
  "channel": 5276, 
  "sounds": 5277, 
  "vague": 5278, 
  "subsequently": 5279, 
  "oned": 5280, 
  "camp": 5281, 
  "considerably": 5282, 
  "sport": 5283, 
  "1973": 5284, 
  "Serbian": 5285, 
  "healthcare": 5286, 
  "audience": 5287, 
  "fre@@": 5288, 
  "James": 5289, 
  "Rwanda": 5290, 
  "missed": 5291, 
  "angry": 5292, 
  "welcomed": 5293, 
  "wary": 5294, 
  "roll": 5295, 
  "insolvent": 5296, 
  "aggression": 5297, 
  "succession": 5298, 
  "freeze": 5299, 
  "recorded": 5300, 
  "low-income": 5301, 
  "enthusiasm": 5302, 
  "vice": 5303, 
  "retreat": 5304, 
  "behalf": 5305, 
  "Peru": 5306, 
  "myth": 5307, 
  "Report": 5308, 
  "mutually": 5309, 
  "miss": 5310, 
  "crowd": 5311, 
  "likes": 5312, 
  "businessmen": 5313, 
  "tariff": 5314, 
  "electronic": 5315, 
  "departure": 5316, 
  "Li@@": 5317, 
  "deputy": 5318, 
  "examine": 5319, 
  "readily": 5320, 
  "0,000": 5321, 
  "fal@@": 5322, 
  "equipped": 5323, 
  "peacefully": 5324, 
  "seized": 5325, 
  "orderly": 5326, 
  "farming": 5327, 
  "inherited": 5328, 
  "democrats": 5329, 
  "encourages": 5330, 
  "Secretary-General": 5331, 
  "catastrophic": 5332, 
  "counts": 5333, 
  "pledged": 5334, 
  "booming": 5335, 
  "wins": 5336, 
  "elderly": 5337, 
  "democratically": 5338, 
  "confusion": 5339, 
  "satisfy": 5340, 
  "Algeria": 5341, 
  "card": 5342, 
  "suit": 5343, 
  "gaps": 5344, 
  "tolerate": 5345, 
  "8.@@": 5346, 
  "disin@@": 5347, 
  "KGB": 5348, 
  "Jintao": 5349, 
  "ani@@": 5350, 
  "legally": 5351, 
  "self-interest": 5352, 
  "intent": 5353, 
  "peasants": 5354, 
  "Georgian": 5355, 
  "discover": 5356, 
  "semi-@@": 5357, 
  "Communists": 5358, 
  "aircraft": 5359, 
  "Bi@@": 5360, 
  "performing": 5361, 
  "liberation": 5362, 
  "jo@@": 5363, 
  "shrinking": 5364, 
  "ening": 5365, 
  "moderates": 5366, 
  "ft": 5367, 
  "uncertainties": 5368, 
  "bing": 5369, 
  "masses": 5370, 
  "sanitation": 5371, 
  "systematically": 5372, 
  "inherently": 5373, 
  "abandoning": 5374, 
  "gri@@": 5375, 
  "Par@@": 5376, 
  "and-@@": 5377, 
  "ash@@": 5378, 
  "infected": 5379, 
  "substance": 5380, 
  "oligarchs": 5381, 
  "satellite": 5382, 
  "ect": 5383, 
  "hide": 5384, 
  "4-@@": 5385, 
  "recommendations": 5386, 
  "factories": 5387, 
  "all-@@": 5388, 
  "ley": 5389, 
  "Initiative": 5390, 
  "There": 5391, 
  "low-cost": 5392, 
  "exaggerated": 5393, 
  "kes": 5394, 
  "occurring": 5395, 
  "genuinely": 5396, 
  "ok": 5397, 
  "But": 5398, 
  "writers": 5399, 
  "gun": 5400, 
  "notable": 5401, 
  "conclusions": 5402, 
  "rice": 5403, 
  "unusual": 5404, 
  "middle-income": 5405, 
  "il": 5406, 
  "Ukrainian": 5407, 
  "tangible": 5408, 
  "value-added": 5409, 
  "devices": 5410, 
  "portion": 5411, 
  "single-@@": 5412, 
  "brand": 5413, 
  "dreams": 5414, 
  "surveys": 5415, 
  "rever@@": 5416, 
  "massacre": 5417, 
  "ner@@": 5418, 
  "IAEA": 5419, 
  "att@@": 5420, 
  "Hillary": 5421, 
  "alities": 5422, 
  "Day": 5423, 
  "oversight": 5424, 
  "IC@@": 5425, 
  "plac@@": 5426, 
  "identities": 5427, 
  "boards": 5428, 
  "hydro@@": 5429, 
  "Ma@@": 5430, 
  "literally": 5431, 
  "struggles": 5432, 
  "radicals": 5433, 
  "sustaining": 5434, 
  "settlers": 5435, 
  "aring": 5436, 
  "CEO": 5437, 
  "deterioration": 5438, 
  "crimin@@": 5439, 
  "Pro@@": 5440, 
  "urge": 5441, 
  "carries": 5442, 
  "feet": 5443, 
  "dysfunctional": 5444, 
  "diminish": 5445, 
  "phone": 5446, 
  "pool": 5447, 
  "M": 5448, 
  "Castro": 5449, 
  "doors": 5450, 
  "ble@@": 5451, 
  "seize": 5452, 
  "takeover": 5453, 
  "Goals": 5454, 
  "continental": 5455, 
  "breakdown": 5456, 
  "Morsi": 5457, 
  "spiral": 5458, 
  "Saudis": 5459, 
  "Brotherhood": 5460, 
  "Fox": 5461, 
  "poll@@": 5462, 
  "preserving": 5463, 
  "new@@": 5464, 
  "dissidents": 5465, 
  "formally": 5466, 
  "ads": 5467, 
  "clo@@": 5468, 
  "psychology": 5469, 
  "lau@@": 5470, 
  "or-@@": 5471, 
  "elled": 5472, 
  "im": 5473, 
  "4.@@": 5474, 
  "relevance": 5475, 
  "depressed": 5476, 
  "delivering": 5477, 
  "tended": 5478, 
  "pointing": 5479, 
  "-up": 5480, 
  "deleveraging": 5481, 
  "tourism": 5482, 
  "One": 5483, 
  "bankrupt": 5484, 
  "cli@@": 5485, 
  "oning": 5486, 
  "quar@@": 5487, 
  "Ministry": 5488, 
  "listen": 5489, 
  "appearance": 5490, 
  "fil@@": 5491, 
  "Kazakhstan": 5492, 
  "potent": 5493, 
  "ignorance": 5494, 
  "sely": 5495, 
  "Osama": 5496, 
  "dictators": 5497, 
  "Hollande": 5498, 
  "respectively": 5499, 
  "Change": 5500, 
  "financially": 5501, 
  "requirement": 5502, 
  "Tibetan": 5503, 
  "sm@@": 5504, 
  "letter": 5505, 
  "exclusion": 5506, 
  "Empire": 5507, 
  "partisan": 5508, 
  "199@@": 5509, 
  "Orthodox": 5510, 
  "induce": 5511, 
  "fat@@": 5512, 
  "Criminal": 5513, 
  "inherent": 5514, 
  "depth": 5515, 
  "sis": 5516, 
  "emission": 5517, 
  "accordingly": 5518, 
  "Front": 5519, 
  "tempted": 5520, 
  "foot@@": 5521, 
  "favorite": 5522, 
  "Christians": 5523, 
  "lessly": 5524, 
  "ined": 5525, 
  "safeguard": 5526, 
  "letting": 5527, 
  "afraid": 5528, 
  "profession": 5529, 
  "sponsored": 5530, 
  "handle": 5531, 
  "refuses": 5532, 
  "landing": 5533, 
  "removing": 5534, 
  "shortages": 5535, 
  "besides": 5536, 
  "curb": 5537, 
  "Yanukovich": 5538, 
  "virtue": 5539, 
  "accelerating": 5540, 
  "FARC": 5541, 
  "ew": 5542, 
  "punished": 5543, 
  "closing": 5544, 
  "problematic": 5545, 
  "emotions": 5546, 
  "Southern": 5547, 
  "Finland": 5548, 
  "Thai": 5549, 
  "Olympic": 5550, 
  "permitted": 5551, 
  "advisers": 5552, 
  "unilaterally": 5553, 
  "recipe": 5554, 
  "episodes": 5555, 
  "arises": 5556, 
  "Argentine": 5557, 
  "upcoming": 5558, 
  "bonuses": 5559, 
  "traded": 5560, 
  "Erdoğan": 5561, 
  "Koreans": 5562, 
  "despair": 5563, 
  "believing": 5564, 
  "ball": 5565, 
  "preventive": 5566, 
  "category": 5567, 
  "shortfall": 5568, 
  "und@@": 5569, 
  "disorders": 5570, 
  "bosses": 5571, 
  "pervasive": 5572, 
  "Havel": 5573, 
  "ked": 5574, 
  "academics": 5575, 
  "pure": 5576, 
  "utterly": 5577, 
  "enforced": 5578, 
  "notwithstanding": 5579, 
  "paralysis": 5580, 
  "liber@@": 5581, 
  "resisted": 5582, 
  "certainty": 5583, 
  "construct": 5584, 
  "disparities": 5585, 
  "termin@@": 5586, 
  "far@@": 5587, 
  "delayed": 5588, 
  "indication": 5589, 
  "ards": 5590, 
  "admission": 5591, 
  "spectrum": 5592, 
  "shrink": 5593, 
  "vibrant": 5594, 
  "bers": 5595, 
  "Warsaw": 5596, 
  "aggressively": 5597, 
  "errors": 5598, 
  "ites": 5599, 
  "focuses": 5600, 
  "0.5": 5601, 
  "assembly": 5602, 
  "perceptions": 5603, 
  "arbitrary": 5604, 
  "Olympics": 5605, 
  "tons": 5606, 
  "chains": 5607, 
  "perceive": 5608, 
  "prestige": 5609, 
  "servants": 5610, 
  "helpful": 5611, 
  "efficiently": 5612, 
  "rat@@": 5613, 
  "resistant": 5614, 
  "stat@@": 5615, 
  "urged": 5616, 
  "orientation": 5617, 
  "od@@": 5618, 
  "depending": 5619, 
  "tioning": 5620, 
  "preferences": 5621, 
  "EU-@@": 5622, 
  "violation": 5623, 
  "approaching": 5624, 
  "2,000": 5625, 
  "Su@@": 5626, 
  "slowed": 5627, 
  "faction": 5628, 
  "processing": 5629, 
  "alarming": 5630, 
  "13@@": 5631, 
  "erosion": 5632, 
  "consume": 5633, 
  "destabilizing": 5634, 
  "adequately": 5635, 
  "Uribe": 5636, 
  "location": 5637, 
  "Forces": 5638, 
  "disintegration": 5639, 
  "power@@": 5640, 
  "disputed": 5641, 
  "concentrate": 5642, 
  "expose": 5643, 
  "Erdogan": 5644, 
  "postwar": 5645, 
  "Guantánamo": 5646, 
  "ther@@": 5647, 
  "low-carbon": 5648, 
  "pillars": 5649, 
  "grants": 5650, 
  "pay@@": 5651, 
  "creativity": 5652, 
  "lity": 5653, 
  "permanently": 5654, 
  "distinguish": 5655, 
  "bargaining": 5656, 
  "5,000": 5657, 
  "concepts": 5658, 
  "Dis@@": 5659, 
  "Ukrainians": 5660, 
  "civic": 5661, 
  "can@@": 5662, 
  "labor-market": 5663, 
  "fic@@": 5664, 
  "appreciated": 5665, 
  "Hatoyama": 5666, 
  "ah@@": 5667, 
  "hearts": 5668, 
  "deserves": 5669, 
  "deployment": 5670, 
  "asing": 5671, 
  "symbols": 5672, 
  "Ayatollah": 5673, 
  "hate": 5674, 
  "ell@@": 5675, 
  "deliberate": 5676, 
  "energy-@@": 5677, 
  "crude": 5678, 
  "Un@@": 5679, 
  "communists": 5680, 
  "toll": 5681, 
  "Governing": 5682, 
  "evolved": 5683, 
  "philosopher": 5684, 
  "adi@@": 5685, 
  "lic@@": 5686, 
  "First": 5687, 
  "stream": 5688, 
  "Rumsfeld": 5689, 
  "Strip": 5690, 
  "precise": 5691, 
  "Egyptians": 5692, 
  "bas@@": 5693, 
  "operational": 5694, 
  "pricing": 5695, 
  "hungry": 5696, 
  "imminent": 5697, 
  "1-@@": 5698, 
  "fled": 5699, 
  "fundamentalist": 5700, 
  "historians": 5701, 
  "participating": 5702, 
  "exile": 5703, 
  "ini@@": 5704, 
  "entails": 5705, 
  "Be@@": 5706, 
  "reportedly": 5707, 
  "geography": 5708, 
  "accumulated": 5709, 
  "reasoning": 5710, 
  "touch": 5711, 
  "ack": 5712, 
  "all@@": 5713, 
  "fications": 5714, 
  "subsidy": 5715, 
  "offices": 5716, 
  "2-@@": 5717, 
  "premature": 5718, 
  "eless": 5719, 
  "lift": 5720, 
  "insisting": 5721, 
  "transportation": 5722, 
  "flaws": 5723, 
  "Go@@": 5724, 
  "accord": 5725, 
  "human-rights": 5726, 
  "excesses": 5727, 
  "theoretical": 5728, 
  "driver": 5729, 
  "Recession": 5730, 
  "eting": 5731, 
  "multilateralism": 5732, 
  "zones": 5733, 
  "disturbing": 5734, 
  "inspire": 5735, 
  "Oslo": 5736, 
  "unresolved": 5737, 
  "School": 5738, 
  "coast": 5739, 
  "eat": 5740, 
  "comfortable": 5741, 
  "workforce": 5742, 
  "blin@@": 5743, 
  "inner": 5744, 
  "Labor": 5745, 
  "infl@@": 5746, 
  "guided": 5747, 
  "cited": 5748, 
  "ing-@@": 5749, 
  "th-@@": 5750, 
  "enlightened": 5751, 
  "malaise": 5752, 
  "Vice": 5753, 
  "excessively": 5754, 
  "kilometers": 5755, 
  "interdependence": 5756, 
  "habits": 5757, 
  "prudential": 5758, 
  "win@@": 5759, 
  "controversy": 5760, 
  "port": 5761, 
  "injustice": 5762, 
  "universe": 5763, 
  "mistaken": 5764, 
  "ff": 5765, 
  "high-quality": 5766, 
  "tation": 5767, 
  "degradation": 5768, 
  "classical": 5769, 
  "paradigm": 5770, 
  "refugee": 5771, 
  "skill": 5772, 
  "leveraged": 5773, 
  "righ@@": 5774, 
  "gotten": 5775, 
  "sho@@": 5776, 
  "distrust": 5777, 
  "Gordon": 5778, 
  "avert": 5779, 
  "stor@@": 5780, 
  "treatments": 5781, 
  "exclusive": 5782, 
  "edi@@": 5783, 
  "reveals": 5784, 
  "Smith": 5785, 
  "soil": 5786, 
  "venture": 5787, 
  "O": 5788, 
  "author": 5789, 
  "liberalism": 5790, 
  "Fukushima": 5791, 
  "cards": 5792, 
  "enti@@": 5793, 
  "ll@@": 5794, 
  "reckless": 5795, 
  "engines": 5796, 
  "baby": 5797, 
  "&apos;re": 5798, 
  "casualties": 5799, 
  "Woods": 5800, 
  "op": 5801, 
  "Jazeera": 5802, 
  "aligned": 5803, 
  "admitted": 5804, 
  "scarcity": 5805, 
  "grain": 5806, 
  "assert": 5807, 
  "walk": 5808, 
  "ports": 5809, 
  "spiritual": 5810, 
  "tures": 5811, 
  "Orange": 5812, 
  "march": 5813, 
  "markedly": 5814, 
  "distortions": 5815, 
  "1980s": 5816, 
  "1,@@": 5817, 
  "ang@@": 5818, 
  "conceived": 5819, 
  "Ecuador": 5820, 
  "sei@@": 5821, 
  "proceed": 5822, 
  "specter": 5823, 
  "horizon": 5824, 
  "merit": 5825, 
  "iling": 5826, 
  "deposit": 5827, 
  "wild": 5828, 
  "cynical": 5829, 
  "records": 5830, 
  "no-@@": 5831, 
  "music": 5832, 
  "Donald": 5833, 
  "trade-@@": 5834, 
  "1.3": 5835, 
  "gh": 5836, 
  "sheet": 5837, 
  "Hugo": 5838, 
  "manufactured": 5839, 
  "constituencies": 5840, 
  "repair": 5841, 
  "dictatorships": 5842, 
  "valued": 5843, 
  "lin@@": 5844, 
  "emphasize": 5845, 
  "urgency": 5846, 
  "paradoxically": 5847, 
  "cle@@": 5848, 
  "presumably": 5849, 
  "rape": 5850, 
  "sentence": 5851, 
  "Khodorkovsky": 5852, 
  "intensity": 5853, 
  "penalty": 5854, 
  "but@@": 5855, 
  "shaping": 5856, 
  "elec@@": 5857, 
  "drag": 5858, 
  "kno@@": 5859, 
  "ann@@": 5860, 
  "warm": 5861, 
  "incidents": 5862, 
  "totalitarian": 5863, 
  "debtor": 5864, 
  "lest": 5865, 
  "cross": 5866, 
  "tight": 5867, 
  "sia": 5868, 
  "aming": 5869, 
  "Kuchma": 5870, 
  "soccer": 5871, 
  "legislators": 5872, 
  "Libyan": 5873, 
  "founder": 5874, 
  "attend": 5875, 
  "borrowed": 5876, 
  "ranking": 5877, 
  "alter": 5878, 
  "exported": 5879, 
  "ly-@@": 5880, 
  "Olmert": 5881, 
  "exacerbated": 5882, 
  "neglected": 5883, 
  "hurricanes": 5884, 
  "ie": 5885, 
  "reformed": 5886, 
  "explosive": 5887, 
  "X@@": 5888, 
  "Maynard": 5889, 
  "combating": 5890, 
  "Lee": 5891, 
  "oil-@@": 5892, 
  "ts@@": 5893, 
  "eded": 5894, 
  "chil@@": 5895, 
  "master": 5896, 
  "Di@@": 5897, 
  "battles": 5898, 
  "dissent": 5899, 
  "federation": 5900, 
  "five-year": 5901, 
  "life-@@": 5902, 
  "gy": 5903, 
  "exploited": 5904, 
  "Bahrain": 5905, 
  "consuming": 5906, 
  "Chernobyl": 5907, 
  "transaction": 5908, 
  "attributed": 5909, 
  "Viktor": 5910, 
  "loose": 5911, 
  "urbanization": 5912, 
  "supervisory": 5913, 
  "inn@@": 5914, 
  "eding": 5915, 
  "assi@@": 5916, 
  "borne": 5917, 
  "thir@@": 5918, 
  "allegedly": 5919, 
  "UN@@": 5920, 
  "myriad": 5921, 
  "lethal": 5922, 
  "ra": 5923, 
  "Hu@@": 5924, 
  "remembered": 5925, 
  "irony": 5926, 
  "ample": 5927, 
  "middle-class": 5928, 
  "thri@@": 5929, 
  "wherever": 5930, 
  "militant": 5931, 
  "boys": 5932, 
  "Finance": 5933, 
  "ministries": 5934, 
  "Duma": 5935, 
  "immune": 5936, 
  "dent": 5937, 
  "allocated": 5938, 
  "authoritarianism": 5939, 
  "Bretton": 5940, 
  "incomplete": 5941, 
  "conspiracy": 5942, 
  "provoke": 5943, 
  "rap@@": 5944, 
  "impunity": 5945, 
  "comfort": 5946, 
  "9.@@": 5947, 
  "rests": 5948, 
  "explanations": 5949, 
  "absurd": 5950, 
  "respects": 5951, 
  "NGOs": 5952, 
  "governor": 5953, 
  "embedded": 5954, 
  "favors": 5955, 
  "radio": 5956, 
  "Arab-Israeli": 5957, 
  "patents": 5958, 
  "arly": 5959, 
  "2030": 5960, 
  "29": 5961, 
  "eh@@": 5962, 
  "aling": 5963, 
  "floods": 5964, 
  "surrounded": 5965, 
  "speculators": 5966, 
  "Fi@@": 5967, 
  "defended": 5968, 
  "pit@@": 5969, 
  "confi@@": 5970, 
  "enhancing": 5971, 
  "eg@@": 5972, 
  "necessity": 5973, 
  "straightforward": 5974, 
  "dismiss": 5975, 
  "moments": 5976, 
  "swept": 5977, 
  "secretary": 5978, 
  "crisis-@@": 5979, 
  "contest": 5980, 
  "actor": 5981, 
  "whi@@": 5982, 
  "extraordinarily": 5983, 
  "MDGs": 5984, 
  "entrepreneurial": 5985, 
  "ened": 5986, 
  "Congressional": 5987, 
  "throwing": 5988, 
  "-market": 5989, 
  "perpetrators": 5990, 
  "hire": 5991, 
  "consists": 5992, 
  "Caribbean": 5993, 
  "exceptional": 5994, 
  "gues": 5995, 
  "imagined": 5996, 
  "Bulgaria": 5997, 
  "insurgents": 5998, 
  "85": 5999, 
  "adjusted": 6000, 
  "landscape": 6001, 
  "non-proliferation": 6002, 
  "luck": 6003, 
  "commonly": 6004, 
  "surrender": 6005, 
  "Strategy": 6006, 
  "stagnant": 6007, 
  "az@@": 6008, 
  "row": 6009, 
  "generates": 6010, 
  "ker": 6011, 
  "absolutely": 6012, 
  "dre@@": 6013, 
  "imperfect": 6014, 
  "interpreted": 6015, 
  "picked": 6016, 
  "guns": 6017, 
  "scrutiny": 6018, 
  "deforestation": 6019, 
  "marginalized": 6020, 
  "provincial": 6021, 
  "quiet": 6022, 
  "reversal": 6023, 
  "indispensable": 6024, 
  "rage": 6025, 
  "unexpected": 6026, 
  "appealing": 6027, 
  "statehood": 6028, 
  "trapped": 6029, 
  "squ@@": 6030, 
  "deepen": 6031, 
  "gener@@": 6032, 
  "analogy": 6033, 
  "rush": 6034, 
  "atively": 6035, 
  "sad": 6036, 
  "lasted": 6037, 
  "bles": 6038, 
  "Calderón": 6039, 
  "scientist": 6040, 
  "waters": 6041, 
  "lesser": 6042, 
  "grand@@": 6043, 
  "distorted": 6044, 
  "ruler": 6045, 
  "long-standing": 6046, 
  "college": 6047, 
  "offs": 6048, 
  "anemic": 6049, 
  "Obasanjo": 6050, 
  "US-led": 6051, 
  "elect": 6052, 
  "translate": 6053, 
  "ce@@": 6054, 
  "El": 6055, 
  "ef@@": 6056, 
  "advertising": 6057, 
  "fur@@": 6058, 
  "sitting": 6059, 
  "Boris": 6060, 
  "organizing": 6061, 
  "smooth": 6062, 
  "precious": 6063, 
  "attacking": 6064, 
  "insists": 6065, 
  "SCO": 6066, 
  "For": 6067, 
  "tle": 6068, 
  "commerce": 6069, 
  "handed": 6070, 
  "vac@@": 6071, 
  "Shiite": 6072, 
  "jail": 6073, 
  "pound": 6074, 
  "sing@@": 6075, 
  "west": 6076, 
  "loses": 6077, 
  "reluctance": 6078, 
  "ner": 6079, 
  "interaction": 6080, 
  "debt-to-GDP": 6081, 
  "tactical": 6082, 
  "maneuver": 6083, 
  "app@@": 6084, 
  "impede": 6085, 
  "circles": 6086, 
  "indirectly": 6087, 
  "norm": 6088, 
  "shi@@": 6089, 
  "restoration": 6090, 
  "gue": 6091, 
  "entrepreneurship": 6092, 
  "­-": 6093, 
  "Jiang": 6094, 
  "post-Soviet": 6095, 
  "Latvia": 6096, 
  "daunting": 6097, 
  "apparatus": 6098, 
  "exceeds": 6099, 
  "endless": 6100, 
  "influenced": 6101, 
  "breaks": 6102, 
  "counterproductive": 6103, 
  "iron": 6104, 
  "store": 6105, 
  "of-@@": 6106, 
  "crackdown": 6107, 
  "text": 6108, 
  "1981": 6109, 
  "personality": 6110, 
  "suggesting": 6111, 
  "avi@@": 6112, 
  "Movement": 6113, 
  "exp@@": 6114, 
  "introducing": 6115, 
  "lying": 6116, 
  "PA": 6117, 
  "Bar@@": 6118, 
  "ored": 6119, 
  "le-@@": 6120, 
  "onic": 6121, 
  "ent-@@": 6122, 
  "sympathy": 6123, 
  "hero": 6124, 
  "arena": 6125, 
  "prosecution": 6126, 
  "stars": 6127, 
  "advocated": 6128, 
  "infectious": 6129, 
  "bulk": 6130, 
  "drinking": 6131, 
  "inequalities": 6132, 
  "worsening": 6133, 
  "labor-intensive": 6134, 
  "lower-@@": 6135, 
  "amed": 6136, 
  "12@@": 6137, 
  "machines": 6138, 
  "restrict": 6139, 
  "incident": 6140, 
  "derived": 6141, 
  "closest": 6142, 
  "fees": 6143, 
  "genome": 6144, 
  "lam@@": 6145, 
  "Cheney": 6146, 
  "thrown": 6147, 
  "ass": 6148, 
  "resolutions": 6149, 
  "replacement": 6150, 
  "char@@": 6151, 
  "headlines": 6152, 
  "mining": 6153, 
  "belong": 6154, 
  "si": 6155, 
  "essed": 6156, 
  "mas@@": 6157, 
  "occasionally": 6158, 
  "reunification": 6159, 
  "worsen": 6160, 
  "considers": 6161, 
  "outstanding": 6162, 
  "tier": 6163, 
  "seeming": 6164, 
  "ately": 6165, 
  "stalemate": 6166, 
  "Estonia": 6167, 
  "Partnership": 6168, 
  "dge": 6169, 
  "tics": 6170, 
  "hurricane": 6171, 
  "cat@@": 6172, 
  "10,000": 6173, 
  "detention": 6174, 
  "ash": 6175, 
  "issuing": 6176, 
  "duties": 6177, 
  "civilizations": 6178, 
  "Cambodia": 6179, 
  "expects": 6180, 
  "ests": 6181, 
  "somewhere": 6182, 
  "cycles": 6183, 
  "tries": 6184, 
  "unrealistic": 6185, 
  "Director": 6186, 
  "corner": 6187, 
  "mired": 6188, 
  "sup@@": 6189, 
  "31": 6190, 
  "sh-@@": 6191, 
  "Sachs": 6192, 
  "transforming": 6193, 
  "Revolutionary": 6194, 
  "writer": 6195, 
  "laureate": 6196, 
  "accustomed": 6197, 
  "rail@@": 6198, 
  "forthcoming": 6199, 
  "vehicle": 6200, 
  "pre-crisis": 6201, 
  "flat": 6202, 
  "rene@@": 6203, 
  "gen": 6204, 
  "resignation": 6205, 
  "gging": 6206, 
  "credits": 6207, 
  "obtained": 6208, 
  "mitigate": 6209, 
  "episode": 6210, 
  "conditionality": 6211, 
  "No@@": 6212, 
  "enables": 6213, 
  "1982": 6214, 
  "Danish": 6215, 
  "materi@@": 6216, 
  "storage": 6217, 
  "discontent": 6218, 
  "spur": 6219, 
  "swings": 6220, 
  "ratified": 6221, 
  "20th": 6222, 
  "clout": 6223, 
  "Jong-il": 6224, 
  "presents": 6225, 
  "lim@@": 6226, 
  "predictions": 6227, 
  "_@@": 6228, 
  "liberties": 6229, 
  "ide@@": 6230, 
  "subsidized": 6231, 
  "Kar@@": 6232, 
  "whereby": 6233, 
  "pundits": 6234, 
  "scheduled": 6235, 
  "Hindu": 6236, 
  "hoping": 6237, 
  "hikes": 6238, 
  "rein": 6239, 
  "benefiting": 6240, 
  "possess": 6241, 
  "cry": 6242, 
  "Joseph": 6243, 
  "after@@": 6244, 
  "provoked": 6245, 
  "Abkhazia": 6246, 
  "pal@@": 6247, 
  "confused": 6248, 
  "export-led": 6249, 
  "reminder": 6250, 
  "mindset": 6251, 
  "1987": 6252, 
  "Armenia": 6253, 
  "incumbent": 6254, 
  "cru@@": 6255, 
  "deadly": 6256, 
  "flu": 6257, 
  "discourage": 6258, 
  "indi@@": 6259, 
  "foods": 6260, 
  "disagree": 6261, 
  "Australian": 6262, 
  "wards": 6263, 
  "tribunal": 6264, 
  "600": 6265, 
  "prosecutors": 6266, 
  "domestically": 6267, 
  "winter": 6268, 
  "fierce": 6269, 
  "infection": 6270, 
  "unthinkable": 6271, 
  "ignoring": 6272, 
  "sciences": 6273, 
  "vary": 6274, 
  "autocratic": 6275, 
  "ern@@": 6276, 
  "Poles": 6277, 
  "debacle": 6278, 
  "vel@@": 6279, 
  "dr@@": 6280, 
  "grim": 6281, 
  "exacerbate": 6282, 
  "ff@@": 6283, 
  "itation": 6284, 
  "ka": 6285, 
  "don@@": 6286, 
  "strictly": 6287, 
  "contradictory": 6288, 
  "bol@@": 6289, 
  "procedure": 6290, 
  "imperialism": 6291, 
  "deter": 6292, 
  "destiny": 6293, 
  "Goldman": 6294, 
  "Ossetia": 6295, 
  "oring": 6296, 
  "adults": 6297, 
  "coastal": 6298, 
  "Communism": 6299, 
  "feels": 6300, 
  "Kennedy": 6301, 
  "ham@@": 6302, 
  "ocean": 6303, 
  "hur@@": 6304, 
  "Rice": 6305, 
  "remittances": 6306, 
  "unilateralism": 6307, 
  "persuaded": 6308, 
  "resigned": 6309, 
  "neutral": 6310, 
  "Saleh": 6311, 
  "Foundation": 6312, 
  "Abe": 6313, 
  "tual": 6314, 
  "disproportionate": 6315, 
  "tobacco": 6316, 
  "Mu@@": 6317, 
  "c-@@": 6318, 
  "employ": 6319, 
  "pp@@": 6320, 
  "capital-@@": 6321, 
  "distinguished": 6322, 
  "Force": 6323, 
  "droughts": 6324, 
  "Henry": 6325, 
  "environmentally": 6326, 
  "700": 6327, 
  "flowing": 6328, 
  "es-@@": 6329, 
  "empirical": 6330, 
  "uri@@": 6331, 
  "transitions": 6332, 
  "nineteenth-century": 6333, 
  "miles": 6334, 
  "rebuilding": 6335, 
  "9-@@": 6336, 
  "launching": 6337, 
  "viruses": 6338, 
  "window": 6339, 
  "contacts": 6340, 
  "personally": 6341, 
  "elling": 6342, 
  "autumn": 6343, 
  "mem@@": 6344, 
  "maintains": 6345, 
  "journalist": 6346, 
  "internation@@": 6347, 
  "non-governmental": 6348, 
  "pluralism": 6349, 
  "occupying": 6350, 
  "Freedom": 6351, 
  "So@@": 6352, 
  "credentials": 6353, 
  "placing": 6354, 
  "sums": 6355, 
  "siveness": 6356, 
  "break@@": 6357, 
  "7.@@": 6358, 
  "outset": 6359, 
  "deflationary": 6360, 
  "capacities": 6361, 
  "directors": 6362, 
  "continuation": 6363, 
  "attraction": 6364, 
  "path@@": 6365, 
  "lacked": 6366, 
  "administrations": 6367, 
  "pack@@": 6368, 
  "spo@@": 6369, 
  "ss-@@": 6370, 
  "St@@": 6371, 
  "To@@": 6372, 
  "militia": 6373, 
  "cies": 6374, 
  "myself": 6375, 
  "Sri": 6376, 
  "pillar": 6377, 
  "Tribunal": 6378, 
  "childhood": 6379, 
  "1968": 6380, 
  "bombings": 6381, 
  "fortune": 6382, 
  "complaints": 6383, 
  "stages": 6384, 
  "walls": 6385, 
  "lifted": 6386, 
  "higher-@@": 6387, 
  "percent": 6388, 
  "activism": 6389, 
  "atrocities": 6390, 
  "towns": 6391, 
  "Solidarity": 6392, 
  "Pre@@": 6393, 
  "wer": 6394, 
  "accumulate": 6395, 
  "posi@@": 6396, 
  "ga@@": 6397, 
  "believers": 6398, 
  "fruit": 6399, 
  "pragmatism": 6400, 
  "admittedly": 6401, 
  "gasoline": 6402, 
  "protracted": 6403, 
  "-L@@": 6404, 
  "oni@@": 6405, 
  "stre@@": 6406, 
  "searching": 6407, 
  "hiring": 6408, 
  "appointment": 6409, 
  "chan@@": 6410, 
  "au": 6411, 
  "frozen": 6412, 
  "pra@@": 6413, 
  "gathering": 6414, 
  "consciousness": 6415, 
  "Senator": 6416, 
  "coalitions": 6417, 
  "indicator": 6418, 
  "sun": 6419, 
  "abundant": 6420, 
  "Ehud": 6421, 
  "indefinitely": 6422, 
  "contributes": 6423, 
  "arrival": 6424, 
  "mature": 6425, 
  "two-state": 6426, 
  "Kashmir": 6427, 
  "technocrats": 6428, 
  "pling": 6429, 
  "Xiaoping": 6430, 
  "futile": 6431, 
  "Seoul": 6432, 
  "realization": 6433, 
  "tat@@": 6434, 
  "42": 6435, 
  "lifetime": 6436, 
  "oll@@": 6437, 
  "owe": 6438, 
  "Marx": 6439, 
  "comments": 6440, 
  "prudent": 6441, 
  "existential": 6442, 
  "stressed": 6443, 
  "bar": 6444, 
  "3.5": 6445, 
  "best-@@": 6446, 
  "moderation": 6447, 
  "unlimited": 6448, 
  "items": 6449, 
  "1.4": 6450, 
  "receives": 6451, 
  "languages": 6452, 
  "fault": 6453, 
  "witnessing": 6454, 
  "rapprochement": 6455, 
  "Turks": 6456, 
  "clients": 6457, 
  "post-crisis": 6458, 
  "star@@": 6459, 
  "Slovakia": 6460, 
  "associations": 6461, 
  "Guard": 6462, 
  "diversification": 6463, 
  "treasury": 6464, 
  "automobile": 6465, 
  "dation": 6466, 
  "signing": 6467, 
  "ai": 6468, 
  "Corporation": 6469, 
  "sentenced": 6470, 
  "risk-@@": 6471, 
  "hy@@": 6472, 
  "vity": 6473, 
  "prosecutor": 6474, 
  "manufacturers": 6475, 
  "slogan": 6476, 
  "inspectors": 6477, 
  "breakthroughs": 6478, 
  "Games": 6479, 
  "allied": 6480, 
  "distra@@": 6481, 
  "club": 6482, 
  "Sa@@": 6483, 
  "Ju@@": 6484, 
  "reassuring": 6485, 
  "abortion": 6486, 
  "autonomous": 6487, 
  "River": 6488, 
  "boosted": 6489, 
  "800": 6490, 
  "Hosni": 6491, 
  "revolt": 6492, 
  "shel@@": 6493, 
  "aches": 6494, 
  "clarity": 6495, 
  "pledge": 6496, 
  "maximum": 6497, 
  "FSB": 6498, 
  "akin": 6499, 
  "ration@@": 6500, 
  "repay": 6501, 
  "denying": 6502, 
  "complained": 6503, 
  "guidelines": 6504, 
  "Sinai": 6505, 
  "Ho@@": 6506, 
  "watched": 6507, 
  "tin@@": 6508, 
  "appeals": 6509, 
  "eful": 6510, 
  "evolving": 6511, 
  "industrialization": 6512, 
  "ay": 6513, 
  "shame": 6514, 
  "quarters": 6515, 
  "deprived": 6516, 
  "thro@@": 6517, 
  "hostage": 6518, 
  "activist": 6519, 
  "fle@@": 6520, 
  "square": 6521, 
  "brave": 6522, 
  "Cro@@": 6523, 
  "worrisome": 6524, 
  "dogs": 6525, 
  "floating": 6526, 
  "expectancy": 6527, 
  "wasted": 6528, 
  "stunning": 6529, 
  "scores": 6530, 
  "eradication": 6531, 
  "tuberculosis": 6532, 
  "agendas": 6533, 
  "Morales": 6534, 
  "killings": 6535, 
  "bolster": 6536, 
  "of@@": 6537, 
  "movie": 6538, 
  "enormously": 6539, 
  "G": 6540, 
  "G-7": 6541, 
  "implication": 6542, 
  "Croatia": 6543, 
  "exemp@@": 6544, 
  "frequency": 6545, 
  "gathered": 6546, 
  "sorts": 6547, 
  "Schroeder": 6548, 
  "crunch": 6549, 
  "left-wing": 6550, 
  "forming": 6551, 
  "celebrate": 6552, 
  "8-@@": 6553, 
  "axis": 6554, 
  "page": 6555, 
  "lat@@": 6556, 
  "2008-2009": 6557, 
  "continuity": 6558, 
  "demonstrating": 6559, 
  "frustrated": 6560, 
  "Zhao": 6561, 
  "postponed": 6562, 
  "sou@@": 6563, 
  "applying": 6564, 
  "Governor": 6565, 
  "covering": 6566, 
  "flood": 6567, 
  "blocks": 6568, 
  "interview": 6569, 
  "cen@@": 6570, 
  "trees": 6571, 
  "refusing": 6572, 
  "Czechoslovakia": 6573, 
  "removal": 6574, 
  "oppression": 6575, 
  "prompted": 6576, 
  "bleak": 6577, 
  "tenure": 6578, 
  "silver": 6579, 
  "dro@@": 6580, 
  "proposing": 6581, 
  "greed": 6582, 
  "On": 6583, 
  "assure": 6584, 
  "Tea": 6585, 
  "malnutrition": 6586, 
  "ambassador": 6587, 
  "Mor@@": 6588, 
  "colonialism": 6589, 
  "frameworks": 6590, 
  "outbreak": 6591, 
  "Cultural": 6592, 
  "Bhutto": 6593, 
  "chess": 6594, 
  "gr@@": 6595, 
  "depositors": 6596, 
  "dy@@": 6597, 
  "inhabitants": 6598, 
  "climate-change": 6599, 
  "risk-taking": 6600, 
  "forged": 6601, 
  "vol@@": 6602, 
  "devise": 6603, 
  "gravity": 6604, 
  "rank": 6605, 
  "recipient": 6606, 
  "Yes": 6607, 
  "Research": 6608, 
  "arti@@": 6609, 
  "mirror": 6610, 
  "sized": 6611, 
  "speeches": 6612, 
  "canc@@": 6613, 
  "prevents": 6614, 
  "Liberation": 6615, 
  "realizing": 6616, 
  "exhausted": 6617, 
  "ousness": 6618, 
  "edness": 6619, 
  "reactor": 6620, 
  "ecological": 6621, 
  "psychiatric": 6622, 
  "profoundly": 6623, 
  "convicted": 6624, 
  "equitable": 6625, 
  "Greeks": 6626, 
  "resembles": 6627, 
  "adds": 6628, 
  "highlights": 6629, 
  "imprisoned": 6630, 
  "obliged": 6631, 
  "seed": 6632, 
  "quantity": 6633, 
  "fishing": 6634, 
  "internally": 6635, 
  "delivery": 6636, 
  ",000": 6637, 
  "viewing": 6638, 
  "mainland": 6639, 
  "confirm": 6640, 
  "genetically": 6641, 
  "un-@@": 6642, 
  "heightened": 6643, 
  "polio": 6644, 
  "modernize": 6645, 
  "1920": 6646, 
  "Valley": 6647, 
  "den": 6648, 
  "continuous": 6649, 
  "Liberal": 6650, 
  "grip": 6651, 
  "gro@@": 6652, 
  "pharmaceutical": 6653, 
  "tism": 6654, 
  "wo@@": 6655, 
  "modernity": 6656, 
  "Man@@": 6657, 
  "ss@@": 6658, 
  "lists": 6659, 
  "Basel": 6660, 
  "literature": 6661, 
  "fluctuations": 6662, 
  "St.": 6663, 
  "broad@@": 6664, 
  "digital": 6665, 
  "Le": 6666, 
  "gate": 6667, 
  "triple": 6668, 
  "remedy": 6669, 
  "doctor": 6670, 
  "high-level": 6671, 
  "punish": 6672, 
  "adversaries": 6673, 
  "chair": 6674, 
  "irrigation": 6675, 
  "fat": 6676, 
  "evolve": 6677, 
  "troubles": 6678, 
  "finished": 6679, 
  "consequently": 6680, 
  "approve": 6681, 
  "arose": 6682, 
  "resume": 6683, 
  "invention": 6684, 
  "suspected": 6685, 
  "backs": 6686, 
  "organizational": 6687, 
  "Kuwait": 6688, 
  "overthrow": 6689, 
  "par": 6690, 
  "composed": 6691, 
  "accidents": 6692, 
  "fly": 6693, 
  "lobbying": 6694, 
  "reinforcing": 6695, 
  "privileged": 6696, 
  "resilient": 6697, 
  "champion": 6698, 
  "gencies": 6699, 
  "ited": 6700, 
  "Po@@": 6701, 
  "ok@@": 6702, 
  "strengths": 6703, 
  "dering": 6704, 
  "highlighted": 6705, 
  "eu@@": 6706, 
  "militarily": 6707, 
  "Roman": 6708, 
  "caste": 6709, 
  "tone": 6710, 
  "armies": 6711, 
  "passage": 6712, 
  "sons": 6713, 
  "misery": 6714, 
  "murdered": 6715, 
  "Ottoman": 6716, 
  "ian": 6717, 
  "optimal": 6718, 
  "color": 6719, 
  "sensitivity": 6720, 
  "ush@@": 6721, 
  "micro-@@": 6722, 
  "unfortunate": 6723, 
  "uprising": 6724, 
  "ride": 6725, 
  "domination": 6726, 
  "suppress": 6727, 
  "sanc@@": 6728, 
  "Qu@@": 6729, 
  "composition": 6730, 
  "Ni@@": 6731, 
  "lets": 6732, 
  "assessing": 6733, 
  "penet@@": 6734, 
  "1.2": 6735, 
  "tou@@": 6736, 
  "title": 6737, 
  "reacted": 6738, 
  "heroic": 6739, 
  "limitations": 6740, 
  "ratification": 6741, 
  "dismal": 6742, 
  "mandatory": 6743, 
  "proceedings": 6744, 
  "by@@": 6745, 
  "ei@@": 6746, 
  "lucky": 6747, 
  "diver@@": 6748, 
  "elimination": 6749, 
  "replacing": 6750, 
  "judgments": 6751, 
  "satisfied": 6752, 
  "det@@": 6753, 
  "Socialists": 6754, 
  "ny": 6755, 
  "attracting": 6756, 
  "ologists": 6757, 
  "suited": 6758, 
  "ma": 6759, 
  "populated": 6760, 
  "ranked": 6761, 
  "thirty": 6762, 
  "council": 6763, 
  "negotiators": 6764, 
  "1988": 6765, 
  "dimensions": 6766, 
  "cronies": 6767, 
  "valid": 6768, 
  "pretty": 6769, 
  "preference": 6770, 
  "renewal": 6771, 
  "deb@@": 6772, 
  "criticize": 6773, 
  "indicated": 6774, 
  "paralyzed": 6775, 
  "properties": 6776, 
  "Istanbul": 6777, 
  "homeland": 6778, 
  "cap": 6779, 
  "speaks": 6780, 
  "disorderly": 6781, 
  "predicament": 6782, 
  "throw": 6783, 
  "veri@@": 6784, 
  "appetite": 6785, 
  "publication": 6786, 
  "SARS": 6787, 
  "ured": 6788, 
  "evidently": 6789, 
  "successive": 6790, 
  "prisons": 6791, 
  "squeeze": 6792, 
  "ve-@@": 6793, 
  "thin": 6794, 
  "Big": 6795, 
  "transferred": 6796, 
  "maturity": 6797, 
  "husband": 6798, 
  "ministry": 6799, 
  "plot": 6800, 
  "profile": 6801, 
  "Bashar": 6802, 
  "cyber": 6803, 
  "opt": 6804, 
  "rivalry": 6805, 
  "contact": 6806, 
  "routine": 6807, 
  "traumatic": 6808, 
  "incited": 6809, 
  "glob@@": 6810, 
  "swing": 6811, 
  "retains": 6812, 
  "son@@": 6813, 
  "disc@@": 6814, 
  "understandably": 6815, 
  "dies": 6816, 
  "rebellion": 6817, 
  "insistence": 6818, 
  "revised": 6819, 
  "inflicted": 6820, 
  "anti-American": 6821, 
  "partially": 6822, 
  "radicalism": 6823, 
  "Serb": 6824, 
  "trafficking": 6825, 
  "skin": 6826, 
  "yourself": 6827, 
  "troubling": 6828, 
  "Austrian": 6829, 
  "reconcile": 6830, 
  "communic@@": 6831, 
  "turnout": 6832, 
  "graduate": 6833, 
  "inputs": 6834, 
  "super-@@": 6835, 
  "6-@@": 6836, 
  "comparisons": 6837, 
  "mus@@": 6838, 
  "notes": 6839, 
  "persons": 6840, 
  "Three": 6841, 
  "forum": 6842, 
  "grievances": 6843, 
  "crowds": 6844, 
  "handled": 6845, 
  "storms": 6846, 
  "dan@@": 6847, 
  "cour@@": 6848, 
  "marine": 6849, 
  "aw@@": 6850, 
  "organs": 6851, 
  "cross-@@": 6852, 
  "loyal": 6853, 
  "overlooked": 6854, 
  "matched": 6855, 
  "studying": 6856, 
  "clearer": 6857, 
  "convenient": 6858, 
  "buried": 6859, 
  "adult": 6860, 
  "anyway": 6861, 
  "ency": 6862, 
  "readiness": 6863, 
  "Second": 6864, 
  "coloni@@": 6865, 
  "ey": 6866, 
  "correctly": 6867, 
  "With": 6868, 
  "sun@@": 6869, 
  "swe@@": 6870, 
  "Ortega": 6871, 
  "officer": 6872, 
  "relatives": 6873, 
  "strategically": 6874, 
  "Franco-German": 6875, 
  "trusted": 6876, 
  "constructed": 6877, 
  "postpone": 6878, 
  "met@@": 6879, 
  "suppression": 6880, 
  "Davos": 6881, 
  "interpret": 6882, 
  "Lanka": 6883, 
  "array": 6884, 
  "papers": 6885, 
  "spoken": 6886, 
  "opponent": 6887, 
  "ens@@": 6888, 
  "permits": 6889, 
  "nightmare": 6890, 
  "Vienna": 6891, 
  "endured": 6892, 
  "mount": 6893, 
  "decentralized": 6894, 
  "-in-@@": 6895, 
  "ven": 6896, 
  "pil@@": 6897, 
  "Gre@@": 6898, 
  "nervous": 6899, 
  "length": 6900, 
  "season": 6901, 
  "anchor": 6902, 
  "sli@@": 6903, 
  "Affairs": 6904, 
  "useless": 6905, 
  "conscious": 6906, 
  "drives": 6907, 
  "monarchy": 6908, 
  "undervalued": 6909, 
  "obsolete": 6910, 
  "exercises": 6911, 
  "curtail": 6912, 
  "deciding": 6913, 
  "talked": 6914, 
  "outrage": 6915, 
  "consumed": 6916, 
  "stu@@": 6917, 
  "conscience": 6918, 
  "suspicious": 6919, 
  "discussing": 6920, 
  "ICC": 6921, 
  "fatal": 6922, 
  "OSCE": 6923, 
  "ached": 6924, 
  "Saakashvili": 6925, 
  "pan@@": 6926, 
  "Alexander": 6927, 
  "defenders": 6928, 
  "rationale": 6929, 
  "ace": 6930, 
  "reporters": 6931, 
  "producer": 6932, 
  "owed": 6933, 
  "foreign-@@": 6934, 
  "switch": 6935, 
  "Ocean": 6936, 
  "anim@@": 6937, 
  "teach": 6938, 
  "blessing": 6939, 
  "aking": 6940, 
  "cau@@": 6941, 
  "vari@@": 6942, 
  "tun@@": 6943, 
  "ails": 6944, 
  "Islands": 6945, 
  "ght": 6946, 
  "&apos;ve": 6947, 
  "ful@@": 6948, 
  "phones": 6949, 
  "staggering": 6950, 
  "shortly": 6951, 
  "sy@@": 6952, 
  "empowered": 6953, 
  "drug-@@": 6954, 
  "ures": 6955, 
  "ret@@": 6956, 
  "expectation": 6957, 
  "committing": 6958, 
  "magic": 6959, 
  "Guatemala": 6960, 
  "possession": 6961, 
  "incite": 6962, 
  "investigate": 6963, 
  "jointly": 6964, 
  "compliance": 6965, 
  "heritage": 6966, 
  "0.7": 6967, 
  "everyday": 6968, 
  "abound": 6969, 
  "Science": 6970, 
  "reversing": 6971, 
  "accommodate": 6972, 
  "marketing": 6973, 
  "financiers": 6974, 
  "`": 6975, 
  "sible": 6976, 
  "unequal": 6977, 
  "hole": 6978, 
  "frontier": 6979, 
  "ell": 6980, 
  "disposal": 6981, 
  "trump@@": 6982, 
  "Shi@@": 6983, 
  "identical": 6984, 
  "Bo": 6985, 
  "38": 6986, 
  "farms": 6987, 
  "please": 6988, 
  "arians": 6989, 
  "cling": 6990, 
  "communal": 6991, 
  "Tymoshenko": 6992, 
  "exporter": 6993, 
  "quasi-@@": 6994, 
  "regulating": 6995, 
  "owner": 6996, 
  "emp@@": 6997, 
  "alizes": 6998, 
  "agrees": 6999, 
  "four@@": 7000, 
  "disruption": 7001, 
  "ups": 7002, 
  "demonstration": 7003, 
  "video": 7004, 
  "onset": 7005, 
  "Churchill": 7006, 
  "flourish": 7007, 
  "unhappy": 7008, 
  "hearing": 7009, 
  "projections": 7010, 
  "voter": 7011, 
  "ements": 7012, 
  "stimulating": 7013, 
  "industri@@": 7014, 
  "Ra@@": 7015, 
  "NAFTA": 7016, 
  "boy": 7017, 
  "Los": 7018, 
  "stalled": 7019, 
  "congressional": 7020, 
  "ref@@": 7021, 
  "breakup": 7022, 
  "exact": 7023, 
  "resign": 7024, 
  "Special": 7025, 
  "bank@@": 7026, 
  "Executive": 7027, 
  "N": 7028, 
  "guilt": 7029, 
  "polar": 7030, 
  "Jiabao": 7031, 
  "vigorous": 7032, 
  "Franklin": 7033, 
  "caution": 7034, 
  "leftist": 7035, 
  "heroes": 7036, 
  "pla@@": 7037, 
  "urs": 7038, 
  "verdict": 7039, 
  "gn@@": 7040, 
  "scre@@": 7041, 
  "screening": 7042, 
  "alling": 7043, 
  "coordinate": 7044, 
  "delicate": 7045, 
  "dependency": 7046, 
  "cents": 7047, 
  "lots": 7048, 
  "eve": 7049, 
  "monopolies": 7050, 
  "1985": 7051, 
  "gl@@": 7052, 
  "rid": 7053, 
  "sively": 7054, 
  "counterpart": 7055, 
  "oli@@": 7056, 
  "drew": 7057, 
  "Cuban": 7058, 
  "ll": 7059, 
  "norm@@": 7060, 
  "republics": 7061, 
  "racism": 7062, 
  "masters": 7063, 
  "3,000": 7064, 
  "critically": 7065, 
  "strains": 7066, 
  "anxious": 7067, 
  "married": 7068, 
  "discount": 7069, 
  "hol@@": 7070, 
  "ign@@": 7071, 
  "timely": 7072, 
  "compatible": 7073, 
  "Nazis": 7074, 
  "headquarters": 7075, 
  "handling": 7076, 
  "market-@@": 7077, 
  "opinions": 7078, 
  "hardest": 7079, 
  "stopping": 7080, 
  "Karzai": 7081, 
  "quotas": 7082, 
  "conservatism": 7083, 
  "maker": 7084, 
  "François": 7085, 
  "unwillingness": 7086, 
  "violated": 7087, 
  "load": 7088, 
  "school@@": 7089, 
  "calculated": 7090, 
  "sweeping": 7091, 
  "meters": 7092, 
  "passive": 7093, 
  "gam@@": 7094, 
  "deser@@": 7095, 
  "fire@@": 7096, 
  "Eur@@": 7097, 
  "ail": 7098, 
  "portfolios": 7099, 
  "ligh@@": 7100, 
  "Mal@@": 7101, 
  "Gerhard": 7102, 
  "Facility": 7103, 
  "disappearance": 7104, 
  "hypocrisy": 7105, 
  "articles": 7106, 
  "disagreements": 7107, 
  "reminded": 7108, 
  "pockets": 7109, 
  "HAVEN": 7110, 
  "drought": 7111, 
  "portra@@": 7112, 
  "tropical": 7113, 
  "Nice": 7114, 
  "native": 7115, 
  "stepped": 7116, 
  "els": 7117, 
  "debated": 7118, 
  "ultra-@@": 7119, 
  "­@@": 7120, 
  "reminds": 7121, 
  "Yukos": 7122, 
  "calculation": 7123, 
  "News": 7124, 
  "repercussions": 7125, 
  "investigations": 7126, 
  "strive": 7127, 
  "beneficiaries": 7128, 
  "Fo@@": 7129, 
  "dangerously": 7130, 
  "Balkan": 7131, 
  "remind": 7132, 
  "zer": 7133, 
  "beneath": 7134, 
  "giants": 7135, 
  "gated": 7136, 
  "inward": 7137, 
  "sel@@": 7138, 
  "printing": 7139, 
  "liqui@@": 7140, 
  "reviving": 7141, 
  "authors": 7142, 
  "-related": 7143, 
  "jeopardize": 7144, 
  "ideologies": 7145, 
  "documented": 7146, 
  "democrati@@": 7147, 
  "econom@@": 7148, 
  "constitu@@": 7149, 
  "Scotland": 7150, 
  "leap": 7151, 
  "tendencies": 7152, 
  "answered": 7153, 
  "elevated": 7154, 
  "infections": 7155, 
  "theme": 7156, 
  "homo@@": 7157, 
  "Lo@@": 7158, 
  "exploitation": 7159, 
  "modified": 7160, 
  "Common": 7161, 
  "san@@": 7162, 
  "categories": 7163, 
  "fusion": 7164, 
  "contin@@": 7165, 
  "privileges": 7166, 
  "locations": 7167, 
  "Oxford": 7168, 
  "legislature": 7169, 
  "NA@@": 7170, 
  "pan-European": 7171, 
  "Petersburg": 7172, 
  "outlets": 7173, 
  "mixture": 7174, 
  "persists": 7175, 
  "recommended": 7176, 
  "exclude": 7177, 
  "Michael": 7178, 
  "soul": 7179, 
  "violate": 7180, 
  "notorious": 7181, 
  "plight": 7182, 
  "ped": 7183, 
  "collect": 7184, 
  "ading": 7185, 
  "Katrina": 7186, 
  "thinkers": 7187, 
  "short-run": 7188, 
  "embargo": 7189, 
  "meas@@": 7190, 
  "correc@@": 7191, 
  "lon@@": 7192, 
  "lifting": 7193, 
  "desired": 7194, 
  "refrain": 7195, 
  "Sharia": 7196, 
  "extremes": 7197, 
  "responsive": 7198, 
  "proves": 7199, 
  "expansionary": 7200, 
  "sequence": 7201, 
  "Wolfowitz": 7202, 
  "clean@@": 7203, 
  "emi@@": 7204, 
  "exec@@": 7205, 
  "Margaret": 7206, 
  "Uruguay": 7207, 
  "paci@@": 7208, 
  "Shi&apos;a": 7209, 
  "graphy": 7210, 
  "ICTY": 7211, 
  "li": 7212, 
  "ction": 7213, 
  "250": 7214, 
  "embodied": 7215, 
  "mitigation": 7216, 
  "quantities": 7217, 
  "pain@@": 7218, 
  "duration": 7219, 
  "governors": 7220, 
  "Do@@": 7221, 
  "ignores": 7222, 
  "kin@@": 7223, 
  "exert": 7224, 
  "dedicated": 7225, 
  "beautiful": 7226, 
  "longstanding": 7227, 
  "rounds": 7228, 
  "lawyer": 7229, 
  "Bal@@": 7230, 
  "busy": 7231, 
  "201@@": 7232, 
  "Ki@@": 7233, 
  "rejecting": 7234, 
  "evasion": 7235, 
  "attached": 7236, 
  "smoking": 7237, 
  "kin": 7238, 
  "Iceland": 7239, 
  "collec@@": 7240, 
  "chemistry": 7241, 
  "bit@@": 7242, 
  "Bu@@": 7243, 
  "professors": 7244, 
  "ta": 7245, 
  "adviser": 7246, 
  "prop@@": 7247, 
  "brothers": 7248, 
  "safeguards": 7249, 
  "lobby": 7250, 
  "strain": 7251, 
  "regards": 7252, 
  "asi@@": 7253, 
  "bombers": 7254, 
  "appoint": 7255, 
  "fronts": 7256, 
  "satisfaction": 7257, 
  "bizarre": 7258, 
  "embracing": 7259, 
  "Ad@@": 7260, 
  "ams": 7261, 
  "dates": 7262, 
  "regulator": 7263, 
  "cism": 7264, 
  "RMB": 7265, 
  "Milan": 7266, 
  "1940": 7267, 
  "ared": 7268, 
  "shareholder": 7269, 
  "anti-Semitism": 7270, 
  "famine": 7271, 
  "resi@@": 7272, 
  "patri@@": 7273, 
  "gather": 7274, 
  "enshrined": 7275, 
  "tain@@": 7276, 
  "evaluate": 7277, 
  "poli@@": 7278, 
  "peg": 7279, 
  "arm": 7280, 
  "Beirut": 7281, 
  "obsessed": 7282, 
  "Non-Proliferation": 7283, 
  "authorized": 7284, 
  "Resolution": 7285, 
  "Project": 7286, 
  "need@@": 7287, 
  "jump": 7288, 
  "blocking": 7289, 
  "Civil": 7290, 
  "linking": 7291, 
  "realism": 7292, 
  "ki@@": 7293, 
  "manageable": 7294, 
  "pessimism": 7295, 
  "referred": 7296, 
  "tougher": 7297, 
  "fran@@": 7298, 
  "ung": 7299, 
  "diminishing": 7300, 
  "branch": 7301, 
  "alas": 7302, 
  "repudi@@": 7303, 
  "proteins": 7304, 
  "ick": 7305, 
  "profitability": 7306, 
  "directions": 7307, 
  "conc@@": 7308, 
  "pandemic": 7309, 
  "grassroots": 7310, 
  "golden": 7311, 
  "entitlement": 7312, 
  "pulled": 7313, 
  "concerted": 7314, 
  "ences": 7315, 
  "arising": 7316, 
  "communicate": 7317, 
  "Panel": 7318, 
  "divergence": 7319, 
  "liability": 7320, 
  "explaining": 7321, 
  "orthodoxy": 7322, 
  "solvency": 7323, 
  "financial-sector": 7324, 
  "arrive": 7325, 
  "invisible": 7326, 
  "basically": 7327, 
  "talented": 7328, 
  "elusive": 7329, 
  "water@@": 7330, 
  "redress": 7331, 
  "Christianity": 7332, 
  "integrating": 7333, 
  "mic": 7334, 
  "G8": 7335, 
  "priced": 7336, 
  "slaughter": 7337, 
  "belongs": 7338, 
  "spec@@": 7339, 
  "extends": 7340, 
  "Marshall": 7341, 
  "ethanol": 7342, 
  "qualify": 7343, 
  "CCP": 7344, 
  "condemn": 7345, 
  "drastic": 7346, 
  "Nor@@": 7347, 
  "Fin@@": 7348, 
  "burdened": 7349, 
  "combatants": 7350, 
  "al-Assad": 7351, 
  "wounded": 7352, 
  "drain": 7353, 
  "bits": 7354, 
  "orthodox": 7355, 
  "mild": 7356, 
  "chemicals": 7357, 
  "laboratory": 7358, 
  "ir": 7359, 
  "Pentagon": 7360, 
  "anism": 7361, 
  "ert": 7362, 
  "Uganda": 7363, 
  "quietly": 7364, 
  "formerly": 7365, 
  "yuan": 7366, 
  "precautionary": 7367, 
  "six@@": 7368, 
  "endorse": 7369, 
  "cognitive": 7370, 
  "ari": 7371, 
  "insured": 7372, 
  "band": 7373, 
  "yesterday": 7374, 
  "suspended": 7375, 
  "1929": 7376, 
  "dividing": 7377, 
  "intelligent": 7378, 
  "accurately": 7379, 
  "L": 7380, 
  "ger@@": 7381, 
  "surgery": 7382, 
  "collapsing": 7383, 
  "ab": 7384, 
  "earning": 7385, 
  "embarked": 7386, 
  "cy@@": 7387, 
  "Ti@@": 7388, 
  "ashed": 7389, 
  "stemming": 7390, 
  "tran@@": 7391, 
  "moon": 7392, 
  "superiority": 7393, 
  "patience": 7394, 
  "preceded": 7395, 
  "diagnosed": 7396, 
  "convention": 7397, 
  "majorities": 7398, 
  "tyranny": 7399, 
  "Investment": 7400, 
  "diet": 7401, 
  "tech": 7402, 
  "praise": 7403, 
  "imprisonment": 7404, 
  "DELHI": 7405, 
  "+@@": 7406, 
  "intends": 7407, 
  "oking": 7408, 
  "emphasizing": 7409, 
  "sav@@": 7410, 
  "comply": 7411, 
  "sum@@": 7412, 
  "Mario": 7413, 
  "ro": 7414, 
  "cable": 7415, 
  "self-defense": 7416, 
  "mel@@": 7417, 
  "ung@@": 7418, 
  "unc@@": 7419, 
  "defenses": 7420, 
  "war-@@": 7421, 
  "apologi@@": 7422, 
  "virtues": 7423, 
  "republic": 7424, 
  "Kofi": 7425, 
  "visions": 7426, 
  "hitting": 7427, 
  "replic@@": 7428, 
  "sian": 7429, 
  "surpassed": 7430, 
  "web": 7431, 
  "guess": 7432, 
  "unleashed": 7433, 
  "subjected": 7434, 
  "passes": 7435, 
  "overheating": 7436, 
  "lining": 7437, 
  "undercut": 7438, 
  "committees": 7439, 
  "characteristic": 7440, 
  "doubling": 7441, 
  "120": 7442, 
  "shattered": 7443, 
  "reactors": 7444, 
  "pipelines": 7445, 
  "Azerbaijan": 7446, 
  "holy": 7447, 
  "capitals": 7448, 
  "popul@@": 7449, 
  "Bro@@": 7450, 
  "Florida": 7451, 
  "sacred": 7452, 
  "ire": 7453, 
  "trac@@": 7454, 
  "smoke": 7455, 
  "Thomas": 7456, 
  "acity": 7457, 
  "Zealand": 7458, 
  "trillions": 7459, 
  "Persian": 7460, 
  "maritime": 7461, 
  "insight": 7462, 
  "barrier": 7463, 
  "mobilized": 7464, 
  "upside": 7465, 
  "che": 7466, 
  "Hi@@": 7467, 
  "clin@@": 7468, 
  "fundamentalists": 7469, 
  "dou@@": 7470, 
  "deploy": 7471, 
  "doubtful": 7472, 
  "by-@@": 7473, 
  "responds": 7474, 
  "hawks": 7475, 
  "Exchange": 7476, 
  "weakens": 7477, 
  "ank@@": 7478, 
  "conce@@": 7479, 
  "region@@": 7480, 
  "vulnerabilities": 7481, 
  "Texas": 7482, 
  "feedback": 7483, 
  "providers": 7484, 
  "ose": 7485, 
  "durable": 7486, 
  "Qatar": 7487, 
  "Taiwanese": 7488, 
  "torn": 7489, 
  "scant": 7490, 
  "dividends": 7491, 
  "inertia": 7492, 
  "attended": 7493, 
  "cruel": 7494, 
  "advised": 7495, 
  "alarm": 7496, 
  "flying": 7497, 
  "reformist": 7498, 
  "detail": 7499, 
  "outweigh": 7500, 
  "interact": 7501, 
  "W": 7502, 
  "Representatives": 7503, 
  "obs@@": 7504, 
  "arsenal": 7505, 
  "1986": 7506, 
  "Silvio": 7507, 
  "birds": 7508, 
  "excluding": 7509, 
  "Enron": 7510, 
  "guidance": 7511, 
  "questioning": 7512, 
  "prec@@": 7513, 
  "OPEC": 7514, 
  "fits": 7515, 
  "run@@": 7516, 
  "kids": 7517, 
  "disappointing": 7518, 
  "Bay": 7519, 
  "supervisors": 7520, 
  "Peter": 7521, 
  "fans": 7522, 
  "ecosystems": 7523, 
  "starvation": 7524, 
  "Food": 7525, 
  "frame": 7526, 
  "insur@@": 7527, 
  "denounced": 7528, 
  "hear@@": 7529, 
  "deci@@": 7530, 
  "dismantling": 7531, 
  "merits": 7532, 
  "listed": 7533, 
  "conditional": 7534, 
  "Black": 7535, 
  "stayed": 7536, 
  "-out": 7537, 
  "1948": 7538, 
  "pet": 7539, 
  "demago@@": 7540, 
  "ballistic": 7541, 
  "specified": 7542, 
  "social-@@": 7543, 
  "bailed": 7544, 
  "tainted": 7545, 
  "contrac@@": 7546, 
  "absorbed": 7547, 
  "Democracy": 7548, 
  "•": 7549, 
  "declaring": 7550, 
  "ev": 7551, 
  "interior": 7552, 
  "Dubai": 7553, 
  "ailing": 7554, 
  "quot": 7555, 
  "sin": 7556, 
  "fashionable": 7557, 
  "empowerment": 7558, 
  "identifying": 7559, 
  "questioned": 7560, 
  "smo@@": 7561, 
  "Power": 7562, 
  "collabor@@": 7563, 
  "sol@@": 7564, 
  "privately": 7565, 
  "monopoli@@": 7566, 
  "ity-@@": 7567, 
  "Nicaragua": 7568, 
  "Ru@@": 7569, 
  "20-@@": 7570, 
  "crum@@": 7571, 
  "siege": 7572, 
  "habit@@": 7573, 
  "Pinochet": 7574, 
  "fifty": 7575, 
  "ancy": 7576, 
  "quali@@": 7577, 
  "advocating": 7578, 
  "contemplate": 7579, 
  "res@@": 7580, 
  "underscores": 7581, 
  "compromises": 7582, 
  "fascist": 7583, 
  "daughter": 7584, 
  "Liberia": 7585, 
  "asymmetric": 7586, 
  "disappointed": 7587, 
  "tification": 7588, 
  "mark@@": 7589, 
  "examination": 7590, 
  "institution@@": 7591, 
  "minute": 7592, 
  "rain": 7593, 
  "ffs": 7594, 
  "colleague": 7595, 
  "notions": 7596, 
  "burned": 7597, 
  "ump@@": 7598, 
  "forging": 7599, 
  "habit": 7600, 
  "Burmese": 7601, 
  "hugely": 7602, 
  "entail": 7603, 
  "emulate": 7604, 
  "tain": 7605, 
  "disruptive": 7606, 
  "metaphor": 7607, 
  "administered": 7608, 
  "harmony": 7609, 
  "prescri@@": 7610, 
  "reminiscent": 7611, 
  "0.1": 7612, 
  "endangered": 7613, 
  "demonstrators": 7614, 
  "Ber@@": 7615, 
  "laying": 7616, 
  "warrant": 7617, 
  "savers": 7618, 
  "mathematical": 7619, 
  "low@@": 7620, 
  "susceptible": 7621, 
  "ins@@": 7622, 
  "stores": 7623, 
  "Nigerian": 7624, 
  "ances": 7625, 
  "combining": 7626, 
  "fires": 7627, 
  "contempt": 7628, 
  "trick": 7629, 
  "offshore": 7630, 
  "undertaking": 7631, 
  "noti@@": 7632, 
  "self-determination": 7633, 
  "psycho@@": 7634, 
  "fragmented": 7635, 
  "offense": 7636, 
  "fascism": 7637, 
  "rebel": 7638, 
  "integral": 7639, 
  "sses": 7640, 
  "eroded": 7641, 
  "complacency": 7642, 
  "selected": 7643, 
  "steep": 7644, 
  "bone": 7645, 
  "modi@@": 7646, 
  "Medicare": 7647, 
  "practiced": 7648, 
  "Ministers": 7649, 
  "functional": 7650, 
  "proposition": 7651, 
  "publish": 7652, 
  "obsession": 7653, 
  "automobiles": 7654, 
  "forgiveness": 7655, 
  "rocket": 7656, 
  "severity": 7657, 
  "mismanagement": 7658, 
  "Holland": 7659, 
  "nutrition": 7660, 
  "acknowledging": 7661, 
  "manipulate": 7662, 
  "shore": 7663, 
  "incompetence": 7664, 
  "unavoidable": 7665, 
  "Wahhabi": 7666, 
  "hot@@": 7667, 
  "countryside": 7668, 
  "ental": 7669, 
  "semin@@": 7670, 
  "Lu@@": 7671, 
  "wers": 7672, 
  "anymore": 7673, 
  "cate": 7674, 
  "US@@": 7675, 
  "refer@@": 7676, 
  "forefront": 7677, 
  "Che": 7678, 
  "Twitter": 7679, 
  "cement": 7680, 
  "ore": 7681, 
  "high-income": 7682, 
  "temp@@": 7683, 
  "plain": 7684, 
  "collected": 7685, 
  "tak@@": 7686, 
  "livelihoods": 7687, 
  "trauma": 7688, 
  "fol@@": 7689, 
  "ouse": 7690, 
  "judging": 7691, 
  "sign@@": 7692, 
  "jurisdiction": 7693, 
  "ge-@@": 7694, 
  "III": 7695, 
  "protec@@": 7696, 
  "95": 7697, 
  "dog": 7698, 
  "narrowly": 7699, 
  "publi@@": 7700, 
  "curse": 7701, 
  "Sadat": 7702, 
  "comprise": 7703, 
  "peer": 7704, 
  "magi@@": 7705, 
  "reckoning": 7706, 
  "whoever": 7707, 
  "constituted": 7708, 
  "fortunes": 7709, 
  "stone": 7710, 
  "atomic": 7711, 
  "fostering": 7712, 
  "coffee": 7713, 
  "particles": 7714, 
  "intervening": 7715, 
  "blood@@": 7716, 
  "turbulence": 7717, 
  "hard@@": 7718, 
  "imposes": 7719, 
  "7-@@": 7720, 
  "conducive": 7721, 
  "Darwin": 7722, 
  "pledges": 7723, 
  "Salvador": 7724, 
  "unchanged": 7725, 
  "To": 7726, 
  "pages": 7727, 
  "modernizing": 7728, 
  "revealing": 7729, 
  "Ham@@": 7730, 
  "exceptionally": 7731, 
  "hyper@@": 7732, 
  "suppressed": 7733, 
  "Romanian": 7734, 
  "interconnected": 7735, 
  "infant": 7736, 
  "ale": 7737, 
  "198@@": 7738, 
  "fearful": 7739, 
  "apes": 7740, 
  "defines": 7741, 
  "Continent": 7742, 
  "20,000": 7743, 
  "infamous": 7744, 
  "slump": 7745, 
  "High": 7746, 
  "Asia-Pacific": 7747, 
  "un": 7748, 
  "Stanford": 7749, 
  "Kissinger": 7750, 
  "stru@@": 7751, 
  "quantum": 7752, 
  "viol@@": 7753, 
  "proving": 7754, 
  "ceasefire": 7755, 
  "ark@@": 7756, 
  "Kerry": 7757, 
  "Is": 7758, 
  "mine": 7759, 
  "-style": 7760, 
  "pul@@": 7761, 
  "buff@@": 7762, 
  "naïve": 7763, 
  "synthetic": 7764, 
  "conversation": 7765, 
  "centered": 7766, 
  "Gi@@": 7767, 
  "stops": 7768, 
  "tory": 7769, 
  "irreversible": 7770, 
  "mathematics": 7771, 
  "ga": 7772, 
  "Munich": 7773, 
  "accessible": 7774, 
  "genom@@": 7775, 
  "dom@@": 7776, 
  "imagin@@": 7777, 
  "gent": 7778, 
  "participated": 7779, 
  "occasions": 7780, 
  "ina": 7781, 
  "deteriorating": 7782, 
  "transitional": 7783, 
  "predominantly": 7784, 
  "illustrates": 7785, 
  "trajectory": 7786, 
  "nation-state": 7787, 
  "collection": 7788, 
  "yielding": 7789, 
  "insiders": 7790, 
  "visits": 7791, 
  "ei": 7792, 
  "ethos": 7793, 
  "highlight": 7794, 
  "tighter": 7795, 
  "repe@@": 7796, 
  "You": 7797, 
  "Yale": 7798, 
  "cated": 7799, 
  "cle": 7800, 
  "NGO": 7801, 
  "domin@@": 7802, 
  "tackling": 7803, 
  "delegation": 7804, 
  "inefficiency": 7805, 
  "Lithuania": 7806, 
  "containing": 7807, 
  "premier": 7808, 
  "advancing": 7809, 
  "bon@@": 7810, 
  "varied": 7811, 
  "impasse": 7812, 
  "connect": 7813, 
  "je@@": 7814, 
  "escalating": 7815, 
  "protections": 7816, 
  "classified": 7817, 
  "petro@@": 7818, 
  "José": 7819, 
  "geographical": 7820, 
  "respective": 7821, 
  "stro@@": 7822, 
  "GM": 7823, 
  "off-@@": 7824, 
  "expedi@@": 7825, 
  "bloodshed": 7826, 
  "supreme": 7827, 
  "slight": 7828, 
  "unding": 7829, 
  "Stat@@": 7830, 
  "drama": 7831, 
  "ise": 7832, 
  "beating": 7833, 
  "prot@@": 7834, 
  "press@@": 7835, 
  "simplistic": 7836, 
  "arrogance": 7837, 
  "Academy": 7838, 
  "banker": 7839, 
  "lowered": 7840, 
  "outlays": 7841, 
  "hierarchy": 7842, 
  "apping": 7843, 
  "execution": 7844, 
  "averaged": 7845, 
  "Sch@@": 7846, 
  "wel@@": 7847, 
  "withdrawing": 7848, 
  "discretionary": 7849, 
  "amid": 7850, 
  "debtors": 7851, 
  "opted": 7852, 
  "pleasure": 7853, 
  "select": 7854, 
  "questionable": 7855, 
  "margins": 7856, 
  "agreeing": 7857, 
  "diagnostic": 7858, 
  "dissemin@@": 7859, 
  "Atomic": 7860, 
  "cians": 7861, 
  "At": 7862, 
  "escap@@": 7863, 
  "Mbeki": 7864, 
  "rooms": 7865, 
  "desc@@": 7866, 
  "ury": 7867, 
  "corporation": 7868, 
  "han@@": 7869, 
  "peso": 7870, 
  "influences": 7871, 
  "preserved": 7872, 
  "church": 7873, 
  "compromised": 7874, 
  "Ahmedinejad": 7875, 
  "flu@@": 7876, 
  "net@@": 7877, 
  "ute": 7878, 
  "j": 7879, 
  "50,000": 7880, 
  "1933": 7881, 
  "aire": 7882, 
  "consultation": 7883, 
  "affluent": 7884, 
  "jailed": 7885, 
  "agent": 7886, 
  "seldom": 7887, 
  "tie": 7888, 
  "treason": 7889, 
  "envi@@": 7890, 
  "historian": 7891, 
  "ol": 7892, 
  "haven": 7893, 
  "Einstein": 7894, 
  "Prince": 7895, 
  "social-welfare": 7896, 
  "refer": 7897, 
  "shocked": 7898, 
  "indebtedness": 7899, 
  "enlarged": 7900, 
  "oms": 7901, 
  "stature": 7902, 
  "agu@@": 7903, 
  "enact": 7904, 
  "Euro-@@": 7905, 
  "decreased": 7906, 
  "manipulated": 7907, 
  "pulling": 7908, 
  "contradiction": 7909, 
  "fulfilled": 7910, 
  "suppliers": 7911, 
  "conventions": 7912, 
  "meat": 7913, 
  "eth@@": 7914, 
  "equi@@": 7915, 
  "competent": 7916, 
  "prescription": 7917, 
  "1978": 7918, 
  "anti-Americanism": 7919, 
  "free-@@": 7920, 
  "prudence": 7921, 
  "assertive": 7922, 
  "Leone": 7923, 
  "Mechanism": 7924, 
  "uting": 7925, 
  "assessments": 7926, 
  "parallels": 7927, 
  "vit@@": 7928, 
  "addic@@": 7929, 
  "restricting": 7930, 
  "rumors": 7931, 
  "patriotism": 7932, 
  "19th": 7933, 
  "dead@@": 7934, 
  "mobilization": 7935, 
  "depic@@": 7936, 
  "fruits": 7937, 
  "Muhammad": 7938, 
  "Tahrir": 7939, 
  "for-@@": 7940, 
  "analyses": 7941, 
  "unintended": 7942, 
  "precipit@@": 7943, 
  "cheating": 7944, 
  "lifestyle": 7945, 
  "Americas": 7946, 
  "cut@@": 7947, 
  "fragmentation": 7948, 
  "stering": 7949, 
  "illegitimate": 7950, 
  "ghts": 7951, 
  "ESDP": 7952, 
  "alien@@": 7953, 
  "Muammar": 7954, 
  "ake": 7955, 
  "banning": 7956, 
  "oldest": 7957, 
  "gged": 7958, 
  "rolled": 7959, 
  "deleg@@": 7960, 
  "girl": 7961, 
  "withstand": 7962, 
  "ini": 7963, 
  "revenge": 7964, 
  "districts": 7965, 
  "Ko@@": 7966, 
  "Soviets": 7967, 
  "peasant": 7968, 
  "Russian-@@": 7969, 
  "invitation": 7970, 
  "od": 7971, 
  "Rio": 7972, 
  "yp@@": 7973, 
  "clock": 7974, 
  "Palin": 7975, 
  "objects": 7976, 
  "crowded": 7977, 
  "zers": 7978, 
  "disagreement": 7979, 
  "feder@@": 7980, 
  "motor": 7981, 
  "concei@@": 7982, 
  "prevalence": 7983, 
  "discretion": 7984, 
  "triumph@@": 7985, 
  "self": 7986, 
  "drivers": 7987, 
  "Monti": 7988, 
  "structured": 7989, 
  "attribute": 7990, 
  "Col@@": 7991, 
  "audi@@": 7992, 
  "monitored": 7993, 
  "retaliation": 7994, 
  "prin@@": 7995, 
  "visiting": 7996, 
  "shops": 7997, 
  "independently": 7998, 
  "short-lived": 7999, 
  "insights": 8000, 
  "44": 8001, 
  "33": 8002, 
  "scare": 8003, 
  "rendered": 8004, 
  "cular": 8005, 
  "hike": 8006, 
  "penalties": 8007, 
  "liberalizing": 8008, 
  "attractiveness": 8009, 
  "inde@@": 8010, 
  "astic": 8011, 
  "reaches": 8012, 
  "sn@@": 8013, 
  "branches": 8014, 
  "chaotic": 8015, 
  "lea@@": 8016, 
  "forest@@": 8017, 
  "1956": 8018, 
  "aping": 8019, 
  "Mumbai": 8020, 
  "wiel@@": 8021, 
  "safely": 8022, 
  "charisma": 8023, 
  "selective": 8024, 
  "glut": 8025, 
  "alli@@": 8026, 
  "privilege": 8027, 
  "37": 8028, 
  "successors": 8029, 
  "sixth": 8030, 
  "junta": 8031, 
  "neo-liberal": 8032, 
  "converted": 8033, 
  "deli@@": 8034, 
  "out-@@": 8035, 
  "fit@@": 8036, 
  "El@@": 8037, 
  "rogue": 8038, 
  "convert": 8039, 
  "Manuel": 8040, 
  "volumes": 8041, 
  "promotes": 8042, 
  "Dmitri": 8043, 
  "petition": 8044, 
  "separated": 8045, 
  "mers": 8046, 
  "Milton": 8047, 
  "ail@@": 8048, 
  "exploiting": 8049, 
  "cap-and-trade": 8050, 
  "underpinned": 8051, 
  "height": 8052, 
  "Is@@": 8053, 
  "conduc@@": 8054, 
  "backward": 8055, 
  "2,@@": 8056, 
  "grid": 8057, 
  "hosts": 8058, 
  "executed": 8059, 
  "insolvency": 8060, 
  "dated": 8061, 
  "IT": 8062, 
  "print": 8063, 
  "patriotic": 8064, 
  "anytime": 8065, 
  "clim@@": 8066, 
  "tionally": 8067, 
  "Mexicans": 8068, 
  "compact": 8069, 
  "tig@@": 8070, 
  "decides": 8071, 
  "loved": 8072, 
  "absor@@": 8073, 
  "Do": 8074, 
  "Sudanese": 8075, 
  "oun@@": 8076, 
  "illiquid": 8077, 
  "Wi@@": 8078, 
  "AN@@": 8079, 
  "objec@@": 8080, 
  "°": 8081, 
  "analy@@": 8082, 
  "mines": 8083, 
  "celebrated": 8084, 
  "feeding": 8085, 
  "&apos;m": 8086, 
  "time-@@": 8087, 
  "heated": 8088, 
  "resurgence": 8089, 
  "journey": 8090, 
  "expelled": 8091, 
  "testimony": 8092, 
  "rin@@": 8093, 
  "va": 8094, 
  "residential": 8095, 
  "tness": 8096, 
  "ain@@": 8097, 
  "bipolar": 8098, 
  "ar-@@": 8099, 
  "van@@": 8100, 
  "suitable": 8101, 
  "posts": 8102, 
  "dry": 8103, 
  "retired": 8104, 
  "hil@@": 8105, 
  "portrayed": 8106, 
  "tan@@": 8107, 
  "alle@@": 8108, 
  "sham@@": 8109, 
  "constraint": 8110, 
  "populists": 8111, 
  "brother": 8112, 
  "perverse": 8113, 
  "handful": 8114, 
  "yer": 8115, 
  "Left": 8116, 
  "proceeds": 8117, 
  "remedies": 8118, 
  "Tibetans": 8119, 
  "turing": 8120, 
  "fantasy": 8121, 
  "36": 8122, 
  "Albania": 8123, 
  "realm": 8124, 
  "Inter@@": 8125, 
  "maintenance": 8126, 
  "Anwar": 8127, 
  "endemic": 8128, 
  "conflicting": 8129, 
  "quota": 8130, 
  "ling@@": 8131, 
  "roll@@": 8132, 
  "impending": 8133, 
  "divert": 8134, 
  "inflation-@@": 8135, 
  "irre@@": 8136, 
  "cher": 8137, 
  "humane": 8138, 
  "cite": 8139, 
  "exceeded": 8140, 
  "survivors": 8141, 
  "Me@@": 8142, 
  "inspiration": 8143, 
  "soldier": 8144, 
  "abstract": 8145, 
  "wanting": 8146, 
  "linguistic": 8147, 
  "Standard": 8148, 
  "tives": 8149, 
  "pieces": 8150, 
  "ward-looking": 8151, 
  "troop": 8152, 
  "broker": 8153, 
  "utility": 8154, 
  "conferences": 8155, 
  "Colombian": 8156, 
  "www.@@": 8157, 
  "preferable": 8158, 
  "elev@@": 8159, 
  "Ha@@": 8160, 
  "ensuing": 8161, 
  "adapted": 8162, 
  "careers": 8163, 
  "enjoying": 8164, 
  "imperatives": 8165, 
  "consolidated": 8166, 
  "Pri@@": 8167, 
  "oper@@": 8168, 
  "marketplace": 8169, 
  "dating": 8170, 
  "fearing": 8171, 
  "journalism": 8172, 
  "ster@@": 8173, 
  "That": 8174, 
  "cliff": 8175, 
  "accusations": 8176, 
  "fix@@": 8177, 
  "overdue": 8178, 
  "confirms": 8179, 
  "looms": 8180, 
  "Sierra": 8181, 
  "NTC": 8182, 
  "fec@@": 8183, 
  "2.3": 8184, 
  "molecular": 8185, 
  "non-state": 8186, 
  "rot": 8187, 
  "adhere": 8188, 
  "compelled": 8189, 
  "diabetes": 8190, 
  "ten-@@": 8191, 
  "ue": 8192, 
  "oz@@": 8193, 
  "interpretations": 8194, 
  "trivial": 8195, 
  "battlefield": 8196, 
  "bridges": 8197, 
  "desert": 8198, 
  "assertion": 8199, 
  "rewarded": 8200, 
  "Pen": 8201, 
  "eggs": 8202, 
  "opaque": 8203, 
  "requests": 8204, 
  "brains": 8205, 
  "commander": 8206, 
  "Ac@@": 8207, 
  "liable": 8208, 
  "ament": 8209, 
  "atives": 8210, 
  "intractable": 8211, 
  "Adam": 8212, 
  "Anglo-Saxon": 8213, 
  "olo@@": 8214, 
  "hopeful": 8215, 
  "manship": 8216, 
  "racist": 8217, 
  "compet@@": 8218, 
  "rebound": 8219, 
  "interfere": 8220, 
  "human-@@": 8221, 
  "ush": 8222, 
  "emer@@": 8223, 
  "expenses": 8224, 
  "center-right": 8225, 
  "prohibition": 8226, 
  "origin@@": 8227, 
  "scenes": 8228, 
  "Ts@@": 8229, 
  "dumping": 8230, 
  "one-party": 8231, 
  "emit@@": 8232, 
  "clashes": 8233, 
  "nostalgia": 8234, 
  "ping": 8235, 
  "deterrent": 8236, 
  "angle": 8237, 
  "alienated": 8238, 
  "Action": 8239, 
  "fla@@": 8240, 
  "equation": 8241, 
  "urging": 8242, 
  "Uni@@": 8243, 
  "reinvigor@@": 8244, 
  "Hollywood": 8245, 
  "bipartisan": 8246, 
  "Mc@@": 8247, 
  "foot": 8248, 
  "Tel": 8249, 
  "fulfilling": 8250, 
  "description": 8251, 
  "powerless": 8252, 
  "reassure": 8253, 
  "gation": 8254, 
  "cens@@": 8255, 
  "engineer": 8256, 
  "defen@@": 8257, 
  "repayment": 8258, 
  "salary": 8259, 
  "qualities": 8260, 
  "regi@@": 8261, 
  "fore@@": 8262, 
  "remarks": 8263, 
  "efully": 8264, 
  "cla@@": 8265, 
  "dru@@": 8266, 
  "incompetent": 8267, 
  "lagging": 8268, 
  "shooting": 8269, 
  "Pi@@": 8270, 
  "Tro@@": 8271, 
  "ko": 8272, 
  "design@@": 8273, 
  "ear@@": 8274, 
  "describes": 8275, 
  "Har@@": 8276, 
  "Economics": 8277, 
  "triggering": 8278, 
  "sle@@": 8279, 
  "phenomena": 8280, 
  "glo@@": 8281, 
  "withdrawn": 8282, 
  "benchmark": 8283, 
  "flag": 8284, 
  "tery": 8285, 
  "tribes": 8286, 
  "-of-@@": 8287, 
  "embassy": 8288, 
  "cent@@": 8289, 
  "unwanted": 8290, 
  "shaky": 8291, 
  "bent": 8292, 
  "divisive": 8293, 
  "dence": 8294, 
  "telecommunications": 8295, 
  "shly": 8296, 
  "premiums": 8297, 
  "tense": 8298, 
  "discoveries": 8299, 
  "extract": 8300, 
  "engineered": 8301, 
  "55": 8302, 
  "ous@@": 8303, 
  "calamity": 8304, 
  "abor@@": 8305, 
  "wounds": 8306, 
  "fif@@": 8307, 
  "dubbed": 8308, 
  "motivation": 8309, 
  "ize": 8310, 
  "dose": 8311, 
  "compounded": 8312, 
  "enjoys": 8313, 
  "cool": 8314, 
  "mistrust": 8315, 
  "resisting": 8316, 
  "warn": 8317, 
  "obscure": 8318, 
  "registered": 8319, 
  "aff@@": 8320, 
  "stin@@": 8321, 
  "hack@@": 8322, 
  "wholesale": 8323, 
  "aggravated": 8324, 
  "verge": 8325, 
  "30,000": 8326, 
  "lights": 8327, 
  "mayor": 8328, 
  "criterion": 8329, 
  "aps": 8330, 
  "overvalued": 8331, 
  "greenhouse-gas": 8332, 
  "disclosure": 8333, 
  "opium": 8334, 
  "horse": 8335, 
  "immunity": 8336, 
  "ssed": 8337, 
  "compulsory": 8338, 
  "1975": 8339, 
  "yielded": 8340, 
  "bright": 8341, 
  "analogous": 8342, 
  "credit-@@": 8343, 
  "unk@@": 8344, 
  "Westerners": 8345, 
  "drove": 8346, 
  "consult@@": 8347, 
  "WikiLeaks": 8348, 
  "Zedong": 8349, 
  "dered": 8350, 
  "ill@@": 8351, 
  "thoughts": 8352, 
  "herself": 8353, 
  "spill": 8354, 
  "U": 8355, 
  "Vatican": 8356, 
  "eness": 8357, 
  "lab@@": 8358, 
  "magazine": 8359, 
  "PC": 8360, 
  "deadlock": 8361, 
  "mentality": 8362, 
  "fiction": 8363, 
  "apo@@": 8364, 
  "-to-@@": 8365, 
  "leveraging": 8366, 
  "ter-@@": 8367, 
  "Kyi": 8368, 
  "‑@@": 8369, 
  "cted": 8370, 
  "ial": 8371, 
  "publishing": 8372, 
  "Suu": 8373, 
  "Krugman": 8374, 
  "pas@@": 8375, 
  "thoroughly": 8376, 
  "passi@@": 8377, 
  "mut@@": 8378, 
  "gru@@": 8379, 
  "instances": 8380, 
  "struc@@": 8381, 
  "detainees": 8382, 
  "Geithner": 8383, 
  "Afghans": 8384, 
  "cumulative": 8385, 
  "dging": 8386, 
  "shocking": 8387, 
  "tion-@@": 8388, 
  "scor@@": 8389, 
  "brutality": 8390, 
  "uneven": 8391, 
  "hood": 8392, 
  "nit@@": 8393, 
  "ination": 8394, 
  "possesses": 8395, 
  "oil-rich": 8396, 
  "well-known": 8397, 
  "tax-@@": 8398, 
  "compassion": 8399, 
  "fri@@": 8400, 
  "dentally": 8401, 
  "ells": 8402, 
  "home@@": 8403, 
  "public-health": 8404, 
  "brilliant": 8405, 
  "transmitted": 8406, 
  "soar": 8407, 
  "generational": 8408, 
  "bus": 8409, 
  "32": 8410, 
  "intact": 8411, 
  "conducting": 8412, 
  "tolerant": 8413, 
  "geo-@@": 8414, 
  "3-@@": 8415, 
  "overcoming": 8416, 
  "mp@@": 8417, 
  "nor@@": 8418, 
  "designing": 8419, 
  "Old": 8420, 
  "equals": 8421, 
  "recourse": 8422, 
  "empower": 8423, 
  "nonsense": 8424, 
  "sleep": 8425, 
  "threw": 8426, 
  "stakeholders": 8427, 
  "explore": 8428, 
  "stresses": 8429, 
  "counting": 8430, 
  "much-@@": 8431, 
  "royal": 8432, 
  "ugly": 8433, 
  "clever": 8434, 
  "powered": 8435, 
  "beg@@": 8436, 
  "devised": 8437, 
  "widen": 8438, 
  "ne": 8439, 
  "sty@@": 8440, 
  "defec@@": 8441, 
  "freer": 8442, 
  "stolen": 8443, 
  "China-@@": 8444, 
  "individu@@": 8445, 
  "allegations": 8446, 
  "recommen@@": 8447, 
  "EC@@": 8448, 
  "Ku@@": 8449, 
  "resem@@": 8450, 
  "transferring": 8451, 
  "van": 8452, 
  "recipients": 8453, 
  "clubs": 8454, 
  "disadvantage": 8455, 
  "awarded": 8456, 
  "espo@@": 8457, 
  "Dar@@": 8458, 
  "aci@@": 8459, 
  "ssi@@": 8460, 
  "renegoti@@": 8461, 
  "champions": 8462, 
  "allocate": 8463, 
  "proposes": 8464, 
  "black@@": 8465, 
  "Yu@@": 8466, 
  "Barroso": 8467, 
  "sluggish": 8468, 
  "alleviate": 8469, 
  "-off": 8470, 
  "ino": 8471, 
  "spil@@": 8472, 
  "lobbies": 8473, 
  "ased": 8474, 
  "Society": 8475, 
  "Hamilton": 8476, 
  "Martin": 8477, 
  "pois@@": 8478, 
  "newcomers": 8479, 
  "recapitalization": 8480, 
  "dominates": 8481, 
  "inappropriate": 8482, 
  "abo@@": 8483, 
  "Tehran": 8484, 
  "prevails": 8485, 
  "opportun@@": 8486, 
  "000-@@": 8487, 
  "1.6": 8488, 
  "pile": 8489, 
  "Reinhart": 8490, 
  "swaps": 8491, 
  "tempting": 8492, 
  "much-needed": 8493, 
  "mergers": 8494, 
  "three-quarters": 8495, 
  "Market": 8496, 
  "drops": 8497, 
  "inflated": 8498, 
  "193@@": 8499, 
  "anc@@": 8500, 
  "barred": 8501, 
  "ye@@": 8502, 
  "goodwill": 8503, 
  "cence": 8504, 
  "Se@@": 8505, 
  "rati@@": 8506, 
  "exercised": 8507, 
  "preoccupied": 8508, 
  "advent": 8509, 
  "Ghraib": 8510, 
  "lap@@": 8511, 
  "deficiencies": 8512, 
  "charismatic": 8513, 
  "ami@@": 8514, 
  "variations": 8515, 
  "Mitterrand": 8516, 
  "films": 8517, 
  "1914": 8518, 
  "occupy": 8519, 
  "longevity": 8520, 
  "amounted": 8521, 
  "business-@@": 8522, 
  "eradicate": 8523, 
  "tim@@": 8524, 
  "rigi@@": 8525, 
  "entertainment": 8526, 
  "rents": 8527, 
  "bureaucracies": 8528, 
  "commanders": 8529, 
  "IF@@": 8530, 
  "Chi@@": 8531, 
  "deepest": 8532, 
  "isolate": 8533, 
  "Buddhist": 8534, 
  "old-fashioned": 8535, 
  "eb@@": 8536, 
  "speaker": 8537, 
  "slack": 8538, 
  "gui@@": 8539, 
  "Costa": 8540, 
  "tical": 8541, 
  "traits": 8542, 
  "reproductive": 8543, 
  "reli@@": 8544, 
  "1974": 8545, 
  "ctions": 8546, 
  "ee": 8547, 
  "behavioral": 8548, 
  "ano@@": 8549, 
  "gar": 8550, 
  "equities": 8551, 
  "sins": 8552, 
  "Silicon": 8553, 
  "thrive": 8554, 
  "descent": 8555, 
  "leg@@": 8556, 
  "corresponding": 8557, 
  "lessness": 8558, 
  "fathers": 8559, 
  "short@@": 8560, 
  "addiction": 8561, 
  "CO@@": 8562, 
  "spin": 8563, 
  "ede": 8564, 
  "erup@@": 8565, 
  "merger": 8566, 
  "artists": 8567, 
  "predic@@": 8568, 
  "uniform": 8569, 
  "coordinating": 8570, 
  "physicians": 8571, 
  "Mahathir": 8572, 
  "inclined": 8573, 
  "dness": 8574, 
  "literacy": 8575, 
  "Scandinavian": 8576, 
  "traveled": 8577, 
  "hybrid": 8578, 
  "mobilizing": 8579, 
  "corn": 8580, 
  "ames": 8581, 
  "organic": 8582, 
  "hyper-@@": 8583, 
  "reap": 8584, 
  "conception": 8585, 
  "individually": 8586, 
  "military-@@": 8587, 
  "escalation": 8588, 
  "ambiguity": 8589, 
  "facilitating": 8590, 
  "replied": 8591, 
  "hyp@@": 8592, 
  "contentious": 8593, 
  "variant": 8594, 
  "circul@@": 8595, 
  "Khomeini": 8596, 
  "paramount": 8597, 
  "revi@@": 8598, 
  "intra-@@": 8599, 
  "Iron": 8600, 
  "workplace": 8601, 
  "accepts": 8602, 
  "victories": 8603, 
  "seas@@": 8604, 
  "sa": 8605, 
  "varieties": 8606, 
  "pretend": 8607, 
  "bets": 8608, 
  "bribes": 8609, 
  "Mitt": 8610, 
  "consecutive": 8611, 
  "Delhi": 8612, 
  "separatist": 8613, 
  "acqu@@": 8614, 
  "taste": 8615, 
  "projec@@": 8616, 
  "systemically": 8617, 
  "Journal": 8618, 
  "depreci@@": 8619, 
  "refinancing": 8620, 
  "underscored": 8621, 
  "device": 8622, 
  "operated": 8623, 
  "vering": 8624, 
  "rivers": 8625, 
  "chooses": 8626, 
  "Year": 8627, 
  "suggestion": 8628, 
  "glori@@": 8629, 
  "arts": 8630, 
  "bloated": 8631, 
  "circum@@": 8632, 
  "imposition": 8633, 
  "supportive": 8634, 
  "motiv@@": 8635, 
  "47": 8636, 
  "comment": 8637, 
  "capitalized": 8638, 
  "hiding": 8639, 
  "gran@@": 8640, 
  "humiliating": 8641, 
  "stretch": 8642, 
  "spi@@": 8643, 
  "possessed": 8644, 
  "nationality": 8645, 
  "parasites": 8646, 
  "manifest@@": 8647, 
  "airport": 8648, 
  "summits": 8649, 
  "merchan@@": 8650, 
  "varying": 8651, 
  "wa": 8652, 
  "foolish": 8653, 
  "plagued": 8654, 
  "regre@@": 8655, 
  "award": 8656, 
  "describing": 8657, 
  "organ": 8658, 
  "aspi@@": 8659, 
  "centrist": 8660, 
  "essing": 8661, 
  "insi@@": 8662, 
  "gamble": 8663, 
  "wearing": 8664, 
  "Facebook": 8665, 
  "operates": 8666, 
  "ick@@": 8667, 
  "WHO": 8668, 
  "distributional": 8669, 
  "hardship": 8670, 
  "high@@": 8671, 
  "aded": 8672, 
  "cease": 8673, 
  "insu@@": 8674, 
  "nomin@@": 8675, 
  "dissident": 8676, 
  "strife": 8677, 
  "flooding": 8678, 
  "sch@@": 8679, 
  "rockets": 8680, 
  "condemnation": 8681, 
  "1971": 8682, 
  "cocaine": 8683, 
  "voluntarily": 8684, 
  "Islami@@": 8685, 
  "ensured": 8686, 
  "devastation": 8687, 
  "cancers": 8688, 
  "havoc": 8689, 
  "perpetu@@": 8690, 
  "protective": 8691, 
  "mankind": 8692, 
  "predicting": 8693, 
  "Prodi": 8694, 
  "autocracy": 8695, 
  "align@@": 8696, 
  "experimental": 8697, 
  "valuation": 8698, 
  "rain@@": 8699, 
  "stroke": 8700, 
  "sovereigns": 8701, 
  "growth-@@": 8702, 
  "ow@@": 8703, 
  "extinction": 8704, 
  "invading": 8705, 
  "tank": 8706, 
  "schooling": 8707, 
  "reck@@": 8708, 
  "self-fulfilling": 8709, 
  "score": 8710, 
  "underestimated": 8711, 
  "mes": 8712, 
  "adequacy": 8713, 
  "build-up": 8714, 
  "leisure": 8715, 
  "subsidiaries": 8716, 
  "CIA": 8717, 
  "wishful": 8718, 
  "disposable": 8719, 
  "0s": 8720, 
  "Bin": 8721, 
  "departments": 8722, 
  "bes": 8723, 
  "Belgrade": 8724, 
  "dare": 8725, 
  "broadcast": 8726, 
  "surro@@": 8727, 
  "curtailing": 8728, 
  "ected": 8729, 
  "heating": 8730, 
  "maternal": 8731, 
  "adher@@": 8732, 
  "correlation": 8733, 
  "proponents": 8734, 
  "strained": 8735, 
  "teen": 8736, 
  "designated": 8737, 
  "Karl": 8738, 
  "labor-@@": 8739, 
  "originated": 8740, 
  "ural": 8741, 
  "portray": 8742, 
  "tighten": 8743, 
  "akers": 8744, 
  "peril": 8745, 
  "vaccine": 8746, 
  "ort": 8747, 
  "American-@@": 8748, 
  "prefers": 8749, 
  "fore": 8750, 
  "proxy": 8751, 
  "cushion": 8752, 
  "upheaval": 8753, 
  "sil@@": 8754, 
  "recruit": 8755, 
  "restructure": 8756, 
  "ignorant": 8757, 
  "demon@@": 8758, 
  "Two": 8759, 
  "nurture": 8760, 
  "countercyclical": 8761, 
  "aw": 8762, 
  "erode": 8763, 
  "eable": 8764, 
  "meager": 8765, 
  "Golan": 8766, 
  "coercive": 8767, 
  "string": 8768, 
  "ballo@@": 8769, 
  "premise": 8770, 
  "Singh": 8771, 
  "meets": 8772, 
  "grossly": 8773, 
  "versa": 8774, 
  "wings": 8775, 
  "Islamabad": 8776, 
  "William": 8777, 
  "ethnicity": 8778, 
  "median": 8779, 
  "ruthless": 8780, 
  "lock": 8781, 
  "monks": 8782, 
  "rigorous": 8783, 
  "ambiguous": 8784, 
  "fores@@": 8785, 
  "radi@@": 8786, 
  "reconstruc@@": 8787, 
  "underestimate": 8788, 
  "di": 8789, 
  "Services": 8790, 
  "implicitly": 8791, 
  "SWFs": 8792, 
  "movies": 8793, 
  "reson@@": 8794, 
  "migrant": 8795, 
  "euro-@@": 8796, 
  "ack@@": 8797, 
  "Likud": 8798, 
  "collapses": 8799, 
  "exploration": 8800, 
  "dist@@": 8801, 
  "ao": 8802, 
  "lag": 8803, 
  "relation": 8804, 
  "cotton": 8805, 
  "horrors": 8806, 
  "motive": 8807, 
  "Cri@@": 8808, 
  "harmoni@@": 8809, 
  "supremacy": 8810, 
  "proclaim": 8811, 
  "retained": 8812, 
  "curious": 8813, 
  "ze@@": 8814, 
  "tment": 8815, 
  "predictably": 8816, 
  "incidence": 8817, 
  "6,000": 8818, 
  "graduates": 8819, 
  "rewarding": 8820, 
  "peninsula": 8821, 
  "taxpayer": 8822, 
  "constitutions": 8823, 
  "pause": 8824, 
  "heed": 8825, 
  "guaranteeing": 8826, 
  "My@@": 8827, 
  "alty": 8828, 
  "inhi@@": 8829, 
  "ali": 8830, 
  "anxieties": 8831, 
  "tortured": 8832, 
  "financial-market": 8833, 
  "undergoing": 8834, 
  "Ver@@": 8835, 
  "2.7": 8836, 
  "initiate": 8837, 
  "uphold": 8838, 
  "pronounced": 8839, 
  "cataly@@": 8840, 
  "las@@": 8841, 
  "yers": 8842, 
  "umbrella": 8843, 
  "expressing": 8844, 
  "dest@@": 8845, 
  "ops": 8846, 
  "Budget": 8847, 
  "Bur@@": 8848, 
  "gg@@": 8849, 
  "ills": 8850, 
  "eating": 8851, 
  "recovering": 8852, 
  "murderous": 8853, 
  "alous": 8854, 
  "Indonesian": 8855, 
  "balance-sheet": 8856, 
  "assurances": 8857, 
  "Em@@": 8858, 
  "ands": 8859, 
  "bio-@@": 8860, 
  "DP": 8861, 
  "zero-sum": 8862, 
  "aled": 8863, 
  "co": 8864, 
  "wear": 8865, 
  "physi@@": 8866, 
  "polling": 8867, 
  "cou@@": 8868, 
  "unded": 8869, 
  "genetics": 8870, 
  "domain": 8871, 
  "How": 8872, 
  "undemocratic": 8873, 
  "talents": 8874, 
  "Stra@@": 8875, 
  "custom@@": 8876, 
  "gni@@": 8877, 
  "ist@@": 8878, 
  "examined": 8879, 
  "extrac@@": 8880, 
  "firing": 8881, 
  "rock": 8882, 
  "subtle": 8883, 
  "competence": 8884, 
  "odd": 8885, 
  "leprosy": 8886, 
  "mode": 8887, 
  "corrup@@": 8888, 
  "strip": 8889, 
  "pe": 8890, 
  "Dominique": 8891, 
  "stock@@": 8892, 
  "tel@@": 8893, 
  "protein": 8894, 
  "do-@@": 8895, 
  "Morgan": 8896, 
  "grab": 8897, 
  "bil@@": 8898, 
  "submitted": 8899, 
  "acious": 8900, 
  "untenable": 8901, 
  "predictability": 8902, 
  "spra@@": 8903, 
  "horrific": 8904, 
  "Volcker": 8905, 
  "antagoni@@": 8906, 
  "weighed": 8907, 
  "unskilled": 8908, 
  "ensures": 8909, 
  "put@@": 8910, 
  "friendship": 8911, 
  "variation": 8912, 
  "acquies@@": 8913, 
  "anom@@": 8914, 
  "tip": 8915, 
  "provocative": 8916, 
  "disappointment": 8917, 
  "vul@@": 8918, 
  "paths": 8919, 
  "confronts": 8920, 
  "chers": 8921, 
  "-R@@": 8922, 
  "translated": 8923, 
  "1970s": 8924, 
  "comparing": 8925, 
  "ratify": 8926, 
  "squandered": 8927, 
  "dol@@": 8928, 
  "Angeles": 8929, 
  "anonymous": 8930, 
  "privatized": 8931, 
  "intensified": 8932, 
  "viability": 8933, 
  "campaigning": 8934, 
  "ingredients": 8935, 
  "1947": 8936, 
  "eligible": 8937, 
  "hi": 8938, 
  "slide": 8939, 
  "astonishing": 8940, 
  "nuclear-armed": 8941, 
  "ashing": 8942, 
  "positioned": 8943, 
  "1972": 8944, 
  "ravaged": 8945, 
  "Poor": 8946, 
  "Or@@": 8947, 
  "shield": 8948, 
  "Val@@": 8949, 
  "Draghi": 8950, 
  "mid-1990": 8951, 
  "announce": 8952, 
  "discriminatory": 8953, 
  "write-@@": 8954, 
  "fallout": 8955, 
  "Dalai": 8956, 
  "lik@@": 8957, 
  "They": 8958, 
  "downturns": 8959, 
  "Why": 8960, 
  "caudi@@": 8961, 
  "post-Cold": 8962, 
  "themes": 8963, 
  "Slobodan": 8964, 
  "convertibility": 8965, 
  "demo@@": 8966, 
  "dirty": 8967, 
  "confin@@": 8968, 
  "pan-@@": 8969, 
  "dropping": 8970, 
  "anticipate": 8971, 
  "reign": 8972, 
  "biased": 8973, 
  "hoc": 8974, 
  "theorists": 8975, 
  "achievable": 8976, 
  "coercion": 8977, 
  "codes": 8978, 
  "skill@@": 8979, 
  "hydrogen": 8980, 
  "ales": 8981, 
  "som@@": 8982, 
  "nearby": 8983, 
  "devote": 8984, 
  "Damascus": 8985, 
  "coincidence": 8986, 
  "lows": 8987, 
  "Niger": 8988, 
  "vic@@": 8989, 
  "resumption": 8990, 
  "joke": 8991, 
  "low-wage": 8992, 
  "undeniable": 8993, 
  "enthusiastic": 8994, 
  "four-@@": 8995, 
  "War@@": 8996, 
  "complementary": 8997, 
  "reinforces": 8998, 
  "pon@@": 8999, 
  "technically": 9000, 
  "zable": 9001, 
  "intim@@": 9002, 
  "observer": 9003, 
  "gift": 9004, 
  "vanished": 9005, 
  "ki": 9006, 
  "ind": 9007, 
  "unconditional": 9008, 
  "instruc@@": 9009, 
  "crossed": 9010, 
  "4.5": 9011, 
  "worlds": 9012, 
  "owes": 9013, 
  "specialized": 9014, 
  "deeds": 9015, 
  "contingent": 9016, 
  "Canadian": 9017, 
  "moneti@@": 9018, 
  "stered": 9019, 
  "spots": 9020, 
  "Commissioner": 9021, 
  "48": 9022, 
  "oppressive": 9023, 
  "dest": 9024, 
  "vor": 9025, 
  "taboo": 9026, 
  "sor@@": 9027, 
  "footing": 9028, 
  "transit": 9029, 
  "Bali": 9030, 
  "Economist": 9031, 
  "contend": 9032, 
  "unfettered": 9033, 
  "glu@@": 9034, 
  "secrecy": 9035, 
  "facilitated": 9036, 
  "ek@@": 9037, 
  "Uzbekistan": 9038, 
  "shine": 9039, 
  "far-@@": 9040, 
  "incur@@": 9041, 
  "jump@@": 9042, 
  "kni@@": 9043, 
  "exceeding": 9044, 
  "Strauss-Kahn": 9045, 
  "ideally": 9046, 
  "divorce": 9047, 
  "rail": 9048, 
  "š@@": 9049, 
  "ual": 9050, 
  "laun@@": 9051, 
  "inspections": 9052, 
  "prohibited": 9053, 
  "coups": 9054, 
  "hed@@": 9055, 
  "farther": 9056, 
  "constituents": 9057, 
  "post-communist": 9058, 
  "accomplishments": 9059, 
  "gesture": 9060, 
  "suspicions": 9061, 
  "contested": 9062, 
  "locally": 9063, 
  "abrupt": 9064, 
  "depended": 9065, 
  "nationalization": 9066, 
  "attain": 9067, 
  "massively": 9068, 
  "aya": 9069, 
  "indicted": 9070, 
  "Review": 9071, 
  "CEOs": 9072, 
  "blueprint": 9073, 
  "respondents": 9074, 
  "Fannie": 9075, 
  "plummeted": 9076, 
  "prosecuted": 9077, 
  "outlined": 9078, 
  "comprehend": 9079, 
  "peacekeepers": 9080, 
  "deepened": 9081, 
  "clause": 9082, 
  "ten-year": 9083, 
  "US-China": 9084, 
  "enters": 9085, 
  "detect": 9086, 
  "abi@@": 9087, 
  "world-@@": 9088, 
  "eng@@": 9089, 
  "artificially": 9090, 
  "diversify": 9091, 
  "mak@@": 9092, 
  "casting": 9093, 
  "indul@@": 9094, 
  "session": 9095, 
  "41": 9096, 
  "wisely": 9097, 
  "encomp@@": 9098, 
  "worsened": 9099, 
  "edly": 9100, 
  "lt": 9101, 
  "distort": 9102, 
  "autom@@": 9103, 
  "Deputy": 9104, 
  "maximize": 9105, 
  "ped@@": 9106, 
  "shar@@": 9107, 
  "mountains": 9108, 
  "ostensibly": 9109, 
  "nomination": 9110, 
  "twelve": 9111, 
  "distur@@": 9112, 
  "Five-Year": 9113, 
  "ridden": 9114, 
  "Am@@": 9115, 
  "polarization": 9116, 
  "toppled": 9117, 
  "telephone": 9118, 
  "re-elected": 9119, 
  "wer@@": 9120, 
  "ek": 9121, 
  "Nepal": 9122, 
  "rock@@": 9123, 
  "-like": 9124, 
  "guiding": 9125, 
  "feminism": 9126, 
  "quarter-century": 9127, 
  "ine@@": 9128, 
  "friction": 9129, 
  "healthier": 9130, 
  "ironic": 9131, 
  "common@@": 9132, 
  "simpli@@": 9133, 
  "subsidize": 9134, 
  "Tayyip": 9135, 
  "aria": 9136, 
  "oceans": 9137, 
  "bacteria": 9138, 
  "Recep": 9139, 
  "posing": 9140, 
  "dé@@": 9141, 
  "Euro@@": 9142, 
  "persistence": 9143, 
  "rou@@": 9144, 
  "winds": 9145, 
  "Jean-Claude": 9146, 
  "cheaply": 9147, 
  "occupations": 9148, 
  "starters": 9149, 
  "proportions": 9150, 
  "counted": 9151, 
  "euphoria": 9152, 
  "partition": 9153, 
  "predatory": 9154, 
  "í@@": 9155, 
  "invoked": 9156, 
  "blue": 9157, 
  "constrain": 9158, 
  "2100": 9159, 
  "spur@@": 9160, 
  "align": 9161, 
  "Raf@@": 9162, 
  "intern@@": 9163, 
  "denomin@@": 9164, 
  "guerrillas": 9165, 
  "politicized": 9166, 
  "matches": 9167, 
  "gangs": 9168, 
  "intensify": 9169, 
  "boycott": 9170, 
  "Enlightenment": 9171, 
  "arrogant": 9172, 
  "devastated": 9173, 
  "delaying": 9174, 
  "cont@@": 9175, 
  "68": 9176, 
  "duc@@": 9177, 
  "succumb": 9178, 
  "forbidden": 9179, 
  "cop@@": 9180, 
  "anybody": 9181, 
  "disrupt": 9182, 
  "rejects": 9183, 
  "tail@@": 9184, 
  "incarcer@@": 9185, 
  "readers": 9186, 
  "injury": 9187, 
  "retrenchment": 9188, 
  "1949": 9189, 
  "notoriously": 9190, 
  "multiculturalism": 9191, 
  "double-dip": 9192, 
  "couples": 9193, 
  "uneasy": 9194, 
  "Italians": 9195, 
  "advocacy": 9196, 
  "persecution": 9197, 
  "Bosnian": 9198, 
  "strengthens": 9199, 
  "road@@": 9200, 
  "ables": 9201, 
  "Hungarian": 9202, 
  "morning": 9203, 
  "1931": 9204, 
  "employing": 9205, 
  "distribu@@": 9206, 
  "appoin@@": 9207, 
  "abide": 9208, 
  "DDT": 9209, 
  "disruptions": 9210, 
  "SDRs": 9211, 
  "defer@@": 9212, 
  "confusing": 9213, 
  "relieve": 9214, 
  "simultaneous": 9215, 
  "scar@@": 9216, 
  "fixing": 9217, 
  "forecasting": 9218, 
  "fiable": 9219, 
  "Bri@@": 9220, 
  "stricter": 9221, 
  "athed": 9222, 
  "mal": 9223, 
  "jurisdictions": 9224, 
  "headline": 9225, 
  "shop": 9226, 
  "primacy": 9227, 
  "mar": 9228, 
  "similarities": 9229, 
  "Al-@@": 9230, 
  "Lukashenko": 9231, 
  "capitalists": 9232, 
  "signaled": 9233, 
  "supplied": 9234, 
  "Orleans": 9235, 
  "loo@@": 9236, 
  "arch@@": 9237, 
  "comprises": 9238, 
  "revision": 9239, 
  "ney": 9240, 
  "aspire": 9241, 
  "guards": 9242, 
  "fan@@": 9243, 
  "broaden": 9244, 
  "succeeds": 9245, 
  "cartels": 9246, 
  "Lama": 9247, 
  "plane": 9248, 
  "Eurobonds": 9249, 
  "sparked": 9250, 
  "illusions": 9251, 
  "15-@@": 9252, 
  "evaluation": 9253, 
  "mentally": 9254, 
  "pled": 9255, 
  "Shell": 9256, 
  "applications": 9257, 
  "plunged": 9258, 
  "candidacy": 9259, 
  "endure": 9260, 
  "mented": 9261, 
  "franc": 9262, 
  "ein": 9263, 
  "denominated": 9264, 
  "boss": 9265, 
  "license": 9266, 
  "swit@@": 9267, 
  "puni@@": 9268, 
  "would-be": 9269, 
  ".ampnbsp": 9270, 
  "allegiance": 9271, 
  "provoking": 9272, 
  "peculiar": 9273, 
  "melting": 9274, 
  "grace": 9275, 
  "gn": 9276, 
  "2014": 9277, 
  "selec@@": 9278, 
  "passionate": 9279, 
  "voc@@": 9280, 
  "occasional": 9281, 
  "develops": 9282, 
  "bird": 9283, 
  "Armenian": 9284, 
  "ata": 9285, 
  "pouring": 9286, 
  "prepar@@": 9287, 
  "tum@@": 9288, 
  "impressed": 9289, 
  "Ash@@": 9290, 
  "cease-fire": 9291, 
  "prosecute": 9292, 
  "fro@@": 9293, 
  "em": 9294, 
  "utter": 9295, 
  "crony": 9296, 
  "vowed": 9297, 
  "aces": 9298, 
  "swa@@": 9299, 
  "fabric": 9300, 
  "destabilize": 9301, 
  "noticed": 9302, 
  "suffice": 9303, 
  "reconciled": 9304, 
  "behaving": 9305, 
  "l-@@": 9306, 
  "precarious": 9307, 
  "blockade": 9308, 
  "maneu@@": 9309, 
  "file": 9310, 
  "honesty": 9311, 
  "oke": 9312, 
  "System": 9313, 
  "Solzhenitsyn": 9314, 
  "cation": 9315, 
  "39": 9316, 
  "vali@@": 9317, 
  "label": 9318, 
  "suspects": 9319, 
  "dam": 9320, 
  "Dick": 9321, 
  "0.2": 9322, 
  "sens@@": 9323, 
  "castes": 9324, 
  "steam": 9325, 
  "intend": 9326, 
  "obtaining": 9327, 
  "gang": 9328, 
  "indic@@": 9329, 
  "better-@@": 9330, 
  "geni@@": 9331, 
  "perpet@@": 9332, 
  "laboratories": 9333, 
  "delu@@": 9334, 
  "hubris": 9335, 
  "acy": 9336, 
  "encountered": 9337, 
  "H": 9338, 
  "ade@@": 9339, 
  "Economy": 9340, 
  "attachment": 9341, 
  "disdain": 9342, 
  "woes": 9343, 
  "classi@@": 9344, 
  "decay": 9345, 
  "colonies": 9346, 
  "demograph@@": 9347, 
  "dual": 9348, 
  "lax": 9349, 
  "rum@@": 9350, 
  "Barak": 9351, 
  "wholly": 9352, 
  "ep": 9353, 
  "lowing": 9354, 
  "orable": 9355, 
  "deri@@": 9356, 
  "CD": 9357, 
  "flat@@": 9358, 
  "boat": 9359, 
  "charity": 9360, 
  "discouraged": 9361, 
  "spot": 9362, 
  "Euro-Atlantic": 9363, 
  "Ta@@": 9364, 
  "fastest": 9365, 
  "oked": 9366, 
  "Vi@@": 9367, 
  "river": 9368, 
  "rhetorical": 9369, 
  "otic": 9370, 
  "permissible": 9371, 
  "dragged": 9372, 
  "destination": 9373, 
  "START": 9374, 
  "impetus": 9375, 
  "£": 9376, 
  "anded": 9377, 
  "comple@@": 9378, 
  "Condoleezza": 9379, 
  "clinics": 9380, 
  "formulate": 9381, 
  "Fa@@": 9382, 
  "gan@@": 9383, 
  "Napoleon": 9384, 
  "gay": 9385, 
  "nationwide": 9386, 
  "secession": 9387, 
  "All": 9388, 
  "1.1": 9389, 
  "posture": 9390, 
  "disability": 9391, 
  "mir@@": 9392, 
  "humiliated": 9393, 
  "loc@@": 9394, 
  "medium-size": 9395, 
  "undergo": 9396, 
  "man-made": 9397, 
  "brutally": 9398, 
  "recoveries": 9399, 
  "ica": 9400, 
  "assigned": 9401, 
  "negligible": 9402, 
  "staged": 9403, 
  "unfolding": 9404, 
  "efficacy": 9405, 
  "Du@@": 9406, 
  "old-@@": 9407, 
  "enriched": 9408, 
  "ain": 9409, 
  "department": 9410, 
  "pending": 9411, 
  "aided": 9412, 
  "Nordic": 9413, 
  "pro-democracy": 9414, 
  "spark": 9415, 
  "frightening": 9416, 
  "el-@@": 9417, 
  "Can@@": 9418, 
  "zi@@": 9419, 
  "Americ@@": 9420, 
  "sway": 9421, 
  "swift": 9422, 
  "Maliki": 9423, 
  "segments": 9424, 
  "nationalistic": 9425, 
  "bottom@@": 9426, 
  "Ph@@": 9427, 
  "ples": 9428, 
  "seriousness": 9429, 
  "prohibi@@": 9430, 
  "liked": 9431, 
  "Bra@@": 9432, 
  "protocol": 9433, 
  "interactions": 9434, 
  "incurred": 9435, 
  "Mill": 9436, 
  "10-@@": 9437, 
  "lied": 9438, 
  "biofuels": 9439, 
  "monthly": 9440, 
  "Columbia": 9441, 
  "conve@@": 9442, 
  "smarter": 9443, 
  "daughters": 9444, 
  "Fidel": 9445, 
  "antagonism": 9446, 
  "1.7": 9447, 
  "fragility": 9448, 
  "arrests": 9449, 
  "gradu@@": 9450, 
  "compensated": 9451, 
  "basi@@": 9452, 
  "district": 9453, 
  "Som@@": 9454, 
  "viewers": 9455, 
  "beauty": 9456, 
  "hegemonic": 9457, 
  "charter": 9458, 
  "se-@@": 9459, 
  "money-@@": 9460, 
  "narratives": 9461, 
  "visa": 9462, 
  "ariat": 9463, 
  "lawmakers": 9464, 
  "escaped": 9465, 
  "widened": 9466, 
  "um-@@": 9467, 
  "secret@@": 9468, 
  "51": 9469, 
  "correction": 9470, 
  "deadline": 9471, 
  "Coun@@": 9472, 
  "militarized": 9473, 
  "render": 9474, 
  "G-@@": 9475, 
  "ologi@@": 9476, 
  "Fifth": 9477, 
  "shall": 9478, 
  "draws": 9479, 
  "nourished": 9480, 
  "intensi@@": 9481, 
  "search@@": 9482, 
  "importing": 9483, 
  "Y": 9484, 
  "insure": 9485, 
  "okes": 9486, 
  "mountain": 9487, 
  "show@@": 9488, 
  "alcohol": 9489, 
  "nice": 9490, 
  "prejudice": 9491, 
  "virtuous": 9492, 
  "bat@@": 9493, 
  "convened": 9494, 
  "hab@@": 9495, 
  "appeasement": 9496, 
  "invite": 9497, 
  "impulse": 9498, 
  "neighborhoods": 9499, 
  "hang": 9500, 
  "microbes": 9501, 
  "Aristide": 9502, 
  "greeted": 9503, 
  "person@@": 9504, 
  "bonus": 9505, 
  "wed@@": 9506, 
  "progressively": 9507, 
  "harassment": 9508, 
  "assem@@": 9509, 
  "Binyamin": 9510, 
  "lin": 9511, 
  "Libyans": 9512, 
  "well-functioning": 9513, 
  "trades": 9514, 
  "revaluation": 9515, 
  "essions": 9516, 
  "dem@@": 9517, 
  "betra@@": 9518, 
  "privacy": 9519, 
  "misrule": 9520, 
  "sand": 9521, 
  "dust": 9522, 
  "observation": 9523, 
  "ris@@": 9524, 
  "donations": 9525, 
  "havens": 9526, 
  "realistically": 9527, 
  "mid@@": 9528, 
  "athletes": 9529, 
  "Paulson": 9530, 
  "AR@@": 9531, 
  "self-confidence": 9532, 
  "unjust": 9533, 
  "mi": 9534, 
  "lified": 9535, 
  "violating": 9536, 
  "subordinate": 9537, 
  "kl@@": 9538, 
  "flaw": 9539, 
  "Albanian": 9540, 
  "critique": 9541, 
  "craf@@": 9542, 
  "ghted": 9543, 
  "servi@@": 9544, 
  "compromising": 9545, 
  "ank": 9546, 
  "requested": 9547, 
  "shr@@": 9548, 
  "turnaround": 9549, 
  "ums": 9550, 
  "versions": 9551, 
  "excellence": 9552, 
  "complement": 9553, 
  "outflows": 9554, 
  "staying": 9555, 
  "implosion": 9556, 
  "Maoist": 9557, 
  "centr@@": 9558, 
  "unusually": 9559, 
  "SDR": 9560, 
  "promptly": 9561, 
  "Mad@@": 9562, 
  "cleansing": 9563, 
  "withdrew": 9564, 
  "materialize": 9565, 
  "catalyst": 9566, 
  "We@@": 9567, 
  "Carter": 9568, 
  "appro@@": 9569, 
  "capit@@": 9570, 
  "me-@@": 9571, 
  "discredit": 9572, 
  "articulate": 9573, 
  "VAT": 9574, 
  "tolerated": 9575, 
  "precondition": 9576, 
  "altered": 9577, 
  "jihad": 9578, 
  "apped": 9579, 
  "world-class": 9580, 
  "invaded": 9581, 
  "populous": 9582, 
  "K": 9583, 
  "loaded": 9584, 
  "geographic": 9585, 
  "dispat@@": 9586, 
  "1984": 9587, 
  "ene": 9588, 
  "continually": 9589, 
  "Chavez": 9590, 
  "contexts": 9591, 
  "revolutionaries": 9592, 
  "overhang": 9593, 
  "once-@@": 9594, 
  "degra@@": 9595, 
  "breach": 9596, 
  "churches": 9597, 
  "deficiency": 9598, 
  "compar@@": 9599, 
  "Hurricane": 9600, 
  "unifying": 9601, 
  "random": 9602, 
  "IN@@": 9603, 
  "substantive": 9604, 
  "macro-@@": 9605, 
  "transcend": 9606, 
  "betrayal": 9607, 
  "fertile": 9608, 
  "gur@@": 9609, 
  "depar@@": 9610, 
  "market-oriented": 9611, 
  "civil-society": 9612, 
  "Amsterdam": 9613, 
  "sof@@": 9614, 
  "sugar": 9615, 
  "Mozambique": 9616, 
  "assessed": 9617, 
  "Bundesbank": 9618, 
  "6.5": 9619, 
  "rainfall": 9620, 
  "orial": 9621, 
  "outdated": 9622, 
  "ridi@@": 9623, 
  "recommend": 9624, 
  "peers": 9625, 
  "briefly": 9626, 
  "sus": 9627, 
  "aching": 9628, 
  "uniquely": 9629, 
  "Banking": 9630, 
  "din": 9631, 
  "Liber@@": 9632, 
  "oh@@": 9633, 
  "normalization": 9634, 
  "particip@@": 9635, 
  "section": 9636, 
  "stagn@@": 9637, 
  "burg": 9638, 
  "ety": 9639, 
  "solvent": 9640, 
  "Acc@@": 9641, 
  "biotechnology": 9642, 
  "enter@@": 9643, 
  "Her@@": 9644, 
  "objections": 9645, 
  "embryos": 9646, 
  "e.g.": 9647, 
  "homosexuality": 9648, 
  "ren": 9649, 
  "unanimous": 9650, 
  "holi@@": 9651, 
  "noble": 9652, 
  "debating": 9653, 
  "not@@": 9654, 
  "crushed": 9655, 
  "nerve": 9656, 
  "payroll": 9657, 
  "spare": 9658, 
  "freed": 9659, 
  "desires": 9660, 
  "adventure": 9661, 
  "covert": 9662, 
  "accru@@": 9663, 
  "veness": 9664, 
  "Turkmenistan": 9665, 
  "itable": 9666, 
  "intimidation": 9667, 
  "constructing": 9668, 
  "xenophobic": 9669, 
  "Srebrenica": 9670, 
  "recapitalize": 9671, 
  "neg@@": 9672, 
  "intri@@": 9673, 
  "strang@@": 9674, 
  "Mer@@": 9675, 
  "refuge": 9676, 
  "pes": 9677, 
  "12th": 9678, 
  "league": 9679, 
  "rendering": 9680, 
  "blackmail": 9681, 
  "intervened": 9682, 
  "int": 9683, 
  "pun@@": 9684, 
  "reserved": 9685, 
  "councils": 9686, 
  "restrictive": 9687, 
  "Federation": 9688, 
  "abilities": 9689, 
  "Stockholm": 9690, 
  "gul@@": 9691, 
  "suits": 9692, 
  "profligate": 9693, 
  "bili@@": 9694, 
  "continuously": 9695, 
  "acquiring": 9696, 
  "observe": 9697, 
  "inheritance": 9698, 
  "metals": 9699, 
  "Mladic": 9700, 
  "transl@@": 9701, 
  "exciting": 9702, 
  "explo@@": 9703, 
  "unbalanced": 9704, 
  "culturally": 9705, 
  "redistribu@@": 9706, 
  "ices": 9707, 
  "sacrifices": 9708, 
  "planes": 9709, 
  "53": 9710, 
  "apartheid": 9711, 
  "alo@@": 9712, 
  "Rica": 9713, 
  "Maghreb": 9714, 
  "margin@@": 9715, 
  "99": 9716, 
  "-minded": 9717, 
  "therapies": 9718, 
  "Bangkok": 9719, 
  "-of-GDP": 9720, 
  "vet@@": 9721, 
  "34": 9722, 
  "tude": 9723, 
  "topic": 9724, 
  "1962": 9725, 
  "ura": 9726, 
  "full-time": 9727, 
  "ole": 9728, 
  "accumulating": 9729, 
  "cosmopolitan": 9730, 
  "prefer@@": 9731, 
  "announcing": 9732, 
  "hypothesis": 9733, 
  "ized": 9734, 
  "pornography": 9735, 
  "conversion": 9736, 
  "gling": 9737, 
  "technocratic": 9738, 
  "regained": 9739, 
  "twin": 9740, 
  "differs": 9741, 
  "Coast": 9742, 
  "swap": 9743, 
  "Assange": 9744, 
  "impaired": 9745, 
  "hr@@": 9746, 
  "tit@@": 9747, 
  "vivid": 9748, 
  "inci@@": 9749, 
  "tactic": 9750, 
  "poppy": 9751, 
  "apathy": 9752, 
  "IM@@": 9753, 
  "History": 9754, 
  "57": 9755, 
  "conten@@": 9756, 
  "Summers": 9757, 
  "appe@@": 9758, 
  "sat": 9759, 
  "ko@@": 9760, 
  "proximity": 9761, 
  "disarray": 9762, 
  "multiplied": 9763, 
  "dam@@": 9764, 
  "abolish": 9765, 
  "determines": 9766, 
  "ine-@@": 9767, 
  "Hariri": 9768, 
  "subscri@@": 9769, 
  "taxing": 9770, 
  "belonging": 9771, 
  "specialists": 9772, 
  "stan@@": 9773, 
  "resurrec@@": 9774, 
  "spike": 9775, 
  "then-@@": 9776, 
  "puzzle": 9777, 
  "small@@": 9778, 
  "AIG": 9779, 
  "deception": 9780, 
  "disciplines": 9781, 
  "rethink": 9782, 
  "At@@": 9783, 
  "addresses": 9784, 
  "quoted": 9785, 
  "parks": 9786, 
  "Kabul": 9787, 
  "emphasizes": 9788, 
  "ong@@": 9789, 
  "Wilson": 9790, 
  "tin": 9791, 
  "teenth": 9792, 
  "managerial": 9793, 
  "Ben@@": 9794, 
  "harmonization": 9795, 
  "contra@@": 9796, 
  "lobbyists": 9797, 
  "reconsider": 9798, 
  "massacres": 9799, 
  "forcefully": 9800, 
  "protects": 9801, 
  "dampen": 9802, 
  "expecting": 9803, 
  "orchest@@": 9804, 
  "BBC": 9805, 
  "big-@@": 9806, 
  "QE": 9807, 
  "tripled": 9808, 
  "Tunisian": 9809, 
  "listening": 9810, 
  "beaten": 9811, 
  "fabri@@": 9812, 
  "boom@@": 9813, 
  "stubbornly": 9814, 
  "victorious": 9815, 
  "Cor@@": 9816, 
  "framed": 9817, 
  "burden-sharing": 9818, 
  "bars": 9819, 
  "harmonious": 9820, 
  "Tur@@": 9821, 
  "produc@@": 9822, 
  "persistently": 9823, 
  "fence": 9824, 
  "Delta": 9825, 
  "disengagement": 9826, 
  "plum@@": 9827, 
  "greedy": 9828, 
  "worldview": 9829, 
  "uniting": 9830, 
  "450": 9831, 
  "anti-Semitic": 9832, 
  "anti-Western": 9833, 
  "sibility": 9834, 
  "courageous": 9835, 
  "revol@@": 9836, 
  "deduc@@": 9837, 
  "purchased": 9838, 
  "Guinea": 9839, 
  "liberalize": 9840, 
  "shopping": 9841, 
  "shell": 9842, 
  "tal": 9843, 
  "doub@@": 9844, 
  "earliest": 9845, 
  "slows": 9846, 
  "onia": 9847, 
  "spir@@": 9848, 
  "refinance": 9849, 
  "market-based": 9850, 
  "ization": 9851, 
  "0.3": 9852, 
  "copy": 9853, 
  "dividend": 9854, 
  "tici@@": 9855, 
  "multi-polar": 9856, 
  "employ@@": 9857, 
  "ment-@@": 9858, 
  "Kan": 9859, 
  "1.8": 9860, 
  "roadmap": 9861, 
  "Industrial": 9862, 
  "sizeable": 9863, 
  "landslide": 9864, 
  "year-@@": 9865, 
  "Venezuelan": 9866, 
  "measuring": 9867, 
  "indicating": 9868, 
  "1997-1998": 9869, 
  "risking": 9870, 
  "senators": 9871, 
  "slogans": 9872, 
  "retire": 9873, 
  "dilemmas": 9874, 
  "Yasukuni": 9875, 
  "round@@": 9876, 
  "celebration": 9877, 
  "unchecked": 9878, 
  "stes": 9879, 
  "thwest": 9880, 
  "Sha@@": 9881, 
  "betting": 9882, 
  "shut@@": 9883, 
  "age-@@": 9884, 
  "one-fifth": 9885, 
  "assurance": 9886, 
  "tal@@": 9887, 
  "noting": 9888, 
  "keys": 9889, 
  "rent": 9890, 
  "Senegal": 9891, 
  "retro@@": 9892, 
  "frightened": 9893, 
  "Barcelona": 9894, 
  "oting": 9895, 
  "erous": 9896, 
  "aversion": 9897, 
  "Confucian": 9898, 
  "amendments": 9899, 
  "ees": 9900, 
  "thereafter": 9901, 
  "mouth": 9902, 
  "gned": 9903, 
  "Marxist": 9904, 
  "62": 9905, 
  "renew": 9906, 
  "five-@@": 9907, 
  "nasty": 9908, 
  "amounting": 9909, 
  "politi@@": 9910, 
  "oes": 9911, 
  "cloning": 9912, 
  "rob@@": 9913, 
  "turbines": 9914, 
  "determinant": 9915, 
  "revit@@": 9916, 
  "kov": 9917, 
  "Koran": 9918, 
  "sink": 9919, 
  "proportion@@": 9920, 
  "financial-@@": 9921, 
  "Pakistanis": 9922, 
  "alignment": 9923, 
  "minutes": 9924, 
  "aver@@": 9925, 
  "wra@@": 9926, 
  "immoral": 9927, 
  "instructions": 9928, 
  "trick@@": 9929, 
  "ron": 9930, 
  "book@@": 9931, 
  "labeled": 9932, 
  "Toledo": 9933, 
  "glaciers": 9934, 
  "Dr.": 9935, 
  "mur@@": 9936, 
  "affili@@": 9937, 
  "Kirchner": 9938, 
  "monetary-policy": 9939, 
  "blunt": 9940, 
  "prolong": 9941, 
  "sity": 9942, 
  "designs": 9943, 
  "liberated": 9944, 
  "rats": 9945, 
  "rein@@": 9946, 
  "universally": 9947, 
  "46": 9948, 
  "interdependent": 9949, 
  "stun@@": 9950, 
  "tap": 9951, 
  "fertilizer": 9952, 
  "arsenals": 9953, 
  "gridlock": 9954, 
  "perestroika": 9955, 
  "dictate": 9956, 
  "unleash": 9957, 
  "dable": 9958, 
  "disciplined": 9959, 
  "real-@@": 9960, 
  "planted": 9961, 
  "Jo@@": 9962, 
  "manifest": 9963, 
  "rescued": 9964, 
  "mightily": 9965, 
  "histories": 9966, 
  "Lenin": 9967, 
  "unregulated": 9968, 
  "DS@@": 9969, 
  "thering": 9970, 
  "tipping": 9971, 
  "simpler": 9972, 
  "mes@@": 9973, 
  "omed": 9974, 
  "stretched": 9975, 
  "theater": 9976, 
  "He": 9977, 
  "frat@@": 9978, 
  "shu@@": 9979, 
  "incorpor@@": 9980, 
  "deterred": 9981, 
  "diffusion": 9982, 
  "positively": 9983, 
  "securitization": 9984, 
  "affirmative": 9985, 
  "tribunals": 9986, 
  "sinking": 9987, 
  "physicists": 9988, 
  "wildly": 9989, 
  "detained": 9990, 
  "ane": 9991, 
  "Xi": 9992, 
  "sians": 9993, 
  "Frankfurt": 9994, 
  "will@@": 9995, 
  "glory": 9996, 
  "197@@": 9997, 
  "ys@@": 9998, 
  "short-@@": 9999, 
  "shoulder": 10000, 
  "circulation": 10001, 
  "bla@@": 10002, 
  "chips": 10003, 
  "ben@@": 10004, 
  "uous": 10005, 
  "tough@@": 10006, 
  "prisoner": 10007, 
  "Portuguese": 10008, 
  "illnesses": 10009, 
  "traction": 10010, 
  "regul@@": 10011, 
  "injured": 10012, 
  "expressions": 10013, 
  "sympathetic": 10014, 
  "Mac@@": 10015, 
  "Greater": 10016, 
  "cleaner": 10017, 
  "indictment": 10018, 
  "navy": 10019, 
  "Conservative": 10020, 
  "screen": 10021, 
  "ners": 10022, 
  "sequ@@": 10023, 
  "assembled": 10024, 
  "chi@@": 10025, 
  "taining": 10026, 
  "stret@@": 10027, 
  "endow@@": 10028, 
  "ski": 10029, 
  "criticizing": 10030, 
  "quanti@@": 10031, 
  "measurable": 10032, 
  "mandates": 10033, 
  "deteriorated": 10034, 
  "completion": 10035, 
  "provi@@": 10036, 
  "supplier": 10037, 
  "messy": 10038, 
  "-shaped": 10039, 
  "periodic": 10040, 
  "von": 10041, 
  "machinery": 10042, 
  "conver@@": 10043, 
  "inspi@@": 10044, 
  "monitors": 10045, 
  "insul@@": 10046, 
  "precedents": 10047, 
  "ection": 10048, 
  "tful": 10049, 
  "hat@@": 10050, 
  "descendants": 10051, 
  "cious": 10052, 
  "worthwhile": 10053, 
  "teri@@": 10054, 
  "petroleum": 10055, 
  "admiration": 10056, 
  "advi@@": 10057, 
  "vitality": 10058, 
  "campaigners": 10059, 
  "Chad": 10060, 
  "timetable": 10061, 
  "park": 10062, 
  "bac@@": 10063, 
  "diversion": 10064, 
  "Curtain": 10065, 
  "cratic": 10066, 
  "crucially": 10067, 
  "decei@@": 10068, 
  "holder": 10069, 
  "definitive": 10070, 
  "topple": 10071, 
  "commerci@@": 10072, 
  "Yanukovych": 10073, 
  "foresee": 10074, 
  "embodies": 10075, 
  "diss@@": 10076, 
  "Israeli-@@": 10077, 
  "legitimize": 10078, 
  "3.@@": 10079, 
  "endorsement": 10080, 
  "therapeutic": 10081, 
  "prevalent": 10082, 
  "Israel-@@": 10083, 
  "restrain": 10084, 
  "adver@@": 10085, 
  "register": 10086, 
  "compound": 10087, 
  "relax@@": 10088, 
  "vaccines": 10089, 
  "climb": 10090, 
  "59": 10091, 
  "tax@@": 10092, 
  "gement": 10093, 
  "Pearl": 10094, 
  "SGP": 10095, 
  "Pervez": 10096, 
  "sided": 10097, 
  "drafting": 10098, 
  "shaken": 10099, 
  "stock-market": 10100, 
  "commissions": 10101, 
  "repaid": 10102, 
  "avo@@": 10103, 
  "unds": 10104, 
  "hed": 10105, 
  "consumer@@": 10106, 
  "alis@@": 10107, 
  "ised": 10108, 
  "Sen@@": 10109, 
  "mosque": 10110, 
  "assign@@": 10111, 
  "eries": 10112, 
  "activ@@": 10113, 
  "gers": 10114, 
  "Mitchell": 10115, 
  "crossroads": 10116, 
  "tumor": 10117, 
  "unwise": 10118, 
  "stuff": 10119, 
  "differential": 10120, 
  "X": 10121, 
  "liation": 10122, 
  "diplomat": 10123, 
  "eri@@": 10124, 
  "willingly": 10125, 
  "mega-@@": 10126, 
  "appalling": 10127, 
  "ze-@@": 10128, 
  "manages": 10129, 
  "tified": 10130, 
[...]
