{
  "eos": 0, 
  "UNK": 1, 
  "the": 2, 
  ",": 3, 
  ".": 4, 
  "of": 5, 
  "to": 6, 
  "and": 7, 
  "in": 8, 
  "a": 9, 
  "is": 10, 
  "that": 11, 
  "&apos;s": 12, 
  "for": 13, 
  "it": 14, 
  "as": 15, 
  "be": 16, 
  "not": 17, 
  "are": 18, 
  "but": 19, 
  "on": 20, 
  "with": 21, 
  "by": 22, 
  "-": 23, 
  "this": 24, 
  "&apos;&apos;": 25, 
  "have": 26, 
  "will": 27, 
  "has": 28, 
  "``": 29, 
  "their": 30, 
  "from": 31, 
  "its": 32, 
  "an": 33, 
  "was": 34, 
  "more": 35, 
  "they": 36, 
  "at": 37, 
  "or": 38, 
  "can": 39, 
  "would": 40, 
  "countries": 41, 
  "US": 42, 
  "than": 43, 
  "we": 44, 
  "world": 45, 
  "if": 46, 
  "which": 47, 
  "all": 48, 
  "one": 49, 
  "so": 50, 
  "only": 51, 
  "been": 52, 
  "there": 53, 
  "no": 54, 
  "new": 55, 
  "economic": 56, 
  "should": 57, 
  "Europe": 58, 
  "even": 59, 
  "his": 60, 
  "other": 61, 
  ":": 62, 
  "about": 63, 
  "-RRB-": 64, 
  "-LRB-": 65, 
  "government": 66, 
  "now": 67, 
  "these": 68, 
  "when": 69, 
  "what": 70, 
  "were": 71, 
  "political": 72, 
  "such": 73, 
  "also": 74, 
  "people": 75, 
  "?": 76, 
  "most": 77, 
  "who": 78, 
  "many": 79, 
  "do": 80, 
  "%": 81, 
  "he": 82, 
  "some": 83, 
  "European": 84, 
  "China": 85, 
  "global": 86, 
  "could": 87, 
  "years": 88, 
  "because": 89, 
  "must": 90, 
  "financial": 91, 
  "may": 92, 
  "into": 93, 
  "country": 94, 
  "America": 95, 
  "power": 96, 
  "much": 97, 
  "EU": 98, 
  ";": 99, 
  "Russia": 100, 
  "had": 101, 
  "over": 102, 
  "policy": 103, 
  "them": 104, 
  "time": 105, 
  "growth": 106, 
  "out": 107, 
  "economy": 108, 
  "our": 109, 
  "up": 110, 
  "I": 111, 
  "after": 112, 
  "between": 113, 
  "international": 114, 
  "those": 115, 
  "like": 116, 
  "crisis": 117, 
  "while": 118, 
  "first": 119, 
  "any": 120, 
  "two": 121, 
  "public": 122, 
  "how": 123, 
  "both": 124, 
  "against": 125, 
  "today": 126, 
  "well": 127, 
  "way": 128, 
  "indeed": 129, 
  "market": 130, 
  "year": 131, 
  "too": 132, 
  "system": 133, 
  "make": 134, 
  "less": 135, 
  "state": 136, 
  "need": 137, 
  "war": 138, 
  "American": 139, 
  "change": 140, 
  "does": 141, 
  "just": 142, 
  "markets": 143, 
  "United": 144, 
  "own": 145, 
  "s": 146, 
  "military": 147, 
  "since": 148, 
  "yet": 149, 
  "last": 150, 
  "become": 151, 
  "where": 152, 
  "national": 153, 
  "without": 154, 
  "Iraq": 155, 
  "governments": 156, 
  "far": 157, 
  "did": 158, 
  "long": 159, 
  "still": 160, 
  "support": 161, 
  "President": 162, 
  "being": 163, 
  "re@@": 164, 
  "foreign": 165, 
  "leaders": 166, 
  "then": 167, 
  "same": 168, 
  "n&apos;t": 169, 
  "un@@": 170, 
  "-@@": 171, 
  "trade": 172, 
  "$": 173, 
  "important": 174, 
  "future": 175, 
  "democracy": 176, 
  "real": 177, 
  "prices": 178, 
  "good": 179, 
  "might": 180, 
  "Bush": 181, 
  "social": 182, 
  "right": 183, 
  "Israel": 184, 
  "banks": 185, 
  "policies": 186, 
  "high": 187, 
  "rates": 188, 
  "example": 189, 
  "course": 190, 
  "through": 191, 
  "end": 192, 
  "interest": 193, 
  "debt": 194, 
  "states": 195, 
  "made": 196, 
  "take": 197, 
  "Germany": 198, 
  "nuclear": 199, 
  "recent": 200, 
  "under": 201, 
  "current": 202, 
  "security": 203, 
  "likely": 204, 
  "Iran": 205, 
  "however": 206, 
  "problem": 207, 
  "another": 208, 
  "us": 209, 
  "before": 210, 
  "part": 211, 
  "--": 212, 
  "oil": 213, 
  "Union": 214, 
  "use": 215, 
  "work": 216, 
  "rather": 217, 
  "Japan": 218, 
  "better": 219, 
  "capital": 220, 
  "States": 221, 
  "past": 222, 
  "human": 223, 
  "why": 224, 
  "you": 225, 
  "very": 226, 
  "often": 227, 
  "development": 228, 
  "large": 229, 
  "energy": 230, 
  "money": 231, 
  "risk": 232, 
  "help": 233, 
  "result": 234, 
  "East": 235, 
  "fact": 236, 
  "India": 237, 
  "poor": 238, 
  "problems": 239, 
  "France": 240, 
  "institutions": 241, 
  "little": 242, 
  "fiscal": 243, 
  "during": 244, 
  "means": 245, 
  "thus": 246, 
  "investment": 247, 
  "few": 248, 
  "rate": 249, 
  "major": 250, 
  "billion": 251, 
  "West": 252, 
  "around": 253, 
  "back": 254, 
  "developing": 255, 
  "able": 256, 
  "moreover": 257, 
  "among": 258, 
  "others": 259, 
  "order": 260, 
  "three": 261, 
  "including": 262, 
  "whether": 263, 
  "within": 264, 
  "members": 265, 
  "different": 266, 
  "reform": 267, 
  "down": 268, 
  "central": 269, 
  "led": 270, 
  "process": 271, 
  "already": 272, 
  "Chinese": 273, 
  "tax": 274, 
  "second": 275, 
  "economies": 276, 
  "least": 277, 
  "case": 278, 
  "democratic": 279, 
  "role": 280, 
  "given": 281, 
  "clear": 282, 
  "higher": 283, 
  "itself": 284, 
  "come": 285, 
  "increase": 286, 
  "rights": 287, 
  "ago": 288, 
  "almost": 289, 
  "each": 290, 
  "Bank": 291, 
  "demand": 292, 
  "never": 293, 
  "peace": 294, 
  "needs": 295, 
  "spending": 296, 
  "seems": 297, 
  "price": 298, 
  "law": 299, 
  "perhaps": 300, 
  "needed": 301, 
  "next": 302, 
  "free": 303, 
  "in@@": 304, 
  "history": 305, 
  "see": 306, 
  "IMF": 307, 
  "inflation": 308, 
  "life": 309, 
  "point": 310, 
  "politics": 311, 
  "region": 312, 
  "strong": 313, 
  "every": 314, 
  "remains": 315, 
  "society": 316, 
  "ing": 317, 
  "private": 318, 
  "Obama": 319, 
  "once": 320, 
  "possible": 321, 
  "climate": 322, 
  "great": 323, 
  "themselves": 324, 
  "World": 325, 
  "common": 326, 
  "true": 327, 
  "interests": 328, 
  "control": 329, 
  "say": 330, 
  "GDP": 331, 
  "million": 332, 
  "put": 333, 
  "greater": 334, 
  "force": 335, 
  "French": 336, 
  "off": 337, 
  "go": 338, 
  "best": 339, 
  "administration": 340, 
  "instead": 341, 
  "set": 342, 
  "place": 343, 
  "get": 344, 
  "further": 345, 
  "longer": 346, 
  "Putin": 347, 
  "used": 348, 
  "question": 349, 
  "costs": 350, 
  "currency": 351, 
  "continue": 352, 
  "regime": 353, 
  "remain": 354, 
  "want": 355, 
  "again": 356, 
  "Asia": 357, 
  "despite": 358, 
  "Middle": 359, 
  "difficult": 360, 
  "UN": 361, 
  "member": 362, 
  "domestic": 363, 
  "health": 364, 
  "ed": 365, 
  "dollar": 366, 
  "especially": 367, 
  "Western": 368, 
  "level": 369, 
  "enough": 370, 
  "es": 371, 
  "know": 372, 
  "population": 373, 
  "Russian": 374, 
  "him": 375, 
  "rich": 376, 
  "sense": 377, 
  "number": 378, 
  "believe": 379, 
  "my": 380, 
  "century": 381, 
  "president": 382, 
  "income": 383, 
  "old": 384, 
  "Turkey": 385, 
  "former": 386, 
  "ever": 387, 
  "euro": 388, 
  "growing": 389, 
  "rise": 390, 
  "er": 391, 
  "War": 392, 
  "business": 393, 
  "small": 394, 
  "lead": 395, 
  "elections": 396, 
  "per": 397, 
  "companies": 398, 
  "election": 399, 
  "Americans": 400, 
  "Arab": 401, 
  "serious": 402, 
  "forces": 403, 
  "provide": 404, 
  "stability": 405, 
  "always": 406, 
  "ted": 407, 
  "face": 408, 
  "based": 409, 
  "left": 410, 
  "citizens": 411, 
  "reason": 412, 
  "though": 413, 
  "benefits": 414, 
  "resources": 415, 
  "view": 416, 
  "efforts": 417, 
  "women": 418, 
  "simply": 419, 
  "rule": 420, 
  "decades": 421, 
  "party": 422, 
  "big": 423, 
  "issues": 424, 
  "monetary": 425, 
  "making": 426, 
  "cost": 427, 
  "unemployment": 428, 
  "hard": 429, 
  "issue": 430, 
  "community": 431, 
  "labor": 432, 
  "long-term": 433, 
  "information": 434, 
  "ers": 435, 
  "NATO": 436, 
  "times": 437, 
  "research": 438, 
  "find": 439, 
  "Africa": 440, 
  "reforms": 441, 
  "recently": 442, 
  "terms": 443, 
  "leadership": 444, 
  "key": 445, 
  "Palestinian": 446, 
  "although": 447, 
  "strategy": 448, 
  "parties": 449, 
  "politicians": 450, 
  "exchange": 451, 
  "conflict": 452, 
  "until": 453, 
  "home": 454, 
  "create": 455, 
  "early": 456, 
  "budget": 457, 
  "The": 458, 
  "value": 459, 
  "low": 460, 
  "North": 461, 
  "workers": 462, 
  "reduce": 463, 
  "education": 464, 
  "investors": 465, 
  "bank": 466, 
  "children": 467, 
  "particularly": 468, 
  "turn": 469, 
  "Soviet": 470, 
  "al": 471, 
  "hope": 472, 
  "credit": 473, 
  "risks": 474, 
  "increasingly": 475, 
  "open": 476, 
  "poverty": 477, 
  "Council": 478, 
  "sector": 479, 
  "nor": 480, 
  "seen": 481, 
  "t": 482, 
  "de@@": 483, 
  "emerging": 484, 
  "think": 485, 
  "said": 486, 
  "form": 487, 
  "relations": 488, 
  "run": 489, 
  "pay": 490, 
  "day": 491, 
  "action": 492, 
  "fall": 493, 
  "regional": 494, 
  "done": 495, 
  "ts": 496, 
  "effective": 497, 
  "success": 498, 
  "necessary": 499, 
  "Ukraine": 500, 
  "Korea": 501, 
  "nothing": 502, 
  "ated": 503, 
  "approach": 504, 
  "weapons": 505, 
  "seem": 506, 
  "deficit": 507, 
  "failed": 508, 
  "threat": 509, 
  "ways": 510, 
  "here": 511, 
  "non-@@": 512, 
  "South": 513, 
  "together": 514, 
  "Europeans": 515, 
  "services": 516, 
  "idea": 517, 
  "jobs": 518, 
  "violence": 519, 
  "failure": 520, 
  "whose": 521, 
  "increased": 522, 
  "ate": 523, 
  "decade": 524, 
  "recession": 525, 
  "over@@": 526, 
  "really": 527, 
  "her": 528, 
  "similar": 529, 
  "values": 530, 
  "called": 531, 
  "rules": 532, 
  "share": 533, 
  "lower": 534, 
  "German": 535, 
  "finance": 536, 
  "ting": 537, 
  "something": 538, 
  "deal": 539, 
  "Minister": 540, 
  "makes": 541, 
  "several": 542, 
  "developed": 543, 
  "taken": 544, 
  "changes": 545, 
  "give": 546, 
  "dis@@": 547, 
  "local": 548, 
  "S@@": 549, 
  "lack": 550, 
  "conditions": 551, 
  "rising": 552, 
  "look": 553, 
  "huge": 554, 
  "return": 555, 
  "half": 556, 
  "freedom": 557, 
  "technology": 558, 
  "levels": 559, 
  "cause": 560, 
  "modern": 561, 
  "short": 562, 
  "religious": 563, 
  "powerful": 564, 
  "either": 565, 
  "majority": 566, 
  "position": 567, 
  "bad": 568, 
  "opposition": 569, 
  "e": 570, 
  "away": 571, 
  "potential": 572, 
  "agreement": 573, 
  "challenge": 574, 
  "things": 575, 
  "beyond": 576, 
  "terrorism": 577, 
  "months": 578, 
  "main": 579, 
  "Afghanistan": 580, 
  "became": 581, 
  "bring": 582, 
  "globalization": 583, 
  "start": 584, 
  "across": 585, 
  "keep": 586, 
  "probably": 587, 
  "fear": 588, 
  "debate": 589, 
  "groups": 590, 
  "nations": 591, 
  "requires": 592, 
  "matter": 593, 
  "lost": 594, 
  "influence": 595, 
  "aid": 596, 
  "Britain": 597, 
  "age": 598, 
  "balance": 599, 
  "consequences": 600, 
  "food": 601, 
  "Hamas": 602, 
  "systems": 603, 
  "firms": 604, 
  "water": 605, 
  "rest": 606, 
  "Commission": 607, 
  "program": 608, 
  "measures": 609, 
  "found": 610, 
  "doing": 611, 
  "assets": 612, 
  "toward": 613, 
  "wrong": 614, 
  "British": 615, 
  "progress": 616, 
  "alone": 617, 
  "prevent": 618, 
  "let": 619, 
  "according": 620, 
  "response": 621, 
  "young": 622, 
  "emissions": 623, 
  "later": 624, 
  "20": 625, 
  "worse": 626, 
  "play": 627, 
  "situation": 628, 
  "live": 629, 
  "man": 630, 
  "act": 631, 
  "leading": 632, 
  "group": 633, 
  "Party": 634, 
  "ating": 635, 
  "strategic": 636, 
  "massive": 637, 
  "side": 638, 
  "created": 639, 
  "Central": 640, 
  "pressure": 641, 
  "consider": 642, 
  "move": 643, 
  "science": 644, 
  "late": 645, 
  "officials": 646, 
  "stock": 647, 
  "civil": 648, 
  "began": 649, 
  "individual": 650, 
  "having": 651, 
  "deficits": 652, 
  "hand": 653, 
  "moral": 654, 
  "eurozone": 655, 
  "wealth": 656, 
  "finally": 657, 
  "decline": 658, 
  "Muslim": 659, 
  "soon": 660, 
  "@/@": 661, 
  "mean": 662, 
  "ECB": 663, 
  "Israeli": 664, 
  "challenges": 665, 
  "fundamental": 666, 
  "clearly": 667, 
  "behind": 668, 
  "solution": 669, 
  "ability": 670, 
  "integration": 671, 
  "&amp;": 672, 
  "s@@": 673, 
  "production": 674, 
  "model": 675, 
  "increasing": 676, 
  "natural": 677, 
  "full": 678, 
  "lives": 679, 
  "third": 680, 
  "effect": 681, 
  "areas": 682, 
  "five": 683, 
  "1990": 684, 
  "confidence": 685, 
  "single": 686, 
  "T@@": 687, 
  "leader": 688, 
  "successful": 689, 
  "vote": 690, 
  "everyone": 691, 
  "living": 692, 
  "term": 693, 
  "en@@": 694, 
  "average": 695, 
  "decision": 696, 
  "ensure": 697, 
  "funds": 698, 
  "job": 699, 
  "legal": 700, 
  "came": 701, 
  "collapse": 702, 
  "10": 703, 
  "competition": 704, 
  "me": 705, 
  "effort": 706, 
  "understand": 707, 
  "negotiations": 708, 
  "A@@": 709, 
  "taxes": 710, 
  "access": 711, 
  "Palestinians": 712, 
  "corruption": 713, 
  "close": 714, 
  "impact": 715, 
  "opportunity": 716, 
  "c@@": 717, 
  "employment": 718, 
  "media": 719, 
  "banking": 720, 
  "four": 721, 
  "period": 722, 
  "effects": 723, 
  "require": 724, 
  "took": 725, 
  "particular": 726, 
  "evidence": 727, 
  "taking": 728, 
  "Italy": 729, 
  "cooperation": 730, 
  "traditional": 731, 
  "popular": 732, 
  "g@@": 733, 
  "significant": 734, 
  "cut": 735, 
  "comes": 736, 
  "Pakistan": 737, 
  "basic": 738, 
  "defense": 739, 
  "achieve": 740, 
  "sh@@": 741, 
  "avoid": 742, 
  "P@@": 743, 
  "using": 744, 
  "Prime": 745, 
  "warming": 746, 
  "goods": 747, 
  "step": 748, 
  "total": 749, 
  "limited": 750, 
  "reasons": 751, 
  "culture": 752, 
  "sure": 753, 
  "focus": 754, 
  "Security": 755, 
  "kind": 756, 
  "coming": 757, 
  "attacks": 758, 
  "show": 759, 
  "thought": 760, 
  "responsibility": 761, 
  "exports": 762, 
  "men": 763, 
  "experience": 764, 
  "Islamic": 765, 
  "powers": 766, 
  "death": 767, 
  "a@@": 768, 
  "working": 769, 
  "care": 770, 
  "call": 771, 
  "brought": 772, 
  "advanced": 773, 
  "standards": 774, 
  "programs": 775, 
  "minister": 776, 
  "thing": 777, 
  "reality": 778, 
  "recovery": 779, 
  "con@@": 780, 
  "era": 781, 
  "towards": 782, 
  "New": 783, 
  "campaign": 784, 
  "decisions": 785, 
  "im@@": 786, 
  "expected": 787, 
  "Fund": 788, 
  "Japanese": 789, 
  "liberal": 790, 
  "i": 791, 
  "alternative": 792, 
  "independent": 793, 
  "contrast": 794, 
  "allow": 795, 
  "actually": 796, 
  "capacity": 797, 
  "presidential": 798, 
  "largely": 799, 
  "M@@": 800, 
  "consumption": 801, 
  "re-@@": 802, 
  "stop": 803, 
  "attention": 804, 
  "C@@": 805, 
  "official": 806, 
  "held": 807, 
  "she": 808, 
  "productivity": 809, 
  "e@@": 810, 
  "behavior": 811, 
  "ten": 812, 
  "line": 813, 
  "accept": 814, 
  "50": 815, 
  "gas": 816, 
  "1": 817, 
  "scientific": 818, 
  "land": 819, 
  "answer": 820, 
  "supply": 821, 
  "certain": 822, 
  "revolution": 823, 
  "concerns": 824, 
  "outside": 825, 
  "neither": 826, 
  "ation": 827, 
  "independence": 828, 
  "benefit": 829, 
  "de": 830, 
  "hold": 831, 
  "above": 832, 
  "building": 833, 
  "economists": 834, 
  "produce": 835, 
  "industrial": 836, 
  "International": 837, 
  "cultural": 838, 
  "2008": 839, 
  "tion": 840, 
  "Poland": 841, 
  "fight": 842, 
  "cases": 843, 
  "easy": 844, 
  "nation": 845, 
  "voters": 846, 
  "status": 847, 
  "membership": 848, 
  "Egypt": 849, 
  "due": 850, 
  "unfortunately": 851, 
  "cuts": 852, 
  "plan": 853, 
  "th": 854, 
  "words": 855, 
  "anti-@@": 856, 
  "Latin": 857, 
  "following": 858, 
  "Asian": 859, 
  "f@@": 860, 
  "societies": 861, 
  "helped": 862, 
  "elsewhere": 863, 
  "protect": 864, 
  "p@@": 865, 
  "sometimes": 866, 
  "R@@": 867, 
  "weak": 868, 
  "k": 869, 
  "self-@@": 870, 
  "Greece": 871, 
  "certainly": 872, 
  "y": 873, 
  "results": 874, 
  "agenda": 875, 
  "merely": 876, 
  "B@@": 877, 
  "top": 878, 
  "appears": 879, 
  "Kosovo": 880, 
  "going": 881, 
  "throughout": 882, 
  "whole": 883, 
  "direct": 884, 
  "Mexico": 885, 
  "insurance": 886, 
  "stimulus": 887, 
  "nature": 888, 
  "goal": 889, 
  "ra@@": 890, 
  "intervention": 891, 
  "governance": 892, 
  "moment": 893, 
  "claim": 894, 
  "George": 895, 
  "relatively": 896, 
  "crises": 897, 
  "y@@": 898, 
  "investments": 899, 
  "H@@": 900, 
  "creating": 901, 
  "simple": 902, 
  "therefore": 903, 
  "allowed": 904, 
  "beginning": 905, 
  "environmental": 906, 
  "thinking": 907, 
  "largest": 908, 
  "Gaza": 909, 
  "environment": 910, 
  "Islam": 911, 
  "highly": 912, 
  "dangerous": 913, 
  "dollars": 914, 
  "days": 915, 
  "d": 916, 
  "unlikely": 917, 
  "September": 918, 
  "2001": 919, 
  "carbon": 920, 
  "address": 921, 
  "millions": 922, 
  "mass": 923, 
  "argue": 924, 
  "followed": 925, 
  "turned": 926, 
  "knowledge": 927, 
  "Nations": 928, 
  "offer": 929, 
  "general": 930, 
  "Sarkozy": 931, 
  "industry": 932, 
  "economics": 933, 
  "30": 934, 
  "an@@": 935, 
  "events": 936, 
  "known": 937, 
  "rapid": 938, 
  "questions": 939, 
  "F@@": 940, 
  "parts": 941, 
  "try": 942, 
  "Treaty": 943, 
  "build": 944, 
  "attack": 945, 
  "D@@": 946, 
  "annual": 947, 
  "your": 948, 
  "feel": 949, 
  "Lebanon": 950, 
  "meeting": 951, 
  "E@@": 952, 
  "2": 953, 
  "maintain": 954, 
  "deep": 955, 
  "provided": 956, 
  "movement": 957, 
  "o": 958, 
  "commitment": 959, 
  "terrorist": 960, 
  "Georgia": 961, 
  "t@@": 962, 
  "wants": 963, 
  "forced": 964, 
  "fully": 965, 
  "infrastructure": 966, 
  "eventually": 967, 
  "chance": 968, 
  "ideas": 969, 
  "ic": 970, 
  "technologies": 971, 
  "bonds": 972, 
  "Syria": 973, 
  "respect": 974, 
  "Great": 975, 
  "anything": 976, 
  "quickly": 977, 
  "regions": 978, 
  "assistance": 979, 
  "ded": 980, 
  "ally": 981, 
  "Eastern": 982, 
  "established": 983, 
  "w@@": 984, 
  "basis": 985, 
  "individuals": 986, 
  "entire": 987, 
  "increases": 988, 
  "relative": 989, 
  "becoming": 990, 
  "area": 991, 
  "organizations": 992, 
  "nearly": 993, 
  "differences": 994, 
  "begin": 995, 
  "co@@": 996, 
  "elected": 997, 
  "management": 998, 
  "larger": 999, 
  "capitalism": 1000, 
  "news": 1001, 
  "report": 1002, 
  "di@@": 1003, 
  "G@@": 1004, 
  "Brazil": 1005, 
  "outcome": 1006, 
  "Spain": 1007, 
  "similarly": 1008, 
  "laws": 1009, 
  "d@@": 1010, 
  "impossible": 1011, 
  "be@@": 1012, 
  "b@@": 1013, 
  "historical": 1014, 
  "th@@": 1015, 
  "al@@": 1016, 
  "meet": 1017, 
  "internal": 1018, 
  "regulation": 1019, 
  "reserves": 1020, 
  "required": 1021, 
  "include": 1022, 
  "trying": 1023, 
  "happened": 1024, 
  "London": 1025, 
  "consensus": 1026, 
  "fail": 1027, 
  "welfare": 1028, 
  "currently": 1029, 
  "family": 1030, 
  "&apos;": 1031, 
  "policymakers": 1032, 
  "changed": 1033, 
  "personal": 1034, 
  "legitimacy": 1035, 
  "generation": 1036, 
  "choice": 1037, 
  "recognize": 1038, 
  "principle": 1039, 
  "reducing": 1040, 
  "obvious": 1041, 
  "Argentina": 1042, 
  "Saudi": 1043, 
  "corporate": 1044, 
  "easily": 1045, 
  "account": 1046, 
  "ant": 1047, 
  "grow": 1048, 
  "reach": 1049, 
  "actions": 1050, 
  "Muslims": 1051, 
  "ous": 1052, 
  "er@@": 1053, 
  "mis@@": 1054, 
  "housing": 1055, 
  "la@@": 1056, 
  "ly": 1057, 
  "forward": 1058, 
  "along": 1059, 
  "doubt": 1060, 
  "authorities": 1061, 
  "incentives": 1062, 
  "concern": 1063, 
  "available": 1064, 
  "month": 1065, 
  "tions": 1066, 
  "essential": 1067, 
  "caused": 1068, 
  "theory": 1069, 
  "critical": 1070, 
  "authority": 1071, 
  "opinion": 1072, 
  "3": 1073, 
  "st": 1074, 
  "m@@": 1075, 
  "L@@": 1076, 
  "II": 1077, 
  "wars": 1078, 
  "relationship": 1079, 
  "loss": 1080, 
  "Cold": 1081, 
  "am": 1082, 
  "K@@": 1083, 
  "office": 1084, 
  "performance": 1085, 
  "Iraqi": 1086, 
  "le@@": 1087, 
  "justice": 1088, 
  "upon": 1089, 
  "ethnic": 1090, 
  "victory": 1091, 
  "army": 1092, 
  "source": 1093, 
  "damage": 1094, 
  "positive": 1095, 
  "institutional": 1096, 
  "coalition": 1097, 
  "truth": 1098, 
  "Washington": 1099, 
  "boom": 1100, 
  "willing": 1101, 
  "i@@": 1102, 
  "troops": 1103, 
  "2000": 1104, 
  "1980": 1105, 
  "ism": 1106, 
  "seek": 1107, 
  "happen": 1108, 
  "soft": 1109, 
  "prosperity": 1110, 
  "politically": 1111, 
  "understanding": 1112, 
  "press": 1113, 
  "save": 1114, 
  "improve": 1115, 
  "seemed": 1116, 
  "follow": 1117, 
  "vision": 1118, 
  "company": 1119, 
  "prime": 1120, 
  "spread": 1121, 
  "disease": 1122, 
  "roughly": 1123, 
  "protection": 1124, 
  "lose": 1125, 
  "11": 1126, 
  "o@@": 1127, 
  "products": 1128, 
  "so-called": 1129, 
  "paid": 1130, 
  "matters": 1131, 
  "sides": 1132, 
  "committed": 1133, 
  "scale": 1134, 
  "police": 1135, 
  "25": 1136, 
  "ch@@": 1137, 
  "external": 1138, 
  "develop": 1139, 
  "claims": 1140, 
  "allies": 1141, 
  "N@@": 1142, 
  "ahead": 1143, 
  "unless": 1144, 
  "structural": 1145, 
  "continued": 1146, 
  "head": 1147, 
  "African": 1148, 
  "O@@": 1149, 
  "sustainable": 1150, 
  "reduced": 1151, 
  "complex": 1152, 
  "ultimately": 1153, 
  "2004": 1154, 
  "talks": 1155, 
  "tried": 1156, 
  "shift": 1157, 
  "suggests": 1158, 
  "les": 1159, 
  "promote": 1160, 
  "contrary": 1161, 
  "gain": 1162, 
  "creation": 1163, 
  "sanctions": 1164, 
  "special": 1165, 
  "40": 1166, 
  "transition": 1167, 
  "asset": 1168, 
  "opportunities": 1169, 
  "ties": 1170, 
  "raise": 1171, 
  "Saddam": 1172, 
  "le": 1173, 
  "lending": 1174, 
  "at@@": 1175, 
  "himself": 1176, 
  "appear": 1177, 
  "amount": 1178, 
  "expect": 1179, 
  "everything": 1180, 
  "vast": 1181, 
  "size": 1182, 
  "usually": 1183, 
  "5": 1184, 
  "constitution": 1185, 
  "core": 1186, 
  "demands": 1187, 
  "losses": 1188, 
  "2007": 1189, 
  "whatever": 1190, 
  "u@@": 1191, 
  "out@@": 1192, 
  "steps": 1193, 
  "worldwide": 1194, 
  "under@@": 1195, 
  "drug": 1196, 
  "ans": 1197, 
  "output": 1198, 
  "proposed": 1199, 
  "story": 1200, 
  "presidency": 1201, 
  "continues": 1202, 
  "facing": 1203, 
  "difference": 1204, 
  "ding": 1205, 
  "liquidity": 1206, 
  "started": 1207, 
  "anyone": 1208, 
  "attempt": 1209, 
  "15": 1210, 
  "path": 1211, 
  "Iranian": 1212, 
  "leave": 1213, 
  "Internet": 1214, 
  "stable": 1215, 
  "importance": 1216, 
  "2005": 1217, 
  "radical": 1218, 
  "enormous": 1219, 
  "ac@@": 1220, 
  "summit": 1221, 
  "direction": 1222, 
  "limits": 1223, 
  "scientists": 1224, 
  "!": 1225, 
  "loans": 1226, 
  "present": 1227, 
  "Congress": 1228, 
  "responsible": 1229, 
  "ground": 1230, 
  "person": 1231, 
  "k@@": 1232, 
  "framework": 1233, 
  "asked": 1234, 
  "Fed": 1235, 
  "Blair": 1236, 
  "savings": 1237, 
  "extreme": 1238, 
  "agree": 1239, 
  "inter@@": 1240, 
  "2009": 1241, 
  "li@@": 1242, 
  "argument": 1243, 
  "democracies": 1244, 
  "ar@@": 1245, 
  "m": 1246, 
  "ti@@": 1247, 
  "buy": 1248, 
  "immediate": 1249, 
  "task": 1250, 
  "factors": 1251, 
  "negative": 1252, 
  "none": 1253, 
  "achieved": 1254, 
  "net": 1255, 
  "treatment": 1256, 
  "principles": 1257, 
  "additional": 1258, 
  "test": 1259, 
  "spend": 1260, 
  "talk": 1261, 
  "suggest": 1262, 
  "six": 1263, 
  "shows": 1264, 
  "otherwise": 1265, 
  "trust": 1266, 
  "stronger": 1267, 
  "red": 1268, 
  "short-term": 1269, 
  "class": 1270, 
  "inequality": 1271, 
  "abroad": 1272, 
  "lot": 1273, 
  "goes": 1274, 
  "agreed": 1275, 
  "standard": 1276, 
  "union": 1277, 
  "parliament": 1278, 
  "struggle": 1279, 
  "provides": 1280, 
  "went": 1281, 
  "ne@@": 1282, 
  "exist": 1283, 
  "terrorists": 1284, 
  "goals": 1285, 
  "aimed": 1286, 
  "severe": 1287, 
  "cities": 1288, 
  "unlike": 1289, 
  "neighbors": 1290, 
  "providing": 1291, 
  "export": 1292, 
  "quality": 1293, 
  "slow": 1294, 
  "else": 1295, 
  "supported": 1296, 
  "competitive": 1297, 
  "borders": 1298, 
  "effectively": 1299, 
  "existing": 1300, 
  "ent": 1301, 
  "l@@": 1302, 
  "als": 1303, 
  "Secretary": 1304, 
  "center": 1305, 
  "rapidly": 1306, 
  "produced": 1307, 
  "favor": 1308, 
  "vital": 1309, 
  "directly": 1310, 
  "saving": 1311, 
  "#": 1312, 
  "ro@@": 1313, 
  "ates": 1314, 
  "compared": 1315, 
  "spent": 1316, 
  "various": 1317, 
  "ask": 1318, 
  "se": 1319, 
  "enlargement": 1320, 
  "views": 1321, 
  "ordinary": 1322, 
  "W.": 1323, 
  "ma@@": 1324, 
  "name": 1325, 
  "takes": 1326, 
  "Kremlin": 1327, 
  "reached": 1328, 
  "won": 1329, 
  "fighting": 1330, 
  "becomes": 1331, 
  "ling": 1332, 
  "as@@": 1333, 
  "crimes": 1334, 
  "Serbia": 1335, 
  "body": 1336, 
  "stand": 1337, 
  "space": 1338, 
  "mostly": 1339, 
  "win": 1340, 
  "calls": 1341, 
  "trillion": 1342, 
  "project": 1343, 
  "shown": 1344, 
  "ar": 1345, 
  "Federal": 1346, 
  "ab@@": 1347, 
  "it@@": 1348, 
  "Barack": 1349, 
  "W@@": 1350, 
  "fair": 1351, 
  "thousands": 1352, 
  "reduction": 1353, 
  "Ireland": 1354, 
  "boost": 1355, 
  "collective": 1356, 
  "everywhere": 1357, 
  "danger": 1358, 
  "General": 1359, 
  "constitutional": 1360, 
  "service": 1361, 
  "tes": 1362, 
  "supposed": 1363, 
  "designed": 1364, 
  "pre@@": 1365, 
  "widely": 1366, 
  "John": 1367, 
  "subsidies": 1368, 
  "extent": 1369, 
  "round": 1370, 
  "victims": 1371, 
  "giving": 1372, 
  "crucial": 1373, 
  "ical": 1374, 
  "game": 1375, 
  "wages": 1376, 
  "g": 1377, 
  "data": 1378, 
  "competitiveness": 1379, 
  "ine": 1380, 
  "Moscow": 1381, 
  "owing": 1382, 
  "financing": 1383, 
  "en": 1384, 
  "gra@@": 1385, 
  "diplomatic": 1386, 
  "permanent": 1387, 
  "ri@@": 1388, 
  "parliamentary": 1389, 
  "arms": 1390, 
  "conflicts": 1391, 
  "am@@": 1392, 
  "serve": 1393, 
  "addition": 1394, 
  "ad@@": 1395, 
  "join": 1396, 
  "earlier": 1397, 
  "built": 1398, 
  "shared": 1399, 
  "drugs": 1400, 
  "hundreds": 1401, 
  "candidate": 1402, 
  "language": 1403, 
  "involved": 1404, 
  "burden": 1405, 
  "ings": 1406, 
  "establish": 1407, 
  "forms": 1408, 
  "expectations": 1409, 
  "ter": 1410, 
  "Indian": 1411, 
  "poorest": 1412, 
  "overall": 1413, 
  "biggest": 1414, 
  "sovereignty": 1415, 
  "falling": 1416, 
  "afford": 1417, 
  "Clinton": 1418, 
  "expansion": 1419, 
  "destruction": 1420, 
  "near": 1421, 
  "advantage": 1422, 
  "normal": 1423, 
  "currencies": 1424, 
  "sovereign": 1425, 
  "tend": 1426, 
  "gave": 1427, 
  "efficient": 1428, 
  "widespread": 1429, 
  "target": 1430, 
  "2006": 1431, 
  "consumers": 1432, 
  "worked": 1433, 
  "below": 1434, 
  "prove": 1435, 
  "whereas": 1436, 
  "hit": 1437, 
  "60": 1438, 
  "Republic": 1439, 
  "gains": 1440, 
  "businesses": 1441, 
  "told": 1442, 
  "plans": 1443, 
  "type": 1444, 
  "2010": 1445, 
  "intellectual": 1446, 
  "activities": 1447, 
  "excessive": 1448, 
  "substantial": 1449, 
  "wage": 1450, 
  "safe": 1451, 
  "suffering": 1452, 
  "record": 1453, 
  "bubble": 1454, 
  "ge": 1455, 
  "saw": 1456, 
  "Communist": 1457, 
  "argued": 1458, 
  "causes": 1459, 
  "circumstances": 1460, 
  "sources": 1461, 
  "study": 1462, 
  "safety": 1463, 
  "structure": 1464, 
  "mainly": 1465, 
  "identity": 1466, 
  "equal": 1467, 
  "disaster": 1468, 
  "st@@": 1469, 
  "sp@@": 1470, 
  "lies": 1471, 
  "encourage": 1472, 
  "tive": 1473, 
  "violent": 1474, 
  "practice": 1475, 
  "getting": 1476, 
  "threats": 1477, 
  "worst": 1478, 
  "secure": 1479, 
  "regimes": 1480, 
  "middle": 1481, 
  "macroeconomic": 1482, 
  "treaty": 1483, 
  "innovation": 1484, 
  "communities": 1485, 
  "previous": 1486, 
  "imbalances": 1487, 
  "4": 1488, 
  "6": 1489, 
  "100": 1490, 
  "meanwhile": 1491, 
  "Russians": 1492, 
  "se@@": 1493, 
  "December": 1494, 
  "adopted": 1495, 
  "alliance": 1496, 
  "post-@@": 1497, 
  "YORK": 1498, 
  "points": 1499, 
  "week": 1500, 
  "book": 1501, 
  "mind": 1502, 
  "ons": 1503, 
  "vulnerable": 1504, 
  "regulatory": 1505, 
  "G-20": 1506, 
  "communism": 1507, 
  "electoral": 1508, 
  "concerned": 1509, 
  "related": 1510, 
  "fell": 1511, 
  "factor": 1512, 
  "priority": 1513, 
  "ations": 1514, 
  "solidarity": 1515, 
  "sought": 1516, 
  "quite": 1517, 
  "seriously": 1518, 
  "Hezbollah": 1519, 
  "nowadays": 1520, 
  "ones": 1521, 
  "up@@": 1522, 
  "promises": 1523, 
  "reflect": 1524, 
  "reflects": 1525, 
  "households": 1526, 
  "ment": 1527, 
  "depends": 1528, 
  "farmers": 1529, 
  "faced": 1530, 
  "diplomacy": 1531, 
  "1970": 1532, 
  "nationalism": 1533, 
  "specific": 1534, 
  "lesson": 1535, 
  "worth": 1536, 
  "running": 1537, 
  "religion": 1538, 
  "fears": 1539, 
  "thereby": 1540, 
  "gap": 1541, 
  "strengthen": 1542, 
  "rhetoric": 1543, 
  "armed": 1544, 
  "solutions": 1545, 
  "absence": 1546, 
  "seeking": 1547, 
  "managed": 1548, 
  "National": 1549, 
  "hands": 1550, 
  "or@@": 1551, 
  "belief": 1552, 
  "organization": 1553, 
  "faces": 1554, 
  "affairs": 1555, 
  "king": 1556, 
  "knows": 1557, 
  "places": 1558, 
  "sufficient": 1559, 
  "whom": 1560, 
  "expensive": 1561, 
  "city": 1562, 
  "movements": 1563, 
  "der": 1564, 
  "nevertheless": 1565, 
  "ists": 1566, 
  "participation": 1567, 
  "h@@": 1568, 
  "partly": 1569, 
  "promise": 1570, 
  "profits": 1571, 
  "property": 1572, 
  "zed": 1573, 
  "learned": 1574, 
  "Israelis": 1575, 
  "blame": 1576, 
  "al-@@": 1577, 
  "weeks": 1578, 
  "hardly": 1579, 
  "focused": 1580, 
  "ity": 1581, 
  "prospects": 1582, 
  "improved": 1583, 
  "recognized": 1584, 
  "ors": 1585, 
  "initiative": 1586, 
  "border": 1587, 
  "trading": 1588, 
  "fuel": 1589, 
  "closer": 1590, 
  "activity": 1591, 
  "agencies": 1592, 
  "flows": 1593, 
  "candidates": 1594, 
  "intelligence": 1595, 
  "light": 1596, 
  "on@@": 1597, 
  "learn": 1598, 
  "looks": 1599, 
  "sign": 1600, 
  "push": 1601, 
  "road": 1602, 
  "remained": 1603, 
  "smaller": 1604, 
  "bo@@": 1605, 
  "sound": 1606, 
  "instability": 1607, 
  "ch": 1608, 
  "per@@": 1609, 
  "ap@@": 1610, 
  "school": 1611, 
  "imposed": 1612, 
  "surplus": 1613, 
  "he@@": 1614, 
  "helping": 1615, 
  "default": 1616, 
  "limit": 1617, 
  "option": 1618, 
  "prospect": 1619, 
  "impose": 1620, 
  "wanted": 1621, 
  "invest": 1622, 
  "well-@@": 1623, 
  "manage": 1624, 
  "precisely": 1625, 
  "targets": 1626, 
  "possibility": 1627, 
  "considered": 1628, 
  "appropriate": 1629, 
  "driven": 1630, 
  "peaceful": 1631, 
  "received": 1632, 
  "faster": 1633, 
  "9": 1634, 
  "looking": 1635, 
  "liberalization": 1636, 
  "greatest": 1637, 
  "Copenhagen": 1638, 
  "explain": 1639, 
  "ve": 1640, 
  "fast": 1641, 
  "commercial": 1642, 
  "ir@@": 1643, 
  "played": 1644, 
  "inevitable": 1645, 
  "payments": 1646, 
  "message": 1647, 
  "Korean": 1648, 
  "models": 1649, 
  "j@@": 1650, 
  "lines": 1651, 
  "generally": 1652, 
  "moderate": 1653, 
  "speech": 1654, 
  "prepared": 1655, 
  "immigration": 1656, 
  "range": 1657, 
  "deeply": 1658, 
  "students": 1659, 
  "Treasury": 1660, 
  "positions": 1661, 
  "accepted": 1662, 
  "credibility": 1663, 
  "cutting": 1664, 
  "medical": 1665, 
  "house": 1666, 
  "proposal": 1667, 
  "respond": 1668, 
  "2003": 1669, 
  "believed": 1670, 
  "si@@": 1671, 
  "court": 1672, 
  "November": 1673, 
  "Y@@": 1674, 
  "accounts": 1675, 
  "crime": 1676, 
  "unable": 1677, 
  "v@@": 1678, 
  "45": 1679, 
  "ready": 1680, 
  "Greek": 1681, 
  "combined": 1682, 
  "Court": 1683, 
  "ruling": 1684, 
  "meant": 1685, 
  "strength": 1686, 
  "equally": 1687, 
  "context": 1688, 
  "8": 1689, 
  "revenues": 1690, 
  "ze": 1691, 
  "ended": 1692, 
  "Arabia": 1693, 
  "agricultural": 1694, 
  "final": 1695, 
  "I@@": 1696, 
  "operations": 1697, 
  "holding": 1698, 
  "efficiency": 1699, 
  "killed": 1700, 
  "Monetary": 1701, 
  "sub@@": 1702, 
  "Reserve": 1703, 
  "promised": 1704, 
  "conservative": 1705, 
  "works": 1706, 
  "mo@@": 1707, 
  "raised": 1708, 
  "ca": 1709, 
  "May": 1710, 
  "heart": 1711, 
  "sectors": 1712, 
  "stage": 1713, 
  "decided": 1714, 
  "ex@@": 1715, 
  "active": 1716, 
  "wo": 1717, 
  "sort": 1718, 
  "malaria": 1719, 
  "air": 1720, 
  "technological": 1721, 
  "depend": 1722, 
  "gone": 1723, 
  "imports": 1724, 
  "subject": 1725, 
  "lo@@": 1726, 
  "communist": 1727, 
  "met": 1728, 
  "res": 1729, 
  "divided": 1730, 
  "moving": 1731, 
  "occupation": 1732, 
  "ically": 1733, 
  "equity": 1734, 
  "terror": 1735, 
  "2@@": 1736, 
  "J@@": 1737, 
  "projects": 1738, 
  "changing": 1739, 
  "sh": 1740, 
  "importantly": 1741, 
  "likewise": 1742, 
  "declared": 1743, 
  "universal": 1744, 
  "Turkish": 1745, 
  "truly": 1746, 
  "for@@": 1747, 
  "V@@": 1748, 
  "high-@@": 1749, 
  "transparency": 1750, 
  "sell": 1751, 
  "ic@@": 1752, 
  "bankers": 1753, 
  "compromise": 1754, 
  "numbers": 1755, 
  "incomes": 1756, 
  "degree": 1757, 
  "te": 1758, 
  "defeat": 1759, 
  "Parliament": 1760, 
  "partners": 1761, 
  "sharp": 1762, 
  "consumer": 1763, 
  "worry": 1764, 
  "unity": 1765, 
  "sharply": 1766, 
  "elite": 1767, 
  "borrowing": 1768, 
  "Wall": 1769, 
  "demonstrated": 1770, 
  "1989": 1771, 
  "guarantee": 1772, 
  "resolution": 1773, 
  "measure": 1774, 
  "child": 1775, 
  "break": 1776, 
  "construction": 1777, 
  "broad": 1778, 
  "capita": 1779, 
  "over-@@": 1780, 
  "ministers": 1781, 
  "lessons": 1782, 
  "1999": 1783, 
  "authoritarian": 1784, 
  "ls": 1785, 
  "continuing": 1786, 
  "po@@": 1787, 
  "resistance": 1788, 
  "opening": 1789, 
  "families": 1790, 
  "associated": 1791, 
  "UK": 1792, 
  "virtually": 1793, 
  "federal": 1794, 
  "resulting": 1795, 
  "no@@": 1796, 
  "understood": 1797, 
  "trend": 1798, 
  "mistake": 1799, 
  "desire": 1800, 
  "pro@@": 1801, 
  "temporary": 1802, 
  "raising": 1803, 
  "regard": 1804, 
  "legitimate": 1805, 
  "style": 1806, 
  "decide": 1807, 
  "civilian": 1808, 
  "entirely": 1809, 
  "contribute": 1810, 
  "ru@@": 1811, 
  "funding": 1812, 
  "implement": 1813, 
  "unions": 1814, 
  "3@@": 1815, 
  "speak": 1816, 
  "schools": 1817, 
  "em@@": 1818, 
  "options": 1819, 
  "alized": 1820, 
  "des": 1821, 
  "presence": 1822, 
  "dialogue": 1823, 
  "succeed": 1824, 
  "rely": 1825, 
  "occur": 1826, 
  "ence": 1827, 
  "ha@@": 1828, 
  "uncertainty": 1829, 
  "debts": 1830, 
  "ary": 1831, 
  "promoting": 1832, 
  "ness": 1833, 
  "CO2": 1834, 
  "Al": 1835, 
  "har@@": 1836, 
  "Kingdom": 1837, 
  "2002": 1838, 
  "surprise": 1839, 
  "bear": 1840, 
  "Cambridge": 1841, 
  "Development": 1842, 
  "March": 1843, 
  "op@@": 1844, 
  "York": 1845, 
  "Dutch": 1846, 
  "State": 1847, 
  "restore": 1848, 
  "soldiers": 1849, 
  "experts": 1850, 
  ".@@": 1851, 
  "determined": 1852, 
  "list": 1853, 
  "Palestine": 1854, 
  "sustained": 1855, 
  "ec@@": 1856, 
  "obviously": 1857, 
  "trouble": 1858, 
  "easier": 1859, 
  "primary": 1860, 
  "born": 1861, 
  "studies": 1862, 
  "aim": 1863, 
  "significantly": 1864, 
  "industries": 1865, 
  "A": 1866, 
  "na@@": 1867, 
  "base": 1868, 
  "rulers": 1869, 
  "faith": 1870, 
  "dramatic": 1871, 
  "ca@@": 1872, 
  "populations": 1873, 
  "represent": 1874, 
  "scenario": 1875, 
  "starting": 1876, 
  "7": 1877, 
  "race": 1878, 
  "says": 1879, 
  "tic": 1880, 
  "ideological": 1881, 
  "du@@": 1882, 
  "solve": 1883, 
  "ou@@": 1884, 
  "defined": 1885, 
  "Berlin": 1886, 
  "fund": 1887, 
  "imagine": 1888, 
  "te@@": 1889, 
  "flow": 1890, 
  "announced": 1891, 
  "viewed": 1892, 
  "June": 1893, 
  "immediately": 1894, 
  "friends": 1895, 
  "immigrants": 1896, 
  "offers": 1897, 
  "securities": 1898, 
  "yes": 1899, 
  "bringing": 1900, 
  "structures": 1901, 
  "protests": 1902, 
  "patients": 1903, 
  "strategies": 1904, 
  "supplies": 1905, 
  "rural": 1906, 
  "gold": 1907, 
  "ously": 1908, 
  "emerged": 1909, 
  "trial": 1910, 
  "occurred": 1911, 
  "team": 1912, 
  "choose": 1913, 
  "zation": 1914, 
  "eight": 1915, 
  "minority": 1916, 
  "bu@@": 1917, 
  "ves": 1918, 
  "nationalist": 1919, 
  "ds": 1920, 
  "choices": 1921, 
  "mon@@": 1922, 
  "attempts": 1923, 
  "secular": 1924, 
  "unique": 1925, 
  "surely": 1926, 
  "ses": 1927, 
  "universities": 1928, 
  "battle": 1929, 
  "fa@@": 1930, 
  "ering": 1931, 
  "latest": 1932, 
  "tra@@": 1933, 
  "multilateral": 1934, 
  "controls": 1935, 
  "word": 1936, 
  "broader": 1937, 
  "relief": 1938, 
  "Democrats": 1939, 
  "AIDS": 1940, 
  "pursue": 1941, 
  "survive": 1942, 
  "agreements": 1943, 
  "Indonesia": 1944, 
  "double": 1945, 
  "invasion": 1946, 
  "Nobel": 1947, 
  "product": 1948, 
  "deeper": 1949, 
  "chief": 1950, 
  "firm": 1951, 
  "implies": 1952, 
  "Euro": 1953, 
  "possibly": 1954, 
  "losing": 1955, 
  "n@@": 1956, 
  "Jewish": 1957, 
  "Vladimir": 1958, 
  "January": 1959, 
  "mere": 1960, 
  "leaving": 1961, 
  "qu@@": 1962, 
  "drive": 1963, 
  "field": 1964, 
  "ks": 1965, 
  "paying": 1966, 
  "lu@@": 1967, 
  "proved": 1968, 
  "ently": 1969, 
  "institution": 1970, 
  "suffer": 1971, 
  "leads": 1972, 
  "tensions": 1973, 
  "tradition": 1974, 
  "concept": 1975, 
  "offered": 1976, 
  "visit": 1977, 
  "establishment": 1978, 
  "underlying": 1979, 
  "acts": 1980, 
  "room": 1981, 
  "accession": 1982, 
  "n": 1983, 
  "realize": 1984, 
  "Kyoto": 1985, 
  "opponents": 1986, 
  "Revolution": 1987, 
  "dramatically": 1988, 
  "training": 1989, 
  "necessarily": 1990, 
  "Organization": 1991, 
  "€": 1992, 
  "kept": 1993, 
  "keeping": 1994, 
  "undermine": 1995, 
  "z": 1996, 
  "l": 1997, 
  "determine": 1998, 
  "ho@@": 1999, 
  "highest": 2000, 
  "green": 2001, 
  "bound": 2002, 
  "Depression": 2003, 
  "overcome": 2004, 
  "University": 2005, 
  "wider": 2006, 
  "ideology": 2007, 
  "tell": 2008, 
  "analysis": 2009, 
  "cancer": 2010, 
  "event": 2011, 
  "t-@@": 2012, 
  "skills": 2013, 
  "happens": 2014, 
  "summer": 2015, 
  "ter@@": 2016, 
  "e-@@": 2017, 
  "shape": 2018, 
  "zone": 2019, 
  "someone": 2020, 
  "su@@": 2021, 
  "carry": 2022, 
  "technical": 2023, 
  "useful": 2024, 
  "united": 2025, 
  "ters": 2026, 
  "mission": 2027, 
  "pa@@": 2028, 
  "diseases": 2029, 
  "conventional": 2030, 
  "fewer": 2031, 
  "·": 2032, 
  "stake": 2033, 
  "depression": 2034, 
  "corrupt": 2035, 
  "il@@": 2036, 
  "settlement": 2037, 
  "ingly": 2038, 
  "planet": 2039, 
  "regulators": 2040, 
  "July": 2041, 
  "es@@": 2042, 
  "-based": 2043, 
  "Jews": 2044, 
  "ys": 2045, 
  "is@@": 2046, 
  "signs": 2047, 
  "allowing": 2048, 
  "exists": 2049, 
  "enable": 2050, 
  "billions": 2051, 
  "estimates": 2052, 
  "combination": 2053, 
  "votes": 2054, 
  "hopes": 2055, 
  "manufacturing": 2056, 
  "deaths": 2057, 
  "Taiwan": 2058, 
  "defend": 2059, 
  "die": 2060, 
  "launched": 2061, 
  "pre-@@": 2062, 
  "regardless": 2063, 
  "objective": 2064, 
  "opposed": 2065, 
  "territory": 2066, 
  "October": 2067, 
  "a-@@": 2068, 
  "comprehensive": 2069, 
  "Republican": 2070, 
  "dealing": 2071, 
  "12": 2072, 
  "unprecedented": 2073, 
  "household": 2074, 
  "economist": 2075, 
  "shed": 2076, 
  "agriculture": 2077, 
  "ongoing": 2078, 
  "humanity": 2079, 
  "experienced": 2080, 
  "pace": 2081, 
  "generations": 2082, 
  "Fatah": 2083, 
  "gained": 2084, 
  "rec@@": 2085, 
  "centuries": 2086, 
  "extremely": 2087, 
  "treated": 2088, 
  "distribution": 2089, 
  "closed": 2090, 
  "barriers": 2091, 
  "genetic": 2092, 
  "Paris": 2093, 
  "ni@@": 2094, 
  "represents": 2095, 
  "receive": 2096, 
  "commodity": 2097, 
  "cycle": 2098, 
  "practical": 2099, 
  "70": 2100, 
  "table": 2101, 
  "y-@@": 2102, 
  "to@@": 2103, 
  "typically": 2104, 
  "Milosevic": 2105, 
  "Christian": 2106, 
  "developments": 2107, 
  "et": 2108, 
  "practices": 2109, 
  "wide": 2110, 
  "reasonable": 2111, 
  "linked": 2112, 
  "economically": 2113, 
  "legislation": 2114, 
  "mechanisms": 2115, 
  "cells": 2116, 
  "80": 2117, 
  "gu@@": 2118, 
  "supporting": 2119, 
  "modest": 2120, 
  "fallen": 2121, 
  "bond": 2122, 
  "Taliban": 2123, 
  "deliver": 2124, 
  "commitments": 2125, 
  "Sweden": 2126, 
  "In@@": 2127, 
  "players": 2128, 
  "tools": 2129, 
  "complete": 2130, 
  "Stability": 2131, 
  "supporters": 2132, 
  "perceived": 2133, 
  "Re@@": 2134, 
  "migration": 2135, 
  "considerable": 2136, 
  "mechanism": 2137, 
  "remarkable": 2138, 
  "strongly": 2139, 
  "ging": 2140, 
  "hours": 2141, 
  "ut@@": 2142, 
  "pressures": 2143, 
  "recognition": 2144, 
  "voting": 2145, 
  "capable": 2146, 
  "fate": 2147, 
  "controlled": 2148, 
  "homes": 2149, 
  "allows": 2150, 
  "failures": 2151, 
  "charge": 2152, 
  "costly": 2153, 
  "quarter": 2154, 
  "critics": 2155, 
  "board": 2156, 
  "proposals": 2157, 
  "stands": 2158, 
  "putting": 2159, 
  "ins": 2160, 
  "dependent": 2161, 
  "inevitably": 2162, 
  "viable": 2163, 
  "Pact": 2164, 
  "ed@@": 2165, 
  "figure": 2166, 
  "legacy": 2167, 
  "includes": 2168, 
  "animals": 2169, 
  "Libya": 2170, 
  "generate": 2171, 
  "productive": 2172, 
  "uses": 2173, 
  "served": 2174, 
  "computer": 2175, 
  "resolve": 2176, 
  "Street": 2177, 
  "seven": 2178, 
  "species": 2179, 
  "criminal": 2180, 
  "excess": 2181, 
  "zero": 2182, 
  "physical": 2183, 
  "managers": 2184, 
  "returns": 2185, 
  "WTO": 2186, 
  "1991": 2187, 
  "published": 2188, 
  "weakness": 2189, 
  "shareholders": 2190, 
  "ending": 2191, 
  "continent": 2192, 
  "television": 2193, 
  "appeared": 2194, 
  "suffered": 2195, 
  "enemy": 2196, 
  "purpose": 2197, 
  "deflation": 2198, 
  "contributed": 2199, 
  "discussion": 2200, 
  "HIV": 2201, 
  "Abbas": 2202, 
  "el@@": 2203, 
  "restrictions": 2204, 
  "one-@@": 2205, 
  "Democratic": 2206, 
  "dictatorship": 2207, 
  "potentially": 2208, 
  "arguments": 2209, 
  "adopt": 2210, 
  "existence": 2211, 
  "grew": 2212, 
  "gives": 2213, 
  "Constitution": 2214, 
  "Ch@@": 2215, 
  "estimated": 2216, 
  "pushed": 2217, 
  "me@@": 2218, 
  "bilateral": 2219, 
  "ob@@": 2220, 
  "downturn": 2221, 
  "cheap": 2222, 
  "got": 2223, 
  "image": 2224, 
  "cash": 2225, 
  "shocks": 2226, 
  "ble": 2227, 
  "weight": 2228, 
  "survival": 2229, 
  "z@@": 2230, 
  "electricity": 2231, 
  "affect": 2232, 
  "emerge": 2233, 
  "ies": 2234, 
  "declining": 2235, 
  "threatened": 2236, 
  "engage": 2237, 
  "Chancellor": 2238, 
  "r@@": 2239, 
  "lation": 2240, 
  "ag@@": 2241, 
  "Beijing": 2242, 
  "bottom": 2243, 
  "wish": 2244, 
  "arrangements": 2245, 
  "front": 2246, 
  "conference": 2247, 
  "debates": 2248, 
  "remember": 2249, 
  "twentieth": 2250, 
  "described": 2251, 
  "maintaining": 2252, 
  "historic": 2253, 
  "current-account": 2254, 
  "meaning": 2255, 
  "populist": 2256, 
  "nonetheless": 2257, 
  "referendum": 2258, 
  "1@@": 2259, 
  "setting": 2260, 
  "showed": 2261, 
  "advance": 2262, 
  "mortgage": 2263, 
  "ably": 2264, 
  "assume": 2265, 
  "Chirac": 2266, 
  "genuine": 2267, 
  "b": 2268, 
  "urgent": 2269, 
  "fi@@": 2270, 
  "turning": 2271, 
  "criticism": 2272, 
  "improving": 2273, 
  "el": 2274, 
  "dominant": 2275, 
  "passed": 2276, 
  "healthy": 2277, 
  "4@@": 2278, 
  "taxpayers": 2279, 
  "Berlusconi": 2280, 
  "stay": 2281, 
  "felt": 2282, 
  "p": 2283, 
  "restructuring": 2284, 
  "son": 2285, 
  "attractive": 2286, 
  "died": 2287, 
  "Hussein": 2288, 
  "expenditures": 2289, 
  "ged": 2290, 
  "tor@@": 2291, 
  "pushing": 2292, 
  "organized": 2293, 
  "surprising": 2294, 
  "August": 2295, 
  "knew": 2296, 
  "Brussels": 2297, 
  "mandate": 2298, 
  "polls": 2299, 
  "regulations": 2300, 
  "genes": 2301, 
  "Romania": 2302, 
  "holds": 2303, 
  "aside": 2304, 
  "bodies": 2305, 
  "saying": 2306, 
  "root": 2307, 
  "dream": 2308, 
  "heavily": 2309, 
  "Paul": 2310, 
  "reports": 2311, 
  "Gulf": 2312, 
  "pension": 2313, 
  "black": 2314, 
  "senior": 2315, 
  "logic": 2316, 
  "except": 2317, 
  "ying": 2318, 
  "aggressive": 2319, 
  "moved": 2320, 
  "requirements": 2321, 
  "exactly": 2322, 
  "perspective": 2323, 
  "convinced": 2324, 
  "added": 2325, 
  "transfer": 2326, 
  "ality": 2327, 
  "ruled": 2328, 
  "suddenly": 2329, 
  "18@@": 2330, 
  "Polish": 2331, 
  "shock": 2332, 
  "observers": 2333, 
  "humans": 2334, 
  "mu@@": 2335, 
  "sustain": 2336, 
  "exposed": 2337, 
  "w": 2338, 
  "Netherlands": 2339, 
  "playing": 2340, 
  "compete": 2341, 
  "ty": 2342, 
  "brain": 2343, 
  "grown": 2344, 
  "apply": 2345, 
  "ia": 2346, 
  "enemies": 2347, 
  "House": 2348, 
  "package": 2349, 
  "Islamist": 2350, 
  "back@@": 2351, 
  "engaged": 2352, 
  "causing": 2353, 
  "ev@@": 2354, 
  "us@@": 2355, 
  "Keynes": 2356, 
  "replace": 2357, 
  "Portugal": 2358, 
  "implications": 2359, 
  "Yeltsin": 2360, 
  "accounting": 2361, 
  "il": 2362, 
  "mortgages": 2363, 
  "1930": 2364, 
  "implemented": 2365, 
  "amounts": 2366, 
  "rejected": 2367, 
  "peoples": 2368, 
  "1960": 2369, 
  "adjustment": 2370, 
  "standing": 2371, 
  "discipline": 2372, 
  "humanitarian": 2373, 
  "kill": 2374, 
  "ful": 2375, 
  "slowdown": 2376, 
  "enter": 2377, 
  "dead": 2378, 
  "urban": 2379, 
  "...": 2380, 
  "Italian": 2381, 
  "ge@@": 2382, 
  "inside": 2383, 
  "speed": 2384, 
  "cra@@": 2385, 
  "figures": 2386, 
  "Germans": 2387, 
  "supposedly": 2388, 
  "proven": 2389, 
  "pain": 2390, 
  "modernization": 2391, 
  "outcomes": 2392, 
  "risky": 2393, 
  "surpluses": 2394, 
  "university": 2395, 
  "completely": 2396, 
  "partner": 2397, 
  "opposite": 2398, 
  "wrote": 2399, 
  "ratio": 2400, 
  "s-@@": 2401, 
  "add": 2402, 
  "den@@": 2403, 
  "Czech": 2404, 
  "incentive": 2405, 
  "wave": 2406, 
  "producers": 2407, 
  "Economic": 2408, 
  "withdrawal": 2409, 
  "ms": 2410, 
  "condition": 2411, 
  "buying": 2412, 
  "percentage": 2413, 
  "eyes": 2414, 
  "latter": 2415, 
  "sion": 2416, 
  "backed": 2417, 
  "affected": 2418, 
  "embrace": 2419, 
  "willingness": 2420, 
  "bailout": 2421, 
  "employees": 2422, 
  "par@@": 2423, 
  "mental": 2424, 
  "alize": 2425, 
  "initiatives": 2426, 
  "encouraging": 2427, 
  "zing": 2428, 
  "priorities": 2429, 
  "tough": 2430, 
  "marked": 2431, 
  "reserve": 2432, 
  "confrontation": 2433, 
  "concerning": 2434, 
  "applied": 2435, 
  "tests": 2436, 
  "decision-making": 2437, 
  "ensuring": 2438, 
  "shing": 2439, 
  "welcome": 2440, 
  "difficulties": 2441, 
  "hence": 2442, 
  "ul@@": 2443, 
  "Z@@": 2444, 
  "dominated": 2445, 
  "facts": 2446, 
  "protectionism": 2447, 
  "Hong": 2448, 
  "Musharraf": 2449, 
  "G-8": 2450, 
  "actual": 2451, 
  "credible": 2452, 
  "clean": 2453, 
  "southern": 2454, 
  "aware": 2455, 
  "essentially": 2456, 
  "heads": 2457, 
  "trends": 2458, 
  "killing": 2459, 
  "car@@": 2460, 
  "prison": 2461, 
  "war@@": 2462, 
  "establishing": 2463, 
  "pro-@@": 2464, 
  "badly": 2465, 
  "Kim": 2466, 
  "sions": 2467, 
  "confront": 2468, 
  "budgets": 2469, 
  "fossil": 2470, 
  "Arabs": 2471, 
  "emergency": 2472, 
  "claimed": 2473, 
  "relevant": 2474, 
  "daily": 2475, 
  "sed": 2476, 
  "cell": 2477, 
  "1998": 2478, 
  "ned": 2479, 
  "mistakes": 2480, 
  "profound": 2481, 
  "joined": 2482, 
  "fuels": 2483, 
  "transformation": 2484, 
  "refused": 2485, 
  "voice": 2486, 
  "18": 2487, 
  "regarded": 2488, 
  "correct": 2489, 
  "corporations": 2490, 
  "paper": 2491, 
  "Atlantic": 2492, 
  "plants": 2493, 
  "blood": 2494, 
  "U@@": 2495, 
  "thanks": 2496, 
  "the@@": 2497, 
  "cor@@": 2498, 
  "Sunni": 2499, 
  "ered": 2500, 
  "revolutionary": 2501, 
  "Hungary": 2502, 
  "calling": 2503, 
  "ignore": 2504, 
  "partnership": 2505, 
  "strike": 2506, 
  "examples": 2507, 
  "constraints": 2508, 
  "mark": 2509, 
  "mid-@@": 2510, 
  "objectives": 2511, 
  "threaten": 2512, 
  "financed": 2513, 
  "April": 2514, 
  "carried": 2515, 
  "guarantees": 2516, 
  "replaced": 2517, 
  "signed": 2518, 
  "fortunately": 2519, 
  "integrated": 2520, 
  "instruments": 2521, 
  "Vietnam": 2522, 
  "father": 2523, 
  "reaching": 2524, 
  "spirit": 2525, 
  "successfully": 2526, 
  "destroy": 2527, 
  "fire": 2528, 
  "host": 2529, 
  "Merkel": 2530, 
  "material": 2531, 
  "consequence": 2532, 
  "stance": 2533, 
  "mutual": 2534, 
  "creates": 2535, 
  "bi@@": 2536, 
  "com@@": 2537, 
  "dynamic": 2538, 
  "enterprises": 2539, 
  "strengthening": 2540, 
  "austerity": 2541, 
  "closely": 2542, 
  "alization": 2543, 
  "low-@@": 2544, 
  "fixed": 2545, 
  "Con@@": 2546, 
  "man@@": 2547, 
  "harm": 2548, 
  "fourth": 2549, 
  "advice": 2550, 
  "equivalent": 2551, 
  "issued": 2552, 
  "unsustainable": 2553, 
  "robust": 2554, 
  "function": 2555, 
  "notably": 2556, 
  "link": 2557, 
  "reaction": 2558, 
  "coal": 2559, 
  "tor": 2560, 
  "eliminate": 2561, 
  "we@@": 2562, 
  "poorer": 2563, 
  "reflected": 2564, 
  "addressed": 2565, 
  "Kong": 2566, 
  "expand": 2567, 
  "stocks": 2568, 
  "rational": 2569, 
  "empire": 2570, 
  "remaining": 2571, 
  "f": 2572, 
  "mar@@": 2573, 
  "ourselves": 2574, 
  "Trade": 2575, 
  "resort": 2576, 
  "journalists": 2577, 
  "vo@@": 2578, 
  "elements": 2579, 
  "ambitious": 2580, 
  "expanding": 2581, 
  "fo@@": 2582, 
  "minorities": 2583, 
  "Committee": 2584, 
  "pattern": 2585, 
  "sc@@": 2586, 
  "demonstrate": 2587, 
  "Canada": 2588, 
  "apart": 2589, 
  "search": 2590, 
  "scope": 2591, 
  "series": 2592, 
  "weaker": 2593, 
  "civilians": 2594, 
  "Mubarak": 2595, 
  "ance": 2596, 
  "ci@@": 2597, 
  "leverage": 2598, 
  "extra": 2599, 
  "suggested": 2600, 
  "aging": 2601, 
  "begun": 2602, 
  "quo": 2603, 
  "primarily": 2604, 
  "happening": 2605, 
  "demanding": 2606, 
  "granted": 2607, 
  "revenue": 2608, 
  "1997": 2609, 
  "renewed": 2610, 
  "ad": 2611, 
  "woman": 2612, 
  "brings": 2613, 
  "exception": 2614, 
  "manner": 2615, 
  "bit": 2616, 
  "Social": 2617, 
  "de-@@": 2618, 
  "headed": 2619, 
  "posed": 2620, 
  "fied": 2621, 
  "reported": 2622, 
  "emergence": 2623, 
  "barely": 2624, 
  "appeal": 2625, 
  "nbsp": 2626, 
  "inflows": 2627, 
  "stress": 2628, 
  "realistic": 2629, 
  "managing": 2630, 
  "privatization": 2631, 
  "believes": 2632, 
  "usual": 2633, 
  "equality": 2634, 
  "design": 2635, 
  "gi@@": 2636, 
  "planning": 2637, 
  "famous": 2638, 
  "rescue": 2639, 
  "cover": 2640, 
  "systemic": 2641, 
  "bed": 2642, 
  "Yugoslavia": 2643, 
  "min@@": 2644, 
  "D": 2645, 
  "transparent": 2646, 
  "od@@": 2647, 
  "fe@@": 2648, 
  "ultimate": 2649, 
  "conducted": 2650, 
  "justify": 2651, 
  "an-@@": 2652, 
  "rarely": 2653, 
  "included": 2654, 
  "abuse": 2655, 
  "ignored": 2656, 
  "justified": 2657, 
  "enjoy": 2658, 
  "ban": 2659, 
  "elites": 2660, 
  "Greenspan": 2661, 
  "repeatedly": 2662, 
  "divide": 2663, 
  "sea": 2664, 
  "ownership": 2665, 
  "illegal": 2666, 
  "introduced": 2667, 
  "secret": 2668, 
  "professional": 2669, 
  "represented": 2670, 
  "borrow": 2671, 
  "et@@": 2672, 
  "heard": 2673, 
  "ars": 2674, 
  "tively": 2675, 
  "ethical": 2676, 
  "processes": 2677, 
  "ments": 2678, 
  "achieving": 2679, 
  "predict": 2680, 
  "chaos": 2681, 
  "Republicans": 2682, 
  "extended": 2683, 
  "date": 2684, 
  "flexibility": 2685, 
  "openly": 2686, 
  "collapsed": 2687, 
  "lie": 2688, 
  "sales": 2689, 
  "gets": 2690, 
  "finding": 2691, 
  "proportion": 2692, 
  "charges": 2693, 
  "complicated": 2694, 
  "explanation": 2695, 
  "responses": 2696, 
  "160": 2697, 
  "joint": 2698, 
  "acting": 2699, 
  "intended": 2700, 
  "destroyed": 2701, 
  "publicly": 2702, 
  "cru@@": 2703, 
  "heavy": 2704, 
  "advantages": 2705, 
  "ns": 2706, 
  "accountability": 2707, 
  "educational": 2708, 
  "stories": 2709, 
  "judges": 2710, 
  "threatening": 2711, 
  "ning": 2712, 
  "ard": 2713, 
  "send": 2714, 
  "intellectuals": 2715, 
  "shares": 2716, 
  "previously": 2717, 
  "ist@@": 2718, 
  "failing": 2719, 
  "C": 2720, 
  "Shia": 2721, 
  "ces": 2722, 
  "producing": 2723, 
  "executive": 2724, 
  "TV": 2725, 
  "painful": 2726, 
  "narrow": 2727, 
  "strengthened": 2728, 
  "vi@@": 2729, 
  "weakened": 2730, 
  "notion": 2731, 
  "om@@": 2732, 
  "ator": 2733, 
  "advocates": 2734, 
  "creditors": 2735, 
  "popularity": 2736, 
  "kinds": 2737, 
  "gradually": 2738, 
  "formal": 2739, 
  "version": 2740, 
  "opened": 2741, 
  "conduct": 2742, 
  "stem": 2743, 
  "placed": 2744, 
  "encouraged": 2745, 
  "exchange-rate": 2746, 
  "cu@@": 2747, 
  "Al@@": 2748, 
  "est": 2749, 
  "co-@@": 2750, 
  "so@@": 2751, 
  "minds": 2752, 
  "resource": 2753, 
  "staff": 2754, 
  "falls": 2755, 
  "amp": 2756, 
  "sites": 2757, 
  "ends": 2758, 
  "ren@@": 2759, 
  "alism": 2760, 
  "atmosphere": 2761, 
  "parents": 2762, 
  "acceptable": 2763, 
  "generated": 2764, 
  "monopoly": 2765, 
  "tri@@": 2766, 
  "simultaneously": 2767, 
  "ked": 2768, 
  "expressed": 2769, 
  "drop": 2770, 
  "read": 2771, 
  "prefer": 2772, 
  "educated": 2773, 
  "wonder": 2774, 
  "transatlantic": 2775, 
  "leaves": 2776, 
  "ce": 2777, 
  "ambitions": 2778, 
  "initial": 2779, 
  "super@@": 2780, 
  "ur@@": 2781, 
  "x": 2782, 
  "R": 2783, 
  "Medvedev": 2784, 
  "Hitler": 2785, 
  "feeling": 2786, 
  "uncertain": 2787, 
  "expression": 2788, 
  "Haiti": 2789, 
  "Defense": 2790, 
  "resulted": 2791, 
  "streets": 2792, 
  "surprisingly": 2793, 
  "eye": 2794, 
  "anniversary": 2795, 
  "fails": 2796, 
  "balanced": 2797, 
  "pla@@": 2798, 
  "harder": 2799, 
  "extremists": 2800, 
  "ship": 2801, 
  "networks": 2802, 
  "exercise": 2803, 
  "5@@": 2804, 
  "compensation": 2805, 
  "written": 2806, 
  "seeks": 2807, 
  "h": 2808, 
  "lasting": 2809, 
  "via": 2810, 
  "ste@@": 2811, 
  "driving": 2812, 
  "refugees": 2813, 
  "ics": 2814, 
  "Iraqis": 2815, 
  "nobody": 2816, 
  "hunger": 2817, 
  "bubbles": 2818, 
  "stopped": 2819, 
  "Lisbon": 2820, 
  "liberty": 2821, 
  "actors": 2822, 
  "wisdom": 2823, 
  "God": 2824, 
  "pursued": 2825, 
  "northern": 2826, 
  "accompanied": 2827, 
  "proper": 2828, 
  "Cuba": 2829, 
  "aggregate": 2830, 
  "fragile": 2831, 
  "ative": 2832, 
  "fy": 2833, 
  "alike": 2834, 
  "returned": 2835, 
  "succeeded": 2836, 
  "Australia": 2837, 
  "Mao": 2838, 
  "door": 2839, 
  "bigger": 2840, 
  "expanded": 2841, 
  "seeing": 2842, 
  "operate": 2843, 
  "d-@@": 2844, 
  "bar@@": 2845, 
  "treat": 2846, 
  "helps": 2847, 
  "proliferation": 2848, 
  "politician": 2849, 
  "protest": 2850, 
  "initially": 2851, 
  "obligations": 2852, 
  "weakening": 2853, 
  "rightly": 2854, 
  "ill": 2855, 
  "review": 2856, 
  "Robert": 2857, 
  "14": 2858, 
  "newly": 2859, 
  "ba@@": 2860, 
  "users": 2861, 
  "pe@@": 2862, 
  "perfect": 2863, 
  "picture": 2864, 
  "mi@@": 2865, 
  "ry": 2866, 
  "ent@@": 2867, 
  "profit": 2868, 
  "extraordinary": 2869, 
  "oppose": 2870, 
  "ice": 2871, 
  "sta@@": 2872, 
  "somehow": 2873, 
  "Tony": 2874, 
  "0.@@": 2875, 
  "launch": 2876, 
  "variety": 2877, 
  "selling": 2878, 
  "discrimination": 2879, 
  "hundred": 2880, 
  "norms": 2881, 
  "facilities": 2882, 
  "stimulate": 2883, 
  "invested": 2884, 
  "fish": 2885, 
  "moves": 2886, 
  "evolution": 2887, 
  "block": 2888, 
  "ges": 2889, 
  "arrest": 2890, 
  "identify": 2891, 
  "draw": 2892, 
  "contribution": 2893, 
  "sooner": 2894, 
  "equ@@": 2895, 
  "interested": 2896, 
  "reverse": 2897, 
  "volatility": 2898, 
  "crash": 2899, 
  "happy": 2900, 
  "purposes": 2901, 
  "geopolitical": 2902, 
  "sur@@": 2903, 
  "avoided": 2904, 
  "memory": 2905, 
  "tu@@": 2906, 
  "contain": 2907, 
  "inf@@": 2908, 
  "addressing": 2909, 
  "combat": 2910, 
  "protecting": 2911, 
  "protected": 2912, 
  "judge": 2913, 
  "decisive": 2914, 
  "absolute": 2915, 
  "sent": 2916, 
  "assumed": 2917, 
  "Irish": 2918, 
  "ol@@": 2919, 
  "rose": 2920, 
  "alternatives": 2921, 
  "track": 2922, 
  "network": 2923, 
  "ents": 2924, 
  "500": 2925, 
  "apparent": 2926, 
  "February": 2927, 
  "abandon": 2928, 
  "participants": 2929, 
  "enhance": 2930, 
  "attitude": 2931, 
  "courts": 2932, 
  "original": 2933, 
  "emerging-market": 2934, 
  "birth": 2935, 
  "au@@": 2936, 
  "fueled": 2937, 
  "multi-@@": 2938, 
  "twice": 2939, 
  "ils": 2940, 
  "Roma": 2941, 
  "dangers": 2942, 
  "reconstruction": 2943, 
  "successor": 2944, 
  "attitudes": 2945, 
  "ot@@": 2946, 
  "estate": 2947, 
  "worried": 2948, 
  "dly": 2949, 
  "contributions": 2950, 
  "dependence": 2951, 
  "wake": 2952, 
  "flexible": 2953, 
  "Protocol": 2954, 
  "tional": 2955, 
  "Rights": 2956, 
  "do@@": 2957, 
  "abandoned": 2958, 
  "divisions": 2959, 
  "wait": 2960, 
  "promising": 2961, 
  "alist": 2962, 
  "isolation": 2963, 
  "ph@@": 2964, 
  "coordination": 2965, 
  "sts": 2966, 
  "ss": 2967, 
  "torture": 2968, 
  "approaches": 2969, 
  "books": 2970, 
  "Bosnia": 2971, 
  "Denmark": 2972, 
  "27": 2973, 
  "division": 2974, 
  "significance": 2975, 
  "reputation": 2976, 
  "Sharon": 2977, 
  "suicide": 2978, 
  "ju@@": 2979, 
  "medicine": 2980, 
  "fundamentally": 2981, 
  "donors": 2982, 
  "missile": 2983, 
  "stated": 2984, 
  "voted": 2985, 
  "pressing": 2986, 
  "appreciation": 2987, 
  "representatives": 2988, 
  "recover": 2989, 
  "unilateral": 2990, 
  "warning": 2991, 
  "hal@@": 2992, 
  "measured": 2993, 
  "evil": 2994, 
  "improvement": 2995, 
  "weaken": 2996, 
  "P": 2997, 
  "Stalin": 2998, 
  "sen@@": 2999, 
  "functioning": 3000, 
  "Syrian": 3001, 
  "cars": 3002, 
  "circle": 3003, 
  "hoped": 3004, 
  "Afghan": 3005, 
  "demographic": 3006, 
  "inflationary": 3007, 
  "35": 3008, 
  "fin@@": 3009, 
  "ran@@": 3010, 
  "bill": 3011, 
  "youth": 3012, 
  "wind": 3013, 
  "contracts": 3014, 
  "meetings": 3015, 
  "activists": 3016, 
  "delivered": 3017, 
  "investing": 3018, 
  "love": 3019, 
  "yield": 3020, 
  "16": 3021, 
  "Reagan": 3022, 
  "transport": 3023, 
  "ven@@": 3024, 
  "frequently": 3025, 
  "Mar@@": 3026, 
  "conclusion": 3027, 
  "overwhelming": 3028, 
  "expense": 3029, 
  "S": 3030, 
  "directed": 3031, 
  "participate": 3032, 
  "ta@@": 3033, 
  "lived": 3034, 
  "definition": 3035, 
  "richest": 3036, 
  "twenty-first": 3037, 
  "diversity": 3038, 
  "focusing": 3039, 
  "separate": 3040, 
  "mer@@": 3041, 
  "ages": 3042, 
  "hedge": 3043, 
  "showing": 3044, 
  "caught": 3045, 
  "extend": 3046, 
  "90": 3047, 
  "sexual": 3048, 
  "somewhat": 3049, 
  "generous": 3050, 
  "Islamists": 3051, 
  "released": 3052, 
  "effectiveness": 3053, 
  "greenhouse": 3054, 
  "cultures": 3055, 
  "reject": 3056, 
  "undoubtedly": 3057, 
  "hand@@": 3058, 
  "Financial": 3059, 
  "entry": 3060, 
  "types": 3061, 
  "7@@": 3062, 
  "slowly": 3063, 
  "stood": 3064, 
  "presidents": 3065, 
  "stagnation": 3066, 
  "ring": 3067, 
  "turmoil": 3068, 
  "Jerusalem": 3069, 
  "Web": 3070, 
  "tru@@": 3071, 
  "preserve": 3072, 
  "ian": 3073, 
  "long-@@": 3074, 
  "onto": 3075, 
  "insist": 3076, 
  "doctors": 3077, 
  "drawn": 3078, 
  "revealed": 3079, 
  "cen@@": 3080, 
  "street": 3081, 
  "sa@@": 3082, 
  "bold": 3083, 
  "wing": 3084, 
  "methods": 3085, 
  "presented": 3086, 
  "tors": 3087, 
  "centers": 3088, 
  "animal": 3089, 
  "trials": 3090, 
  "engagement": 3091, 
  "fresh": 3092, 
  "sive": 3093, 
  "Global": 3094, 
  "California": 3095, 
  "catastrophe": 3096, 
  "Authority": 3097, 
  "13": 3098, 
  "accused": 3099, 
  "football": 3100, 
  "ig@@": 3101, 
  "computers": 3102, 
  "genocide": 3103, 
  "reliable": 3104, 
  "preventing": 3105, 
  "retain": 3106, 
  "spring": 3107, 
  "adequate": 3108, 
  "wi@@": 3109, 
  "Plan": 3110, 
  "sk@@": 3111, 
  "Nicolas": 3112, 
  "pass": 3113, 
  "Administration": 3114, 
  "tens": 3115, 
  "bailouts": 3116, 
  "settlements": 3117, 
  "gaining": 3118, 
  "define": 3119, 
  "Qaeda": 3120, 
  "operation": 3121, 
  "car": 3122, 
  "equipment": 3123, 
  "Arafat": 3124, 
  "richer": 3125, 
  "fought": 3126, 
  "offering": 3127, 
  "sold": 3128, 
  "ators": 3129, 
  "bombing": 3130, 
  "travel": 3131, 
  "um": 3132, 
  "ws": 3133, 
  "diverse": 3134, 
  "prisoners": 3135, 
  "solar": 3136, 
  "rival": 3137, 
  "fla@@": 3138, 
  "ever-@@": 3139, 
  "looked": 3140, 
  "unemployed": 3141, 
  "prevented": 3142, 
  "south": 3143, 
  "raises": 3144, 
  "bul@@": 3145, 
  "apparently": 3146, 
  "ches": 3147, 
  "right-wing": 3148, 
  "imperial": 3149, 
  "der@@": 3150, 
  "In": 3151, 
  "sharing": 3152, 
  "threatens": 3153, 
  "resist": 3154, 
  "colleagues": 3155, 
  "import": 3156, 
  "phase": 3157, 
  "sheets": 3158, 
  "reductions": 3159, 
  "ur": 3160, 
  "repression": 3161, 
  "ought": 3162, 
  "cre@@": 3163, 
  "neighboring": 3164, 
  "forever": 3165, 
  "winning": 3166, 
  "ing@@": 3167, 
  "nominal": 3168, 
  "punishment": 3169, 
  "Austria": 3170, 
  "discussions": 3171, 
  "hostile": 3172, 
  "Pope": 3173, 
  "heat": 3174, 
  "plant": 3175, 
  "consolidation": 3176, 
  "write": 3177, 
  "aims": 3178, 
  "ber@@": 3179, 
  "commit": 3180, 
  "impressive": 3181, 
  "An@@": 3182, 
  "internationally": 3183, 
  "hi@@": 3184, 
  "funded": 3185, 
  "fundamentals": 3186, 
  "sensitive": 3187, 
  "ized": 3188, 
  "concluded": 3189, 
  "properly": 3190, 
  "No": 3191, 
  "consistent": 3192, 
  "Pakistani": 3193, 
  "finances": 3194, 
  "alizing": 3195, 
  "1990s": 3196, 
  "slightly": 3197, 
  "Egyptian": 3198, 
  "command": 3199, 
  "fit": 3200, 
  "negotiating": 3201, 
  "panic": 3202, 
  "pen@@": 3203, 
  "criteria": 3204, 
  "imposing": 3205, 
  "easing": 3206, 
  "devastating": 3207, 
  "ining": 3208, 
  "earth": 3209, 
  "2011": 3210, 
  "phenomenon": 3211, 
  "negotiate": 3212, 
  "go@@": 3213, 
  "tr@@": 3214, 
  "Laden": 3215, 
  "chosen": 3216, 
  "David": 3217, 
  "responsibilities": 3218, 
  "bre@@": 3219, 
  "targeted": 3220, 
  "approval": 3221, 
  "concrete": 3222, 
  "England": 3223, 
  "devaluation": 3224, 
  "perception": 3225, 
  "da@@": 3226, 
  "smart": 3227, 
  "Darfur": 3228, 
  "territories": 3229, 
  "seemingly": 3230, 
  "historically": 3231, 
  "alists": 3232, 
  "down@@": 3233, 
  "exit": 3234, 
  "Senate": 3235, 
  "escape": 3236, 
  "Nazi": 3237, 
  "minimum": 3238, 
  "learning": 3239, 
  "meaningful": 3240, 
  "brutal": 3241, 
  "sophisticated": 3242, 
  "underway": 3243, 
  "hear": 3244, 
  "marks": 3245, 
  "foundations": 3246, 
  "surge": 3247, 
  "sustainability": 3248, 
  "mor@@": 3249, 
  "draft": 3250, 
  "express": 3251, 
  "offset": 3252, 
  "ver@@": 3253, 
  "couple": 3254, 
  "Northern": 3255, 
  "fore@@": 3256, 
  "experiences": 3257, 
  "ths": 3258, 
  "sees": 3259, 
  "aries": 3260, 
  "ade": 3261, 
  "transformed": 3262, 
  "inability": 3263, 
  "innocent": 3264, 
  "democratization": 3265, 
  "taxation": 3266, 
  "saved": 3267, 
  "superpower": 3268, 
  "enforcement": 3269, 
  "sets": 3270, 
  "Nigeria": 3271, 
  "foundation": 3272, 
  "doctrine": 3273, 
  "socialist": 3274, 
  "OECD": 3275, 
  "anger": 3276, 
  "naturally": 3277, 
  "insufficient": 3278, 
  "openness": 3279, 
  "grounds": 3280, 
  "academic": 3281, 
  "protectionist": 3282, 
  "numerous": 3283, 
  "reluctant": 3284, 
  "reconciliation": 3285, 
  "1995": 3286, 
  "transfers": 3287, 
  "coordinated": 3288, 
  "researchers": 3289, 
  "bankruptcy": 3290, 
  "sex": 3291, 
  "advances": 3292, 
  "tackle": 3293, 
  "realized": 3294, 
  "substantially": 3295, 
  "formed": 3296, 
  "false": 3297, 
  "earnings": 3298, 
  "western": 3299, 
  "wealthy": 3300, 
  "lated": 3301, 
  "giant": 3302, 
  "ir": 3303, 
  "quick": 3304, 
  "valuable": 3305, 
  "tic@@": 3306, 
  "id@@": 3307, 
  "integrity": 3308, 
  "carefully": 3309, 
  "asking": 3310, 
  "sensible": 3311, 
  "involve": 3312, 
  "communications": 3313, 
  "warned": 3314, 
  "waiting": 3315, 
  "Serbs": 3316, 
  "capitalist": 3317, 
  "fields": 3318, 
  "traditions": 3319, 
  "wh@@": 3320, 
  "responded": 3321, 
  "sing": 3322, 
  "white": 3323, 
  "rare": 3324, 
  "De@@": 3325, 
  "backing": 3326, 
  "bomb": 3327, 
  "tolerance": 3328, 
  "Burma": 3329, 
  "est@@": 3330, 
  "6@@": 3331, 
  "cli@@": 3332, 
  "recognizing": 3333, 
  "inefficient": 3334, 
  "patient": 3335, 
  "serving": 3336, 
  "entrepreneurs": 3337, 
  "emphasis": 3338, 
  "foreigners": 3339, 
  "It": 3340, 
  "eastern": 3341, 
  "cla@@": 3342, 
  "broken": 3343, 
  "implementing": 3344, 
  "mainstream": 3345, 
  "conservatives": 3346, 
  "predicted": 3347, 
  "McCain": 3348, 
  "extremism": 3349, 
  "tiny": 3350, 
  "Mahmoud": 3351, 
  "Catholic": 3352, 
  "Ahmadinejad": 3353, 
  "King": 3354, 
  "ancient": 3355, 
  "post@@": 3356, 
  "constant": 3357, 
  "regarding": 3358, 
  "voices": 3359, 
  "Jordan": 3360, 
  "realities": 3361, 
  "planned": 3362, 
  "newspapers": 3363, 
  "Bernanke": 3364, 
  "forests": 3365, 
  "cur@@": 3366, 
  "hu@@": 3367, 
  "75": 3368, 
  "mobility": 3369, 
  "unwilling": 3370, 
  "urgently": 3371, 
  "ched": 3372, 
  "Bolivia": 3373, 
  "ali@@": 3374, 
  "seats": 3375, 
  "sla@@": 3376, 
  "dominate": 3377, 
  "customers": 3378, 
  "greatly": 3379, 
  "governing": 3380, 
  "Alliance": 3381, 
  "surveillance": 3382, 
  "visible": 3383, 
  "sufficiently": 3384, 
  "interesting": 3385, 
  "capture": 3386, 
  "ite": 3387, 
  "speculative": 3388, 
  "joining": 3389, 
  "lands": 3390, 
  "statements": 3391, 
  "pursuit": 3392, 
  "alive": 3393, 
  "component": 3394, 
  "capabilities": 3395, 
  "globally": 3396, 
  "r": 3397, 
  "bin": 3398, 
  "declines": 3399, 
  "achievement": 3400, 
  "links": 3401, 
  "site": 3402, 
  "comparable": 3403, 
  "aftermath": 3404, 
  "communication": 3405, 
  "subsequent": 3406, 
  "inadequate": 3407, 
  "lay": 3408, 
  "Sudan": 3409, 
  "300": 3410, 
  "murder": 3411, 
  "ler": 3412, 
  "materials": 3413, 
  "sphere": 3414, 
  "accountable": 3415, 
  "repeated": 3416, 
  "statement": 3417, 
  "ov@@": 3418, 
  "dispute": 3419, 
  "9@@": 3420, 
  "monitoring": 3421, 
  "ve@@": 3422, 
  "enterprise": 3423, 
  "Belarus": 3424, 
  "sky": 3425, 
  "ten@@": 3426, 
  "24": 3427, 
  "maintained": 3428, 
  "aspects": 3429, 
  "tool": 3430, 
  "blamed": 3431, 
  "missiles": 3432, 
  "pose": 3433, 
  "breaking": 3434, 
  "gh@@": 3435, 
  "disarmament": 3436, 
  "female": 3437, 
  "officers": 3438, 
  "expertise": 3439, 
  "17": 3440, 
  "talking": 3441, 
  "English": 3442, 
  "retirement": 3443, 
  "fac@@": 3444, 
  "lend": 3445, 
  "tragedy": 3446, 
  "delay": 3447, 
  "thousand": 3448, 
  "grand": 3449, 
  "large-scale": 3450, 
  "rating": 3451, 
  "bureaucracy": 3452, 
  "ching": 3453, 
  "match": 3454, 
  "Balkans": 3455, 
  "ile": 3456, 
  "estimate": 3457, 
  "200": 3458, 
  "avoiding": 3459, 
  "triumph": 3460, 
  "Jacques": 3461, 
  "migrants": 3462, 
  "interest-rate": 3463, 
  "acceptance": 3464, 
  "neo-@@": 3465, 
  "albeit": 3466, 
  "Lebanese": 3467, 
  "instance": 3468, 
  "improvements": 3469, 
  "impoverished": 3470, 
  "pursuing": 3471, 
  "aspect": 3472, 
  "che@@": 3473, 
  "count": 3474, 
  "Spanish": 3475, 
  "instrument": 3476, 
  "farm": 3477, 
  "yields": 3478, 
  "triggered": 3479, 
  "renminbi": 3480, 
  "annually": 3481, 
  "dness": 3482, 
  "tion@@": 3483, 
  "dy": 3484, 
  "occupied": 3485, 
  "undermined": 3486, 
  "ak": 3487, 
  "damaged": 3488, 
  "discovered": 3489, 
  "grave": 3490, 
  "understandable": 3491, 
  "distant": 3492, 
  "&apos;@@": 3493, 
  "transform": 3494, 
  "identified": 3495, 
  "judgment": 3496, 
  "ff@@": 3497, 
  "hidden": 3498, 
  "lin@@": 3499, 
  "normally": 3500, 
  "unstable": 3501, 
  "iling": 3502, 
  "refuse": 3503, 
  "ani@@": 3504, 
  "Bill": 3505, 
  "trans@@": 3506, 
  "Holocaust": 3507, 
  "Mediterranean": 3508, 
  "constitute": 3509, 
  "1950": 3510, 
  "chose": 3511, 
  "tendency": 3512, 
  "element": 3513, 
  "adapt": 3514, 
  "art": 3515, 
  "cap@@": 3516, 
  "Ar@@": 3517, 
  "runs": 3518, 
  "guaranteed": 3519, 
  "inspired": 3520, 
  "transactions": 3521, 
  "newspaper": 3522, 
  "ari@@": 3523, 
  "demanded": 3524, 
  "obstacles": 3525, 
  "answers": 3526, 
  "plays": 3527, 
  "ology": 3528, 
  "Human": 3529, 
  "long-run": 3530, 
  "renewable": 3531, 
  "state-owned": 3532, 
  "Baltic": 3533, 
  "Baghdad": 3534, 
  "entered": 3535, 
  "ase": 3536, 
  "Di@@": 3537, 
  "ders": 3538, 
  "twenty": 3539, 
  "19": 3540, 
  "evident": 3541, 
  "u": 3542, 
  "negotiated": 3543, 
  "creative": 3544, 
  "one-third": 3545, 
  "coun@@": 3546, 
  "writing": 3547, 
  "revolutions": 3548, 
  "liberals": 3549, 
  "whenever": 3550, 
  "Sea": 3551, 
  "Energy": 3552, 
  "victim": 3553, 
  "involvement": 3554, 
  "Brown": 3555, 
  "agency": 3556, 
  "attract": 3557, 
  "weapon": 3558, 
  "ced": 3559, 
  "Gorbachev": 3560, 
  "doubts": 3561, 
  "intervene": 3562, 
  "men@@": 3563, 
  "rage": 3564, 
  "regular": 3565, 
  "desirable": 3566, 
  "owned": 3567, 
  "patterns": 3568, 
  "donor": 3569, 
  "tribal": 3570, 
  "speaking": 3571, 
  "ang@@": 3572, 
  "ped": 3573, 
  "surface": 3574, 
  "scheme": 3575, 
  "len@@": 3576, 
  "gender": 3577, 
  "familiar": 3578, 
  "Rome": 3579, 
  "toxic": 3580, 
  "Per@@": 3581, 
  "software": 3582, 
  "isolated": 3583, 
  "claiming": 3584, 
  "imperative": 3585, 
  "demonstrations": 3586, 
  "biological": 3587, 
  "mention": 3588, 
  "White": 3589, 
  "discuss": 3590, 
  "argues": 3591, 
  "deny": 3592, 
  "informed": 3593, 
  "i.e.": 3594, 
  "committee": 3595, 
  "imply": 3596, 
  "Com@@": 3597, 
  "admit": 3598, 
  "mal@@": 3599, 
  "bra@@": 3600, 
  "difficulty": 3601, 
  "downward": 3602, 
  "careful": 3603, 
  "arrested": 3604, 
  "lic@@": 3605, 
  "adopting": 3606, 
  "ban@@": 3607, 
  "ats": 3608, 
  "character": 3609, 
  "x@@": 3610, 
  "volatile": 3611, 
  "civilization": 3612, 
  "ners": 3613, 
  "honest": 3614, 
  "kers": 3615, 
  "tends": 3616, 
  "stabilize": 3617, 
  "ke": 3618, 
  "convince": 3619, 
  "executives": 3620, 
  "Church": 3621, 
  "abuses": 3622, 
  "roots": 3623, 
  "col@@": 3624, 
  "pped": 3625, 
  "procedures": 3626, 
  "sentiment": 3627, 
  "implementation": 3628, 
  "We": 3629, 
  "cheaper": 3630, 
  "Peace": 3631, 
  "wa@@": 3632, 
  "provision": 3633, 
  "depreciation": 3634, 
  "solid": 3635, 
  "noted": 3636, 
  "confronted": 3637, 
  "colonial": 3638, 
  "explains": 3639, 
  "defending": 3640, 
  "representative": 3641, 
  "statistics": 3642, 
  "propaganda": 3643, 
  "wor@@": 3644, 
  "honor": 3645, 
  "dilemma": 3646, 
  "mixed": 3647, 
  "earn": 3648, 
  "survey": 3649, 
  "Assembly": 3650, 
  "nowhere": 3651, 
  "unfair": 3652, 
  "autonomy": 3653, 
  "ants": 3654, 
  "ner": 3655, 
  "fairly": 3656, 
  "tism": 3657, 
  "benefited": 3658, 
  "attacked": 3659, 
  "serves": 3660, 
  "disastrous": 3661, 
  "Belgium": 3662, 
  "administrative": 3663, 
  "two-@@": 3664, 
  "pensions": 3665, 
  "comparison": 3666, 
  "ck": 3667, 
  "village": 3668, 
  "Tunisia": 3669, 
  "classes": 3670, 
  "two-thirds": 3671, 
  "pointed": 3672, 
  "puts": 3673, 
  "dignity": 3674, 
  "turns": 3675, 
  "san@@": 3676, 
  "engineering": 3677, 
  "state-@@": 3678, 
  "employers": 3679, 
  "Mexican": 3680, 
  "selection": 3681, 
  "Venezuela": 3682, 
  "re": 3683, 
  "Summit": 3684, 
  "chances": 3685, 
  "older": 3686, 
  "rejection": 3687, 
  "connected": 3688, 
  "on-@@": 3689, 
  "prepare": 3690, 
  "signal": 3691, 
  "deregulation": 3692, 
  "ran": 3693, 
  "optimism": 3694, 
  "resolved": 3695, 
  "ley": 3696, 
  "US-@@": 3697, 
  "sub-prime": 3698, 
  "ga@@": 3699, 
  "declined": 3700, 
  "av@@": 3701, 
  "stabilization": 3702, 
  "ps": 3703, 
  "approved": 3704, 
  "qui@@": 3705, 
  "supports": 3706, 
  "influential": 3707, 
  "Mr.": 3708, 
  "aspirations": 3709, 
  "tactics": 3710, 
  "Google": 3711, 
  "images": 3712, 
  "ot": 3713, 
  "Third": 3714, 
  "flight": 3715, 
  "electorate": 3716, 
  "dominance": 3717, 
  "contract": 3718, 
  "socialism": 3719, 
  "amp@@": 3720, 
  "USSR": 3721, 
  "bureaucrats": 3722, 
  "19@@": 3723, 
  "assessment": 3724, 
  "friendly": 3725, 
  "doomed": 3726, 
  "1945": 3727, 
  "tariffs": 3728, 
  "Army": 3729, 
  "1994": 3730, 
  "commodities": 3731, 
  "arguing": 3732, 
  "ang": 3733, 
  "expenditure": 3734, 
  "pi@@": 3735, 
  "ideal": 3736, 
  "pride": 3737, 
  "contemporary": 3738, 
  "deals": 3739, 
  "enabled": 3740, 
  "nineteenth": 3741, 
  "considerations": 3742, 
  "sec@@": 3743, 
  "pat@@": 3744, 
  "Supreme": 3745, 
  "counter@@": 3746, 
  "tsunami": 3747, 
  "plausible": 3748, 
  "cold": 3749, 
  "concentrated": 3750, 
  "purely": 3751, 
  "tied": 3752, 
  "reliance": 3753, 
  "half-@@": 3754, 
  "limiting": 3755, 
  "yen": 3756, 
  "mobile": 3757, 
  "forget": 3758, 
  "2015": 3759, 
  "gradual": 3760, 
  "peak": 3761, 
  "bureaucratic": 3762, 
  "convergence": 3763, 
  "functions": 3764, 
  "longer-term": 3765, 
  "Gazprom": 3766, 
  "Policy": 3767, 
  "applies": 3768, 
  "fellow": 3769, 
  "unrest": 3770, 
  "intense": 3771, 
  "1992": 3772, 
  "Doha": 3773, 
  "Foreign": 3774, 
  "Malaysia": 3775, 
  "forcing": 3776, 
  "fies": 3777, 
  "l-@@": 3778, 
  "tically": 3779, 
  "1996": 3780, 
  "momentum": 3781, 
  "Singapore": 3782, 
  "la": 3783, 
  "forgotten": 3784, 
  "declaration": 3785, 
  "Serbian": 3786, 
  "consistently": 3787, 
  "DNA": 3788, 
  "Chairman": 3789, 
  "prior": 3790, 
  "periphery": 3791, 
  "passing": 3792, 
  "guide": 3793, 
  "ke@@": 3794, 
  "Annan": 3795, 
  "med": 3796, 
  "silence": 3797, 
  "explosion": 3798, 
  "Cyprus": 3799, 
  "hegemony": 3800, 
  "winners": 3801, 
  "experiencing": 3802, 
  "actively": 3803, 
  "ill-@@": 3804, 
  "houses": 3805, 
  "controlling": 3806, 
  "accomplished": 3807, 
  "dark": 3808, 
  "appreciate": 3809, 
  "People": 3810, 
  "innovative": 3811, 
  "roads": 3812, 
  "desperate": 3813, 
  "hor@@": 3814, 
  "quantitative": 3815, 
  "Gu@@": 3816, 
  "worthy": 3817, 
  "euro-zone": 3818, 
  "gen@@": 3819, 
  "removed": 3820, 
  "analysts": 3821, 
  "conf@@": 3822, 
  "ory": 3823, 
  "Justice": 3824, 
  "immense": 3825, 
  "territorial": 3826, 
  "_@@": 3827, 
  "ber": 3828, 
  "counter": 3829, 
  "worrying": 3830, 
  "deserve": 3831, 
  "features": 3832, 
  "refusal": 3833, 
  "lowering": 3834, 
  "waste": 3835, 
  "os": 3836, 
  "22": 3837, 
  "happiness": 3838, 
  "hard-@@": 3839, 
  "prosperous": 3840, 
  "rela@@": 3841, 
  "enhanced": 3842, 
  "wall": 3843, 
  "aged": 3844, 
  "ved": 3845, 
  "pollution": 3846, 
  "involves": 3847, 
  "Millennium": 3848, 
  "lacks": 3849, 
  "favorable": 3850, 
  "rooted": 3851, 
  "founded": 3852, 
  "coup": 3853, 
  "internet": 3854, 
  "unknown": 3855, 
  "ironically": 3856, 
  "trigger": 3857, 
  "obtain": 3858, 
  "situations": 3859, 
  "determination": 3860, 
  "shifted": 3861, 
  "traditionally": 3862, 
  "2012": 3863, 
  "student": 3864, 
  "anti@@": 3865, 
  "reduces": 3866, 
  "binding": 3867, 
  "izing": 3868, 
  "Gore": 3869, 
  "DC": 3870, 
  "night": 3871, 
  "Gaulle": 3872, 
  "perform": 3873, 
  "sw@@": 3874, 
  "Board": 3875, 
  "ping": 3876, 
  "al-Qaeda": 3877, 
  "pri@@": 3878, 
  "charged": 3879, 
  "stic": 3880, 
  "3.@@": 3881, 
  "gers": 3882, 
  "adverse": 3883, 
  "interventions": 3884, 
  "acknowledge": 3885, 
  "engine": 3886, 
  "NPT": 3887, 
  "explained": 3888, 
  "fication": 3889, 
  "sum": 3890, 
  "scene": 3891, 
  "theories": 3892, 
  "ce@@": 3893, 
  "ow@@": 3894, 
  "to-@@": 3895, 
  "recessions": 3896, 
  "second-@@": 3897, 
  "unacceptable": 3898, 
  "cross-border": 3899, 
  "Agency": 3900, 
  "owners": 3901, 
  "under-@@": 3902, 
  "distinct": 3903, 
  "damaging": 3904, 
  "confident": 3905, 
  "-year": 3906, 
  "finds": 3907, 
  "shes": 3908, 
  "prominent": 3909, 
  "purchasing": 3910, 
  "enting": 3911, 
  "ster": 3912, 
  "achievements": 3913, 
  "ana": 3914, 
  "balances": 3915, 
  "sight": 3916, 
  "bridge": 3917, 
  "entitled": 3918, 
  "skilled": 3919, 
  "multi@@": 3920, 
  "appointed": 3921, 
  "produces": 3922, 
  "halt": 3923, 
  "irrelevant": 3924, 
  "ess": 3925, 
  "EMU": 3926, 
  "tasks": 3927, 
  "respected": 3928, 
  "solved": 3929, 
  "speculation": 3930, 
  "post": 3931, 
  "differently": 3932, 
  "irrational": 3933, 
  "deposits": 3934, 
  "proof": 3935, 
  "destructive": 3936, 
  "contained": 3937, 
  "steel": 3938, 
  "ick@@": 3939, 
  "alliances": 3940, 
  "hour": 3941, 
  "cy": 3942, 
  "ori@@": 3943, 
  "periods": 3944, 
  "worries": 3945, 
  "followers": 3946, 
  "bloody": 3947, 
  "strange": 3948, 
  "stri@@": 3949, 
  "successes": 3950, 
  "ineffective": 3951, 
  "neighbor": 3952, 
  "af@@": 3953, 
  "magnitude": 3954, 
  "feared": 3955, 
  "sit": 3956, 
  "freedoms": 3957, 
  "beliefs": 3958, 
  "follows": 3959, 
  "ure": 3960, 
  "ung": 3961, 
  "embraced": 3962, 
  "sadly": 3963, 
  "eliminating": 3964, 
  "ing-@@": 3965, 
  "arise": 3966, 
  "borrowers": 3967, 
  "fu@@": 3968, 
  "Southeast": 3969, 
  "explicit": 3970, 
  "promoted": 3971, 
  "illness": 3972, 
  "intention": 3973, 
  "poses": 3974, 
  "euros": 3975, 
  "profitable": 3976, 
  "obstacle": 3977, 
  "discussed": 3978, 
  "near-@@": 3979, 
  "withdraw": 3980, 
  "condemned": 3981, 
  "eliminated": 3982, 
  "tre@@": 3983, 
  "girls": 3984, 
  "oriented": 3985, 
  "4.@@": 3986, 
  "hot": 3987, 
  "stra@@": 3988, 
  "Chechnya": 3989, 
  "watch": 3990, 
  "20@@": 3991, 
  "map": 3992, 
  "outlook": 3993, 
  "gar@@": 3994, 
  "struck": 3995, 
  "strikes": 3996, 
  "looming": 3997, 
  "disputes": 3998, 
  "Ex@@": 3999, 
  "vicious": 4000, 
  "everybody": 4001, 
  "introduce": 4002, 
  "WWII": 4003, 
  "Constitutional": 4004, 
  "ep@@": 4005, 
  "bid": 4006, 
  "motivated": 4007, 
  "maybe": 4008, 
  "virtual": 4009, 
  "disasters": 4010, 
  "tered": 4011, 
  "judicial": 4012, 
  "2020": 4013, 
  "rever@@": 4014, 
  "zes": 4015, 
  "shaped": 4016, 
  "representing": 4017, 
  "terrible": 4018, 
  "competing": 4019, 
  "interpretation": 4020, 
  "om": 4021, 
  "philosophy": 4022, 
  "fold": 4023, 
  "tly": 4024, 
  "mobilize": 4025, 
  "soci@@": 4026, 
  "mounting": 4027, 
  "Zimbabwe": 4028, 
  "Keynesian": 4029, 
  "memories": 4030, 
  "acted": 4031, 
  "morality": 4032, 
  "private-sector": 4033, 
  "severely": 4034, 
  "undermining": 4035, 
  "ton": 4036, 
  "shadow": 4037, 
  "psychological": 4038, 
  "persuade": 4039, 
  "generals": 4040, 
  "operating": 4041, 
  "Convention": 4042, 
  "blow": 4043, 
  "1.@@": 4044, 
  "Chávez": 4045, 
  "typical": 4046, 
  "safer": 4047, 
  "Schröder": 4048, 
  "spreading": 4049, 
  "experiment": 4050, 
  "courage": 4051, 
  "watching": 4052, 
  "fix": 4053, 
  "gene": 4054, 
  "nine": 4055, 
  "def@@": 4056, 
  "ily": 4057, 
  "postcommunist": 4058, 
  "1967": 4059, 
  "parallel": 4060, 
  "receiving": 4061, 
  "losers": 4062, 
  "Angela": 4063, 
  "governed": 4064, 
  "tur@@": 4065, 
  "multiple": 4066, 
  "male": 4067, 
  "ex-@@": 4068, 
  "coherent": 4069, 
  "uranium": 4070, 
  "facto": 4071, 
  "ots": 4072, 
  "enrichment": 4073, 
  "deterrence": 4074, 
  "freely": 4075, 
  "ise": 4076, 
  "free-market": 4077, 
  "controversial": 4078, 
  "method": 4079, 
  "indicate": 4080, 
  "grows": 4081, 
  "foster": 4082, 
  "League": 4083, 
  "edge": 4084, 
  "fine": 4085, 
  "ined": 4086, 
  "troubled": 4087, 
  "17@@": 4088, 
  "dozens": 4089, 
  "dioxide": 4090, 
  "morally": 4091, 
  "racial": 4092, 
  "targeting": 4093, 
  "enjoyed": 4094, 
  "telling": 4095, 
  "likelihood": 4096, 
  "predictable": 4097, 
  "connection": 4098, 
  "reversed": 4099, 
  "shifts": 4100, 
  "beings": 4101, 
  "subjects": 4102, 
  "pragmatic": 4103, 
  "in-@@": 4104, 
  "assess": 4105, 
  "extensive": 4106, 
  "150": 4107, 
  "waves": 4108, 
  "veto": 4109, 
  "hatred": 4110, 
  "Netanyahu": 4111, 
  "oc@@": 4112, 
  "purchases": 4113, 
  "stabilizing": 4114, 
  "foreseeable": 4115, 
  "decent": 4116, 
  "convincing": 4117, 
  "sudden": 4118, 
  "schemes": 4119, 
  "soaring": 4120, 
  "mother": 4121, 
  "pays": 4122, 
  "challenging": 4123, 
  "involving": 4124, 
  "dynamism": 4125, 
  "specifically": 4126, 
  "Su@@": 4127, 
  "minor": 4128, 
  "ple@@": 4129, 
  "ff": 4130, 
  "unpopular": 4131, 
  "plus": 4132, 
  "Indians": 4133, 
  "voluntary": 4134, 
  "id": 4135, 
  "feelings": 4136, 
  "stakes": 4137, 
  "liabilities": 4138, 
  "regularly": 4139, 
  "Microsoft": 4140, 
  "innovations": 4141, 
  "demonstrates": 4142, 
  "Royal": 4143, 
  "deepening": 4144, 
  "chairman": 4145, 
  "prolonged": 4146, 
  "ratings": 4147, 
  "knowing": 4148, 
  "begins": 4149, 
  "striking": 4150, 
  "vis-à-vis": 4151, 
  "visited": 4152, 
  "pur@@": 4153, 
  "lowest": 4154, 
  "cer@@": 4155, 
  "Colombia": 4156, 
  "0-@@": 4157, 
  "Ma@@": 4158, 
  "Iranians": 4159, 
  "competitors": 4160, 
  "solely": 4161, 
  "employed": 4162, 
  "resolving": 4163, 
  "release": 4164, 
  "8@@": 4165, 
  "entering": 4166, 
  "her@@": 4167, 
  "excluded": 4168, 
  "shifting": 4169, 
  "o-@@": 4170, 
  "missing": 4171, 
  "Department": 4172, 
  "high-tech": 4173, 
  "feed": 4174, 
  "explicitly": 4175, 
  "wise": 4176, 
  "negotiation": 4177, 
  "burdens": 4178, 
  "testing": 4179, 
  "friend": 4180, 
  "Mikhail": 4181, 
  "ological": 4182, 
  "exposure": 4183, 
  "sole": 4184, 
  "half-century": 4185, 
  "generating": 4186, 
  "denied": 4187, 
  "qualified": 4188, 
  "exceed": 4189, 
  "background": 4190, 
  "Abdullah": 4191, 
  "skepticism": 4192, 
  "Cup": 4193, 
  "foremost": 4194, 
  "orders": 4195, 
  "principal": 4196, 
  "extending": 4197, 
  "suspicion": 4198, 
  "spoke": 4199, 
  "Switzerland": 4200, 
  "secondary": 4201, 
  "unnecessary": 4202, 
  "cope": 4203, 
  "une@@": 4204, 
  "Israeli-Palestinian": 4205, 
  "IPCC": 4206, 
  "Yushchenko": 4207, 
  "ving": 4208, 
  "Ghana": 4209, 
  "starts": 4210, 
  "keeps": 4211, 
  "tion-@@": 4212, 
  "dynamics": 4213, 
  "remarkably": 4214, 
  "Labour": 4215, 
  "secured": 4216, 
  "drawing": 4217, 
  "cal@@": 4218, 
  "witnessed": 4219, 
  "gs": 4220, 
  "off@@": 4221, 
  "criminals": 4222, 
  "scarce": 4223, 
  "clash": 4224, 
  "Socialist": 4225, 
  "techniques": 4226, 
  "fairness": 4227, 
  "bol@@": 4228, 
  "supervision": 4229, 
  "emotional": 4230, 
  "representation": 4231, 
  "ash@@": 4232, 
  "Le@@": 4233, 
  "mortality": 4234, 
  "meltdown": 4235, 
  "chain": 4236, 
  "recognizes": 4237, 
  "marginal": 4238, 
  "ens": 4239, 
  "vulnerability": 4240, 
  "fying": 4241, 
  "bel@@": 4242, 
  "contributing": 4243, 
  "Caucasus": 4244, 
  "undertaken": 4245, 
  "un": 4246, 
  "bombs": 4247, 
  "error": 4248, 
  "indigenous": 4249, 
  "hurt": 4250, 
  "prevention": 4251, 
  "suspect": 4252, 
  "professor": 4253, 
  "compelling": 4254, 
  "buildings": 4255, 
  "cies": 4256, 
  "lawyers": 4257, 
  "demise": 4258, 
  "makers": 4259, 
  "citizenship": 4260, 
  "Chile": 4261, 
  "intentions": 4262, 
  "seat": 4263, 
  "signals": 4264, 
  "legislative": 4265, 
  "code": 4266, 
  "assumption": 4267, 
  "revive": 4268, 
  "dictator": 4269, 
  "bet": 4270, 
  "distributed": 4271, 
  "ck@@": 4272, 
  "fashion": 4273, 
  "considering": 4274, 
  "weaknesses": 4275, 
  "reinforced": 4276, 
  "oligarchs": 4277, 
  "sto@@": 4278, 
  "documents": 4279, 
  "commission": 4280, 
  "prevailing": 4281, 
  "physics": 4282, 
  "index": 4283, 
  "resentment": 4284, 
  "slower": 4285, 
  "guard": 4286, 
  "can@@": 4287, 
  "lenders": 4288, 
  "holders": 4289, 
  "ships": 4290, 
  "dying": 4291, 
  "dropped": 4292, 
  "undertake": 4293, 
  "accepting": 4294, 
  "ratios": 4295, 
  "villages": 4296, 
  "sake": 4297, 
  "fill": 4298, 
  "relationships": 4299, 
  "imported": 4300, 
  "tation": 4301, 
  "globalized": 4302, 
  "sport": 4303, 
  "pres@@": 4304, 
  "integrate": 4305, 
  "trained": 4306, 
  "architecture": 4307, 
  "restoring": 4308, 
  "broke": 4309, 
  "purchase": 4310, 
  "shot": 4311, 
  "consideration": 4312, 
  "well-being": 4313, 
  "Friedman": 4314, 
  "ming": 4315, 
  "and@@": 4316, 
  "uni@@": 4317, 
  "criticized": 4318, 
  "bought": 4319, 
  "shi@@": 4320, 
  "bias": 4321, 
  "medium": 4322, 
  "Growth": 4323, 
  "ly-@@": 4324, 
  "Charter": 4325, 
  "destroying": 4326, 
  "boosting": 4327, 
  "Communists": 4328, 
  "describe": 4329, 
  "risen": 4330, 
  "progressive": 4331, 
  "younger": 4332, 
  "article": 4333, 
  "denial": 4334, 
  "exporters": 4335, 
  "hostility": 4336, 
  "Chechen": 4337, 
  "que": 4338, 
  "assuming": 4339, 
  "Center": 4340, 
  "disappear": 4341, 
  "weather": 4342, 
  "mood": 4343, 
  "iled": 4344, 
  "tissue": 4345, 
  "fre@@": 4346, 
  "essence": 4347, 
  "awareness": 4348, 
  "consent": 4349, 
  "packages": 4350, 
  "arrangement": 4351, 
  "DPJ": 4352, 
  "perfectly": 4353, 
  "chronic": 4354, 
  "Prize": 4355, 
  "teams": 4356, 
  "conclude": 4357, 
  "Consensus": 4358, 
  "temperatures": 4359, 
  "1.5": 4360, 
  "firmly": 4361, 
  "AKP": 4362, 
  "formation": 4363, 
  "Trichet": 4364, 
  "feature": 4365, 
  "online": 4366, 
  "repeat": 4367, 
  "Bulgaria": 4368, 
  "storm": 4369, 
  "accurate": 4370, 
  "eding": 4371, 
  "midst": 4372, 
  "exploit": 4373, 
  "1993": 4374, 
  "surprised": 4375, 
  "bro@@": 4376, 
  "distance": 4377, 
  "treaties": 4378, 
  "behave": 4379, 
  "check": 4380, 
  "debt-@@": 4381, 
  "Schroeder": 4382, 
  "Moldova": 4383, 
  "grasp": 4384, 
  "er-@@": 4385, 
  "calculations": 4386, 
  "fired": 4387, 
  "cohesion": 4388, 
  "east": 4389, 
  "misguided": 4390, 
  "gross": 4391, 
  "confirmed": 4392, 
  "pr@@": 4393, 
  "accomplish": 4394, 
  "tension": 4395, 
  "23": 4396, 
  "skeptics": 4397, 
  "Abu": 4398, 
  "City": 4399, 
  "desperately": 4400, 
  "quest": 4401, 
  "Institute": 4402, 
  "parliaments": 4403, 
  "permit": 4404, 
  "names": 4405, 
  "prevail": 4406, 
  "outsiders": 4407, 
  "Hu": 4408, 
  "aring": 4409, 
  "details": 4410, 
  "bing": 4411, 
  "ty-@@": 4412, 
  "dire": 4413, 
  "temperature": 4414, 
  "ening": 4415, 
  "Georgian": 4416, 
  "persistent": 4417, 
  "poorly": 4418, 
  "bur@@": 4419, 
  "stuck": 4420, 
  "government-@@": 4421, 
  "Pacific": 4422, 
  "volume": 4423, 
  "sively": 4424, 
  "propose": 4425, 
  "flawed": 4426, 
  "island": 4427, 
  "budgetary": 4428, 
  "overnight": 4429, 
  "emb@@": 4430, 
  "blind": 4431, 
  "confined": 4432, 
  "officially": 4433, 
  "earthquake": 4434, 
  "reformers": 4435, 
  "Kuchma": 4436, 
  "fraction": 4437, 
  "liberalism": 4438, 
  "ra": 4439, 
  "Kurds": 4440, 
  "ach@@": 4441, 
  "Ukrainians": 4442, 
  "fulfill": 4443, 
  "tionally": 4444, 
  "FDI": 4445, 
  "absent": 4446, 
  "stick": 4447, 
  "wards": 4448, 
  "recall": 4449, 
  "declare": 4450, 
  "duty": 4451, 
  "complexity": 4452, 
  "favored": 4453, 
  "Government": 4454, 
  "-led": 4455, 
  "constrained": 4456, 
  "occurs": 4457, 
  "survived": 4458, 
  "Solidarity": 4459, 
  "mess": 4460, 
  "regulated": 4461, 
  "struggling": 4462, 
  "Maastricht": 4463, 
  "breakthrough": 4464, 
  "alongside": 4465, 
  "bitter": 4466, 
  "understands": 4467, 
  "agents": 4468, 
  "compare": 4469, 
  "bla@@": 4470, 
  "existed": 4471, 
  "content": 4472, 
  "Havel": 4473, 
  "biology": 4474, 
  "eager": 4475, 
  "taught": 4476, 
  "adoption": 4477, 
  "enforce": 4478, 
  "countless": 4479, 
  "ti": 4480, 
  "captured": 4481, 
  "engineers": 4482, 
  "combine": 4483, 
  "Alan": 4484, 
  "defeated": 4485, 
  "fraud": 4486, 
  "cooperate": 4487, 
  "displaced": 4488, 
  "odds": 4489, 
  "adding": 4490, 
  "pu@@": 4491, 
  "ethics": 4492, 
  "Hague": 4493, 
  "restored": 4494, 
  "Sunnis": 4495, 
  "-and-@@": 4496, 
  "Health": 4497, 
  "silent": 4498, 
  "redistribution": 4499, 
  "2050": 4500, 
  "beneficial": 4501, 
  "sports": 4502, 
  "grade": 4503, 
  "hospital": 4504, 
  "sel@@": 4505, 
  "istic": 4506, 
  "constantly": 4507, 
  "commentators": 4508, 
  "ire": 4509, 
  "eventual": 4510, 
  "insurgency": 4511, 
  "fundamentalism": 4512, 
  "tells": 4513, 
  "harsh": 4514, 
  "enabling": 4515, 
  "performed": 4516, 
  "E": 4517, 
  "F": 4518, 
  "units": 4519, 
  "director": 4520, 
  "residents": 4521, 
  "ss@@": 4522, 
  "thinks": 4523, 
  "pricing": 4524, 
  "radicals": 4525, 
  "homeowners": 4526, 
  "superior": 4527, 
  "returning": 4528, 
  "Kurdish": 4529, 
  "projected": 4530, 
  "bloc": 4531, 
  "populism": 4532, 
  "Duma": 4533, 
  "film": 4534, 
  "traders": 4535, 
  "far-reaching": 4536, 
  "Agreement": 4537, 
  "ay": 4538, 
  "poll": 4539, 
  "document": 4540, 
  "una@@": 4541, 
  "closing": 4542, 
  "boundaries": 4543, 
  "precedent": 4544, 
  "ward": 4545, 
  "-LSB-": 4546, 
  "-RSB-": 4547, 
  "se-@@": 4548, 
  "yed": 4549, 
  "neglect": 4550, 
  "ina": 4551, 
  "ok": 4552, 
  "disorder": 4553, 
  "cooperative": 4554, 
  "As": 4555, 
  "ement": 4556, 
  "altogether": 4557, 
  "provisions": 4558, 
  "judiciary": 4559, 
  "spreads": 4560, 
  "scenarios": 4561, 
  "misleading": 4562, 
  "X@@": 4563, 
  "Harvard": 4564, 
  "cast": 4565, 
  "totalitarian": 4566, 
  "govern": 4567, 
  "cks": 4568, 
  "undermines": 4569, 
  "lessness": 4570, 
  "regain": 4571, 
  "tical": 4572, 
  "surrounding": 4573, 
  "Khodorkovsky": 4574, 
  "constructive": 4575, 
  "nets": 4576, 
  "devoted": 4577, 
  "town": 4578, 
  "crop": 4579, 
  "nation@@": 4580, 
  "citizen": 4581, 
  "defining": 4582, 
  "é": 4583, 
  "warfare": 4584, 
  "Assad": 4585, 
  "offensive": 4586, 
  "anticipated": 4587, 
  "professionals": 4588, 
  "entrenched": 4589, 
  "ger": 4590, 
  "TB": 4591, 
  "counter-@@": 4592, 
  "player": 4593, 
  "optimistic": 4594, 
  "emission": 4595, 
  "namely": 4596, 
  "non@@": 4597, 
  "ines": 4598, 
  "worker": 4599, 
  "ud@@": 4600, 
  "parity": 4601, 
  "train": 4602, 
  "inclusion": 4603, 
  "Bi@@": 4604, 
  "totally": 4605, 
  "informal": 4606, 
  "democrats": 4607, 
  "trip": 4608, 
  "Qaddafi": 4609, 
  "determining": 4610, 
  "GNP": 4611, 
  "ay@@": 4612, 
  "loan": 4613, 
  "mil@@": 4614, 
  "iness": 4615, 
  "constitutes": 4616, 
  "vested": 4617, 
  "symbol": 4618, 
  "classic": 4619, 
  "epidemic": 4620, 
  "revival": 4621, 
  "rigid": 4622, 
  "dubious": 4623, 
  "vacuum": 4624, 
  "loyalty": 4625, 
  "paradox": 4626, 
  "LDP": 4627, 
  "guilty": 4628, 
  "defen@@": 4629, 
  "atory": 4630, 
  "blo@@": 4631, 
  "hon@@": 4632, 
  "nu@@": 4633, 
  "assist": 4634, 
  "sav@@": 4635, 
  "pal@@": 4636, 
  "frustration": 4637, 
  "Africans": 4638, 
  "wn": 4639, 
  "catch": 4640, 
  "Community": 4641, 
  "reinforce": 4642, 
  "Norway": 4643, 
  "Prague": 4644, 
  "sounds": 4645, 
  "investor": 4646, 
  "peacekeeping": 4647, 
  "pra@@": 4648, 
  "Yanukovich": 4649, 
  "re-election": 4650, 
  "partial": 4651, 
  "speci@@": 4652, 
  "Gates": 4653, 
  "post-war": 4654, 
  "ov": 4655, 
  "campaigns": 4656, 
  "versus": 4657, 
  "5.@@": 4658, 
  "Deng": 4659, 
  "underground": 4660, 
  "implicit": 4661, 
  "mentioned": 4662, 
  "gri@@": 4663, 
  "enduring": 4664, 
  "pick": 4665, 
  "three-@@": 4666, 
  "anxiety": 4667, 
  "sion@@": 4668, 
  "le-@@": 4669, 
  "behalf": 4670, 
  "plenty": 4671, 
  "bal@@": 4672, 
  "contagion": 4673, 
  "choosing": 4674, 
  "aling": 4675, 
  "Thailand": 4676, 
  "justification": 4677, 
  "compensate": 4678, 
  "advocate": 4679, 
  "ath": 4680, 
  "relied": 4681, 
  "Chernobyl": 4682, 
  "by@@": 4683, 
  "rebuild": 4684, 
  "hazard": 4685, 
  "unified": 4686, 
  "adjustments": 4687, 
  "soared": 4688, 
  "channels": 4689, 
  "ballot": 4690, 
  "dealt": 4691, 
  "adaptation": 4692, 
  "laid": 4693, 
  "26": 4694, 
  "manipulation": 4695, 
  "iting": 4696, 
  "lacking": 4697, 
  "Olmert": 4698, 
  "pull": 4699, 
  "hospitals": 4700, 
  "anywhere": 4701, 
  "15@@": 4702, 
  "bearing": 4703, 
  "ear@@": 4704, 
  "factions": 4705, 
  "bargain": 4706, 
  "ideals": 4707, 
  "vehicles": 4708, 
  "practically": 4709, 
  "inaction": 4710, 
  "liquid": 4711, 
  "automatically": 4712, 
  "mix": 4713, 
  "globe": 4714, 
  "succession": 4715, 
  "connections": 4716, 
  "lan@@": 4717, 
  "retail": 4718, 
  "suppose": 4719, 
  "seize": 4720, 
  "ize": 4721, 
  "deemed": 4722, 
  "Ukrainian": 4723, 
  "disappeared": 4724, 
  "therapy": 4725, 
  "cautious": 4726, 
  "separation": 4727, 
  "locked": 4728, 
  "br@@": 4729, 
  "introduction": 4730, 
  "implied": 4731, 
  "ong@@": 4732, 
  "request": 4733, 
  "automatic": 4734, 
  "diminished": 4735, 
  "brief": 4736, 
  "extremist": 4737, 
  "reactions": 4738, 
  "concessions": 4739, 
  "nationalists": 4740, 
  "inter-@@": 4741, 
  "pipeline": 4742, 
  "sentiments": 4743, 
  "tragic": 4744, 
  "satisfied": 4745, 
  "portfolio": 4746, 
  "skeptical": 4747, 
  "requiring": 4748, 
  "acknowledged": 4749, 
  "Charles": 4750, 
  "Nixon": 4751, 
  "forest": 4752, 
  "foot@@": 4753, 
  "named": 4754, 
  "fil@@": 4755, 
  "10@@": 4756, 
  "poised": 4757, 
  "construct": 4758, 
  "expert": 4759, 
  "wishes": 4760, 
  "rampant": 4761, 
  "vastly": 4762, 
  "insecurity": 4763, 
  "filled": 4764, 
  "obligation": 4765, 
  "recovered": 4766, 
  "fra@@": 4767, 
  "preparing": 4768, 
  "regulate": 4769, 
  "characterized": 4770, 
  "Richard": 4771, 
  "pas@@": 4772, 
  "timing": 4773, 
  "arrived": 4774, 
  "reporting": 4775, 
  "doubled": 4776, 
  "absorb": 4777, 
  "characteristics": 4778, 
  "conviction": 4779, 
  "fertility": 4780, 
  "camps": 4781, 
  "formula": 4782, 
  "civilized": 4783, 
  "arises": 4784, 
  "Sa@@": 4785, 
  "enthusiasm": 4786, 
  "promotion": 4787, 
  "bility": 4788, 
  "studied": 4789, 
  "exclusively": 4790, 
  "originally": 4791, 
  "Forum": 4792, 
  "backlash": 4793, 
  "temptation": 4794, 
  "dimension": 4795, 
  "breakdown": 4796, 
  "split": 4797, 
  "Earth": 4798, 
  "intent": 4799, 
  "1,000": 4800, 
  "air@@": 4801, 
  "evolutionary": 4802, 
  "ist": 4803, 
  "illusion": 4804, 
  "performing": 4805, 
  "barrel": 4806, 
  "21": 4807, 
  "im": 4808, 
  "ast@@": 4809, 
  "affects": 4810, 
  "counterparts": 4811, 
  "disp@@": 4812, 
  "confronting": 4813, 
  "novel": 4814, 
  "findings": 4815, 
  "steady": 4816, 
  "crops": 4817, 
  "piece": 4818, 
  "phrase": 4819, 
  "patent": 4820, 
  "por@@": 4821, 
  "Warsaw": 4822, 
  "unite": 4823, 
  "conservation": 4824, 
  "stems": 4825, 
  "accident": 4826, 
  "proclaimed": 4827, 
  "Act": 4828, 
  "health-care": 4829, 
  "note": 4830, 
  "clu@@": 4831, 
  "minimal": 4832, 
  "first-@@": 4833, 
  "unit": 4834, 
  "trap": 4835, 
  "raw": 4836, 
  "exceptions": 4837, 
  "What": 4838, 
  "und@@": 4839, 
  "radically": 4840, 
  "balancing": 4841, 
  "sli@@": 4842, 
  "burning": 4843, 
  "sending": 4844, 
  "steadily": 4845, 
  "ordered": 4846, 
  "box": 4847, 
  "bears": 4848, 
  "welcomed": 4849, 
  "0@@": 4850, 
  "resistant": 4851, 
  "meantime": 4852, 
  "feasible": 4853, 
  "indicates": 4854, 
  "Shanghai": 4855, 
  "arguably": 4856, 
  "fed": 4857, 
  "He@@": 4858, 
  "winner": 4859, 
  "solving": 4860, 
  "transnational": 4861, 
  "strongest": 4862, 
  "dismissed": 4863, 
  "logical": 4864, 
  "Lehman": 4865, 
  "upper": 4866, 
  "salaries": 4867, 
  "substitute": 4868, 
  "wife": 4869, 
  "bonuses": 4870, 
  "protesters": 4871, 
  "gases": 4872, 
  "containment": 4873, 
  "settle": 4874, 
  "tightening": 4875, 
  "deliberately": 4876, 
  "violations": 4877, 
  "checks": 4878, 
  "sad": 4879, 
  "spends": 4880, 
  "brink": 4881, 
  "restricted": 4882, 
  "Brothers": 4883, 
  "west": 4884, 
  "bri@@": 4885, 
  "entity": 4886, 
  "wel@@": 4887, 
  "bondholders": 4888, 
  "cited": 4889, 
  "remove": 4890, 
  "PLO": 4891, 
  "experiments": 4892, 
  "semi-@@": 4893, 
  "tou@@": 4894, 
  "systematic": 4895, 
  "dra@@": 4896, 
  "facilitate": 4897, 
  "burst": 4898, 
  "moderates": 4899, 
  "impression": 4900, 
  "proud": 4901, 
  "destabilizing": 4902, 
  "clo@@": 4903, 
  "199@@": 4904, 
  "career": 4905, 
  "cabinet": 4906, 
  "discourse": 4907, 
  "famously": 4908, 
  "counts": 4909, 
  "station": 4910, 
  "ours": 4911, 
  "centralized": 4912, 
  "object": 4913, 
  "unification": 4914, 
  "od": 4915, 
  "ani": 4916, 
  "Conference": 4917, 
  "preferred": 4918, 
  "downside": 4919, 
  "This": 4920, 
  "�": 4921, 
  "head@@": 4922, 
  "KGB": 4923, 
  "electronic": 4924, 
  "2.@@": 4925, 
  "shaping": 4926, 
  "extension": 4927, 
  "pping": 4928, 
  "ration": 4929, 
  "th-@@": 4930, 
  "antly": 4931, 
  "ong": 4932, 
  "exclusion": 4933, 
  "alleged": 4934, 
  "lim@@": 4935, 
  "games": 4936, 
  "lender": 4937, 
  "Geneva": 4938, 
  "5-@@": 4939, 
  "reading": 4940, 
  "Group": 4941, 
  "believing": 4942, 
  "ranging": 4943, 
  "decrease": 4944, 
  "heading": 4945, 
  "bosses": 4946, 
  "Mon@@": 4947, 
  "reward": 4948, 
  "forth": 4949, 
  "ball": 4950, 
  "16@@": 4951, 
  "Estonia": 4952, 
  "allocation": 4953, 
  "empty": 4954, 
  "Chicago": 4955, 
  "insisted": 4956, 
  "motives": 4957, 
  "overly": 4958, 
  "ind@@": 4959, 
  "gre@@": 4960, 
  "relies": 4961, 
  "tolerate": 4962, 
  "attempting": 4963, 
  "ak@@": 4964, 
  "concentration": 4965, 
  "pact": 4966, 
  "talent": 4967, 
  "conclusions": 4968, 
  "shortage": 4969, 
  "consolidate": 4970, 
  "spectacular": 4971, 
  "all-@@": 4972, 
  "teachers": 4973, 
  "ads": 4974, 
  "Kuwait": 4975, 
  "tanks": 4976, 
  "suffers": 4977, 
  "identities": 4978, 
  "intensive": 4979, 
  "aw@@": 4980, 
  "shut": 4981, 
  "sal@@": 4982, 
  "responding": 4983, 
  "application": 4984, 
  "Thatcher": 4985, 
  "ity-@@": 4986, 
  "ref@@": 4987, 
  "formidable": 4988, 
  "Climate": 4989, 
  "For@@": 4990, 
  "sy": 4991, 
  "coupled": 4992, 
  "oned": 4993, 
  "ya": 4994, 
  "industrialized": 4995, 
  "satisfy": 4996, 
  "reasonably": 4997, 
  "tomorrow": 4998, 
  "tariff": 4999, 
  "Me@@": 5000, 
  "Shiite": 5001, 
  "real-estate": 5002, 
  "route": 5003, 
  "Princeton": 5004, 
  "Latvia": 5005, 
  "Article": 5006, 
  "Socialists": 5007, 
  "chi@@": 5008, 
  "initiated": 5009, 
  "readily": 5010, 
  "liberation": 5011, 
  "gh": 5012, 
  "reflecting": 5013, 
  "distinction": 5014, 
  "contains": 5015, 
  "eat": 5016, 
  "afraid": 5017, 
  "tures": 5018, 
  "leg@@": 5019, 
  "ver": 5020, 
  "reforming": 5021, 
  "dictators": 5022, 
  "cle@@": 5023, 
  "healthcare": 5024, 
  "ment@@": 5025, 
  "neighborhood": 5026, 
  "buyers": 5027, 
  "gal@@": 5028, 
  "tro@@": 5029, 
  "soccer": 5030, 
  "broad@@": 5031, 
  "north": 5032, 
  "origin": 5033, 
  "uring": 5034, 
  "premium": 5035, 
  "Governing": 5036, 
  "monitor": 5037, 
  "founding": 5038, 
  "tries": 5039, 
  "excuse": 5040, 
  "Rumsfeld": 5041, 
  "forge": 5042, 
  "inherently": 5043, 
  "freeze": 5044, 
  "path@@": 5045, 
  "Rwanda": 5046, 
  "tended": 5047, 
  "province": 5048, 
  "6.@@": 5049, 
  "accelerate": 5050, 
  "settlers": 5051, 
  "tremendous": 5052, 
  "despair": 5053, 
  "assassination": 5054, 
  "irresponsible": 5055, 
  "react": 5056, 
  "Tibet": 5057, 
  "ranks": 5058, 
  "with@@": 5059, 
  "squ@@": 5060, 
  "civilizations": 5061, 
  "collabor@@": 5062, 
  "pure": 5063, 
  "ta": 5064, 
  "ft": 5065, 
  "listen": 5066, 
  "pledged": 5067, 
  "blocked": 5068, 
  "fer@@": 5069, 
  "challenged": 5070, 
  "assumptions": 5071, 
  "overseas": 5072, 
  "ast": 5073, 
  "shor@@": 5074, 
  "bust": 5075, 
  "spoken": 5076, 
  "sectarian": 5077, 
  "ah": 5078, 
  "bases": 5079, 
  "tempted": 5080, 
  "symbols": 5081, 
  "Roosevelt": 5082, 
  "Initiative": 5083, 
  "judged": 5084, 
  "affair": 5085, 
  "preserving": 5086, 
  "margin": 5087, 
  "electric": 5088, 
  "nuclear-@@": 5089, 
  "organize": 5090, 
  "sses": 5091, 
  "postwar": 5092, 
  "abandoning": 5093, 
  "wed": 5094, 
  "tide": 5095, 
  "bills": 5096, 
  "strict": 5097, 
  "distress": 5098, 
  "acquire": 5099, 
  "moon": 5100, 
  "possibilities": 5101, 
  "reference": 5102, 
  "Southern": 5103, 
  "humiliation": 5104, 
  "tioning": 5105, 
  "induced": 5106, 
  "statistical": 5107, 
  "tight": 5108, 
  "Mal@@": 5109, 
  "ker": 5110, 
  "scandals": 5111, 
  "forecast": 5112, 
  "customs": 5113, 
  "motion": 5114, 
  "foreign-exchange": 5115, 
  "Boris": 5116, 
  "Declaration": 5117, 
  "indirect": 5118, 
  "catastrophic": 5119, 
  "gging": 5120, 
  "card": 5121, 
  "admission": 5122, 
  "notice": 5123, 
  "dan@@": 5124, 
  "emerges": 5125, 
  "paradoxically": 5126, 
  "Orange": 5127, 
  "20th": 5128, 
  "miracle": 5129, 
  "ish": 5130, 
  "complain": 5131, 
  "investigation": 5132, 
  "Ronald": 5133, 
  "bail": 5134, 
  "carbon-@@": 5135, 
  "Pro@@": 5136, 
  "hom@@": 5137, 
  "association": 5138, 
  "multilateralism": 5139, 
  "persist": 5140, 
  "outright": 5141, 
  "revived": 5142, 
  "clinical": 5143, 
  "approaching": 5144, 
  "Swedish": 5145, 
  "interim": 5146, 
  "roles": 5147, 
  "equilibrium": 5148, 
  "helpful": 5149, 
  "approximately": 5150, 
  "discredited": 5151, 
  "invited": 5152, 
  "enti@@": 5153, 
  "Koreans": 5154, 
  "predecessor": 5155, 
  "continental": 5156, 
  "wild": 5157, 
  "origins": 5158, 
  "ie": 5159, 
  "endorsed": 5160, 
  "log@@": 5161, 
  "historians": 5162, 
  "slowing": 5163, 
  "1980s": 5164, 
  "suit": 5165, 
  "hur@@": 5166, 
  "notable": 5167, 
  "acquired": 5168, 
  "businessmen": 5169, 
  "decisively": 5170, 
  "IAEA": 5171, 
  "carrying": 5172, 
  "sheer": 5173, 
  "excellent": 5174, 
  "farming": 5175, 
  "concepts": 5176, 
  "Orthodox": 5177, 
  "self-interest": 5178, 
  "booming": 5179, 
  "disparities": 5180, 
  "assured": 5181, 
  "diplomats": 5182, 
  "scientist": 5183, 
  "assumes": 5184, 
  "percent": 5185, 
  "letting": 5186, 
  "Nor@@": 5187, 
  "differ": 5188, 
  "conscious": 5189, 
  "bargaining": 5190, 
  "engaging": 5191, 
  "tw@@": 5192, 
  "frequent": 5193, 
  "coverage": 5194, 
  "symbolic": 5195, 
  "upward": 5196, 
  "aggression": 5197, 
  "traffic": 5198, 
  "ham@@": 5199, 
  "opposing": 5200, 
  "sponsored": 5201, 
  "Chief": 5202, 
  "dr@@": 5203, 
  "attempted": 5204, 
  "deserves": 5205, 
  "prudent": 5206, 
  "sted": 5207, 
  "location": 5208, 
  "myth": 5209, 
  "witness": 5210, 
  "Cairo": 5211, 
  "civic": 5212, 
  "Round": 5213, 
  "artificial": 5214, 
  "Strip": 5215, 
  "ass@@": 5216, 
  "stre@@": 5217, 
  "relying": 5218, 
  "broadly": 5219, 
  "capability": 5220, 
  "overwhelmingly": 5221, 
  "bankrupt": 5222, 
  "cing": 5223, 
  "Labor": 5224, 
  "harmful": 5225, 
  "exchanges": 5226, 
  "work@@": 5227, 
  "restraint": 5228, 
  "minimize": 5229, 
  "tested": 5230, 
  "communists": 5231, 
  "disturbing": 5232, 
  "invented": 5233, 
  "likes": 5234, 
  "exporting": 5235, 
  "religions": 5236, 
  "teaching": 5237, 
  "mothers": 5238, 
  "chemical": 5239, 
  "enacted": 5240, 
  "emotions": 5241, 
  "Khamenei": 5242, 
  "massacre": 5243, 
  "exaggerated": 5244, 
  "St@@": 5245, 
  "sub-@@": 5246, 
  "formally": 5247, 
  "unpredictable": 5248, 
  "Mugabe": 5249, 
  "tan@@": 5250, 
  "Somalia": 5251, 
  "printing": 5252, 
  "Law": 5253, 
  "analogy": 5254, 
  "music": 5255, 
  "hide": 5256, 
  "dreams": 5257, 
  "wary": 5258, 
  "battles": 5259, 
  "entities": 5260, 
  "incapable": 5261, 
  "8.@@": 5262, 
  "mus@@": 5263, 
  "Algeria": 5264, 
  "-to-@@": 5265, 
  "besides": 5266, 
  "Osama": 5267, 
  "Spring": 5268, 
  "ills": 5269, 
  "Lula": 5270, 
  "occasion": 5271, 
  "earned": 5272, 
  "pointing": 5273, 
  "public-@@": 5274, 
  "resisted": 5275, 
  "Nice": 5276, 
  "`": 5277, 
  "sters": 5278, 
  "life-@@": 5279, 
  "equipped": 5280, 
  "pay@@": 5281, 
  "cho@@": 5282, 
  "calm": 5283, 
  "booms": 5284, 
  "fifth": 5285, 
  "medium-term": 5286, 
  "traded": 5287, 
  "routinely": 5288, 
  "og@@": 5289, 
  "democratically": 5290, 
  "lest": 5291, 
  "collectively": 5292, 
  "swings": 5293, 
  "throwing": 5294, 
  "located": 5295, 
  "star": 5296, 
  ",000": 5297, 
  "indicators": 5298, 
  "soil": 5299, 
  "Berkeley": 5300, 
  "departure": 5301, 
  "seized": 5302, 
  "200@@": 5303, 
  "policymaking": 5304, 
  "sin@@": 5305, 
  "affecting": 5306, 
  "scholars": 5307, 
  "diagnosis": 5308, 
  "belong": 5309, 
  "utterly": 5310, 
  "ture": 5311, 
  "unilateralism": 5312, 
  "transmission": 5313, 
  "exceptional": 5314, 
  "ambition": 5315, 
  "ligh@@": 5316, 
  "detailed": 5317, 
  "store": 5318, 
  "keen": 5319, 
  "new@@": 5320, 
  "touch": 5321, 
  "dle": 5322, 
  "2.5": 5323, 
  "pollu@@": 5324, 
  "year-old": 5325, 
  "necessity": 5326, 
  "remote": 5327, 
  "enforced": 5328, 
  "spo@@": 5329, 
  "indifference": 5330, 
  "micro@@": 5331, 
  "favorite": 5332, 
  "fighters": 5333, 
  "angry": 5334, 
  "400": 5335, 
  "precise": 5336, 
  "machine": 5337, 
  "confused": 5338, 
  "encourages": 5339, 
  "preventive": 5340, 
  "sick": 5341, 
  "Qu@@": 5342, 
  "Communism": 5343, 
  "ner@@": 5344, 
  "alarming": 5345, 
  "ble@@": 5346, 
  "ick": 5347, 
  "censorship": 5348, 
  "spiral": 5349, 
  "completed": 5350, 
  "lating": 5351, 
  "genuinely": 5352, 
  "cyclical": 5353, 
  "Association": 5354, 
  "Co@@": 5355, 
  "defaults": 5356, 
  "prone": 5357, 
  "Fa@@": 5358, 
  "Guantánamo": 5359, 
  "fle@@": 5360, 
  "Na@@": 5361, 
  "Pre@@": 5362, 
  "Strategy": 5363, 
  "socially": 5364, 
  "temporarily": 5365, 
  "ill@@": 5366, 
  "defensive": 5367, 
  "pressed": 5368, 
  "classical": 5369, 
  "bly": 5370, 
  "cure": 5371, 
  "spectrum": 5372, 
  "sacrifice": 5373, 
  "Ali": 5374, 
  "rises": 5375, 
  "accumulation": 5376, 
  "Viktor": 5377, 
  "treating": 5378, 
  "ici@@": 5379, 
  "Swiss": 5380, 
  "gg@@": 5381, 
  "asing": 5382, 
  "banned": 5383, 
  "author": 5384, 
  "gues": 5385, 
  "factory": 5386, 
  "appointment": 5387, 
  "1981": 5388, 
  "luck": 5389, 
  "feet": 5390, 
  "Marx": 5391, 
  "discover": 5392, 
  "predecessors": 5393, 
  "M": 5394, 
  "thrown": 5395, 
  "pervasive": 5396, 
  "1979": 5397, 
  "ef@@": 5398, 
  "ceiling": 5399, 
  "consume": 5400, 
  "greed": 5401, 
  "grant": 5402, 
  "accelerated": 5403, 
  "writer": 5404, 
  "recommendations": 5405, 
  "examine": 5406, 
  "bs": 5407, 
  "don@@": 5408, 
  "holdings": 5409, 
  "Q@@": 5410, 
  "dogs": 5411, 
  "shame": 5412, 
  "curb": 5413, 
  "orderly": 5414, 
  "gue": 5415, 
  "1973": 5416, 
  "systematically": 5417, 
  "potent": 5418, 
  "Euro@@": 5419, 
  "covered": 5420, 
  "2-@@": 5421, 
  "cycles": 5422, 
  "Ban": 5423, 
  "lessly": 5424, 
  "academics": 5425, 
  "cynical": 5426, 
  "B": 5427, 
  "trac@@": 5428, 
  "moments": 5429, 
  "casualties": 5430, 
  "sun@@": 5431, 
  "Madrid": 5432, 
  "factories": 5433, 
  "punished": 5434, 
  "derived": 5435, 
  "gaps": 5436, 
  "uncertainties": 5437, 
  "revi@@": 5438, 
  "land@@": 5439, 
  "scrutiny": 5440, 
  "Khrushchev": 5441, 
  "Ra@@": 5442, 
  "repair": 5443, 
  "reflection": 5444, 
  "governmental": 5445, 
  "dic@@": 5446, 
  "degradation": 5447, 
  "crowd": 5448, 
  "peasants": 5449, 
  "two-state": 5450, 
  "insur@@": 5451, 
  "tribunal": 5452, 
  "payment": 5453, 
  "low-cost": 5454, 
  "medicines": 5455, 
  "creativity": 5456, 
  "securing": 5457, 
  "disputed": 5458, 
  "attracted": 5459, 
  "insurgents": 5460, 
  "adjust": 5461, 
  "•": 5462, 
  "expose": 5463, 
  "considerably": 5464, 
  "ale": 5465, 
  "guided": 5466, 
  "insolvent": 5467, 
  "Sch@@": 5468, 
  "Premier": 5469, 
  "riots": 5470, 
  "inc@@": 5471, 
  "Asians": 5472, 
  "stations": 5473, 
  "ther": 5474, 
  "free-trade": 5475, 
  "zz@@": 5476, 
  "shel@@": 5477, 
  "presents": 5478, 
  "sch@@": 5479, 
  "confusion": 5480, 
  "carries": 5481, 
  "warnings": 5482, 
  "machines": 5483, 
  "transforming": 5484, 
  "centr@@": 5485, 
  "flo@@": 5486, 
  "floods": 5487, 
  "devices": 5488, 
  "Par@@": 5489, 
  "Secretary-General": 5490, 
  "sm@@": 5491, 
  "penalty": 5492, 
  "ther@@": 5493, 
  "permitted": 5494, 
  "mag@@": 5495, 
  "Munich": 5496, 
  "Free": 5497, 
  "Smith": 5498, 
  "visions": 5499, 
  "inherited": 5500, 
  "1968": 5501, 
  "widening": 5502, 
  "defended": 5503, 
  "8-@@": 5504, 
  "sor@@": 5505, 
  "rated": 5506, 
  "lates": 5507, 
  "messages": 5508, 
  "hearts": 5509, 
  "facility": 5510, 
  "ups": 5511, 
  "stark": 5512, 
  "handle": 5513, 
  "prop@@": 5514, 
  "sub-Saharan": 5515, 
  "rivals": 5516, 
  "platform": 5517, 
  "surveys": 5518, 
  "assault": 5519, 
  "authoritarianism": 5520, 
  "str@@": 5521, 
  "collateral": 5522, 
  "benign": 5523, 
  "Morocco": 5524, 
  "incited": 5525, 
  "Slovakia": 5526, 
  "tics": 5527, 
  "disintegration": 5528, 
  "irs": 5529, 
  "geography": 5530, 
  "Saakashvili": 5531, 
  "ine@@": 5532, 
  "sting": 5533, 
  "walk": 5534, 
  "consists": 5535, 
  "recipe": 5536, 
  "missions": 5537, 
  "hire": 5538, 
  "When": 5539, 
  "futures": 5540, 
  "explanations": 5541, 
  "Tokyo": 5542, 
  "ny": 5543, 
  "retreat": 5544, 
  "comfortable": 5545, 
  "psychology": 5546, 
  "deadly": 5547, 
  "Sachs": 5548, 
  "ar-@@": 5549, 
  "Bas@@": 5550, 
  "valued": 5551, 
  "oversight": 5552, 
  "ards": 5553, 
  "Poles": 5554, 
  "discovery": 5555, 
  "autumn": 5556, 
  "absolutely": 5557, 
  "unclear": 5558, 
  "run-up": 5559, 
  "rally": 5560, 
  "sad@@": 5561, 
  "degrees": 5562, 
  "influenced": 5563, 
  "mes": 5564, 
  "accordingly": 5565, 
  "-up": 5566, 
  "audience": 5567, 
  "bles": 5568, 
  "virus": 5569, 
  "ular": 5570, 
  "print": 5571, 
  "ease": 5572, 
  "peacefully": 5573, 
  "shortcomings": 5574, 
  "occasionally": 5575, 
  "relevance": 5576, 
  "1-@@": 5577, 
  "zones": 5578, 
  "lacked": 5579, 
  "erupted": 5580, 
  "occurring": 5581, 
  "Goals": 5582, 
  "distinguish": 5583, 
  "beat": 5584, 
  "phone": 5585, 
  "um@@": 5586, 
  "reasoning": 5587, 
  "shrinking": 5588, 
  "vague": 5589, 
  "Finland": 5590, 
  "develop@@": 5591, 
  "theoretical": 5592, 
  "financially": 5593, 
  "subsequently": 5594, 
  "invariably": 5595, 
  "militias": 5596, 
  "loses": 5597, 
  "sovereign-debt": 5598, 
  "hate": 5599, 
  "os@@": 5600, 
  "attend": 5601, 
  "probability": 5602, 
  "misery": 5603, 
  "reveal": 5604, 
  "devi@@": 5605, 
  "fees": 5606, 
  "immigrant": 5607, 
  "finished": 5608, 
  "65": 5609, 
  "unilaterally": 5610, 
  "digital": 5611, 
  "refuses": 5612, 
  "Times": 5613, 
  "combating": 5614, 
  "alistic": 5615, 
  "camp": 5616, 
  "absurd": 5617, 
  "Red": 5618, 
  "controversy": 5619, 
  "Square": 5620, 
  "boards": 5621, 
  "ate@@": 5622, 
  "threshold": 5623, 
  "Ethiopia": 5624, 
  "sk": 5625, 
  "deputy": 5626, 
  "announcement": 5627, 
  "manufactured": 5628, 
  "dled": 5629, 
  "creditor": 5630, 
  "breast": 5631, 
  "ential": 5632, 
  "observed": 5633, 
  "provoked": 5634, 
  "low-income": 5635, 
  "rou@@": 5636, 
  "mp@@": 5637, 
  "Cheney": 5638, 
  "acute": 5639, 
  "prize": 5640, 
  "Goldman": 5641, 
  "excesses": 5642, 
  "Olympics": 5643, 
  "Kenya": 5644, 
  "literally": 5645, 
  "oil-@@": 5646, 
  "wins": 5647, 
  "den": 5648, 
  "introducing": 5649, 
  "homeland": 5650, 
  "2030": 5651, 
  "offices": 5652, 
  "orientation": 5653, 
  "ases": 5654, 
  "Sh@@": 5655, 
  "mutually": 5656, 
  "ency": 5657, 
  "arm@@": 5658, 
  "strictly": 5659, 
  "merit": 5660, 
  "excessively": 5661, 
  "minded": 5662, 
  "treatments": 5663, 
  "episodes": 5664, 
  "Finance": 5665, 
  "Nuclear": 5666, 
  "derivatives": 5667, 
  "panel": 5668, 
  "substance": 5669, 
  "-minded": 5670, 
  "int": 5671, 
  "Saudis": 5672, 
  "closest": 5673, 
  "oning": 5674, 
  "U.S.": 5675, 
  "scarcity": 5676, 
  "settled": 5677, 
  "furthermore": 5678, 
  "Ehud": 5679, 
  "provoke": 5680, 
  "inv@@": 5681, 
  "norm": 5682, 
  "ideologies": 5683, 
  "ss-@@": 5684, 
  "assert": 5685, 
  "refugee": 5686, 
  "removing": 5687, 
  "servants": 5688, 
  "personnel": 5689, 
  "legally": 5690, 
  "interference": 5691, 
  "advocated": 5692, 
  "collaboration": 5693, 
  "sti@@": 5694, 
  "Egyptians": 5695, 
  "pillar": 5696, 
  "efficiently": 5697, 
  "resilience": 5698, 
  "low-carbon": 5699, 
  "emphasized": 5700, 
  "pundits": 5701, 
  "specter": 5702, 
  "recorded": 5703, 
  "processing": 5704, 
  "patience": 5705, 
  "quiet": 5706, 
  "master": 5707, 
  "takeover": 5708, 
  "safeguard": 5709, 
  "single-@@": 5710, 
  "Woods": 5711, 
  "Croatia": 5712, 
  "replacement": 5713, 
  "pan@@": 5714, 
  "ports": 5715, 
  "diminish": 5716, 
  "imp@@": 5717, 
  "errors": 5718, 
  "ry@@": 5719, 
  "languages": 5720, 
  "Yukos": 5721, 
  "automobile": 5722, 
  "flat": 5723, 
  "unresolved": 5724, 
  "lesser": 5725, 
  "extraordinarily": 5726, 
  "picked": 5727, 
  "inherent": 5728, 
  "Li@@": 5729, 
  "cards": 5730, 
  "ery": 5731, 
  "ised": 5732, 
  "display": 5733, 
  "scandal": 5734, 
  "contraction": 5735, 
  "thirty": 5736, 
  "aggressively": 5737, 
  "signing": 5738, 
  "straightforward": 5739, 
  "stream": 5740, 
  "precious": 5741, 
  "Gordon": 5742, 
  "risk-@@": 5743, 
  "En@@": 5744, 
  "­-": 5745, 
  "suspected": 5746, 
  "reckless": 5747, 
  "perpetrators": 5748, 
  "implying": 5749, 
  "assure": 5750, 
  "Franco-German": 5751, 
  "narrative": 5752, 
  "Abkhazia": 5753, 
  "mistaken": 5754, 
  "ened": 5755, 
  "Mo@@": 5756, 
  "ster@@": 5757, 
  "Yemen": 5758, 
  "deployed": 5759, 
  "Armenia": 5760, 
  "prestige": 5761, 
  "Czechoslovakia": 5762, 
  "inspire": 5763, 
  "char@@": 5764, 
  "Olympic": 5765, 
  "Maynard": 5766, 
  "dozen": 5767, 
  "deterioration": 5768, 
  "Bretton": 5769, 
  "miss": 5770, 
  "urge": 5771, 
  "tici@@": 5772, 
  "Mer@@": 5773, 
  "dysfunctional": 5774, 
  "enlightened": 5775, 
  "fluctuations": 5776, 
  "Tribunal": 5777, 
  "governors": 5778, 
  "val@@": 5779, 
  "shortages": 5780, 
  "components": 5781, 
  "delivering": 5782, 
  "markedly": 5783, 
  "backs": 5784, 
  "indebted": 5785, 
  "wherever": 5786, 
  "privileged": 5787, 
  "allegedly": 5788, 
  "possess": 5789, 
  "problematic": 5790, 
  "interdependence": 5791, 
  "federation": 5792, 
  "etc": 5793, 
  "outsourcing": 5794, 
  "of@@": 5795, 
  "symptoms": 5796, 
  "infected": 5797, 
  "crude": 5798, 
  "militarily": 5799, 
  "depressed": 5800, 
  "arbitrary": 5801, 
  "Fox": 5802, 
  "dissidents": 5803, 
  "sou@@": 5804, 
  "entrepreneurship": 5805, 
  "hurricanes": 5806, 
  "depth": 5807, 
  "kno@@": 5808, 
  "sympathy": 5809, 
  "dre@@": 5810, 
  "Romanian": 5811, 
  "admittedly": 5812, 
  "page": 5813, 
  "Gerhard": 5814, 
  "28": 5815, 
  "ASEAN": 5816, 
  "Wolfowitz": 5817, 
  "hole": 5818, 
  "issuing": 5819, 
  "seeds": 5820, 
  "uri@@": 5821, 
  "inner": 5822, 
  "ction": 5823, 
  "participating": 5824, 
  "organisms": 5825, 
  "satellite": 5826, 
  "righ@@": 5827, 
  "winter": 5828, 
  "skin": 5829, 
  "records": 5830, 
  "breaks": 5831, 
  "James": 5832, 
  "interpreted": 5833, 
  "attributed": 5834, 
  "rous": 5835, 
  "trapped": 5836, 
  "baby": 5837, 
  "iron": 5838, 
  "masses": 5839, 
  "sible": 5840, 
  "fundamentalist": 5841, 
  "Criminal": 5842, 
  "sciences": 5843, 
  "Bo@@": 5844, 
  "radio": 5845, 
  "imagination": 5846, 
  "ty@@": 5847, 
  "Danish": 5848, 
  "profession": 5849, 
  "adequately": 5850, 
  "letter": 5851, 
  "mat@@": 5852, 
  "horizon": 5853, 
  "sely": 5854, 
  "long@@": 5855, 
  "stagnant": 5856, 
  "sing@@": 5857, 
  "Arab-Israeli": 5858, 
  "unusual": 5859, 
  "sation": 5860, 
  "depending": 5861, 
  "ack": 5862, 
  "fishing": 5863, 
  "gun": 5864, 
  "oppression": 5865, 
  "marriage": 5866, 
  "habits": 5867, 
  "imbalance": 5868, 
  "republics": 5869, 
  "Lithuania": 5870, 
  "Her@@": 5871, 
  "precipit@@": 5872, 
  "inclusive": 5873, 
  "pool": 5874, 
  "indispensable": 5875, 
  "orthodoxy": 5876, 
  "1929": 5877, 
  "stan@@": 5878, 
  "Ham@@": 5879, 
  "worsen": 5880, 
  "buried": 5881, 
  "stran@@": 5882, 
  "fruit": 5883, 
  "entrepreneurial": 5884, 
  "items": 5885, 
  "everyday": 5886, 
  "multinational": 5887, 
  "Hillary": 5888, 
  "Office": 5889, 
  "As@@": 5890, 
  "nur@@": 5891, 
  "crunch": 5892, 
  "enhancing": 5893, 
  "induce": 5894, 
  "admitted": 5895, 
  "presumably": 5896, 
  "forecasts": 5897, 
  "Rice": 5898, 
  "dam@@": 5899, 
  "stal@@": 5900, 
  "window": 5901, 
  "da": 5902, 
  "Program": 5903, 
  "communal": 5904, 
  "exclusive": 5905, 
  "rewards": 5906, 
  "warm": 5907, 
  "oper@@": 5908, 
  "op": 5909, 
  "pound": 5910, 
  "brand": 5911, 
  "dictatorships": 5912, 
  "disorders": 5913, 
  "discourage": 5914, 
  "grants": 5915, 
  "proceed": 5916, 
  "cul@@": 5917, 
  "bombings": 5918, 
  "CEO": 5919, 
  "ignorance": 5920, 
  "irony": 5921, 
  "ath@@": 5922, 
  "fierce": 5923, 
  "my@@": 5924, 
  "Calderón": 5925, 
  "anyway": 5926, 
  "notwithstanding": 5927, 
  "Bar@@": 5928, 
  "rape": 5929, 
  "prevailed": 5930, 
  "gru@@": 5931, 
  "imagined": 5932, 
  "dri@@": 5933, 
  "ssed": 5934, 
  "objec@@": 5935, 
  "entails": 5936, 
  "arena": 5937, 
  "struggles": 5938, 
  "lets": 5939, 
  "2,000": 5940, 
  "corner": 5941, 
  "nal": 5942, 
  "obtained": 5943, 
  "fueling": 5944, 
  "reunification": 5945, 
  "downs": 5946, 
  "hypocrisy": 5947, 
  "pillars": 5948, 
  "School": 5949, 
  "tropical": 5950, 
  "guilt": 5951, 
  "realization": 5952, 
  "apes": 5953, 
  "han@@": 5954, 
  "Castro": 5955, 
  "fal@@": 5956, 
  "radicalism": 5957, 
  "els": 5958, 
  "refusing": 5959, 
  "ach": 5960, 
  "Ossetia": 5961, 
  "march": 5962, 
  "gotten": 5963, 
  "ed-@@": 5964, 
  "13@@": 5965, 
  "accounted": 5966, 
  "defenses": 5967, 
  "shrink": 5968, 
  "droughts": 5969, 
  "form@@": 5970, 
  "delayed": 5971, 
  "exacerbated": 5972, 
  "Myanmar": 5973, 
  "ger@@": 5974, 
  "revolt": 5975, 
  "tory": 5976, 
  "rent": 5977, 
  "generates": 5978, 
  "siveness": 5979, 
  "mitigate": 5980, 
  "deepen": 5981, 
  "&apos;re": 5982, 
  "aud@@": 5983, 
  "satisfaction": 5984, 
  "ruler": 5985, 
  "exile": 5986, 
  "Yes": 5987, 
  "Continent": 5988, 
  "respects": 5989, 
  "founder": 5990, 
  "incite": 5991, 
  "deprived": 5992, 
  "Serb": 5993, 
  "wasted": 5994, 
  "Ab@@": 5995, 
  "sons": 5996, 
  "boun@@": 5997, 
  "worsening": 5998, 
  "Bhutto": 5999, 
  "Car@@": 6000, 
  "Report": 6001, 
  "Donald": 6002, 
  "luxury": 6003, 
  "coordinate": 6004, 
  "flu@@": 6005, 
  "lasted": 6006, 
  "virtue": 6007, 
  "fortune": 6008, 
  "expectancy": 6009, 
  "lifetime": 6010, 
  "nightmare": 6011, 
  "1,@@": 6012, 
  "paralysis": 6013, 
  "sel": 6014, 
  "myself": 6015, 
  "margins": 6016, 
  "repay": 6017, 
  "Ha@@": 6018, 
  "urgency": 6019, 
  "searching": 6020, 
  "borrowed": 6021, 
  "Nazis": 6022, 
  "or-@@": 6023, 
  "Hu@@": 6024, 
  "exp@@": 6025, 
  "disagree": 6026, 
  "concentrate": 6027, 
  "capital-@@": 6028, 
  "inequalities": 6029, 
  "swing": 6030, 
  "ultra-@@": 6031, 
  "dismiss": 6032, 
  "missed": 6033, 
  "stages": 6034, 
  "aled": 6035, 
  "til@@": 6036, 
  "consciousness": 6037, 
  "Ben": 6038, 
  "Brazilian": 6039, 
  "interpret": 6040, 
  "ecological": 6041, 
  "sed@@": 6042, 
  "deter": 6043, 
  "ride": 6044, 
  "ocean": 6045, 
  "of-@@": 6046, 
  "lah": 6047, 
  "neutral": 6048, 
  "procedure": 6049, 
  "infection": 6050, 
  "committees": 6051, 
  "kin@@": 6052, 
  "origin@@": 6053, 
  "hungry": 6054, 
  "Partnership": 6055, 
  "85": 6056, 
  "super-@@": 6057, 
  "injustice": 6058, 
  "after@@": 6059, 
  "headlines": 6060, 
  "speculators": 6061, 
  "five-year": 6062, 
  "episode": 6063, 
  "storage": 6064, 
  "unfortunate": 6065, 
  "lers": 6066, 
  "exacerbate": 6067, 
  "eigh@@": 6068, 
  "100,000": 6069, 
  "anti-American": 6070, 
  "ane": 6071, 
  "appeals": 6072, 
  "militant": 6073, 
  "pon@@": 6074, 
  "clarity": 6075, 
  "oli@@": 6076, 
  "borne": 6077, 
  "high-quality": 6078, 
  "gasoline": 6079, 
  "forthcoming": 6080, 
  "ams": 6081, 
  "questioning": 6082, 
  "side@@": 6083, 
  "termin@@": 6084, 
  "perceive": 6085, 
  "vibrant": 6086, 
  "contradictory": 6087, 
  "tons": 6088, 
  "surrender": 6089, 
  "malaise": 6090, 
  "break@@": 6091, 
  "sized": 6092, 
  "cep@@": 6093, 
  "lic": 6094, 
  "NGOs": 6095, 
  "sian": 6096, 
  "explosive": 6097, 
  "populists": 6098, 
  "ze@@": 6099, 
  "IT": 6100, 
  "alas": 6101, 
  "modernity": 6102, 
  "counterproductive": 6103, 
  "boom@@": 6104, 
  "ili@@": 6105, 
  "throw": 6106, 
  "aircraft": 6107, 
  "thin": 6108, 
  "tactical": 6109, 
  "Cameron": 6110, 
  "Christians": 6111, 
  "foods": 6112, 
  "sia": 6113, 
  "comfort": 6114, 
  "heroes": 6115, 
  "lift": 6116, 
  "alities": 6117, 
  "militants": 6118, 
  "van@@": 6119, 
  "clout": 6120, 
  "portion": 6121, 
  "constructed": 6122, 
  "believers": 6123, 
  "philosopher": 6124, 
  "Cooperation": 6125, 
  "akin": 6126, 
  "short@@": 6127, 
  "restoration": 6128, 
  "strengths": 6129, 
  "spiritual": 6130, 
  "tives": 6131, 
  "opinions": 6132, 
  "enormously": 6133, 
  "speeches": 6134, 
  "maximum": 6135, 
  "fault": 6136, 
  "Turks": 6137, 
  "affordable": 6138, 
  "ose": 6139, 
  "Guard": 6140, 
  "exploited": 6141, 
  "conspiracy": 6142, 
  "domestically": 6143, 
  "ination": 6144, 
  "deci@@": 6145, 
  "home@@": 6146, 
  "governor": 6147, 
  "rebuilding": 6148, 
  "roll": 6149, 
  "Liu": 6150, 
  "jo@@": 6151, 
  "sums": 6152, 
  "hawks": 6153, 
  "toll": 6154, 
  "club": 6155, 
  "1982": 6156, 
  "Hindu": 6157, 
  "commonly": 6158, 
  "sustaining": 6159, 
  "pledge": 6160, 
  "contributes": 6161, 
  "je@@": 6162, 
  "biodiversity": 6163, 
  "text": 6164, 
  "unrealistic": 6165, 
  "compromises": 6166, 
  "Argentine": 6167, 
  "movie": 6168, 
  "availability": 6169, 
  "revenge": 6170, 
  "Enron": 6171, 
  "lou@@": 6172, 
  "itation": 6173, 
  "accustomed": 6174, 
  "sale": 6175, 
  "UN@@": 6176, 
  "mindset": 6177, 
  "organizing": 6178, 
  "contemplate": 6179, 
  "deflationary": 6180, 
  "debacle": 6181, 
  "ids": 6182, 
  "sanitation": 6183, 
  "heritage": 6184, 
  "marginalized": 6185, 
  "scre@@": 6186, 
  "Bu@@": 6187, 
  "radiation": 6188, 
  "alter": 6189, 
  "credits": 6190, 
  "celebrate": 6191, 
  "Ca@@": 6192, 
  "Tiananmen": 6193, 
  "There": 6194, 
  "viruses": 6195, 
  "flowing": 6196, 
  "Or@@": 6197, 
  "Christianity": 6198, 
  "ake": 6199, 
  "Shi&apos;a": 6200, 
  "grand@@": 6201, 
  "ample": 6202, 
  "grain": 6203, 
  "mud@@": 6204, 
  "no-@@": 6205, 
  "the-@@": 6206, 
  "circles": 6207, 
  "domination": 6208, 
  "perceptions": 6209, 
  "criticize": 6210, 
  "favors": 6211, 
  "enables": 6212, 
  "vin@@": 6213, 
  "genome": 6214, 
  "gate": 6215, 
  "basically": 6216, 
  "Special": 6217, 
  "deciding": 6218, 
  "integrating": 6219, 
  "ant@@": 6220, 
  "coalitions": 6221, 
  "quar@@": 6222, 
  "watched": 6223, 
  "turnout": 6224, 
  "adults": 6225, 
  "sun": 6226, 
  "valid": 6227, 
  "stone": 6228, 
  "exploitation": 6229, 
  "leveraged": 6230, 
  "Belgrade": 6231, 
  "possession": 6232, 
  "Ac@@": 6233, 
  "climate-change": 6234, 
  "outs": 6235, 
  "empowered": 6236, 
  "ousness": 6237, 
  "obliged": 6238, 
  "Left": 6239, 
  "permanently": 6240, 
  "forged": 6241, 
  "urged": 6242, 
  "deployment": 6243, 
  "remembered": 6244, 
  "immune": 6245, 
  "suited": 6246, 
  "NAFTA": 6247, 
  "Ministers": 6248, 
  "jump": 6249, 
  "kilometers": 6250, 
  "Ki@@": 6251, 
  "phones": 6252, 
  "assembly": 6253, 
  "Big": 6254, 
  "rationale": 6255, 
  "by-@@": 6256, 
  "ratified": 6257, 
  "tering": 6258, 
  "rests": 6259, 
  "anti-Semitism": 6260, 
  "indirectly": 6261, 
  "Poli@@": 6262, 
  "ices": 6263, 
  "sentence": 6264, 
  "G-7": 6265, 
  "scenes": 6266, 
  "Be@@": 6267, 
  "remind": 6268, 
  "expectation": 6269, 
  "provinces": 6270, 
  "contest": 6271, 
  "paradigm": 6272, 
  "ately": 6273, 
  "q@@": 6274, 
  "ent-@@": 6275, 
  "consuming": 6276, 
  "farms": 6277, 
  "imperialism": 6278, 
  "inspectors": 6279, 
  "financiers": 6280, 
  "launching": 6281, 
  "Freedom": 6282, 
  "marine": 6283, 
  "attraction": 6284, 
  "actor": 6285, 
  "useless": 6286, 
  "ric@@": 6287, 
  "sorts": 6288, 
  "flood": 6289, 
  "human@@": 6290, 
  "dissent": 6291, 
  "Ru@@": 6292, 
  "gener@@": 6293, 
  "repressive": 6294, 
  "Ban@@": 6295, 
  "protracted": 6296, 
  "hurricane": 6297, 
  "ries": 6298, 
  "reconcile": 6299, 
  "700": 6300, 
  "4-@@": 6301, 
  "reactor": 6302, 
  "insisting": 6303, 
  "loose": 6304, 
  "impe@@": 6305, 
  "predictions": 6306, 
  "champion": 6307, 
  "surrounded": 6308, 
  "spe@@": 6309, 
  "bit@@": 6310, 
  "poli@@": 6311, 
  "3.5": 6312, 
  "mp": 6313, 
  "comparisons": 6314, 
  "characteristic": 6315, 
  "empirical": 6316, 
  "erosion": 6317, 
  "operational": 6318, 
  "La@@": 6319, 
  "Hatoyama": 6320, 
  "swe@@": 6321, 
  "certainty": 6322, 
  "restrict": 6323, 
  "tangible": 6324, 
  "consequently": 6325, 
  "Le": 6326, 
  "monopolies": 6327, 
  "liber@@": 6328, 
  "reacted": 6329, 
  "ct": 6330, 
  "responds": 6331, 
  "sequ@@": 6332, 
  "Kerry": 6333, 
  "star@@": 6334, 
  "arity": 6335, 
  "arian": 6336, 
  "nervous": 6337, 
  "We@@": 6338, 
  "embargo": 6339, 
  "onset": 6340, 
  "Vienna": 6341, 
  "deposit": 6342, 
  "sper@@": 6343, 
  "appearance": 6344, 
  "quotas": 6345, 
  "focuses": 6346, 
  "imperfect": 6347, 
  "highlighted": 6348, 
  "stopping": 6349, 
  "arch@@": 6350, 
  "psychiatric": 6351, 
  "reversal": 6352, 
  "long-standing": 6353, 
  "spec@@": 6354, 
  "lucky": 6355, 
  "ue": 6356, 
  "cop@@": 6357, 
  "Ho@@": 6358, 
  "dimensions": 6359, 
  "cat@@": 6360, 
  "assessing": 6361, 
  "K": 6362, 
  "distressed": 6363, 
  "cent@@": 6364, 
  "ai@@": 6365, 
  "encies": 6366, 
  "diss@@": 6367, 
  "middle-income": 6368, 
  "cle": 6369, 
  "magic": 6370, 
  "violation": 6371, 
  "Change": 6372, 
  "preferences": 6373, 
  "partially": 6374, 
  "laureate": 6375, 
  "fire@@": 6376, 
  "violated": 6377, 
  "mitigation": 6378, 
  "suggesting": 6379, 
  "Empire": 6380, 
  "1920": 6381, 
  "Prince": 6382, 
  "Joseph": 6383, 
  "racism": 6384, 
  "tely": 6385, 
  "worrisome": 6386, 
  "quietly": 6387, 
  "c": 6388, 
  "excluding": 6389, 
  "accord": 6390, 
  "punish": 6391, 
  "Director": 6392, 
  "au": 6393, 
  "reluctance": 6394, 
  "removal": 6395, 
  "peer": 6396, 
  "ok@@": 6397, 
  "polar": 6398, 
  "Il": 6399, 
  "ranking": 6400, 
  "tourism": 6401, 
  "Gandhi": 6402, 
  "elimination": 6403, 
  "Day": 6404, 
  "channel": 6405, 
  "outweigh": 6406, 
  "invention": 6407, 
  "reformist": 6408, 
  "plan@@": 6409, 
  "comparative": 6410, 
  "Katrina": 6411, 
  "subsidy": 6412, 
  "abu@@": 6413, 
  "Mor@@": 6414, 
  "crowds": 6415, 
  "title": 6416, 
  "capacities": 6417, 
  "Common": 6418, 
  "modernize": 6419, 
  "ums": 6420, 
  "doors": 6421, 
  "advertising": 6422, 
  "stars": 6423, 
  "elderly": 6424, 
  "spur": 6425, 
  "800": 6426, 
  "intensity": 6427, 
  "boys": 6428, 
  "non-governmental": 6429, 
  "profoundly": 6430, 
  "reassuring": 6431, 
  "priced": 6432, 
  "Col@@": 6433, 
  "identical": 6434, 
  "attacking": 6435, 
  "leap": 6436, 
  "answered": 6437, 
  "colonialism": 6438, 
  "ony": 6439, 
  "apparatus": 6440, 
  "inflicted": 6441, 
  "slowed": 6442, 
  "0.5": 6443, 
  "mer": 6444, 
  "ences": 6445, 
  "towns": 6446, 
  "rebellion": 6447, 
  "Green": 6448, 
  "Si@@": 6449, 
  "Roman": 6450, 
  "writers": 6451, 
  "aking": 6452, 
  "gy": 6453, 
  "imminent": 6454, 
  "conceived": 6455, 
  "Jazeera": 6456, 
  "violate": 6457, 
  "bl@@": 6458, 
  "axis": 6459, 
  "universe": 6460, 
  "abound": 6461, 
  "doub@@": 6462, 
  "eve": 6463, 
  "passive": 6464, 
  "tendencies": 6465, 
  "miles": 6466, 
  "Har@@": 6467, 
  "left-wing": 6468, 
  "Front": 6469, 
  "distinguished": 6470, 
  "college": 6471, 
  "disappointed": 6472, 
  "prudential": 6473, 
  "cated": 6474, 
  "rocket": 6475, 
  "postpone": 6476, 
  "skill": 6477, 
  "stunning": 6478, 
  "FSB": 6479, 
  "eli@@": 6480, 
  "debated": 6481, 
  "mble": 6482, 
  "lethal": 6483, 
  "personally": 6484, 
  "far@@": 6485, 
  "rebalancing": 6486, 
  "ide@@": 6487, 
  "militia": 6488, 
  "our@@": 6489, 
  "port": 6490, 
  "clients": 6491, 
  "tations": 6492, 
  "tyranny": 6493, 
  "understandably": 6494, 
  "public-sector": 6495, 
  "flourish": 6496, 
  "Recession": 6497, 
  "privileges": 6498, 
  "blessing": 6499, 
  "blood@@": 6500, 
  "partnerships": 6501, 
  "ratification": 6502, 
  "Ministry": 6503, 
  "enlarged": 6504, 
  "lifted": 6505, 
  "workforce": 6506, 
  "fications": 6507, 
  "maneuver": 6508, 
  "allocated": 6509, 
  "ely": 6510, 
  "appoint": 6511, 
  "bli@@": 6512, 
  "Vice": 6513, 
  "embarked": 6514, 
  "supervisory": 6515, 
  "belongs": 6516, 
  "postponed": 6517, 
  "L": 6518, 
  "comp@@": 6519, 
  "respectively": 6520, 
  "rivalry": 6521, 
  "golden": 6522, 
  "disproportionate": 6523, 
  "contact": 6524, 
  "sm": 6525, 
  "debt-to-GDP": 6526, 
  "atrocities": 6527, 
  "fly": 6528, 
  "continuous": 6529, 
  "va@@": 6530, 
  "associations": 6531, 
  "sus": 6532, 
  "Dubai": 6533, 
  "advisers": 6534, 
  "compliance": 6535, 
  "ited": 6536, 
  "accumulate": 6537, 
  "If": 6538, 
  "traumatic": 6539, 
  "curtail": 6540, 
  "considers": 6541, 
  "feedback": 6542, 
  "highlights": 6543, 
  "ped@@": 6544, 
  "activ@@": 6545, 
  "owe": 6546, 
  "contacts": 6547, 
  "handling": 6548, 
  "conservatism": 6549, 
  "conce@@": 6550, 
  "evolved": 6551, 
  "Senator": 6552, 
  "Ber@@": 6553, 
  "Ste@@": 6554, 
  "resolutions": 6555, 
  "venture": 6556, 
  "deliberate": 6557, 
  "translate": 6558, 
  "impunity": 6559, 
  "indication": 6560, 
  "confirm": 6561, 
  "Persian": 6562, 
  "rein": 6563, 
  "reformed": 6564, 
  "regulating": 6565, 
  "permits": 6566, 
  "vehicle": 6567, 
  "autom@@": 6568, 
  "post-Soviet": 6569, 
  "drinking": 6570, 
  "ceasefire": 6571, 
  "read@@": 6572, 
  "treasury": 6573, 
  "42": 6574, 
  "za@@": 6575, 
  "biotechnology": 6576, 
  "Australian": 6577, 
  "populated": 6578, 
  "elect": 6579, 
  "Valley": 6580, 
  "tin@@": 6581, 
  "consumed": 6582, 
  "mired": 6583, 
  "5,000": 6584, 
  "mping": 6585, 
  "1987": 6586, 
  "inging": 6587, 
  "stepped": 6588, 
  "mps": 6589, 
  "pluralism": 6590, 
  "trusted": 6591, 
  "indefinitely": 6592, 
  "row": 6593, 
  "persuaded": 6594, 
  "Beirut": 6595, 
  "extrac@@": 6596, 
  "rid": 6597, 
  "engines": 6598, 
  "circum@@": 6599, 
  "ez": 6600, 
  "six@@": 6601, 
  "emphasize": 6602, 
  "Kashmir": 6603, 
  "agendas": 6604, 
  "habit": 6605, 
  "ICTY": 6606, 
  "sitting": 6607, 
  "shattered": 6608, 
  "law@@": 6609, 
  "color": 6610, 
  "guns": 6611, 
  "exported": 6612, 
  "eradication": 6613, 
  "stalled": 6614, 
  "loyal": 6615, 
  "fix@@": 6616, 
  "rush": 6617, 
  "G8": 6618, 
  "confin@@": 6619, 
  "brave": 6620, 
  "Ahmedinejad": 6621, 
  "tech": 6622, 
  "handed": 6623, 
  "reveals": 6624, 
  "squeeze": 6625, 
  "interaction": 6626, 
  "viewing": 6627, 
  "futile": 6628, 
  "pleasure": 6629, 
  "obsolete": 6630, 
  "implication": 6631, 
  "US-led": 6632, 
  "embedded": 6633, 
  "destiny": 6634, 
  "ro": 6635, 
  "common@@": 6636, 
  "bas@@": 6637, 
  "listed": 6638, 
  "rid@@": 6639, 
  "wer": 6640, 
  "impede": 6641, 
  "realizing": 6642, 
  "covering": 6643, 
  "fusion": 6644, 
  "committing": 6645, 
  "proves": 6646, 
  "headquarters": 6647, 
  "burdened": 6648, 
  "nasty": 6649, 
  "Philippines": 6650, 
  "9-@@": 6651, 
  "malnutrition": 6652, 
  "leftist": 6653, 
  "fiable": 6654, 
  "SARS": 6655, 
  "duties": 6656, 
  "indicated": 6657, 
  "materi@@": 6658, 
  "incomplete": 6659, 
  "organizational": 6660, 
  "prosecution": 6661, 
  "analy@@": 6662, 
  "temp@@": 6663, 
  "hoping": 6664, 
  "hy@@": 6665, 
  "strain": 6666, 
  "personality": 6667, 
  "infla@@": 6668, 
  "seeming": 6669, 
  "replacing": 6670, 
  "Man@@": 6671, 
  "liberties": 6672, 
  "accelerating": 6673, 
  "hero": 6674, 
  "proving": 6675, 
  "frameworks": 6676, 
  "somewhere": 6677, 
  "resur@@": 6678, 
  "ore": 6679, 
  "environmentally": 6680, 
  "disappointing": 6681, 
  "majorities": 6682, 
  "foreign-policy": 6683, 
  "shar@@": 6684, 
  "Barroso": 6685, 
  "genetically": 6686, 
  "deleveraging": 6687, 
  "chan@@": 6688, 
  "appreciated": 6689, 
  "relatives": 6690, 
  "delivery": 6691, 
  "theme": 6692, 
  "contrac@@": 6693, 
  "conflicting": 6694, 
  "Koizumi": 6695, 
  "31": 6696, 
  "correctly": 6697, 
  "rain": 6698, 
  "gro@@": 6699, 
  "vice": 6700, 
  "avert": 6701, 
  "Is@@": 6702, 
  "delicate": 6703, 
  "7.@@": 6704, 
  "Scotland": 6705, 
  "Inter@@": 6706, 
  "tle": 6707, 
  "ef": 6708, 
  "trade-@@": 6709, 
  "ignoring": 6710, 
  "season": 6711, 
  "ecosystems": 6712, 
  "manufacturers": 6713, 
  "fun@@": 6714, 
  "cross": 6715, 
  "switch": 6716, 
  "Holland": 6717, 
  "tak@@": 6718, 
  "Tran@@": 6719, 
  "breakthroughs": 6720, 
  "evasion": 6721, 
  "Austrian": 6722, 
  "occasions": 6723, 
  "preserved": 6724, 
  "remittances": 6725, 
  "Seoul": 6726, 
  "disagreements": 6727, 
  "irrigation": 6728, 
  "non-proliferation": 6729, 
  "fifty": 6730, 
  "beneath": 6731, 
  "anti-Americanism": 6732, 
  "Oslo": 6733, 
  "defenders": 6734, 
  "collapsing": 6735, 
  "depositors": 6736, 
  "disappearance": 6737, 
  "Force": 6738, 
  "officer": 6739, 
  "suppress": 6740, 
  "inertia": 6741, 
  "compatible": 6742, 
  "Panel": 6743, 
  "witnessing": 6744, 
  "risk@@": 6745, 
  "renewal": 6746, 
  "offs": 6747, 
  "ney": 6748, 
  "deeds": 6749, 
  "convenient": 6750, 
  "anymore": 6751, 
  "calculated": 6752, 
  "sionary": 6753, 
  "unthinkable": 6754, 
  "resignation": 6755, 
  "OPEC": 6756, 
  "hikes": 6757, 
  "fascism": 6758, 
  "ministries": 6759, 
  "drought": 6760, 
  "flaws": 6761, 
  "reminded": 6762, 
  "maker": 6763, 
  "igh@@": 6764, 
  "insolvency": 6765, 
  "retains": 6766, 
  "realism": 6767, 
  "swept": 6768, 
  "heroic": 6769, 
  "smooth": 6770, 
  "Wahhabi": 6771, 
  "patents": 6772, 
  "constituencies": 6773, 
  "Ayatollah": 6774, 
  "29": 6775, 
  "lations": 6776, 
  "smo@@": 6777, 
  "daunting": 6778, 
  "self-determination": 6779, 
  "program@@": 6780, 
  "evolve": 6781, 
  "opted": 6782, 
  "reminder": 6783, 
  "unhappy": 6784, 
  "Basel": 6785, 
  "oni@@": 6786, 
  "incumbent": 6787, 
  "Balkan": 6788, 
  "reinforcing": 6789, 
  "pit@@": 6790, 
  "independently": 6791, 
  "bio@@": 6792, 
  "Bangladesh": 6793, 
  "bled": 6794, 
  "infectious": 6795, 
  "Ri@@": 6796, 
  "Second": 6797, 
  "ka": 6798, 
  "curse": 6799, 
  "resigned": 6800, 
  "outstanding": 6801, 
  "ew": 6802, 
  "market-@@": 6803, 
  "lobbying": 6804, 
  "lur@@": 6805, 
  "verdict": 6806, 
  "short-run": 6807, 
  "fan@@": 6808, 
  "fundamentalists": 6809, 
  "endless": 6810, 
  "self-defense": 6811, 
  "guidance": 6812, 
  "rank": 6813, 
  "strive": 6814, 
  "conception": 6815, 
  "non-state": 6816, 
  "arrival": 6817, 
  "undercut": 6818, 
  "IC@@": 6819, 
  "comments": 6820, 
  "yourself": 6821, 
  "itable": 6822, 
  "neglected": 6823, 
  "Economy": 6824, 
  "power@@": 6825, 
  "cl@@": 6826, 
  "innov@@": 6827, 
  "wounded": 6828, 
  "Silvio": 6829, 
  "dated": 6830, 
  "bun@@": 6831, 
  "exclude": 6832, 
  "moderation": 6833, 
  "Tibetan": 6834, 
  "distrust": 6835, 
  "polio": 6836, 
  "sof@@": 6837, 
  "hitting": 6838, 
  "center-right": 6839, 
  "stalemate": 6840, 
  "arrive": 6841, 
  "continuation": 6842, 
  "insists": 6843, 
  "shops": 6844, 
  "pragmatism": 6845, 
  "cool": 6846, 
  "atten@@": 6847, 
  "lists": 6848, 
  "win@@": 6849, 
  "studying": 6850, 
  "cour@@": 6851, 
  "labor-market": 6852, 
  "disruption": 6853, 
  "square": 6854, 
  "ron@@": 6855, 
  "holy": 6856, 
  "oun@@": 6857, 
  "Congressional": 6858, 
  "fits": 6859, 
  "outset": 6860, 
  "thro@@": 6861, 
  "hol@@": 6862, 
  "soun@@": 6863, 
  "OSCE": 6864, 
  "zi@@": 6865, 
  "stimulating": 6866, 
  "ians": 6867, 
  "slogan": 6868, 
  "reas@@": 6869, 
  "Pentagon": 6870, 
  "rock": 6871, 
  "tougher": 6872, 
  "lab@@": 6873, 
  "cou@@": 6874, 
  "gathered": 6875, 
  "time@@": 6876, 
  "partisan": 6877, 
  "doubtful": 6878, 
  "famine": 6879, 
  "rendered": 6880, 
  "unavoidable": 6881, 
  "landscape": 6882, 
  "premature": 6883, 
  "teach": 6884, 
  "Franklin": 6885, 
  "invisible": 6886, 
  "best-@@": 6887, 
  "lifting": 6888, 
  "handled": 6889, 
  "superiority": 6890, 
  "Euro-@@": 6891, 
  "thinkers": 6892, 
  "adds": 6893, 
  "unexpected": 6894, 
  "qualify": 6895, 
  "frozen": 6896, 
  "ly@@": 6897, 
  "mayor": 6898, 
  "overthrow": 6899, 
  "EU-@@": 6900, 
  "gather": 6901, 
  "resume": 6902, 
  "allied": 6903, 
  "crackdown": 6904, 
  "inputs": 6905, 
  "Cro@@": 6906, 
  "boosted": 6907, 
  "outrage": 6908, 
  "atomic": 6909, 
  "stores": 6910, 
  "St.": 6911, 
  "administrations": 6912, 
  "Bay": 6913, 
  "top@@": 6914, 
  "10,000": 6915, 
  "technocrats": 6916, 
  "ino": 6917, 
  "Texas": 6918, 
  "risk-taking": 6919, 
  "Iceland": 6920, 
  "speaks": 6921, 
  "shop": 6922, 
  "shortly": 6923, 
  "bizarre": 6924, 
  "ji@@": 6925, 
  "Ku@@": 6926, 
  "requirement": 6927, 
  "suff@@": 6928, 
  "guess": 6929, 
  "neuro@@": 6930, 
  "Un@@": 6931, 
  "tran@@": 6932, 
  "voter": 6933, 
  "fif@@": 6934, 
  "credentials": 6935, 
  "teenth": 6936, 
  "drove": 6937, 
  "stayed": 6938, 
  "connect": 6939, 
  "hood": 6940, 
  "rounds": 6941, 
  "motiv@@": 6942, 
  "tification": 6943, 
  "dig@@": 6944, 
  "existential": 6945, 
  "grim": 6946, 
  "devise": 6947, 
  "ural": 6948, 
  "supreme": 6949, 
  "secretary": 6950, 
  "practiced": 6951, 
  "proposing": 6952, 
  "mandatory": 6953, 
  "industrialization": 6954, 
  "ol": 6955, 
  "upcoming": 6956, 
  "sensitivity": 6957, 
  "drastic": 6958, 
  "ace": 6959, 
  "frequency": 6960, 
  "&apos;ve": 6961, 
  "O": 6962, 
  "enact": 6963, 
  "expects": 6964, 
  "complained": 6965, 
  "giants": 6966, 
  "cro@@": 6967, 
  "accumulated": 6968, 
  "applying": 6969, 
  "Liberation": 6970, 
  "ests": 6971, 
  "safe@@": 6972, 
  "arose": 6973, 
  "ements": 6974, 
  "indicator": 6975, 
  "scare": 6976, 
  "durable": 6977, 
  "anxious": 6978, 
  "shortfall": 6979, 
  "gla@@": 6980, 
  "liability": 6981, 
  "professors": 6982, 
  "statehood": 6983, 
  "acity": 6984, 
  "Krugman": 6985, 
  "Albania": 6986, 
  "detention": 6987, 
  "aded": 6988, 
  "n-@@": 6989, 
  "adjusted": 6990, 
  "tain": 6991, 
  "autonomous": 6992, 
  "eroded": 6993, 
  "One": 6994, 
  "ser@@": 6995, 
  "flu": 6996, 
  "Peru": 6997, 
  "blin@@": 6998, 
  "receives": 6999, 
  "conten@@": 7000, 
  "evidently": 7001, 
  "prosecutor": 7002, 
  "floating": 7003, 
  "intervening": 7004, 
  "routine": 7005, 
  "composed": 7006, 
  "onic": 7007, 
  "empowerment": 7008, 
  "600": 7009, 
  "fat@@": 7010, 
  "triple": 7011, 
  "category": 7012, 
  "whoever": 7013, 
  "reviving": 7014, 
  "Ev@@": 7015, 
  "tobacco": 7016, 
  "occupying": 7017, 
  "undervalued": 7018, 
  "elled": 7019, 
  "reportedly": 7020, 
  "trees": 7021, 
  "inhabitants": 7022, 
  "provincial": 7023, 
  "dividing": 7024, 
  "sho@@": 7025, 
  "Marshall": 7026, 
  "Palin": 7027, 
  "combatants": 7028, 
  "quantities": 7029, 
  "ologists": 7030, 
  "selected": 7031, 
  "exceeds": 7032, 
  "Petersburg": 7033, 
  "aligned": 7034, 
  "obsessed": 7035, 
  "pun@@": 7036, 
  "hearing": 7037, 
  "feels": 7038, 
  "bleak": 7039, 
  "adversaries": 7040, 
  "sh-@@": 7041, 
  "Games": 7042, 
  "refer": 7043, 
  "14@@": 7044, 
  "collect": 7045, 
  "proposition": 7046, 
  "-of-@@": 7047, 
  "expan@@": 7048, 
  "tual": 7049, 
  "pan-European": 7050, 
  "icious": 7051, 
  "artists": 7052, 
  "Prodi": 7053, 
  "drain": 7054, 
  "preceded": 7055, 
  "Adam": 7056, 
  "Mahathir": 7057, 
  "Los": 7058, 
  "insistence": 7059, 
  "Mitterrand": 7060, 
  "deploy": 7061, 
  "separated": 7062, 
  "video": 7063, 
  "Enlightenment": 7064, 
  "unleashed": 7065, 
  "conscience": 7066, 
  "talked": 7067, 
  "matched": 7068, 
  "agrees": 7069, 
  "heated": 7070, 
  "staggering": 7071, 
  "Erdogan": 7072, 
  "Kofi": 7073, 
  "hem@@": 7074, 
  "accommodate": 7075, 
  "scra@@": 7076, 
  "incidents": 7077, 
  "eth@@": 7078, 
  "islands": 7079, 
  "naval": 7080, 
  "pul@@": 7081, 
  "rebels": 7082, 
  "Karzai": 7083, 
  "judgments": 7084, 
  "lobby": 7085, 
  "pessimism": 7086, 
  "beautiful": 7087, 
  "cry": 7088, 
  "suspicious": 7089, 
  "minim@@": 7090, 
  "Lu@@": 7091, 
  "95": 7092, 
  "opt": 7093, 
  "shocked": 7094, 
  "na": 7095, 
  "sheet": 7096, 
  "Ghraib": 7097, 
  "vic@@": 7098, 
  "forum": 7099, 
  "industri@@": 7100, 
  "chair": 7101, 
  "cap-and-trade": 7102, 
  "endangered": 7103, 
  "affir@@": 7104, 
  "Shi@@": 7105, 
  "hugely": 7106, 
  "recal@@": 7107, 
  "seven@@": 7108, 
  "rene@@": 7109, 
  "tie": 7110, 
  "Davos": 7111, 
  "underscores": 7112, 
  "za": 7113, 
  "equi@@": 7114, 
  "properties": 7115, 
  "mented": 7116, 
  "doubling": 7117, 
  "hum@@": 7118, 
  "Cor@@": 7119, 
  "virtues": 7120, 
  "pe": 7121, 
  "ration@@": 7122, 
  "ridic@@": 7123, 
  "pandemic": 7124, 
  "warrant": 7125, 
  "Alexander": 7126, 
  "comply": 7127, 
  "posi@@": 7128, 
  "prisons": 7129, 
  "Greeks": 7130, 
  "condemn": 7131, 
  "soul": 7132, 
  "merits": 7133, 
  "successive": 7134, 
  "profile": 7135, 
  "monarchy": 7136, 
  "expenses": 7137, 
  "Cambodia": 7138, 
  "insul@@": 7139, 
  "energy-@@": 7140, 
  "eng@@": 7141, 
  "execution": 7142, 
  "pockets": 7143, 
  "praise": 7144, 
  "sky@@": 7145, 
  "fulfilled": 7146, 
  "native": 7147, 
  "Ne@@": 7148, 
  "placing": 7149, 
  "quarters": 7150, 
  "clubs": 7151, 
  "separatist": 7152, 
  "convicted": 7153, 
  "vary": 7154, 
  "1948": 7155, 
  "premier": 7156, 
  "composition": 7157, 
  "enjoying": 7158, 
  "deforestation": 7159, 
  "dismantling": 7160, 
  "thir@@": 7161, 
  "medi@@": 7162, 
  "vigorous": 7163, 
  "demonstration": 7164, 
  "pl@@": 7165, 
  "spi@@": 7166, 
  "sequence": 7167, 
  "mathematical": 7168, 
  "conver@@": 7169, 
  "fortunes": 7170, 
  "authors": 7171, 
  "exact": 7172, 
  "portfolios": 7173, 
  "overs": 7174, 
  "attracting": 7175, 
  "communicate": 7176, 
  "branch": 7177, 
  "diver@@": 7178, 
  "suppliers": 7179, 
  "post-crisis": 7180, 
  "rejects": 7181, 
  "conventions": 7182, 
  "zer": 7183, 
  "EFSF": 7184, 
  "life@@": 7185, 
  "pre-crisis": 7186, 
  "length": 7187, 
  "producer": 7188, 
  "alarm": 7189, 
  "pulled": 7190, 
  "thrive": 7191, 
  "internally": 7192, 
  "Albanian": 7193, 
  "tenure": 7194, 
  "distorted": 7195, 
  "for-@@": 7196, 
  "Fin@@": 7197, 
  "The@@": 7198, 
  "telecommunications": 7199, 
  "lied": 7200, 
  "ung@@": 7201, 
  "ories": 7202, 
  "heightened": 7203, 
  "reaches": 7204, 
  "vol@@": 7205, 
  "longstanding": 7206, 
  "prevents": 7207, 
  "resembles": 7208, 
  "incor@@": 7209, 
  "arts": 7210, 
  "dates": 7211, 
  "Thai": 7212, 
  "discontent": 7213, 
  "7-@@": 7214, 
  "refrain": 7215, 
  "blocking": 7216, 
  "bright": 7217, 
  "tail@@": 7218, 
  "20-@@": 7219, 
  "extremes": 7220, 
  "fashionable": 7221, 
  "Pri@@": 7222, 
  "quantity": 7223, 
  "marketplace": 7224, 
  "republic": 7225, 
  "fascist": 7226, 
  "foot": 7227, 
  "cognitive": 7228, 
  "lit@@": 7229, 
  "shareholder": 7230, 
  "gen": 7231, 
  "questioned": 7232, 
  "debtor": 7233, 
  "resign": 7234, 
  "Mc@@": 7235, 
  "harmony": 7236, 
  "ret@@": 7237, 
  "conditionality": 7238, 
  "endured": 7239, 
  "unequal": 7240, 
  "el-@@": 7241, 
  "extends": 7242, 
  "penetra@@": 7243, 
  "Russian-@@": 7244, 
  "arising": 7245, 
  "charisma": 7246, 
  "torn": 7247, 
  "geographical": 7248, 
  "bat@@": 7249, 
  "imposes": 7250, 
  "First": 7251, 
  "profitability": 7252, 
  "distortions": 7253, 
  "frustrated": 7254, 
  "anybody": 7255, 
  "continuity": 7256, 
  "1988": 7257, 
  "-L@@": 7258, 
  "‑@@": 7259, 
  "Atomic": 7260, 
  "arsenal": 7261, 
  "driver": 7262, 
  "mirror": 7263, 
  "Research": 7264, 
  "indicted": 7265, 
  "contradic@@": 7266, 
  "compromised": 7267, 
  "dedu@@": 7268, 
  "trauma": 7269, 
  "humiliating": 7270, 
  "Wor@@": 7271, 
  "On": 7272, 
  "and-@@": 7273, 
  "foreign-@@": 7274, 
  "bits": 7275, 
  "complaints": 7276, 
  "Science": 7277, 
  "institu@@": 7278, 
  "thoughts": 7279, 
  "pretty": 7280, 
  "literature": 7281, 
  "motor": 7282, 
  "wounds": 7283, 
  "ssi@@": 7284, 
  "lying": 7285, 
  "concerted": 7286, 
  "nonsense": 7287, 
  "limitations": 7288, 
  "marketing": 7289, 
  "birds": 7290, 
  "drops": 7291, 
  "nor@@": 7292, 
  "hostage": 7293, 
  "privilege": 7294, 
  "agent": 7295, 
  "urbanization": 7296, 
  "San": 7297, 
  "bor@@": 7298, 
  "mped": 7299, 
  "directors": 7300, 
  "Karl": 7301, 
  "lec@@": 7302, 
  "self": 7303, 
  "privatized": 7304, 
  "pipelines": 7305, 
  "passage": 7306, 
  "tone": 7307, 
  "pling": 7308, 
  "circu@@": 7309, 
  "caution": 7310, 
  "sacred": 7311, 
  "duration": 7312, 
  "moderni@@": 7313, 
  "papers": 7314, 
  "deteriorating": 7315, 
  "incompetence": 7316, 
  "1933": 7317, 
  "critically": 7318, 
  "Brotherhood": 7319, 
  "Sadat": 7320, 
  "diet": 7321, 
  "tal@@": 7322, 
  "arly": 7323, 
  "slump": 7324, 
  "sleep": 7325, 
  "lining": 7326, 
  "recourse": 7327, 
  "gathering": 7328, 
  "communic@@": 7329, 
  "enshrined": 7330, 
  "portra@@": 7331, 
  "cav@@": 7332, 
  "tiveness": 7333, 
  "1986": 7334, 
  "bru@@": 7335, 
  "susceptible": 7336, 
  "reversing": 7337, 
  "rockets": 7338, 
  "equals": 7339, 
  "ures": 7340, 
  "Hugo": 7341, 
  "mature": 7342, 
  "Ju@@": 7343, 
  "fic@@": 7344, 
  "proceedings": 7345, 
  "band": 7346, 
  "commerce": 7347, 
  "contempt": 7348, 
  "suppression": 7349, 
  "landing": 7350, 
  "lap@@": 7351, 
  "Vatican": 7352, 
  "but@@": 7353, 
  "bloodshed": 7354, 
  "transitional": 7355, 
  "Libyan": 7356, 
  "masters": 7357, 
  "analogous": 7358, 
  "Istanbul": 7359, 
  "denying": 7360, 
  "cted": 7361, 
  "embracing": 7362, 
  "Florida": 7363, 
  "evalu@@": 7364, 
  "arrogance": 7365, 
  "mid@@": 7366, 
  "Bundesbank": 7367, 
  "abilities": 7368, 
  "banning": 7369, 
  "persists": 7370, 
  "referred": 7371, 
  "negotiators": 7372, 
  "bombers": 7373, 
  "convention": 7374, 
  "N": 7375, 
  "troubles": 7376, 
  "Coun@@": 7377, 
  "subsidiaries": 7378, 
  "responsive": 7379, 
  "Manuel": 7380, 
  "discussing": 7381, 
  "irreversible": 7382, 
  "laboratory": 7383, 
  "ffs": 7384, 
  "Gre@@": 7385, 
  "jail": 7386, 
  "ute": 7387, 
  "tioned": 7388, 
  "bed@@": 7389, 
  "lean": 7390, 
  "Pen": 7391, 
  "cents": 7392, 
  "ctions": 7393, 
  "end@@": 7394, 
  "explore": 7395, 
  "1970s": 7396, 
  "beneficiaries": 7397, 
  "perpetu@@": 7398, 
  "scores": 7399, 
  "turing": 7400, 
  "tempting": 7401, 
  "low-wage": 7402, 
  "strategically": 7403, 
  "hyper@@": 7404, 
  "feeding": 7405, 
  "collected": 7406, 
  "ignores": 7407, 
  "berg": 7408, 
  "cruel": 7409, 
  "ne": 7410, 
  "capitals": 7411, 
  "1940": 7412, 
  "autocratic": 7413, 
  "subsidized": 7414, 
  "nation-state": 7415, 
  "fatal": 7416, 
  "anchor": 7417, 
  "Tu@@": 7418, 
  "walls": 7419, 
  "tighter": 7420, 
  "suspended": 7421, 
  "plight": 7422, 
  "rop@@": 7423, 
  "age-@@": 7424, 
  "paralyzed": 7425, 
  "powerless": 7426, 
  "Yu@@": 7427, 
  "cable": 7428, 
  "directions": 7429, 
  "bling": 7430, 
  "prohibition": 7431, 
  "diversification": 7432, 
  "imprisoned": 7433, 
  "aver@@": 7434, 
  "discretion": 7435, 
  "wearing": 7436, 
  "varied": 7437, 
  "fearful": 7438, 
  "owed": 7439, 
  "judging": 7440, 
  "sentenced": 7441, 
  "amed": 7442, 
  "owner": 7443, 
  "mul@@": 7444, 
  "redress": 7445, 
  "monopoli@@": 7446, 
  "mentality": 7447, 
  "consul@@": 7448, 
  "transportation": 7449, 
  "hiring": 7450, 
  "hardest": 7451, 
  "inten@@": 7452, 
  "holes": 7453, 
  "°": 7454, 
  "6-@@": 7455, 
  "domin@@": 7456, 
  "transitions": 7457, 
  "dividends": 7458, 
  "insights": 7459, 
  "selective": 7460, 
  "News": 7461, 
  "nomin@@": 7462, 
  "Sy@@": 7463, 
  "ap": 7464, 
  "ensuing": 7465, 
  "fixing": 7466, 
  "notions": 7467, 
  "wholesale": 7468, 
  "attached": 7469, 
  "suggestion": 7470, 
  "predic@@": 7471, 
  "cau@@": 7472, 
  "sup@@": 7473, 
  "Affairs": 7474, 
  "hin@@": 7475, 
  "yesterday": 7476, 
  "bribes": 7477, 
  "anemic": 7478, 
  "infant": 7479, 
  "myriad": 7480, 
  "rapprochement": 7481, 
  "Zealand": 7482, 
  "approve": 7483, 
  "preference": 7484, 
  "appealing": 7485, 
  "trillions": 7486, 
  "You": 7487, 
  "dangerously": 7488, 
  "pages": 7489, 
  "battlefield": 7490, 
  "jurisdiction": 7491, 
  "exhausted": 7492, 
  "collec@@": 7493, 
  "export-led": 7494, 
  "sweeping": 7495, 
  "surgery": 7496, 
  "crowded": 7497, 
  "manship": 7498, 
  "demon@@": 7499, 
  "silver": 7500, 
  "killings": 7501, 
  "reminds": 7502, 
  "9.@@": 7503, 
  "uprising": 7504, 
  "Forces": 7505, 
  "trivial": 7506, 
  "monarch@@": 7507, 
  "constraint": 7508, 
  "show@@": 7509, 
  "Likud": 7510, 
  "repercussions": 7511, 
  "prudence": 7512, 
  "childhood": 7513, 
  "cross-@@": 7514, 
  "desired": 7515, 
  "liberalizing": 7516, 
  "ental": 7517, 
  "overheating": 7518, 
  "Oxford": 7519, 
  "meets": 7520, 
  "ased": 7521, 
  "press@@": 7522, 
  "qualities": 7523, 
  "ody": 7524, 
  "defines": 7525, 
  "trafficking": 7526, 
  "illiquid": 7527, 
  "recommen@@": 7528, 
  "peripheral": 7529, 
  "narrowly": 7530, 
  "unskilled": 7531, 
  "Erdoğan": 7532, 
  "rap@@": 7533, 
  "med@@": 7534, 
  "eva@@": 7535, 
  "fruits": 7536, 
  "xing": 7537, 
  "hab@@": 7538, 
  "grievances": 7539, 
  "distra@@": 7540, 
  "Am@@": 7541, 
  "spin": 7542, 
  "Kar@@": 7543, 
  "coloni@@": 7544, 
  "rewarding": 7545, 
  "pieces": 7546, 
  "ier": 7547, 
  "ances": 7548, 
  "poppy": 7549, 
  "detainees": 7550, 
  "Wilders": 7551, 
  "arm": 7552, 
  "tness": 7553, 
  "brains": 7554, 
  "stand@@": 7555, 
  "peg": 7556, 
  "array": 7557, 
  "hesit@@": 7558, 
  "nineteenth-century": 7559, 
  "decentralized": 7560, 
  "Exchange": 7561, 
  "nostalgia": 7562, 
  "adult": 7563, 
  "embodied": 7564, 
  "description": 7565, 
  "collapses": 7566, 
  "econom@@": 7567, 
  "Ad@@": 7568, 
  "ady": 7569, 
  "odd": 7570, 
  "recommended": 7571, 
  "ich@@": 7572, 
  "dedicated": 7573, 
  "exagger@@": 7574, 
  "Kazakhstan": 7575, 
  "dot@@": 7576, 
  "unlimited": 7577, 
  "Henry": 7578, 
  "desert": 7579, 
  "bar": 7580, 
  "rot": 7581, 
  "chemicals": 7582, 
  "st-@@": 7583, 
  "insiders": 7584, 
  "teen": 7585, 
  "unchanged": 7586, 
  "convert": 7587, 
  "Tymoshenko": 7588, 
  "ingredients": 7589, 
  "hec@@": 7590, 
  "Margaret": 7591, 
  "interrup@@": 7592, 
  "mad@@": 7593, 
  "steep": 7594, 
  "activism": 7595, 
  "bent": 7596, 
  "articles": 7597, 
  "eness": 7598, 
  "hegemonic": 7599, 
  "Aristide": 7600, 
  "dare": 7601, 
  "gent": 7602, 
  "drag": 7603, 
  "trick": 7604, 
  "maintains": 7605, 
  "boy": 7606, 
  "compelled": 7607, 
  "holder": 7608, 
  "interact": 7609, 
  "safeguards": 7610, 
  "gling": 7611, 
  "Jiang": 7612, 
  "xed": 7613, 
  "notorious": 7614, 
  "armies": 7615, 
  "deri@@": 7616, 
  "crisis-@@": 7617, 
  "Slobodan": 7618, 
  "Fran@@": 7619, 
  "categories": 7620, 
  "disadvantage": 7621, 
  "Go@@": 7622, 
  "beauty": 7623, 
  "Three": 7624, 
  "jun@@": 7625, 
  "rationality": 7626, 
  "transferred": 7627, 
  "Wel@@": 7628, 
  "infer@@": 7629, 
  "dismal": 7630, 
  "thri@@": 7631, 
  "calculation": 7632, 
  "metaphor": 7633, 
  "demonstrators": 7634, 
  "prefers": 7635, 
  "rejecting": 7636, 
  "ugly": 7637, 
  "psycho@@": 7638, 
  "ko": 7639, 
  "indu@@": 7640, 
  "cent": 7641, 
  "demago@@": 7642, 
  "upside": 7643, 
  "NGO": 7644, 
  "four@@": 7645, 
  "talents": 7646, 
  "kings": 7647, 
  "1.3": 7648, 
  "kin": 7649, 
  "truce": 7650, 
  "dependency": 7651, 
  "escalating": 7652, 
  "distribu@@": 7653, 
  "inward": 7654, 
  "WHO": 7655, 
  "Movement": 7656, 
  "clearer": 7657, 
  "Leader": 7658, 
  "Cha@@": 7659, 
  "fronts": 7660, 
  "reactors": 7661, 
  "barrier": 7662, 
  "endorse": 7663, 
  "pos@@": 7664, 
  "whereby": 7665, 
  "preach@@": 7666, 
  "www.@@": 7667, 
  "possesses": 7668, 
  "imprisonment": 7669, 
  "pulling": 7670, 
  "quali@@": 7671, 
  "neutr@@": 7672, 
  "spite": 7673, 
  "drives": 7674, 
  "Advis@@": 7675, 
  "Amsterdam": 7676, 
  "demonstrating": 7677, 
  "xenophobic": 7678, 
  "strains": 7679, 
  "Ang@@": 7680, 
  "SDR": 7681, 
  "broker": 7682, 
  "forging": 7683, 
  "automobiles": 7684, 
  "attractiveness": 7685, 
  "-in-@@": 7686, 
  "exceeded": 7687, 
  "complic@@": 7688, 
  "asymmetric": 7689, 
  "US@@": 7690, 
  "centered": 7691, 
  "ethanol": 7692, 
  "persons": 7693, 
  "Darwin": 7694, 
  "intelligent": 7695, 
  "Hosni": 7696, 
  "20,000": 7697, 
  "foolish": 7698, 
  "drama": 7699, 
  "chemistry": 7700, 
  "par": 7701, 
  "glut": 7702, 
  "starvation": 7703, 
  "motive": 7704, 
  "simplistic": 7705, 
  "vulnerabilities": 7706, 
  "storms": 7707, 
  "impending": 7708, 
  "ethos": 7709, 
  "utter": 7710, 
  "murderous": 7711, 
  "Thaksin": 7712, 
  "0.7": 7713, 
  "recipient": 7714, 
  "consultation": 7715, 
  "mild": 7716, 
  "proceeds": 7717, 
  "wil@@": 7718, 
  "Liberal": 7719, 
  "gation": 7720, 
  "discount": 7721, 
  "oting": 7722, 
  "Congo": 7723, 
  "freer": 7724, 
  "intends": 7725, 
  "arti@@": 7726, 
  "countryside": 7727, 
  "telephone": 7728, 
  "bulk": 7729, 
  "tim@@": 7730, 
  "tened": 7731, 
  "inhi@@": 7732, 
  "rogue": 7733, 
  "rob@@": 7734, 
  "Bashar": 7735, 
  "slu@@": 7736, 
  "Fannie": 7737, 
  "social-welfare": 7738, 
  "council": 7739, 
  "sle@@": 7740, 
  "corresponding": 7741, 
  "Dr.": 7742, 
  "wanting": 7743, 
  "benefiting": 7744, 
  "Uni@@": 7745, 
  "cost-@@": 7746, 
  "lan": 7747, 
  "dling": 7748, 
  "stolen": 7749, 
  "obsession": 7750, 
  "so-@@": 7751, 
  "insured": 7752, 
  "inflated": 7753, 
  "utility": 7754, 
  "tedly": 7755, 
  "vit@@": 7756, 
  "Afghans": 7757, 
  "tax-@@": 7758, 
  "diminishing": 7759, 
  "complacency": 7760, 
  "inflation-@@": 7761, 
  "care@@": 7762, 
  "Orleans": 7763, 
  "linking": 7764, 
  "resisting": 7765, 
  "coastal": 7766, 
  "prosecutors": 7767, 
  "unwillingness": 7768, 
  "anism": 7769, 
  "daughter": 7770, 
  "reminiscent": 7771, 
  "undemocratic": 7772, 
  "coffee": 7773, 
  "ven": 7774, 
  "fled": 7775, 
  "lower-@@": 7776, 
  "please": 7777, 
  "entail": 7778, 
  "Val@@": 7779, 
  "veri@@": 7780, 
  "behavioral": 7781, 
  "reap": 7782, 
  "school@@": 7783, 
  "flying": 7784, 
  "Se@@": 7785, 
  "analyses": 7786, 
  "drug-@@": 7787, 
  "opponent": 7788, 
  "murdered": 7789, 
  "repudi@@": 7790, 
  "elec@@": 7791, 
  "orchest@@": 7792, 
  "realm": 7793, 
  "T": 7794, 
  "plain": 7795, 
  "Karadzic": 7796, 
  "Fukushima": 7797, 
  "counterpart": 7798, 
  "stro@@": 7799, 
  "protections": 7800, 
  "onist": 7801, 
  "nau@@": 7802, 
  "illiberal": 7803, 
  "hard@@": 7804, 
  "Guatemala": 7805, 
  "illegitimate": 7806, 
  "occup@@": 7807, 
  "counted": 7808, 
  "widen": 7809, 
  "agreeing": 7810, 
  "Indi@@": 7811, 
  "exporter": 7812, 
  "Hungarian": 7813, 
  "emulate": 7814, 
  "bes": 7815, 
  "lag": 7816, 
  "dominates": 7817, 
  "ets": 7818, 
  "greeted": 7819, 
  "severity": 7820, 
  "embarra@@": 7821, 
  "horse": 7822, 
  "geo-@@": 7823, 
  "business-@@": 7824, 
  "loved": 7825, 
  "bridges": 7826, 
  "burned": 7827, 
  "bureaucracies": 7828, 
  "dog": 7829, 
  "disorderly": 7830, 
  "drew": 7831, 
  "concep@@": 7832, 
  "testimony": 7833, 
  "stroke": 7834, 
  "aro@@": 7835, 
  "Ottoman": 7836, 
  "tolerant": 7837, 
  "designing": 7838, 
  "stimu@@": 7839, 
  "fans": 7840, 
  "shore": 7841, 
  "bloated": 7842, 
  "converted": 7843, 
  "sins": 7844, 
  "bud@@": 7845, 
  "busy": 7846, 
  "Black": 7847, 
  "­@@": 7848, 
  "constituted": 7849, 
  "war-@@": 7850, 
  "cyber": 7851, 
  "advancing": 7852, 
  "locations": 7853, 
  "legi@@": 7854, 
  "hike": 7855, 
  "self-fulfilling": 7856, 
  "proponents": 7857, 
  "awa@@": 7858, 
  "issu@@": 7859, 
  "branches": 7860, 
  "puzz@@": 7861, 
  "faction": 7862, 
  "slack": 7863, 
  "umbrella": 7864, 
  "siege": 7865, 
  "manageable": 7866, 
  "taxpayer": 7867, 
  "shooting": 7868, 
  "insight": 7869, 
  "manipulated": 7870, 
  "overlooked": 7871, 
  "Ta@@": 7872, 
  "accusations": 7873, 
  "cronies": 7874, 
  "rem@@": 7875, 
  "decides": 7876, 
  "equitable": 7877, 
  "Non-Proliferation": 7878, 
  "predicament": 7879, 
  "rail@@": 7880, 
  "Lukashenko": 7881, 
  "decreased": 7882, 
  "disa@@": 7883, 
  "supervisors": 7884, 
  "1.4": 7885, 
  "patriotism": 7886, 
  "unra@@": 7887, 
  "nationalization": 7888, 
  "earning": 7889, 
  "disclosure": 7890, 
  "Mumbai": 7891, 
  "well-known": 7892, 
  "lots": 7893, 
  "forming": 7894, 
  "constructing": 7895, 
  "equation": 7896, 
  "sca@@": 7897, 
  "opium": 7898, 
  "paci@@": 7899, 
  "securitization": 7900, 
  "align": 7901, 
  "crimin@@": 7902, 
  "investigations": 7903, 
  "outbreak": 7904, 
  "cancel@@": 7905, 
  "com": 7906, 
  "37": 7907, 
  "civili@@": 7908, 
  "fires": 7909, 
  "publishing": 7910, 
  "mosque": 7911, 
  "doctor": 7912, 
  "resurgence": 7913, 
  "regards": 7914, 
  "arist": 7915, 
  "sty": 7916, 
  "monks": 7917, 
  "250": 7918, 
  "Milton": 7919, 
  "middle-class": 7920, 
  "quantum": 7921, 
  "taste": 7922, 
  "detail": 7923, 
  "justi@@": 7924, 
  "whi@@": 7925, 
  "harmonization": 7926, 
  "historian": 7927, 
  "overvalued": 7928, 
  "gay": 7929, 
  "select": 7930, 
  "legislators": 7931, 
  "Foundation": 7932, 
  "mistrust": 7933, 
  "poc@@": 7934, 
  "Damascus": 7935, 
  "cement": 7936, 
  "jeopardize": 7937, 
  "HAVEN": 7938, 
  "containing": 7939, 
  "mathematics": 7940, 
  "extinction": 7941, 
  "Sal@@": 7942, 
  "parasites": 7943, 
  "bolster": 7944, 
  "churches": 7945, 
  "multiplied": 7946, 
  "cel@@": 7947, 
  "formerly": 7948, 
  "royal": 7949, 
  "projections": 7950, 
  "enjoys": 7951, 
  "1956": 7952, 
  "prompted": 7953, 
  "evaluate": 7954, 
  "arrogant": 7955, 
  "adapted": 7956, 
  "slight": 7957, 
  "MDGs": 7958, 
  "ton@@": 7959, 
  "sy@@": 7960, 
  "resilient": 7961, 
  "Conservative": 7962, 
  "Dis@@": 7963, 
  "declaring": 7964, 
  "deepened": 7965, 
  "journalism": 7966, 
  "charter": 7967, 
  "are@@": 7968, 
  "taboo": 7969, 
  "bio-@@": 7970, 
  "repayment": 7971, 
  "Executive": 7972, 
  "occupy": 7973, 
  "obscure": 7974, 
  "shocking": 7975, 
  "acknowledging": 7976, 
  "impasse": 7977, 
  "paramount": 7978, 
  "cease": 7979, 
  "succumb": 7980, 
  "molecular": 7981, 
  "mixture": 7982, 
  "not-@@": 7983, 
  "-R@@": 7984, 
  "intact": 7985, 
  "Wen": 7986, 
  "Ba@@": 7987, 
  "meat": 7988, 
  "accommod@@": 7989, 
  "genetics": 7990, 
  "privately": 7991, 
  "tivity": 7992, 
  "ascen@@": 7993, 
  "cosmopolitan": 7994, 
  "promotes": 7995, 
  "cut@@": 7996, 
  "eu@@": 7997, 
  "loos@@": 7998, 
  "preferable": 7999, 
  "ich": 8000, 
  "femin@@": 8001, 
  "indictment": 8002, 
  "minute": 8003, 
  "grip": 8004, 
  "Soviet-@@": 8005, 
  "intractable": 8006, 
  "affluent": 8007, 
  "Project": 8008, 
  "nurture": 8009, 
  "conditional": 8010, 
  "stops": 8011, 
  "peasant": 8012, 
  "horrible": 8013, 
  "Bal@@": 8014, 
  "criterion": 8015, 
  "troop": 8016, 
  "ce-@@": 8017, 
  "technically": 8018, 
  "prof@@": 8019, 
  "pol@@": 8020, 
  "infections": 8021, 
  "conducive": 8022, 
  "degra@@": 8023, 
  "dro@@": 8024, 
  "odi@@": 8025, 
  "tables": 8026, 
  "omin@@": 8027, 
  "invite": 8028, 
  "ICC": 8029, 
  "twin": 8030, 
  "soar": 8031, 
  "PA": 8032, 
  "influences": 8033, 
  "capit@@": 8034, 
  "remedy": 8035, 
  "v": 8036, 
  "vel@@": 8037, 
  "underestimated": 8038, 
  "mergers": 8039, 
  "tive-@@": 8040, 
  "pharmaceutical": 8041, 
  "combining": 8042, 
  "visits": 8043, 
  "remarks": 8044, 
  "listening": 8045, 
  "gamble": 8046, 
  "trades": 8047, 
  "III": 8048, 
  "high-level": 8049, 
  "addiction": 8050, 
  "salary": 8051, 
  "hosts": 8052, 
  "ler@@": 8053, 
  "coast": 8054, 
  "mobilized": 8055, 
  "jointly": 8056, 
  "optimal": 8057, 
  "zh@@": 8058, 
  "slaughter": 8059, 
  "clever": 8060, 
  "thoroughly": 8061, 
  "stature": 8062, 
  "high@@": 8063, 
  "Chi@@": 8064, 
  "SDRs": 8065, 
  "peso": 8066, 
  "10-@@": 8067, 
  "Djindjic": 8068, 
  "accepts": 8069, 
  "fulfilling": 8070, 
  "fostering": 8071, 
  "blocks": 8072, 
  "rist": 8073, 
  "twelve": 8074, 
  "avi@@": 8075, 
  "Michael": 8076, 
  "Power": 8077, 
  "nan@@": 8078, 
  "si": 8079, 
  "too-@@": 8080, 
  "adhere": 8081, 
  "documented": 8082, 
  "cking": 8083, 
  "retaliation": 8084, 
  "exercises": 8085, 
  "expansionary": 8086, 
  "low@@": 8087, 
  "eating": 8088, 
  "parallels": 8089, 
  "haven": 8090, 
  "dec@@": 8091, 
  "champions": 8092, 
  "journalist": 8093, 
  "hen@@": 8094, 
  "devised": 8095, 
  "talented": 8096, 
  "variations": 8097, 
  "pretend": 8098, 
  "stock@@": 8099, 
  "incompetent": 8100, 
  "naïve": 8101, 
  "exploiting": 8102, 
  "passes": 8103, 
  "ga": 8104, 
  "intend": 8105, 
  "dom": 8106, 
  "theorists": 8107, 
  "neo-liberal": 8108, 
  "Ibrahim": 8109, 
  "entertainment": 8110, 
  "rism": 8111, 
  "interpretations": 8112, 
  "syn@@": 8113, 
  "ecosystem": 8114, 
  "mining": 8115, 
  "assessed": 8116, 
  "pac@@": 8117, 
  "timely": 8118, 
  "advent": 8119, 
  "turbulence": 8120, 
  "would-be": 8121, 
  "contra@@": 8122, 
  "vian": 8123, 
  "Italians": 8124, 
  "periodic": 8125, 
  "supportive": 8126, 
  "warn": 8127, 
  "underpinned": 8128, 
  "resource-@@": 8129, 
  "graduate": 8130, 
  "examination": 8131, 
  "DELHI": 8132, 
  "good@@": 8133, 
  "dog@@": 8134, 
  "predictability": 8135, 
  "equities": 8136, 
  "puzzle": 8137, 
  "2100": 8138, 
  "eling": 8139, 
  "tt@@": 8140, 
  "mode@@": 8141, 
  "m-@@": 8142, 
  "theirs": 8143, 
  "li": 8144, 
  "François": 8145, 
  "decre@@": 8146, 
  "undergoing": 8147, 
  "Albanians": 8148, 
  "aire": 8149, 
  "publication": 8150, 
  "safely": 8151, 
  "Nazism": 8152, 
  "shment": 8153, 
  "clean@@": 8154, 
  "evolving": 8155, 
  "Burmese": 8156, 
  "remedies": 8157, 
  "appetite": 8158, 
  "commun@@": 8159, 
  "confronts": 8160, 
  "Azerbaijan": 8161, 
  "publish": 8162, 
  "aggravated": 8163, 
  "scheduled": 8164, 
  "elevated": 8165, 
  "horrific": 8166, 
  "wea@@": 8167, 
  "revised": 8168, 
  "Golan": 8169, 
  "Xiaoping": 8170, 
  "est-@@": 8171, 
  "unwanted": 8172, 
  "conferences": 8173, 
  "athletes": 8174, 
  "gravity": 8175, 
  "micro-@@": 8176, 
  "privacy": 8177, 
  "mankind": 8178, 
  "sin": 8179, 
  "44": 8180, 
  "Jud@@": 8181, 
  "overcoming": 8182, 
  "nerve": 8183, 
  "Nordic": 8184, 
  "198@@": 8185, 
  "emigra@@": 8186, 
  "maturity": 8187, 
  "administered": 8188, 
  "fare": 8189, 
  "William": 8190, 
  "vanished": 8191, 
  "oceans": 8192, 
  "rein@@": 8193, 
  "survivors": 8194, 
  "prevails": 8195, 
  "matic": 8196, 
  "explo@@": 8197, 
  "weakens": 8198, 
  "dead@@": 8199, 
  "attribute": 8200, 
  "cked": 8201, 
  "hot@@": 8202, 
  "pet": 8203, 
  "sand": 8204, 
  "noble": 8205, 
  "perverse": 8206, 
  "troubling": 8207, 
  "hubris": 8208, 
  "ared": 8209, 
  "ethnicity": 8210, 
  "ient": 8211, 
  "seldom": 8212, 
  "mation": 8213, 
  "higher-@@": 8214, 
  "transmitted": 8215, 
  "compassion": 8216, 
  "shly": 8217, 
  "ideally": 8218, 
  "contradiction": 8219, 
  "fearing": 8220, 
  "Th@@": 8221, 
  "serv@@": 8222, 
  "000-@@": 8223, 
  "alleviate": 8224, 
  "amid": 8225, 
  "elusive": 8226, 
  "ssment": 8227, 
  "protocol": 8228, 
  "Lo@@": 8229, 
  "motivation": 8230, 
  "Caribbean": 8231, 
  "stall": 8232, 
  "notes": 8233, 
  "integral": 8234, 
  "initiate": 8235, 
  "Jean-Claude": 8236, 
  "subjected": 8237, 
  "Corporation": 8238, 
  "tat@@": 8239, 
  "lights": 8240, 
  "consecutive": 8241, 
  "ele@@": 8242, 
  "ization": 8243, 
  "charismatic": 8244, 
  "readiness": 8245, 
  "celebrated": 8246, 
  "cling": 8247, 
  "wrong@@": 8248, 
  "tainted": 8249, 
  "cting": 8250, 
  "sul@@": 8251, 
  "U": 8252, 
  "executed": 8253, 
  "discretionary": 8254, 
  "ranked": 8255, 
  "cy@@": 8256, 
  "anic": 8257, 
  "edi@@": 8258, 
  "backward": 8259, 
  "scarcely": 8260, 
  "campaigning": 8261, 
  "abstract": 8262, 
  "Vi@@": 8263, 
  "homosexuality": 8264, 
  "toral": 8265, 
  "humane": 8266, 
  "isolate": 8267, 
  "Bosnian": 8268, 
  "mainland": 8269, 
  "1985": 8270, 
  "mbling": 8271, 
  "120": 8272, 
  "Resolution": 8273, 
  "With": 8274, 
  "dov@@": 8275, 
  "nate": 8276, 
  "Silicon": 8277, 
  "Ter@@": 8278, 
  "volunte@@": 8279, 
  "advocating": 8280, 
  "offense": 8281, 
  "titude": 8282, 
  "opaque": 8283, 
  "smoking": 8284, 
  "Uruguay": 8285, 
  "temptations": 8286, 
  "retired": 8287, 
  "55": 8288, 
  "spot": 8289, 
  "48": 8290, 
  "FARC": 8291, 
  "ensures": 8292, 
  "relation": 8293, 
  "obtaining": 8294, 
  "deser@@": 8295, 
  "W": 8296, 
  "descen@@": 8297, 
  "Angeles": 8298, 
  "sty@@": 8299, 
  "Democrat": 8300, 
  "hypothesis": 8301, 
  "wishful": 8302, 
  "mismanagement": 8303, 
  "as-@@": 8304, 
  "brothers": 8305, 
  "Rubin": 8306, 
  "honesty": 8307, 
  "emp@@": 8308, 
  "ati@@": 8309, 
  "Ecuador": 8310, 
  "accessible": 8311, 
  "looms": 8312, 
  "precondition": 8313, 
  "reporters": 8314, 
  "invading": 8315, 
  "Blix": 8316, 
  "deleg@@": 8317, 
  "hun@@": 8318, 
  "nutrition": 8319, 
  "alienated": 8320, 
  "expelled": 8321, 
  "les@@": 8322, 
  "For": 8323, 
  "ambiguous": 8324, 
  "emphasizes": 8325, 
  "wear": 8326, 
  "00,000": 8327, 
  "discoveries": 8328, 
  "compulsory": 8329, 
  "penalties": 8330, 
  "FTA": 8331, 
  "sympath@@": 8332, 
  "organic": 8333, 
  "topic": 8334, 
  "sl@@": 8335, 
  "disciplined": 8336, 
  "uniform": 8337, 
  "cloning": 8338, 
  "Mexicans": 8339, 
  "unted": 8340, 
  "voluntarily": 8341, 
  "vocal": 8342, 
  "ally-@@": 8343, 
  "vaccine": 8344, 
  "brilliant": 8345, 
  "wal@@": 8346, 
  "manifest@@": 8347, 
  "ulous": 8348, 
  "impressed": 8349, 
  "stabili@@": 8350, 
  "ini@@": 8351, 
  "Paulson": 8352, 
  "proposes": 8353, 
  "world-@@": 8354, 
  "AIG": 8355, 
  "tele@@": 8356, 
  "-out": 8357, 
  "ei@@": 8358, 
  "eligible": 8359, 
  "coincidence": 8360, 
  "enters": 8361, 
  "modernizing": 8362, 
  "ania": 8363, 
  "anytime": 8364, 
  "enforcing": 8365, 
  "pile": 8366, 
  "comprehend": 8367, 
  "hyper-@@": 8368, 
  "gged": 8369, 
  "gement": 8370, 
  "sionist": 8371, 
  "illicit": 8372, 
  "frontier": 8373, 
  "rewarded": 8374, 
  "slogans": 8375, 
  "clock": 8376, 
  "But": 8377, 
  "buff@@": 8378, 
  "Summers": 8379, 
  "dry": 8380, 
  "amounted": 8381, 
  "Uzbekistan": 8382, 
  "posts": 8383, 
  "rainfall": 8384, 
  "hardship": 8385, 
  "frame": 8386, 
  "ocracy": 8387, 
  "erial": 8388, 
  "GM": 8389, 
  "nuclear-armed": 8390, 
  "coercion": 8391, 
  "ratify": 8392, 
  "specified": 8393, 
  "squandered": 8394, 
  "husband": 8395, 
  "Hollywood": 8396, 
  "3,000": 8397, 
  "acupuncture": 8398, 
  "undeniable": 8399, 
  "Freddie": 8400, 
  "disagreement": 8401, 
  "eng": 8402, 
  "Thomas": 8403, 
  "disappointment": 8404, 
  "deep-@@": 8405, 
  "exceptionally": 8406, 
  "mount": 8407, 
  "exert": 8408, 
  "fur@@": 8409, 
  "30-@@": 8410, 
  "burg": 8411, 
  "uting": 8412, 
  "Old": 8413, 
  "Wolfensohn": 8414, 
  "post-Cold": 8415, 
  "waters": 8416, 
  "bonus": 8417, 
  "loaded": 8418, 
  "structured": 8419, 
  "peninsula": 8420, 
  "bers": 8421, 
  "Phelps": 8422, 
  "variant": 8423, 
  "Market": 8424, 
  "rents": 8425, 
  "mem@@": 8426, 
  "old-fashioned": 8427, 
  "ful@@": 8428, 
  "stressed": 8429, 
  "Isla@@": 8430, 
  "fiction": 8431, 
  "herself": 8432, 
  "lax": 8433, 
  "wav@@": 8434, 
  "objections": 8435, 
  "colleague": 8436, 
  "imperatives": 8437, 
  "districts": 8438, 
  "eastward": 8439, 
  "Wil@@": 8440, 
  "incar@@": 8441, 
  "collection": 8442, 
  "beating": 8443, 
  "refinancing": 8444, 
  "cushion": 8445, 
  "modi@@": 8446, 
  "Tudor": 8447, 
  "translated": 8448, 
  "inst@@": 8449, 
  "£": 8450, 
  "cyc@@": 8451, 
  "insure": 8452, 
  "sians": 8453, 
  "livelihoods": 8454, 
  "explaining": 8455, 
  "inspiring": 8456, 
  "ables": 8457, 
  "ruthless": 8458, 
  "transferring": 8459, 
  "Western-@@": 8460, 
  "casting": 8461, 
  "strip": 8462, 
  "jailed": 8463, 
  "tier": 8464, 
  "mobilizing": 8465, 
  "lowered": 8466, 
  "inspiration": 8467, 
  "biologists": 8468, 
  "string": 8469, 
  "Muhammad": 8470, 
  "convertibility": 8471, 
  "ass": 8472, 
  "ll": 8473, 
  "correlation": 8474, 
  "fol@@": 8475, 
  "secre@@": 8476, 
  "instruc@@": 8477, 
  "Os": 8478, 
  "cal": 8479, 
  "market-oriented": 8480, 
  "tolerated": 8481, 
  "grossly": 8482, 
  "providers": 8483, 
  "accidents": 8484, 
  "tackling": 8485, 
  "ess@@": 8486, 
  "lock": 8487, 
  "constitutions": 8488, 
  "addic@@": 8489, 
  "tribes": 8490, 
  "spill": 8491, 
  "operates": 8492, 
  "guidelines": 8493, 
  "employ": 8494, 
  "Action": 8495, 
  "Commissioner": 8496, 
  "advised": 8497, 
  "cumulative": 8498, 
  "deepest": 8499, 
  "cha@@": 8500, 
  "inclined": 8501, 
  "supremacy": 8502, 
  "cri@@": 8503, 
  "cocaine": 8504, 
  "organs": 8505, 
  "longevity": 8506, 
  "contested": 8507, 
  "Mu@@": 8508, 
  "System": 8509, 
  "Rio": 8510, 
  "lawyer": 8511, 
  "sil@@": 8512, 
  "managerial": 8513, 
  "instructions": 8514, 
  "2007-@@": 8515, 
  "concei@@": 8516, 
  "itu@@": 8517, 
  "vel": 8518, 
  "divert": 8519, 
  "recipients": 8520, 
  "quarter-century": 8521, 
  "posture": 8522, 
  "é@@": 8523, 
  "Fi@@": 8524, 
  "depic@@": 8525, 
  "condemnation": 8526, 
  "havoc": 8527, 
  "overdue": 8528, 
  "averaged": 8529, 
  "Scandinavian": 8530, 
  "clashes": 8531, 
  "450": 8532, 
  "prolong": 8533, 
  "kes": 8534, 
  "arians": 8535, 
  "euphoria": 8536, 
  "disdain": 8537, 
  "opportun@@": 8538, 
  "cynicism": 8539, 
  "distort": 8540, 
  "Islamabad": 8541, 
  "achievable": 8542, 
  "tank": 8543, 
  "divisive": 8544, 
  "Jong": 8545, 
  "Jintao": 8546, 
  "planes": 8547, 
  "Mi@@": 8548, 
  "trag@@": 8549, 
  "jihad": 8550, 
  "cleansing": 8551, 
  "horrors": 8552, 
  "anom@@": 8553, 
  "&apos;m": 8554, 
  "icians": 8555, 
  "therapeutic": 8556, 
  "/@@": 8557, 
  "similarities": 8558, 
  "tab@@": 8559, 
  "supranational": 8560, 
  "chil@@": 8561, 
  "Zionism": 8562, 
  "moc@@": 8563, 
  "man-made": 8564, 
  "replic@@": 8565, 
  "noticed": 8566, 
  "ailing": 8567, 
  "bon@@": 8568, 
  "mountains": 8569, 
  "rigorous": 8570, 
  "Tudjman": 8571, 
  "possessed": 8572, 
  "drivers": 8573, 
  "escalation": 8574, 
  "tain@@": 8575, 
  "confirms": 8576, 
  "ack@@": 8577, 
  "nit@@": 8578, 
  "ph": 8579, 
  "chec@@": 8580, 
  "interfere": 8581, 
  "mines": 8582, 
  "contentious": 8583, 
  "transcend": 8584, 
  "Delhi": 8585, 
  "Americas": 8586, 
  "ales": 8587, 
  "rad@@": 8588, 
  "Luzhkov": 8589, 
  "value-added": 8590, 
  "inefficiency": 8591, 
  "compounded": 8592, 
  "perestroika": 8593, 
  "urging": 8594, 
  "59": 8595, 
  "shaky": 8596, 
  "Hollande": 8597, 
  "Leone": 8598, 
  "Soros": 8599, 
  "Academy": 8600, 
  "refin@@": 8601, 
  "surro@@": 8602, 
  "designs": 8603, 
  "divergence": 8604, 
  "incident": 8605, 
  "stemming": 8606, 
  "ambassador": 8607, 
  "quasi-@@": 8608, 
  "strained": 8609, 
  "Poor": 8610, 
  "rolled": 8611, 
  "hang": 8612, 
  "plot": 8613, 
  "legality": 8614, 
  "uniting": 8615, 
  "predominantly": 8616, 
  "span": 8617, 
  "proportions": 8618, 
  "Civil": 8619, 
  "Facebook": 8620, 
  "nationality": 8621, 
  "strengthens": 8622, 
  "withstand": 8623, 
  "ceremony": 8624, 
  "lat@@": 8625, 
  "bone": 8626, 
  "objects": 8627, 
  "Ni@@": 8628, 
  "goodwill": 8629, 
  "unusually": 8630, 
  "IBM": 8631, 
  "narcotics": 8632, 
  "solvency": 8633, 
  "intensify": 8634, 
  "firing": 8635, 
  "powered": 8636, 
  "newcomers": 8637, 
  "meth@@": 8638, 
  "scor@@": 8639, 
  "forgiveness": 8640, 
  "replied": 8641, 
  "develops": 8642, 
  "polling": 8643, 
  "tionary": 8644, 
  "inspections": 8645, 
  "investigate": 8646, 
  "clin@@": 8647, 
  "demograph@@": 8648, 
  "imposition": 8649, 
  "dose": 8650, 
  "Uribe": 8651, 
  "consolidated": 8652, 
  "modified": 8653, 
  "expressing": 8654, 
  "X": 8655, 
  "charity": 8656, 
  "laying": 8657, 
  "rich-country": 8658, 
  "universally": 8659, 
  "stering": 8660, 
  "downturns": 8661, 
  "enthusiastic": 8662, 
  "petition": 8663, 
  "Governor": 8664, 
  "nice": 8665, 
  "disruptive": 8666, 
  "inde@@": 8667, 
  "tap@@": 8668, 
  "score": 8669, 
  "es-@@": 8670, 
  "renew": 8671, 
  "rebound": 8672, 
  "diffusion": 8673, 
  "grassroots": 8674, 
  "accurately": 8675, 
  "coral": 8676, 
  "transaction": 8677, 
  "uneven": 8678, 
  "ola": 8679, 
  "dru@@": 8680, 
  "predictably": 8681, 
  "legislature": 8682, 
  "j": 8683, 
  "deterred": 8684, 
  "Do@@": 8685, 
  "manipulate": 8686, 
  "deterrent": 8687, 
  "trajectory": 8688, 
  "subordin@@": 8689, 
  "hoc": 8690, 
  "cheating": 8691, 
  "Israeli-@@": 8692, 
  "reckoning": 8693, 
  "victories": 8694, 
  "Da@@": 8695, 
  "zero-sum": 8696, 
  "arbit@@": 8697, 
  "yp@@": 8698, 
  "smoke": 8699, 
  "reassure": 8700, 
  "competence": 8701, 
  "stock-market": 8702, 
  "ostensibly": 8703, 
  "heed": 8704, 
  "Club": 8705, 
  "2008-2009": 8706, 
  "Two": 8707, 
  "anti-Semitic": 8708, 
  "fore": 8709, 
  "interdependent": 8710, 
  "maintenance": 8711, 
  "erode": 8712, 
  "compromising": 8713, 
  "stag@@": 8714, 
  "ogra@@": 8715, 
  "identi@@": 8716, 
  "ome": 8717, 
  "Mill": 8718, 
  "indul@@": 8719, 
  "Solzhenitsyn": 8720, 
  "oldest": 8721, 
  "embar@@": 8722, 
  "smarter": 8723, 
  "ambiguity": 8724, 
  "premise": 8725, 
  "magazine": 8726, 
  "bird": 8727, 
  "pain@@": 8728, 
  "leveraging": 8729, 
  "confusing": 8730, 
  "free-@@": 8731, 
  "Economics": 8732, 
  "sword": 8733, 
  "peculiar": 8734, 
  "reson@@": 8735, 
  "centrist": 8736, 
  "counting": 8737, 
  "fastest": 8738, 
  "meager": 8739, 
  "START": 8740, 
  "rough": 8741, 
  "resumption": 8742, 
  "mel@@": 8743, 
  "sna@@": 8744, 
  "defer@@": 8745, 
  "2013": 8746, 
  "threw": 8747, 
  "cap": 8748, 
  "let@@": 8749, 
  "sher": 8750, 
  "circulation": 8751, 
  "cation": 8752, 
  "activist": 8753, 
  "deb@@": 8754, 
  "banker": 8755, 
  "50,000": 8756, 
  "che": 8757, 
  "moneti@@": 8758, 
  "sixth": 8759, 
  "illusions": 8760, 
  "Sierra": 8761, 
  "protec@@": 8762, 
  "eri@@": 8763, 
  "El": 8764, 
  "agu@@": 8765, 
  "correction": 8766, 
  "reinvigor@@": 8767, 
  "curious": 8768, 
  "tortured": 8769, 
  "vivid": 8770, 
  "flooding": 8771, 
  "respective": 8772, 
  "social-@@": 8773, 
  "metr@@": 8774, 
  "tment": 8775, 
  "lined": 8776, 
  "implicitly": 8777, 
  "immunity": 8778, 
  "worn": 8779, 
  "anticipate": 8780, 
  "Far": 8781, 
  "constitu@@": 8782, 
  "Quartet": 8783, 
  "sometime": 8784, 
  "shine": 8785, 
  "suitable": 8786, 
  "ading": 8787, 
  "classi@@": 8788, 
  "chips": 8789, 
  "tighten": 8790, 
  "one-party": 8791, 
  "Kur@@": 8792, 
  "pil@@": 8793, 
  "un-@@": 8794, 
  "atic": 8795, 
  "misrule": 8796, 
  "sluggish": 8797, 
  "99": 8798, 
  "cheaply": 8799, 
  "self-confidence": 8800, 
  "Bin": 8801, 
  "affirmative": 8802, 
  "illustrates": 8803, 
  "1984": 8804, 
  "respectable": 8805, 
  "emphasizing": 8806, 
  "me-@@": 8807, 
  "describes": 8808, 
  "rup@@": 8809, 
  "secularism": 8810, 
  "old-@@": 8811, 
  "commanders": 8812, 
  "suppressed": 8813, 
  "invo@@": 8814, 
  "Fifth": 8815, 
  "exciting": 8816, 
  "engineer": 8817, 
  "endure": 8818, 
  "yer": 8819, 
  "ou": 8820, 
  "Lenin": 8821, 
  "te-@@": 8822, 
  "accordance": 8823, 
  "physicians": 8824, 
  "trade@@": 8825, 
  "dismis@@": 8826, 
  "ceased": 8827, 
  "instances": 8828, 
  "dele@@": 8829, 
  "monitored": 8830, 
  "sa": 8831, 
  "G-@@": 8832, 
  "submitted": 8833, 
  "dering": 8834, 
  "insofar": 8835, 
  "loc@@": 8836, 
  "preten@@": 8837, 
  "dirty": 8838, 
  "journey": 8839, 
  "assessments": 8840, 
  "thr@@": 8841, 
  "comment@@": 8842, 
  "semin@@": 8843, 
  "idity": 8844, 
  "Dalai": 8845, 
  "frightening": 8846, 
  "Frankfurt": 8847, 
  "dest": 8848, 
  "greenhouse-gas": 8849, 
  "cler@@": 8850, 
  "och@@": 8851, 
  "framed": 8852, 
  "apathy": 8853, 
  "mated": 8854, 
  "Cultural": 8855, 
  "shy": 8856, 
  "pledges": 8857, 
  "shell": 8858, 
  "short-lived": 8859, 
  "complementary": 8860, 
  "unfettered": 8861, 
  "hierarchy": 8862, 
  "Bucharest": 8863, 
  "sterili@@": 8864, 
  "technocratic": 8865, 
  "spike": 8866, 
  "Qatar": 8867, 
  "spots": 8868, 
  "2,@@": 8869, 
  "comple@@": 8870, 
  "seed": 8871, 
  "headline": 8872, 
  "intri@@": 8873, 
  "coups": 8874, 
  "band@@": 8875, 
  "campaigners": 8876, 
  "linguistic": 8877, 
  "-country": 8878, 
  "prescri@@": 8879, 
  "occasional": 8880, 
  "Jong-il": 8881, 
  "delegation": 8882, 
  "Che": 8883, 
  "forefront": 8884, 
  "12@@": 8885, 
  "Strauss-Kahn": 8886, 
  "withdrawn": 8887, 
  "neo@@": 8888, 
  "user": 8889, 
  "owes": 8890, 
  "mobilization": 8891, 
  "scant": 8892, 
  "disruptions": 8893, 
  "artificially": 8894, 
  "countercyclical": 8895, 
  "rit@@": 8896, 
  "cease-fire": 8897, 
  "unifying": 8898, 
  "aria": 8899, 
  "upheaval": 8900, 
  "schooling": 8901, 
  "Mladic": 8902, 
  "subsidize": 8903, 
  "off-@@": 8904, 
  "rooms": 8905, 
  "cont@@": 8906, 
  "sity": 8907, 
  "stresses": 8908, 
  "nic@@": 8909, 
  "51": 8910, 
  "dropping": 8911, 
  "applications": 8912, 
  "stricter": 8913, 
  "Bhutan": 8914, 
  "restricting": 8915, 
  "Kostunica": 8916, 
  "Klaus": 8917, 
  "Westerners": 8918, 
  "precautionary": 8919, 
  "interior": 8920, 
  "donations": 8921, 
  "tax@@": 8922, 
  "disarray": 8923, 
  "Ay@@": 8924, 
  "Tehran": 8925, 
  "nourished": 8926, 
  "interview": 8927, 
  "thered": 8928, 
  "critique": 8929, 
  "challen@@": 8930, 
  "build-up": 8931, 
  "experimental": 8932, 
  "unfolding": 8933, 
  "depar@@": 8934, 
  "Koran": 8935, 
  "exercised": 8936, 
  "microbes": 8937, 
  "sman": 8938, 
  "38": 8939, 
  "child@@": 8940, 
  "esti@@": 8941, 
  "parks": 8942, 
  "warranted": 8943, 
  "mid-century": 8944, 
  "warheads": 8945, 
  "Livni": 8946, 
  "copy": 8947, 
  "generational": 8948, 
  "benchmark": 8949, 
  "friendship": 8950, 
  "differenti@@": 8951, 
  "dev@@": 8952, 
  "Peter": 8953, 
  "fertili@@": 8954, 
  "ord@@": 8955, 
  "unintended": 8956, 
  "11th": 8957, 
  "fragmented": 8958, 
  "undertaking": 8959, 
  "frightened": 8960, 
  "denounce": 8961, 
  "interestingly": 8962, 
  "awarded": 8963, 
  "tist": 8964, 
  "morning": 8965, 
  "turnaround": 8966, 
  "uphold": 8967, 
  "viewers": 8968, 
  "sibly": 8969, 
  "thereafter": 8970, 
  "hopeful": 8971, 
  "pp@@": 8972, 
  "multiculturalism": 8973, 
  "genius": 8974, 
  "Economist": 8975, 
  "delu@@": 8976, 
  "dissol@@": 8977, 
  "slide": 8978, 
  "No@@": 8979, 
  "fantasy": 8980, 
  "comprise": 8981, 
  "watershed": 8982, 
  "collecting": 8983, 
  "ologist": 8984, 
  "outlets": 8985, 
  "normalization": 8986, 
  "detect": 8987, 
  "Arctic": 8988, 
  "Ocean": 8989, 
  "pares": 8990, 
  "contributors": 8991, 
  "Yale": 8992, 
  "heroin": 8993, 
  "steam": 8994, 
  "adviser": 8995, 
  "verge": 8996, 
  "successors": 8997, 
  "appeasement": 8998, 
  "restructure": 8999, 
  "betting": 9000, 
  "chooses": 9001, 
  "alo@@": 9002, 
  "dation": 9003, 
  "glori@@": 9004, 
  "proclaim": 9005, 
  "reig@@": 9006, 
  "year-@@": 9007, 
  "aping": 9008, 
  "liberated": 9009, 
  "satisfactory": 9010, 
  "absorbed": 9011, 
  "cin@@": 9012, 
  "comparing": 9013, 
  "pro-Western": 9014, 
  "vac@@": 9015, 
  "descent": 9016, 
  "simpli@@": 9017, 
  "bac@@": 9018, 
  "Zhao": 9019, 
  "injections": 9020, 
  "nationalistic": 9021, 
  "hiding": 9022, 
  "pronounced": 9023, 
  "killer": 9024, 
  "theast": 9025, 
  "To": 9026, 
  "oms": 9027, 
  "assertive": 9028, 
  "crossed": 9029, 
  "rol@@": 9030, 
  "relieve": 9031, 
  "EU-wide": 9032, 
  "laboratories": 9033, 
  "directive": 9034, 
  "tari@@": 9035, 
  "ye@@": 9036, 
  "individually": 9037, 
  "confid@@": 9038, 
  "ond": 9039, 
  "inheritance": 9040, 
  "victorious": 9041, 
  "Condoleezza": 9042, 
  "grab@@": 9043, 
  "ink@@": 9044, 
  "unconditional": 9045, 
  "outlays": 9046, 
  "ome@@": 9047, 
  "unregulated": 9048, 
  "fence": 9049, 
  "bailed": 9050, 
  "protects": 9051, 
  "oil-rich": 9052, 
  "migrant": 9053, 
  "sol@@": 9054, 
  "Why": 9055, 
  "liter@@": 9056, 
  "individu@@": 9057, 
  "Monti": 9058, 
  "tune": 9059, 
  "Luxembourg": 9060, 
  "invaded": 9061, 
  "render": 9062, 
  "eradicate": 9063, 
  "reproductive": 9064, 
  "three-quarters": 9065, 
  "abundant": 9066, 
  "sex@@": 9067, 
  "Mos@@": 9068, 
  "tip": 9069, 
  "girl": 9070, 
  "tified": 9071, 
  "Stanford": 9072, 
  "Kadima": 9073, 
  "fights": 9074, 
  "displa@@": 9075, 
  "uneasy": 9076, 
  "indebtedness": 9077, 
  "excellence": 9078, 
  "Arthur": 9079, 
  "Standard": 9080, 
  "flat@@": 9081, 
  "phenomena": 9082, 
  "behaving": 9083, 
  "unequi@@": 9084, 
  "ell": 9085, 
  "Haider": 9086, 
  "joke": 9087, 
  "crushed": 9088, 
  "destabilize": 9089, 
  "summits": 9090, 
  "Cal@@": 9091, 
  "observe": 9092, 
  "icked": 9093, 
  "feud@@": 9094, 
  "Pearl": 9095, 
  "Harbor": 9096, 
  "tactic": 9097, 
  "ordin@@": 9098, 
  "Revolutionary": 9099, 
  "persist@@": 9100, 
  "-term": 9101, 
  "Yen": 9102, 
  "cite": 9103, 
  "desp@@": 9104, 
  "Pe@@": 9105, 
  "examined": 9106, 
  "yev": 9107, 
  "uncontrolled": 9108, 
  "beg@@": 9109, 
  "desires": 9110, 
  "broaden": 9111, 
  "load": 9112, 
  "do-@@": 9113, 
  "thu@@": 9114, 
  "financial-sector": 9115, 
  "Anwar": 9116, 
  "American-@@": 9117, 
  "better-@@": 9118, 
  "orthodox": 9119, 
  "spra@@": 9120, 
  "celebrating": 9121, 
  "anxieties": 9122, 
  "financial-market": 9123, 
  "ard@@": 9124, 
  "Journal": 9125, 
  "Lama": 9126, 
  "blue": 9127, 
  "footing": 9128, 
  "disposal": 9129, 
  "Medicare": 9130, 
  "tenth": 9131, 
  "legitimize": 9132, 
  "High": 9133, 
  "tening": 9134, 
  "participated": 9135, 
  "redistribu@@": 9136, 
  "loom": 9137, 
  "TR@@": 9138, 
  "Marxism": 9139, 
  "advis@@": 9140, 
  "dissident": 9141, 
  "triggering": 9142, 
  "mind@@": 9143, 
  "class@@": 9144, 
  "codes": 9145, 
  "gran@@": 9146, 
  "grace": 9147, 
  "Can@@": 9148, 
  "speaker": 9149, 
  "curtailing": 9150, 
  "fallout": 9151, 
  "encing": 9152, 
  "1975": 9153, 
  "maximize": 9154, 
  "ade@@": 9155, 
  "succeeds": 9156, 
  "mega-@@": 9157, 
  "restrictive": 9158, 
  "pro-European": 9159, 
  "Confucian": 9160, 
  "radi@@": 9161, 
  "movies": 9162, 
  "15-@@": 9163, 
  "River": 9164, 
  "forbidden": 9165, 
  "corrected": 9166, 
  "heating": 9167, 
  "eds": 9168, 
  "prin@@": 9169, 
  "blackmail": 9170, 
  "unanimous": 9171, 
  "aks": 9172, 
  "extin@@": 9173, 
  "suits": 9174, 
  "DP@@": 9175, 
  "paths": 9176, 
  "vigorously": 9177, 
  "fertilizer": 9178, 
  "Palme": 9179, 
  "plu@@": 9180, 
  "fit@@": 9181, 
  "spr@@": 9182, 
  "freed": 9183, 
  "wholly": 9184, 
  "median": 9185, 
  "Nato": 9186, 
  "batt@@": 9187, 
  "retained": 9188, 
  "al-Assad": 9189, 
  "elling": 9190, 
  "ek": 9191, 
  "far-@@": 9192, 
  "ma": 9193, 
  "affili@@": 9194, 
  "rhetorical": 9195, 
  "divides": 9196, 
  "indexed": 9197, 
  "calamity": 9198, 
  "person@@": 9199, 
  "smoothly": 9200, 
  "coordinating": 9201, 
  "divorce": 9202, 
  "guaranteeing": 9203, 
  "1974": 9204, 
  "airport": 9205, 
  "medieval": 9206, 
  "invitation": 9207, 
  "real@@": 9208, 
  "compu@@": 9209, 
  "assurances": 9210, 
  "recep@@": 9211, 
  "inations": 9212, 
  "dent": 9213, 
  "debtors": 9214, 
  "zable": 9215, 
  "spare": 9216, 
  "uniquely": 9217, 
  "shaken": 9218, 
  "eable": 9219, 
  "Truth": 9220, 
  "feder@@": 9221, 
  "attain": 9222, 
  "manifest": 9223, 
  "ris": 9224, 
  "assurance": 9225, 
  "Services": 9226, 
  "subscri@@": 9227, 
  "purchased": 9228, 
  "inist": 9229, 
  "labeled": 9230, 
  "Einstein": 9231, 
  "twentieth-century": 9232, 
  "premiums": 9233, 
  "Holy": 9234, 
  "ssing": 9235, 
  "supplier": 9236, 
  "sym@@": 9237, 
  "beaten": 9238, 
  "out-@@": 9239, 
  "session": 9240, 
  "fascin@@": 9241, 
  "heal": 9242, 
  "subordinate": 9243, 
  "weighed": 9244, 
  "arming": 9245, 
  "oring": 9246, 
  "breach": 9247, 
  "airline": 9248, 
  "mightily": 9249, 
  "Ken@@": 9250, 
  "one-time": 9251, 
  "prohibited": 9252, 
  "tionism": 9253, 
  "kids": 9254, 
  "waging": 9255, 
  "unjust": 9256, 
  "brother": 9257, 
  "woes": 9258, 
  "lobbies": 9259, 
  "62": 9260, 
  "distribute": 9261, 
  "stretch": 9262, 
  "galvani@@": 9263, 
  "glance": 9264, 
  "versions": 9265, 
  "employee": 9266, 
  "awash": 9267, 
  "suppressing": 9268, 
  "intui@@": 9269, 
  "Facility": 9270, 
  "brutality": 9271, 
  "stor@@": 9272, 
  "ink": 9273, 
  "suspects": 9274, 
  "quota": 9275, 
  "comman@@": 9276, 
  "sway": 9277, 
  "guar@@": 9278, 
  "Kouchner": 9279, 
  "Bali": 9280, 
  "depleted": 9281, 
  "lifel@@": 9282, 
  "Canadian": 9283, 
  "thorough": 9284, 
  "wrec@@": 9285, 
  "oppressive": 9286, 
  "Geithner": 9287, 
  "prisoner": 9288, 
  "adapting": 9289, 
  "Kennedy": 9290, 
  "tility": 9291, 
  "numer@@": 9292, 
  "portray": 9293, 
  "worsened": 9294, 
  "corrup@@": 9295, 
  "dismantle": 9296, 
  "endemic": 9297, 
  "peacekeepers": 9298, 
  "atives": 9299, 
  "wisely": 9300, 
  "provocative": 9301, 
  "sob@@": 9302, 
  "ubiquitous": 9303, 
  "-market": 9304, 
  "tar@@": 9305, 
  "refer@@": 9306, 
  "altruism": 9307, 
  "orial": 9308, 
  "synthetic": 9309, 
  "expecting": 9310, 
  "manager": 9311, 
  "commerci@@": 9312, 
  "neighborhoods": 9313, 
  "diversified": 9314, 
  "height": 9315, 
  "trick@@": 9316, 
  "miser@@": 9317, 
  "Elec@@": 9318, 
  "Bayrou": 9319, 
  "Jam@@": 9320, 
  "edy": 9321, 
  "draws": 9322, 
  "dividend": 9323, 
  "interconnected": 9324, 
  "Representatives": 9325, 
  "bullet": 9326, 
  "straight": 9327, 
  "commemor@@": 9328, 
  "History": 9329, 
  "competent": 9330, 
  "dragged": 9331, 
  "cotton": 9332, 
  "surpassed": 9333, 
  "friction": 9334, 
  "registered": 9335, 
  "33": 9336, 
  "seriousness": 9337, 
  "permissible": 9338, 
  "web": 9339, 
  "coercive": 9340, 
  "infec@@": 9341, 
  "nity": 9342, 
  "gesture": 9343, 
  "tun@@": 9344, 
  "bipartisan": 9345, 
  "setbacks": 9346, 
  "simultaneous": 9347, 
  "NATO@@": 9348, 
  "curiosity": 9349, 
  "ter-@@": 9350, 
  "gift": 9351, 
  "craft": 9352, 
  "exceeding": 9353, 
  "Mario": 9354, 
  "league": 9355, 
  "adventure": 9356, 
  "diagnostic": 9357, 
  "3-@@": 9358, 
  "realistically": 9359, 
  "allocate": 9360, 
  "readers": 9361, 
  "corporation": 9362, 
  "tuberculosis": 9363, 
  "lov@@": 9364, 
  "Age": 9365, 
  "ment-@@": 9366, 
  "church": 9367, 
  "abortion": 9368, 
  "2.7": 9369, 
  "contend": 9370, 
  "0.1": 9371, 
  "fifteen": 9372, 
  "stat@@": 9373, 
  "deca@@": 9374, 
  "Tung": 9375, 
  "Mae": 9376, 
  "designated": 9377, 
  "mentally": 9378, 
  "valuation": 9379, 
  "nation-states": 9380, 
  "1978": 9381, 
  "alien": 9382, 
  "foreclosures": 9383, 
  "cry@@": 9384, 
  "presumption": 9385, 
  "struc@@": 9386, 
  "revealing": 9387, 
  "search@@": 9388, 
  "analogies": 9389, 
  "autocracy": 9390, 
  "twenty-@@": 9391, 
  "lagging": 9392, 
  "contracting": 9393, 
  "grid": 9394, 
  "hybrid": 9395, 
  "Guantanamo": 9396, 
  "Year": 9397, 
  "clerics": 9398, 
  "indifferent": 9399, 
  "mantra": 9400, 
  "José": 9401, 
  "injury": 9402, 
  "flaw": 9403, 
  "197@@": 9404, 
  "world-class": 9405, 
  "coca": 9406, 
  "iz@@": 9407, 
  "file": 9408, 
  "subtle": 9409, 
  "Conservatives": 9410, 
  "continuously": 9411, 
  "impulse": 9412, 
  "amazing": 9413, 
  "Napoleon": 9414, 
  "abused": 9415, 
  "altered": 9416, 
  "random@@": 9417, 
  "eggs": 9418, 
  "stakeholders": 9419, 
  "embryos": 9420, 
  "enly": 9421, 
  "outgoing": 9422, 
  "47": 9423, 
  "ising": 9424, 
  "pronouncements": 9425, 
  "hopeless": 9426, 
  "picking": 9427, 
  "denominated": 9428, 
  "aming": 9429, 
  "Barak": 9430, 
  "complement": 9431, 
  "21st": 9432, 
  "ignorant": 9433, 
  "progressively": 9434, 
  "displayed": 9435, 
  "it-@@": 9436, 
  "risking": 9437, 
  "Iron": 9438, 
  "eted": 9439, 
  "tuous": 9440, 
  "Morgan": 9441, 
  "Churchill": 9442, 
  "recruit": 9443, 
  "Presidency": 9444, 
  "incompatible": 9445, 
  "someday": 9446, 
  "-style": 9447, 
  "embryo": 9448, 
  "anti-globalization": 9449, 
  "tame": 9450, 
  "turbines": 9451, 
  "fat": 9452, 
  "That": 9453, 
  "projec@@": 9454, 
  "merit@@": 9455, 
  "euthanasia": 9456, 
  "Berezovsky": 9457, 
  "ame": 9458, 
  "Reinhart": 9459, 
  "shall": 9460, 
  "shortsighted": 9461, 
  "Sou@@": 9462, 
  "-Russian": 9463, 
  "you@@": 9464, 
  "stered": 9465, 
  "precarious": 9466, 
  "allegiance": 9467, 
  "outdated": 9468, 
  "humiliated": 9469, 
  "theater": 9470, 
  "alar@@": 9471, 
  "run@@": 9472, 
  "alienation": 9473, 
  "ul": 9474, 
  "Yasir": 9475, 
  "park": 9476, 
  "havens": 9477, 
  "Armenian": 9478, 
  "p-@@": 9479, 
  "rendering": 9480, 
  "dication": 9481, 
  "rice": 9482, 
  "tious": 9483, 
  "immoral": 9484, 
  "Ram@@": 9485, 
  "-related": 9486, 
  "68": 9487, 
  "à": 9488, 
  "stly": 9489, 
  "subsidizing": 9490, 
  "Sudanese": 9491, 
  "abolished": 9492, 
  "adversary": 9493, 
  "lo": 9494, 
  "year@@": 9495, 
  "denounced": 9496, 
  "encouragement": 9497, 
  "instrumental": 9498, 
  "pup@@": 9499, 
  "chains": 9500, 
  "profligate": 9501, 
  "arsenals": 9502, 
  "greedy": 9503, 
  "circ@@": 9504, 
  "preoccupied": 9505, 
  "hydro@@": 9506, 
  "Anglo-Saxon": 9507, 
  "xenophobia": 9508, 
  "sink": 9509, 
  "fana@@": 9510, 
  "utili@@": 9511, 
  "stagna@@": 9512, 
  "ruble": 9513, 
  "ey@@": 9514, 
  "G": 9515, 
  "stretched": 9516, 
  "que@@": 9517, 
  "Min@@": 9518, 
  "otic": 9519, 
  "arrests": 9520, 
  "illi@@": 9521, 
  "draw@@": 9522, 
  "play@@": 9523, 
  "liquid@@": 9524, 
  "inappropriate": 9525, 
  "0": 9526, 
  "itting": 9527, 
  "region@@": 9528, 
  "Mr": 9529, 
  "invoked": 9530, 
  "retrenchment": 9531, 
  "Mbeki": 9532, 
  "edding": 9533, 
  "Mes@@": 9534, 
  "Universal": 9535, 
  "strong@@": 9536, 
  "violating": 9537, 
  "sional": 9538, 
  "owning": 9539, 
  "alizations": 9540, 
  "abide": 9541, 
  "hits": 9542, 
  "ater": 9543, 
  "discre@@": 9544, 
  "belonging": 9545, 
  "antagon@@": 9546, 
  "Ti@@": 9547, 
  "correc@@": 9548, 
  "CO@@": 9549, 
  "upset": 9550, 
  "supplied": 9551, 
  "prefer@@": 9552, 
  "bio-fuels": 9553, 
  "award": 9554, 
  "Khomeini": 9555, 
  "Columbia": 9556, 
  "prejudice": 9557, 
  "Eli@@": 9558, 
  "setback": 9559, 
  "measurable": 9560, 
  "devalue": 9561, 
  "withdrawing": 9562, 
  "assigned": 9563, 
  "impa@@": 9564, 
  "describing": 9565, 
  "vari@@": 9566, 
  "allegations": 9567, 
  "bets": 9568, 
  "devote": 9569, 
  "ost": 9570, 
  "combines": 9571, 
  "Scandinavia": 9572, 
  "prosper": 9573, 
  "Chad": 9574, 
  "Sheikh": 9575, 
  "Shi&apos;@@": 9576, 
  "loo@@": 9577, 
  "Democracy": 9578, 
  "mine": 9579, 
  "measu@@": 9580, 
  "reli@@": 9581, 
  "resemb@@": 9582, 
  "savers": 9583, 
  "behaved": 9584, 
  "fathers": 9585, 
  "Dick": 9586, 
  "traits": 9587, 
  "hardliners": 9588, 
  "1914": 9589, 
  "happier": 9590, 
  "casts": 9591, 
  "1947": 9592, 
  "transit": 9593, 
  "ja": 9594, 
  "deregu@@": 9595, 
  "re-elected": 9596, 
  "underscored": 9597, 
  "self-defeating": 9598, 
  "appointments": 9599, 
  "nud@@": 9600, 
  "myths": 9601, 
  "land-@@": 9602, 
  "Muammar": 9603, 
  "asks": 9604, 
  "SGP": 9605, 
  "Nuremberg": 9606, 
  "envy": 9607, 
  "addresses": 9608, 
  "encompas@@": 9609, 
  "Wilson": 9610, 
  "summar@@": 9611, 
  "prohibi@@": 9612, 
  "racist": 9613, 
  "creditworthiness": 9614, 
  "reconciled": 9615, 
  "diff@@": 9616, 
  "passionate": 9617, 
  "nearby": 9618, 
  "Ariel": 9619, 
  "disengagement": 9620, 
  "spur@@": 9621, 
  "guiding": 9622, 
  "excitement": 9623, 
  "questionable": 9624, 
  "lent": 9625, 
  "domain": 9626, 
  "anti-Western": 9627, 
  "commissions": 9628, 
  "offshore": 9629, 
  "sis": 9630, 
  "write-@@": 9631, 
  "weigh@@": 9632, 
  "CIS": 9633, 
  "Je@@": 9634, 
  "teaches": 9635, 
  "Bro@@": 9636, 
  "Catholics": 9637, 
  "announcing": 9638, 
  "devastated": 9639, 
  "violates": 9640, 
  "drafting": 9641, 
  "employing": 9642, 
  "importing": 9643, 
  "provoking": 9644, 
  "lofty": 9645, 
  "specialized": 9646, 
  "ground@@": 9647, 
  "shut@@": 9648, 
  "handful": 9649, 
  "rig@@": 9650, 
  "tit@@": 9651, 
  "yearning": 9652, 
  "endorsement": 9653, 
  "merger": 9654, 
  "Is": 9655, 
  "residential": 9656, 
  "nes": 9657, 
  "intra-@@": 9658, 
  "occupations": 9659, 
  "franc": 9660, 
  "portrayed": 9661, 
  "Nicaragua": 9662, 
  "rand": 9663, 
  "swit@@": 9664, 
  "Food": 9665, 
  "anim@@": 9666, 
  "betra@@": 9667, 
  "ational": 9668, 
  "vali@@": 9669, 
  "secrecy": 9670, 
  "wa": 9671, 
  "implosion": 9672, 
  "philosophers": 9673, 
  "-the-@@": 9674, 
  "rich@@": 9675, 
  "willingly": 9676, 
  "nomination": 9677, 
  "exuberance": 9678, 
  "villa@@": 9679, 
  "psychologists": 9680, 
  "elaborate": 9681, 
  "1.2": 9682, 
  "Mac@@": 9683, 
  "repar@@": 9684, 
  "Shin@@": 9685, 
  "airports": 9686, 
  "dollar-denominated": 9687, 
  "adi@@": 9688, 
  "seas@@": 9689, 
  "stun@@": 9690, 
  "rot@@": 9691, 
  "ris@@": 9692, 
  "liked": 9693, 
  "dispersed": 9694, 
  "capitalists": 9695, 
  "suicidal": 9696, 
  "persistence": 9697, 
  "NA@@": 9698, 
  "Mac": 9699, 
  "distinctive": 9700, 
  "liable": 9701, 
  "ethnically": 9702, 
  "frac@@": 9703, 
  "reign": 9704, 
  "blockade": 9705, 
  "dol@@": 9706, 
  "mandates": 9707, 
  "councils": 9708, 
  "withdrew": 9709, 
  "At": 9710, 
  "acqu@@": 9711, 
  "leisure": 9712, 
  "pouring": 9713, 
  "tate": 9714, 
  "oming": 9715, 
  "culturally": 9716, 
  "overha@@": 9717, 
  "roadmap": 9718, 
  "specialists": 9719, 
  "isola@@": 9720, 
  "BBC": 9721, 
  "yielded": 9722, 
  "swa@@": 9723, 
  "spil@@": 9724, 
  "Investment": 9725, 
  "announce": 9726, 
  "section": 9727, 
  "nostalgic": 9728, 
  "succeeding": 9729, 
  "recovering": 9730, 
  "rs": 9731, 
  "19th": 9732, 
  "All": 9733, 
  "glory": 9734, 
  "ren": 9735, 
  "evaluation": 9736, 
  "junta": 9737, 
  "beside": 9738, 
  "gene@@": 9739, 
  "prosecuted": 9740, 
  "exemp@@": 9741, 
  "atmospheric": 9742, 
  "condu@@": 9743, 
  "legitimized": 9744, 
  "slavery": 9745, 
  "therland": 9746, 
  "lical": 9747, 
  "mode": 9748, 
  "corporatist": 9749, 
  "macro-@@": 9750, 
  "praised": 9751, 
  "Len@@": 9752, 
  "once-@@": 9753, 
  "signaled": 9754, 
  "round@@": 9755, 
  "ep": 9756, 
  "keys": 9757, 
  "contexts": 9758, 
  "condi@@": 9759, 
  "compound": 9760, 
  "phy": 9761, 
  "strife": 9762, 
  "exploration": 9763, 
  "identifying": 9764, 
  "deficiency": 9765, 
  "Emp@@": 9766, 
  "terly": 9767, 
  "granting": 9768, 
  "breakup": 9769, 
  "monthly": 9770, 
  "jumped": 9771, 
  "amounting": 9772, 
  "Menem": 9773, 
  "onds": 9774, 
  "need@@": 9775, 
  "uncompetitive": 9776, 
  "stan": 9777, 
  "fragmentation": 9778, 
  "much-@@": 9779, 
  "abdu@@": 9780, 
  "guess@@": 9781, 
  "suc@@": 9782, 
  "deficiencies": 9783, 
  "ops": 9784, 
  "stu@@": 9785, 
  "chickens": 9786, 
  "sem@@": 9787, 
  "ring@@": 9788, 
  "appearing": 9789, 
  "VAT": 9790, 
  "catalyst": 9791, 
  "Mas@@": 9792, 
  "kets": 9793, 
  "brid@@": 9794, 
  "comprising": 9795, 
  "petroleum": 9796, 
  "ala": 9797, 
  "xes": 9798, 
  "brigh@@": 9799, 
  "empower": 9800, 
  "spaw@@": 9801, 
  "accomplishments": 9802, 
  "righte@@": 9803, 
  "desig@@": 9804, 
  "Stockholm": 9805, 
  "fli@@": 9806, 
  "conversation": 9807, 
  "180": 9808, 
  "Conventions": 9809, 
  "ten-@@": 9810, 
  "Budapest": 9811, 
  "vers": 9812, 
  "workplace": 9813, 
  "dies": 9814, 
  "devastation": 9815, 
  "referenda": 9816, 
  "ponder": 9817, 
  "enter@@": 9818, 
  "aspire": 9819, 
  "staying": 9820, 
  "sinking": 9821, 
  "assemb@@": 9822, 
  "rehabilitation": 9823, 
  "explod@@": 9824, 
  "0.0@@": 9825, 
  "phic": 9826, 
  "compact": 9827, 
  "wr@@": 9828, 
  "ensured": 9829, 
  "balance-of-@@": 9830, 
  "Dmitri": 9831, 
  "ces@@": 9832, 
  "ud": 9833, 
  "mili@@": 9834, 
  "blunt": 9835, 
  "conducting": 9836, 
  "lance": 9837, 
  "viability": 9838, 
  "disrupt": 9839, 
  "adap@@": 9840, 
  "eman@@": 9841, 
  "investig@@": 9842, 
  "mercy": 9843, 
  "market-based": 9844, 
  "competi@@": 9845, 
  "pendulum": 9846, 
  "reconsider": 9847, 
  "powerfully": 9848, 
  "stagflation": 9849, 
  "culprit": 9850, 
  "depor@@": 9851, 
  "von": 9852, 
  "hs": 9853, 
  "beli@@": 9854, 
  "stripped": 9855, 
  "PC": 9856, 
  "descendants": 9857, 
  "Kissinger": 9858, 
  "tribunals": 9859, 
  "mouth": 9860, 
  "bran@@": 9861, 
  "restrain": 9862, 
  "literacy": 9863, 
  "revol@@": 9864, 
  "mates": 9865, 
  "unimaginable": 9866, 
  "Tibetans": 9867, 
  "Sup@@": 9868, 
  "wildly": 9869, 
  "Ph@@": 9870, 
  "lecture": 9871, 
  "San@@": 9872, 
  "efficacy": 9873, 
  "spark": 9874, 
  "upheavals": 9875, 
  "attended": 9876, 
  "thed": 9877, 
  "vise": 9878, 
  "defec@@": 9879, 
  "nurtured": 9880, 
  "mus": 9881, 
  "adequacy": 9882, 
  "barred": 9883, 
  "simp@@": 9884, 
  "shield": 9885, 
  "avo@@": 9886, 
  "authori@@": 9887, 
  "inspection": 9888, 
  "icks": 9889, 
  "reinforces": 9890, 
  "Greater": 9891, 
  "appe@@": 9892, 
  "ward-looking": 9893, 
  "guerrillas": 9894, 
  "responsibly": 9895, 
  "Carter": 9896, 
  "bailing": 9897, 
  "impartial": 9898, 
  "Deputy": 9899, 
  "post-communist": 9900, 
  "random": 9901, 
  "functional": 9902, 
  "ales@@": 9903, 
  "ounce": 9904, 
  "neo-conservative": 9905, 
  "ods": 9906, 
  "flag": 9907, 
  "coherence": 9908, 
  "mountain": 9909, 
  "Milan": 9910, 
  "spac@@": 9911, 
  "co": 9912, 
  "device": 9913, 
  "DP": 9914, 
  "30,000": 9915, 
  "full-time": 9916, 
  "happily": 9917, 
  "federalism": 9918, 
  "workable": 9919, 
  "entang@@": 9920, 
  "nest": 9921, 
  "ced@@": 9922, 
  "working-age": 9923, 
  "194@@": 9924, 
  "colum@@": 9925, 
  "proportional": 9926, 
  "bullets": 9927, 
  "surprises": 9928, 
  "appla@@": 9929, 
  "growth-@@": 9930, 
  "cov@@": 9931, 
  "manufactures": 9932, 
  "patri@@": 9933, 
  "plunged": 9934, 
  "vaccines": 9935, 
  "spheres": 9936, 
  "Europe@@": 9937, 
  "overhaul": 9938, 
  "emotion": 9939, 
  "diamonds": 9940, 
  "wonders": 9941, 
  "spell": 9942, 
  "monetary-policy": 9943, 
  "nings": 9944, 
  "vitality": 9945, 
  "charitable": 9946, 
  "hearings": 9947, 
  "criticizing": 9948, 
  "intensifying": 9949, 
  "dilemmas": 9950, 
  "Fre@@": 9951, 
  "rying": 9952, 
  "correcting": 9953, 
  "healthier": 9954, 
  "boss": 9955, 
  "plau@@": 9956, 
  "mid-1990": 9957, 
  "Federation": 9958, 
  "psychiatry": 9959, 
  "full-scale": 9960, 
  "Singh": 9961, 
  "boat": 9962, 
  "Shiites": 9963, 
  "internation@@": 9964, 
  "devaluations": 9965, 
  "ld": 9966, 
  "Czechs": 9967, 
  "veget@@": 9968, 
  "varying": 9969, 
  "inva@@": 9970, 
  "swaps": 9971, 
  "diverted": 9972, 
  "incoming": 9973, 
  "appropriately": 9974, 
  "curr@@": 9975, 
  "top-@@": 9976, 
  "Em@@": 9977, 
  "ministry": 9978, 
  "IF@@": 9979, 
  "Bahrain": 9980, 
  "cong@@": 9981, 
  "Po@@": 9982, 
  "plummeted": 9983, 
  "escalate": 9984, 
  "calculate": 9985, 
  "Regi@@": 9986, 
  "squab@@": 9987, 
  "unanimity": 9988, 
  "worlds": 9989, 
  "proactive": 9990, 
  "careers": 9991, 
  "pop@@": 9992, 
  "rav@@": 9993, 
  "peril": 9994, 
  "fulness": 9995, 
  "district": 9996, 
  "dar@@": 9997, 
  "wast@@": 9998, 
  "figu@@": 9999, 
  "Gi@@": 10000, 
  "situ@@": 10001, 
  "tipping": 10002, 
  "burn": 10003, 
  "document@@": 10004, 
  "fted": 10005, 
  "lad@@": 10006, 
  "pluralistic": 10007, 
  "rough@@": 10008, 
  "transm@@": 10009, 
  "Fidel": 10010, 
  "patriotic": 10011, 
  "worldview": 10012, 
  "observ@@": 10013, 
  "Cuban": 10014, 
  "destined": 10015, 
  "attachment": 10016, 
  "wiel@@": 10017, 
  "dampen": 10018, 
  "bury": 10019, 
  "quoted": 10020, 
  "municipal": 10021, 
  "Martin": 10022, 
  "sacked": 10023, 
  "lobbyists": 10024, 
  "1960s": 10025, 
  "Rivero": 10026, 
  "terri@@": 10027, 
  "extrapo@@": 10028, 
  "lowing": 10029, 
  "engineered": 10030, 
  "wan": 10031, 
  "anonymous": 10032, 
  "inconsistent": 10033, 
  "blaming": 10034, 
  "unbalanced": 10035, 
  "declarations": 10036, 
  "associates": 10037, 
  "gun@@": 10038, 
  "elev@@": 10039, 
  "installations": 10040, 
  "acknowledges": 10041, 
  "tary": 10042, 
  "library": 10043, 
  "book@@": 10044, 
  "thesis": 10045, 
  "chaotic": 10046, 
  "deadlock": 10047, 
  "aps": 10048, 
  "facilitated": 10049, 
  "Heights": 10050, 
  "landslide": 10051, 
  "pretext": 10052, 
  "blown": 10053, 
  "seces@@": 10054, 
  "loser": 10055, 
  "CD@@": 10056, 
  "banner": 10057, 
  "variation": 10058, 
  "Os@@": 10059, 
  "53": 10060, 
  "road@@": 10061, 
  "paved": 10062, 
  "mbled": 10063, 
  "orph@@": 10064, 
  "Sp@@": 10065, 
  "walking": 10066, 
  "delaying": 10067, 
  "outlined": 10068, 
  "hind@@": 10069, 
  "regulator": 10070, 
  "articulate": 10071, 
  "amor@@": 10072, 
  "hemisphere": 10073, 
  "concert": 10074, 
  "inciting": 10075, 
  "signi@@": 10076, 
  "double-dip": 10077, 
  "expropri@@": 10078, 
  "eded": 10079, 
  "spectacle": 10080, 
  "Soviets": 10081, 
  "Cypriots": 10082, 
  "wings": 10083, 
  "formulate": 10084, 
  "meters": 10085, 
  "halted": 10086, 
  "Imp@@": 10087, 
  "rebu@@": 10088, 
  "postponing": 10089, 
  "cataly@@": 10090, 
  "mes@@": 10091, 
  "rupture": 10092, 
  "ffected": 10093, 
  "Mol@@": 10094, 
  "kov": 10095, 
  "Rom@@": 10096, 
  "Ver@@": 10097, 
  "substitution": 10098, 
  "predicting": 10099, 
  "200,000": 10100, 
  "plum@@": 10101, 
  "alty": 10102, 
  "6.5": 10103, 
  "soli@@": 10104, 
  "exploring": 10105, 
  "interpre@@": 10106, 
  "Kant": 10107, 
  "teen@@": 10108, 
  "varieties": 10109, 
  "protective": 10110, 
  "underestimate": 10111, 
  "virtuous": 10112, 
  "embark": 10113, 
  "ert": 10114, 
  "Khan": 10115, 
  "real-@@": 10116, 
  "tape": 10117, 
  "fleeing": 10118, 
  "advisory": 10119, 
  "backgrounds": 10120, 
  "senators": 10121, 
  "geographic": 10122, 
  "repeating": 10123, 
  "illustrate": 10124, 
  "stru@@": 10125, 
  "peace-@@": 10126, 
  "constituency": 10127, 
  "disarm": 10128, 
[...]
