{
  "eos": 0, 
  "UNK": 1, 
  ",": 2, 
  ".": 3, 
  "a": 4, 
  "v": 5, 
  "se": 6, 
  "na": 7, 
  "je": 8, 
  "že": 9, 
  "&quot;": 10, 
  "by": 11, 
  "-": 12, 
  "k": 13, 
  "s": 14, 
  "o": 15, 
  "z": 16, 
  "to": 17, 
  "i": 18, 
  "do": 19, 
  "ve": 20, 
  ";": 21, 
  "pro": 22, 
  "jako": 23, 
  "za": 24, 
  "ale": 25, 
  "jsou": 26, 
  "si": 27, 
  "aby": 28, 
  "ne@@": 29, 
  "&amp;": 30, 
  "které": 31, 
  "@-@": 32, 
  "než": 33, 
  "však": 34, 
  "tak": 35, 
  "jak": 36, 
  "po": 37, 
  "bude": 38, 
  ":": 39, 
  "od": 40, 
  "země": 41, 
  "jejich": 42, 
  ")": 43, 
  "(": 44, 
  "jen": 45, 
  "USA": 46, 
  "jeho": 47, 
  "?": 48, 
  "co": 49, 
  "už": 50, 
  "která": 51, 
  "160": 52, 
  "mezi": 53, 
  "#": 54, 
  "když": 55, 
  "který": 56, 
  "nebo": 57, 
  "u": 58, 
  "být": 59, 
  "své": 60, 
  "není": 61, 
  "%": 62, 
  "také": 63, 
  "li": 64, 
  "dnes": 65, 
  "ze": 66, 
  "nbsp": 67, 
  "let": 68, 
  "bylo": 69, 
  "roce": 70, 
  "před": 71, 
  "může": 72, 
  "má": 73, 
  "ani": 74, 
  "budou": 75, 
  "musí": 76, 
  "byl": 77, 
  "proti": 78, 
  "EU": 79, 
  "ještě": 80, 
  "tyto": 81, 
  "byla": 82, 
  "jež": 83, 
  "ke": 84, 
  "zemí": 85, 
  "finanční": 86, 
  "tento": 87, 
  "či": 88, 
  "více": 89, 
  "tedy": 90, 
  "pokud": 91, 
  "až": 92, 
  "tím": 93, 
  "roku": 94, 
  "při": 95, 
  "toho": 96, 
  "což": 97, 
  "tomu": 98, 
  "vlády": 99, 
  "státy": 100, 
  "kdy": 101, 
  "mají": 102, 
  "další": 103, 
  "vy@@": 104, 
  "bez": 105, 
  "stále": 106, 
  "globální": 107, 
  "podle": 108, 
  "nou": 109, 
  "ní": 110, 
  "mohou": 111, 
  "ně": 112, 
  "právě": 113, 
  "lidí": 114, 
  "letech": 115, 
  "pak": 116, 
  "tato": 117, 
  "například": 118, 
  "né": 119, 
  "světě": 120, 
  "během": 121, 
  "krize": 122, 
  "proto": 123, 
  "kteří": 124, 
  "politiky": 125, 
  "těchto": 126, 
  "lidé": 127, 
  "vláda": 128, 
  "již": 129, 
  "z@@": 130, 
  "její": 131, 
  "byly": 132, 
  "kde": 133, 
  "této": 134, 
  "tom": 135, 
  "růst": 136, 
  "zemích": 137, 
  "ovšem": 138, 
  "svou": 139, 
  "kdo": 140, 
  "ný": 141, 
  "ou": 142, 
  "ná": 143, 
  "mezinárodní": 144, 
  "navíc": 145, 
  "světa": 146, 
  "ne": 147, 
  "lze": 148, 
  "protože": 149, 
  "nej@@": 150, 
  "mnohem": 151, 
  "nové": 152, 
  "politické": 153, 
  "možná": 154, 
  "pouze": 155, 
  "í": 156, 
  "avšak": 157, 
  "ných": 158, 
  "všechny": 159, 
  "neboť": 160, 
  "nad": 161, 
  "po@@": 162, 
  "států": 163, 
  "ky": 164, 
  "ným": 165, 
  "větší": 166, 
  "dolarů": 167, 
  "ů": 168, 
  "mnoho": 169, 
  "stejně": 170, 
  "moci": 171, 
  "strany": 172, 
  "americké": 173, 
  "ovat": 174, 
  "u@@": 175, 
  "svět": 176, 
  "od@@": 177, 
  "svých": 178, 
  "jsme": 179, 
  "téměř": 180, 
  "růstu": 181, 
  "stát": 182, 
  "vůči": 183, 
  "příliš": 184, 
  "pro@@": 185, 
  "y": 186, 
  "ku": 187, 
  "mít": 188, 
  "méně": 189, 
  "Čína": 190, 
  "tohoto": 191, 
  "všech": 192, 
  "banky": 193, 
  "Evropě": 194, 
  "zemi": 195, 
  "uje": 196, 
  "kdyby": 197, 
  "sice": 198, 
  "měla": 199, 
  "jsem": 200, 
  "dokonce": 201, 
  "ceny": 202, 
  "ním": 203, 
  "ují": 204, 
  "roz@@": 205, 
  "Rusko": 206, 
  "na@@": 207, 
  "ty": 208, 
  "ného": 209, 
  "společnosti": 210, 
  "války": 211, 
  "zatímco": 212, 
  "teď": 213, 
  "vlastní": 214, 
  "Evropa": 215, 
  "ekonomiky": 216, 
  "často": 217, 
  "á": 218, 
  "proč": 219, 
  "měli": 220, 
  "třeba": 221, 
  "ji": 222, 
  "století": 223, 
  "jde": 224, 
  "většina": 225, 
  "první": 226, 
  "ské": 227, 
  "zejména": 228, 
  "pod": 229, 
  "vzhledem": 230, 
  "měly": 231, 
  "za@@": 232, 
  "mnoha": 233, 
  "řešení": 234, 
  "zda": 235, 
  "ý": 236, 
  "rovněž": 237, 
  "případě": 238, 
  "Iráku": 239, 
  "víc": 240, 
  "ům": 241, 
  "il": 242, 
  "ka": 243, 
  "oblasti": 244, 
  "dalších": 245, 
  "toto": 246, 
  "jim": 247, 
  "měl": 248, 
  "Evropy": 249, 
  "demokracie": 250, 
  "politika": 251, 
  "prezident": 252, 
  "kvůli": 253, 
  "nikdy": 254, 
  "ily": 255, 
  "trhy": 256, 
  "mu": 257, 
  "v@@": 258, 
  "zahraniční": 259, 
  "vyšší": 260, 
  "totiž": 261, 
  "evropské": 262, 
  "nejsou": 263, 
  "ních": 264, 
  "systém": 265, 
  "ila": 266, 
  "trhu": 267, 
  "skutečně": 268, 
  "tu": 269, 
  "posledních": 270, 
  "nost": 271, 
  "zároveň": 272, 
  "zdá": 273, 
  "al": 274, 
  "�": 275, 
  "oval": 276, 
  "takové": 277, 
  "velké": 278, 
  "mohla": 279, 
  "tuto": 280, 
  "é": 281, 
  "nější": 282, 
  "ové": 283, 
  "unie": 284, 
  "nakonec": 285, 
  "nic": 286, 
  "nejen": 287, 
  "době": 288, 
  "HDP": 289, 
  "em": 290, 
  "it": 291, 
  "národní": 292, 
  "nosti": 293, 
  "pomoci": 294, 
  "samozřejmě": 295, 
  "ského": 296, 
  "ci": 297, 
  "díky": 298, 
  "MMF": 299, 
  "ě": 300, 
  "svého": 301, 
  "nich": 302, 
  "ování": 303, 
  "Spojených": 304, 
  "mohl": 305, 
  "ti": 306, 
  "svůj": 307, 
  "světové": 308, 
  "prezidenta": 309, 
  "OSN": 310, 
  "dobře": 311, 
  "problémy": 312, 
  "platí": 313, 
  "ovala": 314, 
  "politiku": 315, 
  "ých": 316, 
  "přesto": 317, 
  "la": 318, 
  "sociální": 319, 
  "některé": 320, 
  "druhé": 321, 
  "ce": 322, 
  "jí": 323, 
  "ili": 324, 
  "problém": 325, 
  "ého": 326, 
  "pře@@": 327, 
  "l": 328, 
  "znamená": 329, 
  "možné": 330, 
  "jiné": 331, 
  "ských": 332, 
  "miliard": 333, 
  "včetně": 334, 
  "existuje": 335, 
  "nými": 336, 
  "síly": 337, 
  "ekonomické": 338, 
  "byli": 339, 
  "ního": 340, 
  "centrální": 341, 
  "k@@": 342, 
  "jeden": 343, 
  "hospodářské": 344, 
  "bychom": 345, 
  "fiskální": 346, 
  "mohly": 347, 
  "cílem": 348, 
  "změny": 349, 
  "š@@": 350, 
  "moc": 351, 
  "nýbrž": 352, 
  "rozhodnutí": 353, 
  "místo": 354, 
  "ská": 355, 
  "zapotřebí": 356, 
  "nadále": 357, 
  "několik": 358, 
  "část": 359, 
  "Spojené": 360, 
  "nyní": 361, 
  "dále": 362, 
  "tomto": 363, 
  "státu": 364, 
  "ský": 365, 
  "přístup": 366, 
  "pravděpodobně": 367, 
  "systému": 368, 
  "prostřednictvím": 369, 
  "nichž": 370, 
  "Evropské": 371, 
  "navzdory": 372, 
  "ho": 373, 
  "ala": 374, 
  "období": 375, 
  "nebude": 376, 
  "zřejmě": 377, 
  "t@@": 378, 
  "krizi": 379, 
  "kterou": 380, 
  "nám": 381, 
  "několika": 382, 
  "přitom": 383, 
  "takže": 384, 
  "s@@": 385, 
  "nových": 386, 
  "dál": 387, 
  "důsledku": 388, 
  "nelze": 389, 
  "ob@@": 390, 
  "úsilí": 391, 
  "práce": 392, 
  "všichni": 393, 
  "čím": 394, 
  "cen": 395, 
  "nás": 396, 
  "mělo": 397, 
  "ým": 398, 
  "někteří": 399, 
  "ropy": 400, 
  "nemůže": 401, 
  "opatření": 402, 
  "ilo": 403, 
  "mohlo": 404, 
  "podporu": 405, 
  "způsobem": 406, 
  "vůbec": 407, 
  "Číny": 408, 
  "t": 409, 
  "ovaly": 410, 
  "níž": 411, 
  "znovu": 412, 
  "práva": 413, 
  "ly": 414, 
  "aly": 415, 
  "se@@": 416, 
  "ekonomika": 417, 
  "poslední": 418, 
  "č@@": 419, 
  "dva": 420, 
  "jej": 421, 
  "Amerika": 422, 
  "málo": 423, 
  "přičemž": 424, 
  "NATO": 425, 
  "mnozí": 426, 
  "počet": 427, 
  "ú@@": 428, 
  "pomoc": 429, 
  "největší": 430, 
  "bezpečnosti": 431, 
  "zvýšení": 432, 
  "o@@": 433, 
  "velmi": 434, 
  "dnešní": 435, 
  "finančních": 436, 
  "ba": 437, 
  "lety": 438, 
  "ových": 439, 
  "vždy": 440, 
  "současné": 441, 
  "něco": 442, 
  "peníze": 443, 
  "skou": 444, 
  "obchodní": 445, 
  "ím": 446, 
  "ovali": 447, 
  "nikoliv": 448, 
  "ta": 449, 
  "jednání": 450, 
  "situace": 451, 
  "instituce": 452, 
  "při@@": 453, 
  "politických": 454, 
  "státní": 455, 
  "anebo": 456, 
  "náklady": 457, 
  "míry": 458, 
  "ať": 459, 
  "domácí": 460, 
  "roli": 461, 
  "státech": 462, 
  "hospodářství": 463, 
  "hlavní": 464, 
  "poněvadž": 465, 
  "jenž": 466, 
  "investice": 467, 
  "pod@@": 468, 
  "dvě": 469, 
  "skutečnosti": 470, 
  "amerických": 471, 
  "kou": 472, 
  "mimo": 473, 
  "j@@": 474, 
  "obchodu": 475, 
  "Francie": 476, 
  "spíše": 477, 
  "snad": 478, 
  "milionů": 479, 
  "firmy": 480, 
  "Německo": 481, 
  "volby": 482, 
  "zde": 483, 
  "před@@": 484, 
  "trh": 485, 
  "přes": 486, 
  "20": 487, 
  "doby": 488, 
  "tři": 489, 
  "poté": 490, 
  "en": 491, 
  "nový": 492, 
  "přestože": 493, 
  "tvrdí": 494, 
  "dlouho": 495, 
  "míru": 496, 
  "riziko": 497, 
  "rok": 498, 
  "zbraní": 499, 
  "h@@": 500, 
  "svým": 501, 
  "S@@": 502, 
  "ová": 503, 
  "stojí": 504, 
  "Indie": 505, 
  "reformy": 506, 
  "výdaje": 507, 
  "dvou": 508, 
  "bank": 509, 
  "ními": 510, 
  "zajistit": 511, 
  "regionu": 512, 
  "skutečnost": 513, 
  "ovou": 514, 
  "americký": 515, 
  "ému": 516, 
  "celé": 517, 
  "lepší": 518, 
  "té": 519, 
  "ném": 520, 
  "zůstává": 521, 
  "zájmy": 522, 
  "snížení": 523, 
  "především": 524, 
  "prostředí": 525, 
  "vládní": 526, 
  "důsledky": 527, 
  "do@@": 528, 
  "nému": 529, 
  "Izrael": 530, 
  "ostatní": 531, 
  "ující": 532, 
  "ali": 533, 
  "sektoru": 534, 
  "ským": 535, 
  "prostředky": 536, 
  "politice": 537, 
  "mohli": 538, 
  "muset": 539, 
  "d@@": 540, 
  "skupiny": 541, 
  "abychom": 542, 
  "celém": 543, 
  "politickou": 544, 
  "proces": 545, 
  "americká": 546, 
  "žádný": 547, 
  "představuje": 548, 
  "veřejné": 549, 
  "at": 550, 
  "naše": 551, 
  "zásadní": 552, 
  "západní": 553, 
  "Číně": 554, 
  "trhů": 555, 
  "ohledně": 556, 
  "vysoké": 557, 
  "Japonsko": 558, 
  "strategie": 559, 
  "obvykle": 560, 
  "nikdo": 561, 
  "nevy@@": 562, 
  "konečně": 563, 
  "organizace": 564, 
  "kolem": 565, 
  "schopnost": 566, 
  "pracovní": 567, 
  "peněz": 568, 
  "ekonomiku": 569, 
  "hospodářský": 570, 
  "společenství": 571, 
  "vý@@": 572, 
  "rozdíl": 573, 
  "takový": 574, 
  "P@@": 575, 
  "jednou": 576, 
  "rizika": 577, 
  "jiných": 578, 
  "alo": 579, 
  "rychle": 580, 
  "ované": 581, 
  "nedávno": 582, 
  "ch@@": 583, 
  "e": 584, 
  "b@@": 585, 
  "vojenské": 586, 
  "snaží": 587, 
  "žádné": 588, 
  "nová": 589, 
  "kem": 590, 
  "společnost": 591, 
  "e@@": 592, 
  "sebe": 593, 
  "některých": 594, 
  "naopak": 595, 
  "ané": 596, 
  "možnost": 597, 
  "kapitálu": 598, 
  "každý": 599, 
  "jehož": 600, 
  "nez@@": 601, 
  "inflace": 602, 
  "věci": 603, 
  "ovi": 604, 
  "straně": 605, 
  "Evropská": 606, 
  "existují": 607, 
  "energie": 608, 
  "vedení": 609, 
  "jedním": 610, 
  "hodnoty": 611, 
  "á@@": 612, 
  "demokracii": 613, 
  "obyvatel": 614, 
  "nemá": 615, 
  "vliv": 616, 
  "cíle": 617, 
  "života": 618, 
  "eurozóny": 619, 
  "sazby": 620, 
  "kromě": 621, 
  "m@@": 622, 
  "zahraničí": 623, 
  "ž@@": 624, 
  "válka": 625, 
  "žádná": 626, 
  "dosáhnout": 627, 
  "ků": 628, 
  "násilí": 629, 
  "zcela": 630, 
  "Ruska": 631, 
  "jakmile": 632, 
  "jejichž": 633, 
  "ti@@": 634, 
  "těch": 635, 
  "zhruba": 636, 
  "evropských": 637, 
  "ými": 638, 
  "financí": 639, 
  "dříve": 640, 
  "vyžaduje": 641, 
  "le@@": 642, 
  "musíme": 643, 
  "asi": 644, 
  "řízení": 645, 
  "úrokové": 646, 
  "úrovni": 647, 
  "vládu": 648, 
  "jedné": 649, 
  "banka": 650, 
  "taková": 651, 
  "pracovních": 652, 
  "amerického": 653, 
  "Bush": 654, 
  "právo": 655, 
  "ny": 656, 
  "válce": 657, 
  "minulosti": 658, 
  "Írán": 659, 
  "my": 660, 
  "procesu": 661, 
  "základní": 662, 
  "zá@@": 663, 
  "K@@": 664, 
  "ém": 665, 
  "nímu": 666, 
  "ští": 667, 
  "r@@": 668, 
  "části": 669, 
  "politik": 670, 
  "postavení": 671, 
  "ích": 672, 
  "stalo": 673, 
  "an@@": 674, 
  "ení": 675, 
  "ECB": 676, 
  "otázky": 677, 
  "pří@@": 678, 
  "st@@": 679, 
  "nicméně": 680, 
  "New": 681, 
  "cí": 682, 
  "potřebuje": 683, 
  "lo": 684, 
  "politický": 685, 
  "jaderných": 686, 
  "život": 687, 
  "nižší": 688, 
  "í@@": 689, 
  "institucí": 690, 
  "a@@": 691, 
  "zase": 692, 
  "zemím": 693, 
  "Íránu": 694, 
  "ova": 695, 
  "člověk": 696, 
  "Rusku": 697, 
  "rostoucí": 698, 
  "politická": 699, 
  "přinejmenším": 700, 
  "jinak": 701, 
  "Americe": 702, 
  "ností": 703, 
  "dolaru": 704, 
  "lépe": 705, 
  "ko@@": 706, 
  "ačkoliv": 707, 
  "sobě": 708, 
  "dosud": 709, 
  "způsob": 710, 
  "Ameriky": 711, 
  "chování": 712, 
  "režimu": 713, 
  "globálního": 714, 
  "směrem": 715, 
  "jedna": 716, 
  "ovalo": 717, 
  "bohužel": 718, 
  "obě": 719, 
  "klimatu": 720, 
  "cenu": 721, 
  "ni": 722, 
  "bezpečnost": 723, 
  "recese": 724, 
  "obavy": 725, 
  "ami": 726, 
  "aktiv": 727, 
  "l@@": 728, 
  "obou": 729, 
  "sil": 730, 
  "obrovské": 731, 
  "hnutí": 732, 
  "ženy": 733, 
  "žen": 734, 
  "Obama": 735, 
  "stane": 736, 
  "střední": 737, 
  "dluhu": 738, 
  "nepo@@": 739, 
  "čas": 740, 
  "neu@@": 741, 
  "komise": 742, 
  "oproti": 743, 
  "opět": 744, 
  "nemohou": 745, 
  "současnosti": 746, 
  "investic": 747, 
  "otázka": 748, 
  "politici": 749, 
  "uvnitř": 750, 
  "ském": 751, 
  "novou": 752, 
  "situaci": 753, 
  "re@@": 754, 
  "počtu": 755, 
  "přímo": 756, 
  "podobně": 757, 
  "východě": 758, 
  "součástí": 759, 
  "desetiletí": 760, 
  "rámci": 761, 
  "prospěch": 762, 
  "tudíž": 763, 
  "rozvojové": 764, 
  "členských": 765, 
  "veřejného": 766, 
  "rozvojových": 767, 
  "li@@": 768, 
  "Ã": 769, 
  "otázku": 770, 
  "vše": 771, 
  "technologií": 772, 
  "východní": 773, 
  "mnohé": 774, 
  "problémů": 775, 
  "ální": 776, 
  "bez@@": 777, 
  "chtějí": 778, 
  "tehdy": 779, 
  "ná@@": 780, 
  "globalizace": 781, 
  "2008": 782, 
  "stala": 783, 
  "dokáže": 784, 
  "pozornost": 785, 
  "třebaže": 786, 
  "ováním": 787, 
  "tržní": 788, 
  "bohatství": 789, 
  "tam": 790, 
  "ání": 791, 
  "rozvoj": 792, 
  "proti@@": 793, 
  "později": 794, 
  "coby": 795, 
  "jestliže": 796, 
  "nějším": 797, 
  "čínské": 798, 
  "nového": 799, 
  "příjmy": 800, 
  "otázce": 801, 
  "současně": 802, 
  "hospodářského": 803, 
  "výdajů": 804, 
  "vztahy": 805, 
  "můžeme": 806, 
  "řada": 807, 
  "Asii": 808, 
  "volbách": 809, 
  "budoucnosti": 810, 
  "důležité": 811, 
  "snadno": 812, 
  "národů": 813, 
  "většinu": 814, 
  "rozšíření": 815, 
  "ční": 816, 
  "T@@": 817, 
  "mezinárodních": 818, 
  "c@@": 819, 
  "cích": 820, 
  "10": 821, 
  "Putin": 822, 
  "regionální": 823, 
  "ovým": 824, 
  "práv": 825, 
  "získat": 826, 
  "n": 827, 
  "zboží": 828, 
  "vamp": 829, 
  "jednoduše": 830, 
  "tolik": 831, 
  "něj": 832, 
  "A@@": 833, 
  "vá": 834, 
  "význam": 835, 
  "ohledu": 836, 
  "p@@": 837, 
  "jaderné": 838, 
  "výši": 839, 
  "velice": 840, 
  "Británie": 841, 
  "50": 842, 
  "důvodů": 843, 
  "Afghánistánu": 844, 
  "lidských": 845, 
  "alespoň": 846, 
  "sk@@": 847, 
  "ov@@": 848, 
  "neexistuje": 849, 
  "strana": 850, 
  "vede": 851, 
  "rov@@": 852, 
  "úroveň": 853, 
  "zdroje": 854, 
  "opravdu": 855, 
  "politického": 856, 
  "válku": 857, 
  "ostatně": 858, 
  "daleko": 859, 
  "trzích": 860, 
  "zájem": 861, 
  "stability": 862, 
  "čímž": 863, 
  "zdrojů": 864, 
  "značné": 865, 
  "nebylo": 866, 
  "ový": 867, 
  "in@@": 868, 
  "on@@": 869, 
  "ř@@": 870, 
  "podíl": 871, 
  "vlád": 872, 
  "te": 873, 
  "Američané": 874, 
  "en@@": 875, 
  "režim": 876, 
  "máme": 877, 
  "úspěch": 878, 
  "němž": 879, 
  "administrativa": 880, 
  "ekonomice": 881, 
  "vytvořit": 882, 
  "ovaných": 883, 
  "ám": 884, 
  "počátku": 885, 
  "míst": 886, 
  "de@@": 887, 
  "hranice": 888, 
  "nezbytné": 889, 
  "služeb": 890, 
  "dohody": 891, 
  "velkou": 892, 
  "představitelé": 893, 
  "dalším": 894, 
  "budoucnost": 895, 
  "vlastně": 896, 
  "došlo": 897, 
  "ův": 898, 
  "demokratické": 899, 
  "září": 900, 
  "výsledkem": 901, 
  "omezení": 902, 
  "bezpečnostní": 903, 
  "lidem": 904, 
  "krizí": 905, 
  "vytvoření": 906, 
  "aniž": 907, 
  "oteplování": 908, 
  "podmínky": 909, 
  "důvod": 910, 
  "celý": 911, 
  "Evropu": 912, 
  "výsledky": 913, 
  "vývoj": 914, 
  "základě": 915, 
  "nemají": 916, 
  "nemusí": 917, 
  "vítězství": 918, 
  "společností": 919, 
  "reakce": 920, 
  "potřeba": 921, 
  "firem": 922, 
  "nedávné": 923, 
  "roky": 924, 
  "jaké": 925, 
  "jednoho": 926, 
  "revoluce": 927, 
  "lá@@": 928, 
  "sílu": 929, 
  "daní": 930, 
  "Severní": 931, 
  "ového": 932, 
  "jinde": 933, 
  "zatím": 934, 
  "ávají": 935, 
  "nout": 936, 
  "nějších": 937, 
  "společně": 938, 
  "ost": 939, 
  "představují": 940, 
  "kroky": 941, 
  "lidi": 942, 
  "kon@@": 943, 
  "velkých": 944, 
  "2001": 945, 
  "program": 946, 
  "nebudou": 947, 
  "vést": 948, 
  "ruské": 949, 
  "pocit": 950, 
  "ců": 951, 
  "jedině": 952, 
  "f@@": 953, 
  "dokud": 954, 
  "Francii": 955, 
  "ává": 956, 
  "skými": 957, 
  "práci": 958, 
  "ických": 959, 
  "ický": 960, 
  "daně": 961, 
  "vě@@": 962, 
  "i@@": 963, 
  "financování": 964, 
  "ách": 965, 
  "výzkum": 966, 
  "ročně": 967, 
  "měny": 968, 
  "­": 969, 
  "konci": 970, 
  "pravda": 971, 
  "všeho": 972, 
  "čelí": 973, 
  "ra@@": 974, 
  "ží": 975, 
  "dost": 976, 
  "ově": 977, 
  "všem": 978, 
  "D@@": 979, 
  "krok": 980, 
  "nikoli": 981, 
  "měnové": 982, 
  "osti": 983, 
  "Evropané": 984, 
  "přístupu": 985, 
  "dobu": 986, 
  "velká": 987, 
  "rozvoje": 988, 
  "podobě": 989, 
  "najevo": 990, 
  "snížit": 991, 
  "ická": 992, 
  "tisíc": 993, 
  "cestu": 994, 
  "místa": 995, 
  "členství": 996, 
  "V@@": 997, 
  "Západ": 998, 
  "jistě": 999, 
  "deseti": 1000, 
  "Západu": 1001, 
  "B@@": 1002, 
  "nezaměstnanosti": 1003, 
  "silně": 1004, 
  "emisí": 1005, 
  "veřejnosti": 1006, 
  "kdysi": 1007, 
  "euro": 1008, 
  "ostatních": 1009, 
  "stal": 1010, 
  "mi": 1011, 
  "sebou": 1012, 
  "jednat": 1013, 
  "dobré": 1014, 
  "území": 1015, 
  "ické": 1016, 
  "spojených": 1017, 
  "terorismu": 1018, 
  "m": 1019, 
  "výsledek": 1020, 
  "byť": 1021, 
  "oblastech": 1022, 
  "svém": 1023, 
  "ví": 1024, 
  "skému": 1025, 
  "patří": 1026, 
  "Asie": 1027, 
  "čí": 1028, 
  "zájmu": 1029, 
  "moderní": 1030, 
  "pravidla": 1031, 
  "podobné": 1032, 
  "snahy": 1033, 
  "zeměmi": 1034, 
  "sám": 1035, 
  "la@@": 1036, 
  "on": 1037, 
  "tem": 1038, 
  "společné": 1039, 
  "totéž": 1040, 
  "příležitost": 1041, 
  "dluh": 1042, 
  "30": 1043, 
  "cena": 1044, 
  "výzkumu": 1045, 
  "nu": 1046, 
  "nejlepší": 1047, 
  "ten": 1048, 
  "ického": 1049, 
  "naděje": 1050, 
  "investoři": 1051, 
  "George": 1052, 
  "chce": 1053, 
  "mezinárodního": 1054, 
  "někdy": 1055, 
  "boj": 1056, 
  "voleb": 1057, 
  "Turecko": 1058, 
  "tvoří": 1059, 
  "naprosto": 1060, 
  "příjmů": 1061, 
  "ovaný": 1062, 
  "dolar": 1063, 
  "veřejných": 1064, 
  "členské": 1065, 
  "cíl": 1066, 
  "udržet": 1067, 
  "stran": 1068, 
  "mír": 1069, 
  "lem": 1070, 
  "ek": 1071, 
  "snižování": 1072, 
  "90.": 1073, 
  "dělat": 1074, 
  "ovy": 1075, 
  "bankovní": 1076, 
  "občanů": 1077, 
  "jisté": 1078, 
  "spolupráce": 1079, 
  "řadě": 1080, 
  "jasné": 1081, 
  "schopnosti": 1082, 
  "naší": 1083, 
  "svobody": 1084, 
  "nezaměstnanost": 1085, 
  "něji": 1086, 
  "Německu": 1087, 
  "stabilitu": 1088, 
  "snaze": 1089, 
  "menší": 1090, 
  "stavu": 1091, 
  "eura": 1092, 
  "ře": 1093, 
  "technologie": 1094, 
  "nění": 1095, 
  "změn": 1096, 
  "třetí": 1097, 
  "le": 1098, 
  "¡": 1099, 
  "ací": 1100, 
  "rozhodně": 1101, 
  "nejvyšší": 1102, 
  "kům": 1103, 
  "využít": 1104, 
  "d": 1105, 
  "obchod": 1106, 
  "možnosti": 1107, 
  "nad@@": 1108, 
  "právní": 1109, 
  "al@@": 1110, 
  "začít": 1111, 
  "činí": 1112, 
  "prvé": 1113, 
  "2000": 1114, 
  "plán": 1115, 
  "g@@": 1116, 
  "sami": 1117, 
  "reforem": 1118, 
  "domů": 1119, 
  "Bushova": 1120, 
  "přesvědčení": 1121, 
  "pokles": 1122, 
  "zní": 1123, 
  "prvním": 1124, 
  "brzy": 1125, 
  "potřebují": 1126, 
  "dětí": 1127, 
  "sazeb": 1128, 
  "Izraele": 1129, 
  "celou": 1130, 
  "spolupráci": 1131, 
  "M@@": 1132, 
  "řešit": 1133, 
  "F@@": 1134, 
  "smyslu": 1135, 
  "ství": 1136, 
  "vládě": 1137, 
  "nebyl": 1138, 
  "R@@": 1139, 
  "mínění": 1140, 
  "sama": 1141, 
  "množství": 1142, 
  "americkou": 1143, 
  "dy": 1144, 
  "ena": 1145, 
  "řečeno": 1146, 
  "změnu": 1147, 
  "populace": 1148, 
  "zbraně": 1149, 
  "udělat": 1150, 
  "hospodářskou": 1151, 
  "kové": 1152, 
  "prostředků": 1153, 
  "nově": 1154, 
  "oživení": 1155, 
  "model": 1156, 
  "lídři": 1157, 
  "konce": 1158, 
  "deset": 1159, 
  "různých": 1160, 
  "tlak": 1161, 
  "2007": 1162, 
  "dosažení": 1163, 
  "chudých": 1164, 
  "já": 1165, 
  "dopady": 1166, 
  "členů": 1167, 
  "podpory": 1168, 
  "těžké": 1169, 
  "jedinou": 1170, 
  "nesmírně": 1171, 
  "zákona": 1172, 
  "j": 1173, 
  "životní": 1174, 
  "tomuto": 1175, 
  "H@@": 1176, 
  "jelikož": 1177, 
  "naproti": 1178, 
  "silné": 1179, 
  "programu": 1180, 
  "spolu": 1181, 
  "budeme": 1182, 
  "vysoce": 1183, 
  "2004": 1184, 
  "problému": 1185, 
  "Irák": 1186, 
  "Jižní": 1187, 
  "začala": 1188, 
  "generace": 1189, 
  "Británii": 1190, 
  "ekonomických": 1191, 
  "ro@@": 1192, 
  "fond": 1193, 
  "zvýšit": 1194, 
  "služby": 1195, 
  "ma@@": 1196, 
  "problémem": 1197, 
  "inflaci": 1198, 
  "loni": 1199, 
  "O@@": 1200, 
  "názor": 1201, 
  "významné": 1202, 
  "jasně": 1203, 
  "ené": 1204, 
  "skutečné": 1205, 
  "n@@": 1206, 
  "děti": 1207, 
  "říká": 1208, 
  "jeví": 1209, 
  "Africe": 1210, 
  "chvíli": 1211, 
  "2009": 1212, 
  "vzdělání": 1213, 
  "ovaná": 1214, 
  "Z@@": 1215, 
  "chudoby": 1216, 
  "způsoby": 1217, 
  "pochopitelně": 1218, 
  "integrace": 1219, 
  "nebyla": 1220, 
  "zodpovědnost": 1221, 
  "ickou": 1222, 
  "pomocí": 1223, 
  "pá@@": 1224, 
  "N@@": 1225, 
  "ta@@": 1226, 
  "jících": 1227, 
  "dvěma": 1228, 
  "neza@@": 1229, 
  "sou@@": 1230, 
  "hodnotu": 1231, 
  "velký": 1232, 
  "zahraničních": 1233, 
  "aci": 1234, 
  "politicky": 1235, 
  "zpět": 1236, 
  "Indii": 1237, 
  "případech": 1238, 
  "vládních": 1239, 
  "relativně": 1240, 
  "míra": 1241, 
  "výrazně": 1242, 
  "5": 1243, 
  "podstatě": 1244, 
  "dě@@": 1245, 
  "2": 1246, 
  "ají": 1247, 
  "druhou": 1248, 
  "L@@": 1249, 
  "programy": 1250, 
  "věc": 1251, 
  "tradiční": 1252, 
  "tí": 1253, 
  "dluhopisů": 1254, 
  "vedoucí": 1255, 
  "místní": 1256, 
  "příležitosti": 1257, 
  "celá": 1258, 
  "25": 1259, 
  "konfliktu": 1260, 
  "ší": 1261, 
  "dovolit": 1262, 
  "W": 1263, 
  "studené": 1264, 
  "ávat": 1265, 
  "informace": 1266, 
  "změna": 1267, 
  "daňové": 1268, 
  "malé": 1269, 
  "40": 1270, 
  "no": 1271, 
  "ar@@": 1272, 
  "prakticky": 1273, 
  "y@@": 1274, 
  "nimi": 1275, 
  "úrokových": 1276, 
  "cílů": 1277, 
  "ut@@": 1278, 
  "deficit": 1279, 
  "dopad": 1280, 
  "ekonomik": 1281, 
  "den": 1282, 
  "ak@@": 1283, 
  "or@@": 1284, 
  "reakci": 1285, 
  "ňují": 1286, 
  "dlouhodobé": 1287, 
  "jící": 1288, 
  "ňuje": 1289, 
  "dát": 1290, 
  "álním": 1291, 
  "skupina": 1292, 
  "pravděpodobné": 1293, 
  "takových": 1294, 
  "vztahu": 1295, 
  "unii": 1296, 
  "hlavním": 1297, 
  "plně": 1298, 
  "otázkou": 1299, 
  "ká": 1300, 
  "ň@@": 1301, 
  "miliony": 1302, 
  "nit": 1303, 
  "ano": 1304, 
  "vážně": 1305, 
  "G": 1306, 
  "budoucí": 1307, 
  "!": 1308, 
  "vůdce": 1309, 
  "odpověď": 1310, 
  "politickým": 1311, 
  "stí": 1312, 
  "občané": 1313, 
  "pokračovat": 1314, 
  "celého": 1315, 
  "zajištění": 1316, 
  "ina": 1317, 
  "jiného": 1318, 
  "2005": 1319, 
  "álně": 1320, 
  "ru@@": 1321, 
  "ován": 1322, 
  "ch": 1323, 
  "ministr": 1324, 
  "kontrolu": 1325, 
  "smysl": 1326, 
  "volební": 1327, 
  "pohledu": 1328, 
  "konec": 1329, 
  "ník": 1330, 
  "návrh": 1331, 
  "národních": 1332, 
  "změnit": 1333, 
  "novým": 1334, 
  "3": 1335, 
  "poptávky": 1336, 
  "nutí": 1337, 
  "bohatých": 1338, 
  "Světové": 1339, 
  "ot@@": 1340, 
  "ochranu": 1341, 
  "prohlásil": 1342, 
  "jejím": 1343, 
  "ponaučení": 1344, 
  "it@@": 1345, 
  "bohaté": 1346, 
  "většině": 1347, 
  "globálních": 1348, 
  "te@@": 1349, 
  "de": 1350, 
  "pra@@": 1351, 
  "vývoje": 1352, 
  "1": 1353, 
  "konkurenční": 1354, 
  "Organizace": 1355, 
  "zákon": 1356, 
  "sko": 1357, 
  "času": 1358, 
  "letos": 1359, 
  "zdaleka": 1360, 
  "útoky": 1361, 
  "hlediska": 1362, 
  "soukromé": 1363, 
  "ňovat": 1364, 
  "zdravotní": 1365, 
  "řadu": 1366, 
  "naději": 1367, 
  "kov@@": 1368, 
  "amp": 1369, 
  "těmto": 1370, 
  "neměli": 1371, 
  "tímto": 1372, 
  "finančního": 1373, 
  "Velké": 1374, 
  "pravdu": 1375, 
  "šíření": 1376, 
  "regulace": 1377, 
  "morální": 1378, 
  "informací": 1379, 
  "jimž": 1380, 
  "lidská": 1381, 
  "dluhů": 1382, 
  "G@@": 1383, 
  "očekávání": 1384, 
  "sem": 1385, 
  "teprve": 1386, 
  "natolik": 1387, 
  "jinými": 1388, 
  "ska": 1389, 
  "věcí": 1390, 
  "zřejmé": 1391, 
  "dává": 1392, 
  "an": 1393, 
  "jejích": 1394, 
  "jednu": 1395, 
  "pouhých": 1396, 
  "vody": 1397, 
  "rozsáhlé": 1398, 
  "zdraví": 1399, 
  "chudé": 1400, 
  "takového": 1401, 
  "obchodních": 1402, 
  "příští": 1403, 
  "álních": 1404, 
  "hlavu": 1405, 
  "ickým": 1406, 
  "staly": 1407, 
  "C@@": 1408, 
  "nijak": 1409, 
  "ech": 1410, 
  "státních": 1411, 
  "lí": 1412, 
  "15": 1413, 
  "ujících": 1414, 
  "mí@@": 1415, 
  "přibližně": 1416, 
  "premiér": 1417, 
  "strategii": 1418, 
  "at@@": 1419, 
  "é@@": 1420, 
  "kulturní": 1421, 
  "důvěru": 1422, 
  "rozdíly": 1423, 
  "nil": 1424, 
  "prostor": 1425, 
  "pou@@": 1426, 
  "závisí": 1427, 
  "každé": 1428, 
  "parlamentu": 1429, 
  "ována": 1430, 
  "jenže": 1431, 
  "vládou": 1432, 
  "ý@@": 1433, 
  "slovy": 1434, 
  "hrozí": 1435, 
  "stranu": 1436, 
  "dojde": 1437, 
  "kách": 1438, 
  "potravin": 1439, 
  "najít": 1440, 
  "ukazuje": 1441, 
  "ekonomický": 1442, 
  "vyhlídky": 1443, 
  "poprvé": 1444, 
  "začaly": 1445, 
  "členové": 1446, 
  "úvěrů": 1447, 
  "zčásti": 1448, 
  "buď": 1449, 
  "Středním": 1450, 
  "události": 1451, 
  "příštích": 1452, 
  "liberální": 1453, 
  "světu": 1454, 
  "spočívá": 1455, 
  "smlouvy": 1456, 
  "evropský": 1457, 
  "měsíců": 1458, 
  "in": 1459, 
  "tvrzení": 1460, 
  "podpora": 1461, 
  "nízké": 1462, 
  "ně@@": 1463, 
  "vzestup": 1464, 
  "ekonomové": 1465, 
  "vztahů": 1466, 
  "míře": 1467, 
  "ni@@": 1468, 
  "rem": 1469, 
  "korupce": 1470, 
  "J@@": 1471, 
  "pět": 1472, 
  "tů": 1473, 
  "oblastí": 1474, 
  "horší": 1475, 
  "pokrok": 1476, 
  "kapitál": 1477, 
  "ztráty": 1478, 
  "role": 1479, 
  "očekávat": 1480, 
  "úřadu": 1481, 
  "aný": 1482, 
  "sektor": 1483, 
  "jícím": 1484, 
  "il@@": 1485, 
  "zákony": 1486, 
  "postoj": 1487, 
  "tito": 1488, 
  "lé": 1489, 
  "dem": 1490, 
  "rozvíjejících": 1491, 
  "čních": 1492, 
  "ru": 1493, 
  "všechno": 1494, 
  "vat": 1495, 
  "zabránit": 1496, 
  "tu@@": 1497, 
  "jediným": 1498, 
  "uspořádání": 1499, 
  "úkol": 1500, 
  "síla": 1501, 
  "su@@": 1502, 
  "ější": 1503, 
  "zlepšení": 1504, 
  "ovány": 1505, 
  "dohoda": 1506, 
  "čtyři": 1507, 
  "miliardy": 1508, 
  "pojištění": 1509, 
  "fondu": 1510, 
  "snadné": 1511, 
  "smrti": 1512, 
  "Čínu": 1513, 
  "takto": 1514, 
  "vz@@": 1515, 
  "éry": 1516, 
  "prezidentem": 1517, 
  "důkazy": 1518, 
  "jíž": 1519, 
  "Palestinci": 1520, 
  "občanské": 1521, 
  "2006": 1522, 
  "těm": 1523, 
  "ekonomického": 1524, 
  "žádnou": 1525, 
  "spíš": 1526, 
  "et@@": 1527, 
  "ě@@": 1528, 
  "učinit": 1529, 
  "sebe@@": 1530, 
  "60": 1531, 
  "věku": 1532, 
  "si@@": 1533, 
  "procent": 1534, 
  "úlohu": 1535, 
  "oba": 1536, 
  "přináší": 1537, 
  "všude": 1538, 
  "ekonomická": 1539, 
  "svobodu": 1540, 
  "zvýší": 1541, 
  "teorie": 1542, 
  "ry": 1543, 
  "dostatečně": 1544, 
  "nebezpečí": 1545, 
  "svými": 1546, 
  "jakou": 1547, 
  "podařilo": 1548, 
  "YORK": 1549, 
  "žení": 1550, 
  "ál@@": 1551, 
  "konkrétní": 1552, 
  "akcií": 1553, 
  "op@@": 1554, 
  "ace": 1555, 
  "vou": 1556, 
  "zodpovědnosti": 1557, 
  "dot@@": 1558, 
  "současná": 1559, 
  "názoru": 1560, 
  "soustavy": 1561, 
  "nedokáže": 1562, 
  "možností": 1563, 
  "kám": 1564, 
  "poz@@": 1565, 
  "vysokou": 1566, 
  "ka@@": 1567, 
  "dochází": 1568, 
  "evropského": 1569, 
  "nila": 1570, 
  "nezávislost": 1571, 
  "těmito": 1572, 
  "zaprvé": 1573, 
  "dne": 1574, 
  "občany": 1575, 
  "aná": 1576, 
  "veřejnost": 1577, 
  "Libanonu": 1578, 
  "typu": 1579, 
  "mě": 1580, 
  "zavedení": 1581, 
  "Německa": 1582, 
  "nákladů": 1583, 
  "álního": 1584, 
  "věří": 1585, 
  "oficiální": 1586, 
  "armáda": 1587, 
  "lo@@": 1588, 
  "vědí": 1589, 
  "posílení": 1590, 
  "američtí": 1591, 
  "vyhnout": 1592, 
  "silnější": 1593, 
  "jediný": 1594, 
  "jednotlivých": 1595, 
  "rizik": 1596, 
  "post@@": 1597, 
  "členy": 1598, 
  "2010": 1599, 
  "tou": 1600, 
  "širší": 1601, 
  "přesně": 1602, 
  "tech": 1603, 
  "vysoká": 1604, 
  "cestě": 1605, 
  "příležitostí": 1606, 
  "univerzity": 1607, 
  "sociálního": 1608, 
  "E@@": 1609, 
  "zotavení": 1610, 
  "samotné": 1611, 
  "administrativy": 1612, 
  "da": 1613, 
  "značně": 1614, 
  "změně": 1615, 
  "potřebujeme": 1616, 
  "podmínek": 1617, 
  "ujeme": 1618, 
  "zůstávají": 1619, 
  "ismu": 1620, 
  "řekl": 1621, 
  "napříč": 1622, 
  "boje": 1623, 
  "významnou": 1624, 
  "okolností": 1625, 
  "boji": 1626, 
  "smě@@": 1627, 
  "finančním": 1628, 
  "prudce": 1629, 
  "člověka": 1630, 
  "pěti": 1631, 
  "kami": 1632, 
  "neměl": 1633, 
  "zájmů": 1634, 
  "nedostatek": 1635, 
  "ávání": 1636, 
  "ho@@": 1637, 
  "hodnocení": 1638, 
  "lidské": 1639, 
  "jich": 1640, 
  "Bushe": 1641, 
  "přijmout": 1642, 
  "ismus": 1643, 
  "pohled": 1644, 
  "vlastních": 1645, 
  "víme": 1646, 
  "/": 1647, 
  "osobní": 1648, 
  "emise": 1649, 
  "staré": 1650, 
  "rukou": 1651, 
  "ří": 1652, 
  "německé": 1653, 
  "vnitřní": 1654, 
  "naznačuje": 1655, 
  "takovou": 1656, 
  "neměla": 1657, 
  "ením": 1658, 
  "nily": 1659, 
  "východ": 1660, 
  "íme": 1661, 
  "převážně": 1662, 
  "světová": 1663, 
  "namísto": 1664, 
  "každá": 1665, 
  "státům": 1666, 
  "stav": 1667, 
  "strach": 1668, 
  "doma": 1669, 
  "prostě": 1670, 
  "daň": 1671, 
  "systémy": 1672, 
  "vým": 1673, 
  "du@@": 1674, 
  "šlo": 1675, 
  "obzvlášť": 1676, 
  "příkladem": 1677, 
  "budování": 1678, 
  "nejvíce": 1679, 
  "Ruskem": 1680, 
  "většiny": 1681, 
  "sí": 1682, 
  "nes@@": 1683, 
  "skupin": 1684, 
  "samy": 1685, 
  "vlivu": 1686, 
  "vá@@": 1687, 
  "pochopit": 1688, 
  "poptávku": 1689, 
  "začal": 1690, 
  "jejíž": 1691, 
  "léta": 1692, 
  "mo@@": 1693, 
  "daňových": 1694, 
  "dějin": 1695, 
  "naši": 1696, 
  "pokroku": 1697, 
  "neschopnost": 1698, 
  "určité": 1699, 
  "čele": 1700, 
  "prozatím": 1701, 
  "Itálie": 1702, 
  "důvodem": 1703, 
  "rámec": 1704, 
  "přijetí": 1705, 
  "náboženství": 1706, 
  "nem": 1707, 
  "americkým": 1708, 
  "těžko": 1709, 
  "všeobecně": 1710, 
  "di@@": 1711, 
  "obrany": 1712, 
  "zůstane": 1713, 
  "zpráva": 1714, 
  "něhož": 1715, 
  "žije": 1716, 
  "úspor": 1717, 
  "studie": 1718, 
  "voliči": 1719, 
  "ve@@": 1720, 
  "án": 1721, 
  "lu@@": 1722, 
  "souladu": 1723, 
  "vedlo": 1724, 
  "dějinách": 1725, 
  "va@@": 1726, 
  "me": 1727, 
  "kolik": 1728, 
  "4": 1729, 
  "nemovitostí": 1730, 
  "tří": 1731, 
  "vedou": 1732, 
  "evropští": 1733, 
  "našich": 1734, 
  "Japonska": 1735, 
  "jiný": 1736, 
  "čínská": 1737, 
  "ký": 1738, 
  "hluboce": 1739, 
  "šení": 1740, 
  "neznamená": 1741, 
  "světových": 1742, 
  "2003": 1743, 
  "produktivity": 1744, 
  "předseda": 1745, 
  "itu": 1746, 
  "Japonsku": 1747, 
  "koneckonců": 1748, 
  "zdravotnictví": 1749, 
  "ví@@": 1750, 
  "hodnot": 1751, 
  "cit@@": 1752, 
  "ústavy": 1753, 
  "ku@@": 1754, 
  "jistou": 1755, 
  "případně": 1756, 
  "sky": 1757, 
  "názory": 1758, 
  "konflikt": 1759, 
  "8": 1760, 
  "energetické": 1761, 
  "80.": 1762, 
  "rozhod@@": 1763, 
  "tamní": 1764, 
  "ených": 1765, 
  "ickými": 1766, 
  "snaha": 1767, 
  "důsledkem": 1768, 
  "jícího": 1769, 
  "ovanou": 1770, 
  "působí": 1771, 
  "současný": 1772, 
  "zprávy": 1773, 
  "dalo": 1774, 
  "důvěry": 1775, 
  "vyvolává": 1776, 
  "nedo@@": 1777, 
  "ekonomickou": 1778, 
  "ou@@": 1779, 
  "začíná": 1780, 
  "Izraelem": 1781, 
  "Řecko": 1782, 
  "výhody": 1783, 
  "tě": 1784, 
  "ice": 1785, 
  "evropská": 1786, 
  "voličů": 1787, 
  "me@@": 1788, 
  "spravedlnosti": 1789, 
  "hrozbu": 1790, 
  "dějiny": 1791, 
  "silou": 1792, 
  "vyspělých": 1793, 
  "produkce": 1794, 
  "vskutku": 1795, 
  "zvyšuje": 1796, 
  "vr@@": 1797, 
  "důvody": 1798, 
  "globálním": 1799, 
  "myšlení": 1800, 
  "vzájemně": 1801, 
  "rá@@": 1802, 
  "pla@@": 1803, 
  "20.": 1804, 
  "intervence": 1805, 
  "požadavky": 1806, 
  "sociálních": 1807, 
  "níky": 1808, 
  "nabízí": 1809, 
  "armády": 1810, 
  "hor@@": 1811, 
  "ul@@": 1812, 
  "Američanů": 1813, 
  "půjčky": 1814, 
  "Rady": 1815, 
  "úspěchu": 1816, 
  "no@@": 1817, 
  "r": 1818, 
  "cestou": 1819, 
  "neustále": 1820, 
  "úrovně": 1821, 
  "Ne@@": 1822, 
  "spolu@@": 1823, 
  "řídit": 1824, 
  "·": 1825, 
  "hrát": 1826, 
  "údajně": 1827, 
  "vost": 1828, 
  "jaký": 1829, 
  "2@@": 1830, 
  "aných": 1831, 
  "světovou": 1832, 
  "energii": 1833, 
  "začali": 1834, 
  "případ": 1835, 
  "ři": 1836, 
  "kurz": 1837, 
  "obětí": 1838, 
  "ci@@": 1839, 
  "odpor": 1840, 
  "lé@@": 1841, 
  "Čínou": 1842, 
  "ra": 1843, 
  "cesta": 1844, 
  "slova": 1845, 
  "summitu": 1846, 
  "ovaného": 1847, 
  "cení": 1848, 
  "pravidel": 1849, 
  "lidu": 1850, 
  "izraelské": 1851, 
  "rady": 1852, 
  "vyřešit": 1853, 
  "politikou": 1854, 
  "diskuse": 1855, 
  "polovinu": 1856, 
  "silný": 1857, 
  "cům": 1858, 
  "ící": 1859, 
  "nejméně": 1860, 
  "obrovský": 1861, 
  "vedle": 1862, 
  "hospodářská": 1863, 
  "různé": 1864, 
  "vojenskou": 1865, 
  "plynu": 1866, 
  "průběhu": 1867, 
  "til": 1868, 
  "dohodu": 1869, 
  "vě": 1870, 
  "raději": 1871, 
  "Korea": 1872, 
  "soud": 1873, 
  "potenciál": 1874, 
  "čit": 1875, 
  "dal": 1876, 
  "sku": 1877, 
  "zemědělství": 1878, 
  "mu@@": 1879, 
  "stejné": 1880, 
  "evropskou": 1881, 
  "vytváří": 1882, 
  "činnosti": 1883, 
  "prosazování": 1884, 
  "tit": 1885, 
  "vztah": 1886, 
  "am@@": 1887, 
  "11.": 1888, 
  "jistý": 1889, 
  "6": 1890, 
  "důležitější": 1891, 
  "investiční": 1892, 
  "příklad": 1893, 
  "revoluci": 1894, 
  "čili": 1895, 
  "využití": 1896, 
  "státem": 1897, 
  "Å": 1898, 
  "bilance": 1899, 
  "roční": 1900, 
  "jiní": 1901, 
  "ur@@": 1902, 
  "cem": 1903, 
  "životního": 1904, 
  "vi@@": 1905, 
  "začne": 1906, 
  "I@@": 1907, 
  "čení": 1908, 
  "posílit": 1909, 
  "nejprve": 1910, 
  "hlasů": 1911, 
  "zaměstnanosti": 1912, 
  "nebyly": 1913, 
  "ření": 1914, 
  "Sarkozy": 1915, 
  "stěží": 1916, 
  "kých": 1917, 
  "reálné": 1918, 
  "mimořádně": 1919, 
  "žené": 1920, 
  "plánu": 1921, 
  "kého": 1922, 
  "1989": 1923, 
  "někdo": 1924, 
  "dřív": 1925, 
  "postupně": 1926, 
  "bydlení": 1927, 
  "většinou": 1928, 
  "je@@": 1929, 
  "zisky": 1930, 
  "ickém": 1931, 
  "naznačují": 1932, 
  "lu": 1933, 
  "vyjednávání": 1934, 
  "průmyslu": 1935, 
  "cesty": 1936, 
  "mě@@": 1937, 
  "anti@@": 1938, 
  "rozhodování": 1939, 
  "ode@@": 1940, 
  "cím": 1941, 
  "úkolem": 1942, 
  "napětí": 1943, 
  "účtu": 1944, 
  "srovnání": 1945, 
  "zvláštní": 1946, 
  "poptávka": 1947, 
  "nutné": 1948, 
  "ona": 1949, 
  "podniky": 1950, 
  "domácností": 1951, 
  "staví": 1952, 
  "organizací": 1953, 
  "CO2": 1954, 
  "fakt": 1955, 
  "recesi": 1956, 
  "lí@@": 1957, 
  "dění": 1958, 
  "zbytek": 1959, 
  "vážné": 1960, 
  "daly": 1961, 
  "žít": 1962, 
  "událostí": 1963, 
  "něž": 1964, 
  "mi@@": 1965, 
  "nezávislosti": 1966, 
  "aktiva": 1967, 
  "č": 1968, 
  "níků": 1969, 
  "er@@": 1970, 
  "světového": 1971, 
  "odráží": 1972, 
  "bo@@": 1973, 
  "mezd": 1974, 
  "bí@@": 1975, 
  "ovaným": 1976, 
  "orgány": 1977, 
  "vější": 1978, 
  "potřebné": 1979, 
  "bývalý": 1980, 
  "demokratických": 1981, 
  "platit": 1982, 
  "Bushovy": 1983, 
  "vedl": 1984, 
  "tila": 1985, 
  "tvář": 1986, 
  "přece": 1987, 
  "strukturální": 1988, 
  "poklesu": 1989, 
  "výjimkou": 1990, 
  "začnou": 1991, 
  "lou@@": 1992, 
  "tě@@": 1993, 
  "japonské": 1994, 
  "Hamásu": 1995, 
  "přínosy": 1996, 
  "2002": 1997, 
  "čin@@": 1998, 
  "jejího": 1999, 
  "bi@@": 2000, 
  "tr@@": 2001, 
  "ňování": 2002, 
  "hu": 2003, 
  "měsíc": 2004, 
  "el@@": 2005, 
  "drží": 2006, 
  "Brazílie": 2007, 
  "ovými": 2008, 
  "zavést": 2009, 
  "francouzské": 2010, 
  "efektivní": 2011, 
  "celkové": 2012, 
  "100": 2013, 
  "kom@@": 2014, 
  "1999": 2015, 
  "roste": 2016, 
  "os@@": 2017, 
  "sklon": 2018, 
  "jít": 2019, 
  "nu@@": 2020, 
  "desítky": 2021, 
  "celosvětové": 2022, 
  "Mezinárodní": 2023, 
  "hlasování": 2024, 
  "Š@@": 2025, 
  "terorismus": 2026, 
  "vpřed": 2027, 
  "útok": 2028, 
  "st": 2029, 
  "svému": 2030, 
  "veškeré": 2031, 
  "mzdy": 2032, 
  "návrat": 2033, 
  "mění": 2034, 
  "Izraeli": 2035, 
  "va": 2036, 
  "zat@@": 2037, 
  "reforma": 2038, 
  "příčinou": 2039, 
  "ita": 2040, 
  "fungovat": 2041, 
  "našeho": 2042, 
  "jediné": 2043, 
  "kontroly": 2044, 
  "dokážou": 2045, 
  "případů": 2046, 
  "kapitálové": 2047, 
  "oni": 2048, 
  "zadlužení": 2049, 
  "rozsahu": 2050, 
  "vám": 2051, 
  "tily": 2052, 
  "lá": 2053, 
  "ukazují": 2054, 
  "Ameriku": 2055, 
  "pravděpodobností": 2056, 
  "trvat": 2057, 
  "žena": 2058, 
  "potřeby": 2059, 
  "zvyšování": 2060, 
  "správné": 2061, 
  "region": 2062, 
  "podpoře": 2063, 
  "palestinské": 2064, 
  "politiků": 2065, 
  "náš": 2066, 
  "Turecka": 2067, 
  "dluhy": 2068, 
  "tkví": 2069, 
  "minulého": 2070, 
  "každého": 2071, 
  "jaderného": 2072, 
  "nejlépe": 2073, 
  "sen@@": 2074, 
  "předtím": 2075, 
  "dala": 2076, 
  "kampaň": 2077, 
  "rozvíjející": 2078, 
  "školství": 2079, 
  "předpokládá": 2080, 
  "lých": 2081, 
  "východu": 2082, 
  "vypořádat": 2083, 
  "rodiny": 2084, 
  "města": 2085, 
  "prý": 2086, 
  "bezpochyby": 2087, 
  "nutně": 2088, 
  "negativní": 2089, 
  "dostat": 2090, 
  "dostatek": 2091, 
  "internetu": 2092, 
  "náboženské": 2093, 
  "sníží": 2094, 
  "str@@": 2095, 
  "nemělo": 2096, 
  "obecně": 2097, 
  "rozpočtu": 2098, 
  "man@@": 2099, 
  "výnosy": 2100, 
  "irácké": 2101, 
  "dalšími": 2102, 
  "vedla": 2103, 
  "soudu": 2104, 
  "stává": 2105, 
  "žijí": 2106, 
  "AIDS": 2107, 
  "arabské": 2108, 
  "Hamás": 2109, 
  "om@@": 2110, 
  "islámu": 2111, 
  "vojenských": 2112, 
  "tentokrát": 2113, 
  "Latinské": 2114, 
  "řit": 2115, 
  "vojenská": 2116, 
  "vol@@": 2117, 
  "jímž": 2118, 
  "týká": 2119, 
  "podporovat": 2120, 
  "plyne": 2121, 
  "měnový": 2122, 
  "nepři@@": 2123, 
  "vzdělávání": 2124, 
  "podporuje": 2125, 
  "prosazovat": 2126, 
  "trpí": 2127, 
  "partnerství": 2128, 
  "ha@@": 2129, 
  "ad@@": 2130, 
  "du": 2131, 
  "níka": 2132, 
  "obzvláště": 2133, 
  "000": 2134, 
  "společného": 2135, 
  "h": 2136, 
  "vlastnictví": 2137, 
  "čínských": 2138, 
  "čí@@": 2139, 
  "ó@@": 2140, 
  "pracovat": 2141, 
  "vojáků": 2142, 
  "prů@@": 2143, 
  "jedno": 2144, 
  "špatně": 2145, 
  "průmyslové": 2146, 
  "hluboké": 2147, 
  "Pákistánu": 2148, 
  "če": 2149, 
  "hospodářských": 2150, 
  "závazky": 2151, 
  "vampnbsp": 2152, 
  "opozice": 2153, 
  "hodnota": 2154, 
  "stranou": 2155, 
  "držet": 2156, 
  "ústavní": 2157, 
  "ochrany": 2158, 
  "Č@@": 2159, 
  "skutečný": 2160, 
  "itou": 2161, 
  "významný": 2162, 
  "pan@@": 2163, 
  "ohrožení": 2164, 
  "zařízení": 2165, 
  "obávají": 2166, 
  "podpořit": 2167, 
  "sí@@": 2168, 
  "hledání": 2169, 
  "rokem": 2170, 
  "péče": 2171, 
  "komunismu": 2172, 
  "kurzu": 2173, 
  "ří@@": 2174, 
  "koalice": 2175, 
  "pozitivní": 2176, 
  "mírové": 2177, 
  "hovoří": 2178, 
  "premiéra": 2179, 
  "itě": 2180, 
  "infrastruktury": 2181, 
  "svá": 2182, 
  "eny": 2183, 
  "institucionální": 2184, 
  "francouzský": 2185, 
  "ovém": 2186, 
  "jedná": 2187, 
  "touto": 2188, 
  "ohledem": 2189, 
  "ruská": 2190, 
  "úřady": 2191, 
  "ekonomikách": 2192, 
  "účast": 2193, 
  "zastavit": 2194, 
  "tempo": 2195, 
  "občas": 2196, 
  "ený": 2197, 
  "rozvoji": 2198, 
  "kampaně": 2199, 
  "rozvinutých": 2200, 
  "vždyť": 2201, 
  "něné": 2202, 
  "ruce": 2203, 
  "ie": 2204, 
  "osob": 2205, 
  "potřebu": 2206, 
  "brání": 2207, 
  "reformu": 2208, 
  "ran@@": 2209, 
  "mezinárodním": 2210, 
  "tivní": 2211, 
  "hlavních": 2212, 
  "potíže": 2213, 
  "jiná": 2214, 
  "národního": 2215, 
  "zřetelně": 2216, 
  "sp@@": 2217, 
  "dá": 2218, 
  "energií": 2219, 
  "pl@@": 2220, 
  "vedly": 2221, 
  "dluhopisy": 2222, 
  "měnová": 2223, 
  "debaty": 2224, 
  "vají": 2225, 
  "80": 2226, 
  "rat": 2227, 
  "má@@": 2228, 
  "rychleji": 2229, 
  "radikální": 2230, 
  "ant@@": 2231, 
  "měřítku": 2232, 
  "platební": 2233, 
  "měrou": 2234, 
  "průměru": 2235, 
  "zajistí": 2236, 
  "zaměstnanost": 2237, 
  "vůdci": 2238, 
  "ruských": 2239, 
  "ela": 2240, 
  "stabilní": 2241, 
  "vědecké": 2242, 
  "pádu": 2243, 
  "federální": 2244, 
  "zaměstnanců": 2245, 
  "bránit": 2246, 
  "vosti": 2247, 
  "velkým": 2248, 
  "aktiv@@": 2249, 
  "Evropou": 2250, 
  "kultury": 2251, 
  "znamenalo": 2252, 
  "rozpočet": 2253, 
  "jakékoliv": 2254, 
  "ké": 2255, 
  "iny": 2256, 
  "otázkách": 2257, 
  "vnější": 2258, 
  "získal": 2259, 
  "ovo": 2260, 
  "vlastního": 2261, 
  "lov@@": 2262, 
  "cenných": 2263, 
  "základních": 2264, 
  "součást": 2265, 
  "aktivity": 2266, 
  "plné": 2267, 
  "úplně": 2268, 
  "uznání": 2269, 
  "zovat": 2270, 
  "povede": 2271, 
  "myslí": 2272, 
  "životy": 2273, 
  "čního": 2274, 
  "prezidentské": 2275, 
  "lý": 2276, 
  "nejenže": 2277, 
  "Blízkém": 2278, 
  "zadruhé": 2279, 
  "sta@@": 2280, 
  "Cambridge": 2281, 
  "faktory": 2282, 
  "dávají": 2283, 
  "aliance": 2284, 
  "70.": 2285, 
  "nese": 2286, 
  "kapitálových": 2287, 
  "anou": 2288, 
  "prvních": 2289, 
  "Gazy": 2290, 
  "7": 2291, 
  "neměly": 2292, 
  "okamžitě": 2293, 
  "svazu": 2294, 
  "krátce": 2295, 
  "led@@": 2296, 
  "ováni": 2297, 
  "nástroje": 2298, 
  "muži": 2299, 
  "let@@": 2300, 
  "1997": 2301, 
  "ená": 2302, 
  "výzvy": 2303, 
  "nějakou": 2304, 
  "čním": 2305, 
  "tváří": 2306, 
  "péči": 2307, 
  "znamenat": 2308, 
  "áv@@": 2309, 
  "parlament": 2310, 
  "umožňuje": 2311, 
  "ter@@": 2312, 
  "selhání": 2313, 
  "veřejný": 2314, 
  "vybudovat": 2315, 
  "U@@": 2316, 
  "ec": 2317, 
  "nárůst": 2318, 
  "hodnotě": 2319, 
  "pa@@": 2320, 
  "ži@@": 2321, 
  "pí@@": 2322, 
  "ána": 2323, 
  "začalo": 2324, 
  "měnovou": 2325, 
  "icky": 2326, 
  "druhý": 2327, 
  "vzniku": 2328, 
  "vy": 2329, 
  "podaří": 2330, 
  "hod@@": 2331, 
  "funkce": 2332, 
  "kra@@": 2333, 
  "současného": 2334, 
  "jednotky": 2335, 
  "skutečnou": 2336, 
  "úspory": 2337, 
  "nerovnost": 2338, 
  "přesvědčeni": 2339, 
  "listopadu": 2340, 
  "eur": 2341, 
  "žit": 2342, 
  "nechat": 2343, 
  "druhá": 2344, 
  "konkurence": 2345, 
  "ád@@": 2346, 
  "tady": 2347, 
  "3@@": 2348, 
  "nimiž": 2349, 
  "vstup": 2350, 
  "věřit": 2351, 
  "volného": 2352, 
  "leč": 2353, 
  "představit": 2354, 
  "soukromých": 2355, 
  "debata": 2356, 
  "ře@@": 2357, 
  "dělá": 2358, 
  "investorů": 2359, 
  "strategické": 2360, 
  "jeme": 2361, 
  "ač": 2362, 
  "ničení": 2363, 
  "vedením": 2364, 
  "lidmi": 2365, 
  "programů": 2366, 
  "Spojenými": 2367, 
  "chy@@": 2368, 
  "jiným": 2369, 
  "zkušenosti": 2370, 
  "týden": 2371, 
  "vinu": 2372, 
  "tá@@": 2373, 
  "zaměstnání": 2374, 
  "soukromého": 2375, 
  "tá": 2376, 
  "déle": 2377, 
  "desetiletích": 2378, 
  "postavit": 2379, 
  "emi": 2380, 
  "jimiž": 2381, 
  "asijské": 2382, 
  "škrty": 2383, 
  "modelu": 2384, 
  "jícími": 2385, 
  "podniků": 2386, 
  "otevřené": 2387, 
  "týče": 2388, 
  "příjmu": 2389, 
  "neo@@": 2390, 
  "čínský": 2391, 
  "omezit": 2392, 
  "místech": 2393, 
  "pozornosti": 2394, 
  "zůstat": 2395, 
  "vzestupu": 2396, 
  "integraci": 2397, 
  "přesvědčit": 2398, 
  "pomalu": 2399, 
  "částečně": 2400, 
  "kým": 2401, 
  "poněkud": 2402, 
  "vědci": 2403, 
  "sankce": 2404, 
  "ště@@": 2405, 
  "principy": 2406, 
  "kapitalismus": 2407, 
  "deficity": 2408, 
  "us@@": 2409, 
  "val": 2410, 
  "čelit": 2411, 
  "ist@@": 2412, 
  "očekává": 2413, 
  "zjevně": 2414, 
  "Západě": 2415, 
  "řádu": 2416, 
  "ká@@": 2417, 
  "budoucnu": 2418, 
  "hry": 2419, 
  "HIV": 2420, 
  "papírů": 2421, 
  "70": 2422, 
  "čné": 2423, 
  "1991": 2424, 
  "cen@@": 2425, 
  "tické": 2426, 
  "obdobně": 2427, 
  "rezervní": 2428, 
  "nějaký": 2429, 
  "objem": 2430, 
  "ickému": 2431, 
  "Evropskou": 2432, 
  "úřad": 2433, 
  "mladých": 2434, 
  "založené": 2435, 
  "dotace": 2436, 
  "ány": 2437, 
  "nesmí": 2438, 
  "uni@@": 2439, 
  "nějšího": 2440, 
  "pě@@": 2441, 
  "ol@@": 2442, 
  "ruského": 2443, 
  "spotřeby": 2444, 
  "pat@@": 2445, 
  "to@@": 2446, 
  "vytvářet": 2447, 
  "nějaké": 2448, 
  "demokracií": 2449, 
  "řád": 2450, 
  "mocnosti": 2451, 
  "žila": 2452, 
  "poh@@": 2453, 
  "řešením": 2454, 
  "investovat": 2455, 
  "hned": 2456, 
  "činnost": 2457, 
  "ujícím": 2458, 
  "silnou": 2459, 
  "zace": 2460, 
  "využívání": 2461, 
  "prohlášení": 2462, 
  "školy": 2463, 
  "bubliny": 2464, 
  "myšlenky": 2465, 
  "současnou": 2466, 
  "očividně": 2467, 
  "kořeny": 2468, 
  "postup": 2469, 
  "vé": 2470, 
  "polovině": 2471, 
  "1998": 2472, 
  "pochopení": 2473, 
  "inflační": 2474, 
  "níci": 2475, 
  "par@@": 2476, 
  "tempem": 2477, 
  "pouhé": 2478, 
  "vidět": 2479, 
  "potenciální": 2480, 
  "stře@@": 2481, 
  "tiv@@": 2482, 
  "Ukrajina": 2483, 
  "ide@@": 2484, 
  "západních": 2485, 
  "nÃ": 2486, 
  "kolektivní": 2487, 
  "přední": 2488, 
  "ma": 2489, 
  "tvrdé": 2490, 
  "bojovat": 2491, 
  "Itálii": 2492, 
  "kových": 2493, 
  "chu": 2494, 
  "měnového": 2495, 
  "průmyslových": 2496, 
  "spo@@": 2497, 
  "pos@@": 2498, 
  "veřejně": 2499, 
  "liší": 2500, 
  "špatné": 2501, 
  "zachovat": 2502, 
  "druhým": 2503, 
  "argument": 2504, 
  "použití": 2505, 
  "lit": 2506, 
  "právem": 2507, 
  "nilo": 2508, 
  "zdálo": 2509, 
  "zvýšila": 2510, 
  "označ@@": 2511, 
  "výše": 2512, 
  "vědy": 2513, 
  "inu": 2514, 
  "domácnosti": 2515, 
  "státního": 2516, 
  "vize": 2517, 
  "klíčové": 2518, 
  "světem": 2519, 
  "hy": 2520, 
  "okamžiku": 2521, 
  "zdrojem": 2522, 
  "děje": 2523, 
  "nadcházejících": 2524, 
  "regulační": 2525, 
  "zují": 2526, 
  "Blair": 2527, 
  "ici": 2528, 
  "funguje": 2529, 
  "argumenty": 2530, 
  "ana": 2531, 
  "aného": 2532, 
  "projevu": 2533, 
  "spojenci": 2534, 
  "snižuje": 2535, 
  "předpokladu": 2536, 
  "nejde": 2537, 
  "mar@@": 2538, 
  "jednotlivé": 2539, 
  "ž": 2540, 
  "štěstí": 2541, 
  "S": 2542, 
  "zahrnuje": 2543, 
  "hranici": 2544, 
  "parlamentní": 2545, 
  "Polsko": 2546, 
  "využívat": 2547, 
  "zastánci": 2548, 
  "Sýrie": 2549, 
  "Fed": 2550, 
  "lení": 2551, 
  "obrovskou": 2552, 
  "brát": 2553, 
  "©": 2554, 
  "usilovat": 2555, 
  "zpomalení": 2556, 
  "lou": 2557, 
  "ováno": 2558, 
  "vrátit": 2559, 
  "hrozba": 2560, 
  "prezidentských": 2561, 
  "takovém": 2562, 
  "vsak": 2563, 
  "kapitalismu": 2564, 
  "ruský": 2565, 
  "dnešním": 2566, 
  "finance": 2567, 
  "místě": 2568, 
  "av@@": 2569, 
  "záležitostí": 2570, 
  "přežití": 2571, 
  "vyh@@": 2572, 
  "zhroucení": 2573, 
  "škody": 2574, 
  "Pákistán": 2575, 
  "krokem": 2576, 
  "oběti": 2577, 
  "trvá": 2578, 
  "historie": 2579, 
  "řila": 2580, 
  "příjem": 2581, 
  "kontextu": 2582, 
  "levice": 2583, 
  "pravděpodobnost": 2584, 
  "bu@@": 2585, 
  "nerovnosti": 2586, 
  "zásadě": 2587, 
  "vysokých": 2588, 
  "pozici": 2589, 
  "dobrý": 2590, 
  "rozdě@@": 2591, 
  "mil@@": 2592, 
  "kterým": 2593, 
  "domácích": 2594, 
  "Íránem": 2595, 
  "dohromady": 2596, 
  "společenské": 2597, 
  "říkají": 2598, 
  "půjček": 2599, 
  "významným": 2600, 
  "as@@": 2601, 
  "rou": 2602, 
  "Afriky": 2603, 
  "podporují": 2604, 
  "posti@@": 2605, 
  "polo@@": 2606, 
  "spravedlnost": 2607, 
  "dech": 2608, 
  "nejlepším": 2609, 
  "sv@@": 2610, 
  "chudým": 2611, 
  "vysvětlení": 2612, 
  "dosaženo": 2613, 
  "slovo": 2614, 
  "vyvolat": 2615, 
  "běžného": 2616, 
  "bezmála": 2617, 
  "praxi": 2618, 
  "říci": 2619, 
  "sto": 2620, 
  "růstem": 2621, 
  "návrhy": 2622, 
  "zí@@": 2623, 
  "šest": 2624, 
  "přev@@": 2625, 
  "přijde": 2626, 
  "hraje": 2627, 
  "účasti": 2628, 
  "dosahuje": 2629, 
  "oblast": 2630, 
  "přednost": 2631, 
  "přispět": 2632, 
  "zd@@": 2633, 
  "er": 2634, 
  "álními": 2635, 
  "úmrtí": 2636, 
  "komunistické": 2637, 
  "Španělsko": 2638, 
  "zuje": 2639, 
  "ministra": 2640, 
  "praxe": 2641, 
  "Gaze": 2642, 
  "vyžadují": 2643, 
  "zabezpečení": 2644, 
  "struktury": 2645, 
  "ími": 2646, 
  "malý": 2647, 
  "cítí": 2648, 
  "boom": 2649, 
  "šel": 2650, 
  "agentury": 2651, 
  "skem": 2652, 
  "1990": 2653, 
  "všemi": 2654, 
  "sto@@": 2655, 
  "hem": 2656, 
  "vypadá": 2657, 
  "pád": 2658, 
  "arabských": 2659, 
  "měsících": 2660, 
  "konkrétně": 2661, 
  "iniciativy": 2662, 
  "otevřeně": 2663, 
  "alizace": 2664, 
  "budoucna": 2665, 
  "jakožto": 2666, 
  "vůli": 2667, 
  "majetku": 2668, 
  "chudí": 2669, 
  "žili": 2670, 
  "vu": 2671, 
  "áním": 2672, 
  "činy": 2673, 
  "úvěry": 2674, 
  "enou": 2675, 
  "existenci": 2676, 
  "men@@": 2677, 
  "Putina": 2678, 
  "ících": 2679, 
  "Američany": 2680, 
  "představa": 2681, 
  "dobrou": 2682, 
  "klimatické": 2683, 
  "poměrně": 2684, 
  "poskytnout": 2685, 
  "systémů": 2686, 
  "naštěstí": 2687, 
  "vstupu": 2688, 
  "němu": 2689, 
  "žil": 2690, 
  "čené": 2691, 
  "získala": 2692, 
  "lil": 2693, 
  "mladí": 2694, 
  "sovětské": 2695, 
  "nim": 2696, 
  "leží": 2697, 
  "smlouva": 2698, 
  "tických": 2699, 
  "centrálních": 2700, 
  "hlasy": 2701, 
  "rad@@": 2702, 
  "úspěšně": 2703, 
  "vo@@": 2704, 
  "čem": 2705, 
  "bývá": 2706, 
  "vidí": 2707, 
  "udržení": 2708, 
  "WTO": 2709, 
  "stovky": 2710, 
  "9": 2711, 
  "významu": 2712, 
  "vlastním": 2713, 
  "musejí": 2714, 
  "da@@": 2715, 
  "kr@@": 2716, 
  "investory": 2717, 
  "legitimitu": 2718, 
  "vytvářejí": 2719, 
  "existovat": 2720, 
  "nov@@": 2721, 
  "nimž": 2722, 
  "&apos;": 2723, 
  "rada": 2724, 
  "docela": 2725, 
  "dalšího": 2726, 
  "...": 2727, 
  "zbytku": 2728, 
  "nili": 2729, 
  "vazby": 2730, 
  "nabídky": 2731, 
  "ven@@": 2732, 
  "životů": 2733, 
  "ab@@": 2734, 
  "jí@@": 2735, 
  "funkci": 2736, 
  "půdy": 2737, 
  "ri@@": 2738, 
  "správně": 2739, 
  "id@@": 2740, 
  "kamp": 2741, 
  "mechanismy": 2742, 
  "malou": 2743, 
  "hlavního": 2744, 
  "dáv@@": 2745, 
  "kdykoliv": 2746, 
  "form@@": 2747, 
  "otázek": 2748, 
  "ony": 2749, 
  "reagovat": 2750, 
  "nepro@@": 2751, 
  "krátkodobé": 2752, 
  "dnešních": 2753, 
  "slouží": 2754, 
  "korupci": 2755, 
  "Gruzie": 2756, 
  "zdroj": 2757, 
  "hodně": 2758, 
  "strachu": 2759, 
  "ory": 2760, 
  "Londýn": 2761, 
  "lila": 2762, 
  "zí": 2763, 
  "su": 2764, 
  "společnou": 2765, 
  "poskyt@@": 2766, 
  "dramaticky": 2767, 
  "motiv@@": 2768, 
  "čínského": 2769, 
  "neschopnosti": 2770, 
  "přede@@": 2771, 
  "postoje": 2772, 
  "rozsah": 2773, 
  "če@@": 2774, 
  "ruku": 2775, 
  "řídí": 2776, 
  "obyvatele": 2777, 
  "sy@@": 2778, 
  "dojem": 2779, 
  "princip": 2780, 
  "ko": 2781, 
  "inform@@": 2782, 
  "luje": 2783, 
  "Ukrajině": 2784, 
  "nějšími": 2785, 
  "objemu": 2786, 
  "likvidity": 2787, 
  "překonat": 2788, 
  "pár": 2789, 
  "britské": 2790, 
  "útoku": 2791, 
  "schodky": 2792, 
  "přístupy": 2793, 
  "účinek": 2794, 
  "lid": 2795, 
  "náv@@": 2796, 
  "současných": 2797, 
  "monetární": 2798, 
  "účelem": 2799, 
  "vání": 2800, 
  "financovat": 2801, 
  "obtížné": 2802, 
  "vyrovnat": 2803, 
  "nepravděpodobné": 2804, 
  "projekt": 2805, 
  "dojít": 2806, 
  "operace": 2807, 
  "sítě": 2808, 
  "rozhovory": 2809, 
  "Tchaj": 2810, 
  "rovnováhy": 2811, 
  "vzít": 2812, 
  "skrze": 2813, 
  "hrozby": 2814, 
  "30.": 2815, 
  "jedno@@": 2816, 
  "Egypt": 2817, 
  "konzervativní": 2818, 
  "naléhavě": 2819, 
  "jed@@": 2820, 
  "chránit": 2821, 
  "lidského": 2822, 
  "odhodlání": 2823, 
  "vládnutí": 2824, 
  "klimatických": 2825, 
  "demokratický": 2826, 
  "stanov@@": 2827, 
  "tlaku": 2828, 
  "chybí": 2829, 
  "hlas": 2830, 
  "výsledku": 2831, 
  "tická": 2832, 
  "něm": 2833, 
  "dohled": 2834, 
  "životě": 2835, 
  "oh@@": 2836, 
  "obvinění": 2837, 
  "Barack": 2838, 
  "ostatním": 2839, 
  "tům": 2840, 
  "plány": 2841, 
  "americkém": 2842, 
  "G8": 2843, 
  "největším": 2844, 
  "směřování": 2845, 
  "téma": 2846, 
  "nejdůležitější": 2847, 
  "hlubší": 2848, 
  "slabé": 2849, 
  "ha": 2850, 
  "summit": 2851, 
  "zvýšil": 2852, 
  "pozice": 2853, 
  "akce": 2854, 
  "stanou": 2855, 
  "dr@@": 2856, 
  "ber@@": 2857, 
  "liberalizace": 2858, 
  "šit": 2859, 
  "historické": 2860, 
  "měnu": 2861, 
  "děl@@": 2862, 
  "dobách": 2863, 
  "propast": 2864, 
  "islám": 2865, 
  "faktorem": 2866, 
  "výkon": 2867, 
  "dispozici": 2868, 
  "silná": 2869, 
  "rozšiřování": 2870, 
  "podnikání": 2871, 
  "pokračující": 2872, 
  "záleží": 2873, 
  "12": 2874, 
  "německý": 2875, 
  "kla@@": 2876, 
  "regulaci": 2877, 
  "hledat": 2878, 
  "W@@": 2879, 
  "režimy": 2880, 
  "ekonomie": 2881, 
  "ostí": 2882, 
  "jejímž": 2883, 
  "pravdy": 2884, 
  "hou": 2885, 
  "V": 2886, 
  "tají": 2887, 
  "městech": 2888, 
  "reformě": 2889, 
  "jemuž": 2890, 
  "žených": 2891, 
  "rozdělení": 2892, 
  "posun": 2893, 
  "anů": 2894, 
  "předáci": 2895, 
  "eurozóně": 2896, 
  "kam": 2897, 
  "čky": 2898, 
  "neod@@": 2899, 
  "Gruzii": 2900, 
  "zaměstnanci": 2901, 
  "hranic": 2902, 
  "vědět": 2903, 
  "ovací": 2904, 
  "přimět": 2905, 
  "vládnoucí": 2906, 
  "třech": 2907, 
  "vojenský": 2908, 
  "přesvědčen": 2909, 
  "válkou": 2910, 
  "deficitu": 2911, 
  "spotřebu": 2912, 
  "hovořit": 2913, 
  "há@@": 2914, 
  "důvodu": 2915, 
  "ity": 2916, 
  "klíčovým": 2917, 
  "pobídky": 2918, 
  "stí@@": 2919, 
  "daří": 2920, 
  "zájmům": 2921, 
  "přímé": 2922, 
  "tisíce": 2923, 
  "mechanismus": 2924, 
  "jižní": 2925, 
  "snažit": 2926, 
  "klíčovou": 2927, 
  "žily": 2928, 
  "prvního": 2929, 
  "Sarkozyho": 2930, 
  "ukončení": 2931, 
  "ší@@": 2932, 
  "spojenectví": 2933, 
  "považují": 2934, 
  "any": 2935, 
  "cemi": 2936, 
  "policie": 2937, 
  "považuje": 2938, 
  "prioritou": 2939, 
  "údaje": 2940, 
  "pochyb@@": 2941, 
  "zločiny": 2942, 
  "podstatně": 2943, 
  "vali": 2944, 
  "posledním": 2945, 
  "způsob@@": 2946, 
  "trend": 2947, 
  "přínos": 2948, 
  "dané": 2949, 
  "připomíná": 2950, 
  "hypoték": 2951, 
  "musel": 2952, 
  "úrovní": 2953, 
  "žádá": 2954, 
  "ry@@": 2955, 
  "konference": 2956, 
  "vše@@": 2957, 
  "začínají": 2958, 
  "Polsku": 2959, 
  "obnovit": 2960, 
  "výroby": 2961, 
  "široce": 2962, 
  "věnovat": 2963, 
  "síle": 2964, 
  "nostem": 2965, 
  "značnou": 2966, 
  "A": 2967, 
  "ovu": 2968, 
  "komodit": 2969, 
  "změnám": 2970, 
  "druhého": 2971, 
  "kají": 2972, 
  "vzájemné": 2973, 
  "Číňané": 2974, 
  "působení": 2975, 
  "přes@@": 2976, 
  "nemůžeme": 2977, 
  "modely": 2978, 
  "čil": 2979, 
  "vojenského": 2980, 
  "defin@@": 2981, 
  "závěru": 2982, 
  "álnímu": 2983, 
  "humanitární": 2984, 
  "reakcí": 2985, 
  "vůle": 2986, 
  "uvědomit": 2987, 
  "mužů": 2988, 
  "ši": 2989, 
  "ropu": 2990, 
  "št@@": 2991, 
  "tra@@": 2992, 
  "Velká": 2993, 
  "tradice": 2994, 
  "přírodní": 2995, 
  "závislosti": 2996, 
  "1@@": 2997, 
  "diplomacie": 2998, 
  "úspěchy": 2999, 
  "pohybu": 3000, 
  "hr@@": 3001, 
  "stávající": 3002, 
  "osud": 3003, 
  "poloviny": 3004, 
  "dělají": 3005, 
  "spá@@": 3006, 
  "jediná": 3007, 
  "neméně": 3008, 
  "úvahu": 3009, 
  "Argentina": 3010, 
  "společný": 3011, 
  "šanci": 3012, 
  "rozpočtové": 3013, 
  "pracující": 3014, 
  "takovým": 3015, 
  "nalézt": 3016, 
  "záležitosti": 3017, 
  "Ch@@": 3018, 
  "pu@@": 3019, 
  "Sovětského": 3020, 
  "krá@@": 3021, 
  "řady": 3022, 
  "celkem": 3023, 
  "republiky": 3024, 
  "pravice": 3025, 
  "em@@": 3026, 
  "dní": 3027, 
  "pracujících": 3028, 
  "dodnes": 3029, 
  "vý": 3030, 
  "produkci": 3031, 
  "bankám": 3032, 
  "umožní": 3033, 
  "tek": 3034, 
  "ud@@": 3035, 
  "potenciálně": 3036, 
  "povstání": 3037, 
  "bou": 3038, 
  "té@@": 3039, 
  "bu": 3040, 
  "dob": 3041, 
  "svoboda": 3042, 
  "vizi": 3043, 
  "rezerv": 3044, 
  "dům": 3045, 
  "dluhové": 3046, 
  "počátkem": 3047, 
  "dlouhodobý": 3048, 
  "hromadného": 3049, 
  "prosperity": 3050, 
  "prosinci": 3051, 
  "ropné": 3052, 
  "Palestinců": 3053, 
  "podobných": 3054, 
  "samotný": 3055, 
  "těmi": 3056, 
  "status": 3057, 
  "palestinského": 3058, 
  "rostou": 3059, 
  "Mexiko": 3060, 
  "stra@@": 3061, 
  "formy": 3062, 
  "významných": 3063, 
  "sílící": 3064, 
  "nedávných": 3065, 
  "oběma": 3066, 
  "inovace": 3067, 
  "útoků": 3068, 
  "níkům": 3069, 
  "aným": 3070, 
  "čeho": 3071, 
  "valy": 3072, 
  "blíží": 3073, 
  "dosa@@": 3074, 
  "spojené": 3075, 
  "John": 3076, 
  "ponech@@": 3077, 
  "dí@@": 3078, 
  "muslimové": 3079, 
  "nedostatku": 3080, 
  "ply@@": 3081, 
  "věda": 3082, 
  "speci@@": 3083, 
  "Unie": 3084, 
  "Washingtonu": 3085, 
  "ovlád@@": 3086, 
  "es@@": 3087, 
  "tický": 3088, 
  "pravomoci": 3089, 
  "onu": 3090, 
  "protesty": 3091, 
  "vezměme": 3092, 
  "přebytek": 3093, 
  "P": 3094, 
  "zákonů": 3095, 
  "deprese": 3096, 
  "propad": 3097, 
  "stažení": 3098, 
  "níkem": 3099, 
  "předchozí": 3100, 
  "klad@@": 3101, 
  "nebezpečné": 3102, 
  "správy": 3103, 
  "dosáhla": 3104, 
  "zv@@": 3105, 
  "bě@@": 3106, 
  "milionu": 3107, 
  "bývalého": 3108, 
  "rozhodl": 3109, 
  "ění": 3110, 
  "ent@@": 3111, 
  "bezpečnostních": 3112, 
  "soudní": 3113, 
  "uvažování": 3114, 
  "jaká": 3115, 
  "opakovaně": 3116, 
  "čila": 3117, 
  "vyžadovat": 3118, 
  "bych": 3119, 
  "ukázalo": 3120, 
  "návratu": 3121, 
  "istické": 3122, 
  "Kosovu": 3123, 
  "snížila": 3124, 
  "Ma@@": 3125, 
  "nejhorší": 3126, 
  "tickým": 3127, 
  "ba@@": 3128, 
  "vysvětlit": 3129, 
  "uz@@": 3130, 
  "něním": 3131, 
  "hov@@": 3132, 
  "přinese": 3133, 
  "žen@@": 3134, 
  "ner@@": 3135, 
  "koncem": 3136, 
  "kru@@": 3137, 
  "riziku": 3138, 
  "elity": 3139, 
  "určitou": 3140, 
  "političtí": 3141, 
  "obranu": 3142, 
  "snižovat": 3143, 
  "zdanění": 3144, 
  "říct": 3145, 
  "tým": 3146, 
  "odmítá": 3147, 
  "smrt": 3148, 
  "snahu": 3149, 
  "nabídnout": 3150, 
  "kupříkladu": 3151, 
  "proměnit": 3152, 
  "Izraelci": 3153, 
  "ekonomů": 3154, 
  "jednoty": 3155, 
  "stylu": 3156, 
  "odporu": 3157, 
  "ii": 3158, 
  "pokus": 3159, 
  "následovat": 3160, 
  "min@@": 3161, 
  "paměti": 3162, 
  "dlouhé": 3163, 
  "samp": 3164, 
  "dostal": 3165, 
  "zálivu": 3166, 
  "ála": 3167, 
  "bin": 3168, 
  "organizaci": 3169, 
  "obnov@@": 3170, 
  "potíží": 3171, 
  "spoj@@": 3172, 
  "výsledků": 3173, 
  "Komise": 3174, 
  "dokázala": 3175, 
  "měnových": 3176, 
  "livé": 3177, 
  "stejný": 3178, 
  "skutečná": 3179, 
  "důraz": 3180, 
  "obchodování": 3181, 
  "největších": 3182, 
  "šest@@": 3183, 
  "ospravedl@@": 3184, 
  "národy": 3185, 
  "bankovnictví": 3186, 
  "nevyhnutelně": 3187, 
  "ní@@": 3188, 
  "malých": 3189, 
  "ideologie": 3190, 
  "základ": 3191, 
  "mocností": 3192, 
  "ár@@": 3193, 
  "myšlenka": 3194, 
  "rovnováhu": 3195, 
  "kou@@": 3196, 
  "získání": 3197, 
  "is@@": 3198, 
  "pe@@": 3199, 
  "Radě": 3200, 
  "tní": 3201, 
  "schopen": 3202, 
  "of": 3203, 
  "přinést": 3204, 
  "ačkoli": 3205, 
  "zu": 3206, 
  "tí@@": 3207, 
  "utrpení": 3208, 
  "doufat": 3209, 
  "žilo": 3210, 
  "dlouhodobých": 3211, 
  "paliv": 3212, 
  "plat@@": 3213, 
  "uplynulých": 3214, 
  "pal@@": 3215, 
  "tvrdit": 3216, 
  "vězení": 3217, 
  "závislost": 3218, 
  "stejnou": 3219, 
  "šené": 3220, 
  "břehu": 3221, 
  "existence": 3222, 
  "druhů": 3223, 
  "linie": 3224, 
  "tat": 3225, 
  "základy": 3226, 
  "rá": 3227, 
  "chceme": 3228, 
  "spory": 3229, 
  "někdejší": 3230, 
  "nen@@": 3231, 
  "vlast@@": 3232, 
  "výzvou": 3233, 
  "divu": 3234, 
  "sotva": 3235, 
  "zaslouží": 3236, 
  "mého": 3237, 
  "60.": 3238, 
  "islámské": 3239, 
  "řily": 3240, 
  "ze@@": 3241, 
  "válek": 3242, 
  "průmysl": 3243, 
  "velikosti": 3244, 
  "90": 3245, 
  "dávno": 3246, 
  "dlouhou": 3247, 
  "jakým": 3248, 
  "přítomnost": 3249, 
  "demokratickou": 3250, 
  "svědky": 3251, 
  "krát": 3252, 
  "jichž": 3253, 
  "politickém": 3254, 
  "globalizaci": 3255, 
  "navzájem": 3256, 
  "zdánlivě": 3257, 
  "národním": 3258, 
  "tvůrci": 3259, 
  "Arábie": 3260, 
  "aktivní": 3261, 
  "činitelé": 3262, 
  "vychází": 3263, 
  "čínští": 3264, 
  "váž@@": 3265, 
  "politickými": 3266, 
  "poměr": 3267, 
  "historii": 3268, 
  "informační": 3269, 
  "vytváření": 3270, 
  "pramení": 3271, 
  "Hizballáh": 3272, 
  "místních": 3273, 
  "Světová": 3274, 
  "evropským": 3275, 
  "nedokážou": 3276, 
  "fungování": 3277, 
  "důsledků": 3278, 
  "média": 3279, 
  "teroristické": 3280, 
  "acích": 3281, 
  "vědomí": 3282, 
  "čist@@": 3283, 
  "měsíce": 3284, 
  "18@@": 3285, 
  "sliby": 3286, 
  "používají": 3287, 
  "konkurenci": 3288, 
  "společnostech": 3289, 
  "zení": 3290, 
  "teroristických": 3291, 
  "dvacátého": 3292, 
  "legitimní": 3293, 
  "áři": 3294, 
  "shromáždění": 3295, 
  "éře": 3296, 
  "vysoký": 3297, 
  "nemoci": 3298, 
  "čně": 3299, 
  "im@@": 3300, 
  "důležitá": 3301, 
  "přehnaně": 3302, 
  "výhradně": 3303, 
  "nezbytná": 3304, 
  "agendy": 3305, 
  "opozici": 3306, 
  "dokázal": 3307, 
  "pol@@": 3308, 
  "sa@@": 3309, 
  "aj@@": 3310, 
  "nést": 3311, 
  "nemožné": 3312, 
  "napsal": 3313, 
  "mé": 3314, 
  "ič@@": 3315, 
  "regionálních": 3316, 
  "přebytky": 3317, 
  "hrozbou": 3318, 
  "prostoru": 3319, 
  "pomáhá": 3320, 
  "chovat": 3321, 
  "kli@@": 3322, 
  "výročí": 3323, 
  "uhlí": 3324, 
  "tak@@": 3325, 
  "ev@@": 3326, 
  "cenou": 3327, 
  "měna": 3328, 
  "fondů": 3329, 
  "jinou": 3330, 
  "ňovaly": 3331, 
  "polovina": 3332, 
  "účinně": 3333, 
  "Ukrajiny": 3334, 
  "izraelsko": 3335, 
  "severní": 3336, 
  "C": 3337, 
  "telná": 3338, 
  "ministerstvo": 3339, 
  "civilní": 3340, 
  "ekonomicky": 3341, 
  "celo@@": 3342, 
  "Fedu": 3343, 
  "závazek": 3344, 
  "tickou": 3345, 
  "obnovení": 3346, 
  "podporou": 3347, 
  "klíčových": 3348, 
  "čily": 3349, 
  "využívají": 3350, 
  "dle": 3351, 
  "podnik@@": 3352, 
  "udržovat": 3353, 
  "losti": 3354, 
  "překážky": 3355, 
  "pevně": 3356, 
  "odmítnutí": 3357, 
  "plynů": 3358, 
  "klade": 3359, 
  "stavět": 3360, 
  "značný": 3361, 
  "zákonitě": 3362, 
  "rají": 3363, 
  "jdou": 3364, 
  "vznik": 3365, 
  "západním": 3366, 
  "jste": 3367, 
  "lev@@": 3368, 
  "nesou": 3369, 
  "rozšířit": 3370, 
  "kop@@": 3371, 
  "sjedno@@": 3372, 
  "ři@@": 3373, 
  "kol@@": 3374, 
  "zavádění": 3375, 
  "dosáhl": 3376, 
  "přírodních": 3377, 
  "též": 3378, 
  "Jistěže": 3379, 
  "stá@@": 3380, 
  "alternativní": 3381, 
  "Egyptě": 3382, 
  "Západem": 3383, 
  "němuž": 3384, 
  "hu@@": 3385, 
  "čením": 3386, 
  "ovaní": 3387, 
  "ir@@": 3388, 
  "muslimů": 3389, 
  "¾": 3390, 
  "úspěšné": 3391, 
  "rozporu": 3392, 
  "rovat": 3393, 
  "dohodě": 3394, 
  "zákon@@": 3395, 
  "up@@": 3396, 
  "zachránit": 3397, 
  "devadesátých": 3398, 
  "okamžik": 3399, 
  "straš@@": 3400, 
  "usmíření": 3401, 
  "dov@@": 3402, 
  "eme": 3403, 
  "nízkou": 3404, 
  "sil@@": 3405, 
  "tického": 3406, 
  "půdu": 3407, 
  "řekněme": 3408, 
  "významně": 3409, 
  "jmen@@": 3410, 
  "ovsem": 3411, 
  "lují": 3412, 
  "formě": 3413, 
  "prav@@": 3414, 
  "účinky": 3415, 
  "trvale": 3416, 
  "zkušenost": 3417, 
  "muž": 3418, 
  "zemědělské": 3419, 
  "telné": 3420, 
  "rezervy": 3421, 
  "sousedy": 3422, 
  "nestačí": 3423, 
  "eného": 3424, 
  "komunity": 3425, 
  "chvíle": 3426, 
  "Francouzi": 3427, 
  "znalostí": 3428, 
  "světle": 3429, 
  "eným": 3430, 
  "měkké": 3431, 
  "sledovat": 3432, 
  "Mezinárodního": 3433, 
  "typ": 3434, 
  "Rusové": 3435, 
  "zůstanou": 3436, 
  "zoufale": 3437, 
  "zbav@@": 3438, 
  "tří@@": 3439, 
  "dom@@": 3440, 
  "poselství": 3441, 
  "těž@@": 3442, 
  "stěžejní": 3443, 
  "fondy": 3444, 
  "konflikty": 3445, 
  "hnout": 3446, 
  "spotřebitelé": 3447, 
  "měn": 3448, 
  "neexistují": 3449, 
  "ag@@": 3450, 
  "palestinský": 3451, 
  "označil": 3452, 
  "rozhovorů": 3453, 
  "nejchudších": 3454, 
  "cené": 3455, 
  "ed@@": 3456, 
  "půl": 3457, 
  "trvalé": 3458, 
  "úvěrové": 3459, 
  "povinnost": 3460, 
  "vyřešení": 3461, 
  "transformace": 3462, 
  "ty@@": 3463, 
  "druhu": 3464, 
  "přichází": 3465, 
  "Koreje": 3466, 
  "stávají": 3467, 
  "vztazích": 3468, 
  "tlaky": 3469, 
  "léky": 3470, 
  "vyvolalo": 3471, 
  "cenné": 3472, 
  "všeobecné": 3473, 
  "proh@@": 3474, 
  "kry@@": 3475, 
  "vyvol@@": 3476, 
  "získali": 3477, 
  "způsobu": 3478, 
  "ústava": 3479, 
  "větším": 3480, 
  "pracují": 3481, 
  "dali": 3482, 
  "sit": 3483, 
  "schopností": 3484, 
  "skleníkových": 3485, 
  "bar@@": 3486, 
  "kovat": 3487, 
  "stabilita": 3488, 
  "německá": 3489, 
  "scénář": 3490, 
  "schopni": 3491, 
  "ost@@": 3492, 
  "dokládá": 3493, 
  "finančně": 3494, 
  "lídrů": 3495, 
  "normy": 3496, 
  "500": 3497, 
  "ohrožuje": 3498, 
  "řené": 3499, 
  "vytvořila": 3500, 
  "kup@@": 3501, 
  "škol@@": 3502, 
  "ok@@": 3503, 
  "dialog": 3504, 
  "zvyšovat": 3505, 
  "obyvatelstva": 3506, 
  "běžné": 3507, 
  "ávaly": 3508, 
  "Koreji": 3509, 
  "íránské": 3510, 
  "4@@": 3511, 
  "jakož": 3512, 
  "tilo": 3513, 
  "žením": 3514, 
  "dřívější": 3515, 
  "Střední": 3516, 
  "omezené": 3517, 
  "tlakem": 3518, 
  "jednom": 3519, 
  "palestinských": 3520, 
  "ukázala": 3521, 
  "ál": 3522, 
  "vala": 3523, 
  "zu@@": 3524, 
  "rod@@": 3525, 
  "chyby": 3526, 
  "minim@@": 3527, 
  "krach": 3528, 
  "částí": 3529, 
  "slabší": 3530, 
  "0,@@": 3531, 
  "áme": 3532, 
  "be@@": 3533, 
  "letošní": 3534, 
  "lého": 3535, 
  "ence": 3536, 
  "čer@@": 3537, 
  "akci": 3538, 
  "pokládá": 3539, 
  "zaměřit": 3540, 
  "lid@@": 3541, 
  "zi@@": 3542, 
  "určitá": 3543, 
  "dostane": 3544, 
  "zveřej@@": 3545, 
  "Obamova": 3546, 
  "klesá": 3547, 
  "kultura": 3548, 
  "Středního": 3549, 
  "inov@@": 3550, 
  "napad@@": 3551, 
  "ministerstva": 3552, 
  "projevy": 3553, 
  "častěji": 3554, 
  "problémům": 3555, 
  "nástroj": 3556, 
  "zvláště": 3557, 
  "osoby": 3558, 
  "faktorů": 3559, 
  "šesti": 3560, 
  "kar@@": 3561, 
  "řil": 3562, 
  "důkazů": 3563, 
  "výhodu": 3564, 
  "příčiny": 3565, 
  "11": 3566, 
  "Irsko": 3567, 
  "ekonom": 3568, 
  "energetických": 3569, 
  "USD": 3570, 
  "internet": 3571, 
  "či@@": 3572, 
  "katastrofy": 3573, 
  "sti": 3574, 
  "stali": 3575, 
  "jednot@@": 3576, 
  "byrokra@@": 3577, 
  "dají": 3578, 
  "án@@": 3579, 
  "neroz@@": 3580, 
  "tý@@": 3581, 
  "čeká": 3582, 
  "slav@@": 3583, 
  "projev": 3584, 
  "globálnímu": 3585, 
  "spolupracovat": 3586, 
  "prost@@": 3587, 
  "zachování": 3588, 
  "velkého": 3589, 
  "pokládají": 3590, 
  "mír@@": 3591, 
  "vra@@": 3592, 
  "nacionalismu": 3593, 
  "šením": 3594, 
  "posiluje": 3595, 
  "britská": 3596, 
  "ším": 3597, 
  "čnost": 3598, 
  "odmě@@": 3599, 
  "Wall": 3600, 
  "vhodné": 3601, 
  "kém": 3602, 
  "momentálně": 3603, 
  "myšlenku": 3604, 
  "nepodařilo": 3605, 
  "tovat": 3606, 
  "čených": 3607, 
  "mnohdy": 3608, 
  "samotná": 3609, 
  "Washington": 3610, 
  "návrhu": 3611, 
  "dokáží": 3612, 
  "spojení": 3613, 
  "číslo": 3614, 
  "ujícího": 3615, 
  "zak@@": 3616, 
  "ústavu": 3617, 
  "novými": 3618, 
  "zad@@": 3619, 
  "uvědomují": 3620, 
  "odbor@@": 3621, 
  "alizovat": 3622, 
  "využívá": 3623, 
  "18": 3624, 
  "kombinaci": 3625, 
  "livou": 3626, 
  "blo@@": 3627, 
  "provo@@": 3628, 
  "volný": 3629, 
  "ministři": 3630, 
  "nezávislé": 3631, 
  "generální": 3632, 
  "legitimity": 3633, 
  "nedávná": 3634, 
  "nostech": 3635, 
  "vývoji": 3636, 
  "inter@@": 3637, 
  "poskytování": 3638, 
  "společných": 3639, 
  "mučení": 3640, 
  "dohledu": 3641, 
  "něn": 3642, 
  "kul@@": 3643, 
  "tili": 3644, 
  "náboženských": 3645, 
  "enty": 3646, 
  "přinesla": 3647, 
  "každou": 3648, 
  "nemocí": 3649, 
  "př@@": 3650, 
  "účinné": 3651, 
  "přechod": 3652, 
  "každopádně": 3653, 
  "nabí@@": 3654, 
  "el": 3655, 
  "reformní": 3656, 
  "představitelů": 3657, 
  "skutečným": 3658, 
  "těžší": 3659, 
  "případy": 3660, 
  "Kongresu": 3661, 
  "rou@@": 3662, 
  "léčby": 3663, 
  "budoucích": 3664, 
  "tel@@": 3665, 
  "35": 3666, 
  "dlouhodobém": 3667, 
  "bankéři": 3668, 
  "znepokojení": 3669, 
  "měst": 3670, 
  "panuje": 3671, 
  "obyvatelé": 3672, 
  "ějším": 3673, 
  "exportu": 3674, 
  "konfliktů": 3675, 
  "firma": 3676, 
  "muže": 3677, 
  "fak@@": 3678, 
  "dávat": 3679, 
  "Turecku": 3680, 
  "relativní": 3681, 
  "fázi": 3682, 
  "národa": 3683, 
  "vodu": 3684, 
  "následky": 3685, 
  "uplat@@": 3686, 
  "odhaduje": 3687, 
  "sti@@": 3688, 
  "ště": 3689, 
  "cítit": 3690, 
  "zamp": 3691, 
  "alismus": 3692, 
  "vykon@@": 3693, 
  "300": 3694, 
  "un@@": 3695, 
  "Kim": 3696, 
  "tivně": 3697, 
  "dobrá": 3698, 
  "bezpečí": 3699, 
  "důvěra": 3700, 
  "Evropanů": 3701, 
  "vědeckých": 3702, 
  "čuje": 3703, 
  "minulý": 3704, 
  "stranách": 3705, 
  "podrob@@": 3706, 
  "zy": 3707, 
  "osm": 3708, 
  "vyvinout": 3709, 
  "musela": 3710, 
  "odzbrojení": 3711, 
  "trest@@": 3712, 
  "použít": 3713, 
  "obec@@": 3714, 
  "hled@@": 3715, 
  "krachu": 3716, 
  "konečném": 3717, 
  "hospodářským": 3718, 
  "š": 3719, 
  "Afrika": 3720, 
  "zav@@": 3721, 
  "zásoby": 3722, 
  "Sovětský": 3723, 
  "eno": 3724, 
  "původu": 3725, 
  "malárie": 3726, 
  "uhlíku": 3727, 
  "ovšemže": 3728, 
  "projekty": 3729, 
  "stran@@": 3730, 
  "svaz": 3731, 
  "pouhou": 3732, 
  "umění": 3733, 
  "vyz@@": 3734, 
  "kolo": 3735, 
  "tržních": 3736, 
  "šíří": 3737, 
  "splnit": 3738, 
  "klesající": 3739, 
  "katastrof@@": 3740, 
  "bilionů": 3741, 
  "svě@@": 3742, 
  "vůdců": 3743, 
  "Kon@@": 3744, 
  "svobodné": 3745, 
  "žený": 3746, 
  "předsedy": 3747, 
  "takzvané": 3748, 
  "léků": 3749, 
  "seriózní": 3750, 
  "hodin": 3751, 
  "spl@@": 3752, 
  "odmítají": 3753, 
  "ekonomikou": 3754, 
  "kor@@": 3755, 
  "úzce": 3756, 
  "Nobelovy": 3757, 
  "demokraté": 3758, 
  "odlišné": 3759, 
  "dvacet": 3760, 
  "dokázali": 3761, 
  "Kreml": 3762, 
  "dlouhodobého": 3763, 
  "w@@": 3764, 
  "ostatními": 3765, 
  "obrovská": 3766, 
  "rech": 3767, 
  "kontrolou": 3768, 
  "snah": 3769, 
  "ecké": 3770, 
  "Sýrii": 3771, 
  "kdykoli": 3772, 
  "rové": 3773, 
  "bě": 3774, 
  "složky": 3775, 
  "způsobuje": 3776, 
  "kola": 3777, 
  "ově@@": 3778, 
  "používání": 3779, 
  "cest@@": 3780, 
  "pr@@": 3781, 
  "vznikla": 3782, 
  "ústřední": 3783, 
  "stará": 3784, 
  "živ@@": 3785, 
  "prezident@@": 3786, 
  "tématem": 3787, 
  "soukromý": 3788, 
  "skupinu": 3789, 
  "museli": 3790, 
  "výzvu": 3791, 
  "kulturu": 3792, 
  "ženou": 3793, 
  "začátku": 3794, 
  "lost": 3795, 
  "malá": 3796, 
  "han@@": 3797, 
  "podstaty": 3798, 
  "prázd@@": 3799, 
  "ukázat": 3800, 
  "metody": 3801, 
  "jaderný": 3802, 
  "kurzů": 3803, 
  "narůstající": 3804, 
  "občanům": 3805, 
  "chudoba": 3806, 
  "dostalo": 3807, 
  "ochotu": 3808, 
  "osudu": 3809, 
  "spoleh@@": 3810, 
  "něných": 3811, 
  "zrušení": 3812, 
  "samo": 3813, 
  "nachází": 3814, 
  "agendu": 3815, 
  "banku": 3816, 
  "200": 3817, 
  "zkou@@": 3818, 
  "telně": 3819, 
  "sní@@": 3820, 
  "organiz@@": 3821, 
  "Němci": 3822, 
  "intelektuální": 3823, 
  "armádu": 3824, 
  "něna": 3825, 
  "plánování": 3826, 
  "stav@@": 3827, 
  "chtěli": 3828, 
  "příběh": 3829, 
  "ši@@": 3830, 
  "pracovníků": 3831, 
  "centra": 3832, 
  "výhledu": 3833, 
  "uskuteč@@": 3834, 
  "Afghánistán": 3835, 
  "quo": 3836, 
  "nat": 3837, 
  "zpočátku": 3838, 
  "ban@@": 3839, 
  "nech@@": 3840, 
  "potřebovat": 3841, 
  "stvím": 3842, 
  "procentní": 3843, 
  "proslu@@": 3844, 
  "předem": 3845, 
  "omezování": 3846, 
  "bur@@": 3847, 
  "odpovědí": 3848, 
  "třídy": 3849, 
  "odpovídající": 3850, 
  "liber@@": 3851, 
  "generaci": 3852, 
  "bankovních": 3853, 
  "zastavení": 3854, 
  "pracov@@": 3855, 
  "světový": 3856, 
  "vládám": 3857, 
  "spoléhat": 3858, 
  "výnosů": 3859, 
  "volba": 3860, 
  "hlavně": 3861, 
  "absenci": 3862, 
  "žet": 3863, 
  "úředníci": 3864, 
  "kontinentu": 3865, 
  "čními": 3866, 
  "čen@@": 3867, 
  "částech": 3868, 
  "nástrojů": 3869, 
  "nách": 3870, 
  "zaměstnance": 3871, 
  "oslab@@": 3872, 
  "směnný": 3873, 
  "lin@@": 3874, 
  "zvyšují": 3875, 
  "čných": 3876, 
  "vytvořil": 3877, 
  "částky": 3878, 
  "sekulární": 3879, 
  "era": 3880, 
  "strategií": 3881, 
  "nechce": 3882, 
  "reform@@": 3883, 
  "minimální": 3884, 
  "novém": 3885, 
  "postup@@": 3886, 
  "běžně": 3887, 
  "chaosu": 3888, 
  "vyspělé": 3889, 
  "akcie": 3890, 
  "šla": 3891, 
  "ic@@": 3892, 
  "est@@": 3893, 
  "Saddáma": 3894, 
  "hladiny": 3895, 
  "desítek": 3896, 
  "entů": 3897, 
  "tan@@": 3898, 
  "podporov@@": 3899, 
  "přijít": 3900, 
  "rů": 3901, 
  "zaznamen@@": 3902, 
  "uvol@@": 3903, 
  "jte": 3904, 
  "určitý": 3905, 
  "orient@@": 3906, 
  "příměří": 3907, 
  "isty": 3908, 
  "čtí": 3909, 
  "viny": 3910, 
  "zlepšit": 3911, 
  "dlouhodobou": 3912, 
  "jednak": 3913, 
  "spotřeba": 3914, 
  "britský": 3915, 
  "nabídku": 3916, 
  "změní": 3917, 
  "absence": 3918, 
  "prosadit": 3919, 
  "zni@@": 3920, 
  "dopad@@": 3921, 
  "ženo": 3922, 
  "snížily": 3923, 
  "uval@@": 3924, 
  "nadějí": 3925, 
  "zvýšily": 3926, 
  "značná": 3927, 
  "zaplatit": 3928, 
  "získá": 3929, 
  "přinášejí": 3930, 
  "hru": 3931, 
  "plnou": 3932, 
  "odol@@": 3933, 
  "chy": 3934, 
  "myslet": 3935, 
  "ť@@": 3936, 
  "výměnou": 3937, 
  "chybou": 3938, 
  "ková": 3939, 
  "ňující": 3940, 
  "květnu": 3941, 
  "diplomatické": 3942, 
  "rozvinuté": 3943, 
  "čekat": 3944, 
  "hlavy": 3945, 
  "významná": 3946, 
  "nabízejí": 3947, 
  "jazyk": 3948, 
  "lených": 3949, 
  "cosi": 3950, 
  "výrobě": 3951, 
  "všechna": 3952, 
  "nikterak": 3953, 
  "půjčovat": 3954, 
  "vrcholu": 3955, 
  "nické": 3956, 
  "vysokými": 3957, 
  "zaru@@": 3958, 
  "rozhodovat": 3959, 
  "poskytuje": 3960, 
  "obrovským": 3961, 
  "rozhodnout": 3962, 
  "cí@@": 3963, 
  "škol": 3964, 
  "zisků": 3965, 
  "nízká": 3966, 
  "poměry": 3967, 
  "souhlas": 3968, 
  "koordin@@": 3969, 
  "zaměřené": 3970, 
  "Kongres": 3971, 
  "přišel": 3972, 
  "regiony": 3973, 
  "Haiti": 3974, 
  "vyplývá": 3975, 
  "šen@@": 3976, 
  "pořádku": 3977, 
  "teroristé": 3978, 
  "veřejnou": 3979, 
  "chudobě": 3980, 
  "sílí": 3981, 
  "krajní": 3982, 
  "ával": 3983, 
  "celkový": 3984, 
  "přejí": 3985, 
  "týkající": 3986, 
  "list@@": 3987, 
  "kapit@@": 3988, 
  "moderních": 3989, 
  "obav": 3990, 
  "zi": 3991, 
  "slov@@": 3992, 
  "neme": 3993, 
  "1995": 3994, 
  "deflace": 3995, 
  "městě": 3996, 
  "raz@@": 3997, 
  "buňky": 3998, 
  "propadu": 3999, 
  "ovanými": 4000, 
  "dosti": 4001, 
  "aliz@@": 4002, 
  "fiskálních": 4003, 
  "Al@@": 4004, 
  "snížil": 4005, 
  "fosilních": 4006, 
  "moje": 4007, 
  "modernizace": 4008, 
  "vající": 4009, 
  "důchodu": 4010, 
  "šk@@": 4011, 
  "produkty": 4012, 
  "pokušení": 4013, 
  "tzv.": 4014, 
  "konsensus": 4015, 
  "donu@@": 4016, 
  "lém": 4017, 
  "pode@@": 4018, 
  "povol@@": 4019, 
  "považovat": 4020, 
  "ovliv@@": 4021, 
  "euro@@": 4022, 
  "ap@@": 4023, 
  "odpo@@": 4024, 
  "japonská": 4025, 
  "rozvojovém": 4026, 
  "každoročně": 4027, 
  "zvolení": 4028, 
  "kapacity": 4029, 
  "Saúdské": 4030, 
  "dokázaly": 4031, 
  "základním": 4032, 
  "příliv": 4033, 
  "nějak": 4034, 
  "át": 4035, 
  "uvědomuje": 4036, 
  "g": 4037, 
  "hrají": 4038, 
  "An@@": 4039, 
  "neob@@": 4040, 
  "jen@@": 4041, 
  "nepochybně": 4042, 
  "ační": 4043, 
  "stě@@": 4044, 
  "moře": 4045, 
  "experti": 4046, 
  "zprávou": 4047, 
  "odbory": 4048, 
  "okupace": 4049, 
  "ček": 4050, 
  "probíhá": 4051, 
  "papíry": 4052, 
  "demokratická": 4053, 
  "ali@@": 4054, 
  "můj": 4055, 
  "jadernou": 4056, 
  "podiv@@": 4057, 
  "post": 4058, 
  "procenta": 4059, 
  "livá": 4060, 
  "zem@@": 4061, 
  "Mar@@": 4062, 
  "půjč@@": 4063, 
  "solidarity": 4064, 
  "bud@@": 4065, 
  "vedené": 4066, 
  "jakýkoliv": 4067, 
  "multilaterální": 4068, 
  "oper@@": 4069, 
  "vyš@@": 4070, 
  "Yorku": 4071, 
  "představovat": 4072, 
  "rozpadu": 4073, 
  "usiluje": 4074, 
  "nákladné": 4075, 
  "výrobní": 4076, 
  "učinil": 4077, 
  "75": 4078, 
  "eni": 4079, 
  "firmám": 4080, 
  "zneužívání": 4081, 
  "hla@@": 4082, 
  "ekonomickým": 4083, 
  "hl": 4084, 
  "měkkou": 4085, 
  "schodek": 4086, 
  "rozpočtový": 4087, 
  "gener@@": 4088, 
  "Baracka": 4089, 
  "dvakrát": 4090, 
  "slib@@": 4091, 
  "há": 4092, 
  "zahájení": 4093, 
  "politickému": 4094, 
  "nepřátel@@": 4095, 
  "kan@@": 4096, 
  "podílu": 4097, 
  "orgán": 4098, 
  "dostala": 4099, 
  "hat": 4100, 
  "vysvětluje": 4101, 
  "propad@@": 4102, 
  "výkonnost": 4103, 
  "domnívají": 4104, 
  "postav@@": 4105, 
  "akceptovat": 4106, 
  "obsahuje": 4107, 
  "násled@@": 4108, 
  "dostupné": 4109, 
  "val@@": 4110, 
  "buněk": 4111, 
  "opak@@": 4112, 
  "zab@@": 4113, 
  "celek": 4114, 
  "áře": 4115, 
  "nejistoty": 4116, 
  "neplatí": 4117, 
  "urovnání": 4118, 
  "teorii": 4119, 
  "dosáhly": 4120, 
  "poměru": 4121, 
  "umožnila": 4122, 
  "průměrný": 4123, 
  "vysokým": 4124, 
  "formu": 4125, 
  "řad@@": 4126, 
  "ztrátu": 4127, 
  "arabském": 4128, 
  "2011": 4129, 
  "dvoj@@": 4130, 
  "ropných": 4131, 
  "sítí": 4132, 
  "občanská": 4133, 
  "prosperitu": 4134, 
  "pojist@@": 4135, 
  "tky": 4136, 
  "odchodu": 4137, 
  "zvířat": 4138, 
  "volebních": 4139, 
  "namí@@": 4140, 
  "stanovit": 4141, 
  "terorismem": 4142, 
  "stan@@": 4143, 
  "projektu": 4144, 
  "spor": 4145, 
  "neú@@": 4146, 
  "úkor": 4147, 
  "OECD": 4148, 
  "cíli": 4149, 
  "cel@@": 4150, 
  "priority": 4151, 
  "stránky": 4152, 
  "D": 4153, 
  "kovou": 4154, 
  "denně": 4155, 
  "itel@@": 4156, 
  "mr@@": 4157, 
  "směru": 4158, 
  "ing@@": 4159, 
  "tvrdil": 4160, 
  "ochotni": 4161, 
  "ang": 4162, 
  "objevily": 4163, 
  "nahradit": 4164, 
  "něná": 4165, 
  "výrobu": 4166, 
  "přirozeně": 4167, 
  "čase": 4168, 
  "sázce": 4169, 
  "jádro": 4170, 
  "planety": 4171, 
  "br@@": 4172, 
  "velikost": 4173, 
  "mise": 4174, 
  "rovná": 4175, 
  "dobrým": 4176, 
  "vývoz": 4177, 
  "faktu": 4178, 
  "zákaz": 4179, 
  "áni": 4180, 
  "ávali": 4181, 
  "vel@@": 4182, 
  "ekologické": 4183, 
  "posí@@": 4184, 
  "založený": 4185, 
  "zásadním": 4186, 
  "kdežto": 4187, 
  "rádi": 4188, 
  "peč@@": 4189, 
  "Obamy": 4190, 
  "isté": 4191, 
  "získaly": 4192, 
  "kmen@@": 4193, 
  "asijských": 4194, 
  "sen": 4195, 
  "bodů": 4196, 
  "stro@@": 4197, 
  "Evropského": 4198, 
  "druhy": 4199, 
  "san@@": 4200, 
  "rop@@": 4201, 
  "některá": 4202, 
  "pově@@": 4203, 
  "mám": 4204, 
  "éra": 4205, 
  "nechtějí": 4206, 
  "působit": 4207, 
  "mladé": 4208, 
  "tvo@@": 4209, 
  "jednotlivce": 4210, 
  "mem": 4211, 
  "drog": 4212, 
  "volbami": 4213, 
  "spojence": 4214, 
  "své@@": 4215, 
  "demokratického": 4216, 
  "souvislosti": 4217, 
  "zločinů": 4218, 
  "ruskou": 4219, 
  "produktů": 4220, 
  "skutečností": 4221, 
  "atel@@": 4222, 
  "obranné": 4223, 
  "vojáci": 4224, 
  "kaz@@": 4225, 
  "trendy": 4226, 
  "konsenzus": 4227, 
  "používat": 4228, 
  "spat@@": 4229, 
  "starých": 4230, 
  "vzniknout": 4231, 
  "ějších": 4232, 
  "vyžádá": 4233, 
  "záležitost": 4234, 
  "kový": 4235, 
  "euru": 4236, 
  "uvolňování": 4237, 
  "většího": 4238, 
  "muž@@": 4239, 
  "acemi": 4240, 
  "zapla@@": 4241, 
  "splnění": 4242, 
  "střetu": 4243, 
  "stoupenci": 4244, 
  "získají": 4245, 
  "požadavek": 4246, 
  "dvaceti": 4247, 
  "vyvíjet": 4248, 
  "samo@@": 4249, 
  "náhle": 4250, 
  "sankcí": 4251, 
  "očích": 4252, 
  "suverenity": 4253, 
  "vyk@@": 4254, 
  "ce@@": 4255, 
  "váhu": 4256, 
  "stačí": 4257, 
  "přineslo": 4258, 
  "ohledech": 4259, 
  "vší": 4260, 
  "účetní": 4261, 
  "ukázal": 4262, 
  "ů@@": 4263, 
  "výkonu": 4264, 
  "síť": 4265, 
  "hlas@@": 4266, 
  "iz@@": 4267, 
  "čují": 4268, 
  "jediného": 4269, 
  "ární": 4270, 
  "druhém": 4271, 
  "átu": 4272, 
  "zásob": 4273, 
  "vytvoří": 4274, 
  "dědictví": 4275, 
  "ží@@": 4276, 
  "Keynes": 4277, 
  "cunami": 4278, 
  "legitim@@": 4279, 
  "orgánů": 4280, 
  "národ": 4281, 
  "energetickou": 4282, 
  "životně": 4283, 
  "člen@@": 4284, 
  "sek@@": 4285, 
  "Srbsko": 4286, 
  "svobodě": 4287, 
  "scéně": 4288, 
  "indické": 4289, 
  "covat": 4290, 
  "činit": 4291, 
  "ji@@": 4292, 
  "diskusi": 4293, 
  "stručně": 4294, 
  "jení": 4295, 
  "zakáz@@": 4296, 
  "chtěl": 4297, 
  "úspěchem": 4298, 
  "1980": 4299, 
  "pracuje": 4300, 
  "odstran@@": 4301, 
  "firemní": 4302, 
  "odraz@@": 4303, 
  "zující": 4304, 
  "viděli": 4305, 
  "domu": 4306, 
  "vypořád@@": 4307, 
  "bezprostřední": 4308, 
  "lily": 4309, 
  "poukazují": 4310, 
  "acím": 4311, 
  "makroekonomické": 4312, 
  "náro@@": 4313, 
  "b": 4314, 
  "vyvolala": 4315, 
  "procesy": 4316, 
  "bývají": 4317, 
  "město": 4318, 
  "Londýně": 4319, 
  "konsensu": 4320, 
  "volání": 4321, 
  "slab@@": 4322, 
  "výstupu": 4323, 
  "dvou@@": 4324, 
  "soustava": 4325, 
  "nedokázala": 4326, 
  "lým": 4327, 
  "víru": 4328, 
  "onemocnění": 4329, 
  "špatná": 4330, 
  "dalšímu": 4331, 
  "koloni@@": 4332, 
  "trochu": 4333, 
  "financ@@": 4334, 
  "africké": 4335, 
  "doved@@": 4336, 
  "lídry": 4337, 
  "pohlaví": 4338, 
  "druh": 4339, 
  "ií": 4340, 
  "lili": 4341, 
  "ke@@": 4342, 
  "předejít": 4343, 
  "opak": 4344, 
  "dopl@@": 4345, 
  "francouzského": 4346, 
  "nějaká": 4347, 
  "spojen@@": 4348, 
  "poč@@": 4349, 
  "zvolen": 4350, 
  "zmír@@": 4351, 
  "ňovala": 4352, 
  "prostředek": 4353, 
  "vynu@@": 4354, 
  "usilují": 4355, 
  "bilionu": 4356, 
  "rychlé": 4357, 
  "rychlý": 4358, 
  "identity": 4359, 
  "předních": 4360, 
  "informačních": 4361, 
  "smlouvu": 4362, 
  "bývalé": 4363, 
  "námi": 4364, 
  "ávala": 4365, 
  "obyvatelstvo": 4366, 
  "celkového": 4367, 
  "sá@@": 4368, 
  "vrátí": 4369, 
  "ex@@": 4370, 
  "še": 4371, 
  "lednu": 4372, 
  "zhodnocování": 4373, 
  "alizaci": 4374, 
  "předmětem": 4375, 
  "nešíření": 4376, 
  "mandát": 4377, 
  "založení": 4378, 
  "nena@@": 4379, 
  "standardy": 4380, 
  "omezuje": 4381, 
  "vými": 4382, 
  "tisk": 4383, 
  "Kosovo": 4384, 
  "13": 4385, 
  "dominantní": 4386, 
  "pochybnosti": 4387, 
  "skončí": 4388, 
  "vývozu": 4389, 
  "zavr@@": 4390, 
  "pomůže": 4391, 
  "meze": 4392, 
  "odvětví": 4393, 
  "novin@@": 4394, 
  "uhlíkových": 4395, 
  "vyvolávají": 4396, 
  "pozadí": 4397, 
  "začátek": 4398, 
  "kdybychom": 4399, 
  "zajistila": 4400, 
  "invaze": 4401, 
  "počtem": 4402, 
  "zbraněmi": 4403, 
  "ochránit": 4404, 
  "něný": 4405, 
  "ton@@": 4406, 
  "umožňují": 4407, 
  "kraj@@": 4408, 
  "přijala": 4409, 
  "taj@@": 4410, 
  "tradičních": 4411, 
  "revoluční": 4412, 
  "normální": 4413, 
  "potenciálu": 4414, 
  "snazší": 4415, 
  "pravomocí": 4416, 
  "íránský": 4417, 
  "tisíciletí": 4418, 
  "vědců": 4419, 
  "1992": 4420, 
  "strategických": 4421, 
  "pacientů": 4422, 
  "rozhodující": 4423, 
  "obrázek": 4424, 
  "by@@": 4425, 
  "členem": 4426, 
  "kro@@": 4427, 
  "dialogu": 4428, 
  "ávající": 4429, 
  "ruští": 4430, 
  "právního": 4431, 
  "bezpečné": 4432, 
  "poskytují": 4433, 
  "liberalizaci": 4434, 
  "čtyř": 4435, 
  "žel": 4436, 
  "zaci": 4437, 
  "ovému": 4438, 
  "přechod@@": 4439, 
  "umožnit": 4440, 
  "opětovné": 4441, 
  "kl": 4442, 
  "opoziční": 4443, 
  "konferenci": 4444, 
  "nan@@": 4445, 
  "Kremlu": 4446, 
  "etnické": 4447, 
  "aní": 4448, 
  "Amerikou": 4449, 
  "cuje": 4450, 
  "široké": 4451, 
  "definovat": 4452, 
  "he@@": 4453, 
  "jem@@": 4454, 
  "uvažovat": 4455, 
  "dostanou": 4456, 
  "pad@@": 4457, 
  "žal@@": 4458, 
  "třemi": 4459, 
  "dostali": 4460, 
  "proudu": 4461, 
  "smr@@": 4462, 
  "doba": 4463, 
  "ml@@": 4464, 
  "zah@@": 4465, 
  "extrémní": 4466, 
  "pomohly": 4467, 
  "zprostředkov@@": 4468, 
  "zdravé": 4469, 
  "třetiny": 4470, 
  "těžit": 4471, 
  "rostla": 4472, 
  "Pro@@": 4473, 
  "věděli": 4474, 
  "trest": 4475, 
  "Street": 4476, 
  "odhodlan@@": 4477, 
  "kému": 4478, 
  "Národní": 4479, 
  "vládci": 4480, 
  "záruky": 4481, 
  "každém": 4482, 
  "efekt": 4483, 
  "vyšších": 4484, 
  "tka": 4485, 
  "eli@@": 4486, 
  "Brazílii": 4487, 
  "občanskou": 4488, 
  "principu": 4489, 
  "nástrojem": 4490, 
  "škod@@": 4491, 
  "át@@": 4492, 
  "nutím": 4493, 
  "určitě": 4494, 
  "pomáhají": 4495, 
  "vých": 4496, 
  "Kosova": 4497, 
  "opo@@": 4498, 
  "soustavu": 4499, 
  "bodu": 4500, 
  "ten@@": 4501, 
  "ukončit": 4502, 
  "muslimských": 4503, 
  "podobu": 4504, 
  "kombinace": 4505, 
  "as": 4506, 
  "zbavit": 4507, 
  "učiní": 4508, 
  "zátěž": 4509, 
  "sty": 4510, 
  "klást": 4511, 
  "ztráta": 4512, 
  "měně": 4513, 
  "dávky": 4514, 
  "jihovýchodní": 4515, 
  "nesporně": 4516, 
  "ář": 4517, 
  "minulost": 4518, 
  "atel": 4519, 
  "celkově": 4520, 
  "směnných": 4521, 
  "16": 4522, 
  "lené": 4523, 
  "rizikem": 4524, 
  "vstoupit": 4525, 
  "zdravot@@": 4526, 
  "devalvace": 4527, 
  "pomohla": 4528, 
  "charakter": 4529, 
  "export": 4530, 
  "poli": 4531, 
  "kontrole": 4532, 
  "anými": 4533, 
  "kolapsu": 4534, 
  "žíme": 4535, 
  "měnit": 4536, 
  "osob@@": 4537, 
  "penězi": 4538, 
  "zničit": 4539, 
  "směr": 4540, 
  "dop@@": 4541, 
  "ině": 4542, 
  "fáze": 4543, 
  "vypu@@": 4544, 
  "chá": 4545, 
  "sedm": 4546, 
  "pravidelně": 4547, 
  "omezovat": 4548, 
  "státním": 4549, 
  "přežít": 4550, 
  "cování": 4551, 
  "stoup@@": 4552, 
  "us": 4553, 
  "kompromis": 4554, 
  "ztratí": 4555, 
  "debatu": 4556, 
  "mysli": 4557, 
  "nacionalismus": 4558, 
  "urych@@": 4559, 
  "žená": 4560, 
  "1994": 4561, 
  "ochraně": 4562, 
  "tisk@@": 4563, 
  "tich@@": 4564, 
  "stimul": 4565, 
  "přispívají": 4566, 
  "komplex@@": 4567, 
  "lů": 4568, 
  "znalosti": 4569, 
  "½": 4570, 
  "nice": 4571, 
  "rakoviny": 4572, 
  "privatizace": 4573, 
  "vyšším": 4574, 
  "dohod": 4575, 
  "přeje": 4576, 
  "přesahuje": 4577, 
  "zpochyb@@": 4578, 
  "skončila": 4579, 
  "přání": 4580, 
  "tri@@": 4581, 
  "plynoucí": 4582, 
  "finančnictví": 4583, 
  "časem": 4584, 
  "stup@@": 4585, 
  "kterých": 4586, 
  "nutnost": 4587, 
  "těla": 4588, 
  "musely": 4589, 
  "ochrana": 4590, 
  "funkčního": 4591, 
  "jednotek": 4592, 
  "plnit": 4593, 
  "O": 4594, 
  "dobrého": 4595, 
  "ňoval": 4596, 
  "záchranu": 4597, 
  "nedávný": 4598, 
  "izraelská": 4599, 
  "formou": 4600, 
  "čtější": 4601, 
  "zvenčí": 4602, 
  "zaměřuje": 4603, 
  "francouzská": 4604, 
  "vlád@@": 4605, 
  "voliče": 4606, 
  "řuje": 4607, 
  "novému": 4608, 
  "snižují": 4609, 
  "sloužit": 4610, 
  "vytvořily": 4611, 
  "so@@": 4612, 
  "vymez@@": 4613, 
  "přistěhovalectví": 4614, 
  "zjištění": 4615, 
  "vzniká": 4616, 
  "podobná": 4617, 
  "procento": 4618, 
  "vzdát": 4619, 
  "propag@@": 4620, 
  "pomohlo": 4621, 
  "toky": 4622, 
  "gen@@": 4623, 
  "jších": 4624, 
  "poskytovat": 4625, 
  "uznáv@@": 4626, 
  "obzoru": 4627, 
  "pokusy": 4628, 
  "zastoupení": 4629, 
  "álů": 4630, 
  "sestav@@": 4631, 
  "dlouhá": 4632, 
  "takovému": 4633, 
  "uzavření": 4634, 
  "podstatné": 4635, 
  "objeví": 4636, 
  "televizní": 4637, 
  "mat@@": 4638, 
  "přínosů": 4639, 
  "vyvolá": 4640, 
  "aném": 4641, 
  "odpovědi": 4642, 
  "ničím": 4643, 
  "plod@@": 4644, 
  "výhod@@": 4645, 
  "násil@@": 4646, 
  "porovnání": 4647, 
  "Husajna": 4648, 
  "vzd@@": 4649, 
  "put@@": 4650, 
  "pouhým": 4651, 
  "zmi@@": 4652, 
  "účinnost": 4653, 
  "přispěla": 4654, 
  "americkému": 4655, 
  "men": 4656, 
  "vždycky": 4657, 
  "důležitý": 4658, 
  "červnu": 4659, 
  "obrovských": 4660, 
  "pok@@": 4661, 
  "témata": 4662, 
  "povin@@": 4663, 
  "výboru": 4664, 
  "správ@@": 4665, 
  "bance": 4666, 
  "rámce": 4667, 
  "migrace": 4668, 
  "uskutečnit": 4669, 
  "terčem": 4670, 
  "odstranění": 4671, 
  "aktivně": 4672, 
  "ukáže": 4673, 
  "vyjádřil": 4674, 
  "činil": 4675, 
  "podobný": 4676, 
  "různými": 4677, 
  "přišla": 4678, 
  "hypotéky": 4679, 
  "známé": 4680, 
  "soud@@": 4681, 
  "penzijní": 4682, 
  "zdi": 4683, 
  "roze@@": 4684, 
  "shod@@": 4685, 
  "dra@@": 4686, 
  "realitu": 4687, 
  "očekáv@@": 4688, 
  "stabilitě": 4689, 
  "vyvolal": 4690, 
  "touží": 4691, 
  "afrických": 4692, 
  "celku": 4693, 
  "dosáhne": 4694, 
  "hne": 4695, 
  ".@@": 4696, 
  "zační": 4697, 
  "angažmá": 4698, 
  "tehdejší": 4699, 
  "sko@@": 4700, 
  "jev": 4701, 
  "sdí@@": 4702, 
  "rozumné": 4703, 
  "star@@": 4704, 
  "tradičně": 4705, 
  "krátkodobě": 4706, 
  "způsobů": 4707, 
  "vlivem": 4708, 
  "hla": 4709, 
  "destabili@@": 4710, 
  "předsednictví": 4711, 
  "výhod": 4712, 
  "14": 4713, 
  "veřejném": 4714, 
  "5@@": 4715, 
  "lic@@": 4716, 
  "tendenci": 4717, 
  "třetím": 4718, 
  "posílí": 4719, 
  "nastal": 4720, 
  "or": 4721, 
  "postupy": 4722, 
  "oce@@": 4723, 
  "bal@@": 4724, 
  "americkými": 4725, 
  "iniciativa": 4726, 
  "ambice": 4727, 
  "chod@@": 4728, 
  "dynamiku": 4729, 
  "státě": 4730, 
  "data": 4731, 
  "zlom@@": 4732, 
  "zma@@": 4733, 
  "příklady": 4734, 
  "Hizballáhu": 4735, 
  "podstatu": 4736, 
  "přítomnosti": 4737, 
  "Vietnamu": 4738, 
  "používá": 4739, 
  "soci@@": 4740, 
  "článek": 4741, 
  "lech": 4742, 
  "onen": 4743, 
  "předlo@@": 4744, 
  "leh@@": 4745, 
  "1996": 4746, 
  "zen@@": 4747, 
  "obchodního": 4748, 
  "nostmi": 4749, 
  "Spojeným": 4750, 
  "au@@": 4751, 
  "pohá@@": 4752, 
  "řují": 4753, 
  "Rada": 4754, 
  "záležitostech": 4755, 
  "běžných": 4756, 
  "umírně@@": 4757, 
  "domně@@": 4758, 
  "plný": 4759, 
  "vlna": 4760, 
  "žijeme": 4761, 
  "obsa@@": 4762, 
  "výlučně": 4763, 
  "ek@@": 4764, 
  "navr@@": 4765, 
  "historicky": 4766, 
  "pozorovatelé": 4767, 
  "ářů": 4768, 
  "zahrnovat": 4769, 
  "čnosti": 4770, 
  "nená@@": 4771, 
  "vlny": 4772, 
  "trvalo": 4773, 
  "nějsí": 4774, 
  "zásad@@": 4775, 
  "150": 4776, 
  "můžete": 4777, 
  "dostává": 4778, 
  "teroru": 4779, 
  "chaos": 4780, 
  "rozhodne": 4781, 
  "kat": 4782, 
  "bí": 4783, 
  "učinila": 4784, 
  "stál": 4785, 
  "čisté": 4786, 
  "starý": 4787, 
  "livý": 4788, 
  "skončení": 4789, 
  "faktem": 4790, 
  "nejchudší": 4791, 
  "příčin": 4792, 
  "vrátil": 4793, 
  "nedostatky": 4794, 
  "očí": 4795, 
  "vyvolaly": 4796, 
  "cokoliv": 4797, 
  "předvolební": 4798, 
  "kmenových": 4799, 
  "léčbu": 4800, 
  "šímu": 4801, 
  "den@@": 4802, 
  "1945": 4803, 
  "neboli": 4804, 
  "zmírnit": 4805, 
  "porušování": 4806, 
  "Merkelová": 4807, 
  "šího": 4808, 
  "přispívá": 4809, 
  "Káidy": 4810, 
  "něny": 4811, 
  "partnery": 4812, 
  "Španělsku": 4813, 
  "sdílení": 4814, 
  "2015": 4815, 
  "bá@@": 4816, 
  "lobb@@": 4817, 
  "Re@@": 4818, 
  "omez@@": 4819, 
  "oví": 4820, 
  "preventivní": 4821, 
  "šť": 4822, 
  "upev@@": 4823, 
  "agregátní": 4824, 
  "odrážejí": 4825, 
  "jším": 4826, 
  "čela": 4827, 
  "účet": 4828, 
  "řád@@": 4829, 
  "Pekingu": 4830, 
  "Abbás": 4831, 
  "toků": 4832, 
  "názvem": 4833, 
  "osobně": 4834, 
  "chápe": 4835, 
  "chtít": 4836, 
  "potraviny": 4837, 
  "zkušeností": 4838, 
  "těší": 4839, 
  "svět@@": 4840, 
  "produktivitu": 4841, 
  "varování": 4842, 
  "revolucí": 4843, 
  "kla": 4844, 
  "E": 4845, 
  "invazi": 4846, 
  "finančními": 4847, 
  "pov@@": 4848, 
  "uji": 4849, 
  "náklad@@": 4850, 
  "touha": 4851, 
  "nemoc@@": 4852, 
  "kal@@": 4853, 
  "vůdčí": 4854, 
  "přechodu": 4855, 
  "hromad@@": 4856, 
  "fungují": 4857, 
  "regul@@": 4858, 
  "realiz@@": 4859, 
  "nejvíc": 4860, 
  "zástupci": 4861, 
  "eurozóna": 4862, 
  "realitou": 4863, 
  "volně": 4864, 
  "kapacit": 4865, 
  "obrátit": 4866, 
  "světoví": 4867, 
  "přinesl": 4868, 
  "nikoho": 4869, 
  "dit": 4870, 
  "odmítl": 4871, 
  "nů": 4872, 
  "izraelského": 4873, 
  "is": 4874, 
  "ez@@": 4875, 
  "oživit": 4876, 
  "fakta": 4877, 
  "knihy": 4878, 
  "spojitost": 4879, 
  "celosvětově": 4880, 
  "populární": 4881, 
  "záviset": 4882, 
  "konat": 4883, 
  "zajišťuje": 4884, 
  "cenové": 4885, 
  "pohyb": 4886, 
  "cho@@": 4887, 
  "trhům": 4888, 
  "ujícími": 4889, 
  "abych": 4890, 
  "alizované": 4891, 
  "splácet": 4892, 
  "rozlo@@": 4893, 
  "břemeno": 4894, 
  "transformaci": 4895, 
  "právních": 4896, 
  "ženého": 4897, 
  "delší": 4898, 
  "podleh@@": 4899, 
  "nestability": 4900, 
  "dobou": 4901, 
  "chud@@": 4902, 
  "ateli": 4903, 
  "knize": 4904, 
  "váz@@": 4905, 
  "zasa@@": 4906, 
  "trestu": 4907, 
  "průzkum": 4908, 
  "změnila": 4909, 
  "podmínkách": 4910, 
  "rozhodla": 4911, 
  "jménu": 4912, 
  "zjistili": 4913, 
  "vl@@": 4914, 
  "restrukturalizace": 4915, 
  "inou": 4916, 
  "Ukrajinu": 4917, 
  "představitele": 4918, 
  "komunismus": 4919, 
  "omezen@@": 4920, 
  "prováz@@": 4921, 
  "vyčerp@@": 4922, 
  "ministrů": 4923, 
  "jistá": 4924, 
  "usnad@@": 4925, 
  "dá@@": 4926, 
  "čtvrtletí": 4927, 
  "Indií": 4928, 
  "bere": 4929, 
  "pokračování": 4930, 
  "investičních": 4931, 
  "přijdou": 4932, 
  "válečné": 4933, 
  "paradoxně": 4934, 
  "utí": 4935, 
  "Nej@@": 4936, 
  "pocitu": 4937, 
  "naučit": 4938, 
  "kvality": 4939, 
  "lek": 4940, 
  "ztrát": 4941, 
  "inovací": 4942, 
  "dotací": 4943, 
  "sled@@": 4944, 
  "len@@": 4945, 
  "vzato": 4946, 
  "následující": 4947, 
  "šéf": 4948, 
  "Paříž": 4949, 
  "společná": 4950, 
  "možných": 4951, 
  "reálných": 4952, 
  "zisk": 4953, 
  "přímých": 4954, 
  "stimulační": 4955, 
  "arabského": 4956, 
  "odchod": 4957, 
  "odpůrci": 4958, 
  "tel": 4959, 
  "následujících": 4960, 
  "trvalý": 4961, 
  "DNA": 4962, 
  "Berlusconiho": 4963, 
  "sy": 4964, 
  "peněžní": 4965, 
  "reálnou": 4966, 
  "postupu": 4967, 
  "jme": 4968, 
  "nedokáží": 4969, 
  "konkurenceschopnosti": 4970, 
  "čísla": 4971, 
  "ř": 4972, 
  "zajišťování": 4973, 
  "trh@@": 4974, 
  "sl@@": 4975, 
  "nejvýznamnější": 4976, 
  "bublina": 4977, 
  "dítě": 4978, 
  "jakkoliv": 4979, 
  "masové": 4980, 
  "Portugalsko": 4981, 
  "protekcionismu": 4982, 
  "mezi@@": 4983, 
  "týdny": 4984, 
  "Dauhá": 4985, 
  "důvěryhodnost": 4986, 
  "nutnosti": 4987, 
  "prostřed@@": 4988, 
  "mravní": 4989, 
  "kandidáti": 4990, 
  "alternativou": 4991, 
  "politikům": 4992, 
  "leg@@": 4993, 
  "setkání": 4994, 
  "napl@@": 4995, 
  "odhad@@": 4996, 
  "sprav@@": 4997, 
  "chudobu": 4998, 
  "vypadat": 4999, 
  "nula": 5000, 
  "Indonésie": 5001, 
  "realizovat": 5002, 
  "nut@@": 5003, 
  "škr@@": 5004, 
  "přístupem": 5005, 
  "kurzy": 5006, 
  "celosvětový": 5007, 
  "izraelský": 5008, 
  "rodiče": 5009, 
  "klesat": 5010, 
  "letošního": 5011, 
  "řad": 5012, 
  "Clinton": 5013, 
  "přís@@": 5014, 
  "íránského": 5015, 
  "zahraničním": 5016, 
  "trpě@@": 5017, 
  "zásob@@": 5018, 
  "jestě": 5019, 
  "24": 5020, 
  "prosazuje": 5021, 
  "jaderná": 5022, 
  "překvapením": 5023, 
  "uprchlíků": 5024, 
  "jasná": 5025, 
  "zpomal@@": 5026, 
  "2012": 5027, 
  "nímž": 5028, 
  "lékař@@": 5029, 
  "rozšířené": 5030, 
  "května": 5031, 
  "dodávky": 5032, 
  "proná@@": 5033, 
  "veřejná": 5034, 
  "osvobození": 5035, 
  "chrá@@": 5036, 
  "záměrem": 5037, 
  "okol@@": 5038, 
  "lékaři": 5039, 
  "chápou": 5040, 
  "dostaly": 5041, 
  "bohatí": 5042, 
  "gra@@": 5043, 
  "forma": 5044, 
  "republice": 5045, 
  "slyšet": 5046, 
  "obnovu": 5047, 
  "rezervního": 5048, 
  "vybudování": 5049, 
  "červenci": 5050, 
  "pokro@@": 5051, 
  "poško@@": 5052, 
  "vládami": 5053, 
  "představ@@": 5054, 
  "hol@@": 5055, 
  "kandidátů": 5056, 
  "fil@@": 5057, 
  "mor@@": 5058, 
  "reálný": 5059, 
  "nepře@@": 5060, 
  "spravedlivé": 5061, 
  "převlád@@": 5062, 
  "závažné": 5063, 
  "slu@@": 5064, 
  "šance": 5065, 
  "brá@@": 5066, 
  "sledování": 5067, 
  "ži": 5068, 
  "iráckých": 5069, 
  "pobí@@": 5070, 
  "izol@@": 5071, 
  "kritiky": 5072, 
  "publi@@": 5073, 
  "podob@@": 5074, 
  "naznač@@": 5075, 
  "ec@@": 5076, 
  "urč@@": 5077, 
  "turecké": 5078, 
  "technické": 5079, 
  "veli@@": 5080, 
  "nástupce": 5081, 
  "čná": 5082, 
  "atelů": 5083, 
  "lejší": 5084, 
  "Mexiku": 5085, 
  "sjednocení": 5086, 
  "důkaz": 5087, 
  "zemětřesení": 5088, 
  "sunnit@@": 5089, 
  "vylou@@": 5090, 
  "zra@@": 5091, 
  "hyb@@": 5092, 
  "alita": 5093, 
  "přicházejí": 5094, 
  "skrývá": 5095, 
  "ího": 5096, 
  "studentů": 5097, 
  "předpokládat": 5098, 
  "tisku": 5099, 
  "chází": 5100, 
  "přehlí@@": 5101, 
  "názorů": 5102, 
  "Evropany": 5103, 
  "hnou": 5104, 
  "boj@@": 5105, 
  "důsledek": 5106, 
  "doz@@": 5107, 
  "mů": 5108, 
  "invest@@": 5109, 
  "prudký": 5110, 
  "létě": 5111, 
  "nominální": 5112, 
  "geny": 5113, 
  "nemluvě": 5114, 
  "těží": 5115, 
  "diplomacii": 5116, 
  "dokládají": 5117, 
  "ající": 5118, 
  "tem@@": 5119, 
  "záv@@": 5120, 
  "mou": 5121, 
  "19.": 5122, 
  "vliv@@": 5123, 
  "alternativy": 5124, 
  "význam@@": 5125, 
  "buďto": 5126, 
  "upřednost@@": 5127, 
  "rozvojovým": 5128, 
  "zastav@@": 5129, 
  "staletí": 5130, 
  "berou": 5131, 
  "jakékoli": 5132, 
  "udržitelné": 5133, 
  "rozhodnou": 5134, 
  "původně": 5135, 
  "jské": 5136, 
  "icí": 5137, 
  "plánov@@": 5138, 
  "vládne": 5139, 
  "tj.": 5140, 
  "schopna": 5141, 
  "nemohl": 5142, 
  "úbytek": 5143, 
  "zahr@@": 5144, 
  "kými": 5145, 
  "povat": 5146, 
  "soupeření": 5147, 
  "Saúdská": 5148, 
  "obchod@@": 5149, 
  "ukázaly": 5150, 
  "expanze": 5151, 
  "volném": 5152, 
  "mon@@": 5153, 
  "struktur": 5154, 
  "výzkum@@": 5155, 
  "čemu": 5156, 
  "myšlenek": 5157, 
  "itní": 5158, 
  "ponechat": 5159, 
  "prodávat": 5160, 
  "nebyli": 5161, 
  "použí@@": 5162, 
  "obohacování": 5163, 
  "nak@@": 5164, 
  "kolaps": 5165, 
  "jádrem": 5166, 
  "anem": 5167, 
  "tání": 5168, 
  "prvky": 5169, 
  "Federálního": 5170, 
  "stáv@@": 5171, 
  "zbrojení": 5172, 
  "3,@@": 5173, 
  "projektů": 5174, 
  "strategickou": 5175, 
  "režimů": 5176, 
  "manžel@@": 5177, 
  "knout": 5178, 
  "původní": 5179, 
  "přetrvávající": 5180, 
  "možný": 5181, 
  "nahoru": 5182, 
  "cha": 5183, 
  "teore@@": 5184, 
  "dodávek": 5185, 
  "Bank": 5186, 
  "riskantní": 5187, 
  "střet": 5188, 
  "získ@@": 5189, 
  "lidstva": 5190, 
  "doprováz@@": 5191, 
  "jméno": 5192, 
  "nedojde": 5193, 
  "muslimy": 5194, 
  "fiskálního": 5195, 
  "připrav@@": 5196, 
  "výbor": 5197, 
  "založena": 5198, 
  "ochran@@": 5199, 
  "přestat": 5200, 
  "umožnilo": 5201, 
  "mysleli": 5202, 
  "tivním": 5203, 
  "správu": 5204, 
  "výzev": 5205, 
  "norem": 5206, 
  "mocí": 5207, 
  "ředitel": 5208, 
  "inflací": 5209, 
  "nedokázal": 5210, 
  "hra@@": 5211, 
  "velkými": 5212, 
  "Vy@@": 5213, 
  "francouzských": 5214, 
  "entem": 5215, 
  "izolace": 5216, 
  "zahájit": 5217, 
  "březnu": 5218, 
  "napravit": 5219, 
  "silami": 5220, 
  "17": 5221, 
  "KGB": 5222, 
  "obchodním": 5223, 
  "pora@@": 5224, 
  "koli": 5225, 
  "ryze": 5226, 
  "ignorovat": 5227, 
  "hají": 5228, 
  "pohlížet": 5229, 
  "koliv": 5230, 
  "kompromisu": 5231, 
  "Libyi": 5232, 
  "překážkou": 5233, 
  "lidskou": 5234, 
  "otevřen@@": 5235, 
  "slou@@": 5236, 
  "čka": 5237, 
  "ď@@": 5238, 
  "boomu": 5239, 
  "uznat": 5240, 
  "podmínkou": 5241, 
  "mas@@": 5242, 
  "systémem": 5243, 
  "ps@@": 5244, 
  "konzervativci": 5245, 
  "pozdě": 5246, 
  "sluš@@": 5247, 
  "posilování": 5248, 
  "stabili@@": 5249, 
  "jím": 5250, 
  "jedince": 5251, 
  "technokra@@": 5252, 
  "neúspěch": 5253, 
  "označuje": 5254, 
  "ang@@": 5255, 
  "schvál@@": 5256, 
  "motivaci": 5257, 
  "násilné": 5258, 
  "dlouhodobě": 5259, 
  "my@@": 5260, 
  "dou": 5261, 
  "směř@@": 5262, 
  "čas@@": 5263, 
  "hují": 5264, 
  "profes@@": 5265, 
  "nictví": 5266, 
  "silného": 5267, 
  "budovat": 5268, 
  "Kodani": 5269, 
  "R": 5270, 
  "nějšímu": 5271, 
  "čnou": 5272, 
  "koalici": 5273, 
  "stva": 5274, 
  "nejistota": 5275, 
  "scénáře": 5276, 
  "účast@@": 5277, 
  "lilo": 5278, 
  "aty": 5279, 
  "udržitelný": 5280, 
  "zdroji": 5281, 
  "podzim": 5282, 
  "provést": 5283, 
  "efektivitu": 5284, 
  "jednotné": 5285, 
  "vysvět@@": 5286, 
  "Německem": 5287, 
  "techniky": 5288, 
  "formální": 5289, 
  "poprav@@": 5290, 
  "odliš@@": 5291, 
  "aktivit": 5292, 
  "poru@@": 5293, 
  "soupe@@": 5294, 
  "investicím": 5295, 
  "geo@@": 5296, 
  "německého": 5297, 
  "per@@": 5298, 
  "muslimské": 5299, 
  "sporu": 5300, 
  "komerční": 5301, 
  "řízené": 5302, 
  "cená": 5303, 
  "prezidentského": 5304, 
  "středu": 5305, 
  "Schröder": 5306, 
  "klíčový": 5307, 
  "připadá": 5308, 
  "super@@": 5309, 
  "funkční": 5310, 
  "ari@@": 5311, 
  "osvěd@@": 5312, 
  "Federální": 5313, 
  "věrohodnost": 5314, 
  "zajišť@@": 5315, 
  "doposud": 5316, 
  "svaz@@": 5317, 
  "předsed@@": 5318, 
  "potlač@@": 5319, 
  "založená": 5320, 
  "úpadku": 5321, 
  "pravděpodobnější": 5322, 
  "japonský": 5323, 
  "protokolu": 5324, 
  "předvídatel@@": 5325, 
  "evropskými": 5326, 
  "dluž@@": 5327, 
  "vyděl@@": 5328, 
  "loňského": 5329, 
  "vyno@@": 5330, 
  "ely": 5331, 
  "znamenají": 5332, 
  "Greenspan": 5333, 
  "získávají": 5334, 
  "některým": 5335, 
  "efektivně": 5336, 
  "jasný": 5337, 
  "vět@@": 5338, 
  "kvalitu": 5339, 
  "nedošlo": 5340, 
  "žádoucí": 5341, 
  "společenských": 5342, 
  "ostře": 5343, 
  "opírá": 5344, 
  "obžal@@": 5345, 
  "oslabení": 5346, 
  "lidským": 5347, 
  "Moskva": 5348, 
  "dny": 5349, 
  "republika": 5350, 
  "bombardování": 5351, 
  "úkoly": 5352, 
  "změnou": 5353, 
  "tok": 5354, 
  "konkurenceschopnost": 5355, 
  "kovým": 5356, 
  "dávek": 5357, 
  "měst@@": 5358, 
  "úspěšný": 5359, 
  "nástupu": 5360, 
  "telný": 5361, 
  "otevřenou": 5362, 
  "vyjád@@": 5363, 
  "správným": 5364, 
  "inách": 5365, 
  "souvisí": 5366, 
  "výraz@@": 5367, 
  "mý@@": 5368, 
  "atmosféře": 5369, 
  "set@@": 5370, 
  "postupem": 5371, 
  "širším": 5372, 
  "nedostatkem": 5373, 
  "sedmi": 5374, 
  "hospodářskému": 5375, 
  "potřebě": 5376, 
  "chápání": 5377, 
  "um": 5378, 
  "propu@@": 5379, 
  "napo@@": 5380, 
  "rozpočtových": 5381, 
  "The": 5382, 
  "f": 5383, 
  "zpráv": 5384, 
  "vzděl@@": 5385, 
  "poznamen@@": 5386, 
  "střel@@": 5387, 
  "niž": 5388, 
  "fin@@": 5389, 
  "zemědělských": 5390, 
  "Robert": 5391, 
  "že@@": 5392, 
  "áz@@": 5393, 
  "propasti": 5394, 
  "nal@@": 5395, 
  "dokázat": 5396, 
  "vojáky": 5397, 
  "pravděpodob@@": 5398, 
  "vla@@": 5399, 
  "zásadních": 5400, 
  "uprostřed": 5401, 
  "šť@@": 5402, 
  "příštího": 5403, 
  "ozbrojených": 5404, 
  "wan": 5405, 
  "jas@@": 5406, 
  "oru": 5407, 
  "vlo@@": 5408, 
  "mocné": 5409, 
  "sna@@": 5410, 
  "mikro@@": 5411, 
  "produktivita": 5412, 
  "regionů": 5413, 
  "práv@@": 5414, 
  "tin@@": 5415, 
  "předsedou": 5416, 
  "af@@": 5417, 
  "sh@@": 5418, 
  "přerozdělování": 5419, 
  "přizpůsob@@": 5420, 
  "žá@@": 5421, 
  "snažil": 5422, 
  "oficiálně": 5423, 
  "parlamentních": 5424, 
  "plá@@": 5425, 
  "tempa": 5426, 
  "trvají": 5427, 
  "skupině": 5428, 
  "mů@@": 5429, 
  "vznikl": 5430, 
  "zajistil": 5431, 
  "slov": 5432, 
  "soudce": 5433, 
  "natož": 5434, 
  "slib": 5435, 
  "jší": 5436, 
  "pravomoc": 5437, 
  "útocích": 5438, 
  "mediální": 5439, 
  "absolutní": 5440, 
  "víry": 5441, 
  "března": 5442, 
  "vlasti": 5443, 
  "obě@@": 5444, 
  "uskutečňovat": 5445, 
  "Japonskem": 5446, 
  "věřitelé": 5447, 
  "alismu": 5448, 
  "silným": 5449, 
  "vystav@@": 5450, 
  "vás": 5451, 
  "zpátky": 5452, 
  "privati@@": 5453, 
  "livější": 5454, 
  "1967": 5455, 
  "sovětského": 5456, 
  "předvídat": 5457, 
  "volit": 5458, 
  "republikáni": 5459, 
  "říjnu": 5460, 
  "valo": 5461, 
  "pokládat": 5462, 
  "27": 5463, 
  "užitek": 5464, 
  "tou@@": 5465, 
  "zprávu": 5466, 
  "ály": 5467, 
  "rodin": 5468, 
  "intervenci": 5469, 
  "bilaterální": 5470, 
  "sech": 5471, 
  "koval": 5472, 
  "řili": 5473, 
  "navrhl": 5474, 
  "volí": 5475, 
  "přemýšlet": 5476, 
  "smí@@": 5477, 
  "stabilizace": 5478, 
  "pasti": 5479, 
  "současném": 5480, 
  "konkrétních": 5481, 
  "uranu": 5482, 
  "konkur@@": 5483, 
  "vládnout": 5484, 
  "50.": 5485, 
  "otevření": 5486, 
  "důležitou": 5487, 
  "racion@@": 5488, 
  "setrvale": 5489, 
  "alist@@": 5490, 
  "základnu": 5491, 
  "zovaly": 5492, 
  "nahraz@@": 5493, 
  "způsobují": 5494, 
  "iniciativu": 5495, 
  "řeč@@": 5496, 
  "úspěšná": 5497, 
  "sty@@": 5498, 
  "koordinace": 5499, 
  "zoufal@@": 5500, 
  "soused@@": 5501, 
  "požadovat": 5502, 
  "tor@@": 5503, 
  "čehož": 5504, 
  "moc@@": 5505, 
  "oddě@@": 5506, 
  "teroristů": 5507, 
  "způsobené": 5508, 
  "stačit": 5509, 
  "čného": 5510, 
  "něnou": 5511, 
  "Chirac": 5512, 
  "průzkumy": 5513, 
  "odhady": 5514, 
  "samotného": 5515, 
  "potřeb": 5516, 
  "chápat": 5517, 
  "pořádek": 5518, 
  "kly": 5519, 
  "jednotlivci": 5520, 
  "NPT": 5521, 
  "odpovídá": 5522, 
  "pouhá": 5523, 
  "časy": 5524, 
  "usilující": 5525, 
  "atelem": 5526, 
  "teploty": 5527, 
  "čínskou": 5528, 
  "potlačování": 5529, 
  "dob@@": 5530, 
  "zavádějící": 5531, 
  "oz@@": 5532, 
  "mezinárodnímu": 5533, 
  "umož@@": 5534, 
  "mov@@": 5535, 
  "efektivity": 5536, 
  "livým": 5537, 
  "známky": 5538, 
  "pev@@": 5539, 
  "mzd@@": 5540, 
  "závazků": 5541, 
  "trvalého": 5542, 
  "aktuální": 5543, 
  "starší": 5544, 
  "nezbytnou": 5545, 
  "poko@@": 5546, 
  "střed@@": 5547, 
  "dav@@": 5548, 
  "obávat": 5549, 
  "kulturních": 5550, 
  "udě@@": 5551, 
  "dopadů": 5552, 
  "modernizaci": 5553, 
  "zapojit": 5554, 
  "přišlo": 5555, 
  "žejí": 5556, 
  "dobrých": 5557, 
  "přirozené": 5558, 
  "nul": 5559, 
  "ších": 5560, 
  "kandidáta": 5561, 
  "srdci": 5562, 
  "stagnace": 5563, 
  "civilistů": 5564, 
  "čena": 5565, 
  "zakládá": 5566, 
  "představu": 5567, 
  "porozumění": 5568, 
  "pevné": 5569, 
  "naruš@@": 5570, 
  "dostávají": 5571, 
  "vyspě@@": 5572, 
  "um@@": 5573, 
  "souhlasu": 5574, 
  "restrukturalizaci": 5575, 
  "zdůraz@@": 5576, 
  "jích": 5577, 
  "osmi": 5578, 
  "protokol": 5579, 
  "zoval": 5580, 
  "předchozích": 5581, 
  "mocenské": 5582, 
  "svat@@": 5583, 
  "rysy": 5584, 
  "tivních": 5585, 
  "vynalo@@": 5586, 
  "menšiny": 5587, 
  "prac@@": 5588, 
  "komisi": 5589, 
  "bezpočet": 5590, 
  "cházejí": 5591, 
  "2020": 5592, 
  "užitečné": 5593, 
  "kne": 5594, 
  "projevuje": 5595, 
  "strukturu": 5596, 
  "ť": 5597, 
  "nal": 5598, 
  "p": 5599, 
  "zaměřují": 5600, 
  "domácího": 5601, 
  "Arábii": 5602, 
  "ztratila": 5603, 
  "řádně": 5604, 
  "inteligence": 5605, 
  "energetická": 5606, 
  "med@@": 5607, 
  "jakoukoliv": 5608, 
  "potřebných": 5609, 
  "obavám": 5610, 
  "někoho": 5611, 
  "jícímu": 5612, 
  "dolarech": 5613, 
  "Řecku": 5614, 
  "19@@": 5615, 
  "ohro@@": 5616, 
  "dovozu": 5617, 
  "min": 5618, 
  "západního": 5619, 
  "deficitů": 5620, 
  "osobu": 5621, 
  "odmítli": 5622, 
  "spojenců": 5623, 
  "čným": 5624, 
  "recesí": 5625, 
  "šíit@@": 5626, 
  "mírový": 5627, 
  "čtvrt@@": 5628, 
  "šími": 5629, 
  "cenami": 5630, 
  "výnos": 5631, 
  "odhadů": 5632, 
  "fungující": 5633, 
  "řilo": 5634, 
  "příspěvky": 5635, 
  "dnech": 5636, 
  "níku": 5637, 
  "indický": 5638, 
  "právu": 5639, 
  "udělal": 5640, 
  "sáz@@": 5641, 
  "vajících": 5642, 
  "zanedb@@": 5643, 
  "poznání": 5644, 
  "mno@@": 5645, 
  "nedokázaly": 5646, 
  "haly": 5647, 
  "Palestině": 5648, 
  "stud@@": 5649, 
  "soukromí": 5650, 
  "platby": 5651, 
  "eli": 5652, 
  "počítače": 5653, 
  "půjde": 5654, 
  "vidíme": 5655, 
  "zvol@@": 5656, 
  "významnější": 5657, 
  "mozku": 5658, 
  "silněji": 5659, 
  "srpnu": 5660, 
  "Zatřetí": 5661, 
  "majetek": 5662, 
  "čku": 5663, 
  "hráči": 5664, 
  "automaticky": 5665, 
  "zře@@": 5666, 
  "ač@@": 5667, 
  "donedávna": 5668, 
  "plyn": 5669, 
  "ste@@": 5670, 
  "pokračuje": 5671, 
  "komplexní": 5672, 
  "ráz@@": 5673, 
  "fotbal@@": 5674, 
  "dalsí": 5675, 
  "kového": 5676, 
  "chat": 5677, 
  "představoval": 5678, 
  "realizaci": 5679, 
  "přispělo": 5680, 
  "sem@@": 5681, 
  "ustanovení": 5682, 
  "změnilo": 5683, 
  "váme": 5684, 
  "blíz@@": 5685, 
  "ven": 5686, 
  "rozhodnutím": 5687, 
  "nato": 5688, 
  "Po@@": 5689, 
  "genů": 5690, 
  "rychlost": 5691, 
  "komunikace": 5692, 
  "nezbytný": 5693, 
  "nepří@@": 5694, 
  "úto@@": 5695, 
  "devatenáctého": 5696, 
  "izraelských": 5697, 
  "napá@@": 5698, 
  "1993": 5699, 
  "feder@@": 5700, 
  "angaž@@": 5701, 
  "koncept": 5702, 
  "slabá": 5703, 
  "ust@@": 5704, 
  "úplné": 5705, 
  "Al": 5706, 
  "svobodných": 5707, 
  "zajíma@@": 5708, 
  "nízkými": 5709, 
  "poruš@@": 5710, 
  "SSSR": 5711, 
  "válečných": 5712, 
  "uzavřít": 5713, 
  "nických": 5714, 
  "jazy@@": 5715, 
  "SDR": 5716, 
  "identitu": 5717, 
  "objevují": 5718, 
  "jakkoli": 5719, 
  "smlouvě": 5720, 
  "paliva": 5721, 
  "torů": 5722, 
  "ativní": 5723, 
  "žád@@": 5724, 
  "vené": 5725, 
  "levici": 5726, 
  "nejnižší": 5727, 
  "počet@@": 5728, 
  "cených": 5729, 
  "ep@@": 5730, 
  "cyklu": 5731, 
  "oficiálních": 5732, 
  "unií": 5733, 
  "šné": 5734, 
  "řením": 5735, 
  "svol@@": 5736, 
  "uvolnění": 5737, 
  "ekonomii": 5738, 
  "IPCC": 5739, 
  "týdnech": 5740, 
  "kritici": 5741, 
  "1,@@": 5742, 
  "bariéry": 5743, 
  "obraz": 5744, 
  "týdnů": 5745, 
  "zvýšilo": 5746, 
  "nedostate@@": 5747, 
  "najednou": 5748, 
  "čný": 5749, 
  "nynější": 5750, 
  "45": 5751, 
  "přiznat": 5752, 
  "schopny": 5753, 
  "domnívá": 5754, 
  "popředí": 5755, 
  "štění": 5756, 
  "rozpad@@": 5757, 
  "vysoko": 5758, 
  "noc": 5759, 
  "ité": 5760, 
  "áno": 5761, 
  "nedokázali": 5762, 
  "suverénní": 5763, 
  "rozsáhlých": 5764, 
  "monopol": 5765, 
  "srov@@": 5766, 
  "jednalo": 5767, 
  "úpadek": 5768, 
  "schodku": 5769, 
  "mírou": 5770, 
  "prezidentovi": 5771, 
  "praktické": 5772, 
  "agresiv@@": 5773, 
  "odjakživa": 5774, 
  "tlu@@": 5775, 
  "radu": 5776, 
  "účastníci": 5777, 
  "Nizozemsko": 5778, 
  "způsobí": 5779, 
  "tal": 5780, 
  "hrá@@": 5781, 
  "výkon@@": 5782, 
  "dek": 5783, 
  "vyjádření": 5784, 
  "populist@@": 5785, 
  "nazý@@": 5786, 
  "tolerance": 5787, 
  "nuceni": 5788, 
  "ral": 5789, 
  "nároky": 5790, 
  "oblíb@@": 5791, 
  "oslav@@": 5792, 
  "využí@@": 5793, 
  "veřejným": 5794, 
  "tickými": 5795, 
  "stabilizaci": 5796, 
  "měsíci": 5797, 
  "srdce": 5798, 
  "regionech": 5799, 
  "šti": 5800, 
  "vyu@@": 5801, 
  "tvrdou": 5802, 
  "prodej": 5803, 
  "účinnosti": 5804, 
  "koupit": 5805, 
  "námořní": 5806, 
  "podpoří": 5807, 
  "obět@@": 5808, 
  "převzetí": 5809, 
  "alitu": 5810, 
  "dveře": 5811, 
  "noviny": 5812, 
  "ropa": 5813, 
  "bod": 5814, 
  "G20": 5815, 
  "člověkem": 5816, 
  "soustředit": 5817, 
  "vyzý@@": 5818, 
  "vzhůru": 5819, 
  "připraveni": 5820, 
  "AKP": 5821, 
  "funkcí": 5822, 
  "Řecka": 5823, 
  "orů": 5824, 
  "skry@@": 5825, 
  "podezření": 5826, 
  "sek": 5827, 
  "stří@@": 5828, 
  "katastrofu": 5829, 
  "socialist@@": 5830, 
  "pom@@": 5831, 
  "zru@@": 5832, 
  "soukromém": 5833, 
  "pohl@@": 5834, 
  "zatčení": 5835, 
  "nespl@@": 5836, 
  "povinností": 5837, 
  "Vý@@": 5838, 
  "zích": 5839, 
  "log@@": 5840, 
  "spě@@": 5841, 
  "chystá": 5842, 
  "konání": 5843, 
  "trp@@": 5844, 
  "vážnou": 5845, 
  "cením": 5846, 
  "ochotné": 5847, 
  "dárci": 5848, 
  "malým": 5849, 
  "znám@@": 5850, 
  "zůstala": 5851, 
  "německých": 5852, 
  "kladou": 5853, 
  "etnických": 5854, 
  "požad@@": 5855, 
  "pobídek": 5856, 
  "hmot@@": 5857, 
  "II.": 5858, 
  "přinesly": 5859, 
  "tku": 5860, 
  "mocnost": 5861, 
  "poslou@@": 5862, 
  "Le@@": 5863, 
  "správnou": 5864, 
  "svržení": 5865, 
  "pořád@@": 5866, 
  "zásah": 5867, 
  "jménem": 5868, 
  "téhož": 5869, 
  "zmírnění": 5870, 
  "mezitím": 5871, 
  "sklouz@@": 5872, 
  "teroristy": 5873, 
  "mluvit": 5874, 
  "celosvětového": 5875, 
  "civilizace": 5876, 
  "vnímání": 5877, 
  "lep@@": 5878, 
  "nejs@@": 5879, 
  "stoupající": 5880, 
  "zer@@": 5881, 
  "lidský": 5882, 
  "podnikatelé": 5883, 
  "těš@@": 5884, 
  "stem": 5885, 
  "prospěchu": 5886, 
  "Ku@@": 5887, 
  "podobnou": 5888, 
  "roval": 5889, 
  "ičtí": 5890, 
  "uvedl": 5891, 
  "rostly": 5892, 
  "objek@@": 5893, 
  "vstup@@": 5894, 
  "čilo": 5895, 
  "sel@@": 5896, 
  "úspěchů": 5897, 
  "byste": 5898, 
  "zadržování": 5899, 
  "působi@@": 5900, 
  "jihu": 5901, 
  "ia": 5902, 
  "Velkou": 5903, 
  "nacist@@": 5904, 
  "podobným": 5905, 
  "Saddám": 5906, 
  "vnu@@": 5907, 
  "malárii": 5908, 
  "tvorbu": 5909, 
  "rovnosti": 5910, 
  "generálního": 5911, 
  "infrastrukturu": 5912, 
  "7@@": 5913, 
  "zmí@@": 5914, 
  "spraved@@": 5915, 
  "troj@@": 5916, 
  "nezaměstnaností": 5917, 
  "kroků": 5918, 
  "éru": 5919, 
  "předpoklad": 5920, 
  "postrádá": 5921, 
  "úvahy": 5922, 
  "přijímat": 5923, 
  "vědecký": 5924, 
  "nici": 5925, 
  "postupovat": 5926, 
  "och@@": 5927, 
  "povzbu@@": 5928, 
  "dodrž@@": 5929, 
  "manažeři": 5930, 
  "elektřiny": 5931, 
  "Srbska": 5932, 
  "akcionáři": 5933, 
  "tře@@": 5934, 
  "zkoumání": 5935, 
  "reformovat": 5936, 
  "F": 5937, 
  "díl": 5938, 
  "počí@@": 5939, 
  "Per@@": 5940, 
  "udrží": 5941, 
  "alternativa": 5942, 
  "bankou": 5943, 
  "še@@": 5944, 
  "hodnotách": 5945, 
  "koho": 5946, 
  "severu": 5947, 
  "cy@@": 5948, 
  "tickém": 5949, 
  "nabídka": 5950, 
  "aspekty": 5951, 
  "obojí": 5952, 
  "zvířata": 5953, 
  "učin@@": 5954, 
  "považ@@": 5955, 
  "ak": 5956, 
  "zůstal": 5957, 
  "umožnily": 5958, 
  "šly": 5959, 
  "zjednodu@@": 5960, 
  "upí@@": 5961, 
  "dětem": 5962, 
  "sta": 5963, 
  "dž@@": 5964, 
  "zadr@@": 5965, 
  "Ru@@": 5966, 
  "22": 5967, 
  "cion@@": 5968, 
  "hlo": 5969, 
  "nárok": 5970, 
  "doporučení": 5971, 
  "mírového": 5972, 
  "vedlejší": 5973, 
  "jejímu": 5974, 
  "kandidát": 5975, 
  "produk@@": 5976, 
  "navrh@@": 5977, 
  "Palestince": 5978, 
  "moderního": 5979, 
  "dneška": 5980, 
  "cházela": 5981, 
  "připravena": 5982, 
  "čá@@": 5983, 
  "studenti": 5984, 
  "ar": 5985, 
  "zací": 5986, 
  "charakteriz@@": 5987, 
  "alisté": 5988, 
  "ig@@": 5989, 
  "teli": 5990, 
  "základny": 5991, 
  "hrd@@": 5992, 
  "tvorby": 5993, 
  "rozdmých@@": 5994, 
  "policejní": 5995, 
  "opětovně": 5996, 
  "médií": 5997, 
  "entní": 5998, 
  "rychlejší": 5999, 
  "zapoj@@": 6000, 
  "složitější": 6001, 
  "složek": 6002, 
  "zadrž@@": 6003, 
  "chodu": 6004, 
  "In@@": 6005, 
  "ledna": 6006, 
  "změnil": 6007, 
  "jevit": 6008, 
  "pravdou": 6009, 
  "skutečného": 6010, 
  "sad@@": 6011, 
  "krimin@@": 6012, 
  "jejími": 6013, 
  "sektory": 6014, 
  "nizozem@@": 6015, 
  "nutno": 6016, 
  "velkém": 6017, 
  "zřízení": 6018, 
  "odhalení": 6019, 
  "nuly": 6020, 
  "spotřebitele": 6021, 
  "ženým": 6022, 
  "signály": 6023, 
  "Abú": 6024, 
  "mist@@": 6025, 
  "zvrá@@": 6026, 
  "kniha": 6027, 
  "nižších": 6028, 
  "testy": 6029, 
  "občanských": 6030, 
  "činností": 6031, 
  "centrum": 6032, 
  "tro@@": 6033, 
  "související": 6034, 
  "institucemi": 6035, 
  "diskutovat": 6036, 
  "pomohl": 6037, 
  "ovaném": 6038, 
  "lan@@": 6039, 
  "omezí": 6040, 
  "přistěhovalců": 6041, 
  "ceně": 6042, 
  "potom": 6043, 
  "nala": 6044, 
  "přijal": 6045, 
  "žádat": 6046, 
  "mírových": 6047, 
  "jšího": 6048, 
  "rezoluce": 6049, 
  "celých": 6050, 
  "chan@@": 6051, 
  "mož@@": 6052, 
  "oznámil": 6053, 
  "zvrátit": 6054, 
  "udržování": 6055, 
  "masivní": 6056, 
  "seznam": 6057, 
  "službách": 6058, 
  "milion": 6059, 
  "6@@": 6060, 
  "důležitost": 6061, 
  "Ž@@": 6062, 
  "hal": 6063, 
  "věřitele": 6064, 
  "šena": 6065, 
  "Čong": 6066, 
  "zničení": 6067, 
  "sociálně": 6068, 
  "soudy": 6069, 
  "x@@": 6070, 
  "realita": 6071, 
  "rozšířen@@": 6072, 
  "šoky": 6073, 
  "Mušaraf": 6074, 
  "levné": 6075, 
  "získává": 6076, 
  "trvalou": 6077, 
  "přinejlepším": 6078, 
  "istická": 6079, 
  "členům": 6080, 
  "kultuře": 6081, 
  "chlad@@": 6082, 
  "hání": 6083, 
  "zelené": 6084, 
  "stimulu": 6085, 
  "hodnot@@": 6086, 
  "proměnila": 6087, 
  "nespráv@@": 6088, 
  "vítěz@@": 6089, 
  "dez@@": 6090, 
  "demokratů": 6091, 
  "kriti@@": 6092, 
  "víceméně": 6093, 
  "zdůrazňuje": 6094, 
  "ustav@@": 6095, 
  "špič@@": 6096, 
  "autokra@@": 6097, 
  "Pakt": 6098, 
  "reformám": 6099, 
  "věz@@": 6100, 
  "náhodou": 6101, 
  "uznává": 6102, 
  "ambiciózní": 6103, 
  "nejist@@": 6104, 
  "árních": 6105, 
  "proměnil": 6106, 
  "návání": 6107, 
  "historických": 6108, 
  "dosavadní": 6109, 
  "zované": 6110, 
  "mez@@": 6111, 
  "respekt@@": 6112, 
  "volebního": 6113, 
  "pokusil": 6114, 
  "čekají": 6115, 
  "směnného": 6116, 
  "obrat": 6117, 
  "Dárfúru": 6118, 
  "příkladu": 6119, 
  "omezená": 6120, 
  "teoreticky": 6121, 
  "událost": 6122, 
  "konsenzu": 6123, 
  "stech": 6124, 
  "kupředu": 6125, 
  "sedm@@": 6126, 
  "stranami": 6127, 
  "pracovního": 6128, 
  "Argentině": 6129, 
  "zovala": 6130, 
  "produktivní": 6131, 
  "nepřátelství": 6132, 
  "Indonésii": 6133, 
  "vin@@": 6134, 
  "věřili": 6135, 
  "nakolik": 6136, 
  "chovají": 6137, 
  "poukazuje": 6138, 
  "sexuální": 6139, 
  "vyvíjí": 6140, 
  "prakti@@": 6141, 
  "expanzi": 6142, 
  "transparentnosti": 6143, 
  "pravidlo": 6144, 
  "rání": 6145, 
  "uplatňovat": 6146, 
  "irácká": 6147, 
  "nezákon@@": 6148, 
  "připraven": 6149, 
  "rétorika": 6150, 
  "žní": 6151, 
  "cený": 6152, 
  "dohodnout": 6153, 
  "vari@@": 6154, 
  "plo@@": 6155, 
  "mezinárodně": 6156, 
  "vdě@@": 6157, 
  "ata": 6158, 
  "lidstvo": 6159, 
  "volbu": 6160, 
  "králov@@": 6161, 
  "kupní": 6162, 
  "ztra@@": 6163, 
  "svědomí": 6164, 
  "spleti@@": 6165, 
  "křesel": 6166, 
  "Bushovi": 6167, 
  "ěné": 6168, 
  "klíčová": 6169, 
  "lik@@": 6170, 
  "podobného": 6171, 
  "odkaz": 6172, 
  "transakcí": 6173, 
  "prací": 6174, 
  "červen@@": 6175, 
  "ky@@": 6176, 
  "čeni": 6177, 
  "Ú@@": 6178, 
  "cestovní": 6179, 
  "výrobky": 6180, 
  "řených": 6181, 
  "neudržitel@@": 6182, 
  "ticky": 6183, 
  "televize": 6184, 
  "přest@@": 6185, 
  "jedinci": 6186, 
  "průměrná": 6187, 
  "pryč": 6188, 
  "úkolů": 6189, 
  "analy@@": 6190, 
  "kritéria": 6191, 
  "britského": 6192, 
  "dlouhodobá": 6193, 
  "itelné": 6194, 
  "likviditu": 6195, 
  "sed@@": 6196, 
  "určitých": 6197, 
  "zajistily": 6198, 
  "ústavě": 6199, 
  "brzdí": 6200, 
  "následně": 6201, 
  "dílem": 6202, 
  "okolnosti": 6203, 
  "provádě@@": 6204, 
  "ovatel@@": 6205, 
  "celková": 6206, 
  "kritiku": 6207, 
  "álu": 6208, 
  "vstoupí": 6209, 
  "zajistili": 6210, 
  "navždy": 6211, 
  "sdružení": 6212, 
  "istů": 6213, 
  "Bosně": 6214, 
  "vybí@@": 6215, 
  "rozšířila": 6216, 
  "širokou": 6217, 
  "bra@@": 6218, 
  "maximální": 6219, 
  "vyhlá@@": 6220, 
  "odpovědnosti": 6221, 
  "chal": 6222, 
  "schopné": 6223, 
  "jednoduché": 6224, 
  "otevřená": 6225, 
  "odrazem": 6226, 
  "livě": 6227, 
  "ministryně": 6228, 
  "vyslov@@": 6229, 
  "veškerou": 6230, 
  "lený": 6231, 
  "našem": 6232, 
  "ver@@": 6233, 
  "tice": 6234, 
  "zacházení": 6235, 
  "poznamenal": 6236, 
  "sam@@": 6237, 
  "zotav@@": 6238, 
  "přispěl": 6239, 
  "povědomí": 6240, 
  "zřídka": 6241, 
  "set": 6242, 
  "2050": 6243, 
  "omezují": 6244, 
  "kroku": 6245, 
  "nadměrné": 6246, 
  "kompen@@": 6247, 
  "ícím": 6248, 
  "sluneční": 6249, 
  "Chile": 6250, 
  "zábav@@": 6251, 
  "špatného": 6252, 
  "multi@@": 6253, 
  "přiná@@": 6254, 
  "zdě@@": 6255, 
  "vnitro@@": 6256, 
  "uspět": 6257, 
  "dodržování": 6258, 
  "touhu": 6259, 
  "formulov@@": 6260, 
  "uch@@": 6261, 
  "operací": 6262, 
  "závazku": 6263, 
  "pochyb": 6264, 
  "rychlého": 6265, 
  "úřed@@": 6266, 
  "tran@@": 6267, 
  "ismem": 6268, 
  "nástup": 6269, 
  "indická": 6270, 
  "lokální": 6271, 
  "přesun": 6272, 
  "reálná": 6273, 
  "stavějí": 6274, 
  "samosprávy": 6275, 
  "přetrvává": 6276, 
  "znač@@": 6277, 
  "odstranit": 6278, 
  "tradici": 6279, 
  "hlasovat": 6280, 
  "hrozbě": 6281, 
  "zvýšením": 6282, 
  "uplatňování": 6283, 
  "hyper@@": 6284, 
  "vedli": 6285, 
  "půdě": 6286, 
  "zdát": 6287, 
  "přílivu": 6288, 
  "vesměs": 6289, 
  "Tony": 6290, 
  "posunu": 6291, 
  "platilo": 6292, 
  "věr@@": 6293, 
  "del@@": 6294, 
  "komplikov@@": 6295, 
  "hledají": 6296, 
  "diktatury": 6297, 
  "nesmíme": 6298, 
  "omezený": 6299, 
  "investorům": 6300, 
  "ulicích": 6301, 
  "tý": 6302, 
  "individuální": 6303, 
  "ruským": 6304, 
  "znamenal": 6305, 
  "plnění": 6306, 
  "Bar@@": 6307, 
  "schůzce": 6308, 
  "trvání": 6309, 
  "noví": 6310, 
  "účinná": 6311, 
  "řený": 6312, 
  "Irsku": 6313, 
  "mat": 6314, 
  "málokdo": 6315, 
  "půjčování": 6316, 
  "ster@@": 6317, 
  "čeny": 6318, 
  "rozvíjet": 6319, 
  "úlohy": 6320, 
  "uvěz@@": 6321, 
  "domy": 6322, 
  "fi@@": 6323, 
  "cti@@": 6324, 
  "regulací": 6325, 
  "dosah": 6326, 
  "zvlášť": 6327, 
  "křesťan@@": 6328, 
  "výkonnosti": 6329, 
  "koncepce": 6330, 
  "gu": 6331, 
  "průměrné": 6332, 
  "son@@": 6333, 
  "koaliční": 6334, 
  "snížilo": 6335, 
  "silných": 6336, 
  "výrobků": 6337, 
  "okolí": 6338, 
  "hlav@@": 6339, 
  "telných": 6340, 
  "věděl": 6341, 
  "ér@@": 6342, 
  "typ@@": 6343, 
  "hrozeb": 6344, 
  "tor": 6345, 
  "klíčem": 6346, 
  "ler@@": 6347, 
  "chop@@": 6348, 
  "pochází": 6349, 
  "členskými": 6350, 
  "popu@@": 6351, 
  "výzva": 6352, 
  "učinili": 6353, 
  "dospět": 6354, 
  "obnovitelné": 6355, 
  "jestli": 6356, 
  "podkopává": 6357, 
  "bran@@": 6358, 
  "republikán@@": 6359, 
  "mal@@": 6360, 
  "makro@@": 6361, 
  "stu@@": 6362, 
  "otec": 6363, 
  "uvaž@@": 6364, 
  "her@@": 6365, 
  "počítat": 6366, 
  "kování": 6367, 
  "domin@@": 6368, 
  "pomáhat": 6369, 
  "taktéž": 6370, 
  "trans@@": 6371, 
  "demonstrace": 6372, 
  "zahájila": 6373, 
  "vnitřních": 6374, 
  "pole": 6375, 
  "věd": 6376, 
  "Hamas": 6377, 
  "atelům": 6378, 
  "přespříliš": 6379, 
  "června": 6380, 
  "dařilo": 6381, 
  "kapitalist@@": 6382, 
  "složité": 6383, 
  "beze": 6384, 
  "rozvojová": 6385, 
  "out": 6386, 
  "umí@@": 6387, 
  "demograf@@": 6388, 
  "proni@@": 6389, 
  "enormní": 6390, 
  "hluboko": 6391, 
  "oněch": 6392, 
  "předpo@@": 6393, 
  "jimi": 6394, 
  "povedou": 6395, 
  "odpovědnost": 6396, 
  "zahájil": 6397, 
  "rád": 6398, 
  "obává": 6399, 
  "ment@@": 6400, 
  "obvyk@@": 6401, 
  "univerzální": 6402, 
  "pop@@": 6403, 
  "hoř@@": 6404, 
  "řící": 6405, 
  "tajemník": 6406, 
  "zóny": 6407, 
  "livost": 6408, 
  "minulostí": 6409, 
  "snahám": 6410, 
  "zavádě@@": 6411, 
  "tvrd@@": 6412, 
  "šet": 6413, 
  "termí@@": 6414, 
  "října": 6415, 
  "střety": 6416, 
  "žene": 6417, 
  "zločin@@": 6418, 
  "soudci": 6419, 
  "ženi": 6420, 
  "dospě@@": 6421, 
  "nárůstu": 6422, 
  "nedot@@": 6423, 
  "burzy": 6424, 
  "každému": 6425, 
  "hodnotit": 6426, 
  "oživ@@": 6427, 
  "čen": 6428, 
  "analýzy": 6429, 
  "žné": 6430, 
  "agresivní": 6431, 
  "ga": 6432, 
  "fa@@": 6433, 
  "vědeckého": 6434, 
  "áváme": 6435, 
  "pojem": 6436, 
  "občanství": 6437, 
  "debatě": 6438, 
  "nastav@@": 6439, 
  "přistěhovalci": 6440, 
  "zabí@@": 6441, 
  "ves@@": 6442, 
  "kvalitní": 6443, 
  "nejspíš": 6444, 
  "zavedly": 6445, 
  "tru@@": 6446, 
  "občan@@": 6447, 
  "řem": 6448, 
  "pi": 6449, 
  "institucím": 6450, 
  "pobřeží": 6451, 
  "osobnosti": 6452, 
  "závis@@": 6453, 
  "probíhající": 6454, 
  "chyba": 6455, 
  "půlstoletí": 6456, 
  "objevila": 6457, 
  "individu@@": 6458, 
  "enými": 6459, 
  "fix@@": 6460, 
  "Arabové": 6461, 
  "požadavků": 6462, 
  "porozumět": 6463, 
  "homosexu@@": 6464, 
  "ad": 6465, 
  "snažili": 6466, 
  "Berlusconi": 6467, 
  "znovuzvolení": 6468, 
  "životu": 6469, 
  "dostupnost": 6470, 
  "livosti": 6471, 
  "dobro": 6472, 
  "penze": 6473, 
  "porážku": 6474, 
  "platnost": 6475, 
  "zdravotnické": 6476, 
  "požadují": 6477, 
  "osmdesátých": 6478, 
  "Číňanů": 6479, 
  "bezprecedentní": 6480, 
  "aktérů": 6481, 
  "obnově": 6482, 
  "zne@@": 6483, 
  "říkat": 6484, 
  "sféry": 6485, 
  "poučení": 6486, 
  "představy": 6487, 
  "soustavě": 6488, 
  "projeví": 6489, 
  "reak@@": 6490, 
  "tytéž": 6491, 
  "regulátoři": 6492, 
  "nezodpověd@@": 6493, 
  "vybav@@": 6494, 
  "umožnil": 6495, 
  "vyčlen@@": 6496, 
  "zování": 6497, 
  "kap@@": 6498, 
  "potýkat": 6499, 
  "kterého": 6500, 
  "nevyhnutelné": 6501, 
  "zk@@": 6502, 
  "vách": 6503, 
  "ochab@@": 6504, 
  "zachy@@": 6505, 
  "oči": 6506, 
  "výstavby": 6507, 
  "vydat": 6508, 
  "styl": 6509, 
  "centru": 6510, 
  "vedená": 6511, 
  "užívání": 6512, 
  "vzdál@@": 6513, 
  "pobíd@@": 6514, 
  "pustit": 6515, 
  "poctiv@@": 6516, 
  "umí": 6517, 
  "Blízký": 6518, 
  "pečlivě": 6519, 
  "třiceti": 6520, 
  "Bruselu": 6521, 
  "Hamásem": 6522, 
  "cují": 6523, 
  "oxidu": 6524, 
  "pětilet@@": 6525, 
  "pádem": 6526, 
  "ekonomickými": 6527, 
  "Brusel": 6528, 
  "jakákoliv": 6529, 
  "nav@@": 6530, 
  "York": 6531, 
  "rozsáhlou": 6532, 
  "trvající": 6533, 
  "nadšení": 6534, 
  "imperi@@": 6535, 
  "sociálním": 6536, 
  "zákazu": 6537, 
  "čet@@": 6538, 
  "deregulace": 6539, 
  "snahou": 6540, 
  "Rumunsko": 6541, 
  "ň": 6542, 
  "člen": 6543, 
  "výslovně": 6544, 
  "rostoucích": 6545, 
  "konfrontace": 6546, 
  "ministerský": 6547, 
  "schází": 6548, 
  "posledního": 6549, 
  "ochoten": 6550, 
  "Mexika": 6551, 
  "očekávají": 6552, 
  "měr@@": 6553, 
  "sporů": 6554, 
  "dobrovol@@": 6555, 
  "tentýž": 6556, 
  "přispěly": 6557, 
  "integrov@@": 6558, 
  "řen@@": 6559, 
  "stimulovat": 6560, 
  "ducha": 6561, 
  "nasazení": 6562, 
  "osvobozen@@": 6563, 
  "spravedlivý": 6564, 
  "index": 6565, 
  "půl@@": 6566, 
  "působil": 6567, 
  "pozoruhodné": 6568, 
  "omezenou": 6569, 
  "zřídkakdy": 6570, 
  "změnami": 6571, 
  "vit": 6572, 
  "klas@@": 6573, 
  "seznamu": 6574, 
  "přijímání": 6575, 
  "příjem@@": 6576, 
  "uskupení": 6577, 
  "americko": 6578, 
  "vášni@@": 6579, 
  "zjistit": 6580, 
  "škrtů": 6581, 
  "káz@@": 6582, 
  "Putinova": 6583, 
  "míst@@": 6584, 
  "místem": 6585, 
  "studií": 6586, 
  "jmenování": 6587, 
  "nevyváženosti": 6588, 
  "majet@@": 6589, 
  "vzduchu": 6590, 
  "tyran@@": 6591, 
  "EMU": 6592, 
  "jat@@": 6593, 
  "zamýš@@": 6594, 
  "pohybuje": 6595, 
  "kabinetu": 6596, 
  "faš@@": 6597, 
  "založenou": 6598, 
  "požaduje": 6599, 
  "příslušníků": 6600, 
  "Balkáně": 6601, 
  "perspektivy": 6602, 
  "července": 6603, 
  "zatí@@": 6604, 
  "schop@@": 6605, 
  "dovol@@": 6606, 
  "Perského": 6607, 
  "pokusit": 6608, 
  "nacionalistické": 6609, 
  "blízko": 6610, 
  "ura": 6611, 
  "pen@@": 6612, 
  "utrácet": 6613, 
  "očekávalo": 6614, 
  "zaměřen@@": 6615, 
  "připravit": 6616, 
  "správná": 6617, 
  "národními": 6618, 
  "středo@@": 6619, 
  "skupinami": 6620, 
  "záhy": 6621, 
  "České": 6622, 
  "klima": 6623, 
  "lenou": 6624, 
  "5,@@": 6625, 
  "ent": 6626, 
  "prosince": 6627, 
  "choroby": 6628, 
  "postupů": 6629, 
  "rozpočty": 6630, 
  "islámského": 6631, 
  "zh@@": 6632, 
  "korej@@": 6633, 
  "ohromující": 6634, 
  "and@@": 6635, 
  "království": 6636, 
  "body": 6637, 
  "deseti@@": 6638, 
  "znají": 6639, 
  "výjimky": 6640, 
  "zdají": 6641, 
  "účin@@": 6642, 
  "Nizozemsku": 6643, 
  "následek": 6644, 
  "posed@@": 6645, 
  "hly": 6646, 
  "vyšetřování": 6647, 
  "potíž": 6648, 
  "menších": 6649, 
  "400": 6650, 
  "zájmem": 6651, 
  "konvenční": 6652, 
  "odvol@@": 6653, 
  "dělí": 6654, 
  "Obamovy": 6655, 
  "jednotlivců": 6656, 
  "vyhro@@": 6657, 
  "Irákem": 6658, 
  "Jean": 6659, 
  "hů": 6660, 
  "navrhuje": 6661, 
  "třetího": 6662, 
  "protestů": 6663, 
  "padla": 6664, 
  "soudnictví": 6665, 
  "th@@": 6666, 
  "kur@@": 6667, 
  "rozsáhlý": 6668, 
  "poklád@@": 6669, 
  "hou@@": 6670, 
  "celosvětová": 6671, 
  "zmat@@": 6672, 
  "udržuje": 6673, 
  "spoléhá": 6674, 
  "překvapivě": 6675, 
  "dost@@": 6676, 
  "ingu": 6677, 
  "odpovědět": 6678, 
  "íránská": 6679, 
  "nadnárodní": 6680, 
  "stranám": 6681, 
  "prodeje": 6682, 
  "promění": 6683, 
  "chudší": 6684, 
  "tvrdě": 6685, 
  "kritika": 6686, 
  "kilometrů": 6687, 
  "obtíž@@": 6688, 
  "dlouhý": 6689, 
  "moz@@": 6690, 
  "šli": 6691, 
  "novin": 6692, 
  "Val@@": 6693, 
  "tivního": 6694, 
  "hal@@": 6695, 
  "investují": 6696, 
  "spotřebitelů": 6697, 
  "soubor": 6698, 
  "ge@@": 6699, 
  "těsně": 6700, 
  "klí@@": 6701, 
  "spojuje": 6702, 
  "pravici": 6703, 
  "demokratickým": 6704, 
  "tendence": 6705, 
  "Chu": 6706, 
  "tory": 6707, 
  "prudké": 6708, 
  "osad": 6709, 
  "prodat": 6710, 
  "vod@@": 6711, 
  "rování": 6712, 
  "ěji": 6713, 
  "chrání": 6714, 
  "vní": 6715, 
  "říše": 6716, 
  "čování": 6717, 
  "moří": 6718, 
  "ple@@": 6719, 
  "spotřeb@@": 6720, 
  "mohut@@": 6721, 
  "sektorů": 6722, 
  "demokraticky": 6723, 
  "levnější": 6724, 
  "dělníci": 6725, 
  "tržně": 6726, 
  "stov@@": 6727, 
  "diskriminace": 6728, 
  "územní": 6729, 
  "světlo": 6730, 
  "porov@@": 6731, 
  "venkov@@": 6732, 
  "stolu": 6733, 
  "bomby": 6734, 
  "hlad@@": 6735, 
  "hali": 6736, 
  "vesmíru": 6737, 
  "chová": 6738, 
  "Hongkongu": 6739, 
  "4,@@": 6740, 
  "Evropský": 6741, 
  "postavil": 6742, 
  "opustit": 6743, 
  "zástupce": 6744, 
  "Zimbabwe": 6745, 
  "nestran@@": 6746, 
  "loňském": 6747, 
  "raket@@": 6748, 
  "referenda": 6749, 
  "Kore@@": 6750, 
  "ředitele": 6751, 
  "úkolu": 6752, 
  "ávalo": 6753, 
  "milionům": 6754, 
  "ěny": 6755, 
  "jit": 6756, 
  "učinily": 6757, 
  "chů": 6758, 
  "bohat@@": 6759, 
  "vlastními": 6760, 
  "váže": 6761, 
  "menším": 6762, 
  "rozsáhlá": 6763, 
  "reprezent@@": 6764, 
  "standardů": 6765, 
  "upřím@@": 6766, 
  "fie": 6767, 
  "diskut@@": 6768, 
  "živé": 6769, 
  "sion@@": 6770, 
  "vyhlášení": 6771, 
  "spoléhají": 6772, 
  "zohled@@": 6773, 
  "energetiky": 6774, 
  "potom@@": 6775, 
  "podkop@@": 6776, 
  "reality": 6777, 
  "technologické": 6778, 
  "zločinu": 6779, 
  "spolé@@": 6780, 
  "vykonat": 6781, 
  "eckých": 6782, 
  "demokratizace": 6783, 
  "okupaci": 6784, 
  "ští@@": 6785, 
  "dělníků": 6786, 
  "struktura": 6787, 
  "zla": 6788, 
  "myšlen@@": 6789, 
  "orgánu": 6790, 
  "podstata": 6791, 
  "bit@@": 6792, 
  "sovětských": 6793, 
  "upozor@@": 6794, 
  "nalezení": 6795, 
  "žit@@": 6796, 
  "bouře": 6797, 
  "ářské": 6798, 
  "věnují": 6799, 
  "náměstí": 6800, 
  "bio@@": 6801, 
  "arabský": 6802, 
  "nanejvýš": 6803, 
  "duchu": 6804, 
  "bon@@": 6805, 
  "organ@@": 6806, 
  "uvést": 6807, 
  "Medveděv": 6808, 
  "přijme": 6809, 
  "dovoz": 6810, 
  "rostoucím": 6811, 
  "pouští": 6812, 
  "vějších": 6813, 
  "podpořil": 6814, 
  "oběť": 6815, 
  "nor@@": 6816, 
  "charakter@@": 6817, 
  "účely": 6818, 
  "pouštět": 6819, 
  "osla@@": 6820, 
  "poradce": 6821, 
  "mírně": 6822, 
  "celosvětovou": 6823, 
  "ryb": 6824, 
  "logika": 6825, 
  "hranicemi": 6826, 
  "týkají": 6827, 
  "vládního": 6828, 
  "nezávislých": 6829, 
  "racionální": 6830, 
  "alternativu": 6831, 
  "daná": 6832, 
  "nejbližší": 6833, 
  "konstruk@@": 6834, 
  "úč@@": 6835, 
  "dohledné": 6836, 
  "úvěrových": 6837, 
  "katastrofální": 6838, 
  "vo": 6839, 
  "čená": 6840, 
  "způsobit": 6841, 
  "horizontu": 6842, 
  "akcept@@": 6843, 
  "Jugoslávii": 6844, 
  "vzpomín@@": 6845, 
  "neví": 6846, 
  "istický": 6847, 
  "omlu@@": 6848, 
  "protekcion@@": 6849, 
  "sign@@": 6850, 
  "označit": 6851, 
  "ryb@@": 6852, 
  "přístupů": 6853, 
  "škod": 6854, 
  "duševní": 6855, 
  "Jiho@@": 6856, 
  "načase": 6857, 
  "expertů": 6858, 
  "vězňů": 6859, 
  "kuje": 6860, 
  "nedostatečně": 6861, 
  "pas@@": 6862, 
  "nejvyšších": 6863, 
  "přistupovat": 6864, 
  "spousta": 6865, 
  "odmít@@": 6866, 
  "doufají": 6867, 
  "úzké": 6868, 
  "doporu@@": 6869, 
  "případu": 6870, 
  "manažerů": 6871, 
  "genetické": 6872, 
  "podstat@@": 6873, 
  "ozbrojené": 6874, 
  "otevřít": 6875, 
  "byrokracie": 6876, 
  "dik@@": 6877, 
  "iráckou": 6878, 
  "cu@@": 6879, 
  "znovu@@": 6880, 
  "zisku": 6881, 
  "základem": 6882, 
  "počítač@@": 6883, 
  "ic": 6884, 
  "demokrati@@": 6885, 
  "zahrnují": 6886, 
  "vzác@@": 6887, 
  "dnešního": 6888, 
  "aně": 6889, 
  "firemních": 6890, 
  "udrž@@": 6891, 
  "připad@@": 6892, 
  "K": 6893, 
  "neefektivní": 6894, 
  "moř@@": 6895, 
  "tuje": 6896, 
  "rozmanitost": 6897, 
  "c": 6898, 
  "úbytku": 6899, 
  "zákonodár@@": 6900, 
  "sousedů": 6901, 
  "jednotného": 6902, 
  "vyvážen@@": 6903, 
  "britských": 6904, 
  "bankami": 6905, 
  "livých": 6906, 
  "1,5": 6907, 
  "neznám@@": 6908, 
  "pojetí": 6909, 
  "končí": 6910, 
  "doslova": 6911, 
  "liví": 6912, 
  "vzdělávací": 6913, 
  "účinnou": 6914, 
  "zbývá": 6915, 
  "článku": 6916, 
  "šených": 6917, 
  "budoucím": 6918, 
  "depresi": 6919, 
  "otře@@": 6920, 
  "rozhodli": 6921, 
  "vedoucích": 6922, 
  "vznik@@": 6923, 
  "Rusů": 6924, 
  "historický": 6925, 
  "agentur": 6926, 
  "uhličitého": 6927, 
  "korporace": 6928, 
  "hromadění": 6929, 
  "podniknout": 6930, 
  "doby@@": 6931, 
  "nezmění": 6932, 
  "evropském": 6933, 
  "minister@@": 6934, 
  "rami": 6935, 
  "ovanému": 6936, 
  "tvrzením": 6937, 
  "dostatečné": 6938, 
  "autoritář@@": 6939, 
  "obvin@@": 6940, 
  "despo@@": 6941, 
  "zjit@@": 6942, 
  "odsu@@": 6943, 
  "rovi": 6944, 
  "chudými": 6945, 
  "nepřítele": 6946, 
  "celosvětových": 6947, 
  "brutální": 6948, 
  "beztak": 6949, 
  "dynam@@": 6950, 
  "kv@@": 6951, 
  "pochopitelné": 6952, 
  "chudobou": 6953, 
  "nadcházející": 6954, 
  "agentura": 6955, 
  "slabý": 6956, 
  "započ@@": 6957, 
  "zárukou": 6958, 
  "ori@@": 6959, 
  "shoda": 6960, 
  "hrdin@@": 6961, 
  "žádost": 6962, 
  "naplnit": 6963, 
  "izraelskou": 6964, 
  "odpověd@@": 6965, 
  "recept": 6966, 
  "umíst@@": 6967, 
  "generací": 6968, 
  "jistotou": 6969, 
  "ohrom@@": 6970, 
  "sob@@": 6971, 
  "sklad@@": 6972, 
  "ohlá@@": 6973, 
  "ceni": 6974, 
  "ropě": 6975, 
  "dubna": 6976, 
  "fundamentální": 6977, 
  "podmí@@": 6978, 
  "vytrvale": 6979, 
  "práv.": 6980, 
  "průmyslová": 6981, 
  "bohatší": 6982, 
  "povinnosti": 6983, 
  "prevence": 6984, 
  "severo@@": 6985, 
  "osobních": 6986, 
  "potlačit": 6987, 
  "dolů": 6988, 
  "zvýšené": 6989, 
  "zvětš@@": 6990, 
  "stimu@@": 6991, 
  "dohlí@@": 6992, 
  "prosperitě": 6993, 
  "konkurenceschop@@": 6994, 
  "navštívil": 6995, 
  "drá@@": 6996, 
  "8@@": 6997, 
  "myslím": 6998, 
  "zákonodárci": 6999, 
  "chyb": 7000, 
  "rozumu": 7001, 
  "zásahu": 7002, 
  "níme": 7003, 
  "zápas": 7004, 
  "zabývat": 7005, 
  "pohyb@@": 7006, 
  "provádět": 7007, 
  "odhal@@": 7008, 
  "hovat": 7009, 
  "intervencí": 7010, 
  "znečištění": 7011, 
  "rány": 7012, 
  "zhoršuje": 7013, 
  "jaře": 7014, 
  "23": 7015, 
  "koment@@": 7016, 
  "premiérem": 7017, 
  "bojů": 7018, 
  "výš@@": 7019, 
  "dokážeme": 7020, 
  "hodnotami": 7021, 
  "referendum": 7022, 
  "nezdar": 7023, 
  "holocaustu": 7024, 
  "sle@@": 7025, 
  "vyplá@@": 7026, 
  "host@@": 7027, 
  "potlačení": 7028, 
  "promí@@": 7029, 
  "elektr@@": 7030, 
  "označují": 7031, 
  "mýlí": 7032, 
  "novináři": 7033, 
  "plánů": 7034, 
  "sval@@": 7035, 
  "slep@@": 7036, 
  "následovala": 7037, 
  "nezávislý": 7038, 
  "vytvořili": 7039, 
  "prezidentský": 7040, 
  "myslel": 7041, 
  "evidentně": 7042, 
  "les@@": 7043, 
  "islamist@@": 7044, 
  "1973": 7045, 
  "starého": 7046, 
  "mechanismů": 7047, 
  "právům": 7048, 
  "plní": 7049, 
  "rovnováze": 7050, 
  "Brothers": 7051, 
  "poplatníků": 7052, 
  "uzav@@": 7053, 
  "jmenoval": 7054, 
  "zaklád@@": 7055, 
  "chem": 7056, 
  "guvernérů": 7057, 
  "schválení": 7058, 
  "árního": 7059, 
  "účty": 7060, 
  "formálně": 7061, 
  "bilanci": 7062, 
  "aktéři": 7063, 
  "bře@@": 7064, 
  "odu": 7065, 
  "zdiskredit@@": 7066, 
  "měnou": 7067, 
  "držení": 7068, 
  "užší": 7069, 
  "vzor@@": 7070, 
  "politikám": 7071, 
  "přiživ@@": 7072, 
  "dách": 7073, 
  "krajně": 7074, 
  "vstříc@@": 7075, 
  "vyt@@": 7076, 
  "rozšíří": 7077, 
  "zvítězit": 7078, 
  "přizpůsobit": 7079, 
  "radik@@": 7080, 
  "uváž@@": 7081, 
  "ovlivňuje": 7082, 
  "volné": 7083, 
  "nemáme": 7084, 
  "trestní": 7085, 
  "ěna": 7086, 
  "diskusí": 7087, 
  "ěním": 7088, 
  "kterém": 7089, 
  "zvolit": 7090, 
  "samotných": 7091, 
  "lač@@": 7092, 
  "zažívá": 7093, 
  "Polska": 7094, 
  "výrobních": 7095, 
  "čemuž": 7096, 
  "čů": 7097, 
  "entu": 7098, 
  "papež": 7099, 
  "tiky": 7100, 
  "diploma@@": 7101, 
  "univerzit": 7102, 
  "mizí": 7103, 
  "Japonci": 7104, 
  "pokusí": 7105, 
  "věnuje": 7106, 
  "mrav@@": 7107, 
  "pravidel@@": 7108, 
  "dě": 7109, 
  "zlata": 7110, 
  "David": 7111, 
  "řím": 7112, 
  "konzul@@": 7113, 
  "vrátila": 7114, 
  "jský": 7115, 
  "návštěvy": 7116, 
  "sboru": 7117, 
  "drob@@": 7118, 
  "záměrně": 7119, 
  "standardní": 7120, 
  "ast@@": 7121, 
  "žádným": 7122, 
  "šéfa": 7123, 
  "zásady": 7124, 
  "prosaz@@": 7125, 
  "partneři": 7126, 
  "Atlantiku": 7127, 
  "gene@@": 7128, 
  "obohac@@": 7129, 
  "ov": 7130, 
  "výrazné": 7131, 
  "cov@@": 7132, 
  "Mao": 7133, 
  "rů@@": 7134, 
  "áli": 7135, 
  "závěr": 7136, 
  "faktor": 7137, 
  "jednostran@@": 7138, 
  "případ@@": 7139, 
  "dostatečnou": 7140, 
  "uví@@": 7141, 
  "cel": 7142, 
  "stály": 7143, 
  "agenda": 7144, 
  "Kaddáfího": 7145, 
  "filozof@@": 7146, 
  "slo@@": 7147, 
  "rizikům": 7148, 
  "výro@@": 7149, 
  "divo@@": 7150, 
  "McCain": 7151, 
  "profesion@@": 7152, 
  "pre@@": 7153, 
  "nehledě": 7154, 
  "jist@@": 7155, 
  "HNP": 7156, 
  "álům": 7157, 
  "těs@@": 7158, 
  "obdiv@@": 7159, 
  "nabíd@@": 7160, 
  "začlenění": 7161, 
  "hůř": 7162, 
  "adap@@": 7163, 
  "odlišnosti": 7164, 
  "neposlední": 7165, 
  "chá@@": 7166, 
  "prioritu": 7167, 
  "zeď": 7168, 
  "založených": 7169, 
  "přemýš@@": 7170, 
  "vybrat": 7171, 
  "domácím": 7172, 
  "ovlivnit": 7173, 
  "šok": 7174, 
  "zaměření": 7175, 
  "wanu": 7176, 
  "nepodaří": 7177, 
  "štěné": 7178, 
  "debat@@": 7179, 
  "forem": 7180, 
  "ality": 7181, 
  "bolest": 7182, 
  "toler@@": 7183, 
  "II": 7184, 
  "Koreu": 7185, 
  "kandidáty": 7186, 
  "znepokojivé": 7187, 
  "vyvolané": 7188, 
  "dokon@@": 7189, 
  "poukaz@@": 7190, 
  "hovořil": 7191, 
  "obtížnější": 7192, 
  "niči@@": 7193, 
  "disponuje": 7194, 
  "vědom@@": 7195, 
  "vyzval": 7196, 
  "neúspěchu": 7197, 
  "poukáz@@": 7198, 
  "jednoznačně": 7199, 
  "livého": 7200, 
  "potřebnou": 7201, 
  "efektivnější": 7202, 
  "přítom@@": 7203, 
  "bývalých": 7204, 
  "právech": 7205, 
  "špatnou": 7206, 
  "vyhýbat": 7207, 
  "konkurovat": 7208, 
  "menšin": 7209, 
  "atele": 7210, 
  "vědě": 7211, 
  "zdokonal@@": 7212, 
  "přírody": 7213, 
  "ztrácí": 7214, 
  "čeno": 7215, 
  "jistém": 7216, 
  "Nicolas": 7217, 
  "výdaji": 7218, 
  "lek@@": 7219, 
  "rovnost": 7220, 
  "blí@@": 7221, 
  "přijaly": 7222, 
  "trendu": 7223, 
  "optim@@": 7224, 
  "ovlivňovat": 7225, 
  "statist@@": 7226, 
  "spojit": 7227, 
  "přístup@@": 7228, 
  "doufá": 7229, 
  "procesem": 7230, 
  "nacionalist@@": 7231, 
  "volá": 7232, 
  "projek@@": 7233, 
  "zavádět": 7234, 
  "kampani": 7235, 
  "globaliz@@": 7236, 
  "byt@@": 7237, 
  "gar@@": 7238, 
  "ohrožují": 7239, 
  "kolegové": 7240, 
  "korupcí": 7241, 
  "váží": 7242, 
  "zahraničního": 7243, 
  "vyvaž@@": 7244, 
  "jednotný": 7245, 
  "primární": 7246, 
  "zranitel@@": 7247, 
  "nepříjem@@": 7248, 
  "svobod": 7249, 
  "nízkých": 7250, 
  "zkrátka": 7251, 
  "přísnější": 7252, 
  "OOP": 7253, 
  "třetinu": 7254, 
  "příkladů": 7255, 
  "afghánské": 7256, 
  "naprav@@": 7257, 
  "impéria": 7258, 
  "partnera": 7259, 
  "jistotu": 7260, 
  "hodné": 7261, 
  "čest@@": 7262, 
  "podstatou": 7263, 
  "takzvaných": 7264, 
  "prodluž@@": 7265, 
  "výnos@@": 7266, 
  "důležitým": 7267, 
  "starou": 7268, 
  "požadavkům": 7269, 
  "závěry": 7270, 
  "televizi": 7271, 
  "mladší": 7272, 
  "liberálové": 7273, 
  "prohlá@@": 7274, 
  "určovat": 7275, 
  "intenzivní": 7276, 
  "překon@@": 7277, 
  "přímou": 7278, 
  "ju@@": 7279, 
  "pot@@": 7280, 
  "Moskvě": 7281, 
  "francouzsko": 7282, 
  "nezdaru": 7283, 
  "příštím": 7284, 
  "společným": 7285, 
  "B": 7286, 
  "py@@": 7287, 
  "kují": 7288, 
  "uprav@@": 7289, 
  "uvědom@@": 7290, 
  "pi@@": 7291, 
  "nské": 7292, 
  "řen": 7293, 
  "odhalila": 7294, 
  "pád@@": 7295, 
  "provin@@": 7296, 
  "istickou": 7297, 
  "ác@@": 7298, 
  "rající": 7299, 
  "nacházejí": 7300, 
  "lepšímu": 7301, 
  "stanovuje": 7302, 
  "žijících": 7303, 
  "koordinaci": 7304, 
  "světovým": 7305, 
  "tací": 7306, 
  "akciových": 7307, 
  "schodků": 7308, 
  "tismu": 7309, 
  "hvězd@@": 7310, 
  "liberálních": 7311, 
  "účastní": 7312, 
  "přijali": 7313, 
  "připustit": 7314, 
  "otevřený": 7315, 
  "soustřed@@": 7316, 
  "vrstvy": 7317, 
  "tajemníka": 7318, 
  "čet": 7319, 
  "hodno@@": 7320, 
  "vyjde": 7321, 
  "špatných": 7322, 
  "ztratil": 7323, 
  "mra@@": 7324, 
  "každodenní": 7325, 
  "orov@@": 7326, 
  "přísluš@@": 7327, 
  "intelektuálové": 7328, 
  "naprostou": 7329, 
  "činila": 7330, 
  "přímý": 7331, 
  "Lehman": 7332, 
  "1979": 7333, 
  "sdru@@": 7334, 
  "šky": 7335, 
  "prevenci": 7336, 
  "zajišťovat": 7337, 
  "ář@@": 7338, 
  "tržního": 7339, 
  "obrovského": 7340, 
  "příjmové": 7341, 
  "pozoruhod@@": 7342, 
  "postaví": 7343, 
  "vzta@@": 7344, 
  "schůzka": 7345, 
  "předklád@@": 7346, 
  "vážným": 7347, 
  "založen": 7348, 
  "veškerá": 7349, 
  "procesů": 7350, 
  "pákistánské": 7351, 
  "medi@@": 7352, 
  "zamě@@": 7353, 
  "klesl": 7354, 
  "vydal": 7355, 
  "dubnu": 7356, 
  "pokládána": 7357, 
  "jadernými": 7358, 
  "nene@@": 7359, 
  "ničí": 7360, 
  "pokroky": 7361, 
  "důkazem": 7362, 
  "elektrárny": 7363, 
  "právy": 7364, 
  "týmu": 7365, 
  "atelné": 7366, 
  "Jugoslávie": 7367, 
  "nedostatečné": 7368, 
  "zjistil": 7369, 
  "smluv": 7370, 
  "zločin": 7371, 
  "nání": 7372, 
  "Egypta": 7373, 
  "nět": 7374, 
  "přitažlivost": 7375, 
  "raket": 7376, 
  "maxim@@": 7377, 
  "tala": 7378, 
  "svědčí": 7379, 
  "počínání": 7380, 
  "konkuren@@": 7381, 
  "logiku": 7382, 
  "vojenským": 7383, 
  "jistým": 7384, 
  "stávajících": 7385, 
  "obyčejní": 7386, 
  "radě": 7387, 
  "zabíjení": 7388, 
  "uvádí": 7389, 
  "ate@@": 7390, 
  "rozpočtů": 7391, 
  "rodin@@": 7392, 
  "údajů": 7393, 
  "otevřenost": 7394, 
  "mobilizovat": 7395, 
  "víra": 7396, 
  "katolic@@": 7397, 
  "ěných": 7398, 
  "činů": 7399, 
  "světovém": 7400, 
  "zpravodajství": 7401, 
  "zakaz@@": 7402, 
  "závislé": 7403, 
  "pozorovatelů": 7404, 
  "rozvojového": 7405, 
  "řená": 7406, 
  "lena": 7407, 
  "hra": 7408, 
  "posil@@": 7409, 
  "něno": 7410, 
  "rozhodly": 7411, 
  "tv@@": 7412, 
  "prodáv@@": 7413, 
  "fundamentalist@@": 7414, 
  "tivnější": 7415, 
  "nerov@@": 7416, 
  "vytvořilo": 7417, 
  "zeměkouli": 7418, 
  "zveli@@": 7419, 
  "záměr@@": 7420, 
  "zjev@@": 7421, 
  "zásadně": 7422, 
  "stejná": 7423, 
  "snažila": 7424, 
  "vem": 7425, 
  "dvojí": 7426, 
  "zaměř@@": 7427, 
  "vládním": 7428, 
  "sledují": 7429, 
  "vzpomínky": 7430, 
  "Brown": 7431, 
  "Google": 7432, 
  "ovan@@": 7433, 
  "tox@@": 7434, 
  "hranicích": 7435, 
  "sampnbsp": 7436, 
  "pohodl@@": 7437, 
  "ochrán@@": 7438, 
  "mlad@@": 7439, 
  "gu@@": 7440, 
  "šťast@@": 7441, 
  "povzbudit": 7442, 
  "úmluvy": 7443, 
  "veden@@": 7444, 
  "polské": 7445, 
  "vůdcem": 7446, 
  "znamenala": 7447, 
  "kampnbsp": 7448, 
  "seškr@@": 7449, 
  "dosahují": 7450, 
  "lepším": 7451, 
  "šování": 7452, 
  "vodní": 7453, 
  "rovala": 7454, 
  "zvyk@@": 7455, 
  "souhlasit": 7456, 
  "zemního": 7457, 
  "transatlantické": 7458, 
  "vazeb": 7459, 
  "stanice": 7460, 
  "nalez@@": 7461, 
  "vznikne": 7462, 
  "mal": 7463, 
  "rétoriku": 7464, 
  "potravin@@": 7465, 
  "zpět@@": 7466, 
  "Maďarsku": 7467, 
  "jšími": 7468, 
  "jská": 7469, 
  "slabosti": 7470, 
  "přišli": 7471, 
  "duchovní": 7472, 
  "prezidentu": 7473, 
  "opatr@@": 7474, 
  "farm@@": 7475, 
  "obraně": 7476, 
  "ideologické": 7477, 
  "fiskálním": 7478, 
  "tajné": 7479, 
  "plynou": 7480, 
  "ukon@@": 7481, 
  "čast@@": 7482, 
  "počty": 7483, 
  "dat": 7484, 
  "hůře": 7485, 
  "protiv@@": 7486, 
  "vypl@@": 7487, 
  "faleš@@": 7488, 
  "bývalo": 7489, 
  "Ob@@": 7490, 
  "zapojení": 7491, 
  "scénu": 7492, 
  "věd@@": 7493, 
  "podílet": 7494, 
  "tre@@": 7495, 
  "zaměstnan@@": 7496, 
  "istických": 7497, 
  "spekulativní": 7498, 
  "identi@@": 7499, 
  "rakety": 7500, 
  "lování": 7501, 
  "jní": 7502, 
  "jem": 7503, 
  "ihned": 7504, 
  "daných": 7505, 
  "skup@@": 7506, 
  "armádou": 7507, 
  "kategorie": 7508, 
  "kontraproduktivní": 7509, 
  "opomí@@": 7510, 
  "vlastnosti": 7511, 
  "nalé@@": 7512, 
  "průhled@@": 7513, 
  "Miloševič@@": 7514, 
  "stát@@": 7515, 
  "Ky@@": 7516, 
  "uživ@@": 7517, 
  "konsolidace": 7518, 
  "důležit@@": 7519, 
  "pest@@": 7520, 
  "ochota": 7521, 
  "zániku": 7522, 
  "objevil": 7523, 
  "okolní": 7524, 
  "váleč@@": 7525, 
  "podí@@": 7526, 
  "řeší": 7527, 
  "mobili@@": 7528, 
  "1.": 7529, 
  "prosper@@": 7530, 
  "17@@": 7531, 
  "typy": 7532, 
  "důchod@@": 7533, 
  "dokonale": 7534, 
  "snížením": 7535, 
  "posílil": 7536, 
  "nejnovější": 7537, 
  "cházely": 7538, 
  "jasnou": 7539, 
  "věř@@": 7540, 
  "kombin@@": 7541, 
  "tují": 7542, 
  "1981": 7543, 
  "čovat": 7544, 
  "cizí": 7545, 
  "anosti": 7546, 
  "akcionářů": 7547, 
  "naposledy": 7548, 
  "alo@@": 7549, 
  "6,@@": 7550, 
  "aktivisté": 7551, 
  "pokrač@@": 7552, 
  "populaci": 7553, 
  "čtyř@@": 7554, 
  "slíb@@": 7555, 
  "důstoj@@": 7556, 
  "nejsilnější": 7557, 
  "drog@@": 7558, 
  "srpna": 7559, 
  "zůstaly": 7560, 
  "zatížení": 7561, 
  "režimem": 7562, 
  "nul@@": 7563, 
  "potravinové": 7564, 
  "katastrofě": 7565, 
  "Sch@@": 7566, 
  "vlnu": 7567, 
  "vějším": 7568, 
  "změnách": 7569, 
  "telnou": 7570, 
  "jakéhokoliv": 7571, 
  "částka": 7572, 
  "infrastruktura": 7573, 
  "záchrany": 7574, 
  "zením": 7575, 
  "voda": 7576, 
  "zjistí": 7577, 
  "posílila": 7578, 
  "získalo": 7579, 
  "klesají": 7580, 
  "St@@": 7581, 
  "komunit": 7582, 
  "zásahy": 7583, 
  "miliard@@": 7584, 
  "Bushově": 7585, 
  "Bill": 7586, 
  "Koreou": 7587, 
  "telným": 7588, 
  "výstup": 7589, 
  "pouhý": 7590, 
  "uklid@@": 7591, 
  "klo": 7592, 
  "nepřímo": 7593, 
  "ovacích": 7594, 
  "modelů": 7595, 
  "udržitelného": 7596, 
  "realitě": 7597, 
  "kvalit@@": 7598, 
  "onoho": 7599, 
  "alismem": 7600, 
  "palestinská": 7601, 
  "sleduje": 7602, 
  "ance": 7603, 
  "systematicky": 7604, 
  "řeš@@": 7605, 
  "dekády": 7606, 
  "přehnané": 7607, 
  "dokonal@@": 7608, 
  "kontrolní": 7609, 
  "ňovali": 7610, 
  "letecké": 7611, 
  "měření": 7612, 
  "civilizací": 7613, 
  "formulovat": 7614, 
  "zaměřovat": 7615, 
  "liš@@": 7616, 
  "oddanost": 7617, 
  "arabsko": 7618, 
  "produ@@": 7619, 
  "imperiální": 7620, 
  "19": 7621, 
  "odstav@@": 7622, 
  "podél": 7623, 
  "lékařské": 7624, 
  "prodlou@@": 7625, 
  "rakou@@": 7626, 
  "mlčení": 7627, 
  "hrad@@": 7628, 
  "překážku": 7629, 
  "výdajích": 7630, 
  "jakési": 7631, 
  "známý": 7632, 
  "nerovnováhy": 7633, 
  "přijatelné": 7634, 
  "proměn@@": 7635, 
  "rozum@@": 7636, 
  "sféře": 7637, 
  "zneu@@": 7638, 
  "rob@@": 7639, 
  "bolesti@@": 7640, 
  "investicemi": 7641, 
  "hypoté@@": 7642, 
  "principů": 7643, 
  "řízením": 7644, 
  "osek@@": 7645, 
  "zkorumpov@@": 7646, 
  "bezpečnější": 7647, 
  "výrobci": 7648, 
  "tik": 7649, 
  "promr@@": 7650, 
  "analýza": 7651, 
  "univerz@@": 7652, 
  "chatr@@": 7653, 
  "kupovat": 7654, 
  "dotaz@@": 7655, 
  "vlá@@": 7656, 
  "kmenové": 7657, 
  "špatný": 7658, 
  "rovaly": 7659, 
  "širo@@": 7660, 
  "L": 7661, 
  "vymáhání": 7662, 
  "papí@@": 7663, 
  "uskuteční": 7664, 
  "ich@@": 7665, 
  "úředníků": 7666, 
  "žebříčku": 7667, 
  "varoval": 7668, 
  "upad@@": 7669, 
  "ora": 7670, 
  "rozpětí": 7671, 
  "jedine@@": 7672, 
  "dlouhodobým": 7673, 
  "domov@@": 7674, 
  "export@@": 7675, 
  "rozsáhlejší": 7676, 
  "institucích": 7677, 
  "oslabuje": 7678, 
  "nestojí": 7679, 
  "Tureckem": 7680, 
  "údaj@@": 7681, 
  "přeshraniční": 7682, 
  "Car@@": 7683, 
  "instink@@": 7684, 
  "obratu": 7685, 
  "úmyslu": 7686, 
  "ostr@@": 7687, 
  "konzervativ@@": 7688, 
  "hospodářsky": 7689, 
  "přebytku": 7690, 
  "anta": 7691, 
  "vyplý@@": 7692, 
  "jet": 7693, 
  "Siao": 7694, 
  "huje": 7695, 
  "výjime@@": 7696, 
  "ekonomickém": 7697, 
  "hře": 7698, 
  "definice": 7699, 
  "jád@@": 7700, 
  "zranitelnost": 7701, 
  "dosáhli": 7702, 
  "tvorbě": 7703, 
  "transparentnost": 7704, 
  "nesmír@@": 7705, 
  "Se@@": 7706, 
  "náročné": 7707, 
  "orem": 7708, 
  "přerušení": 7709, 
  "dobrovolně": 7710, 
  "pocity": 7711, 
  "umě@@": 7712, 
  "nedávném": 7713, 
  "těšit": 7714, 
  "voli@@": 7715, 
  "rozšiřovat": 7716, 
  "univerzitě": 7717, 
  "myšlence": 7718, 
  "1968": 7719, 
  "kovi": 7720, 
  "cyklus": 7721, 
  "růst@@": 7722, 
  "pozorov@@": 7723, 
  "hlouběji": 7724, 
  "oddělení": 7725, 
  "píše": 7726, 
  "žijící": 7727, 
  "projevila": 7728, 
  "strukturálních": 7729, 
  "osvoj@@": 7730, 
  "pacienti": 7731, 
  "žitel@@": 7732, 
  "institucionálních": 7733, 
  "udržitel@@": 7734, 
  "převzít": 7735, 
  "systémové": 7736, 
  "zajisté": 7737, 
  "spotřebitelské": 7738, 
  "šek": 7739, 
  "neudržitelné": 7740, 
  "přiví@@": 7741, 
  "šený": 7742, 
  "šejí": 7743, 
  "jaderným": 7744, 
  "bankrotu": 7745, 
  "působ@@": 7746, 
  "vytlač@@": 7747, 
  "vybavení": 7748, 
  "turecká": 7749, 
  "nesla": 7750, 
  "dřívějších": 7751, 
  "gi@@": 7752, 
  "formu@@": 7753, 
  "předpoklady": 7754, 
  "podni@@": 7755, 
  "evrop@@": 7756, 
  "daný": 7757, 
  "ářství": 7758, 
  "nejas@@": 7759, 
  "az@@": 7760, 
  "jiho@@": 7761, 
  "kav@@": 7762, 
  "úvě@@": 7763, 
  "zemědělci": 7764, 
  "podobá": 7765, 
  "cenám": 7766, 
  "úrovních": 7767, 
  "kle@@": 7768, 
  "jsí": 7769, 
  "správný": 7770, 
  "nejbohatší": 7771, 
  "konven@@": 7772, 
  "stála": 7773, 
  "zvý@@": 7774, 
  "neví@@": 7775, 
  "současným": 7776, 
  "Izraelců": 7777, 
  "přijí@@": 7778, 
  "blahobytu": 7779, 
  "nepřijatelné": 7780, 
  "smyslu@@": 7781, 
  "2,@@": 7782, 
  "cházel": 7783, 
  "tvrdili": 7784, 
  "vodou": 7785, 
  "tk@@": 7786, 
  "dalece": 7787, 
  "mohutné": 7788, 
  "uspokoj@@": 7789, 
  "přemí@@": 7790, 
  "nesl": 7791, 
  "stranické": 7792, 
  "Židé": 7793, 
  "solidaritu": 7794, 
  "jiném": 7795, 
  "ani@@": 7796, 
  "padesát": 7797, 
  "životem": 7798, 
  "cenách": 7799, 
  "chají": 7800, 
  "vyššími": 7801, 
  "nejistotu": 7802, 
  "chorob": 7803, 
  "jedna@@": 7804, 
  "jů": 7805, 
  "mechanismu": 7806, 
  "odmítání": 7807, 
  "známe": 7808, 
  "zajišťují": 7809, 
  "matu": 7810, 
  "fundament@@": 7811, 
  "zahrnující": 7812, 
  "onem": 7813, 
  "bankéřů": 7814, 
  "liby@@": 7815, 
  "hindu@@": 7816, 
  "chybě@@": 7817, 
  "naklon@@": 7818, 
  "1929": 7819, 
  "demokraty": 7820, 
  "telů": 7821, 
  "8,@@": 7822, 
  "odlo@@": 7823, 
  "křeh@@": 7824, 
  "itních": 7825, 
  "levic@@": 7826, 
  "tého": 7827, 
  "obyčejných": 7828, 
  "rizikových": 7829, 
  "masak@@": 7830, 
  "krátkozra@@": 7831, 
  "přeruš@@": 7832, 
  "skončit": 7833, 
  "reagují": 7834, 
  "Lu@@": 7835, 
  "kontinentální": 7836, 
  "řadí": 7837, 
  "čený": 7838, 
  "částe@@": 7839, 
  "klesla": 7840, 
  "spoustu": 7841, 
  "pochopili": 7842, 
  "výraz": 7843, 
  "Berkeley": 7844, 
  "časech": 7845, 
  "važ@@": 7846, 
  "nestane": 7847, 
  "ohrož@@": 7848, 
  "mobilní": 7849, 
  "přinesou": 7850, 
  "posilovat": 7851, 
  "rozpad": 7852, 
  "ovské": 7853, 
  "signál": 7854, 
  "ovládá": 7855, 
  "zápla@@": 7856, 
  "stáhnout": 7857, 
  "blíže": 7858, 
  "posledku": 7859, 
  "zničující": 7860, 
  "Dánsko": 7861, 
  "dat@@": 7862, 
  "uspořád@@": 7863, 
  "letošním": 7864, 
  "zmenš@@": 7865, 
  "dují": 7866, 
  "pochybovat": 7867, 
  "vkladů": 7868, 
  "předsti@@": 7869, 
  "ránu": 7870, 
  "pouhými": 7871, 
  "rysem": 7872, 
  "nepokoje": 7873, 
  "kontrola": 7874, 
  "elit": 7875, 
  "čistý": 7876, 
  "nemohla": 7877, 
  "situací": 7878, 
  "prostý": 7879, 
  "kam@@": 7880, 
  "rozvojovou": 7881, 
  "křehké": 7882, 
  "pověst": 7883, 
  "rozptý@@": 7884, 
  "Libye": 7885, 
  "soukromým": 7886, 
  "selh@@": 7887, 
  "intelektu@@": 7888, 
  "desá@@": 7889, 
  "denní": 7890, 
  "saúd@@": 7891, 
  "tele@@": 7892, 
  "neschop@@": 7893, 
  "řovat": 7894, 
  "suverénních": 7895, 
  "vyplývající": 7896, 
  "ekologických": 7897, 
  "stě": 7898, 
  "předcházet": 7899, 
  "jindy": 7900, 
  "tních": 7901, 
  "jinam": 7902, 
  "Me@@": 7903, 
  "vážný": 7904, 
  "mluv@@": 7905, 
  "právním": 7906, 
  "ovatelé": 7907, 
  "čích": 7908, 
  "elektráren": 7909, 
  "riziky": 7910, 
  "elita": 7911, 
  "ologie": 7912, 
  "prochází": 7913, 
  "třetina": 7914, 
  "číst": 7915, 
  "projevit": 7916, 
  "ocel@@": 7917, 
  "objev@@": 7918, 
  "barm@@": 7919, 
  "svědkem": 7920, 
  "měkká": 7921, 
  "příslušníci": 7922, 
  "svobod@@": 7923, 
  "kau@@": 7924, 
  "Kar@@": 7925, 
  "nevládní": 7926, 
  "výzkumy": 7927, 
  "čten@@": 7928, 
  "Jelcin": 7929, 
  "zprvu": 7930, 
  "akciové": 7931, 
  "&#93;": 7932, 
  "výzvami": 7933, 
  "&#91;": 7934, 
  "hlubokou": 7935, 
  "severokorej@@": 7936, 
  "náh@@": 7937, 
  "pochop@@": 7938, 
  "historickou": 7939, 
  "poptávce": 7940, 
  "vysvětlovat": 7941, 
  "ASEAN": 7942, 
  "řena": 7943, 
  "rozpory": 7944, 
  "překonání": 7945, 
  "stříz@@": 7946, 
  "zaveden@@": 7947, 
  "schůzky": 7948, 
  "nestalo": 7949, 
  "čečen@@": 7950, 
  "dlouhého": 7951, 
  "iluze": 7952, 
  "oup@@": 7953, 
  "živobytí": 7954, 
  "tř@@": 7955, 
  "efektiv@@": 7956, 
  "věřil": 7957, 
  "dramatic@@": 7958, 
  "překvapivé": 7959, 
  "čas.": 7960, 
  "protest@@": 7961, 
  "základního": 7962, 
  "přesunout": 7963, 
  "krátkodobých": 7964, 
  "bezpeč@@": 7965, 
  "teč@@": 7966, 
  "způsobilo": 7967, 
  "pnutí": 7968, 
  "prosazení": 7969, 
  "ciz@@": 7970, 
  "rodinu": 7971, 
  "Paul": 7972, 
  "jižním": 7973, 
  "zajistilo": 7974, 
  "sanace": 7975, 
  "Kodaň": 7976, 
  "odě@@": 7977, 
  "směrnice": 7978, 
  "naším": 7979, 
  "rům": 7980, 
  "hypoteční": 7981, 
  "fakticky": 7982, 
  "hluboký": 7983, 
  "Na@@": 7984, 
  "Har@@": 7985, 
  "irácký": 7986, 
  "nestabilní": 7987, 
  "volebním": 7988, 
  "tici": 7989, 
  "koloniální": 7990, 
  "zaznamenala": 7991, 
  "700": 7992, 
  "napomoci": 7993, 
  "ček@@": 7994, 
  "slibuje": 7995, 
  "výzvám": 7996, 
  "izolaci": 7997, 
  "důležitých": 7998, 
  "průhlednost": 7999, 
  "oprav@@": 8000, 
  "cokoli": 8001, 
  "stabilizovat": 8002, 
  "volbám": 8003, 
  "korek@@": 8004, 
  "obrana": 8005, 
  "stíhání": 8006, 
  "ono": 8007, 
  "objevuje": 8008, 
  "generál": 8009, 
  "pohř@@": 8010, 
  "Rud@@": 8011, 
  "pákistán@@": 8012, 
  "pou": 8013, 
  "firmami": 8014, 
  "konfrontaci": 8015, 
  "náhod@@": 8016, 
  "příslib": 8017, 
  "Fatahu": 8018, 
  "Johna": 8019, 
  "léčit": 8020, 
  "kovými": 8021, 
  "uživatelů": 8022, 
  "padá": 8023, 
  "odborníci": 8024, 
  "zahájen@@": 8025, 
  "léčba": 8026, 
  "dramatické": 8027, 
  "částku": 8028, 
  "autoritu": 8029, 
  "přeprav@@": 8030, 
  "áty": 8031, 
  "setk@@": 8032, 
  "tažení": 8033, 
  "počáteční": 8034, 
  "regulačních": 8035, 
  "leti@@": 8036, 
  "přijatel@@": 8037, 
  "ztěles@@": 8038, 
  "og@@": 8039, 
  "muselo": 8040, 
  "nami": 8041, 
  "iná@@": 8042, 
  "zaplatí": 8043, 
  "absurdní": 8044, 
  "zvyšující": 8045, 
  "sklád@@": 8046, 
  "lidové": 8047, 
  "naplnění": 8048, 
  "přená@@": 8049, 
  "zemřel": 8050, 
  "tělo": 8051, 
  "Švédsko": 8052, 
  "okamžité": 8053, 
  "léčiv": 8054, 
  "respekt": 8055, 
  "konkrétním": 8056, 
  "rovali": 8057, 
  "prokázat": 8058, 
  "tika": 8059, 
  "ženám": 8060, 
  "federace": 8061, 
  "zavedl": 8062, 
  "zlepš@@": 8063, 
  "noční": 8064, 
  "obyčej@@": 8065, 
  "zažívají": 8066, 
  "istickým": 8067, 
  "Berlín": 8068, 
  "áda": 8069, 
  "znemož@@": 8070, 
  "obdob@@": 8071, 
  "výsad@@": 8072, 
  "krizím": 8073, 
  "pomalý": 8074, 
  "dětské": 8075, 
  "antů": 8076, 
  "zúčast@@": 8077, 
  "správě": 8078, 
  "společnostem": 8079, 
  "spal@@": 8080, 
  "Britové": 8081, 
  "zhodno@@": 8082, 
  "nemohli": 8083, 
  "určování": 8084, 
  "rozměr": 8085, 
  "dramatický": 8086, 
  "distribuce": 8087, 
  "Di@@": 8088, 
  "všeobecnou": 8089, 
  "biologické": 8090, 
  "žádají": 8091, 
  "devět": 8092, 
  "jakýkoli": 8093, 
  "zvaž@@": 8094, 
  "čnímu": 8095, 
  "psycholog@@": 8096, 
  "okraj@@": 8097, 
  "Obamu": 8098, 
  "nevinných": 8099, 
  "jedinců": 8100, 
  "začátkem": 8101, 
  "přetrv@@": 8102, 
  "jádru": 8103, 
  "zdr@@": 8104, 
  "automobilů": 8105, 
  "ury": 8106, 
  "látky": 8107, 
  "důvěryhod@@": 8108, 
  "Kanada": 8109, 
  "ějšího": 8110, 
  "pravicové": 8111, 
  "Sou@@": 8112, 
  "jak@@": 8113, 
  "Latinská": 8114, 
  "potřebný": 8115, 
  "katastrofa": 8116, 
  "chron@@": 8117, 
  "správní": 8118, 
  "nehod@@": 8119, 
  "překážek": 8120, 
  "jmenovat": 8121, 
  "libanonské": 8122, 
  "čínským": 8123, 
  "libanon@@": 8124, 
  "Libanon": 8125, 
  "vím": 8126, 
  "zodpověd@@": 8127, 
  "Sýrií": 8128, 
  "narušení": 8129, 
  "nale@@": 8130, 
  "víře": 8131, 
  "nákup": 8132, 
  "opakování": 8133, 
  "prohlaš@@": 8134, 
  "unu": 8135, 
  "onů": 8136, 
  "ztroskot@@": 8137, 
  "Belgie": 8138, 
  "šo@@": 8139, 
  "zdravý": 8140, 
  "sever@@": 8141, 
  "ved@@": 8142, 
  "překotně": 8143, 
  "dodržovat": 8144, 
  "odhad": 8145, 
  "základu": 8146, 
  "-@@": 8147, 
  "politikové": 8148, 
  "mluví": 8149, 
  "sa": 8150, 
  "zaví@@": 8151, 
  "var@@": 8152, 
  "vznikající": 8153, 
  "prospěš@@": 8154, 
  "liv@@": 8155, 
  "špičkových": 8156, 
  "sejdou": 8157, 
  "spor@@": 8158, 
  "získávat": 8159, 
  "rových": 8160, 
  "prosazují": 8161, 
  "daňoví": 8162, 
  "poplatníci": 8163, 
  "sjednotit": 8164, 
  "dlouholet@@": 8165, 
  "dosahovat": 8166, 
  "spis@@": 8167, 
  "elektrár@@": 8168, 
  "ustavení": 8169, 
  "složit@@": 8170, 
  "projevem": 8171, 
  "lédnout": 8172, 
  "Bernanke": 8173, 
  "úva@@": 8174, 
  "udělali": 8175, 
  "plná": 8176, 
  "bývalým": 8177, 
  "přiměřen@@": 8178, 
  "mech": 8179, 
  "doufejme": 8180, 
  "nečinnost": 8181, 
  "Dž@@": 8182, 
  "komunistická": 8183, 
  "zřetelné": 8184, 
  "ohrozit": 8185, 
  "ode": 8186, 
  "fe@@": 8187, 
  "velení": 8188, 
  "rázně": 8189, 
  "kontrolov@@": 8190, 
  "účinnější": 8191, 
  "kontinent": 8192, 
  "nejlepších": 8193, 
  "průzkumu": 8194, 
  "prode@@": 8195, 
  "černo@@": 8196, 
  "uzdě": 8197, 
  "vlek@@": 8198, 
  "otce": 8199, 
  "potírání": 8200, 
  "65": 8201, 
  "alianci": 8202, 
  "priorit": 8203, 
  "pohlíží": 8204, 
  "regist@@": 8205, 
  "zen": 8206, 
  "napodob@@": 8207, 
  "U": 8208, 
  "naléhavé": 8209, 
  "zoufalství": 8210, 
  "nevyvážen@@": 8211, 
  "položit": 8212, 
  "odvahu": 8213, 
  "zvážit": 8214, 
  "debat": 8215, 
  "vostí": 8216, 
  "pozem@@": 8217, 
  "elo": 8218, 
  "provoz@@": 8219, 
  "kovala": 8220, 
  "prezent@@": 8221, 
  "akcí": 8222, 
  "rav@@": 8223, 
  "nepřest@@": 8224, 
  "ztratily": 8225, 
  "křiv@@": 8226, 
  "lídra": 8227, 
  "bou@@": 8228, 
  "kově": 8229, 
  "dočasné": 8230, 
  "20@@": 8231, 
  "zřejmý": 8232, 
  "pracovníky": 8233, 
  "zna@@": 8234, 
  "kus": 8235, 
  "načasování": 8236, 
  "sch@@": 8237, 
  "japonských": 8238, 
  "dluhovou": 8239, 
  "menšího": 8240, 
  "vys@@": 8241, 
  "kremel@@": 8242, 
  "téže": 8243, 
  "vymě@@": 8244, 
  "strategická": 8245, 
  "běžném": 8246, 
  "ústav@@": 8247, 
  "telem": 8248, 
  "očivid@@": 8249, 
  "atd.": 8250, 
  "volbou": 8251, 
  "nákupy": 8252, 
  "rní": 8253, 
  "centraliz@@": 8254, 
  "mode@@": 8255, 
  "závislá": 8256, 
  "naprosté": 8257, 
  "čel@@": 8258, 
  "Putinovi": 8259, 
  "postihuje": 8260, 
  "zastí@@": 8261, 
  "řeči": 8262, 
  "obý@@": 8263, 
  "nit@@": 8264, 
  "budoucího": 8265, 
  "zřejmá": 8266, 
  "potra@@": 8267, 
  "ňováním": 8268, 
  "obava": 8269, 
  "ztrátě": 8270, 
  "záměr": 8271, 
  "nohy": 8272, 
  "prosperita": 8273, 
  "stránku": 8274, 
  "transakce": 8275, 
  "vyzývá": 8276, 
  "intenz@@": 8277, 
  "přesné": 8278, 
  "argumentem": 8279, 
  "upřímně": 8280, 
  "morálně": 8281, 
  "předložil": 8282, 
  "Angela": 8283, 
  "uplatnit": 8284, 
  "usilovně": 8285, 
  "úctu": 8286, 
  "japonského": 8287, 
  "hlu@@": 8288, 
  "zajiště@@": 8289, 
  "kontra@@": 8290, 
  "fa": 8291, 
  "hodnotou": 8292, 
  "balík": 8293, 
  "Mušaraf@@": 8294, 
  "nický": 8295, 
  "lec@@": 8296, 
  "vyústit": 8297, 
  "správa": 8298, 
  "vš@@": 8299, 
  "útokem": 8300, 
  "stv@@": 8301, 
  "převahu": 8302, 
  "vystup@@": 8303, 
  "tvrdá": 8304, 
  "ili@@": 8305, 
  "prémie": 8306, 
  "děsi@@": 8307, 
  "nestabilita": 8308, 
  "civiliz@@": 8309, 
  "vytra@@": 8310, 
  "kapitálového": 8311, 
  "nucen": 8312, 
  "trag@@": 8313, 
  "nechal": 8314, 
  "nižším": 8315, 
  "normálních": 8316, 
  "Vladimir": 8317, 
  "měřítek": 8318, 
  "židov@@": 8319, 
  "hlavou": 8320, 
  "chmur@@": 8321, 
  "kontrolovat": 8322, 
  "snad@@": 8323, 
  "zvítězil": 8324, 
  "životním": 8325, 
  "nová@@": 8326, 
  "promě@@": 8327, 
  "skrom@@": 8328, 
  "vznikají": 8329, 
  "harmon@@": 8330, 
  "vysokoškol@@": 8331, 
  "nadhodno@@": 8332, 
  "uskutečnění": 8333, 
  "přis@@": 8334, 
  "bojuje": 8335, 
  "zkraje": 8336, 
  "ick@@": 8337, 
  "partnerů": 8338, 
  "tali": 8339, 
  "širšího": 8340, 
  "spekulace": 8341, 
  "anty": 8342, 
  "atelé": 8343, 
  "předpoklád@@": 8344, 
  "vrá@@": 8345, 
  "myšlenkou": 8346, 
  "Tálibánu": 8347, 
  "lující": 8348, 
  "jakousi": 8349, 
  "žející": 8350, 
  "řeny": 8351, 
  "sedmdesátých": 8352, 
  "rozvíjejícími": 8353, 
  "přeh@@": 8354, 
  "klesne": 8355, 
  "ministerského": 8356, 
  "vysokého": 8357, 
  "varov@@": 8358, 
  "ancí": 8359, 
  "místním": 8360, 
  "učení": 8361, 
  "podnikatelské": 8362, 
  "strádání": 8363, 
  "viděl": 8364, 
  "odklád@@": 8365, 
  "technologiích": 8366, 
  "vážná": 8367, 
  "utrpí": 8368, 
  "jüanu": 8369, 
  "posou@@": 8370, 
  "linii": 8371, 
  "mzdové": 8372, 
  "prask@@": 8373, 
  "tace": 8374, 
  "moderni@@": 8375, 
  "ačních": 8376, 
  "zákonem": 8377, 
  "větsina": 8378, 
  "průměr": 8379, 
  "dozajista": 8380, 
  "nízkým": 8381, 
  "újmu": 8382, 
  "odhaluje": 8383, 
  "zasáhnout": 8384, 
  "pokoj@@": 8385, 
  "korekce": 8386, 
  "svoji": 8387, 
  "planetě": 8388, 
  "víc@@": 8389, 
  "výpad@@": 8390, 
  "person@@": 8391, 
  "alizují": 8392, 
  "zavedla": 8393, 
  "ropného": 8394, 
  "směnné": 8395, 
  "silám": 8396, 
  "prosté": 8397, 
  "dalekosáh@@": 8398, 
  "vzne@@": 8399, 
  "kurz@@": 8400, 
  "okraji": 8401, 
  "skupinám": 8402, 
  "zvítězí": 8403, 
  "zpravodaj@@": 8404, 
  "plodí": 8405, 
  "stal@@": 8406, 
  "měsíční": 8407, 
  "2030": 8408, 
  "ard": 8409, 
  "energe@@": 8410, 
  "poválečné": 8411, 
  "zastánce": 8412, 
  "švýcar@@": 8413, 
  "vybud@@": 8414, 
  "geneticky": 8415, 
  "Arabů": 8416, 
  "klin@@": 8417, 
  "hráče": 8418, 
  "vážnější": 8419, 
  "domnívám": 8420, 
  "barel": 8421, 
  "suverénního": 8422, 
  "Španělska": 8423, 
  "ekonomikám": 8424, 
  "hy@@": 8425, 
  "top@@": 8426, 
  "znepokoji@@": 8427, 
  "entům": 8428, 
  "skupinou": 8429, 
  "úspěšnou": 8430, 
  "král": 8431, 
  "předpokládejme": 8432, 
  "odmítla": 8433, 
  "motorem": 8434, 
  "celkových": 8435, 
  "slabost": 8436, 
  "usil@@": 8437, 
  "Mal@@": 8438, 
  "příčinu": 8439, 
  "mylné": 8440, 
  "patrně": 8441, 
  "smu": 8442, 
  "suverenitu": 8443, 
  "ct@@": 8444, 
  "venkovských": 8445, 
  "odsun@@": 8446, 
  "zakrý@@": 8447, 
  "administrativu": 8448, 
  "Si@@": 8449, 
  "Mon@@": 8450, 
  "prohlubující": 8451, 
  "ulic": 8452, 
  "autoritářské": 8453, 
  "enta": 8454, 
  "arabským": 8455, 
  "klad": 8456, 
  "psal": 8457, 
  "prvek": 8458, 
  "vlast": 8459, 
  "trhem": 8460, 
  "nos@@": 8461, 
  "div@@": 8462, 
  "ativ@@": 8463, 
  "tradičním": 8464, 
  "Nigérie": 8465, 
  "sví@@": 8466, 
  "všeobecný": 8467, 
  "předešlo": 8468, 
  "mod@@": 8469, 
  "jců": 8470, 
  "bezprostředně": 8471, 
  "technologických": 8472, 
  "Irska": 8473, 
  "věk": 8474, 
  "žívá": 8475, 
  "nechvalně": 8476, 
  "padesáti": 8477, 
  "jmění": 8478, 
  "zavedením": 8479, 
  "kované": 8480, 
  "okraj": 8481, 
  "celostátní": 8482, 
  "účel@@": 8483, 
  "smyslem": 8484, 
  "angažovat": 8485, 
  "úřadů": 8486, 
  "udržitelnosti": 8487, 
  "kot@@": 8488, 
  "ilní": 8489, 
  "jihokorej@@": 8490, 
  "skon@@": 8491, 
  "zampnbsp": 8492, 
  "2,5": 8493, 
  "buje": 8494, 
  "dodáv@@": 8495, 
  "nemoc": 8496, 
  "přinu@@": 8497, 
  "deklarace": 8498, 
  "páky": 8499, 
  "uhlíkové": 8500, 
  "podně@@": 8501, 
  "skutečných": 8502, 
  "matem": 8503, 
  "solidarita": 8504, 
  "legitimita": 8505, 
  "závaž@@": 8506, 
  "podniku": 8507, 
  "statistiky": 8508, 
  "statků": 8509, 
  "řování": 8510, 
  "činily": 8511, 
  "Ar@@": 8512, 
  "účetnictví": 8513, 
  "zástupců": 8514, 
  "rozložení": 8515, 
  "sdě@@": 8516, 
  "dohod@@": 8517, 
  "distribu@@": 8518, 
  "potřeb@@": 8519, 
  "nestabilitu": 8520, 
  "souhlasil": 8521, 
  "poch@@": 8522, 
  "pociť@@": 8523, 
  "the": 8524, 
  "sebevražed@@": 8525, 
  "přemě@@": 8526, 
  "prezidenti": 8527, 
  "společen@@": 8528, 
  "časově": 8529, 
  "soudržnost": 8530, 
  "celkovou": 8531, 
  "pokraji": 8532, 
  "bohatým": 8533, 
  "pis@@": 8534, 
  "bývaly": 8535, 
  "kole": 8536, 
  "poskytl": 8537, 
  "26": 8538, 
  "držela": 8539, 
  "býval": 8540, 
  "propady": 8541, 
  "Tur@@": 8542, 
  "hlasem": 8543, 
  "terapie": 8544, 
  "chov@@": 8545, 
  "upevnit": 8546, 
  "běžnou": 8547, 
  "uráž@@": 8548, 
  "lými": 8549, 
  "Palestiny": 8550, 
  "interven@@": 8551, 
  "odpad@@": 8552, 
  "nějakým": 8553, 
  "olog@@": 8554, 
  "pracoval": 8555, 
  "udržitelnost": 8556, 
  "nahradí": 8557, 
  "náme": 8558, 
  "podněcuje": 8559, 
  "rozum": 8560, 
  "trval": 8561, 
  "poskytne": 8562, 
  "poskytnutí": 8563, 
  "analýzu": 8564, 
  "nenávisti": 8565, 
  "zdráha@@": 8566, 
  "růž@@": 8567, 
  "úpravy": 8568, 
  "pokusila": 8569, 
  "protekcionismus": 8570, 
  "někde": 8571, 
  "demografické": 8572, 
  "propuštění": 8573, 
  "peně@@": 8574, 
  "kancléřka": 8575, 
  "Pan": 8576, 
  "otevřela": 8577, 
  "odměny": 8578, 
  "psat": 8579, 
  "kruh": 8580, 
  "cti": 8581, 
  "hách": 8582, 
  "magná@@": 8583, 
  "zamyslet": 8584, 
  "lostí": 8585, 
  "projevují": 8586, 
  "dí": 8587, 
  "uml@@": 8588, 
  "přátel": 8589, 
  "rol@@": 8590, 
  "domnívat": 8591, 
  "Sachs": 8592, 
  "zvládnout": 8593, 
  "vola@@": 8594, 
  "nebezpečný": 8595, 
  "pěst@@": 8596, 
  "zaží@@": 8597, 
  "pruž@@": 8598, 
  "migraci": 8599, 
  "velko@@": 8600, 
  "prote@@": 8601, 
  "církev": 8602, 
  "výběru": 8603, 
  "konstat@@": 8604, 
  "ras@@": 8605, 
  "zjevné": 8606, 
  "nuta": 8607, 
  "mírovou": 8608, 
  "února": 8609, 
  "prohlašuje": 8610, 
  "ěn": 8611, 
  "věji": 8612, 
  "bezpočtu": 8613, 
  "odbo@@": 8614, 
  "návat": 8615, 
  "Dillí": 8616, 
  "Američanům": 8617, 
  "příslibem": 8618, 
  "využil": 8619, 
  "dilema": 8620, 
  "rozvinut@@": 8621, 
  "brali": 8622, 
  "pošeti@@": 8623, 
  "životech": 8624, 
  "krizové": 8625, 
  "lok@@": 8626, 
  "N": 8627, 
  "změnily": 8628, 
  "elimin@@": 8629, 
  "alistické": 8630, 
  "kandidátských": 8631, 
  "Francií": 8632, 
  "automobil@@": 8633, 
  "východo@@": 8634, 
  "ung": 8635, 
  "mírová": 8636, 
  "přenosu": 8637, 
  "pragmatic@@": 8638, 
  "firmách": 8639, 
  "odkud": 8640, 
  "et": 8641, 
  "produkt": 8642, 
  "vele@@": 8643, 
  "bojov@@": 8644, 
  "automobily": 8645, 
  "cházelo": 8646, 
  "životních": 8647, 
  "bolesti": 8648, 
  "sekular@@": 8649, 
  "bodě": 8650, 
  "iracion@@": 8651, 
  "kritické": 8652, 
  "vojenskými": 8653, 
  "náboženským": 8654, 
  "nulové": 8655, 
  "Austrálie": 8656, 
  "ohromné": 8657, 
  "Ham@@": 8658, 
  "přenos": 8659, 
  "zdráhají": 8660, 
  "Srbsku": 8661, 
  "postoji": 8662, 
  "opon@@": 8663, 
  "určit": 8664, 
  "podřízen@@": 8665, 
  "nesnad@@": 8666, 
  "výkonné": 8667, 
  "pomohou": 8668, 
  "lék": 8669, 
  "rozsáhlým": 8670, 
  "číme": 8671, 
  "účinný": 8672, 
  "stoupá": 8673, 
  "překrač@@": 8674, 
  "bitvy": 8675, 
  "komu": 8676, 
  "nevyřeší": 8677, 
  "růz@@": 8678, 
  "spořád@@": 8679, 
  "vyvá@@": 8680, 
  "vyřeš@@": 8681, 
  "js@@": 8682, 
  "zmírňování": 8683, 
  "blížící": 8684, 
  "mer@@": 8685, 
  "Nice": 8686, 
  "bohatými": 8687, 
  "Ab@@": 8688, 
  "dostup@@": 8689, 
  "makroekonomickou": 8690, 
  "utop@@": 8691, 
  "marx@@": 8692, 
  "druž@@": 8693, 
  "islámských": 8694, 
  "daňový": 8695, 
  "fre@@": 8696, 
  "hospodářském": 8697, 
  "venkově": 8698, 
  "mocní": 8699, 
  "cími": 8700, 
  "půjčit": 8701, 
  "oslabit": 8702, 
  "loaj@@": 8703, 
  "interpretace": 8704, 
  "učí": 8705, 
  "dekádě": 8706, 
  "ekolog@@": 8707, 
  "srb@@": 8708, 
  "jednoduchá": 8709, 
  "analytici": 8710, 
  "chcete": 8711, 
  "veškerý": 8712, 
  "zdrav@@": 8713, 
  "zně@@": 8714, 
  "uš@@": 8715, 
  "zažila": 8716, 
  "chem@@": 8717, 
  "děláme": 8718, 
  "vraždy": 8719, 
  "stejným": 8720, 
  "dod@@": 8721, 
  "drahé": 8722, 
  "zprávě": 8723, 
  "únoru": 8724, 
  "třikrát": 8725, 
  "pový@@": 8726, 
  "aktu@@": 8727, 
  "předpovědi": 8728, 
  "demokraciích": 8729, 
  "těžkosti": 8730, 
  "velkolep@@": 8731, 
  "rekonstrukci": 8732, 
  "francouzským": 8733, 
  "měr": 8734, 
  "zelenou": 8735, 
  "cové": 8736, 
  "Moskvy": 8737, 
  "internetové": 8738, 
  "lídr": 8739, 
  "provádí": 8740, 
  "zabřed@@": 8741, 
  "biolog@@": 8742, 
  "odborů": 8743, 
  "chyb@@": 8744, 
  "prokázala": 8745, 
  "držel": 8746, 
  "Goldman": 8747, 
  "lacin@@": 8748, 
  "Jacques": 8749, 
  "zasáhla": 8750, 
  "sdělovací": 8751, 
  "list": 8752, 
  "přišly": 8753, 
  "představě": 8754, 
  "lidskými": 8755, 
  "jedinečnou": 8756, 
  "prodloužení": 8757, 
  "dalekosáhlé": 8758, 
  "zrcad@@": 8759, 
  "Tchien": 8760, 
  "mysli@@": 8761, 
  "hlá@@": 8762, 
  "nějí": 8763, 
  "nadešel": 8764, 
  "šená": 8765, 
  "souhlasí": 8766, 
  "ústupu": 8767, 
  "oucí": 8768, 
  "vyhlídka": 8769, 
  "příznivé": 8770, 
  "platy": 8771, 
  "zlo": 8772, 
  "vládními": 8773, 
  "mala": 8774, 
  "potenciálních": 8775, 
  "alternativ@@": 8776, 
  "profesor": 8777, 
  "čtvr@@": 8778, 
  "udržela": 8779, 
  "přijímají": 8780, 
  "rychle@@": 8781, 
  "neustál@@": 8782, 
  "hala": 8783, 
  "pravidly": 8784, 
  "plných": 8785, 
  "obtížně": 8786, 
  "přetrvávají": 8787, 
  "neuspě@@": 8788, 
  "těžce": 8789, 
  "lib@@": 8790, 
  "stoupenců": 8791, 
  "prezidentů": 8792, 
  "Když": 8793, 
  "padnout": 8794, 
  "eurozónu": 8795, 
  "ly@@": 8796, 
  "posloužit": 8797, 
  "ac@@": 8798, 
  "dně": 8799, 
  "ímu": 8800, 
  "iráckého": 8801, 
  "decentr@@": 8802, 
  "pohybují": 8803, 
  "plus": 8804, 
  "fyz@@": 8805, 
  "nejchudším": 8806, 
  "ztotož@@": 8807, 
  "pravdě": 8808, 
  "biopaliv": 8809, 
  "íránských": 8810, 
  "navrá@@": 8811, 
  "zkra@@": 8812, 
  "vědce": 8813, 
  "šku": 8814, 
  "dvojnásob@@": 8815, 
  "hlavními": 8816, 
  "nahromad@@": 8817, 
  "sní": 8818, 
  "dolary": 8819, 
  "útočiště": 8820, 
  "biliony": 8821, 
  "Par@@": 8822, 
  "osvíc@@": 8823, 
  "Afriku": 8824, 
  "klon@@": 8825, 
  "úz@@": 8826, 
  "nostní": 8827, 
  "stů": 8828, 
  "čelní": 8829, 
  "odmítnout": 8830, 
  "strategického": 8831, 
  "ekonomickému": 8832, 
  "mizer@@": 8833, 
  "radikálně": 8834, 
  "Stalin@@": 8835, 
  "strategický": 8836, 
  "kurd@@": 8837, 
  "stroje": 8838, 
  "zbraň": 8839, 
  "anému": 8840, 
  "koncep@@": 8841, 
  "jednostranné": 8842, 
  "om": 8843, 
  "mírné": 8844, 
  "posilují": 8845, 
  "index@@": 8846, 
  "rumun@@": 8847, 
  "keynesián@@": 8848, 
  "břemene": 8849, 
  "klíč@@": 8850, 
  "10@@": 8851, 
  "reformách": 8852, 
  "určuje": 8853, 
  "okolo": 8854, 
  "srbské": 8855, 
  "sbí@@": 8856, 
  "pracovali": 8857, 
  "kandidát@@": 8858, 
  "komplikuje": 8859, 
  "rizikové": 8860, 
  "vstříc": 8861, 
  "M": 8862, 
  "stoupat": 8863, 
  "čelíme": 8864, 
  "naléha@@": 8865, 
  "probíhají": 8866, 
  "devalvaci": 8867, 
  "ván": 8868, 
  "oko": 8869, 
  "důmysl@@": 8870, 
  "starších": 8871, 
  "smem": 8872, 
  "uvr@@": 8873, 
  "zakořeně@@": 8874, 
  "neshody": 8875, 
  "zrušit": 8876, 
  "nenávist": 8877, 
  "leli": 8878, 
  "navští@@": 8879, 
  "připomín@@": 8880, 
  "závrat@@": 8881, 
  "fikov@@": 8882, 
  "extremismu": 8883, 
  "povrch": 8884, 
  "šířit": 8885, 
  "postkomunist@@": 8886, 
  "Jordánu": 8887, 
  "kvantitativní": 8888, 
  "konfron@@": 8889, 
  "žalost@@": 8890, 
  "Paktu": 8891, 
  "vyžadovalo": 8892, 
  "zdán@@": 8893, 
  "poznatky": 8894, 
  "představovala": 8895, 
  "nezbytných": 8896, 
  "územích": 8897, 
  "základna": 8898, 
  "rozdrob@@": 8899, 
  "nere@@": 8900, 
  "náchyl@@": 8901, 
  "spotřebitelských": 8902, 
  "utrá@@": 8903, 
  "skryté": 8904, 
  "Blízkého": 8905, 
  "zkorumpované": 8906, 
  "nechtě@@": 8907, 
  "Čer@@": 8908, 
  "ztratili": 8909, 
  "přesahující": 8910, 
  "palestinskou": 8911, 
  "oběťmi": 8912, 
  "zvláštních": 8913, 
  "opatřením": 8914, 
  "zápor@@": 8915, 
  "léč@@": 8916, 
  "pomohli": 8917, 
  "eu@@": 8918, 
  "uměle": 8919, 
  "zbohat@@": 8920, 
  "sily": 8921, 
  "vůd@@": 8922, 
  "většin@@": 8923, 
  "bublinu": 8924, 
  "nitelné": 8925, 
  "Putinovy": 8926, 
  "dostatečný": 8927, 
  "poroste": 8928, 
  "dů@@": 8929, 
  "čelem": 8930, 
  "kriz@@": 8931, 
  "jšímu": 8932, 
  "jednáním": 8933, 
  "silnice": 8934, 
  "tamních": 8935, 
  "ja@@": 8936, 
  "životaschop@@": 8937, 
  "kongres@@": 8938, 
  "vyšetř@@": 8939, 
  "připojit": 8940, 
  "Íránci": 8941, 
  "pozoru": 8942, 
  "skep@@": 8943, 
  "chu@@": 8944, 
  "všim@@": 8945, 
  "vojensky": 8946, 
  "stříd@@": 8947, 
  "zříd@@": 8948, 
  "Aliance": 8949, 
  "jednají": 8950, 
  "řadou": 8951, 
  "ideální": 8952, 
  "vzná@@": 8953, 
  "balíček": 8954, 
  "bankovního": 8955, 
  "teplot@@": 8956, 
  "stěžují": 8957, 
  "atmosféry": 8958, 
  "porodnosti": 8959, 
  "zbývající": 8960, 
  "try": 8961, 
  "nejdůležitějším": 8962, 
  "kyně": 8963, 
  "sousedství": 8964, 
  "džihádist@@": 8965, 
  "laci": 8966, 
  "Peking": 8967, 
  "vhodná": 8968, 
  "něni": 8969, 
  "převyšuje": 8970, 
  "popularitu": 8971, 
  "odpovídají": 8972, 
  "vlasten@@": 8973, 
  "Zá@@": 8974, 
  "kost": 8975, 
  "Bagdádu": 8976, 
  "symbolem": 8977, 
  "antní": 8978, 
  "donekonečna": 8979, 
  "chod": 8980, 
  "vnímají": 8981, 
  "zkrá@@": 8982, 
  "ukazatele": 8983, 
  "formovat": 8984, 
  "přísné": 8985, 
  "vydala": 8986, 
  "potřebná": 8987, 
  "ukáz@@": 8988, 
  "postavila": 8989, 
  "vyjednáv@@": 8990, 
  "čtvrté": 8991, 
  "významného": 8992, 
  "rozměrů": 8993, 
  "pust@@": 8994, 
  "vyslat": 8995, 
  "čtyřech": 8996, 
  "disponují": 8997, 
  "věnov@@": 8998, 
  "rozpout@@": 8999, 
  "klid@@": 9000, 
  "starosti": 9001, 
  "dodatečné": 9002, 
  "nají": 9003, 
  "ideolog@@": 9004, 
  "násilím": 9005, 
  "cílům": 9006, 
  "muslimského": 9007, 
  "lií": 9008, 
  "neústup@@": 9009, 
  "Roz@@": 9010, 
  "stu": 9011, 
  "ptát": 9012, 
  "prostředkem": 9013, 
  "základů": 9014, 
  "21": 9015, 
  "vědu": 9016, 
  "Jed@@": 9017, 
  "předložit": 9018, 
  "riskovat": 9019, 
  "rozlišovat": 9020, 
  "Blaira": 9021, 
  "Ce": 9022, 
  "filozofie": 9023, 
  "Li@@": 9024, 
  "vyty@@": 9025, 
  "příliš@@": 9026, 
  "špatným": 9027, 
  "sdělení": 9028, 
  "vyvinula": 9029, 
  "španěl@@": 9030, 
  "hot@@": 9031, 
  "armádě": 9032, 
  "21.": 9033, 
  "zmíněné": 9034, 
  "nebýt": 9035, 
  "profit@@": 9036, 
  "skládá": 9037, 
  "posílilo": 9038, 
  "sení": 9039, 
  "obrovskými": 9040, 
  "ářských": 9041, 
  "mimořádné": 9042, 
  "pěstovat": 9043, 
  "pravic@@": 9044, 
  "přímým": 9045, 
  "mí": 9046, 
  "povšimnutí": 9047, 
  "uskutečňování": 9048, 
  "Princeton": 9049, 
  "zahraničně": 9050, 
  "zené": 9051, 
  "podoby": 9052, 
  "dítěte": 9053, 
  "překvapení": 9054, 
  "statusu": 9055, 
  "rozpočtového": 9056, 
  "jasným": 9057, 
  "rý@@": 9058, 
  "hoj@@": 9059, 
  "pokřiv@@": 9060, 
  "úředníky": 9061, 
  "bojují": 9062, 
  "komerčních": 9063, 
  "cházející": 9064, 
  "zpo@@": 9065, 
  "nar@@": 9066, 
  "přehnan@@": 9067, 
  "ard@@": 9068, 
  "rozhodovací": 9069, 
  "zet": 9070, 
  "rozmanit@@": 9071, 
  "např.": 9072, 
  "Mo@@": 9073, 
  "Strany": 9074, 
  "telé": 9075, 
  "Nor@@": 9076, 
  "hladovění": 9077, 
  "partnerem": 9078, 
  "ile": 9079, 
  "nezávisle": 9080, 
  "vyprovo@@": 9081, 
  "dola@@": 9082, 
  "zvlád@@": 9083, 
  "anost": 9084, 
  "nau@@": 9085, 
  "studená": 9086, 
  "šetření": 9087, 
  "tolika": 9088, 
  "prohlásila": 9089, 
  "patent@@": 9090, 
  "předpovědět": 9091, 
  "moři": 9092, 
  "ovanější": 9093, 
  "církve": 9094, 
  "kvalita": 9095, 
  "žádného": 9096, 
  "evoluční": 9097, 
  "rozšířením": 9098, 
  "rovnováha": 9099, 
  "zvýšen@@": 9100, 
  "návště@@": 9101, 
  "Čečensku": 9102, 
  "jejž": 9103, 
  "cent@@": 9104, 
  "uchy@@": 9105, 
  "odpuštění": 9106, 
  "školní": 9107, 
  "kre@@": 9108, 
  "ruky": 9109, 
  "logické": 9110, 
  "projevil": 9111, 
  "francouzští": 9112, 
  "porážky": 9113, 
  "obtíže": 9114, 
  "přesvědči@@": 9115, 
  "kritérií": 9116, 
  "řízen@@": 9117, 
  "kyper@@": 9118, 
  "oslabí": 9119, 
  "krátké": 9120, 
  "stvo": 9121, 
  "ztratit": 9122, 
  "vztahuje": 9123, 
  "ztrátou": 9124, 
  "takzvaná": 9125, 
  "kvalifikovaných": 9126, 
  "ozbrojen@@": 9127, 
  "splat@@": 9128, 
  "LDS": 9129, 
  "vaše": 9130, 
  "popis@@": 9131, 
  "vyrábět": 9132, 
  "něného": 9133, 
  "ren@@": 9134, 
  "sli@@": 9135, 
  "zrych@@": 9136, 
  "kruhu": 9137, 
  "drobné": 9138, 
  "kat@@": 9139, 
  "porad@@": 9140, 
  "úloha": 9141, 
  "zivní": 9142, 
  "85": 9143, 
  "nejsme": 9144, 
  "kaly": 9145, 
  "zpřís@@": 9146, 
  "líb@@": 9147, 
  "paradoxní": 9148, 
  "přehlížet": 9149, 
  "deflaci": 9150, 
  "politi@@": 9151, 
  "neleh@@": 9152, 
  "příjmech": 9153, 
  "nepřízni@@": 9154, 
  "áhnout": 9155, 
  "liberálního": 9156, 
  "zaost@@": 9157, 
  "vypla@@": 9158, 
  "jce": 9159, 
  "hegemonii": 9160, 
  "zámin@@": 9161, 
  "proud@@": 9162, 
  "čtyřmi": 9163, 
  "všemu": 9164, 
  "íránští": 9165, 
  "Ho@@": 9166, 
  "syr@@": 9167, 
  "Alan": 9168, 
  "nabízet": 9169, 
  "výrob@@": 9170, 
  "dostav@@": 9171, 
  "omezením": 9172, 
  "brz@@": 9173, 
  "ceno": 9174, 
  "dopravní": 9175, 
  "přesun@@": 9176, 
  "ideologií": 9177, 
  "gh@@": 9178, 
  "pramen@@": 9179, 
  "probud@@": 9180, 
  "zdání": 9181, 
  "zhorší": 9182, 
  "0@@": 9183, 
  "klasi@@": 9184, 
  "nevyhnutelná": 9185, 
  "nákupu": 9186, 
  "úspor@@": 9187, 
  "rovým": 9188, 
  "dal@@": 9189, 
  "konečné": 9190, 
  "fikace": 9191, 
  "zkoumat": 9192, 
  "rozdílů": 9193, 
  "síl@@": 9194, 
  "nevyvážeností": 9195, 
  "důsledkům": 9196, 
  "blahobyt": 9197, 
  "řetěz@@": 9198, 
  "náznaky": 9199, 
  "dospěla": 9200, 
  "existující": 9201, 
  "službu": 9202, 
  "England": 9203, 
  "testů": 9204, 
  "brzké": 9205, 
  "knihu": 9206, 
  "kompromisy": 9207, 
  "mezinárodními": 9208, 
  "nebezpeč@@": 9209, 
  "rozdílu": 9210, 
  "poplatníky": 9211, 
  "Bolívie": 9212, 
  "nepod@@": 9213, 
  "široká": 9214, 
  "reálného": 9215, 
  "prohr@@": 9216, 
  "historická": 9217, 
  "příčina": 9218, 
  "vymanit": 9219, 
  "vého": 9220, 
  "porazit": 9221, 
  "kterému": 9222, 
  "zná@@": 9223, 
  "účastníků": 9224, 
  "představovaly": 9225, 
  "1988": 9226, 
  "druhému": 9227, 
  "ovlivní": 9228, 
  "líme": 9229, 
  "tabu": 9230, 
  "udělala": 9231, 
  "nějakého": 9232, 
  "rozpor": 9233, 
  "překro@@": 9234, 
  "samostat@@": 9235, 
  "počítačů": 9236, 
  "tal@@": 9237, 
  "činitelů": 9238, 
  "Hitler@@": 9239, 
  "směřuje": 9240, 
  "mexické": 9241, 
  "oč@@": 9242, 
  "stránek": 9243, 
  "kří@@": 9244, 
  "milice": 9245, 
  "sazba": 9246, 
  "narůsta@@": 9247, 
  "zhodnocení": 9248, 
  "zhoub@@": 9249, 
  "nástupem": 9250, 
  "typů": 9251, 
  "farmaceu@@": 9252, 
  "instance": 9253, 
  "argumentují": 9254, 
  "lením": 9255, 
  "akcionáře": 9256, 
  "ustoupit": 9257, 
  "způsobila": 9258, 
  "iho": 9259, 
  "Iráčané": 9260, 
  "bolest@@": 9261, 
  "obtěž@@": 9262, 
  "jednostranně": 9263, 
  "růstové": 9264, 
  "nickou": 9265, 
  "impul@@": 9266, 
  "obnovy": 9267, 
  "dlouhodobější": 9268, 
  "limity": 9269, 
  "polit@@": 9270, 
  "uvíz@@": 9271, 
  "sav@@": 9272, 
  "mozek": 9273, 
  "inga": 9274, 
  "testování": 9275, 
  "pozoruhodně": 9276, 
  "brut@@": 9277, 
  "spekul@@": 9278, 
  "němec@@": 9279, 
  "úsudek": 9280, 
  "doplň@@": 9281, 
  "předmě@@": 9282, 
  "Hamasu": 9283, 
  "pásma": 9284, 
  "autority": 9285, 
  "připomenout": 9286, 
  "ér": 9287, 
  "kó@@": 9288, 
  "přesvědčivé": 9289, 
  "atom@@": 9290, 
  "německou": 9291, 
  "I": 9292, 
  "smlou@@": 9293, 
  "ital@@": 9294, 
  "infek@@": 9295, 
  "plateb": 9296, 
  "předčas@@": 9297, 
  "duševního": 9298, 
  "pět@@": 9299, 
  "narozen@@": 9300, 
  "následné": 9301, 
  "přidě@@": 9302, 
  "sdílejí": 9303, 
  "prosperující": 9304, 
  "investicích": 9305, 
  "odlišných": 9306, 
  "rodina": 9307, 
  "zneužití": 9308, 
  "prokázaly": 9309, 
  "slabiny": 9310, 
  "sunnity": 9311, 
  "egyptské": 9312, 
  "stárnutí": 9313, 
  "kvalifikov@@": 9314, 
  "vyssí": 9315, 
  "vklád@@": 9316, 
  "lejí": 9317, 
  "přiznání": 9318, 
  "neutr@@": 9319, 
  "obda@@": 9320, 
  "institucion@@": 9321, 
  "vstoupila": 9322, 
  "všeobecná": 9323, 
  "Rakousko": 9324, 
  "managementu": 9325, 
  "rub@@": 9326, 
  "jev@@": 9327, 
  "isla@@": 9328, 
  "anější": 9329, 
  "diplom@@": 9330, 
  "vrací": 9331, 
  "případné": 9332, 
  "strašlivé": 9333, 
  "zeň": 9334, 
  "vidi@@": 9335, 
  "1982": 9336, 
  "přesvědčena": 9337, 
  "kost@@": 9338, 
  "premiér@@": 9339, 
  "přistoup@@": 9340, 
  "zved@@": 9341, 
  "liberaliz@@": 9342, 
  "vědomi": 9343, 
  "atomovou": 9344, 
  "zdat@@": 9345, 
  "mořské": 9346, 
  "zelených": 9347, 
  "rozhořčení": 9348, 
  "uspokojení": 9349, 
  "známkou": 9350, 
  "komun@@": 9351, 
  "rekonstrukce": 9352, 
  "anům": 9353, 
  "přer@@": 9354, 
  "metod": 9355, 
  "socialisté": 9356, 
  "ča@@": 9357, 
  "společenská": 9358, 
  "ary": 9359, 
  "posoudit": 9360, 
  "nahlod@@": 9361, 
  "znamenaly": 9362, 
  "cháp@@": 9363, 
  "nešťast@@": 9364, 
  "sportov@@": 9365, 
  "zabi@@": 9366, 
  "bit": 9367, 
  "vyhrát": 9368, 
  "zastoupen@@": 9369, 
  "voličům": 9370, 
  "výběr": 9371, 
  "adaptace": 9372, 
  "soustav": 9373, 
  "přinutit": 9374, 
  "výhodné": 9375, 
  "zablo@@": 9376, 
  "akciového": 9377, 
  "cla": 9378, 
  "eném": 9379, 
  "oni@@": 9380, 
  "čistě": 9381, 
  "ochranou": 9382, 
  "priorit@@": 9383, 
  "soudů": 9384, 
  "dovednosti": 9385, 
  "většímu": 9386, 
  "přislíb@@": 9387, 
  "výkyvy": 9388, 
  "sehrát": 9389, 
  "tohle": 9390, 
  "naru@@": 9391, 
  "pouštějí": 9392, 
  "socialismu": 9393, 
  "odve@@": 9394, 
  "barbar@@": 9395, 
  "oporou": 9396, 
  "subsaharské": 9397, 
  "národnostní": 9398, 
  "realist@@": 9399, 
  "sazbami": 9400, 
  "důsledně": 9401, 
  "postře@@": 9402, 
  "pěk@@": 9403, 
  "bodem": 9404, 
  "nápad": 9405, 
  "dám": 9406, 
  "internetových": 9407, 
  "sly@@": 9408, 
  "hovo@@": 9409, 
  "dovoz@@": 9410, 
  "zaměst@@": 9411, 
  "fran@@": 9412, 
  "vládce": 9413, 
  "vav@@": 9414, 
  "vyjádřit": 9415, 
  "deleg@@": 9416, 
  "vyvolávat": 9417, 
  "materi@@": 9418, 
  "sekul@@": 9419, 
  "zastavil": 9420, 
  "ročního": 9421, 
  "atu": 9422, 
  "osad@@": 9423, 
  "podlé@@": 9424, 
  "externí": 9425, 
  "líbí": 9426, 
  "spekula@@": 9427, 
  "4.": 9428, 
  "souvisejících": 9429, 
  "dědi@@": 9430, 
  "optimismu": 9431, 
  "kancléř": 9432, 
  "rival@@": 9433, 
  "akademi@@": 9434, 
  "podtrhuje": 9435, 
  "ah@@": 9436, 
  "větsí": 9437, 
  "naznačil": 9438, 
  "exportní": 9439, 
  "publik@@": 9440, 
  "moskev@@": 9441, 
  "vyrov@@": 9442, 
  "autoři": 9443, 
  "oné": 9444, 
  "Ri@@": 9445, 
  "úroků": 9446, 
  "lidskosti": 9447, 
  "porostou": 9448, 
  "nejvýznamnějších": 9449, 
  "vána": 9450, 
  "hovala": 9451, 
  "Bo@@": 9452, 
  "předná@@": 9453, 
  "jestřá@@": 9454, 
  "nevin@@": 9455, 
  "fikovat": 9456, 
  "ask@@": 9457, 
  "Char@@": 9458, 
  "Hillary": 9459, 
  "průkop@@": 9460, 
  "3,5": 9461, 
  "ger@@": 9462, 
  "konzum@@": 9463, 
  "nost@@": 9464, 
  "přistěhoval@@": 9465, 
  "celní": 9466, 
  "vodě": 9467, 
  "masiv@@": 9468, 
  "určitého": 9469, 
  "tla@@": 9470, 
  "ostražit@@": 9471, 
  "rozšířený": 9472, 
  "Sa@@": 9473, 
  "zapříčin@@": 9474, 
  "Chira@@": 9475, 
  "ministrem": 9476, 
  "pokles@@": 9477, 
  "zlep@@": 9478, 
  "vyv@@": 9479, 
  "překvap@@": 9480, 
  "postojů": 9481, 
  "akční": 9482, 
  "přispěje": 9483, 
  "lají": 9484, 
  "fórum": 9485, 
  "já@@": 9486, 
  "důklad@@": 9487, 
  "krveprolití": 9488, 
  "původ": 9489, 
  "eskal@@": 9490, 
  "vítězí": 9491, 
  "blaho": 9492, 
  "doh@@": 9493, 
  "seg@@": 9494, 
  "zelen@@": 9495, 
  "fat@@": 9496, 
  "impérium": 9497, 
  "cího": 9498, 
  "západ@@": 9499, 
  "spad@@": 9500, 
  "štěm": 9501, 
  "zavedené": 9502, 
  "tíme": 9503, 
  "zabránilo": 9504, 
  "šíity": 9505, 
  "hodnotám": 9506, 
  "etické": 9507, 
  "ü@@": 9508, 
  "oznámila": 9509, 
  "vsechny": 9510, 
  "přetav@@": 9511, 
  "návrhů": 9512, 
  "syrské": 9513, 
  "svobodně": 9514, 
  "800": 9515, 
  "zlé": 9516, 
  "indických": 9517, 
  "podvýživ@@": 9518, 
  "ideologii": 9519, 
  "psan@@": 9520, 
  "hněv": 9521, 
  "pramálo": 9522, 
  "nekontrolov@@": 9523, 
  "krev": 9524, 
  "zbída@@": 9525, 
  "Tunisku": 9526, 
  "nebezpečná": 9527, 
  "vyvíjejí": 9528, 
  "zlepší": 9529, 
  "příbuz@@": 9530, 
  "omyl": 9531, 
  "odvrátit": 9532, 
  "Trichet": 9533, 
  "vzpomí@@": 9534, 
  "průlom": 9535, 
  "pokrý@@": 9536, 
  "sel": 9537, 
  "počasí": 9538, 
  "zajímavé": 9539, 
  "nevyzpyta@@": 9540, 
  "jevy": 9541, 
  "komod@@": 9542, 
  "1987": 9543, 
  "spolehlivé": 9544, 
  "neměn@@": 9545, 
  "zpomalí": 9546, 
  "stavební": 9547, 
  "poc@@": 9548, 
  "ekonomikami": 9549, 
  "něčeho": 9550, 
  "jského": 9551, 
  "realizace": 9552, 
  "obraz@@": 9553, 
  "zvy@@": 9554, 
  "áž@@": 9555, 
  "obvyklé": 9556, 
  "guvernér": 9557, 
  "potýkají": 9558, 
  "kořen@@": 9559, 
  "and": 9560, 
  "rozmanitosti": 9561, 
  "slibují": 9562, 
  "zkouškou": 9563, 
  "posuz@@": 9564, 
  "otevřenosti": 9565, 
  "nízko": 9566, 
  "podněc@@": 9567, 
  "ztrojnásob@@": 9568, 
  "technika": 9569, 
  "tých": 9570, 
  "sklí@@": 9571, 
  "X@@": 9572, 
  "jakákoli": 9573, 
  "nákup@@": 9574, 
  "náboženskou": 9575, 
  "neček@@": 9576, 
  "lovat": 9577, 
  "MAAE": 9578, 
  "provoz": 9579, 
  "transparent@@": 9580, 
  "řiz@@": 9581, 
  "Hongkong": 9582, 
  "kova": 9583, 
  "vydoby@@": 9584, 
  "nucena": 9585, 
  "Microsoft": 9586, 
  "uplatňují": 9587, 
  "tele": 9588, 
  "tační": 9589, 
  "28": 9590, 
  "lobby": 9591, 
  "úpl@@": 9592, 
  "respondentů": 9593, 
  "hrozi@@": 9594, 
  "možného": 9595, 
  "tlačit": 9596, 
  "chybu": 9597, 
  "řádné": 9598, 
  "agendě": 9599, 
  "přivést": 9600, 
  "jednáních": 9601, 
  "přijetím": 9602, 
  "založen@@": 9603, 
  "financují": 9604, 
  "dospěli": 9605, 
  "dobrými": 9606, 
  "výroky": 9607, 
  "diskriminaci": 9608, 
  "islámský": 9609, 
  "álnější": 9610, 
  "spočí@@": 9611, 
  "lad@@": 9612, 
  "fé@@": 9613, 
  "splá@@": 9614, 
  "škodlivé": 9615, 
  "nadace": 9616, 
  "struktu@@": 9617, 
  "neteč@@": 9618, 
  "odtud": 9619, 
  "pracovníci": 9620, 
  "udělá": 9621, 
  "jména": 9622, 
  "japonskou": 9623, 
  "postrádají": 9624, 
  "nazývá": 9625, 
  "planetu": 9626, 
  "vyjadř@@": 9627, 
  "elektrické": 9628, 
  "zemře": 9629, 
  "obchodníci": 9630, 
  "obecněji": 9631, 
  "praktiky": 9632, 
  "umírněné": 9633, 
  "bezpečně": 9634, 
  "ind@@": 9635, 
  "dna": 9636, 
  "motivace": 9637, 
  "časů": 9638, 
  "květ@@": 9639, 
  "tickému": 9640, 
  "společnostmi": 9641, 
  "stálo": 9642, 
  "začních": 9643, 
  "9@@": 9644, 
  "vyč@@": 9645, 
  "čkou": 9646, 
  "prá@@": 9647, 
  "přesvěd@@": 9648, 
  "nebudeme": 9649, 
  "nepředstavuje": 9650, 
  "kampaní": 9651, 
  "soudrž@@": 9652, 
  "obchody": 9653, 
  "zú@@": 9654, 
  "výraznější": 9655, 
  "ušet@@": 9656, 
  "jakém": 9657, 
  "tragédie": 9658, 
  "velmocí": 9659, 
  "dová@@": 9660, 
  "zamít@@": 9661, 
  "některými": 9662, 
  "izraelským": 9663, 
  "Gore": 9664, 
  "nuceny": 9665, 
  "koncentrace": 9666, 
  "otázkám": 9667, 
  "devizových": 9668, 
  "nuto": 9669, 
  "tajemství": 9670, 
  "klady": 9671, 
  "třída": 9672, 
  "aut@@": 9673, 
  "zdrž@@": 9674, 
  "tolerovat": 9675, 
  "hlí@@": 9676, 
  "zveřejnění": 9677, 
  "útokům": 9678, 
  "obdobím": 9679, 
  "pouště@@": 9680, 
  "promyšlen@@": 9681, 
  "reflek@@": 9682, 
  "rodu": 9683, 
  "přehodnocení": 9684, 
  "největšího": 9685, 
  "sná@@": 9686, 
  "slepé": 9687, 
  "větších": 9688, 
  "autoritářství": 9689, 
  "rozvojem": 9690, 
  "kni@@": 9691, 
  "televizních": 9692, 
  "konsolidaci": 9693, 
  "poli@@": 9694, 
  "her": 9695, 
  "obětem": 9696, 
  "nevyhnutelný": 9697, 
  "tivními": 9698, 
  "podlo@@": 9699, 
  "Teng": 9700, 
  "verze": 9701, 
  "nezávislá": 9702, 
  "Berlínské": 9703, 
  "následoval": 9704, 
  "Káida": 9705, 
  "přeru@@": 9706, 
  "ekonomy": 9707, 
  "hle@@": 9708, 
  "soudem": 9709, 
  "vycházejí": 9710, 
  "volič@@": 9711, 
  "vrat@@": 9712, 
  "připomí@@": 9713, 
  "drobných": 9714, 
  "nezdá": 9715, 
  "násilných": 9716, 
  "referendu": 9717, 
  "dokument": 9718, 
  "minulé": 9719, 
  "dekla@@": 9720, 
  "prsu": 9721, 
  "Rom@@": 9722, 
  "roztří@@": 9723, 
  "pohr@@": 9724, 
  "máte": 9725, 
  "pojišťov@@": 9726, 
  "stáli": 9727, 
  "acího": 9728, 
  "generála": 9729, 
  "člověku": 9730, 
  "un": 9731, 
  "přílišné": 9732, 
  "samotnou": 9733, 
  "provincie": 9734, 
  "technologický": 9735, 
  "existovaly": 9736, 
  "zely": 9737, 
  "doufali": 9738, 
  "vítan@@": 9739, 
  "odsouzen": 9740, 
  "vážen@@": 9741, 
  "technických": 9742, 
  "hon@@": 9743, 
  "Společ@@": 9744, 
  "uvolnit": 9745, 
  "Senátu": 9746, 
  "hle": 9747, 
  "sadit": 9748, 
  "nerost@@": 9749, 
  "Mahmúd": 9750, 
  "profesionální": 9751, 
  "vyššího": 9752, 
  "ologické": 9753, 
  "drogami": 9754, 
  "němečtí": 9755, 
  "ceného": 9756, 
  "bilaterálních": 9757, 
  "versus": 9758, 
  "vakuum": 9759, 
  "dokazuje": 9760, 
  "splácení": 9761, 
  "Le": 9762, 
  "vyrovn@@": 9763, 
  "takzv@@": 9764, 
  "Gaulle": 9765, 
  "rový": 9766, 
  "Han@@": 9767, 
  "popírání": 9768, 
  "splátky": 9769, 
  "tráv@@": 9770, 
  "nebezpečně": 9771, 
  "společném": 9772, 
  "Austrálii": 9773, 
  "představovalo": 9774, 
  "něným": 9775, 
  "populistické": 9776, 
  "bosen@@": 9777, 
  "sné": 9778, 
  "Annan": 9779, 
  "vývoz@@": 9780, 
  "výskyt": 9781, 
  "Husajn": 9782, 
  "bezprostřed@@": 9783, 
  "komunisté": 9784, 
  "nátlak": 9785, 
  "očekávali": 9786, 
  "demokratizaci": 9787, 
  "nemocnice": 9788, 
  "duje": 9789, 
  "čin": 9790, 
  "bomb@@": 9791, 
  "globálně": 9792, 
  "stimulace": 9793, 
  "procentních": 9794, 
  "Kuvajtu": 9795, 
  "der@@": 9796, 
  "fana@@": 9797, 
  "nefunguje": 9798, 
  "stní": 9799, 
  "zena": 9800, 
  "ovacího": 9801, 
  "postupné": 9802, 
  "formuje": 9803, 
  "rali": 9804, 
  "soulad": 9805, 
  "nohama": 9806, 
  "účastnit": 9807, 
  "bariér": 9808, 
  "íránskou": 9809, 
  "přihlí@@": 9810, 
  "přesvědčen@@": 9811, 
  "systémov@@": 9812, 
  "nerovnováh": 9813, 
  "iracionální": 9814, 
  "přesa@@": 9815, 
  "emoce": 9816, 
  "nevyhnutel@@": 9817, 
  "jakýsi": 9818, 
  "hlasovací": 9819, 
  "měrné": 9820, 
  "nepřijatel@@": 9821, 
  "Jelcin@@": 9822, 
  "stanovisko": 9823, 
  "založeného": 9824, 
  "bla@@": 9825, 
  "výklad": 9826, 
  "obsad@@": 9827, 
  "miliardu": 9828, 
  "Iráčanů": 9829, 
  "respektovat": 9830, 
  "školách": 9831, 
  "obecné": 9832, 
  "technologiemi": 9833, 
  "saz@@": 9834, 
  "opad@@": 9835, 
  "uru": 9836, 
  "pokrytectví": 9837, 
  "sazen@@": 9838, 
  "vklady": 9839, 
  "kontrak@@": 9840, 
  "nedokonal@@": 9841, 
  "zúčastněné": 9842, 
  "předáků": 9843, 
  "ročním": 9844, 
  "vzdor": 9845, 
  "osm@@": 9846, 
  "totož@@": 9847, 
  "íte": 9848, 
  "uchý@@": 9849, 
  "kovali": 9850, 
  "nepřítelem": 9851, 
  "výbě@@": 9852, 
  "zvu@@": 9853, 
  "Friedman": 9854, 
  "Clintona": 9855, 
  "brzdit": 9856, 
  "každým": 9857, 
  "zlepšování": 9858, 
  "popsal": 9859, 
  "vsech": 9860, 
  "Lisabonské": 9861, 
  "spotřební": 9862, 
  "prozíra@@": 9863, 
  "dosáhnou": 9864, 
  "osmdesá@@": 9865, 
  "nazval": 9866, 
  "podstatnější": 9867, 
  "pozor": 9868, 
  "rozšiř@@": 9869, 
  "záchranné": 9870, 
  "Times": 9871, 
  "ospravedlnit": 9872, 
  "úder": 9873, 
  "nápad@@": 9874, 
  "vyhraz@@": 9875, 
  "Barmě": 9876, 
  "okamžit@@": 9877, 
  "uj@@": 9878, 
  "regula@@": 9879, 
  "vydání": 9880, 
  "sportu": 9881, 
  "učit": 9882, 
  "zaslou@@": 9883, 
  "přiz@@": 9884, 
  "nedaří": 9885, 
  "zpomalit": 9886, 
  "žování": 9887, 
  "struktur@@": 9888, 
  "plánované": 9889, 
  "prud@@": 9890, 
  "gal@@": 9891, 
  "telefon@@": 9892, 
  "nekoneč@@": 9893, 
  "požádal": 9894, 
  "noci": 9895, 
  "torům": 9896, 
  "následovalo": 9897, 
  "černoš@@": 9898, 
  "krátkodobém": 9899, 
  "atelný": 9900, 
  "panují": 9901, 
  "volají": 9902, 
  "léčbě": 9903, 
  "extremist@@": 9904, 
  "alizuje": 9905, 
  "Maďarsko": 9906, 
  "polož@@": 9907, 
  "vážných": 9908, 
  "cházet": 9909, 
  "cest": 9910, 
  "jaderném": 9911, 
  "átů": 9912, 
  "instituci": 9913, 
  "účetních": 9914, 
  "podmínkám": 9915, 
  "zkostnatě@@": 9916, 
  "zaměstnancům": 9917, 
  "zasaz@@": 9918, 
  "bohatý": 9919, 
  "předchůdce": 9920, 
  "zorganiz@@": 9921, 
  "silo": 9922, 
  "zvr@@": 9923, 
  "sila": 9924, 
  "dovoleno": 9925, 
  "městských": 9926, 
  "rek": 9927, 
  "tisíci": 9928, 
  "rekla@@": 9929, 
  "vystří@@": 9930, 
  "ziv@@": 9931, 
  "Y@@": 9932, 
  "ovlivňují": 9933, 
  "doufám": 9934, 
  "stupeň": 9935, 
  "ovoce": 9936, 
  "bav@@": 9937, 
  "Arafat": 9938, 
  "poskytly": 9939, 
  "ády": 9940, 
  "orientovaných": 9941, 
  "vlaj@@": 9942, 
  "představiteli": 9943, 
  "Argentiny": 9944, 
  "populační": 9945, 
  "ňovalo": 9946, 
  "statky": 9947, 
  "Gorbačov": 9948, 
  "ICTY": 9949, 
  "komunikační": 9950, 
  "sousedé": 9951, 
  "ga@@": 9952, 
  "říme": 9953, 
  "protivá@@": 9954, 
  "podvod@@": 9955, 
  "podporu@@": 9956, 
  "socialistické": 9957, 
  "arabští": 9958, 
  "domnívali": 9959, 
  "fyzické": 9960, 
  "sérii": 9961, 
  "řecké": 9962, 
  "typické": 9963, 
  "posvát@@": 9964, 
  "potvrzuje": 9965, 
  "mni@@": 9966, 
  "Merkelové": 9967, 
  "zastaví": 9968, 
  "zrovna": 9969, 
  "nevě@@": 9970, 
  "převis": 9971, 
  "svrchovanost": 9972, 
  "sluč@@": 9973, 
  "zlato": 9974, 
  "vyhlídek": 9975, 
  "hům": 9976, 
  "tvoři@@": 9977, 
  "nezbyt@@": 9978, 
  "hovaly": 9979, 
  "horní": 9980, 
  "přinášet": 9981, 
  "jazykem": 9982, 
  "alizací": 9983, 
  "devatenáctém": 9984, 
  "složkou": 9985, 
  "jedenác@@": 9986, 
  "výskytu": 9987, 
  "stické": 9988, 
  "důvěře": 9989, 
  "styku": 9990, 
  "zadluženosti": 9991, 
  "vedený": 9992, 
  "složení": 9993, 
  "urychlit": 9994, 
  "skončil": 9995, 
  "továr@@": 9996, 
  "Fran@@": 9997, 
  "obligací": 9998, 
  "buduje": 9999, 
  "obecnější": 10000, 
  "utu": 10001, 
  "nepředvídatel@@": 10002, 
  "hluboká": 10003, 
  "stál@@": 10004, 
  "bouř@@": 10005, 
  "komentátoři": 10006, 
  "neprůhled@@": 10007, 
  "drtivé": 10008, 
  "ovládají": 10009, 
  "zn@@": 10010, 
  "sestavit": 10011, 
  "rii": 10012, 
  "letadla": 10013, 
  "národ@@": 10014, 
  "tur@@": 10015, 
  "dnem": 10016, 
  "1970": 10017, 
  "vyni@@": 10018, 
  "oc@@": 10019, 
  "příslušníky": 10020, 
  "Fatah": 10021, 
  "čínském": 10022, 
  "evoluce": 10023, 
  "sub@@": 10024, 
  "závaz@@": 10025, 
  "moderním": 10026, 
  "zásad": 10027, 
  "nezpochyb@@": 10028, 
  "Ahmadínedžád": 10029, 
  "legislativu": 10030, 
  "snáze": 10031, 
  "vyjít": 10032, 
  "selhala": 10033, 
  "kolek@@": 10034, 
  "členským": 10035, 
  "cház@@": 10036, 
  "nezávislou": 10037, 
  "přene@@": 10038, 
  "Srbů": 10039, 
  "Ni@@": 10040, 
  "půli": 10041, 
  "chvá@@": 10042, 
  "pravicových": 10043, 
  "přihlá@@": 10044, 
  "produktu": 10045, 
  "Světovou": 10046, 
  "ach@@": 10047, 
  "proměně": 10048, 
  "zpracov@@": 10049, 
  "trop@@": 10050, 
  "bojovníci": 10051, 
  "definuje": 10052, 
  "manažery": 10053, 
  "prodeji": 10054, 
  "prch@@": 10055, 
  "přejít": 10056, 
  "eta": 10057, 
  "Kalifornie": 10058, 
  "zauj@@": 10059, 
  "měřítka": 10060, 
  "policii": 10061, 
  "říd@@": 10062, 
  "vyhov@@": 10063, 
  "podrý@@": 10064, 
  "znásilnění": 10065, 
  "doprav@@": 10066, 
  "uhlí@@": 10067, 
  "komisí": 10068, 
  "sektorem": 10069, 
  "vylep@@": 10070, 
  "člena": 10071, 
  "nevol@@": 10072, 
  "lékařů": 10073, 
  "korun@@": 10074, 
  "řá@@": 10075, 
  "držely": 10076, 
  "nezd@@": 10077, 
  "nek": 10078, 
  "řeč": 10079, 
  "komp@@": 10080, 
  "průmyslovou": 10081, 
  "pacif@@": 10082, 
  "oddan@@": 10083, 
  "komunistických": 10084, 
  "ja": 10085, 
  "mana": 10086, 
  "kodaň@@": 10087, 
  "najdou": 10088, 
  "kdekoli": 10089, 
  "přitažlivosti": 10090, 
  "Jeruzaléma": 10091, 
  "pros@@": 10092, 
  "uskutečňuje": 10093, 
  "legitimi@@": 10094, 
  "pakt": 10095, 
  "geni@@": 10096, 
  "následovaly": 10097, 
  "změ@@": 10098, 
  "posuzování": 10099, 
  "nega@@": 10100, 
  "zapl@@": 10101, 
  "sol@@": 10102, 
  "Pavel": 10103, 
  "zodpovědné": 10104, 
  "něčím": 10105, 
  "dělali": 10106, 
  "Ústavní": 10107, 
  "nastupující": 10108, 
  "jednotnou": 10109, 
  "Ko@@": 10110, 
  "zel@@": 10111, 
  "čtvrtinu": 10112, 
  "tématu": 10113, 
  "žně": 10114, 
  "podpořila": 10115, 
  "42": 10116, 
  "stejném": 10117, 
  "obchodů": 10118, 
  "lní": 10119, 
  "úspěšných": 10120, 
  "teroristům": 10121, 
  "ben@@": 10122, 
  "prefer@@": 10123, 
  "Od@@": 10124, 
  "týkajících": 10125, 
  "odrážet": 10126, 
  "nestabil@@": 10127, 
  "zkrach@@": 10128, 
  "sousedních": 10129, 
  "společenskou": 10130, 
  "vyhled@@": 10131, 
  "konců": 10132, 
  "hrstka": 10133, 
  "vraždění": 10134, 
  "podezřel@@": 10135, 
  "lon@@": 10136, 
  "minulých": 10137, 
  "nech": 10138, 
  "jednomysl@@": 10139, 
  "klesly": 10140, 
  "kosti": 10141, 
  "nákladech": 10142, 
  "nemovitosti": 10143, 
  "riskant@@": 10144, 
  "bankov@@": 10145, 
  "byd@@": 10146, 
  "Ukrajinci": 10147, 
  "přibývá": 10148, 
  "nábožensky": 10149, 
  "socialismus": 10150, 
  "prokázal": 10151, 
  "sklon@@": 10152, 
  "sla@@": 10153, 
  "okup@@": 10154, 
  "zázrak": 10155, 
  "představitel": 10156, 
  "mistrovství": 10157, 
  "možnou": 10158, 
  "soukromou": 10159, 
  "šeny": 10160, 
  "zdravotnických": 10161, 
  "propouštění": 10162, 
  "vytěs@@": 10163, 
  "opač@@": 10164, 
  "naivní": 10165, 
  "stanovi@@": 10166, 
  "transatlan@@": 10167, 
  "městské": 10168, 
  "výmluv@@": 10169, 
  "vědomě": 10170, 
  "měnovým": 10171, 
  "výdajům": 10172, 
  "vražed@@": 10173, 
  "ord@@": 10174, 
  "ratingové": 10175, 
  "nající": 10176, 
  "aspektem": 10177, 
  "otevřených": 10178, 
  "svobodný": 10179, 
  "velmoci": 10180, 
  "chtěla": 10181, 
  "obr@@": 10182, 
  "vyřeší": 10183, 
  "spolehnout": 10184, 
  "pocházejí": 10185, 
  "real@@": 10186, 
  "hmat@@": 10187, 
  "fenomén": 10188, 
  "koup@@": 10189, 
  "vynaklád@@": 10190, 
  "ostem": 10191, 
  "vit@@": 10192, 
  "car@@": 10193, 
  "zvláštního": 10194, 
  "řely": 10195, 
  "zátěže": 10196, 
  "sektorech": 10197, 
  "vod": 10198, 
  "zaměří": 10199, 
  "spol@@": 10200, 
  "potvr@@": 10201, 
  "extré@@": 10202, 
  "Reagan": 10203, 
  "van@@": 10204, 
  "optimismus": 10205, 
  "koncent@@": 10206, 
  "koncipov@@": 10207, 
  "vyost@@": 10208, 
  "řejší": 10209, 
  "věřitel@@": 10210, 
  "Pe@@": 10211, 
  "Be@@": 10212, 
  "bezesporu": 10213, 
  "vyváž@@": 10214, 
  "vyšpl@@": 10215, 
  "odsouzen@@": 10216, 
  "bezpečnostním": 10217, 
  "lená": 10218, 
  "vybírat": 10219, 
  "pasiv@@": 10220, 
  "znevýhod@@": 10221, 
  "adekvátní": 10222, 
  "ospravedlnění": 10223, 
  "sebeurčení": 10224, 
  "stálé": 10225, 
  "nejbohatších": 10226, 
  "zjišť@@": 10227, 
  "sů": 10228, 
  "címu": 10229, 
  "Země": 10230, 
  "sk": 10231, 
  "tříd@@": 10232, 
  "lejších": 10233, 
  "genocidy": 10234, 
  "požád@@": 10235, 
  "Her@@": 10236, 
  "600": 10237, 
  "katastrof": 10238, 
  "matky": 10239, 
  "postar@@": 10240, 
  "počítač": 10241, 
  "přen@@": 10242, 
  "vměšování": 10243, 
  "Kjótský": 10244, 
  "rozdělit": 10245, 
  "krátkodobého": 10246, 
  "raných": 10247, 
  "řeckého": 10248, 
  "firmu": 10249, 
  "snu": 10250, 
  "ztracené": 10251, 
  "obrátil": 10252, 
  "avé": 10253, 
  "automa@@": 10254, 
  "interakce": 10255, 
  "Vladimíra": 10256, 
  "spiknutí": 10257, 
  "odrá@@": 10258, 
  "Bulharsko": 10259, 
  "Mor@@": 10260, 
  "vzali": 10261, 
  "několi@@": 10262, 
  "docházelo": 10263, 
  "islamisté": 10264, 
  "ro": 10265, 
  "zbytečné": 10266, 
  "představte": 10267, 
  "prod@@": 10268, 
  "projevů": 10269, 
  "ícího": 10270, 
  "zahraničními": 10271, 
  "pokládán": 10272, 
  "kandidátem": 10273, 
  "výrok": 10274, 
  "záměry": 10275, 
  "šíitské": 10276, 
  "figu@@": 10277, 
  "misi": 10278, 
  "ženu": 10279, 
  "touhy": 10280, 
  "islámem": 10281, 
  "kri@@": 10282, 
  "sláb@@": 10283, 
  "francouzskou": 10284, 
  "dohodnut@@": 10285, 
  "schůd@@": 10286, 
  "ambicióz@@": 10287, 
  "část@@": 10288, 
  "obce": 10289, 
  "Mer@@": 10290, 
  "důstojnosti": 10291, 
  "Gaul@@": 10292, 
  "řeli": 10293, 
  "zaznamenal": 10294, 
  "serióz@@": 10295, 
  "student@@": 10296, 
  "charakterizuje": 10297, 
  "indického": 10298, 
  "filmu": 10299, 
  "nud@@": 10300, 
[...]
