{
  "eos": 0, 
  "UNK": 1, 
  "(NP": 2, 
  ")NP": 3, 
  "(VP": 4, 
  ")VP": 5, 
  "(S": 6, 
  ")S": 7, 
  "(PP": 8, 
  ")PP": 9, 
  "the": 10, 
  ",": 11, 
  ")S1": 12, 
  "(S1": 13, 
  ".": 14, 
  "(SBAR": 15, 
  ")SBAR": 16, 
  ")ADVP": 17, 
  "(ADVP": 18, 
  "of": 19, 
  "to": 20, 
  "and": 21, 
  ")ADJP": 22, 
  "(ADJP": 23, 
  "in": 24, 
  "a": 25, 
  "'@@": 26, 
  "is": 27, 
  "that": 28, 
  "(WHNP": 29, 
  ")WHNP": 30, 
  "s": 31, 
  "for": 32, 
  "it": 33, 
  "as": 34, 
  "be": 35, 
  "not": 36, 
  "are": 37, 
  "but": 38, 
  "on": 39, 
  "with": 40, 
  "by": 41, 
  "-": 42, 
  "'": 43, 
  "this": 44, 
  "have": 45, 
  "will": 46, 
  "has": 47, 
  "``": 48, 
  "their": 49, 
  "from": 50, 
  "its": 51, 
  ")WHADVP": 52, 
  "(WHADVP": 53, 
  "an": 54, 
  "was": 55, 
  "more": 56, 
  "they": 57, 
  ")PRN": 58, 
  "(PRN": 59, 
  "at": 60, 
  "or": 61, 
  "(PRT": 62, 
  ")PRT": 63, 
  "can": 64, 
  "would": 65, 
  "countries": 66, 
  "US": 67, 
  "than": 68, 
  "we": 69, 
  "world": 70, 
  "if": 71, 
  "which": 72, 
  "(QP": 73, 
  ")QP": 74, 
  "all": 75, 
  "one": 76, 
  "so": 77, 
  "only": 78, 
  "been": 79, 
  "there": 80, 
  "no": 81, 
  "new": 82, 
  "economic": 83, 
  "should": 84, 
  "Europe": 85, 
  "even": 86, 
  "his": 87, 
  "other": 88, 
  ":": 89, 
  "about": 90, 
  "-RRB-": 91, 
  "-LRB-": 92, 
  "government": 93, 
  "now": 94, 
  "these": 95, 
  "when": 96, 
  "what": 97, 
  "were": 98, 
  "political": 99, 
  "such": 100, 
  "also": 101, 
  "people": 102, 
  "?": 103, 
  "most": 104, 
  "who": 105, 
  "do": 106, 
  "many": 107, 
  "%": 108, 
  "he": 109, 
  "(SQ": 110, 
  ")SQ": 111, 
  "some": 112, 
  "European": 113, 
  "China": 114, 
  "global": 115, 
  "could": 116, 
  "years": 117, 
  "because": 118, 
  "must": 119, 
  "financial": 120, 
  "may": 121, 
  "into": 122, 
  "country": 123, 
  "America": 124, 
  "power": 125, 
  "much": 126, 
  "EU": 127, 
  ";": 128, 
  "had": 129, 
  "Russia": 130, 
  "over": 131, 
  "policy": 132, 
  "them": 133, 
  "time": 134, 
  ")CONJP": 135, 
  "(CONJP": 136, 
  "growth": 137, 
  "economy": 138, 
  "out": 139, 
  "our": 140, 
  "up": 141, 
  "I": 142, 
  "after": 143, 
  "between": 144, 
  "international": 145, 
  "those": 146, 
  "like": 147, 
  "crisis": 148, 
  "while": 149, 
  "first": 150, 
  "any": 151, 
  "two": 152, 
  "public": 153, 
  "how": 154, 
  "both": 155, 
  "against": 156, 
  "today": 157, 
  "t": 158, 
  "well": 159, 
  "way": 160, 
  "indeed": 161, 
  "market": 162, 
  "year": 163, 
  "too": 164, 
  "system": 165, 
  "make": 166, 
  "less": 167, 
  "state": 168, 
  "(SBARQ": 169, 
  ")SBARQ": 170, 
  "need": 171, 
  "war": 172, 
  "(WHPP": 173, 
  ")WHPP": 174, 
  "American": 175, 
  "change": 176, 
  "does": 177, 
  "just": 178, 
  "markets": 179, 
  "United": 180, 
  "own": 181, 
  "military": 182, 
  "since": 183, 
  "yet": 184, 
  "n@@": 185, 
  "last": 186, 
  "become": 187, 
  "where": 188, 
  "national": 189, 
  "without": 190, 
  "Iraq": 191, 
  "governments": 192, 
  "far": 193, 
  "did": 194, 
  "long": 195, 
  "still": 196, 
  "support": 197, 
  "being": 198, 
  "President": 199, 
  "re@@": 200, 
  "leaders": 201, 
  "foreign": 202, 
  "then": 203, 
  "same": 204, 
  "un@@": 205, 
  "-@@": 206, 
  "trade": 207, 
  "$": 208, 
  "important": 209, 
  "future": 210, 
  "democracy": 211, 
  "real": 212, 
  ")FRAG": 213, 
  "(FRAG": 214, 
  "prices": 215, 
  "good": 216, 
  "might": 217, 
  "Bush": 218, 
  "social": 219, 
  "right": 220, 
  "Israel": 221, 
  "banks": 222, 
  "policies": 223, 
  "rates": 224, 
  "high": 225, 
  "example": 226, 
  "course": 227, 
  "through": 228, 
  "end": 229, 
  "interest": 230, 
  "states": 231, 
  "made": 232, 
  "debt": 233, 
  "take": 234, 
  "Germany": 235, 
  "nuclear": 236, 
  "recent": 237, 
  "under": 238, 
  "current": 239, 
  "security": 240, 
  "likely": 241, 
  "Iran": 242, 
  "however": 243, 
  "problem": 244, 
  "another": 245, 
  "us": 246, 
  "before": 247, 
  "part": 248, 
  "--": 249, 
  "oil": 250, 
  "Union": 251, 
  "use": 252, 
  "work": 253, 
  "rather": 254, 
  "(UCP": 255, 
  ")UCP": 256, 
  "Japan": 257, 
  "better": 258, 
  "capital": 259, 
  "States": 260, 
  "past": 261, 
  "why": 262, 
  "human": 263, 
  "you": 264, 
  "very": 265, 
  "often": 266, 
  "development": 267, 
  "large": 268, 
  "energy": 269, 
  "money": 270, 
  "help": 271, 
  "risk": 272, 
  "result": 273, 
  "East": 274, 
  "fact": 275, 
  "India": 276, 
  "problems": 277, 
  "poor": 278, 
  "France": 279, 
  "institutions": 280, 
  "little": 281, 
  "fiscal": 282, 
  "during": 283, 
  "means": 284, 
  "thus": 285, 
  "investment": 286, 
  "few": 287, 
  "rate": 288, 
  "major": 289, 
  "billion": 290, 
  "West": 291, 
  "around": 292, 
  "back": 293, 
  "developing": 294, 
  "able": 295, 
  "moreover": 296, 
  "among": 297, 
  "others": 298, 
  "three": 299, 
  "order": 300, 
  "including": 301, 
  "whether": 302, 
  "within": 303, 
  "members": 304, 
  "different": 305, 
  "reform": 306, 
  "down": 307, 
  "central": 308, 
  "led": 309, 
  "process": 310, 
  "already": 311, 
  "Chinese": 312, 
  "(SINV": 313, 
  ")SINV": 314, 
  "tax": 315, 
  "second": 316, 
  "economies": 317, 
  "least": 318, 
  "case": 319, 
  "democratic": 320, 
  "role": 321, 
  "given": 322, 
  "clear": 323, 
  "higher": 324, 
  "itself": 325, 
  "come": 326, 
  "increase": 327, 
  "rights": 328, 
  "ago": 329, 
  "almost": 330, 
  "each": 331, 
  "demand": 332, 
  "Bank": 333, 
  "never": 334, 
  "peace": 335, 
  "needs": 336, 
  "spending": 337, 
  "seems": 338, 
  "law": 339, 
  "perhaps": 340, 
  "price": 341, 
  "needed": 342, 
  "next": 343, 
  "free": 344, 
  "in@@": 345, 
  "history": 346, 
  "see": 347, 
  "inflation": 348, 
  "IMF": 349, 
  "life": 350, 
  "point": 351, 
  "politics": 352, 
  "region": 353, 
  "strong": 354, 
  "every": 355, 
  "remains": 356, 
  "society": 357, 
  "ing": 358, 
  "once": 359, 
  "private": 360, 
  "possible": 361, 
  "Obama": 362, 
  "climate": 363, 
  "great": 364, 
  "themselves": 365, 
  "World": 366, 
  "common": 367, 
  ")NX": 368, 
  "(NX": 369, 
  "true": 370, 
  "interests": 371, 
  "control": 372, 
  "say": 373, 
  "GDP": 374, 
  "million": 375, 
  "put": 376, 
  "greater": 377, 
  "force": 378, 
  "off": 379, 
  "French": 380, 
  "go": 381, 
  "administration": 382, 
  "best": 383, 
  "instead": 384, 
  "set": 385, 
  "place": 386, 
  "longer": 387, 
  "further": 388, 
  "get": 389, 
  "Putin": 390, 
  "used": 391, 
  "question": 392, 
  "costs": 393, 
  "currency": 394, 
  "regime": 395, 
  "continue": 396, 
  "remain": 397, 
  "want": 398, 
  "again": 399, 
  "difficult": 400, 
  "despite": 401, 
  "Middle": 402, 
  "Asia": 403, 
  "UN": 404, 
  "member": 405, 
  "domestic": 406, 
  "ed": 407, 
  "health": 408, 
  "dollar": 409, 
  "especially": 410, 
  "Western": 411, 
  "level": 412, 
  "enough": 413, 
  "es": 414, 
  "know": 415, 
  "population": 416, 
  "him": 417, 
  "rich": 418, 
  "sense": 419, 
  "Russian": 420, 
  "number": 421, 
  "believe": 422, 
  "my": 423, 
  "century": 424, 
  "president": 425, 
  "income": 426, 
  "old": 427, 
  "Turkey": 428, 
  "former": 429, 
  "ever": 430, 
  "growing": 431, 
  "rise": 432, 
  "euro": 433, 
  "er": 434, 
  "business": 435, 
  "War": 436, 
  "small": 437, 
  "lead": 438, 
  "elections": 439, 
  "companies": 440, 
  "per": 441, 
  "Americans": 442, 
  "election": 443, 
  "forces": 444, 
  "serious": 445, 
  "provide": 446, 
  "Arab": 447, 
  "stability": 448, 
  ")INTJ": 449, 
  "(INTJ": 450, 
  "always": 451, 
  "ted": 452, 
  "face": 453, 
  "based": 454, 
  "citizens": 455, 
  "left": 456, 
  "reason": 457, 
  "though": 458, 
  "benefits": 459, 
  "resources": 460, 
  "view": 461, 
  "efforts": 462, 
  "women": 463, 
  "simply": 464, 
  "rule": 465, 
  "decades": 466, 
  "party": 467, 
  "issues": 468, 
  "big": 469, 
  "making": 470, 
  "monetary": 471, 
  "unemployment": 472, 
  "issue": 473, 
  "cost": 474, 
  "community": 475, 
  "hard": 476, 
  "labor": 477, 
  "long-term": 478, 
  "information": 479, 
  "ers": 480, 
  "times": 481, 
  "NATO": 482, 
  "research": 483, 
  "find": 484, 
  "Africa": 485, 
  "reforms": 486, 
  "recently": 487, 
  "terms": 488, 
  "leadership": 489, 
  "key": 490, 
  "although": 491, 
  "Palestinian": 492, 
  "strategy": 493, 
  "parties": 494, 
  "politicians": 495, 
  "exchange": 496, 
  "conflict": 497, 
  "until": 498, 
  "home": 499, 
  "early": 500, 
  "create": 501, 
  "budget": 502, 
  "value": 503, 
  "The": 504, 
  "low": 505, 
  "workers": 506, 
  "North": 507, 
  "education": 508, 
  "reduce": 509, 
  "investors": 510, 
  "bank": 511, 
  "children": 512, 
  "particularly": 513, 
  "turn": 514, 
  "al": 515, 
  "Soviet": 516, 
  "hope": 517, 
  "credit": 518, 
  "risks": 519, 
  "increasingly": 520, 
  "open": 521, 
  "poverty": 522, 
  "sector": 523, 
  "Council": 524, 
  "nor": 525, 
  "seen": 526, 
  "de@@": 527, 
  "emerging": 528, 
  "think": 529, 
  "form": 530, 
  "said": 531, 
  "relations": 532, 
  "run": 533, 
  "pay": 534, 
  "action": 535, 
  "day": 536, 
  "fall": 537, 
  "regional": 538, 
  "done": 539, 
  "effective": 540, 
  "success": 541, 
  "ts": 542, 
  "necessary": 543, 
  "Ukraine": 544, 
  "nothing": 545, 
  "Korea": 546, 
  "ated": 547, 
  "approach": 548, 
  "seem": 549, 
  "weapons": 550, 
  "deficit": 551, 
  "failed": 552, 
  "threat": 553, 
  "ways": 554, 
  "here": 555, 
  "non-@@": 556, 
  "South": 557, 
  "together": 558, 
  "services": 559, 
  "idea": 560, 
  "Europeans": 561, 
  "jobs": 562, 
  "violence": 563, 
  "failure": 564, 
  "whose": 565, 
  "ate": 566, 
  "increased": 567, 
  "decade": 568, 
  "recession": 569, 
  "over@@": 570, 
  "really": 571, 
  "her": 572, 
  "similar": 573, 
  "values": 574, 
  "called": 575, 
  "(X": 576, 
  ")X": 577, 
  "rules": 578, 
  "share": 579, 
  "lower": 580, 
  "finance": 581, 
  "something": 582, 
  "ting": 583, 
  "German": 584, 
  "deal": 585, 
  "Minister": 586, 
  "makes": 587, 
  "several": 588, 
  "S@@": 589, 
  "developed": 590, 
  "taken": 591, 
  "give": 592, 
  "changes": 593, 
  "local": 594, 
  "dis@@": 595, 
  "lack": 596, 
  "conditions": 597, 
  "rising": 598, 
  "look": 599, 
  "return": 600, 
  "huge": 601, 
  "half": 602, 
  "freedom": 603, 
  "levels": 604, 
  "technology": 605, 
  "cause": 606, 
  "modern": 607, 
  "short": 608, 
  "religious": 609, 
  "powerful": 610, 
  "majority": 611, 
  "either": 612, 
  "bad": 613, 
  "position": 614, 
  "opposition": 615, 
  "e": 616, 
  "potential": 617, 
  "away": 618, 
  "agreement": 619, 
  "challenge": 620, 
  "things": 621, 
  "beyond": 622, 
  "terrorism": 623, 
  "months": 624, 
  "Afghanistan": 625, 
  "main": 626, 
  "became": 627, 
  "bring": 628, 
  "globalization": 629, 
  "across": 630, 
  "start": 631, 
  "keep": 632, 
  "debate": 633, 
  "fear": 634, 
  "probably": 635, 
  "groups": 636, 
  "nations": 637, 
  "requires": 638, 
  "matter": 639, 
  "lost": 640, 
  "influence": 641, 
  "Britain": 642, 
  "age": 643, 
  "balance": 644, 
  "aid": 645, 
  "consequences": 646, 
  "food": 647, 
  "Hamas": 648, 
  "systems": 649, 
  "firms": 650, 
  "rest": 651, 
  "Commission": 652, 
  "water": 653, 
  "program": 654, 
  "found": 655, 
  "measures": 656, 
  "doing": 657, 
  "toward": 658, 
  "assets": 659, 
  "/@@": 660, 
  "wrong": 661, 
  "progress": 662, 
  "British": 663, 
  "according": 664, 
  "prevent": 665, 
  "alone": 666, 
  "let": 667, 
  "response": 668, 
  "young": 669, 
  "emissions": 670, 
  "later": 671, 
  "20": 672, 
  "situation": 673, 
  "play": 674, 
  "worse": 675, 
  "man": 676, 
  "act": 677, 
  "live": 678, 
  "leading": 679, 
  "group": 680, 
  "ating": 681, 
  "Party": 682, 
  "strategic": 683, 
  "massive": 684, 
  "created": 685, 
  "side": 686, 
  "Central": 687, 
  "move": 688, 
  "pressure": 689, 
  "consider": 690, 
  "stock": 691, 
  "late": 692, 
  "science": 693, 
  "officials": 694, 
  "individual": 695, 
  "began": 696, 
  "s@@": 697, 
  "having": 698, 
  "civil": 699, 
  "deficits": 700, 
  "hand": 701, 
  "moral": 702, 
  "wealth": 703, 
  "eurozone": 704, 
  "decline": 705, 
  "finally": 706, 
  "soon": 707, 
  "Muslim": 708, 
  "mean": 709, 
  "ECB": 710, 
  "challenges": 711, 
  "clearly": 712, 
  "fundamental": 713, 
  "solution": 714, 
  "behind": 715, 
  "Israeli": 716, 
  "ability": 717, 
  "integration": 718, 
  "production": 719, 
  "&": 720, 
  "model": 721, 
  "increasing": 722, 
  "natural": 723, 
  "full": 724, 
  "lives": 725, 
  "third": 726, 
  "effect": 727, 
  "areas": 728, 
  "five": 729, 
  "1990": 730, 
  "confidence": 731, 
  "single": 732, 
  "T@@": 733, 
  "leader": 734, 
  "en@@": 735, 
  "successful": 736, 
  "vote": 737, 
  "everyone": 738, 
  "living": 739, 
  "term": 740, 
  "average": 741, 
  "decision": 742, 
  "ensure": 743, 
  "funds": 744, 
  "came": 745, 
  "job": 746, 
  "legal": 747, 
  "collapse": 748, 
  "me": 749, 
  "competition": 750, 
  "understand": 751, 
  "effort": 752, 
  "10": 753, 
  "A@@": 754, 
  "taxes": 755, 
  "negotiations": 756, 
  "access": 757, 
  "Palestinians": 758, 
  "corruption": 759, 
  "impact": 760, 
  "close": 761, 
  "opportunity": 762, 
  "c@@": 763, 
  "media": 764, 
  "employment": 765, 
  "banking": 766, 
  "four": 767, 
  "period": 768, 
  "took": 769, 
  "effects": 770, 
  "require": 771, 
  "particular": 772, 
  "evidence": 773, 
  "taking": 774, 
  "Italy": 775, 
  "cooperation": 776, 
  "traditional": 777, 
  "g@@": 778, 
  "popular": 779, 
  "significant": 780, 
  "cut": 781, 
  "comes": 782, 
  "defense": 783, 
  "Pakistan": 784, 
  "basic": 785, 
  "achieve": 786, 
  "sh@@": 787, 
  "P@@": 788, 
  "avoid": 789, 
  "Prime": 790, 
  "using": 791, 
  "goods": 792, 
  "warming": 793, 
  "step": 794, 
  "total": 795, 
  "limited": 796, 
  "culture": 797, 
  "reasons": 798, 
  "a@@": 799, 
  "focus": 800, 
  "sure": 801, 
  "Security": 802, 
  "coming": 803, 
  "kind": 804, 
  "show": 805, 
  "attacks": 806, 
  "thought": 807, 
  "responsibility": 808, 
  "men": 809, 
  "exports": 810, 
  "experience": 811, 
  "Islamic": 812, 
  "death": 813, 
  "powers": 814, 
  "working": 815, 
  "care": 816, 
  "call": 817, 
  "brought": 818, 
  "standards": 819, 
  "advanced": 820, 
  "programs": 821, 
  "minister": 822, 
  "con@@": 823, 
  "thing": 824, 
  "reality": 825, 
  "recovery": 826, 
  "towards": 827, 
  "era": 828, 
  "New": 829, 
  "campaign": 830, 
  "im@@": 831, 
  "decisions": 832, 
  "expected": 833, 
  "Japanese": 834, 
  "liberal": 835, 
  "Fund": 836, 
  "alternative": 837, 
  "actually": 838, 
  "contrast": 839, 
  "independent": 840, 
  "allow": 841, 
  "capacity": 842, 
  "i": 843, 
  "M@@": 844, 
  "largely": 845, 
  "presidential": 846, 
  "e@@": 847, 
  "C@@": 848, 
  "consumption": 849, 
  "re-@@": 850, 
  "stop": 851, 
  "official": 852, 
  "attention": 853, 
  "held": 854, 
  "productivity": 855, 
  "she": 856, 
  "behavior": 857, 
  "accept": 858, 
  "ten": 859, 
  "line": 860, 
  "gas": 861, 
  "scientific": 862, 
  "50": 863, 
  "land": 864, 
  "1": 865, 
  "supply": 866, 
  "answer": 867, 
  "certain": 868, 
  "ation": 869, 
  "neither": 870, 
  "revolution": 871, 
  "outside": 872, 
  "concerns": 873, 
  "benefit": 874, 
  "independence": 875, 
  "hold": 876, 
  "economists": 877, 
  "building": 878, 
  "de": 879, 
  "above": 880, 
  "produce": 881, 
  "industrial": 882, 
  "International": 883, 
  "tion": 884, 
  "Poland": 885, 
  "2008": 886, 
  "cultural": 887, 
  "cases": 888, 
  "fight": 889, 
  "membership": 890, 
  "nation": 891, 
  "easy": 892, 
  "status": 893, 
  "voters": 894, 
  "Egypt": 895, 
  "due": 896, 
  "plan": 897, 
  "unfortunately": 898, 
  "cuts": 899, 
  "th": 900, 
  "anti-@@": 901, 
  "words": 902, 
  "f@@": 903, 
  "following": 904, 
  "Latin": 905, 
  "Asian": 906, 
  "societies": 907, 
  "helped": 908, 
  "p@@": 909, 
  "R@@": 910, 
  "protect": 911, 
  "weak": 912, 
  "sometimes": 913, 
  "elsewhere": 914, 
  "self-@@": 915, 
  "k": 916, 
  "y": 917, 
  "Greece": 918, 
  "certainly": 919, 
  "results": 920, 
  "agenda": 921, 
  "B@@": 922, 
  "merely": 923, 
  "y@@": 924, 
  "top": 925, 
  "d@@": 926, 
  "appears": 927, 
  "whole": 928, 
  "Kosovo": 929, 
  "going": 930, 
  "throughout": 931, 
  "direct": 932, 
  "Mexico": 933, 
  "insurance": 934, 
  "stimulus": 935, 
  "goal": 936, 
  "intervention": 937, 
  "nature": 938, 
  "ra@@": 939, 
  "governance": 940, 
  "claim": 941, 
  "moment": 942, 
  "crises": 943, 
  "relatively": 944, 
  "George": 945, 
  "investments": 946, 
  "H@@": 947, 
  "creating": 948, 
  "simple": 949, 
  "beginning": 950, 
  "therefore": 951, 
  "allowed": 952, 
  "an@@": 953, 
  "thinking": 954, 
  "environmental": 955, 
  "largest": 956, 
  "environment": 957, 
  "Islam": 958, 
  "days": 959, 
  "highly": 960, 
  "dangerous": 961, 
  "dollars": 962, 
  "Gaza": 963, 
  "d": 964, 
  "carbon": 965, 
  "unlikely": 966, 
  "September": 967, 
  "address": 968, 
  "millions": 969, 
  "2001": 970, 
  "mass": 971, 
  "argue": 972, 
  "followed": 973, 
  "t@@": 974, 
  "turned": 975, 
  "offer": 976, 
  "knowledge": 977, 
  "F@@": 978, 
  "Sarkozy": 979, 
  "general": 980, 
  "Nations": 981, 
  "industry": 982, 
  "30": 983, 
  "economics": 984, 
  "E@@": 985, 
  "rapid": 986, 
  "events": 987, 
  "known": 988, 
  "questions": 989, 
  "Treaty": 990, 
  "parts": 991, 
  "try": 992, 
  "build": 993, 
  "attack": 994, 
  "D@@": 995, 
  "annual": 996, 
  "feel": 997, 
  "your": 998, 
  "Lebanon": 999, 
  "meeting": 1000, 
  "deep": 1001, 
  "maintain": 1002, 
  "2": 1003, 
  "provided": 1004, 
  "terrorist": 1005, 
  "movement": 1006, 
  "commitment": 1007, 
  "Georgia": 1008, 
  "o": 1009, 
  "wants": 1010, 
  "al@@": 1011, 
  "forced": 1012, 
  "fully": 1013, 
  "infrastructure": 1014, 
  "eventually": 1015, 
  "ic": 1016, 
  "ideas": 1017, 
  "chance": 1018, 
  "Syria": 1019, 
  "technologies": 1020, 
  "respect": 1021, 
  "bonds": 1022, 
  "quickly": 1023, 
  "anything": 1024, 
  "w@@": 1025, 
  "Great": 1026, 
  "regions": 1027, 
  "ded": 1028, 
  "ally": 1029, 
  "assistance": 1030, 
  "Eastern": 1031, 
  "established": 1032, 
  "co@@": 1033, 
  "basis": 1034, 
  "individuals": 1035, 
  "entire": 1036, 
  "increases": 1037, 
  "relative": 1038, 
  "organizations": 1039, 
  "differences": 1040, 
  "G@@": 1041, 
  "area": 1042, 
  "becoming": 1043, 
  "begin": 1044, 
  "nearly": 1045, 
  "elected": 1046, 
  "news": 1047, 
  "management": 1048, 
  "larger": 1049, 
  "capitalism": 1050, 
  "report": 1051, 
  "Spain": 1052, 
  "outcome": 1053, 
  "di@@": 1054, 
  "Brazil": 1055, 
  "similarly": 1056, 
  "laws": 1057, 
  "impossible": 1058, 
  "be@@": 1059, 
  "b@@": 1060, 
  "historical": 1061, 
  "th@@": 1062, 
  "internal": 1063, 
  "meet": 1064, 
  "reserves": 1065, 
  "include": 1066, 
  "required": 1067, 
  "regulation": 1068, 
  "happened": 1069, 
  "trying": 1070, 
  "London": 1071, 
  "currently": 1072, 
  "consensus": 1073, 
  "fail": 1074, 
  "welfare": 1075, 
  "family": 1076, 
  "policymakers": 1077, 
  "legitimacy": 1078, 
  "changed": 1079, 
  "generation": 1080, 
  "personal": 1081, 
  "Argentina": 1082, 
  "choice": 1083, 
  "principle": 1084, 
  "obvious": 1085, 
  "recognize": 1086, 
  "reducing": 1087, 
  "corporate": 1088, 
  "er@@": 1089, 
  "account": 1090, 
  "ant": 1091, 
  "easily": 1092, 
  "Saudi": 1093, 
  "actions": 1094, 
  "reach": 1095, 
  "grow": 1096, 
  "mis@@": 1097, 
  "ous": 1098, 
  "Muslims": 1099, 
  "housing": 1100, 
  "la@@": 1101, 
  "ly": 1102, 
  "doubt": 1103, 
  "along": 1104, 
  "forward": 1105, 
  "available": 1106, 
  "incentives": 1107, 
  "authorities": 1108, 
  "concern": 1109, 
  "caused": 1110, 
  "month": 1111, 
  "tions": 1112, 
  "essential": 1113, 
  "L@@": 1114, 
  "m@@": 1115, 
  "theory": 1116, 
  "critical": 1117, 
  "authority": 1118, 
  "opinion": 1119, 
  "II": 1120, 
  "st": 1121, 
  "3": 1122, 
  "loss": 1123, 
  "Cold": 1124, 
  "wars": 1125, 
  "relationship": 1126, 
  "am": 1127, 
  "le@@": 1128, 
  "justice": 1129, 
  "K@@": 1130, 
  "office": 1131, 
  "Iraqi": 1132, 
  "performance": 1133, 
  "victory": 1134, 
  "upon": 1135, 
  "i@@": 1136, 
  "army": 1137, 
  "ethnic": 1138, 
  "damage": 1139, 
  "source": 1140, 
  "positive": 1141, 
  "troops": 1142, 
  "Washington": 1143, 
  "willing": 1144, 
  "truth": 1145, 
  "coalition": 1146, 
  "institutional": 1147, 
  "1980": 1148, 
  "ism": 1149, 
  "prosperity": 1150, 
  "politically": 1151, 
  "happen": 1152, 
  "understanding": 1153, 
  "soft": 1154, 
  "boom": 1155, 
  "2000": 1156, 
  "seek": 1157, 
  "improve": 1158, 
  "press": 1159, 
  "save": 1160, 
  "seemed": 1161, 
  "o@@": 1162, 
  "follow": 1163, 
  "company": 1164, 
  "vision": 1165, 
  "prime": 1166, 
  "spread": 1167, 
  "roughly": 1168, 
  "lose": 1169, 
  "disease": 1170, 
  "protection": 1171, 
  "ch@@": 1172, 
  "products": 1173, 
  "so-called": 1174, 
  "matters": 1175, 
  "paid": 1176, 
  "committed": 1177, 
  "sides": 1178, 
  "11": 1179, 
  "scale": 1180, 
  "police": 1181, 
  "25": 1182, 
  "m": 1183, 
  "external": 1184, 
  "develop": 1185, 
  "unless": 1186, 
  "allies": 1187, 
  "claims": 1188, 
  "structural": 1189, 
  "ahead": 1190, 
  "African": 1191, 
  "N@@": 1192, 
  "O@@": 1193, 
  "continued": 1194, 
  "sustainable": 1195, 
  "head": 1196, 
  "reduced": 1197, 
  "ultimately": 1198, 
  "complex": 1199, 
  "talks": 1200, 
  "suggests": 1201, 
  "contrary": 1202, 
  "2004": 1203, 
  "shift": 1204, 
  "gain": 1205, 
  "les": 1206, 
  "promote": 1207, 
  "tried": 1208, 
  "creation": 1209, 
  "sanctions": 1210, 
  "special": 1211, 
  "transition": 1212, 
  "40": 1213, 
  "asset": 1214, 
  "raise": 1215, 
  "opportunities": 1216, 
  "ties": 1217, 
  "Saddam": 1218, 
  "lending": 1219, 
  "le": 1220, 
  "appear": 1221, 
  "at@@": 1222, 
  "amount": 1223, 
  "vast": 1224, 
  "expect": 1225, 
  "himself": 1226, 
  "everything": 1227, 
  "usually": 1228, 
  "size": 1229, 
  "demands": 1230, 
  "constitution": 1231, 
  "5": 1232, 
  "core": 1233, 
  "losses": 1234, 
  "2007": 1235, 
  "whatever": 1236, 
  "worldwide": 1237, 
  "steps": 1238, 
  "u@@": 1239, 
  "out@@": 1240, 
  "under@@": 1241, 
  "ans": 1242, 
  "output": 1243, 
  "drug": 1244, 
  "facing": 1245, 
  "difference": 1246, 
  "proposed": 1247, 
  "presidency": 1248, 
  "story": 1249, 
  "continues": 1250, 
  ")WHADJP": 1251, 
  "started": 1252, 
  "liquidity": 1253, 
  "ding": 1254, 
  "(WHADJP": 1255, 
  "path": 1256, 
  "anyone": 1257, 
  "attempt": 1258, 
  "Internet": 1259, 
  "15": 1260, 
  "leave": 1261, 
  "Iranian": 1262, 
  "importance": 1263, 
  "2005": 1264, 
  "k@@": 1265, 
  "stable": 1266, 
  "radical": 1267, 
  "ac@@": 1268, 
  "enormous": 1269, 
  "scientists": 1270, 
  "limits": 1271, 
  "summit": 1272, 
  "direction": 1273, 
  "loans": 1274, 
  "responsible": 1275, 
  "present": 1276, 
  "Congress": 1277, 
  "!": 1278, 
  "ground": 1279, 
  "Fed": 1280, 
  "asked": 1281, 
  "framework": 1282, 
  "person": 1283, 
  "extreme": 1284, 
  "Blair": 1285, 
  "agree": 1286, 
  "savings": 1287, 
  "li@@": 1288, 
  "2009": 1289, 
  "ar@@": 1290, 
  "inter@@": 1291, 
  "democracies": 1292, 
  "argument": 1293, 
  "buy": 1294, 
  "ti@@": 1295, 
  "task": 1296, 
  "immediate": 1297, 
  "factors": 1298, 
  "none": 1299, 
  "negative": 1300, 
  "principles": 1301, 
  "net": 1302, 
  "test": 1303, 
  "achieved": 1304, 
  "treatment": 1305, 
  "additional": 1306, 
  "six": 1307, 
  "spend": 1308, 
  "otherwise": 1309, 
  "shows": 1310, 
  "talk": 1311, 
  "suggest": 1312, 
  "short-term": 1313, 
  "stronger": 1314, 
  "trust": 1315, 
  "red": 1316, 
  "class": 1317, 
  "inequality": 1318, 
  "abroad": 1319, 
  "lot": 1320, 
  "agreed": 1321, 
  "goes": 1322, 
  "standard": 1323, 
  "union": 1324, 
  "V@@": 1325, 
  "provides": 1326, 
  "struggle": 1327, 
  "parliament": 1328, 
  "went": 1329, 
  "terrorists": 1330, 
  "ne@@": 1331, 
  "exist": 1332, 
  "unlike": 1333, 
  "goals": 1334, 
  "providing": 1335, 
  "neighbors": 1336, 
  "severe": 1337, 
  "cities": 1338, 
  "aimed": 1339, 
  "quality": 1340, 
  "borders": 1341, 
  "slow": 1342, 
  "competitive": 1343, 
  "supported": 1344, 
  "else": 1345, 
  "effectively": 1346, 
  "existing": 1347, 
  "Secretary": 1348, 
  "export": 1349, 
  "ent": 1350, 
  "l@@": 1351, 
  "als": 1352, 
  "vital": 1353, 
  "rapidly": 1354, 
  "favor": 1355, 
  "produced": 1356, 
  "ates": 1357, 
  "directly": 1358, 
  "saving": 1359, 
  "center": 1360, 
  "#": 1361, 
  "compared": 1362, 
  "ro@@": 1363, 
  "ordinary": 1364, 
  "various": 1365, 
  "views": 1366, 
  "ask": 1367, 
  "spent": 1368, 
  "enlargement": 1369, 
  "se": 1370, 
  "Kremlin": 1371, 
  "ma@@": 1372, 
  "reached": 1373, 
  "takes": 1374, 
  "W.": 1375, 
  "won": 1376, 
  "as@@": 1377, 
  "name": 1378, 
  "fighting": 1379, 
  "crimes": 1380, 
  "Serbia": 1381, 
  "ling": 1382, 
  "becomes": 1383, 
  "win": 1384, 
  "body": 1385, 
  "stand": 1386, 
  "mostly": 1387, 
  "it@@": 1388, 
  "space": 1389, 
  "project": 1390, 
  "calls": 1391, 
  "trillion": 1392, 
  "Federal": 1393, 
  "shown": 1394, 
  "W@@": 1395, 
  "Barack": 1396, 
  "ab@@": 1397, 
  "Ireland": 1398, 
  "ar": 1399, 
  "reduction": 1400, 
  "thousands": 1401, 
  "fair": 1402, 
  "everywhere": 1403, 
  "boost": 1404, 
  "collective": 1405, 
  "General": 1406, 
  "danger": 1407, 
  "service": 1408, 
  "constitutional": 1409, 
  "pre@@": 1410, 
  "supposed": 1411, 
  "widely": 1412, 
  "designed": 1413, 
  "John": 1414, 
  "tes": 1415, 
  "extent": 1416, 
  "round": 1417, 
  "subsidies": 1418, 
  "game": 1419, 
  "crucial": 1420, 
  "ical": 1421, 
  "giving": 1422, 
  "victims": 1423, 
  "ine": 1424, 
  "competitiveness": 1425, 
  "g": 1426, 
  "data": 1427, 
  "owing": 1428, 
  "wages": 1429, 
  "ve": 1430, 
  "Moscow": 1431, 
  "diplomatic": 1432, 
  "gra@@": 1433, 
  "en": 1434, 
  "financing": 1435, 
  "parliamentary": 1436, 
  "permanent": 1437, 
  "arms": 1438, 
  "serve": 1439, 
  "conflicts": 1440, 
  "am@@": 1441, 
  "ri@@": 1442, 
  "language": 1443, 
  "earlier": 1444, 
  "shared": 1445, 
  "join": 1446, 
  "ad@@": 1447, 
  "candidate": 1448, 
  "hundreds": 1449, 
  "addition": 1450, 
  "drugs": 1451, 
  "involved": 1452, 
  "built": 1453, 
  "ings": 1454, 
  "forms": 1455, 
  "establish": 1456, 
  "burden": 1457, 
  "poorest": 1458, 
  "overall": 1459, 
  "biggest": 1460, 
  "expectations": 1461, 
  "Indian": 1462, 
  "ter": 1463, 
  "falling": 1464, 
  "sovereignty": 1465, 
  "expansion": 1466, 
  "advantage": 1467, 
  "normal": 1468, 
  "destruction": 1469, 
  "near": 1470, 
  "currencies": 1471, 
  "afford": 1472, 
  "tend": 1473, 
  "sovereign": 1474, 
  "efficient": 1475, 
  "gave": 1476, 
  "Clinton": 1477, 
  "widespread": 1478, 
  "target": 1479, 
  "consumers": 1480, 
  "below": 1481, 
  "2006": 1482, 
  "worked": 1483, 
  "prove": 1484, 
  "hit": 1485, 
  "whereas": 1486, 
  "st@@": 1487, 
  "Republic": 1488, 
  "60": 1489, 
  "type": 1490, 
  "excessive": 1491, 
  "plans": 1492, 
  "told": 1493, 
  "substantial": 1494, 
  "gains": 1495, 
  "businesses": 1496, 
  "activities": 1497, 
  "intellectual": 1498, 
  "2010": 1499, 
  "record": 1500, 
  "wage": 1501, 
  "suffering": 1502, 
  "safe": 1503, 
  "bubble": 1504, 
  "Communist": 1505, 
  "study": 1506, 
  "causes": 1507, 
  "argued": 1508, 
  "circumstances": 1509, 
  "sources": 1510, 
  "ge": 1511, 
  "saw": 1512, 
  "sp@@": 1513, 
  "identity": 1514, 
  "equal": 1515, 
  "structure": 1516, 
  "mainly": 1517, 
  "disaster": 1518, 
  "safety": 1519, 
  "violent": 1520, 
  "getting": 1521, 
  "tive": 1522, 
  "lies": 1523, 
  "practice": 1524, 
  "encourage": 1525, 
  "worst": 1526, 
  "threats": 1527, 
  "regimes": 1528, 
  "treaty": 1529, 
  "secure": 1530, 
  "middle": 1531, 
  "macroeconomic": 1532, 
  "100": 1533, 
  "previous": 1534, 
  "innovation": 1535, 
  "communities": 1536, 
  "imbalances": 1537, 
  "4": 1538, 
  "se@@": 1539, 
  "adopted": 1540, 
  "December": 1541, 
  "meanwhile": 1542, 
  "Russians": 1543, 
  "post-@@": 1544, 
  "points": 1545, 
  "alliance": 1546, 
  "YORK": 1547, 
  "book": 1548, 
  "week": 1549, 
  "mind": 1550, 
  "G-20": 1551, 
  "ons": 1552, 
  "vulnerable": 1553, 
  "regulatory": 1554, 
  "6": 1555, 
  "communism": 1556, 
  "electoral": 1557, 
  "solidarity": 1558, 
  "factor": 1559, 
  "fell": 1560, 
  "priority": 1561, 
  "concerned": 1562, 
  "related": 1563, 
  "seriously": 1564, 
  "sought": 1565, 
  "ations": 1566, 
  "Hezbollah": 1567, 
  "quite": 1568, 
  "nowadays": 1569, 
  "up@@": 1570, 
  "reflect": 1571, 
  "promises": 1572, 
  "households": 1573, 
  "reflects": 1574, 
  "ones": 1575, 
  "faced": 1576, 
  "farmers": 1577, 
  "depends": 1578, 
  "diplomacy": 1579, 
  "nationalism": 1580, 
  "1970": 1581, 
  "ment": 1582, 
  "worth": 1583, 
  "specific": 1584, 
  "lesson": 1585, 
  "gap": 1586, 
  "running": 1587, 
  "fears": 1588, 
  "thereby": 1589, 
  "religion": 1590, 
  "strengthen": 1591, 
  "rhetoric": 1592, 
  "armed": 1593, 
  "solutions": 1594, 
  "or@@": 1595, 
  "h@@": 1596, 
  "absence": 1597, 
  "hands": 1598, 
  "seeking": 1599, 
  "belief": 1600, 
  "National": 1601, 
  "managed": 1602, 
  "organization": 1603, 
  "places": 1604, 
  "affairs": 1605, 
  "king": 1606, 
  "expensive": 1607, 
  "knows": 1608, 
  "sufficient": 1609, 
  "whom": 1610, 
  "faces": 1611, 
  "city": 1612, 
  "movements": 1613, 
  "der": 1614, 
  "partly": 1615, 
  "nevertheless": 1616, 
  "property": 1617, 
  "zed": 1618, 
  "ists": 1619, 
  "profits": 1620, 
  "promise": 1621, 
  "ity": 1622, 
  "blame": 1623, 
  "hardly": 1624, 
  "weeks": 1625, 
  "learned": 1626, 
  "focused": 1627, 
  "al-@@": 1628, 
  "Israelis": 1629, 
  "participation": 1630, 
  "fuel": 1631, 
  "recognized": 1632, 
  "on@@": 1633, 
  "improved": 1634, 
  "border": 1635, 
  "prospects": 1636, 
  "ors": 1637, 
  "trading": 1638, 
  "initiative": 1639, 
  "flows": 1640, 
  "light": 1641, 
  "intelligence": 1642, 
  "push": 1643, 
  "agencies": 1644, 
  "learn": 1645, 
  "candidates": 1646, 
  "road": 1647, 
  "activity": 1648, 
  "closer": 1649, 
  "sign": 1650, 
  "looks": 1651, 
  "bo@@": 1652, 
  "ap@@": 1653, 
  "school": 1654, 
  "instability": 1655, 
  "sound": 1656, 
  "imposed": 1657, 
  "per@@": 1658, 
  "smaller": 1659, 
  "remained": 1660, 
  "ch": 1661, 
  "limit": 1662, 
  "surplus": 1663, 
  "impose": 1664, 
  "helping": 1665, 
  "prospect": 1666, 
  "option": 1667, 
  "he@@": 1668, 
  "wanted": 1669, 
  "precisely": 1670, 
  "well-@@": 1671, 
  "manage": 1672, 
  "invest": 1673, 
  "default": 1674, 
  "targets": 1675, 
  "possibility": 1676, 
  "appropriate": 1677, 
  "considered": 1678, 
  "driven": 1679, 
  "peaceful": 1680, 
  "liberalization": 1681, 
  "explain": 1682, 
  "greatest": 1683, 
  "received": 1684, 
  "looking": 1685, 
  "fast": 1686, 
  "faster": 1687, 
  "Copenhagen": 1688, 
  "inevitable": 1689, 
  "played": 1690, 
  "message": 1691, 
  "commercial": 1692, 
  "ir@@": 1693, 
  "payments": 1694, 
  "Korean": 1695, 
  "Y@@": 1696, 
  "lines": 1697, 
  "prepared": 1698, 
  "speech": 1699, 
  "models": 1700, 
  "generally": 1701, 
  "moderate": 1702, 
  "j@@": 1703, 
  "Treasury": 1704, 
  "immigration": 1705, 
  "positions": 1706, 
  "students": 1707, 
  "deeply": 1708, 
  "range": 1709, 
  "house": 1710, 
  "medical": 1711, 
  "cutting": 1712, 
  "credibility": 1713, 
  "accepted": 1714, 
  "respond": 1715, 
  "court": 1716, 
  "si@@": 1717, 
  "believed": 1718, 
  "proposal": 1719, 
  "2003": 1720, 
  "45": 1721, 
  "accounts": 1722, 
  "v@@": 1723, 
  "crime": 1724, 
  "November": 1725, 
  "unable": 1726, 
  "Court": 1727, 
  "combined": 1728, 
  "Greek": 1729, 
  "ready": 1730, 
  "ruling": 1731, 
  "strength": 1732, 
  "meant": 1733, 
  "context": 1734, 
  "equally": 1735, 
  "ze": 1736, 
  "ended": 1737, 
  "I@@": 1738, 
  "revenues": 1739, 
  "final": 1740, 
  "Arabia": 1741, 
  "works": 1742, 
  "Reserve": 1743, 
  "mo@@": 1744, 
  "Monetary": 1745, 
  "promised": 1746, 
  "sub@@": 1747, 
  "holding": 1748, 
  "operations": 1749, 
  "agricultural": 1750, 
  "efficiency": 1751, 
  "8": 1752, 
  "killed": 1753, 
  "heart": 1754, 
  "May": 1755, 
  "stage": 1756, 
  "sectors": 1757, 
  "raised": 1758, 
  "decided": 1759, 
  "ca": 1760, 
  "ex@@": 1761, 
  "sort": 1762, 
  "conservative": 1763, 
  "active": 1764, 
  "air": 1765, 
  "malaria": 1766, 
  "gone": 1767, 
  "technological": 1768, 
  "wo": 1769, 
  "imports": 1770, 
  "depend": 1771, 
  "communist": 1772, 
  "ic@@": 1773, 
  "subject": 1774, 
  "2@@": 1775, 
  "met": 1776, 
  "lo@@": 1777, 
  "res": 1778, 
  "divided": 1779, 
  "moving": 1780, 
  "terror": 1781, 
  "ically": 1782, 
  "equity": 1783, 
  "occupation": 1784, 
  "sh": 1785, 
  "likewise": 1786, 
  "importantly": 1787, 
  "changing": 1788, 
  "projects": 1789, 
  "J@@": 1790, 
  "Turkish": 1791, 
  "for@@": 1792, 
  "declared": 1793, 
  "truly": 1794, 
  "universal": 1795, 
  "sell": 1796, 
  "high-@@": 1797, 
  "compromise": 1798, 
  "bankers": 1799, 
  "transparency": 1800, 
  "unity": 1801, 
  "degree": 1802, 
  "Parliament": 1803, 
  "worry": 1804, 
  "te": 1805, 
  "numbers": 1806, 
  "consumer": 1807, 
  "sharp": 1808, 
  "defeat": 1809, 
  "incomes": 1810, 
  "partners": 1811, 
  "resolution": 1812, 
  "sharply": 1813, 
  "elite": 1814, 
  "guarantee": 1815, 
  "Wall": 1816, 
  "demonstrated": 1817, 
  "borrowing": 1818, 
  "break": 1819, 
  "capita": 1820, 
  "measure": 1821, 
  "construction": 1822, 
  "broad": 1823, 
  "child": 1824, 
  "1989": 1825, 
  "ministers": 1826, 
  "lessons": 1827, 
  "over-@@": 1828, 
  "1999": 1829, 
  "continuing": 1830, 
  "opening": 1831, 
  "po@@": 1832, 
  "resistance": 1833, 
  "ls": 1834, 
  "families": 1835, 
  "pro@@": 1836, 
  "temporary": 1837, 
  "understood": 1838, 
  "3@@": 1839, 
  "mistake": 1840, 
  "desire": 1841, 
  "no@@": 1842, 
  "associated": 1843, 
  "virtually": 1844, 
  "federal": 1845, 
  "resulting": 1846, 
  "raising": 1847, 
  "UK": 1848, 
  "trend": 1849, 
  "authoritarian": 1850, 
  "entirely": 1851, 
  "style": 1852, 
  "decide": 1853, 
  "regard": 1854, 
  "contribute": 1855, 
  "legitimate": 1856, 
  "civilian": 1857, 
  "ru@@": 1858, 
  "funding": 1859, 
  "unions": 1860, 
  ".@@": 1861, 
  "implement": 1862, 
  "em@@": 1863, 
  "rely": 1864, 
  "succeed": 1865, 
  "presence": 1866, 
  "dialogue": 1867, 
  "schools": 1868, 
  "des": 1869, 
  "options": 1870, 
  "alized": 1871, 
  "occur": 1872, 
  "speak": 1873, 
  "ha@@": 1874, 
  "ary": 1875, 
  "ence": 1876, 
  "uncertainty": 1877, 
  "ness": 1878, 
  "CO2": 1879, 
  "promoting": 1880, 
  "debts": 1881, 
  "har@@": 1882, 
  "surprise": 1883, 
  "2002": 1884, 
  "Al": 1885, 
  "Kingdom": 1886, 
  "bear": 1887, 
  "Development": 1888, 
  "York": 1889, 
  "Cambridge": 1890, 
  "restore": 1891, 
  "State": 1892, 
  "March": 1893, 
  "op@@": 1894, 
  "Dutch": 1895, 
  "Palestine": 1896, 
  "determined": 1897, 
  "experts": 1898, 
  "soldiers": 1899, 
  "sustained": 1900, 
  "ec@@": 1901, 
  "list": 1902, 
  "trouble": 1903, 
  "obviously": 1904, 
  "aim": 1905, 
  "born": 1906, 
  "primary": 1907, 
  "easier": 1908, 
  "industries": 1909, 
  "significantly": 1910, 
  "studies": 1911, 
  "A": 1912, 
  "ca@@": 1913, 
  "na@@": 1914, 
  "rulers": 1915, 
  "dramatic": 1916, 
  "base": 1917, 
  "populations": 1918, 
  "faith": 1919, 
  "starting": 1920, 
  "ideological": 1921, 
  "tic": 1922, 
  "says": 1923, 
  "scenario": 1924, 
  "represent": 1925, 
  "race": 1926, 
  "ou@@": 1927, 
  "Berlin": 1928, 
  "imagine": 1929, 
  "te@@": 1930, 
  "fund": 1931, 
  "du@@": 1932, 
  "defined": 1933, 
  "flow": 1934, 
  "solve": 1935, 
  "friends": 1936, 
  "immediately": 1937, 
  "securities": 1938, 
  "bringing": 1939, 
  "June": 1940, 
  "announced": 1941, 
  "immigrants": 1942, 
  "structures": 1943, 
  "offers": 1944, 
  "yes": 1945, 
  "viewed": 1946, 
  "supplies": 1947, 
  "emerged": 1948, 
  "patients": 1949, 
  "protests": 1950, 
  "trial": 1951, 
  "rural": 1952, 
  "strategies": 1953, 
  "ously": 1954, 
  "mon@@": 1955, 
  "bu@@": 1956, 
  "minority": 1957, 
  "ves": 1958, 
  "team": 1959, 
  "eight": 1960, 
  "choose": 1961, 
  "ds": 1962, 
  "occurred": 1963, 
  "gold": 1964, 
  "choices": 1965, 
  "fa@@": 1966, 
  "surely": 1967, 
  "unique": 1968, 
  "attempts": 1969, 
  "(NAC": 1970, 
  ")NAC": 1971, 
  "latest": 1972, 
  "ering": 1973, 
  "ses": 1974, 
  "universities": 1975, 
  "zation": 1976, 
  "battle": 1977, 
  "secular": 1978, 
  "nationalist": 1979, 
  "broader": 1980, 
  "controls": 1981, 
  "pursue": 1982, 
  "Democrats": 1983, 
  "AIDS": 1984, 
  "relief": 1985, 
  "tra@@": 1986, 
  "multilateral": 1987, 
  "7": 1988, 
  "invasion": 1989, 
  "Indonesia": 1990, 
  "word": 1991, 
  "Nobel": 1992, 
  "agreements": 1993, 
  "deeper": 1994, 
  "double": 1995, 
  "survive": 1996, 
  "product": 1997, 
  "losing": 1998, 
  "implies": 1999, 
  "Vladimir": 2000, 
  "possibly": 2001, 
  "firm": 2002, 
  "chief": 2003, 
  "Jewish": 2004, 
  "paying": 2005, 
  "mere": 2006, 
  "qu@@": 2007, 
  "leaving": 2008, 
  "drive": 2009, 
  "January": 2010, 
  "lu@@": 2011, 
  "field": 2012, 
  "ks": 2013, 
  "concept": 2014, 
  "visit": 2015, 
  "Euro": 2016, 
  "suffer": 2017, 
  "tensions": 2018, 
  "tradition": 2019, 
  "ently": 2020, 
  "proved": 2021, 
  "leads": 2022, 
  "institution": 2023, 
  "offered": 2024, 
  "accession": 2025, 
  "establishment": 2026, 
  "room": 2027, 
  "realize": 2028, 
  "acts": 2029, 
  "underlying": 2030, 
  "Revolution": 2031, 
  "ho@@": 2032, 
  "dramatically": 2033, 
  "kept": 2034, 
  "Organization": 2035, 
  "undermine": 2036, 
  "necessarily": 2037, 
  "ter@@": 2038, 
  "determine": 2039, 
  "z": 2040, 
  "l": 2041, 
  "keeping": 2042, 
  "opponents": 2043, 
  "training": 2044, 
  "Kyoto": 2045, 
  "highest": 2046, 
  "€": 2047, 
  "n": 2048, 
  "es@@": 2049, 
  "bound": 2050, 
  "University": 2051, 
  "overcome": 2052, 
  "Depression": 2053, 
  "green": 2054, 
  "analysis": 2055, 
  "t-@@": 2056, 
  "ideology": 2057, 
  "event": 2058, 
  "cancer": 2059, 
  "tell": 2060, 
  "wider": 2061, 
  "skills": 2062, 
  "someone": 2063, 
  "zone": 2064, 
  "technical": 2065, 
  "carry": 2066, 
  "shape": 2067, 
  "il@@": 2068, 
  "happens": 2069, 
  "summer": 2070, 
  "is@@": 2071, 
  "useful": 2072, 
  "su@@": 2073, 
  "e-@@": 2074, 
  "united": 2075, 
  "·": 2076, 
  "settlement": 2077, 
  "corrupt": 2078, 
  "stake": 2079, 
  "depression": 2080, 
  "diseases": 2081, 
  "mission": 2082, 
  "pa@@": 2083, 
  "fewer": 2084, 
  "conventional": 2085, 
  "regulators": 2086, 
  "ingly": 2087, 
  "planet": 2088, 
  "-based": 2089, 
  "Jews": 2090, 
  "July": 2091, 
  "ters": 2092, 
  "exists": 2093, 
  "enable": 2094, 
  "signs": 2095, 
  "ys": 2096, 
  "billions": 2097, 
  "allowing": 2098, 
  "estimates": 2099, 
  "votes": 2100, 
  "Taiwan": 2101, 
  "combination": 2102, 
  "defend": 2103, 
  "deaths": 2104, 
  "manufacturing": 2105, 
  "hopes": 2106, 
  "regardless": 2107, 
  "October": 2108, 
  "objective": 2109, 
  "launched": 2110, 
  "opposed": 2111, 
  "pre-@@": 2112, 
  "a-@@": 2113, 
  "territory": 2114, 
  "die": 2115, 
  "12": 2116, 
  "comprehensive": 2117, 
  "pace": 2118, 
  "humanity": 2119, 
  "unprecedented": 2120, 
  "dealing": 2121, 
  "shed": 2122, 
  "household": 2123, 
  "Republican": 2124, 
  "experienced": 2125, 
  "ongoing": 2126, 
  "agriculture": 2127, 
  "economist": 2128, 
  "treated": 2129, 
  "rec@@": 2130, 
  "receive": 2131, 
  "centuries": 2132, 
  "generations": 2133, 
  "represents": 2134, 
  "cycle": 2135, 
  "commodity": 2136, 
  "ni@@": 2137, 
  "extremely": 2138, 
  "Fatah": 2139, 
  "closed": 2140, 
  "Paris": 2141, 
  "barriers": 2142, 
  "genetic": 2143, 
  "distribution": 2144, 
  "gained": 2145, 
  "table": 2146, 
  "typically": 2147, 
  "practical": 2148, 
  "to@@": 2149, 
  "70": 2150, 
  "y-@@": 2151, 
  "Milosevic": 2152, 
  "Christian": 2153, 
  "9": 2154, 
  "reasonable": 2155, 
  "legislation": 2156, 
  "gu@@": 2157, 
  "developments": 2158, 
  "mechanisms": 2159, 
  "wide": 2160, 
  "economically": 2161, 
  "80": 2162, 
  "practices": 2163, 
  "et": 2164, 
  "linked": 2165, 
  "cells": 2166, 
  "deliver": 2167, 
  "commitments": 2168, 
  "Sweden": 2169, 
  "players": 2170, 
  "supporting": 2171, 
  "modest": 2172, 
  "tools": 2173, 
  "Taliban": 2174, 
  "fallen": 2175, 
  "In@@": 2176, 
  "supporters": 2177, 
  "ging": 2178, 
  "mechanism": 2179, 
  "Stability": 2180, 
  "strongly": 2181, 
  "migration": 2182, 
  "considerable": 2183, 
  "perceived": 2184, 
  "remarkable": 2185, 
  "bond": 2186, 
  "hours": 2187, 
  "complete": 2188, 
  "Re@@": 2189, 
  "fate": 2190, 
  "recognition": 2191, 
  "capable": 2192, 
  "ut@@": 2193, 
  "homes": 2194, 
  "pressures": 2195, 
  "voting": 2196, 
  "controlled": 2197, 
  "board": 2198, 
  "allows": 2199, 
  "charge": 2200, 
  "quarter": 2201, 
  "proposals": 2202, 
  "putting": 2203, 
  "stands": 2204, 
  "ins": 2205, 
  "costly": 2206, 
  "critics": 2207, 
  "failures": 2208, 
  "ed@@": 2209, 
  "dependent": 2210, 
  "generate": 2211, 
  "inevitably": 2212, 
  "includes": 2213, 
  "viable": 2214, 
  "figure": 2215, 
  "animals": 2216, 
  "Pact": 2217, 
  "Libya": 2218, 
  "resolve": 2219, 
  "productive": 2220, 
  "computer": 2221, 
  "legacy": 2222, 
  "seven": 2223, 
  "uses": 2224, 
  "Street": 2225, 
  "species": 2226, 
  "served": 2227, 
  "WTO": 2228, 
  "ending": 2229, 
  "criminal": 2230, 
  "physical": 2231, 
  "weakness": 2232, 
  "managers": 2233, 
  "continent": 2234, 
  "published": 2235, 
  "zero": 2236, 
  "returns": 2237, 
  "shareholders": 2238, 
  "1991": 2239, 
  "excess": 2240, 
  "enemy": 2241, 
  "Abbas": 2242, 
  "dictatorship": 2243, 
  "deflation": 2244, 
  "television": 2245, 
  "appeared": 2246, 
  "suffered": 2247, 
  "el@@": 2248, 
  "one-@@": 2249, 
  "restrictions": 2250, 
  "purpose": 2251, 
  "1@@": 2252, 
  "contributed": 2253, 
  "discussion": 2254, 
  "Democratic": 2255, 
  "Constitution": 2256, 
  "z@@": 2257, 
  "grew": 2258, 
  "existence": 2259, 
  "Ch@@": 2260, 
  "arguments": 2261, 
  "potentially": 2262, 
  "bilateral": 2263, 
  "estimated": 2264, 
  "me@@": 2265, 
  "adopt": 2266, 
  "pushed": 2267, 
  "gives": 2268, 
  "shocks": 2269, 
  "image": 2270, 
  "weight": 2271, 
  "ob@@": 2272, 
  "ble": 2273, 
  "cash": 2274, 
  "downturn": 2275, 
  "cheap": 2276, 
  "got": 2277, 
  "declining": 2278, 
  "r@@": 2279, 
  "ies": 2280, 
  "affect": 2281, 
  "emerge": 2282, 
  "survival": 2283, 
  "electricity": 2284, 
  "threatened": 2285, 
  "bottom": 2286, 
  "4@@": 2287, 
  "conference": 2288, 
  "Chancellor": 2289, 
  "ag@@": 2290, 
  "arrangements": 2291, 
  "front": 2292, 
  "engage": 2293, 
  "lation": 2294, 
  "wish": 2295, 
  "fi@@": 2296, 
  "debates": 2297, 
  "meaning": 2298, 
  "twentieth": 2299, 
  "setting": 2300, 
  "maintaining": 2301, 
  "historic": 2302, 
  "referendum": 2303, 
  "remember": 2304, 
  "nonetheless": 2305, 
  "showed": 2306, 
  "described": 2307, 
  "current-account": 2308, 
  "b": 2309, 
  "advance": 2310, 
  "Chirac": 2311, 
  "ably": 2312, 
  "turning": 2313, 
  "genuine": 2314, 
  "assume": 2315, 
  "mortgage": 2316, 
  "Beijing": 2317, 
  "urgent": 2318, 
  "el": 2319, 
  "criticism": 2320, 
  "taxpayers": 2321, 
  "improving": 2322, 
  "populist": 2323, 
  "passed": 2324, 
  "dominant": 2325, 
  "healthy": 2326, 
  "ged": 2327, 
  "tor@@": 2328, 
  "stay": 2329, 
  "expenditures": 2330, 
  "attractive": 2331, 
  "felt": 2332, 
  "died": 2333, 
  "pushing": 2334, 
  "organized": 2335, 
  "restructuring": 2336, 
  "Hussein": 2337, 
  "surprising": 2338, 
  "polls": 2339, 
  "regulations": 2340, 
  "Brussels": 2341, 
  "Berlusconi": 2342, 
  "son": 2343, 
  "saying": 2344, 
  "p": 2345, 
  "holds": 2346, 
  "August": 2347, 
  "bodies": 2348, 
  "aside": 2349, 
  "Romania": 2350, 
  "knew": 2351, 
  "genes": 2352, 
  "root": 2353, 
  "mandate": 2354, 
  "senior": 2355, 
  "except": 2356, 
  "heavily": 2357, 
  "reports": 2358, 
  "pension": 2359, 
  "Paul": 2360, 
  "Gulf": 2361, 
  "logic": 2362, 
  "dream": 2363, 
  "convinced": 2364, 
  "exactly": 2365, 
  "ruled": 2366, 
  "added": 2367, 
  "ying": 2368, 
  "ality": 2369, 
  "requirements": 2370, 
  "moved": 2371, 
  "suddenly": 2372, 
  "shock": 2373, 
  "18@@": 2374, 
  "transfer": 2375, 
  "aggressive": 2376, 
  "perspective": 2377, 
  "black": 2378, 
  "causing": 2379, 
  "playing": 2380, 
  "House": 2381, 
  "brain": 2382, 
  "w": 2383, 
  "apply": 2384, 
  "Polish": 2385, 
  "engaged": 2386, 
  "enemies": 2387, 
  "Netherlands": 2388, 
  "exposed": 2389, 
  "back@@": 2390, 
  "package": 2391, 
  "ia": 2392, 
  "mu@@": 2393, 
  "us@@": 2394, 
  "sustain": 2395, 
  "observers": 2396, 
  "grown": 2397, 
  "humans": 2398, 
  "Islamist": 2399, 
  "compete": 2400, 
  "Portugal": 2401, 
  "Yeltsin": 2402, 
  "replace": 2403, 
  "Keynes": 2404, 
  "implications": 2405, 
  "ev@@": 2406, 
  "1930": 2407, 
  "ty": 2408, 
  "accounting": 2409, 
  "mortgages": 2410, 
  "implemented": 2411, 
  "discipline": 2412, 
  "humanitarian": 2413, 
  "U@@": 2414, 
  "standing": 2415, 
  "adjustment": 2416, 
  "peoples": 2417, 
  "1960": 2418, 
  "rejected": 2419, 
  "kill": 2420, 
  "il": 2421, 
  "amounts": 2422, 
  "ge@@": 2423, 
  "slowdown": 2424, 
  "dead": 2425, 
  "enter": 2426, 
  "...": 2427, 
  "inside": 2428, 
  "ful": 2429, 
  "Italian": 2430, 
  "speed": 2431, 
  "supposedly": 2432, 
  "modernization": 2433, 
  "cra@@": 2434, 
  "figures": 2435, 
  "proven": 2436, 
  "Germans": 2437, 
  "urban": 2438, 
  "9@@": 2439, 
  "pain": 2440, 
  "outcomes": 2441, 
  "surpluses": 2442, 
  "risky": 2443, 
  "ratio": 2444, 
  "opposite": 2445, 
  "add": 2446, 
  "university": 2447, 
  "s-@@": 2448, 
  "partner": 2449, 
  "completely": 2450, 
  "wrote": 2451, 
  "affected": 2452, 
  "buying": 2453, 
  "ms": 2454, 
  "den@@": 2455, 
  "backed": 2456, 
  "incentive": 2457, 
  "sion": 2458, 
  "producers": 2459, 
  "bailout": 2460, 
  "eyes": 2461, 
  "withdrawal": 2462, 
  "latter": 2463, 
  "condition": 2464, 
  "percentage": 2465, 
  "embrace": 2466, 
  "willingness": 2467, 
  "wave": 2468, 
  "employees": 2469, 
  "Economic": 2470, 
  "Czech": 2471, 
  "alize": 2472, 
  "applied": 2473, 
  "encouraging": 2474, 
  "initiatives": 2475, 
  "concerning": 2476, 
  "tough": 2477, 
  "ul@@": 2478, 
  "marked": 2479, 
  "mental": 2480, 
  "par@@": 2481, 
  "confrontation": 2482, 
  "reserve": 2483, 
  "priorities": 2484, 
  "decision-making": 2485, 
  "dominated": 2486, 
  "Z@@": 2487, 
  "facts": 2488, 
  "tests": 2489, 
  "difficulties": 2490, 
  "ensuring": 2491, 
  "zing": 2492, 
  "hence": 2493, 
  "welcome": 2494, 
  "shing": 2495, 
  "credible": 2496, 
  "southern": 2497, 
  "Hong": 2498, 
  "actual": 2499, 
  "heads": 2500, 
  "Musharraf": 2501, 
  "essentially": 2502, 
  "war@@": 2503, 
  "clean": 2504, 
  "aware": 2505, 
  "protectionism": 2506, 
  "G-8": 2507, 
  "budgets": 2508, 
  "sions": 2509, 
  "killing": 2510, 
  "confront": 2511, 
  "Kim": 2512, 
  "establishing": 2513, 
  "fossil": 2514, 
  "pro-@@": 2515, 
  "car@@": 2516, 
  "trends": 2517, 
  "prison": 2518, 
  "badly": 2519, 
  "refused": 2520, 
  "Arabs": 2521, 
  "sed": 2522, 
  "regarded": 2523, 
  "fuels": 2524, 
  "transformation": 2525, 
  "mistakes": 2526, 
  "claimed": 2527, 
  "1998": 2528, 
  "joined": 2529, 
  "daily": 2530, 
  "emergency": 2531, 
  "profound": 2532, 
  "cell": 2533, 
  "18": 2534, 
  "relevant": 2535, 
  "ned": 2536, 
  "voice": 2537, 
  "paper": 2538, 
  "thanks": 2539, 
  "ered": 2540, 
  "Atlantic": 2541, 
  "the@@": 2542, 
  "cor@@": 2543, 
  "blood": 2544, 
  "revolutionary": 2545, 
  "plants": 2546, 
  "corporations": 2547, 
  "correct": 2548, 
  "Hungary": 2549, 
  "financed": 2550, 
  "mark": 2551, 
  "April": 2552, 
  "carried": 2553, 
  "objectives": 2554, 
  "threaten": 2555, 
  "examples": 2556, 
  "strike": 2557, 
  "partnership": 2558, 
  "replaced": 2559, 
  "mid-@@": 2560, 
  "ignore": 2561, 
  "guarantees": 2562, 
  "calling": 2563, 
  "com@@": 2564, 
  "constraints": 2565, 
  "host": 2566, 
  "stance": 2567, 
  "creates": 2568, 
  "material": 2569, 
  "consequence": 2570, 
  "destroy": 2571, 
  "integrated": 2572, 
  "successfully": 2573, 
  "fortunately": 2574, 
  "spirit": 2575, 
  "father": 2576, 
  "reaching": 2577, 
  "Vietnam": 2578, 
  "instruments": 2579, 
  "signed": 2580, 
  "mutual": 2581, 
  "fire": 2582, 
  "enterprises": 2583, 
  "dynamic": 2584, 
  "closely": 2585, 
  "alization": 2586, 
  "Merkel": 2587, 
  "strengthening": 2588, 
  "Sunni": 2589, 
  "bi@@": 2590, 
  "man@@": 2591, 
  "low-@@": 2592, 
  "austerity": 2593, 
  "reaction": 2594, 
  "Con@@": 2595, 
  "harm": 2596, 
  "function": 2597, 
  "unsustainable": 2598, 
  "fourth": 2599, 
  "robust": 2600, 
  "notably": 2601, 
  "fixed": 2602, 
  "equivalent": 2603, 
  "issued": 2604, 
  "link": 2605, 
  "coal": 2606, 
  "advice": 2607, 
  "reflected": 2608, 
  "addressed": 2609, 
  "poorer": 2610, 
  "stocks": 2611, 
  "Kong": 2612, 
  "we@@": 2613, 
  "eliminate": 2614, 
  "expand": 2615, 
  "tor": 2616, 
  "fo@@": 2617, 
  "vo@@": 2618, 
  "Trade": 2619, 
  "mar@@": 2620, 
  "empire": 2621, 
  "ambitious": 2622, 
  "expanding": 2623, 
  "journalists": 2624, 
  "pattern": 2625, 
  "f": 2626, 
  "rational": 2627, 
  "Committee": 2628, 
  "resort": 2629, 
  "ourselves": 2630, 
  "minorities": 2631, 
  "elements": 2632, 
  "remaining": 2633, 
  "apart": 2634, 
  "ci@@": 2635, 
  "primarily": 2636, 
  "scope": 2637, 
  "ance": 2638, 
  "granted": 2639, 
  "Canada": 2640, 
  "quo": 2641, 
  "series": 2642, 
  "search": 2643, 
  "civilians": 2644, 
  "leverage": 2645, 
  "begun": 2646, 
  "demonstrate": 2647, 
  "suggested": 2648, 
  "extra": 2649, 
  "ad": 2650, 
  "demanding": 2651, 
  "Mubarak": 2652, 
  "aging": 2653, 
  "weaker": 2654, 
  "sc@@": 2655, 
  "renewed": 2656, 
  "revenue": 2657, 
  "happening": 2658, 
  "de-@@": 2659, 
  "brings": 2660, 
  "exception": 2661, 
  "and@@": 2662, 
  "woman": 2663, 
  "appeal": 2664, 
  "barely": 2665, 
  "inflows": 2666, 
  "bit": 2667, 
  "fied": 2668, 
  "posed": 2669, 
  "emergence": 2670, 
  "headed": 2671, 
  "re": 2672, 
  "reported": 2673, 
  "Social": 2674, 
  "manner": 2675, 
  "nbsp": 2676, 
  "planning": 2677, 
  "managing": 2678, 
  "stress": 2679, 
  "believes": 2680, 
  "design": 2681, 
  "famous": 2682, 
  "realistic": 2683, 
  "1997": 2684, 
  "equality": 2685, 
  "cover": 2686, 
  "gi@@": 2687, 
  "privatization": 2688, 
  "min@@": 2689, 
  "usual": 2690, 
  "rescue": 2691, 
  "justified": 2692, 
  "Yugoslavia": 2693, 
  "Greenspan": 2694, 
  "enjoy": 2695, 
  "ultimate": 2696, 
  "an-@@": 2697, 
  "ignored": 2698, 
  "od@@": 2699, 
  "D": 2700, 
  "systemic": 2701, 
  "abuse": 2702, 
  "ban": 2703, 
  "justify": 2704, 
  "transparent": 2705, 
  "repeatedly": 2706, 
  "fe@@": 2707, 
  "conducted": 2708, 
  "bed": 2709, 
  "elites": 2710, 
  "included": 2711, 
  "rarely": 2712, 
  "sea": 2713, 
  "borrow": 2714, 
  "professional": 2715, 
  "ownership": 2716, 
  "represented": 2717, 
  "illegal": 2718, 
  "ethical": 2719, 
  "heard": 2720, 
  "secret": 2721, 
  "tively": 2722, 
  "et@@": 2723, 
  "divide": 2724, 
  "ars": 2725, 
  "introduced": 2726, 
  "Republicans": 2727, 
  "predict": 2728, 
  "achieving": 2729, 
  "ments": 2730, 
  "chaos": 2731, 
  "processes": 2732, 
  "sales": 2733, 
  "charges": 2734, 
  "lie": 2735, 
  "proportion": 2736, 
  "responses": 2737, 
  "flexibility": 2738, 
  "explanation": 2739, 
  "date": 2740, 
  "acting": 2741, 
  "finding": 2742, 
  "extended": 2743, 
  "collapsed": 2744, 
  "complicated": 2745, 
  "openly": 2746, 
  "160": 2747, 
  "joint": 2748, 
  "gets": 2749, 
  "publicly": 2750, 
  "heavy": 2751, 
  "cru@@": 2752, 
  "destroyed": 2753, 
  "5@@": 2754, 
  "accountability": 2755, 
  "advantages": 2756, 
  "ns": 2757, 
  "intended": 2758, 
  "educational": 2759, 
  "failing": 2760, 
  "ard": 2761, 
  "executive": 2762, 
  "producing": 2763, 
  "ist@@": 2764, 
  "ning": 2765, 
  "threatening": 2766, 
  "send": 2767, 
  "judges": 2768, 
  "intellectuals": 2769, 
  "stories": 2770, 
  "shares": 2771, 
  "ces": 2772, 
  "TV": 2773, 
  "previously": 2774, 
  "kinds": 2775, 
  "creditors": 2776, 
  "painful": 2777, 
  "formal": 2778, 
  "strengthened": 2779, 
  "ator": 2780, 
  "Shia": 2781, 
  "vi@@": 2782, 
  "gradually": 2783, 
  "C": 2784, 
  "narrow": 2785, 
  "weakened": 2786, 
  "om@@": 2787, 
  "notion": 2788, 
  "advocates": 2789, 
  "popularity": 2790, 
  "stem": 2791, 
  "opened": 2792, 
  "minds": 2793, 
  "co-@@": 2794, 
  "placed": 2795, 
  "exchange-rate": 2796, 
  "so@@": 2797, 
  "encouraged": 2798, 
  "version": 2799, 
  "Al@@": 2800, 
  "cu@@": 2801, 
  "conduct": 2802, 
  "amp": 2803, 
  "ends": 2804, 
  "ked": 2805, 
  "generated": 2806, 
  "parents": 2807, 
  "falls": 2808, 
  "tri@@": 2809, 
  "staff": 2810, 
  "est": 2811, 
  "sites": 2812, 
  "monopoly": 2813, 
  "acceptable": 2814, 
  "ren@@": 2815, 
  "simultaneously": 2816, 
  "expressed": 2817, 
  "drop": 2818, 
  "atmosphere": 2819, 
  "alism": 2820, 
  "initial": 2821, 
  "ce": 2822, 
  "resource": 2823, 
  "super@@": 2824, 
  "read": 2825, 
  "prefer": 2826, 
  "educated": 2827, 
  "leaves": 2828, 
  "ambitions": 2829, 
  "wonder": 2830, 
  "ur@@": 2831, 
  "expression": 2832, 
  "R": 2833, 
  "Medvedev": 2834, 
  "fails": 2835, 
  "surprisingly": 2836, 
  "Hitler": 2837, 
  "anniversary": 2838, 
  "resulted": 2839, 
  "uncertain": 2840, 
  "Haiti": 2841, 
  "feeling": 2842, 
  "Defense": 2843, 
  "transatlantic": 2844, 
  "eye": 2845, 
  "streets": 2846, 
  "ship": 2847, 
  "refugees": 2848, 
  "harder": 2849, 
  "pla@@": 2850, 
  "exercise": 2851, 
  "written": 2852, 
  "lasting": 2853, 
  "driving": 2854, 
  "x": 2855, 
  "networks": 2856, 
  "via": 2857, 
  "seeks": 2858, 
  "h": 2859, 
  "ste@@": 2860, 
  "extremists": 2861, 
  "compensation": 2862, 
  "balanced": 2863, 
  "actors": 2864, 
  "hunger": 2865, 
  "nobody": 2866, 
  "stopped": 2867, 
  "ics": 2868, 
  "wisdom": 2869, 
  "God": 2870, 
  "Iraqis": 2871, 
  "bubbles": 2872, 
  "Lisbon": 2873, 
  "liberty": 2874, 
  "weakening": 2875, 
  "politician": 2876, 
  "fy": 2877, 
  "northern": 2878, 
  "Cuba": 2879, 
  "Mao": 2880, 
  "succeeded": 2881, 
  "bigger": 2882, 
  "fragile": 2883, 
  "protest": 2884, 
  "proper": 2885, 
  "alike": 2886, 
  "aggregate": 2887, 
  "accompanied": 2888, 
  "ative": 2889, 
  "helps": 2890, 
  "proliferation": 2891, 
  "d-@@": 2892, 
  "bar@@": 2893, 
  "door": 2894, 
  "treat": 2895, 
  "obligations": 2896, 
  "returned": 2897, 
  "initially": 2898, 
  "seeing": 2899, 
  "operate": 2900, 
  "Australia": 2901, 
  "pursued": 2902, 
  "expanded": 2903, 
  "ill": 2904, 
  "14": 2905, 
  "pe@@": 2906, 
  "ry": 2907, 
  "ent@@": 2908, 
  "users": 2909, 
  "review": 2910, 
  "perfect": 2911, 
  "picture": 2912, 
  "rightly": 2913, 
  "ba@@": 2914, 
  "Robert": 2915, 
  "mi@@": 2916, 
  "newly": 2917, 
  "ice": 2918, 
  "extraordinary": 2919, 
  "launch": 2920, 
  "block": 2921, 
  "oppose": 2922, 
  "invested": 2923, 
  "somehow": 2924, 
  "variety": 2925, 
  "ges": 2926, 
  "0.@@": 2927, 
  "sta@@": 2928, 
  "facilities": 2929, 
  "identify": 2930, 
  "Tony": 2931, 
  "stimulate": 2932, 
  "arrest": 2933, 
  "7@@": 2934, 
  "discrimination": 2935, 
  "profit": 2936, 
  "selling": 2937, 
  "evolution": 2938, 
  "moves": 2939, 
  "hundred": 2940, 
  "fish": 2941, 
  "norms": 2942, 
  "equ@@": 2943, 
  "sooner": 2944, 
  "sur@@": 2945, 
  "addressing": 2946, 
  "draw": 2947, 
  "memory": 2948, 
  "geopolitical": 2949, 
  "purposes": 2950, 
  "volatility": 2951, 
  "reverse": 2952, 
  "crash": 2953, 
  "inf@@": 2954, 
  "avoided": 2955, 
  "contain": 2956, 
  "tu@@": 2957, 
  "contribution": 2958, 
  "combat": 2959, 
  "interested": 2960, 
  "happy": 2961, 
  "absolute": 2962, 
  "alternatives": 2963, 
  "birth": 2964, 
  "apparent": 2965, 
  "attitude": 2966, 
  "track": 2967, 
  "decisive": 2968, 
  "ol@@": 2969, 
  "protecting": 2970, 
  "courts": 2971, 
  "judge": 2972, 
  "abandon": 2973, 
  "network": 2974, 
  "participants": 2975, 
  "500": 2976, 
  "enhance": 2977, 
  "emerging-market": 2978, 
  "February": 2979, 
  "assumed": 2980, 
  "Irish": 2981, 
  "rose": 2982, 
  "protected": 2983, 
  "ents": 2984, 
  "original": 2985, 
  "sent": 2986, 
  "contributions": 2987, 
  "dangers": 2988, 
  "attitudes": 2989, 
  "dependence": 2990, 
  "wake": 2991, 
  "estate": 2992, 
  "worried": 2993, 
  "ot@@": 2994, 
  "twice": 2995, 
  "ils": 2996, 
  "Roma": 2997, 
  "reconstruction": 2998, 
  "multi-@@": 2999, 
  "successor": 3000, 
  "dly": 3001, 
  "fueled": 3002, 
  "promising": 3003, 
  "coordination": 3004, 
  "do@@": 3005, 
  "abandoned": 3006, 
  "Protocol": 3007, 
  "ph@@": 3008, 
  "au@@": 3009, 
  "Rights": 3010, 
  "wait": 3011, 
  "flexible": 3012, 
  "alist": 3013, 
  "tional": 3014, 
  "divisions": 3015, 
  "isolation": 3016, 
  "books": 3017, 
  "division": 3018, 
  "approaches": 3019, 
  "donors": 3020, 
  "torture": 3021, 
  "suicide": 3022, 
  "sts": 3023, 
  "voted": 3024, 
  "ju@@": 3025, 
  "reputation": 3026, 
  "stated": 3027, 
  "Bosnia": 3028, 
  "missile": 3029, 
  "fundamentally": 3030, 
  "significance": 3031, 
  "Sharon": 3032, 
  "Denmark": 3033, 
  "27": 3034, 
  "pressing": 3035, 
  "medicine": 3036, 
  "appreciation": 3037, 
  "unilateral": 3038, 
  "representatives": 3039, 
  "weaken": 3040, 
  "recover": 3041, 
  "warning": 3042, 
  "ss": 3043, 
  "evil": 3044, 
  "Stalin": 3045, 
  "improvement": 3046, 
  "measured": 3047, 
  "hal@@": 3048, 
  "activists": 3049, 
  "functioning": 3050, 
  "bill": 3051, 
  "inflationary": 3052, 
  "P": 3053, 
  "circle": 3054, 
  "wind": 3055, 
  "ran@@": 3056, 
  "contracts": 3057, 
  "hoped": 3058, 
  "demographic": 3059, 
  "sen@@": 3060, 
  "delivered": 3061, 
  "investing": 3062, 
  "fin@@": 3063, 
  "cars": 3064, 
  "Afghan": 3065, 
  "youth": 3066, 
  "meetings": 3067, 
  "directed": 3068, 
  "lived": 3069, 
  "love": 3070, 
  "conclusion": 3071, 
  "S": 3072, 
  "yield": 3073, 
  "definition": 3074, 
  "Syrian": 3075, 
  "diversity": 3076, 
  "ta@@": 3077, 
  "frequently": 3078, 
  "Mar@@": 3079, 
  "overwhelming": 3080, 
  "expense": 3081, 
  "35": 3082, 
  "participate": 3083, 
  "transport": 3084, 
  "richest": 3085, 
  "separate": 3086, 
  "focusing": 3087, 
  "twenty-first": 3088, 
  "ven@@": 3089, 
  "hedge": 3090, 
  "reject": 3091, 
  "greenhouse": 3092, 
  "effectiveness": 3093, 
  "released": 3094, 
  "cultures": 3095, 
  "undoubtedly": 3096, 
  "Financial": 3097, 
  "Islamists": 3098, 
  "Reagan": 3099, 
  "mer@@": 3100, 
  "hand@@": 3101, 
  "ages": 3102, 
  "showing": 3103, 
  "caught": 3104, 
  "somewhat": 3105, 
  "generous": 3106, 
  "cen@@": 3107, 
  "extend": 3108, 
  "sexual": 3109, 
  "presidents": 3110, 
  "long-@@": 3111, 
  "sa@@": 3112, 
  "entry": 3113, 
  "ian": 3114, 
  "tru@@": 3115, 
  "insist": 3116, 
  "stagnation": 3117, 
  "types": 3118, 
  "onto": 3119, 
  "Web": 3120, 
  "stood": 3121, 
  "Jerusalem": 3122, 
  "slowly": 3123, 
  "90": 3124, 
  "doctors": 3125, 
  "ring": 3126, 
  "turmoil": 3127, 
  "preserve": 3128, 
  "street": 3129, 
  "tors": 3130, 
  "California": 3131, 
  "trials": 3132, 
  "Authority": 3133, 
  "catastrophe": 3134, 
  "sive": 3135, 
  "13": 3136, 
  "methods": 3137, 
  "engagement": 3138, 
  "football": 3139, 
  "drawn": 3140, 
  "revealed": 3141, 
  "bold": 3142, 
  "Global": 3143, 
  "Shi@@": 3144, 
  "wing": 3145, 
  "centers": 3146, 
  "ing@@": 3147, 
  "fresh": 3148, 
  "presented": 3149, 
  "accused": 3150, 
  "animal": 3151, 
  "tens": 3152, 
  "define": 3153, 
  "computers": 3154, 
  "ig@@": 3155, 
  "Nicolas": 3156, 
  "genocide": 3157, 
  "wi@@": 3158, 
  "Plan": 3159, 
  "bailouts": 3160, 
  "gaining": 3161, 
  "Administration": 3162, 
  "preventing": 3163, 
  "pass": 3164, 
  "sk@@": 3165, 
  "spring": 3166, 
  "settlements": 3167, 
  "retain": 3168, 
  "adequate": 3169, 
  "reliable": 3170, 
  "ws": 3171, 
  "Arafat": 3172, 
  "ators": 3173, 
  "offering": 3174, 
  "fought": 3175, 
  "rival": 3176, 
  "bombing": 3177, 
  "diverse": 3178, 
  "Qaeda": 3179, 
  "sold": 3180, 
  "fla@@": 3181, 
  "travel": 3182, 
  "car": 3183, 
  "equipment": 3184, 
  "prisoners": 3185, 
  "solar": 3186, 
  "operation": 3187, 
  "um": 3188, 
  "richer": 3189, 
  "imperial": 3190, 
  "bul@@": 3191, 
  "sheets": 3192, 
  "repression": 3193, 
  "ever-@@": 3194, 
  "raises": 3195, 
  "unemployed": 3196, 
  "sharing": 3197, 
  "ches": 3198, 
  "south": 3199, 
  "phase": 3200, 
  "16": 3201, 
  "In": 3202, 
  "threatens": 3203, 
  "reductions": 3204, 
  "import": 3205, 
  "resist": 3206, 
  "looked": 3207, 
  "prevented": 3208, 
  "right-wing": 3209, 
  "apparently": 3210, 
  "colleagues": 3211, 
  "der@@": 3212, 
  "ber@@": 3213, 
  "cre@@": 3214, 
  "winning": 3215, 
  "heat": 3216, 
  "commit": 3217, 
  "nominal": 3218, 
  "aims": 3219, 
  "hostile": 3220, 
  "ought": 3221, 
  "Austria": 3222, 
  "Pope": 3223, 
  "neighboring": 3224, 
  "discussions": 3225, 
  "plant": 3226, 
  "consolidation": 3227, 
  "punishment": 3228, 
  "ur": 3229, 
  "forever": 3230, 
  "write": 3231, 
  "negotiating": 3232, 
  "funded": 3233, 
  "No": 3234, 
  "slightly": 3235, 
  "hi@@": 3236, 
  "tic@@": 3237, 
  "panic": 3238, 
  "concluded": 3239, 
  "ized": 3240, 
  "fit": 3241, 
  "alizing": 3242, 
  "Egyptian": 3243, 
  "internationally": 3244, 
  "1990s": 3245, 
  "An@@": 3246, 
  "finances": 3247, 
  "sensitive": 3248, 
  "properly": 3249, 
  "command": 3250, 
  "fundamentals": 3251, 
  "impressive": 3252, 
  "6@@": 3253, 
  "Pakistani": 3254, 
  "consistent": 3255, 
  "negotiate": 3256, 
  "tr@@": 3257, 
  "smart": 3258, 
  "earth": 3259, 
  "phenomenon": 3260, 
  "historically": 3261, 
  "da@@": 3262, 
  "devaluation": 3263, 
  "chosen": 3264, 
  "seemingly": 3265, 
  "2011": 3266, 
  "pen@@": 3267, 
  "criteria": 3268, 
  "Darfur": 3269, 
  "imposing": 3270, 
  "easing": 3271, 
  "responsibilities": 3272, 
  "go@@": 3273, 
  "concrete": 3274, 
  "ining": 3275, 
  "approval": 3276, 
  "bre@@": 3277, 
  "perception": 3278, 
  "Laden": 3279, 
  "territories": 3280, 
  "targeted": 3281, 
  "David": 3282, 
  "England": 3283, 
  "devastating": 3284, 
  "ver@@": 3285, 
  "underway": 3286, 
  "fore@@": 3287, 
  "Northern": 3288, 
  "Nazi": 3289, 
  "exit": 3290, 
  "alists": 3291, 
  "inability": 3292, 
  "draft": 3293, 
  "sustainability": 3294, 
  "ade": 3295, 
  "innocent": 3296, 
  "marks": 3297, 
  "down@@": 3298, 
  "express": 3299, 
  "foundations": 3300, 
  "transformed": 3301, 
  "learning": 3302, 
  "sophisticated": 3303, 
  "minimum": 3304, 
  "surge": 3305, 
  "escape": 3306, 
  "experiences": 3307, 
  "aries": 3308, 
  "hear": 3309, 
  "meaningful": 3310, 
  "sees": 3311, 
  "Senate": 3312, 
  "mor@@": 3313, 
  "ths": 3314, 
  "brutal": 3315, 
  "offset": 3316, 
  "couple": 3317, 
  "superpower": 3318, 
  "sets": 3319, 
  "reconciliation": 3320, 
  "naturally": 3321, 
  "grounds": 3322, 
  "anger": 3323, 
  "OECD": 3324, 
  "Nigeria": 3325, 
  "democratization": 3326, 
  "1995": 3327, 
  "academic": 3328, 
  "foundation": 3329, 
  "bankruptcy": 3330, 
  "saved": 3331, 
  "numerous": 3332, 
  "researchers": 3333, 
  "taxation": 3334, 
  "reluctant": 3335, 
  "enforcement": 3336, 
  "transfers": 3337, 
  "protectionist": 3338, 
  "insufficient": 3339, 
  "openness": 3340, 
  "coordinated": 3341, 
  "doctrine": 3342, 
  "id@@": 3343, 
  "sex": 3344, 
  "earnings": 3345, 
  "realized": 3346, 
  "Serbs": 3347, 
  "warned": 3348, 
  "false": 3349, 
  "substantially": 3350, 
  "formed": 3351, 
  "tackle": 3352, 
  "involve": 3353, 
  "sensible": 3354, 
  "communications": 3355, 
  "socialist": 3356, 
  "advances": 3357, 
  "ir": 3358, 
  "lated": 3359, 
  "western": 3360, 
  "fields": 3361, 
  "wealthy": 3362, 
  "giant": 3363, 
  "quick": 3364, 
  "asking": 3365, 
  "waiting": 3366, 
  "integrity": 3367, 
  "est@@": 3368, 
  "valuable": 3369, 
  "carefully": 3370, 
  "capitalist": 3371, 
  "traditions": 3372, 
  "white": 3373, 
  "responded": 3374, 
  "rare": 3375, 
  "foreigners": 3376, 
  "It": 3377, 
  "entrepreneurs": 3378, 
  "emphasis": 3379, 
  "sing": 3380, 
  "recognizing": 3381, 
  "inefficient": 3382, 
  "bomb": 3383, 
  "backing": 3384, 
  "Burma": 3385, 
  "De@@": 3386, 
  "cli@@": 3387, 
  "serving": 3388, 
  "tion@@": 3389, 
  "tolerance": 3390, 
  "wh@@": 3391, 
  "patient": 3392, 
  "conservatives": 3393, 
  "ov@@": 3394, 
  "implementing": 3395, 
  "constant": 3396, 
  "cla@@": 3397, 
  "King": 3398, 
  "planned": 3399, 
  "predicted": 3400, 
  "Ahmadinejad": 3401, 
  "eastern": 3402, 
  "tiny": 3403, 
  "regarding": 3404, 
  "broken": 3405, 
  "forests": 3406, 
  "mainstream": 3407, 
  "Jordan": 3408, 
  "Bernanke": 3409, 
  "voices": 3410, 
  "McCain": 3411, 
  "realities": 3412, 
  "newspapers": 3413, 
  "Mahmoud": 3414, 
  "extremism": 3415, 
  "ancient": 3416, 
  "post@@": 3417, 
  "hu@@": 3418, 
  "governing": 3419, 
  "seats": 3420, 
  "capabilities": 3421, 
  "interesting": 3422, 
  "Bolivia": 3423, 
  "Alliance": 3424, 
  "ched": 3425, 
  "visible": 3426, 
  "pursuit": 3427, 
  "dominate": 3428, 
  "greatly": 3429, 
  "cur@@": 3430, 
  "component": 3431, 
  "sufficiently": 3432, 
  "joining": 3433, 
  "speculative": 3434, 
  "urgently": 3435, 
  "customers": 3436, 
  "alive": 3437, 
  "Catholic": 3438, 
  "sla@@": 3439, 
  "lands": 3440, 
  "ite": 3441, 
  "capture": 3442, 
  "statements": 3443, 
  "unwilling": 3444, 
  "surveillance": 3445, 
  "75": 3446, 
  "mobility": 3447, 
  "ali@@": 3448, 
  "site": 3449, 
  "bin": 3450, 
  "comparable": 3451, 
  "achievement": 3452, 
  "ler": 3453, 
  "subsequent": 3454, 
  "Sudan": 3455, 
  "lay": 3456, 
  "accountable": 3457, 
  "300": 3458, 
  "murder": 3459, 
  "aftermath": 3460, 
  "inadequate": 3461, 
  "declines": 3462, 
  "sphere": 3463, 
  "materials": 3464, 
  "repeated": 3465, 
  "globally": 3466, 
  "communication": 3467, 
  "links": 3468, 
  "English": 3469, 
  "retirement": 3470, 
  "r": 3471, 
  "blamed": 3472, 
  "ve@@": 3473, 
  "sky": 3474, 
  "fac@@": 3475, 
  "enterprise": 3476, 
  "aspects": 3477, 
  "ten@@": 3478, 
  "tool": 3479, 
  "disarmament": 3480, 
  "dispute": 3481, 
  "breaking": 3482, 
  "missiles": 3483, 
  "statement": 3484, 
  "pose": 3485, 
  "female": 3486, 
  "officers": 3487, 
  "17": 3488, 
  "expertise": 3489, 
  "lend": 3490, 
  "Belarus": 3491, 
  "gh@@": 3492, 
  "monitoring": 3493, 
  "maintained": 3494, 
  "24": 3495, 
  "talking": 3496, 
  "tragedy": 3497, 
  "match": 3498, 
  "instance": 3499, 
  "triumph": 3500, 
  "rating": 3501, 
  "ile": 3502, 
  "Balkans": 3503, 
  "avoiding": 3504, 
  "Lebanese": 3505, 
  "200": 3506, 
  "thousand": 3507, 
  "improvements": 3508, 
  "ching": 3509, 
  "aspect": 3510, 
  "estimate": 3511, 
  "acceptance": 3512, 
  "pursuing": 3513, 
  "che@@": 3514, 
  "Jacques": 3515, 
  "neo-@@": 3516, 
  "albeit": 3517, 
  "migrants": 3518, 
  "impoverished": 3519, 
  "large-scale": 3520, 
  "grand": 3521, 
  "delay": 3522, 
  "bureaucracy": 3523, 
  "interest-rate": 3524, 
  "ari@@": 3525, 
  "dness": 3526, 
  "distant": 3527, 
  "transform": 3528, 
  "occupied": 3529, 
  "discovered": 3530, 
  "undermined": 3531, 
  "count": 3532, 
  "yields": 3533, 
  "instrument": 3534, 
  "HIV": 3535, 
  "annually": 3536, 
  "identified": 3537, 
  "HI@@": 3538, 
  "renminbi": 3539, 
  "Spanish": 3540, 
  "farm": 3541, 
  "triggered": 3542, 
  "dy": 3543, 
  "ak": 3544, 
  "damaged": 3545, 
  "grave": 3546, 
  "understandable": 3547, 
  "Mediterranean": 3548, 
  "ani@@": 3549, 
  "trans@@": 3550, 
  "inspired": 3551, 
  "Ar@@": 3552, 
  "chose": 3553, 
  "guaranteed": 3554, 
  "plays": 3555, 
  "refuse": 3556, 
  "obstacles": 3557, 
  "Bill": 3558, 
  "adapt": 3559, 
  "demanded": 3560, 
  "runs": 3561, 
  "newspaper": 3562, 
  "iling": 3563, 
  "tendency": 3564, 
  "art": 3565, 
  "hidden": 3566, 
  "cap@@": 3567, 
  "answers": 3568, 
  "element": 3569, 
  "ff@@": 3570, 
  "normally": 3571, 
  "unstable": 3572, 
  "1950": 3573, 
  "Holocaust": 3574, 
  "lin@@": 3575, 
  "judgment": 3576, 
  "constitute": 3577, 
  "transactions": 3578, 
  "Human": 3579, 
  "long-run": 3580, 
  "Di@@": 3581, 
  "Energy": 3582, 
  "state-owned": 3583, 
  "ders": 3584, 
  "renewable": 3585, 
  "liberals": 3586, 
  "19": 3587, 
  "Sea": 3588, 
  "u": 3589, 
  "one-third": 3590, 
  "ase": 3591, 
  "weapon": 3592, 
  "evident": 3593, 
  "entered": 3594, 
  "whenever": 3595, 
  "attract": 3596, 
  "creative": 3597, 
  "coun@@": 3598, 
  "writing": 3599, 
  "ology": 3600, 
  "agency": 3601, 
  "negotiated": 3602, 
  "revolutions": 3603, 
  "Baltic": 3604, 
  "victim": 3605, 
  "twenty": 3606, 
  "Baghdad": 3607, 
  "Brown": 3608, 
  "involvement": 3609, 
  "doubts": 3610, 
  "demonstrations": 3611, 
  "speaking": 3612, 
  "men@@": 3613, 
  "informed": 3614, 
  "ang@@": 3615, 
  "toxic": 3616, 
  "Gorbachev": 3617, 
  "regular": 3618, 
  "owned": 3619, 
  "Per@@": 3620, 
  "mention": 3621, 
  "surface": 3622, 
  "tribal": 3623, 
  "patterns": 3624, 
  "lic@@": 3625, 
  "ced": 3626, 
  "intervene": 3627, 
  "rage": 3628, 
  "claiming": 3629, 
  "familiar": 3630, 
  "imperative": 3631, 
  "isolated": 3632, 
  "deny": 3633, 
  "scheme": 3634, 
  "biological": 3635, 
  "gender": 3636, 
  "mal@@": 3637, 
  "White": 3638, 
  "x@@": 3639, 
  "imply": 3640, 
  "committee": 3641, 
  "i.e.": 3642, 
  "argues": 3643, 
  "software": 3644, 
  "donor": 3645, 
  "ped": 3646, 
  "len@@": 3647, 
  "desirable": 3648, 
  "discuss": 3649, 
  "civilization": 3650, 
  "convince": 3651, 
  "difficulty": 3652, 
  "tends": 3653, 
  "downward": 3654, 
  "admit": 3655, 
  "honest": 3656, 
  "abuses": 3657, 
  "arrested": 3658, 
  "Church": 3659, 
  "Rome": 3660, 
  "executives": 3661, 
  "volatile": 3662, 
  "bra@@": 3663, 
  "ke": 3664, 
  "ban@@": 3665, 
  "kers": 3666, 
  "ners": 3667, 
  "character": 3668, 
  "careful": 3669, 
  "wor@@": 3670, 
  "ats": 3671, 
  "stabilize": 3672, 
  "adopting": 3673, 
  "Com@@": 3674, 
  "procedures": 3675, 
  "noted": 3676, 
  "defending": 3677, 
  "cheaper": 3678, 
  "pped": 3679, 
  "roots": 3680, 
  "colonial": 3681, 
  "col@@": 3682, 
  "statistics": 3683, 
  "mixed": 3684, 
  "survey": 3685, 
  "earn": 3686, 
  "propaganda": 3687, 
  "dilemma": 3688, 
  "honor": 3689, 
  "depreciation": 3690, 
  "explains": 3691, 
  "confronted": 3692, 
  "provision": 3693, 
  "sentiment": 3694, 
  "solid": 3695, 
  "Assembly": 3696, 
  "nowhere": 3697, 
  "wa@@": 3698, 
  "Peace": 3699, 
  "representative": 3700, 
  "We": 3701, 
  "implementation": 3702, 
  "village": 3703, 
  "san@@": 3704, 
  "comparison": 3705, 
  "puts": 3706, 
  "Belgium": 3707, 
  "engineering": 3708, 
  "state-@@": 3709, 
  "two-thirds": 3710, 
  "ner": 3711, 
  "serves": 3712, 
  "unfair": 3713, 
  "Mexican": 3714, 
  "employers": 3715, 
  "pointed": 3716, 
  "selection": 3717, 
  "administrative": 3718, 
  "classes": 3719, 
  "turns": 3720, 
  "autonomy": 3721, 
  "benefited": 3722, 
  "Tunisia": 3723, 
  "ck": 3724, 
  "pensions": 3725, 
  "dignity": 3726, 
  "ants": 3727, 
  "fairly": 3728, 
  "tism": 3729, 
  "Venezuela": 3730, 
  "disastrous": 3731, 
  "attacked": 3732, 
  "two-@@": 3733, 
  "declined": 3734, 
  "older": 3735, 
  "Third": 3736, 
  "ga@@": 3737, 
  "chances": 3738, 
  "Summit": 3739, 
  "stabilization": 3740, 
  "ran": 3741, 
  "signal": 3742, 
  "resolved": 3743, 
  "on-@@": 3744, 
  "rejection": 3745, 
  "images": 3746, 
  "deregulation": 3747, 
  "connected": 3748, 
  "aspirations": 3749, 
  "electorate": 3750, 
  "optimism": 3751, 
  "ps": 3752, 
  "av@@": 3753, 
  "US-@@": 3754, 
  "approved": 3755, 
  "ot": 3756, 
  "sub-prime": 3757, 
  "tactics": 3758, 
  "qui@@": 3759, 
  "supports": 3760, 
  "ley": 3761, 
  "Google": 3762, 
  "influential": 3763, 
  "prepare": 3764, 
  "flight": 3765, 
  "Mr.": 3766, 
  "tariffs": 3767, 
  "USSR": 3768, 
  "reliance": 3769, 
  "pi@@": 3770, 
  "doomed": 3771, 
  "tied": 3772, 
  "pat@@": 3773, 
  "purely": 3774, 
  "sec@@": 3775, 
  "arguing": 3776, 
  "plausible": 3777, 
  "Supreme": 3778, 
  "pride": 3779, 
  "enabled": 3780, 
  "contemporary": 3781, 
  "socialism": 3782, 
  "amp@@": 3783, 
  "ideal": 3784, 
  "expenditure": 3785, 
  "ang": 3786, 
  "nineteenth": 3787, 
  "cold": 3788, 
  "19@@": 3789, 
  "concentrated": 3790, 
  "1994": 3791, 
  "Army": 3792, 
  "friendly": 3793, 
  "assessment": 3794, 
  "counter@@": 3795, 
  "dominance": 3796, 
  "1945": 3797, 
  "considerations": 3798, 
  "contract": 3799, 
  "tsunami": 3800, 
  "deals": 3801, 
  "bureaucrats": 3802, 
  "commodities": 3803, 
  "forcing": 3804, 
  "unrest": 3805, 
  "2015": 3806, 
  "longer-term": 3807, 
  "half-@@": 3808, 
  "Gazprom": 3809, 
  "forget": 3810, 
  "peak": 3811, 
  "la": 3812, 
  "DNA": 3813, 
  "1992": 3814, 
  "Serbian": 3815, 
  "applies": 3816, 
  "consistently": 3817, 
  "declaration": 3818, 
  "tically": 3819, 
  "momentum": 3820, 
  "Singapore": 3821, 
  "fies": 3822, 
  "gradual": 3823, 
  "mobile": 3824, 
  "limiting": 3825, 
  "Policy": 3826, 
  "intense": 3827, 
  "l-@@": 3828, 
  "functions": 3829, 
  "Foreign": 3830, 
  "Malaysia": 3831, 
  "yen": 3832, 
  "fellow": 3833, 
  "convergence": 3834, 
  "1996": 3835, 
  "forgotten": 3836, 
  "Doha": 3837, 
  "silence": 3838, 
  "Gu@@": 3839, 
  "innovative": 3840, 
  "appreciate": 3841, 
  "actively": 3842, 
  "Cyprus": 3843, 
  "Annan": 3844, 
  "accomplished": 3845, 
  "removed": 3846, 
  "periphery": 3847, 
  "med": 3848, 
  "experiencing": 3849, 
  "guide": 3850, 
  "desperate": 3851, 
  "analysts": 3852, 
  "ke@@": 3853, 
  "hegemony": 3854, 
  "conf@@": 3855, 
  "ill-@@": 3856, 
  "prior": 3857, 
  "controlling": 3858, 
  "quantitative": 3859, 
  "Chairman": 3860, 
  "explosion": 3861, 
  "gen@@": 3862, 
  "euro-zone": 3863, 
  "houses": 3864, 
  "hor@@": 3865, 
  "roads": 3866, 
  "passing": 3867, 
  "worthy": 3868, 
  "bureaucratic": 3869, 
  "dark": 3870, 
  "winners": 3871, 
  "People": 3872, 
  "ory": 3873, 
  "_@@": 3874, 
  "trigger": 3875, 
  "coup": 3876, 
  "Justice": 3877, 
  "immense": 3878, 
  "obtain": 3879, 
  "founded": 3880, 
  "Millennium": 3881, 
  "counter": 3882, 
  "rela@@": 3883, 
  "ber": 3884, 
  "22": 3885, 
  "determination": 3886, 
  "ved": 3887, 
  "enhanced": 3888, 
  "pollution": 3889, 
  "ironically": 3890, 
  "situations": 3891, 
  "aged": 3892, 
  "involves": 3893, 
  "unknown": 3894, 
  "territorial": 3895, 
  "rooted": 3896, 
  "hard-@@": 3897, 
  "refusal": 3898, 
  "worrying": 3899, 
  "deserve": 3900, 
  "happiness": 3901, 
  "prosperous": 3902, 
  "favorable": 3903, 
  "internet": 3904, 
  "features": 3905, 
  "lowering": 3906, 
  "waste": 3907, 
  "wall": 3908, 
  "os": 3909, 
  "lacks": 3910, 
  "ori@@": 3911, 
  "anti@@": 3912, 
  "sw@@": 3913, 
  "ire": 3914, 
  "al-Qaeda": 3915, 
  "izing": 3916, 
  "student": 3917, 
  "ping": 3918, 
  "adverse": 3919, 
  "perform": 3920, 
  "2012": 3921, 
  "stic": 3922, 
  "pri@@": 3923, 
  "acknowledge": 3924, 
  "traditionally": 3925, 
  "interventions": 3926, 
  "DC": 3927, 
  "charged": 3928, 
  "gers": 3929, 
  "Gore": 3930, 
  "binding": 3931, 
  "Board": 3932, 
  "reduces": 3933, 
  "3.@@": 3934, 
  "night": 3935, 
  "shifted": 3936, 
  "ce@@": 3937, 
  "scene": 3938, 
  "second-@@": 3939, 
  "Agency": 3940, 
  "entitled": 3941, 
  "ster": 3942, 
  "explained": 3943, 
  "fication": 3944, 
  "distinct": 3945, 
  "sum": 3946, 
  "damaging": 3947, 
  "appointed": 3948, 
  "purchasing": 3949, 
  "to-@@": 3950, 
  "balances": 3951, 
  "ana": 3952, 
  "-year": 3953, 
  "finds": 3954, 
  "skilled": 3955, 
  "bridge": 3956, 
  "enting": 3957, 
  "sight": 3958, 
  "theories": 3959, 
  "ow@@": 3960, 
  "prominent": 3961, 
  "NPT": 3962, 
  "confident": 3963, 
  "produces": 3964, 
  "owners": 3965, 
  "shes": 3966, 
  "Gaulle": 3967, 
  "engine": 3968, 
  "under-@@": 3969, 
  "recessions": 3970, 
  "cross-border": 3971, 
  "multi@@": 3972, 
  "unacceptable": 3973, 
  "achievements": 3974, 
  "stri@@": 3975, 
  "beliefs": 3976, 
  "periods": 3977, 
  "tasks": 3978, 
  "feared": 3979, 
  "halt": 3980, 
  "ess": 3981, 
  "neighbor": 3982, 
  "sit": 3983, 
  "cy": 3984, 
  "proof": 3985, 
  "successes": 3986, 
  "respected": 3987, 
  "differently": 3988, 
  "irrational": 3989, 
  "deposits": 3990, 
  "solved": 3991, 
  "follows": 3992, 
  "20@@": 3993, 
  "steel": 3994, 
  "magnitude": 3995, 
  "bloody": 3996, 
  "alliances": 3997, 
  "EMU": 3998, 
  "ick@@": 3999, 
  "ure": 4000, 
  "post": 4001, 
  "strange": 4002, 
  "freedoms": 4003, 
  "ung": 4004, 
  "followers": 4005, 
  "ineffective": 4006, 
  "soci@@": 4007, 
  "irrelevant": 4008, 
  "af@@": 4009, 
  "hour": 4010, 
  "speculation": 4011, 
  "contained": 4012, 
  "destructive": 4013, 
  "worries": 4014, 
  "watch": 4015, 
  "hot": 4016, 
  "eliminating": 4017, 
  "everybody": 4018, 
  "obstacle": 4019, 
  "tre@@": 4020, 
  "strikes": 4021, 
  "Ex@@": 4022, 
  "borrowers": 4023, 
  "near-@@": 4024, 
  "looming": 4025, 
  "profitable": 4026, 
  "Chechnya": 4027, 
  "eliminated": 4028, 
  "outlook": 4029, 
  "euros": 4030, 
  "vicious": 4031, 
  "stra@@": 4032, 
  "oriented": 4033, 
  "condemned": 4034, 
  "intention": 4035, 
  "girls": 4036, 
  "poses": 4037, 
  "disputes": 4038, 
  "withdraw": 4039, 
  "illness": 4040, 
  "Southeast": 4041, 
  "gar@@": 4042, 
  "ing-@@": 4043, 
  "4.@@": 4044, 
  "sadly": 4045, 
  "introduce": 4046, 
  "discussed": 4047, 
  "embraced": 4048, 
  "map": 4049, 
  "struck": 4050, 
  "arise": 4051, 
  "promoted": 4052, 
  "fu@@": 4053, 
  "explicit": 4054, 
  "competing": 4055, 
  "Constitutional": 4056, 
  "WWII": 4057, 
  "tly": 4058, 
  "acted": 4059, 
  "interpretation": 4060, 
  "Keynesian": 4061, 
  "terrible": 4062, 
  "mounting": 4063, 
  "om": 4064, 
  "tered": 4065, 
  "memories": 4066, 
  "philosophy": 4067, 
  "representing": 4068, 
  "shadow": 4069, 
  "undermining": 4070, 
  "morality": 4071, 
  "maybe": 4072, 
  "mobilize": 4073, 
  "2020": 4074, 
  "motivated": 4075, 
  "Zimbabwe": 4076, 
  "severely": 4077, 
  "shaped": 4078, 
  "fold": 4079, 
  "judicial": 4080, 
  "zes": 4081, 
  "disasters": 4082, 
  "ton": 4083, 
  "virtual": 4084, 
  "ep@@": 4085, 
  "private-sector": 4086, 
  "rever@@": 4087, 
  "governed": 4088, 
  "postcommunist": 4089, 
  "experiment": 4090, 
  "coherent": 4091, 
  "deterrence": 4092, 
  "1967": 4093, 
  "uranium": 4094, 
  "1.@@": 4095, 
  "freely": 4096, 
  "def@@": 4097, 
  "ily": 4098, 
  "tur@@": 4099, 
  "ex-@@": 4100, 
  "persuade": 4101, 
  "fix": 4102, 
  "Schröder": 4103, 
  "Angela": 4104, 
  "generals": 4105, 
  "receiving": 4106, 
  "Chávez": 4107, 
  "safer": 4108, 
  "gene": 4109, 
  "nine": 4110, 
  "blow": 4111, 
  "spreading": 4112, 
  "facto": 4113, 
  "losers": 4114, 
  "courage": 4115, 
  "ots": 4116, 
  "Convention": 4117, 
  "typical": 4118, 
  "bid": 4119, 
  "watching": 4120, 
  "enrichment": 4121, 
  "multiple": 4122, 
  "operating": 4123, 
  "parallel": 4124, 
  "8@@": 4125, 
  "male": 4126, 
  "ise": 4127, 
  "connection": 4128, 
  "likelihood": 4129, 
  "controversial": 4130, 
  "racial": 4131, 
  "veto": 4132, 
  "shifts": 4133, 
  "grows": 4134, 
  "psychological": 4135, 
  "Netanyahu": 4136, 
  "edge": 4137, 
  "free-market": 4138, 
  "telling": 4139, 
  "assess": 4140, 
  "extensive": 4141, 
  "indicate": 4142, 
  "foster": 4143, 
  "enjoyed": 4144, 
  "predictable": 4145, 
  "in-@@": 4146, 
  "targeting": 4147, 
  "pragmatic": 4148, 
  "convincing": 4149, 
  "oc@@": 4150, 
  "morally": 4151, 
  "17@@": 4152, 
  "dozens": 4153, 
  "fine": 4154, 
  "method": 4155, 
  "hatred": 4156, 
  "beings": 4157, 
  "dioxide": 4158, 
  "purchases": 4159, 
  "decent": 4160, 
  "foreseeable": 4161, 
  "ined": 4162, 
  "150": 4163, 
  "subjects": 4164, 
  "League": 4165, 
  "waves": 4166, 
  "stabilizing": 4167, 
  "reversed": 4168, 
  "troubled": 4169, 
  "Indians": 4170, 
  "Microsoft": 4171, 
  "visited": 4172, 
  "ff": 4173, 
  "Su@@": 4174, 
  "dynamism": 4175, 
  "stakes": 4176, 
  "knowing": 4177, 
  "vis-à-vis": 4178, 
  "deepening": 4179, 
  "0-@@": 4180, 
  "demonstrates": 4181, 
  "schemes": 4182, 
  "Ma@@": 4183, 
  "ple@@": 4184, 
  "plus": 4185, 
  "id": 4186, 
  "unpopular": 4187, 
  "Colombia": 4188, 
  "mother": 4189, 
  "challenging": 4190, 
  "liabilities": 4191, 
  "ratings": 4192, 
  "lowest": 4193, 
  "cer@@": 4194, 
  "innovations": 4195, 
  "feelings": 4196, 
  "regularly": 4197, 
  "involving": 4198, 
  "striking": 4199, 
  "sudden": 4200, 
  "begins": 4201, 
  "Royal": 4202, 
  "voluntary": 4203, 
  "soaring": 4204, 
  "minor": 4205, 
  "prolonged": 4206, 
  "chairman": 4207, 
  "pays": 4208, 
  "specifically": 4209, 
  "pur@@": 4210, 
  "sole": 4211, 
  "generating": 4212, 
  "background": 4213, 
  "wise": 4214, 
  "excluded": 4215, 
  "friend": 4216, 
  "pr@@": 4217, 
  "Department": 4218, 
  "suspicion": 4219, 
  "extending": 4220, 
  "Israeli-Palestinian": 4221, 
  "cope": 4222, 
  "Mikhail": 4223, 
  "Abdullah": 4224, 
  "feed": 4225, 
  "spoke": 4226, 
  "orders": 4227, 
  "Iranians": 4228, 
  "Ghana": 4229, 
  "solely": 4230, 
  "Yushchenko": 4231, 
  "ving": 4232, 
  "une@@": 4233, 
  "employed": 4234, 
  "high-tech": 4235, 
  "explicitly": 4236, 
  "negotiation": 4237, 
  "missing": 4238, 
  "Cup": 4239, 
  "Switzerland": 4240, 
  "exceed": 4241, 
  "skepticism": 4242, 
  "ological": 4243, 
  "shifting": 4244, 
  "resolving": 4245, 
  "competitors": 4246, 
  "testing": 4247, 
  "release": 4248, 
  "keeps": 4249, 
  "exposure": 4250, 
  "IPCC": 4251, 
  "unnecessary": 4252, 
  "her@@": 4253, 
  "entering": 4254, 
  "denied": 4255, 
  "starts": 4256, 
  "qualified": 4257, 
  "burdens": 4258, 
  "foremost": 4259, 
  "half-century": 4260, 
  "o-@@": 4261, 
  "secondary": 4262, 
  "Socialist": 4263, 
  "secured": 4264, 
  "bol@@": 4265, 
  "vulnerability": 4266, 
  "Labour": 4267, 
  "ens": 4268, 
  "supervision": 4269, 
  "ash@@": 4270, 
  "chain": 4271, 
  "criminals": 4272, 
  "indigenous": 4273, 
  "off@@": 4274, 
  "witnessed": 4275, 
  "bel@@": 4276, 
  "undertaken": 4277, 
  "marginal": 4278, 
  "dynamics": 4279, 
  "suspect": 4280, 
  "prevention": 4281, 
  "hurt": 4282, 
  "bombs": 4283, 
  "meltdown": 4284, 
  "mortality": 4285, 
  "drawing": 4286, 
  "clash": 4287, 
  "scarce": 4288, 
  "remarkably": 4289, 
  "gs": 4290, 
  "Caucasus": 4291, 
  "representation": 4292, 
  "fairness": 4293, 
  "principal": 4294, 
  "emotional": 4295, 
  "fying": 4296, 
  "un": 4297, 
  "recognizes": 4298, 
  "Le@@": 4299, 
  "contributing": 4300, 
  "tion-@@": 4301, 
  "techniques": 4302, 
  "cal@@": 4303, 
  "professor": 4304, 
  "error": 4305, 
  "holders": 4306, 
  "intentions": 4307, 
  "can@@": 4308, 
  "ships": 4309, 
  "cies": 4310, 
  "accepting": 4311, 
  "physics": 4312, 
  "bet": 4313, 
  "resentment": 4314, 
  "assumption": 4315, 
  "index": 4316, 
  "makers": 4317, 
  "oligarchs": 4318, 
  "dying": 4319, 
  "signals": 4320, 
  "reinforced": 4321, 
  "undertake": 4322, 
  "guard": 4323, 
  "commission": 4324, 
  "prevailing": 4325, 
  "demise": 4326, 
  "slower": 4327, 
  "weaknesses": 4328, 
  "sto@@": 4329, 
  "buildings": 4330, 
  "code": 4331, 
  "fashion": 4332, 
  "dictator": 4333, 
  "distributed": 4334, 
  "considering": 4335, 
  "lawyers": 4336, 
  "citizenship": 4337, 
  "compelling": 4338, 
  "documents": 4339, 
  "lenders": 4340, 
  "dropped": 4341, 
  "ck@@": 4342, 
  "legislative": 4343, 
  "seat": 4344, 
  "Chile": 4345, 
  "revive": 4346, 
  "sport": 4347, 
  "progressive": 4348, 
  "younger": 4349, 
  "well-being": 4350, 
  "uni@@": 4351, 
  "architecture": 4352, 
  "Communists": 4353, 
  "ming": 4354, 
  "risen": 4355, 
  "assuming": 4356, 
  "describe": 4357, 
  "trained": 4358, 
  "disappear": 4359, 
  "Growth": 4360, 
  "consideration": 4361, 
  "article": 4362, 
  "hostility": 4363, 
  "relationships": 4364, 
  "bought": 4365, 
  "boosting": 4366, 
  "Friedman": 4367, 
  "fre@@": 4368, 
  "integrate": 4369, 
  "globalized": 4370, 
  "restoring": 4371, 
  "Chechen": 4372, 
  "Charter": 4373, 
  "exporters": 4374, 
  "medium": 4375, 
  "denial": 4376, 
  "shi@@": 4377, 
  "sake": 4378, 
  "Center": 4379, 
  "ly-@@": 4380, 
  "tation": 4381, 
  "bias": 4382, 
  "shot": 4383, 
  "destroying": 4384, 
  "pres@@": 4385, 
  "imported": 4386, 
  "weather": 4387, 
  "fill": 4388, 
  "criticized": 4389, 
  "purchase": 4390, 
  "villages": 4391, 
  "que": 4392, 
  "broke": 4393, 
  "ratios": 4394, 
  "check": 4395, 
  "midst": 4396, 
  "perfectly": 4397, 
  "online": 4398, 
  "treaties": 4399, 
  "storm": 4400, 
  "essence": 4401, 
  "packages": 4402, 
  "surprised": 4403, 
  "conclude": 4404, 
  "Prize": 4405, 
  "Bulgaria": 4406, 
  "Schroeder": 4407, 
  "feature": 4408, 
  "mood": 4409, 
  "Moldova": 4410, 
  "repeat": 4411, 
  "1.5": 4412, 
  "iled": 4413, 
  "bro@@": 4414, 
  "chronic": 4415, 
  "formation": 4416, 
  "consent": 4417, 
  "firmly": 4418, 
  "tissue": 4419, 
  "exploit": 4420, 
  "awareness": 4421, 
  "AKP": 4422, 
  "Consensus": 4423, 
  "1993": 4424, 
  "behave": 4425, 
  "teams": 4426, 
  "distance": 4427, 
  "temperatures": 4428, 
  "Trichet": 4429, 
  "debt-@@": 4430, 
  "accurate": 4431, 
  "arrangement": 4432, 
  "eding": 4433, 
  "DPJ": 4434, 
  "ening": 4435, 
  "City": 4436, 
  "Abu": 4437, 
  "details": 4438, 
  "temperature": 4439, 
  "23": 4440, 
  "dire": 4441, 
  "grasp": 4442, 
  "confirmed": 4443, 
  "outsiders": 4444, 
  "volume": 4445, 
  "er-@@": 4446, 
  "aring": 4447, 
  "ty-@@": 4448, 
  "sively": 4449, 
  "poorly": 4450, 
  "skeptics": 4451, 
  "east": 4452, 
  "calculations": 4453, 
  "bur@@": 4454, 
  "bing": 4455, 
  "persistent": 4456, 
  "names": 4457, 
  "cohesion": 4458, 
  "fired": 4459, 
  "misguided": 4460, 
  "gross": 4461, 
  "Georgian": 4462, 
  "accomplish": 4463, 
  "desperately": 4464, 
  "stuck": 4465, 
  "Hu": 4466, 
  "Pacific": 4467, 
  "tension": 4468, 
  "permit": 4469, 
  "quest": 4470, 
  "government-@@": 4471, 
  "Institute": 4472, 
  "parliaments": 4473, 
  "prevail": 4474, 
  "earthquake": 4475, 
  "survived": 4476, 
  "flawed": 4477, 
  "mess": 4478, 
  "recall": 4479, 
  "reformers": 4480, 
  "liberalism": 4481, 
  "declare": 4482, 
  "alongside": 4483, 
  "Ukrainians": 4484, 
  "occurs": 4485, 
  "bla@@": 4486, 
  "favored": 4487, 
  "agents": 4488, 
  "propose": 4489, 
  "absent": 4490, 
  "complexity": 4491, 
  "-led": 4492, 
  "ach@@": 4493, 
  "nation@@": 4494, 
  "ra": 4495, 
  "blind": 4496, 
  "Government": 4497, 
  "existed": 4498, 
  "constrained": 4499, 
  "breakthrough": 4500, 
  "FDI": 4501, 
  "budgetary": 4502, 
  "sel@@": 4503, 
  "regulated": 4504, 
  "island": 4505, 
  "Maastricht": 4506, 
  "fulfill": 4507, 
  "stick": 4508, 
  "fraction": 4509, 
  "bitter": 4510, 
  "compare": 4511, 
  "duty": 4512, 
  "tionally": 4513, 
  "overnight": 4514, 
  "confined": 4515, 
  "wards": 4516, 
  "understands": 4517, 
  "Kuchma": 4518, 
  "Kurds": 4519, 
  "struggling": 4520, 
  "emb@@": 4521, 
  "officially": 4522, 
  "defeated": 4523, 
  "cooperate": 4524, 
  "countless": 4525, 
  "eventual": 4526, 
  "captured": 4527, 
  "fraud": 4528, 
  "adoption": 4529, 
  "engineers": 4530, 
  "odds": 4531, 
  "enforce": 4532, 
  "ss@@": 4533, 
  "redistribution": 4534, 
  "istic": 4535, 
  "hospital": 4536, 
  "Hague": 4537, 
  "taught": 4538, 
  "Health": 4539, 
  "Solidarity": 4540, 
  "2050": 4541, 
  "combine": 4542, 
  "displaced": 4543, 
  "beneficial": 4544, 
  "ethics": 4545, 
  "eager": 4546, 
  "commentators": 4547, 
  "content": 4548, 
  "Havel": 4549, 
  "pu@@": 4550, 
  "constantly": 4551, 
  "biology": 4552, 
  "Sunnis": 4553, 
  "Alan": 4554, 
  "restored": 4555, 
  "adding": 4556, 
  "grade": 4557, 
  "ti": 4558, 
  "silent": 4559, 
  "sports": 4560, 
  "-and-@@": 4561, 
  "altogether": 4562, 
  "Duma": 4563, 
  "Kurdish": 4564, 
  "enabling": 4565, 
  "ina": 4566, 
  "tells": 4567, 
  "una@@": 4568, 
  "film": 4569, 
  "10@@": 4570, 
  "far-reaching": 4571, 
  "populism": 4572, 
  "ward": 4573, 
  "projected": 4574, 
  "precedent": 4575, 
  "insurgency": 4576, 
  "fundamentalism": 4577, 
  "Agreement": 4578, 
  "traders": 4579, 
  "bloc": 4580, 
  "residents": 4581, 
  "cooperative": 4582, 
  "yed": 4583, 
  "pricing": 4584, 
  "-RSB-": 4585, 
  "-LSB-": 4586, 
  "se-@@": 4587, 
  "boundaries": 4588, 
  "disorder": 4589, 
  "closing": 4590, 
  "ay": 4591, 
  "performed": 4592, 
  "As": 4593, 
  "ement": 4594, 
  "ok": 4595, 
  "document": 4596, 
  "poll": 4597, 
  "returning": 4598, 
  "homeowners": 4599, 
  "thinks": 4600, 
  "director": 4601, 
  "radicals": 4602, 
  "harsh": 4603, 
  "superior": 4604, 
  "neglect": 4605, 
  "units": 4606, 
  "non@@": 4607, 
  "optimistic": 4608, 
  "devoted": 4609, 
  "regain": 4610, 
  "govern": 4611, 
  "é": 4612, 
  "anticipated": 4613, 
  "offensive": 4614, 
  "citizen": 4615, 
  "professionals": 4616, 
  "emission": 4617, 
  "warfare": 4618, 
  "cks": 4619, 
  "scenarios": 4620, 
  "Harvard": 4621, 
  "ger": 4622, 
  "ud@@": 4623, 
  "lessness": 4624, 
  "Khodorkovsky": 4625, 
  "totalitarian": 4626, 
  "player": 4627, 
  "tical": 4628, 
  "cast": 4629, 
  "entrenched": 4630, 
  "constructive": 4631, 
  "namely": 4632, 
  "TB": 4633, 
  "ines": 4634, 
  "Assad": 4635, 
  "misleading": 4636, 
  "defining": 4637, 
  "nets": 4638, 
  "surrounding": 4639, 
  "worker": 4640, 
  "counter-@@": 4641, 
  "town": 4642, 
  "spreads": 4643, 
  "crop": 4644, 
  "provisions": 4645, 
  "undermines": 4646, 
  "X@@": 4647, 
  "judiciary": 4648, 
  "mil@@": 4649, 
  "pal@@": 4650, 
  "iness": 4651, 
  "atory": 4652, 
  "constitutes": 4653, 
  "GNP": 4654, 
  "sav@@": 4655, 
  "rigid": 4656, 
  "Prague": 4657, 
  "vacuum": 4658, 
  "symbol": 4659, 
  "totally": 4660, 
  "peacekeeping": 4661, 
  "inclusion": 4662, 
  "LDP": 4663, 
  "determining": 4664, 
  "informal": 4665, 
  "democrats": 4666, 
  "train": 4667, 
  "loan": 4668, 
  "Qaddafi": 4669, 
  "catch": 4670, 
  "re-election": 4671, 
  "revival": 4672, 
  "trip": 4673, 
  "ay@@": 4674, 
  "nu@@": 4675, 
  "assist": 4676, 
  "frustration": 4677, 
  "0@@": 4678, 
  "guilty": 4679, 
  "dubious": 4680, 
  "Yanukovich": 4681, 
  "15@@": 4682, 
  "Africans": 4683, 
  "investor": 4684, 
  "pra@@": 4685, 
  "reinforce": 4686, 
  "parity": 4687, 
  "classic": 4688, 
  "loyalty": 4689, 
  "paradox": 4690, 
  "16@@": 4691, 
  "F": 4692, 
  "Community": 4693, 
  "Norway": 4694, 
  "defen@@": 4695, 
  "blo@@": 4696, 
  "sounds": 4697, 
  "Bi@@": 4698, 
  "hon@@": 4699, 
  "epidemic": 4700, 
  "vested": 4701, 
  "iting": 4702, 
  "mentioned": 4703, 
  "26": 4704, 
  "sion@@": 4705, 
  "5.@@": 4706, 
  "post-war": 4707, 
  "anywhere": 4708, 
  "choosing": 4709, 
  "rebuild": 4710, 
  "justification": 4711, 
  "lacking": 4712, 
  "gri@@": 4713, 
  "Thailand": 4714, 
  "hazard": 4715, 
  "by@@": 4716, 
  "campaigns": 4717, 
  "compensate": 4718, 
  "underground": 4719, 
  "contagion": 4720, 
  "three-@@": 4721, 
  "unified": 4722, 
  "ath": 4723, 
  "factions": 4724, 
  "bal@@": 4725, 
  "Gates": 4726, 
  "adjustments": 4727, 
  "bearing": 4728, 
  "soared": 4729, 
  "implicit": 4730, 
  "dealt": 4731, 
  "behalf": 4732, 
  "aling": 4733, 
  "anxiety": 4734, 
  "partial": 4735, 
  "Olmert": 4736, 
  "plenty": 4737, 
  "adaptation": 4738, 
  "laid": 4739, 
  "pick": 4740, 
  "pull": 4741, 
  "ear@@": 4742, 
  "relied": 4743, 
  "hospitals": 4744, 
  "versus": 4745, 
  "manipulation": 4746, 
  "le-@@": 4747, 
  "speci@@": 4748, 
  "advocate": 4749, 
  "ballot": 4750, 
  "channels": 4751, 
  "bargain": 4752, 
  "enduring": 4753, 
  "wn": 4754, 
  "Deng": 4755, 
  "practically": 4756, 
  "connections": 4757, 
  "ize": 4758, 
  "suppose": 4759, 
  "portfolio": 4760, 
  "request": 4761, 
  "mix": 4762, 
  "concessions": 4763, 
  "requiring": 4764, 
  "wishes": 4765, 
  "fil@@": 4766, 
  "separation": 4767, 
  "Ukrainian": 4768, 
  "liquid": 4769, 
  "E": 4770, 
  "named": 4771, 
  "implied": 4772, 
  "ideals": 4773, 
  "diminished": 4774, 
  "acknowledged": 4775, 
  "forest": 4776, 
  "lan@@": 4777, 
  "therapy": 4778, 
  "disappeared": 4779, 
  "insecurity": 4780, 
  "locked": 4781, 
  "seize": 4782, 
  "satisfied": 4783, 
  "retail": 4784, 
  "expert": 4785, 
  "vastly": 4786, 
  "foot@@": 4787, 
  "globe": 4788, 
  "vehicles": 4789, 
  "reactions": 4790, 
  "filled": 4791, 
  "nationalists": 4792, 
  "deemed": 4793, 
  "skeptical": 4794, 
  "inter-@@": 4795, 
  "introduction": 4796, 
  "rampant": 4797, 
  "Chernobyl": 4798, 
  "sentiments": 4799, 
  "automatically": 4800, 
  "cautious": 4801, 
  "inaction": 4802, 
  "ong@@": 4803, 
  "brief": 4804, 
  "extremist": 4805, 
  "construct": 4806, 
  "Charles": 4807, 
  "automatic": 4808, 
  "tragic": 4809, 
  "pipeline": 4810, 
  "poised": 4811, 
  "br@@": 4812, 
  "succession": 4813, 
  "patent": 4814, 
  "air@@": 4815, 
  "exclusively": 4816, 
  "note": 4817, 
  "characteristics": 4818, 
  "reporting": 4819, 
  "1,000": 4820, 
  "breakdown": 4821, 
  "199@@": 4822, 
  "barrel": 4823, 
  "Richard": 4824, 
  "Sa@@": 4825, 
  "backlash": 4826, 
  "obligation": 4827, 
  "temptation": 4828, 
  "pas@@": 4829, 
  "originally": 4830, 
  "evolutionary": 4831, 
  "preparing": 4832, 
  "conservation": 4833, 
  "split": 4834, 
  "ist": 4835, 
  "21": 4836, 
  "dimension": 4837, 
  "formula": 4838, 
  "stems": 4839, 
  "steady": 4840, 
  "Act": 4841, 
  "characterized": 4842, 
  "bility": 4843, 
  "im": 4844, 
  "conviction": 4845, 
  "civilized": 4846, 
  "por@@": 4847, 
  "enthusiasm": 4848, 
  "ast@@": 4849, 
  "health-care": 4850, 
  "affects": 4851, 
  "novel": 4852, 
  "studied": 4853, 
  "crops": 4854, 
  "unite": 4855, 
  "confronting": 4856, 
  "findings": 4857, 
  "doubled": 4858, 
  "illusion": 4859, 
  "regulate": 4860, 
  "accident": 4861, 
  "timing": 4862, 
  "piece": 4863, 
  "Nixon": 4864, 
  "proclaimed": 4865, 
  "fertility": 4866, 
  "promotion": 4867, 
  "arises": 4868, 
  "fra@@": 4869, 
  "Earth": 4870, 
  "camps": 4871, 
  "phrase": 4872, 
  "recovered": 4873, 
  "counterparts": 4874, 
  "disp@@": 4875, 
  "absorb": 4876, 
  "arrived": 4877, 
  "Forum": 4878, 
  "intent": 4879, 
  "performing": 4880, 
  "fed": 4881, 
  "transnational": 4882, 
  "substitute": 4883, 
  "dismissed": 4884, 
  "settle": 4885, 
  "burning": 4886, 
  "sli@@": 4887, 
  "upper": 4888, 
  "bonuses": 4889, 
  "sad": 4890, 
  "winner": 4891, 
  "welcomed": 4892, 
  "ov": 4893, 
  "He@@": 4894, 
  "trap": 4895, 
  "feasible": 4896, 
  "balancing": 4897, 
  "logical": 4898, 
  "radically": 4899, 
  "ordered": 4900, 
  "deliberately": 4901, 
  "Warsaw": 4902, 
  "strongest": 4903, 
  "Lehman": 4904, 
  "meantime": 4905, 
  "unit": 4906, 
  "violations": 4907, 
  "protesters": 4908, 
  "raw": 4909, 
  "resistant": 4910, 
  "salaries": 4911, 
  "wife": 4912, 
  "steadily": 4913, 
  "200@@": 4914, 
  "box": 4915, 
  "first-@@": 4916, 
  "checks": 4917, 
  "bears": 4918, 
  "Shanghai": 4919, 
  "indicates": 4920, 
  "spends": 4921, 
  "containment": 4922, 
  "sending": 4923, 
  "tightening": 4924, 
  "exceptions": 4925, 
  "solving": 4926, 
  "und@@": 4927, 
  "What": 4928, 
  "clu@@": 4929, 
  "arguably": 4930, 
  "minimal": 4931, 
  "gases": 4932, 
  "experiments": 4933, 
  "discourse": 4934, 
  "pping": 4935, 
  "preferred": 4936, 
  "od": 4937, 
  "impression": 4938, 
  "PLO": 4939, 
  "systematic": 4940, 
  "object": 4941, 
  "bri@@": 4942, 
  "proud": 4943, 
  "alleged": 4944, 
  "entity": 4945, 
  "cabinet": 4946, 
  "moderates": 4947, 
  "Conference": 4948, 
  "2.@@": 4949, 
  "shaping": 4950, 
  "station": 4951, 
  "ment@@": 4952, 
  "bondholders": 4953, 
  "th-@@": 4954, 
  "famously": 4955, 
  "dra@@": 4956, 
  "ration": 4957, 
  "unification": 4958, 
  "exclusion": 4959, 
  "head@@": 4960, 
  "Brothers": 4961, 
  "extension": 4962, 
  "counts": 4963, 
  "burst": 4964, 
  "remove": 4965, 
  "wel@@": 4966, 
  "restricted": 4967, 
  "downside": 4968, 
  "tou@@": 4969, 
  "semi-@@": 4970, 
  "ong": 4971, 
  "destabilizing": 4972, 
  "cited": 4973, 
  "centralized": 4974, 
  "�": 4975, 
  "west": 4976, 
  "electronic": 4977, 
  "ani": 4978, 
  "clo@@": 4979, 
  "facilitate": 4980, 
  "career": 4981, 
  "antly": 4982, 
  "This": 4983, 
  "brink": 4984, 
  "ity-@@": 4985, 
  "ads": 4986, 
  "overly": 4987, 
  "Group": 4988, 
  "intensive": 4989, 
  "decrease": 4990, 
  "relies": 4991, 
  "spectacular": 4992, 
  "attempting": 4993, 
  "insisted": 4994, 
  "allocation": 4995, 
  "Kuwait": 4996, 
  "aw@@": 4997, 
  "responding": 4998, 
  "forth": 4999, 
  "reading": 5000, 
  "conclusions": 5001, 
  "ranging": 5002, 
  "ref@@": 5003, 
  "5-@@": 5004, 
  "all-@@": 5005, 
  "Geneva": 5006, 
  "heading": 5007, 
  "games": 5008, 
  "leg@@": 5009, 
  "ball": 5010, 
  "tolerate": 5011, 
  "sal@@": 5012, 
  "believing": 5013, 
  "ak@@": 5014, 
  "pact": 5015, 
  "consolidate": 5016, 
  "suffers": 5017, 
  "lim@@": 5018, 
  "application": 5019, 
  "teachers": 5020, 
  "identities": 5021, 
  "ind@@": 5022, 
  "reward": 5023, 
  "tanks": 5024, 
  "shortage": 5025, 
  "Estonia": 5026, 
  "lender": 5027, 
  "gre@@": 5028, 
  "shut": 5029, 
  "Mon@@": 5030, 
  "KGB": 5031, 
  "talent": 5032, 
  "motives": 5033, 
  "concentration": 5034, 
  "empty": 5035, 
  "formidable": 5036, 
  "Chicago": 5037, 
  "bosses": 5038, 
  "despair": 5039, 
  "irresponsible": 5040, 
  "Governing": 5041, 
  "freeze": 5042, 
  "buyers": 5043, 
  "uring": 5044, 
  "gh": 5045, 
  "path@@": 5046, 
  "reforming": 5047, 
  "liberation": 5048, 
  "soccer": 5049, 
  "tended": 5050, 
  "collabor@@": 5051, 
  "industrialized": 5052, 
  "gal@@": 5053, 
  "tures": 5054, 
  "real-estate": 5055, 
  "north": 5056, 
  "Socialists": 5057, 
  "healthcare": 5058, 
  "tro@@": 5059, 
  "premium": 5060, 
  "civilizations": 5061, 
  "province": 5062, 
  "eat": 5063, 
  "assassination": 5064, 
  "6.@@": 5065, 
  "Tibet": 5066, 
  "dictators": 5067, 
  "forge": 5068, 
  "chi@@": 5069, 
  "settlers": 5070, 
  "Princeton": 5071, 
  "distinction": 5072, 
  "founding": 5073, 
  "tomorrow": 5074, 
  "ours": 5075, 
  "accelerate": 5076, 
  "ranks": 5077, 
  "Rumsfeld": 5078, 
  "tremendous": 5079, 
  "Rwanda": 5080, 
  "react": 5081, 
  "Shiite": 5082, 
  "contains": 5083, 
  "Me@@": 5084, 
  "excuse": 5085, 
  "squ@@": 5086, 
  "Article": 5087, 
  "monitor": 5088, 
  "ya": 5089, 
  "coupled": 5090, 
  "cle@@": 5091, 
  "satisfy": 5092, 
  "readily": 5093, 
  "tries": 5094, 
  "route": 5095, 
  "afraid": 5096, 
  "tariff": 5097, 
  "initiated": 5098, 
  "Climate": 5099, 
  "origin": 5100, 
  "broad@@": 5101, 
  "reasonably": 5102, 
  "neighborhood": 5103, 
  "inherently": 5104, 
  "oned": 5105, 
  "ver": 5106, 
  "For@@": 5107, 
  "with@@": 5108, 
  "Latvia": 5109, 
  "Thatcher": 5110, 
  "reflecting": 5111, 
  "sy": 5112, 
  "customs": 5113, 
  "motion": 5114, 
  "Boris": 5115, 
  "scandals": 5116, 
  "sses": 5117, 
  "bills": 5118, 
  "tide": 5119, 
  "bust": 5120, 
  "tempted": 5121, 
  "ast": 5122, 
  "shor@@": 5123, 
  "nuclear-@@": 5124, 
  "sectarian": 5125, 
  "enti@@": 5126, 
  "listen": 5127, 
  "indirect": 5128, 
  "pledged": 5129, 
  "reference": 5130, 
  "ah": 5131, 
  "wed": 5132, 
  "affair": 5133, 
  "possibilities": 5134, 
  "postwar": 5135, 
  "forecast": 5136, 
  "tight": 5137, 
  "Declaration": 5138, 
  "moon": 5139, 
  "distress": 5140, 
  "acquire": 5141, 
  "electric": 5142, 
  "pure": 5143, 
  "strict": 5144, 
  "Southern": 5145, 
  "induced": 5146, 
  "fer@@": 5147, 
  "Initiative": 5148, 
  "ta": 5149, 
  "abandoning": 5150, 
  "preserving": 5151, 
  "Roosevelt": 5152, 
  "margin": 5153, 
  "bases": 5154, 
  "Mal@@": 5155, 
  "organize": 5156, 
  "catastrophic": 5157, 
  "overseas": 5158, 
  "ker": 5159, 
  "judged": 5160, 
  "blocked": 5161, 
  "humiliation": 5162, 
  "tioning": 5163, 
  "symbols": 5164, 
  "challenged": 5165, 
  "statistical": 5166, 
  "foreign-exchange": 5167, 
  "assumptions": 5168, 
  "spoken": 5169, 
  "ft": 5170, 
  "complain": 5171, 
  "helpful": 5172, 
  "predecessor": 5173, 
  "origins": 5174, 
  "Koreans": 5175, 
  "ie": 5176, 
  "invited": 5177, 
  "Pro@@": 5178, 
  "notice": 5179, 
  "20th": 5180, 
  "discredited": 5181, 
  "dan@@": 5182, 
  "tw@@": 5183, 
  "hom@@": 5184, 
  "wild": 5185, 
  "persist": 5186, 
  "carbon-@@": 5187, 
  "hur@@": 5188, 
  "suit": 5189, 
  "Orange": 5190, 
  "decisively": 5191, 
  "clinical": 5192, 
  "businessmen": 5193, 
  "admission": 5194, 
  "approximately": 5195, 
  "slowing": 5196, 
  "carrying": 5197, 
  "revived": 5198, 
  "new@@": 5199, 
  "miracle": 5200, 
  "ish": 5201, 
  "card": 5202, 
  "Swedish": 5203, 
  "1980s": 5204, 
  "equilibrium": 5205, 
  "approaching": 5206, 
  "bail": 5207, 
  "Nor@@": 5208, 
  "association": 5209, 
  "multilateralism": 5210, 
  "acquired": 5211, 
  "gging": 5212, 
  "emerges": 5213, 
  "notable": 5214, 
  "IAEA": 5215, 
  "historians": 5216, 
  "outright": 5217, 
  "interim": 5218, 
  "continental": 5219, 
  "Ronald": 5220, 
  "endorsed": 5221, 
  "log@@": 5222, 
  "investigation": 5223, 
  "roles": 5224, 
  "paradoxically": 5225, 
  "work@@": 5226, 
  "capability": 5227, 
  "exchanges": 5228, 
  "myth": 5229, 
  "cing": 5230, 
  "Khamenei": 5231, 
  "restraint": 5232, 
  "minimize": 5233, 
  "aggression": 5234, 
  "unpredictable": 5235, 
  "bargaining": 5236, 
  "disturbing": 5237, 
  "frequent": 5238, 
  "Round": 5239, 
  "Somalia": 5240, 
  "sponsored": 5241, 
  "St@@": 5242, 
  "traffic": 5243, 
  "Strip": 5244, 
  "bankrupt": 5245, 
  "massacre": 5246, 
  "broadly": 5247, 
  "self-interest": 5248, 
  "relying": 5249, 
  "witness": 5250, 
  "farming": 5251, 
  "coverage": 5252, 
  "communists": 5253, 
  "Mugabe": 5254, 
  "enacted": 5255, 
  "engaging": 5256, 
  "scientist": 5257, 
  "dr@@": 5258, 
  "exporting": 5259, 
  "invented": 5260, 
  "overwhelmingly": 5261, 
  "ham@@": 5262, 
  "formally": 5263, 
  "letting": 5264, 
  "assured": 5265, 
  "sub-@@": 5266, 
  "booming": 5267, 
  "religions": 5268, 
  "tested": 5269, 
  "artificial": 5270, 
  "concepts": 5271, 
  "civic": 5272, 
  "attempted": 5273, 
  "mothers": 5274, 
  "teaching": 5275, 
  "printing": 5276, 
  "Law": 5277, 
  "public-@@": 5278, 
  "Orthodox": 5279, 
  "sheer": 5280, 
  "chemical": 5281, 
  "stre@@": 5282, 
  "diplomats": 5283, 
  "prudent": 5284, 
  "Cairo": 5285, 
  "conscious": 5286, 
  "harmful": 5287, 
  "upward": 5288, 
  "tan@@": 5289, 
  "percent": 5290, 
  "deserves": 5291, 
  "Labor": 5292, 
  "exaggerated": 5293, 
  "opposing": 5294, 
  "symbolic": 5295, 
  "excellent": 5296, 
  "emotions": 5297, 
  "differ": 5298, 
  "disparities": 5299, 
  "assumes": 5300, 
  "ass@@": 5301, 
  "likes": 5302, 
  "location": 5303, 
  "sted": 5304, 
  "Chief": 5305, 
  "medium-term": 5306, 
  "og@@": 5307, 
  "indicators": 5308, 
  "affecting": 5309, 
  "throwing": 5310, 
  "swings": 5311, 
  "lest": 5312, 
  "Euro@@": 5313, 
  "occasion": 5314, 
  "music": 5315, 
  "collectively": 5316, 
  "located": 5317, 
  "utterly": 5318, 
  "fifth": 5319, 
  "policymaking": 5320, 
  "earned": 5321, 
  "mus@@": 5322, 
  "soil": 5323, 
  "seized": 5324, 
  "wary": 5325, 
  "Fa@@": 5326, 
  "booms": 5327, 
  "dreams": 5328, 
  "exceptional": 5329, 
  "democratically": 5330, 
  "8.@@": 5331, 
  "Berkeley": 5332, 
  "Spring": 5333, 
  "pointing": 5334, 
  "cho@@": 5335, 
  "diagnosis": 5336, 
  "hide": 5337, 
  "belong": 5338, 
  "besides": 5339, 
  "traded": 5340, 
  "analogy": 5341, 
  "Algeria": 5342, 
  "Na@@": 5343, 
  "pay@@": 5344, 
  "sters": 5345, 
  "routinely": 5346, 
  "scholars": 5347, 
  "Osama": 5348, 
  "life-@@": 5349, 
  "ture": 5350, 
  "ambition": 5351, 
  "Nice": 5352, 
  "incapable": 5353, 
  "transmission": 5354, 
  "Lula": 5355, 
  "`": 5356, 
  "departure": 5357, 
  "equipped": 5358, 
  "entities": 5359, 
  "unilateralism": 5360, 
  "resisted": 5361, 
  "sin@@": 5362, 
  "ills": 5363, 
  "battles": 5364, 
  ",000": 5365, 
  "calm": 5366, 
  "-to-@@": 5367, 
  "encourages": 5368, 
  "Strategy": 5369, 
  "preventive": 5370, 
  "cure": 5371, 
  "genuinely": 5372, 
  "Guantánamo": 5373, 
  "land@@": 5374, 
  "fle@@": 5375, 
  "treating": 5376, 
  "dle": 5377, 
  "necessity": 5378, 
  "bly": 5379, 
  "defaults": 5380, 
  "socially": 5381, 
  "gg@@": 5382, 
  "Pre@@": 5383, 
  "angry": 5384, 
  "completed": 5385, 
  "pollu@@": 5386, 
  "accumulation": 5387, 
  "ner@@": 5388, 
  "ici@@": 5389, 
  "ligh@@": 5390, 
  "remote": 5391, 
  "machine": 5392, 
  "Viktor": 5393, 
  "defensive": 5394, 
  "sick": 5395, 
  "prone": 5396, 
  "indifference": 5397, 
  "keen": 5398, 
  "Ali": 5399, 
  "Co@@": 5400, 
  "sacrifice": 5401, 
  "store": 5402, 
  "alarming": 5403, 
  "micro@@": 5404, 
  "fighters": 5405, 
  "confused": 5406, 
  "Association": 5407, 
  "pressed": 5408, 
  "censorship": 5409, 
  "precise": 5410, 
  "favorite": 5411, 
  "Swiss": 5412, 
  "temporarily": 5413, 
  "spectrum": 5414, 
  "asing": 5415, 
  "year-old": 5416, 
  "Communism": 5417, 
  "enforced": 5418, 
  "rises": 5419, 
  "cyclical": 5420, 
  "2.5": 5421, 
  "spo@@": 5422, 
  "detailed": 5423, 
  "spiral": 5424, 
  "lating": 5425, 
  "Qu@@": 5426, 
  "classical": 5427, 
  "ble@@": 5428, 
  "400": 5429, 
  "ick": 5430, 
  "ill@@": 5431, 
  "touch": 5432, 
  "star": 5433, 
  "Marx": 5434, 
  "revi@@": 5435, 
  "cynical": 5436, 
  "ther@@": 5437, 
  "covered": 5438, 
  "Ra@@": 5439, 
  "systematically": 5440, 
  "casualties": 5441, 
  "lessly": 5442, 
  "crowd": 5443, 
  "consume": 5444, 
  "punished": 5445, 
  "ceiling": 5446, 
  "accelerated": 5447, 
  "1979": 5448, 
  "curb": 5449, 
  "potent": 5450, 
  "governmental": 5451, 
  "holdings": 5452, 
  "cycles": 5453, 
  "recommendations": 5454, 
  "payment": 5455, 
  "1973": 5456, 
  "insur@@": 5457, 
  "thrown": 5458, 
  "bs": 5459, 
  "M": 5460, 
  "factory": 5461, 
  "appointment": 5462, 
  "trac@@": 5463, 
  "examine": 5464, 
  "shame": 5465, 
  "Ban": 5466, 
  "greed": 5467, 
  "feet": 5468, 
  "peasants": 5469, 
  "sun@@": 5470, 
  "don@@": 5471, 
  "dic@@": 5472, 
  "two-state": 5473, 
  "2-@@": 5474, 
  "factories": 5475, 
  "academics": 5476, 
  "dogs": 5477, 
  "derived": 5478, 
  "gues": 5479, 
  "centr@@": 5480, 
  "luck": 5481, 
  "reflection": 5482, 
  "grant": 5483, 
  "tribunal": 5484, 
  "author": 5485, 
  "scrutiny": 5486, 
  "banned": 5487, 
  "gue": 5488, 
  "ef@@": 5489, 
  "uncertainties": 5490, 
  "writer": 5491, 
  "repair": 5492, 
  "orderly": 5493, 
  "discover": 5494, 
  "degradation": 5495, 
  "Khrushchev": 5496, 
  "Q@@": 5497, 
  "moments": 5498, 
  "B": 5499, 
  "pervasive": 5500, 
  "gaps": 5501, 
  "predecessors": 5502, 
  "sch@@": 5503, 
  "Secretary-General": 5504, 
  "guided": 5505, 
  "devices": 5506, 
  "presents": 5507, 
  "Free": 5508, 
  "1968": 5509, 
  "Asians": 5510, 
  "Par@@": 5511, 
  "Smith": 5512, 
  "mag@@": 5513, 
  "platform": 5514, 
  "stark": 5515, 
  "authoritarianism": 5516, 
  "rated": 5517, 
  "ups": 5518, 
  "floods": 5519, 
  "creativity": 5520, 
  "free-trade": 5521, 
  "insolvent": 5522, 
  "Premier": 5523, 
  "flo@@": 5524, 
  "sm@@": 5525, 
  "considerably": 5526, 
  "1981": 5527, 
  "str@@": 5528, 
  "visions": 5529, 
  "assault": 5530, 
  "warnings": 5531, 
  "securing": 5532, 
  "inc@@": 5533, 
  "defended": 5534, 
  "sub-Saharan": 5535, 
  "Sch@@": 5536, 
  "stations": 5537, 
  "shel@@": 5538, 
  "penalty": 5539, 
  "8-@@": 5540, 
  "lates": 5541, 
  "machines": 5542, 
  "surveys": 5543, 
  "insurgents": 5544, 
  "riots": 5545, 
  "hearts": 5546, 
  "sor@@": 5547, 
  "Morocco": 5548, 
  "prop@@": 5549, 
  "permitted": 5550, 
  "adjust": 5551, 
  "attracted": 5552, 
  "expose": 5553, 
  "widening": 5554, 
  "rivals": 5555, 
  "low-cost": 5556, 
  "disputed": 5557, 
  "zz@@": 5558, 
  "ine@@": 5559, 
  "facility": 5560, 
  "inherited": 5561, 
  "Munich": 5562, 
  "ale": 5563, 
  "benign": 5564, 
  "messages": 5565, 
  "confusion": 5566, 
  "transforming": 5567, 
  "collateral": 5568, 
  "ther": 5569, 
  "handle": 5570, 
  "•": 5571, 
  "medicines": 5572, 
  "carries": 5573, 
  "Madrid": 5574, 
  "um@@": 5575, 
  "walk": 5576, 
  "run-up": 5577, 
  "Goals": 5578, 
  "autumn": 5579, 
  "relevance": 5580, 
  "phone": 5581, 
  "ease": 5582, 
  "ar-@@": 5583, 
  "vague": 5584, 
  "zones": 5585, 
  "mes": 5586, 
  "absolutely": 5587, 
  "os@@": 5588, 
  "ny": 5589, 
  "ular": 5590, 
  "hire": 5591, 
  "audience": 5592, 
  "militias": 5593, 
  "unclear": 5594, 
  "develop@@": 5595, 
  "tics": 5596, 
  "distinguish": 5597, 
  "psychology": 5598, 
  "virus": 5599, 
  "financially": 5600, 
  "bles": 5601, 
  "sad@@": 5602, 
  "rally": 5603, 
  "deadly": 5604, 
  "sting": 5605, 
  "disintegration": 5606, 
  "futures": 5607, 
  "missions": 5608, 
  "beat": 5609, 
  "Bas@@": 5610, 
  "shortcomings": 5611, 
  "When": 5612, 
  "occurring": 5613, 
  "consists": 5614, 
  "peacefully": 5615, 
  "irs": 5616, 
  "print": 5617, 
  "valued": 5618, 
  "degrees": 5619, 
  "Sachs": 5620, 
  "discovery": 5621, 
  "explanations": 5622, 
  "accordingly": 5623, 
  "erupted": 5624, 
  "1-@@": 5625, 
  "Finland": 5626, 
  "Poles": 5627, 
  "influenced": 5628, 
  "invariably": 5629, 
  "geography": 5630, 
  "recipe": 5631, 
  "Saakashvili": 5632, 
  "occasionally": 5633, 
  "lacked": 5634, 
  "retreat": 5635, 
  "oversight": 5636, 
  "subsequently": 5637, 
  "Slovakia": 5638, 
  "incited": 5639, 
  "reasoning": 5640, 
  "theoretical": 5641, 
  "comfortable": 5642, 
  "ards": 5643, 
  "shrinking": 5644, 
  "-up": 5645, 
  "homeland": 5646, 
  "ential": 5647, 
  "den": 5648, 
  "oil-@@": 5649, 
  "absurd": 5650, 
  "sk": 5651, 
  "Finance": 5652, 
  "devi@@": 5653, 
  "provoked": 5654, 
  "Ethiopia": 5655, 
  "merit": 5656, 
  "arm@@": 5657, 
  "panel": 5658, 
  "Kenya": 5659, 
  "Ba@@": 5660, 
  "substance": 5661, 
  "int": 5662, 
  "Sh@@": 5663, 
  "Saudis": 5664, 
  "announcement": 5665, 
  "derivatives": 5666, 
  "loses": 5667, 
  "strictly": 5668, 
  "misery": 5669, 
  "orientation": 5670, 
  "creditor": 5671, 
  "refuses": 5672, 
  "dled": 5673, 
  "digital": 5674, 
  "Goldman": 5675, 
  "observed": 5676, 
  "low-income": 5677, 
  "unilaterally": 5678, 
  "-minded": 5679, 
  "finished": 5680, 
  "camp": 5681, 
  "Olympics": 5682, 
  "literally": 5683, 
  "mutually": 5684, 
  "manufactured": 5685, 
  "introducing": 5686, 
  "combating": 5687, 
  "2030": 5688, 
  "boards": 5689, 
  "minded": 5690, 
  "offices": 5691, 
  "Red": 5692, 
  "wins": 5693, 
  "Square": 5694, 
  "reveal": 5695, 
  "Nuclear": 5696, 
  "prize": 5697, 
  "mp@@": 5698, 
  "excesses": 5699, 
  "rou@@": 5700, 
  "acute": 5701, 
  "controversy": 5702, 
  "threshold": 5703, 
  "immigrant": 5704, 
  "ency": 5705, 
  "treatments": 5706, 
  "alistic": 5707, 
  "Cheney": 5708, 
  "hate": 5709, 
  "ate@@": 5710, 
  "ases": 5711, 
  "excessively": 5712, 
  "breast": 5713, 
  "attend": 5714, 
  "episodes": 5715, 
  "Tokyo": 5716, 
  "sovereign-debt": 5717, 
  "deputy": 5718, 
  "65": 5719, 
  "fees": 5720, 
  "straightforward": 5721, 
  "reckless": 5722, 
  "scandal": 5723, 
  "removing": 5724, 
  "assure": 5725, 
  "refugee": 5726, 
  "sti@@": 5727, 
  "deployed": 5728, 
  "ty@@": 5729, 
  "signing": 5730, 
  "errors": 5731, 
  "efficiently": 5732, 
  "pundits": 5733, 
  "norm": 5734, 
  "quiet": 5735, 
  "scarcity": 5736, 
  "languages": 5737, 
  "patience": 5738, 
  "mistaken": 5739, 
  "contraction": 5740, 
  "inherent": 5741, 
  "Czechoslovakia": 5742, 
  "ery": 5743, 
  "settled": 5744, 
  "ster@@": 5745, 
  "display": 5746, 
  "Ehud": 5747, 
  "diminish": 5748, 
  "aggressively": 5749, 
  "emphasized": 5750, 
  "Croatia": 5751, 
  "Abkhazia": 5752, 
  "pan@@": 5753, 
  "Woods": 5754, 
  "pillar": 5755, 
  "inspire": 5756, 
  "single-@@": 5757, 
  "Franco-German": 5758, 
  "provoke": 5759, 
  "oning": 5760, 
  "ry@@": 5761, 
  "resilience": 5762, 
  "unresolved": 5763, 
  "personnel": 5764, 
  "perpetrators": 5765, 
  "flat": 5766, 
  "Li@@": 5767, 
  "Yemen": 5768, 
  "recorded": 5769, 
  "Yukos": 5770, 
  "implying": 5771, 
  "safeguard": 5772, 
  "picked": 5773, 
  "probability": 5774, 
  "legally": 5775, 
  "Mo@@": 5776, 
  "ll": 5777, 
  "prestige": 5778, 
  "lesser": 5779, 
  "ideologies": 5780, 
  "Egyptians": 5781, 
  "ened": 5782, 
  "Gordon": 5783, 
  "master": 5784, 
  "precious": 5785, 
  "U.S.": 5786, 
  "En@@": 5787, 
  "advocated": 5788, 
  "collaboration": 5789, 
  "low-carbon": 5790, 
  "thirty": 5791, 
  "servants": 5792, 
  "automobile": 5793, 
  "risk-@@": 5794, 
  "stream": 5795, 
  "suspected": 5796, 
  "imp@@": 5797, 
  "closest": 5798, 
  "extraordinarily": 5799, 
  "takeover": 5800, 
  "ss-@@": 5801, 
  "ised": 5802, 
  "specter": 5803, 
  "­-": 5804, 
  "replacement": 5805, 
  "Armenia": 5806, 
  "char@@": 5807, 
  "interference": 5808, 
  "narrative": 5809, 
  "inv@@": 5810, 
  "cards": 5811, 
  "processing": 5812, 
  "furthermore": 5813, 
  "assert": 5814, 
  "indebted": 5815, 
  "Olympic": 5816, 
  "interdependence": 5817, 
  "uri@@": 5818, 
  "Tribunal": 5819, 
  "sou@@": 5820, 
  "satellite": 5821, 
  "wherever": 5822, 
  "baby": 5823, 
  "markedly": 5824, 
  "dysfunctional": 5825, 
  "enlightened": 5826, 
  "of@@": 5827, 
  "depressed": 5828, 
  "dissidents": 5829, 
  "breaks": 5830, 
  "crude": 5831, 
  "ction": 5832, 
  "outsourcing": 5833, 
  "hurricanes": 5834, 
  "arbitrary": 5835, 
  "kno@@": 5836, 
  "allegedly": 5837, 
  "rous": 5838, 
  "val@@": 5839, 
  "inner": 5840, 
  "backs": 5841, 
  "Romanian": 5842, 
  "winter": 5843, 
  "trapped": 5844, 
  "symptoms": 5845, 
  "participating": 5846, 
  "organisms": 5847, 
  "Bretton": 5848, 
  "Fox": 5849, 
  "shortages": 5850, 
  "federation": 5851, 
  "attributed": 5852, 
  "delivering": 5853, 
  "sympathy": 5854, 
  "entrepreneurship": 5855, 
  "ASEAN": 5856, 
  "righ@@": 5857, 
  "masses": 5858, 
  "depth": 5859, 
  "sible": 5860, 
  "militarily": 5861, 
  "urge": 5862, 
  "Mer@@": 5863, 
  "ports": 5864, 
  "Wolfowitz": 5865, 
  "hole": 5866, 
  "skin": 5867, 
  "iron": 5868, 
  "tici@@": 5869, 
  "privileged": 5870, 
  "Ham@@": 5871, 
  "etc": 5872, 
  "Maynard": 5873, 
  "possess": 5874, 
  "dre@@": 5875, 
  "infected": 5876, 
  "seeds": 5877, 
  "problematic": 5878, 
  "deterioration": 5879, 
  "interpreted": 5880, 
  "Gerhard": 5881, 
  "Times": 5882, 
  "admittedly": 5883, 
  "James": 5884, 
  "dozen": 5885, 
  "28": 5886, 
  "issuing": 5887, 
  "miss": 5888, 
  "fluctuations": 5889, 
  "records": 5890, 
  "page": 5891, 
  "components": 5892, 
  "fundamentalist": 5893, 
  "1929": 5894, 
  "As@@": 5895, 
  "Arab-Israeli": 5896, 
  "radio": 5897, 
  "indispensable": 5898, 
  "op": 5899, 
  "dictatorships": 5900, 
  "arena": 5901, 
  "gun": 5902, 
  "Bo@@": 5903, 
  "induce": 5904, 
  "my@@": 5905, 
  "Office": 5906, 
  "republics": 5907, 
  "prevailed": 5908, 
  "Calderón": 5909, 
  "rewards": 5910, 
  "entails": 5911, 
  "sely": 5912, 
  "gru@@": 5913, 
  "sation": 5914, 
  "nur@@": 5915, 
  "bombings": 5916, 
  "grants": 5917, 
  "Lithuania": 5918, 
  "long@@": 5919, 
  "Program": 5920, 
  "imbalance": 5921, 
  "nal": 5922, 
  "corner": 5923, 
  "fishing": 5924, 
  "forecasts": 5925, 
  "Criminal": 5926, 
  "ignorance": 5927, 
  "Ban@@": 5928, 
  "oppression": 5929, 
  "brand": 5930, 
  "CEO": 5931, 
  "dri@@": 5932, 
  "rape": 5933, 
  "horizon": 5934, 
  "letter": 5935, 
  "window": 5936, 
  "imagined": 5937, 
  "stal@@": 5938, 
  "mat@@": 5939, 
  "imagination": 5940, 
  "multinational": 5941, 
  "stan@@": 5942, 
  "boom@@": 5943, 
  "stagnant": 5944, 
  "ath@@": 5945, 
  "exclusive": 5946, 
  "stran@@": 5947, 
  "adequately": 5948, 
  "crunch": 5949, 
  "Rice": 5950, 
  "communal": 5951, 
  "disorders": 5952, 
  "cul@@": 5953, 
  "fierce": 5954, 
  "marriage": 5955, 
  "items": 5956, 
  "warm": 5957, 
  "sciences": 5958, 
  "habits": 5959, 
  "enhancing": 5960, 
  "orthodoxy": 5961, 
  "ssed": 5962, 
  "Bar@@": 5963, 
  "inclusive": 5964, 
  "buried": 5965, 
  "dam@@": 5966, 
  "presumably": 5967, 
  "oper@@": 5968, 
  "struggles": 5969, 
  "irony": 5970, 
  "Hillary": 5971, 
  "pound": 5972, 
  "da": 5973, 
  "fruit": 5974, 
  "precipit@@": 5975, 
  "discourage": 5976, 
  "pool": 5977, 
  "Her@@": 5978, 
  "notwithstanding": 5979, 
  "unusual": 5980, 
  "proceed": 5981, 
  "sing@@": 5982, 
  "worsen": 5983, 
  "entrepreneurial": 5984, 
  "ack": 5985, 
  "objec@@": 5986, 
  "everyday": 5987, 
  "Danish": 5988, 
  "anyway": 5989, 
  "admitted": 5990, 
  "governors": 5991, 
  "depending": 5992, 
  "profession": 5993, 
  "2,000": 5994, 
  "aud@@": 5995, 
  "realization": 5996, 
  "revolt": 5997, 
  "radicalism": 5998, 
  "Ossetia": 5999, 
  "Ab@@": 6000, 
  "myself": 6001, 
  "disagree": 6002, 
  "shrink": 6003, 
  "or-@@": 6004, 
  "rent": 6005, 
  "margins": 6006, 
  "ultra-@@": 6007, 
  "ruler": 6008, 
  "Continent": 6009, 
  "siveness": 6010, 
  "fueling": 6011, 
  "coordinate": 6012, 
  "generates": 6013, 
  "wasted": 6014, 
  "searching": 6015, 
  "deprived": 6016, 
  "satisfaction": 6017, 
  "incite": 6018, 
  "School": 6019, 
  "reunification": 6020, 
  "Report": 6021, 
  "inequalities": 6022, 
  "1,@@": 6023, 
  "Car@@": 6024, 
  "capital-@@": 6025, 
  "Nazis": 6026, 
  "founder": 6027, 
  "ger@@": 6028, 
  "concentrate": 6029, 
  "exacerbated": 6030, 
  "tropical": 6031, 
  "lets": 6032, 
  "han@@": 6033, 
  "droughts": 6034, 
  "defenses": 6035, 
  "deepen": 6036, 
  "fal@@": 6037, 
  "Hu@@": 6038, 
  "refusing": 6039, 
  "form@@": 6040, 
  "Donald": 6041, 
  "sons": 6042, 
  "pillars": 6043, 
  "ed-@@": 6044, 
  "worsening": 6045, 
  "swing": 6046, 
  "apes": 6047, 
  "Ha@@": 6048, 
  "lifetime": 6049, 
  "expectancy": 6050, 
  "respects": 6051, 
  "luxury": 6052, 
  "obtained": 6053, 
  "Serb": 6054, 
  "virtue": 6055, 
  "flu@@": 6056, 
  "Bhutto": 6057, 
  "accounted": 6058, 
  "13@@": 6059, 
  "dismiss": 6060, 
  "lasted": 6061, 
  "delayed": 6062, 
  "gotten": 6063, 
  "paralysis": 6064, 
  "exile": 6065, 
  "mitigate": 6066, 
  "ach": 6067, 
  "repay": 6068, 
  "guilt": 6069, 
  "els": 6070, 
  "nightmare": 6071, 
  "Castro": 6072, 
  "Yes": 6073, 
  "exp@@": 6074, 
  "tory": 6075, 
  "borrowed": 6076, 
  "boun@@": 6077, 
  "hypocrisy": 6078, 
  "missed": 6079, 
  "downs": 6080, 
  "march": 6081, 
  "Myanmar": 6082, 
  "sel": 6083, 
  "urgency": 6084, 
  "fortune": 6085, 
  "philosopher": 6086, 
  "explosive": 6087, 
  "ecological": 6088, 
  "stages": 6089, 
  "restoration": 6090, 
  "side@@": 6091, 
  "clout": 6092, 
  "eigh@@": 6093, 
  "NGOs": 6094, 
  "constructed": 6095, 
  "appeals": 6096, 
  "contradictory": 6097, 
  "tives": 6098, 
  "termin@@": 6099, 
  "speculators": 6100, 
  "perceive": 6101, 
  "militants": 6102, 
  "aled": 6103, 
  "infection": 6104, 
  "ride": 6105, 
  "pon@@": 6106, 
  "neutral": 6107, 
  "alas": 6108, 
  "lic": 6109, 
  "questioning": 6110, 
  "anti-American": 6111, 
  "interpret": 6112, 
  "portion": 6113, 
  "sia": 6114, 
  "ane": 6115, 
  "surrender": 6116, 
  "Ben": 6117, 
  "committees": 6118, 
  "kin@@": 6119, 
  "85": 6120, 
  "believers": 6121, 
  "consciousness": 6122, 
  "tons": 6123, 
  "short@@": 6124, 
  "throw": 6125, 
  "ams": 6126, 
  "akin": 6127, 
  "foods": 6128, 
  "til@@": 6129, 
  "exacerbate": 6130, 
  "of-@@": 6131, 
  "deter": 6132, 
  "Partnership": 6133, 
  "heroes": 6134, 
  "hungry": 6135, 
  "lift": 6136, 
  "populists": 6137, 
  "origin@@": 6138, 
  "break@@": 6139, 
  "malaise": 6140, 
  "spiritual": 6141, 
  "Cooperation": 6142, 
  "borne": 6143, 
  "forthcoming": 6144, 
  "episode": 6145, 
  "UN@@": 6146, 
  "procedure": 6147, 
  "oli@@": 6148, 
  "after@@": 6149, 
  "lah": 6150, 
  "sian": 6151, 
  "lers": 6152, 
  "ocean": 6153, 
  "tactical": 6154, 
  "Cameron": 6155, 
  "thin": 6156, 
  "Christians": 6157, 
  "counterproductive": 6158, 
  "van@@": 6159, 
  "five-year": 6160, 
  "militant": 6161, 
  "storage": 6162, 
  "comfort": 6163, 
  "modernity": 6164, 
  "aircraft": 6165, 
  "sized": 6166, 
  "unfortunate": 6167, 
  "clarity": 6168, 
  "alities": 6169, 
  "strengths": 6170, 
  "super-@@": 6171, 
  "Brazilian": 6172, 
  "vibrant": 6173, 
  "ze@@": 6174, 
  "100,000": 6175, 
  "sed@@": 6176, 
  "IT": 6177, 
  "headlines": 6178, 
  "ili@@": 6179, 
  "injustice": 6180, 
  "high-quality": 6181, 
  "gasoline": 6182, 
  "cep@@": 6183, 
  "grand@@": 6184, 
  "Turks": 6185, 
  "accustomed": 6186, 
  "Tiananmen": 6187, 
  "flowing": 6188, 
  "Hindu": 6189, 
  "domination": 6190, 
  "pledge": 6191, 
  "(RRC": 6192, 
  ")RRC": 6193, 
  "heritage": 6194, 
  "debacle": 6195, 
  "mindset": 6196, 
  "sums": 6197, 
  "Ca@@": 6198, 
  "celebrate": 6199, 
  "revenge": 6200, 
  "ample": 6201, 
  "perceptions": 6202, 
  "q@@": 6203, 
  "favors": 6204, 
  "commonly": 6205, 
  "ake": 6206, 
  "home@@": 6207, 
  "biodiversity": 6208, 
  "maximum": 6209, 
  "Or@@": 6210, 
  "grain": 6211, 
  "Liu": 6212, 
  "There": 6213, 
  "opinions": 6214, 
  "hawks": 6215, 
  "Poli@@": 6216, 
  "Christianity": 6217, 
  "compromises": 6218, 
  "lou@@": 6219, 
  "mud@@": 6220, 
  "toll": 6221, 
  "speeches": 6222, 
  "sustaining": 6223, 
  "no-@@": 6224, 
  "scre@@": 6225, 
  "enables": 6226, 
  "text": 6227, 
  "roll": 6228, 
  "radiation": 6229, 
  "affordable": 6230, 
  "marginalized": 6231, 
  "fault": 6232, 
  "deci@@": 6233, 
  "organizing": 6234, 
  "ination": 6235, 
  "exploited": 6236, 
  "contemplate": 6237, 
  "viruses": 6238, 
  "criticize": 6239, 
  "jo@@": 6240, 
  "deflationary": 6241, 
  "je@@": 6242, 
  "club": 6243, 
  "circles": 6244, 
  "sale": 6245, 
  "enormously": 6246, 
  "unrealistic": 6247, 
  "alter": 6248, 
  "contributes": 6249, 
  "ose": 6250, 
  "movie": 6251, 
  "credits": 6252, 
  "ids": 6253, 
  "availability": 6254, 
  "Argentine": 6255, 
  "1982": 6256, 
  "Guard": 6257, 
  "rebuilding": 6258, 
  "vin@@": 6259, 
  "itation": 6260, 
  "conspiracy": 6261, 
  "domestically": 6262, 
  "governor": 6263, 
  "the-@@": 6264, 
  "sanitation": 6265, 
  "Bu@@": 6266, 
  "tering": 6267, 
  "useless": 6268, 
  "anti-Semitism": 6269, 
  "valid": 6270, 
  "climate-change": 6271, 
  "Special": 6272, 
  "deployment": 6273, 
  "Ki@@": 6274, 
  "remembered": 6275, 
  "ratified": 6276, 
  "human@@": 6277, 
  "ent-@@": 6278, 
  "adults": 6279, 
  "sentence": 6280, 
  "ousness": 6281, 
  "by-@@": 6282, 
  "remind": 6283, 
  "Big": 6284, 
  "Belgrade": 6285, 
  "integrating": 6286, 
  "impe@@": 6287, 
  "possession": 6288, 
  "basically": 6289, 
  "mp": 6290, 
  "indirectly": 6291, 
  "ant@@": 6292, 
  "star@@": 6293, 
  "protracted": 6294, 
  "repressive": 6295, 
  "coalitions": 6296, 
  "characteristic": 6297, 
  "turnout": 6298, 
  "permanently": 6299, 
  "ries": 6300, 
  "contest": 6301, 
  "Enron": 6302, 
  "NAFTA": 6303, 
  "Freedom": 6304, 
  "operational": 6305, 
  "deciding": 6306, 
  "empowered": 6307, 
  "Ru@@": 6308, 
  "rationale": 6309, 
  "spe@@": 6310, 
  "loose": 6311, 
  "surrounded": 6312, 
  "expectation": 6313, 
  "champion": 6314, 
  "assembly": 6315, 
  "provinces": 6316, 
  "attraction": 6317, 
  "3.5": 6318, 
  "quar@@": 6319, 
  "ric@@": 6320, 
  "exploitation": 6321, 
  "forged": 6322, 
  "gate": 6323, 
  "sun": 6324, 
  "launching": 6325, 
  "obliged": 6326, 
  "leveraged": 6327, 
  "comparisons": 6328, 
  "phones": 6329, 
  "700": 6330, 
  "jump": 6331, 
  "certainty": 6332, 
  "genome": 6333, 
  "immune": 6334, 
  "actor": 6335, 
  "bit@@": 6336, 
  "urged": 6337, 
  "marine": 6338, 
  "reconcile": 6339, 
  "Left": 6340, 
  "imperialism": 6341, 
  "Be@@": 6342, 
  "scenes": 6343, 
  "flood": 6344, 
  "insisting": 6345, 
  "4-@@": 6346, 
  "financiers": 6347, 
  "sorts": 6348, 
  "Ministers": 6349, 
  "inspectors": 6350, 
  "ately": 6351, 
  "paradigm": 6352, 
  "La@@": 6353, 
  "kilometers": 6354, 
  "Hatoyama": 6355, 
  "watched": 6356, 
  "rests": 6357, 
  "dissent": 6358, 
  "gener@@": 6359, 
  "farms": 6360, 
  "poli@@": 6361, 
  "consuming": 6362, 
  "hurricane": 6363, 
  "ices": 6364, 
  "erosion": 6365, 
  "reactor": 6366, 
  "outs": 6367, 
  "suited": 6368, 
  "swe@@": 6369, 
  "stone": 6370, 
  "Ac@@": 6371, 
  "empirical": 6372, 
  "predictions": 6373, 
  "sper@@": 6374, 
  "encies": 6375, 
  "Empire": 6376, 
  "reformist": 6377, 
  "quietly": 6378, 
  "imperfect": 6379, 
  "magic": 6380, 
  "highlighted": 6381, 
  "reversal": 6382, 
  "suggesting": 6383, 
  "reluctance": 6384, 
  "subsidy": 6385, 
  "abu@@": 6386, 
  "liber@@": 6387, 
  "ums": 6388, 
  "tely": 6389, 
  "c": 6390, 
  "Day": 6391, 
  "crowds": 6392, 
  "violation": 6393, 
  "capacities": 6394, 
  "profoundly": 6395, 
  "long-standing": 6396, 
  "ue": 6397, 
  "excluding": 6398, 
  "reacted": 6399, 
  "Mor@@": 6400, 
  "assessing": 6401, 
  "polar": 6402, 
  "sequ@@": 6403, 
  "onset": 6404, 
  "za@@": 6405, 
  "elimination": 6406, 
  "outweigh": 6407, 
  "tourism": 6408, 
  "comparative": 6409, 
  "elderly": 6410, 
  "quotas": 6411, 
  "middle-income": 6412, 
  "dimensions": 6413, 
  "tangible": 6414, 
  "Common": 6415, 
  "focuses": 6416, 
  "arian": 6417, 
  "accord": 6418, 
  "mitigation": 6419, 
  "violated": 6420, 
  "ct": 6421, 
  "Joseph": 6422, 
  "Prince": 6423, 
  "removal": 6424, 
  "cat@@": 6425, 
  "title": 6426, 
  "1920": 6427, 
  "priced": 6428, 
  "We@@": 6429, 
  "spec@@": 6430, 
  "psychiatric": 6431, 
  "plan@@": 6432, 
  "peer": 6433, 
  "channel": 6434, 
  "preferences": 6435, 
  "ok@@": 6436, 
  "ai@@": 6437, 
  "distressed": 6438, 
  "worrisome": 6439, 
  "invention": 6440, 
  "Il": 6441, 
  "stopping": 6442, 
  "Ho@@": 6443, 
  "cop@@": 6444, 
  "punish": 6445, 
  "deposit": 6446, 
  "consequently": 6447, 
  "800": 6448, 
  "Director": 6449, 
  "Katrina": 6450, 
  "Kerry": 6451, 
  "modernize": 6452, 
  "reassuring": 6453, 
  "embargo": 6454, 
  "diss@@": 6455, 
  "non-governmental": 6456, 
  "racism": 6457, 
  "Col@@": 6458, 
  "au": 6459, 
  "restrict": 6460, 
  "appearance": 6461, 
  "Gandhi": 6462, 
  "ranking": 6463, 
  "cent@@": 6464, 
  "arch@@": 6465, 
  "responds": 6466, 
  "boys": 6467, 
  "arity": 6468, 
  "K": 6469, 
  "Change": 6470, 
  "doors": 6471, 
  "Le": 6472, 
  "laureate": 6473, 
  "monopolies": 6474, 
  "lucky": 6475, 
  "spur": 6476, 
  "stars": 6477, 
  "partially": 6478, 
  "intensity": 6479, 
  "Vienna": 6480, 
  "cle": 6481, 
  "fire@@": 6482, 
  "nervous": 6483, 
  "G-7": 6484, 
  "ences": 6485, 
  "eve": 6486, 
  "colonialism": 6487, 
  "identical": 6488, 
  "clients": 6489, 
  "allocated": 6490, 
  "rebellion": 6491, 
  "imminent": 6492, 
  "va@@": 6493, 
  "golden": 6494, 
  "atrocities": 6495, 
  "conceived": 6496, 
  "axis": 6497, 
  "attacking": 6498, 
  "supervisory": 6499, 
  "rivalry": 6500, 
  "traumatic": 6501, 
  "slowed": 6502, 
  "ony": 6503, 
  "curtail": 6504, 
  "mble": 6505, 
  "ited": 6506, 
  "debt-to-GDP": 6507, 
  "inflicted": 6508, 
  "skill": 6509, 
  "comp@@": 6510, 
  "Dubai": 6511, 
  "tendencies": 6512, 
  "towns": 6513, 
  "maneuver": 6514, 
  "accumulate": 6515, 
  "writers": 6516, 
  "Si@@": 6517, 
  "mer": 6518, 
  "abound": 6519, 
  "violate": 6520, 
  "left-wing": 6521, 
  "appoint": 6522, 
  "Roman": 6523, 
  "bl@@": 6524, 
  "respectively": 6525, 
  "feedback": 6526, 
  "Green": 6527, 
  "continuous": 6528, 
  "stunning": 6529, 
  "Har@@": 6530, 
  "apparatus": 6531, 
  "enlarged": 6532, 
  "disproportionate": 6533, 
  "ide@@": 6534, 
  "partnerships": 6535, 
  "gy": 6536, 
  "lethal": 6537, 
  "debated": 6538, 
  "considers": 6539, 
  "tyranny": 6540, 
  "tations": 6541, 
  "Recession": 6542, 
  "lifted": 6543, 
  "understandably": 6544, 
  "sm": 6545, 
  "far@@": 6546, 
  "postpone": 6547, 
  "sus": 6548, 
  "disappointed": 6549, 
  "If": 6550, 
  "prudential": 6551, 
  "associations": 6552, 
  "miles": 6553, 
  "doub@@": 6554, 
  "ely": 6555, 
  "eli@@": 6556, 
  "cated": 6557, 
  "rocket": 6558, 
  "personally": 6559, 
  "college": 6560, 
  "fications": 6561, 
  "distinguished": 6562, 
  "Ministry": 6563, 
  "public-sector": 6564, 
  "advertising": 6565, 
  "advisers": 6566, 
  "bli@@": 6567, 
  "FSB": 6568, 
  "militia": 6569, 
  "ratification": 6570, 
  "passive": 6571, 
  "aking": 6572, 
  "flourish": 6573, 
  "Vice": 6574, 
  "rid@@": 6575, 
  "contact": 6576, 
  "port": 6577, 
  "our@@": 6578, 
  "compliance": 6579, 
  "privileges": 6580, 
  "answered": 6581, 
  "Jazeera": 6582, 
  "blessing": 6583, 
  "blood@@": 6584, 
  "rebalancing": 6585, 
  "0.5": 6586, 
  "belongs": 6587, 
  "leap": 6588, 
  "embarked": 6589, 
  "workforce": 6590, 
  "Front": 6591, 
  "universe": 6592, 
  "postponed": 6593, 
  "agendas": 6594, 
  "brave": 6595, 
  "Beirut": 6596, 
  "confirm": 6597, 
  "proves": 6598, 
  "eradication": 6599, 
  "fiable": 6600, 
  "committing": 6601, 
  "leftist": 6602, 
  "ro": 6603, 
  "mping": 6604, 
  "realizing": 6605, 
  "Ahmedinejad": 6606, 
  "persuaded": 6607, 
  "rein": 6608, 
  "burdened": 6609, 
  "highlights": 6610, 
  "fusion": 6611, 
  "guns": 6612, 
  "G8": 6613, 
  "permits": 6614, 
  "obsolete": 6615, 
  "circum@@": 6616, 
  "Kashmir": 6617, 
  "Ber@@": 6618, 
  "listed": 6619, 
  "SARS": 6620, 
  "wer": 6621, 
  "ceasefire": 6622, 
  "deliberate": 6623, 
  "US-led": 6624, 
  "1987": 6625, 
  "owe": 6626, 
  "consumed": 6627, 
  "confin@@": 6628, 
  "reveals": 6629, 
  "Senator": 6630, 
  "stepped": 6631, 
  "nasty": 6632, 
  "interaction": 6633, 
  "mired": 6634, 
  "bas@@": 6635, 
  "stalled": 6636, 
  "tin@@": 6637, 
  "rid": 6638, 
  "venture": 6639, 
  "color": 6640, 
  "conce@@": 6641, 
  "viewing": 6642, 
  "evolved": 6643, 
  "common@@": 6644, 
  "autom@@": 6645, 
  "exported": 6646, 
  "malnutrition": 6647, 
  "reformed": 6648, 
  "extrac@@": 6649, 
  "row": 6650, 
  "tech": 6651, 
  "inging": 6652, 
  "indefinitely": 6653, 
  "read@@": 6654, 
  "implication": 6655, 
  "Australian": 6656, 
  "conservatism": 6657, 
  "handed": 6658, 
  "42": 6659, 
  "regulating": 6660, 
  "resolutions": 6661, 
  "ez": 6662, 
  "Valley": 6663, 
  "drinking": 6664, 
  "risk@@": 6665, 
  "Philippines": 6666, 
  "headquarters": 6667, 
  "fly": 6668, 
  "contacts": 6669, 
  "post-Soviet": 6670, 
  "L": 6671, 
  "biotechnology": 6672, 
  "indication": 6673, 
  "embedded": 6674, 
  "futile": 6675, 
  "impede": 6676, 
  "loyal": 6677, 
  "destiny": 6678, 
  "Ste@@": 6679, 
  "engines": 6680, 
  "duties": 6681, 
  "pluralism": 6682, 
  "shattered": 6683, 
  "vehicle": 6684, 
  "ped@@": 6685, 
  "handling": 6686, 
  "covering": 6687, 
  "squeeze": 6688, 
  "9-@@": 6689, 
  "sitting": 6690, 
  "ICTY": 6691, 
  "law@@": 6692, 
  "emphasize": 6693, 
  "5,000": 6694, 
  "trusted": 6695, 
  "fix@@": 6696, 
  "Persian": 6697, 
  "elect": 6698, 
  "populated": 6699, 
  "mps": 6700, 
  "translate": 6701, 
  "pleasure": 6702, 
  "impunity": 6703, 
  "activ@@": 6704, 
  "habit": 6705, 
  "rush": 6706, 
  "six@@": 6707, 
  "treasury": 6708, 
  "depositors": 6709, 
  "realism": 6710, 
  "collapsing": 6711, 
  "insolvency": 6712, 
  "analy@@": 6713, 
  "somewhere": 6714, 
  "deleveraging": 6715, 
  "defenders": 6716, 
  "7.@@": 6717, 
  "indicated": 6718, 
  "shar@@": 6719, 
  "strain": 6720, 
  "Tran@@": 6721, 
  "Oslo": 6722, 
  "offs": 6723, 
  "program@@": 6724, 
  "hero": 6725, 
  "hoping": 6726, 
  "prosecution": 6727, 
  "sionary": 6728, 
  "organizational": 6729, 
  "accelerating": 6730, 
  "environmentally": 6731, 
  "reminded": 6732, 
  "renewal": 6733, 
  "anymore": 6734, 
  "occasions": 6735, 
  "witnessing": 6736, 
  "suppress": 6737, 
  "avert": 6738, 
  "majorities": 6739, 
  "seeming": 6740, 
  "OPEC": 6741, 
  "compatible": 6742, 
  "Barroso": 6743, 
  "preserved": 6744, 
  "deeds": 6745, 
  "replacing": 6746, 
  "ef": 6747, 
  "anti-Americanism": 6748, 
  "officer": 6749, 
  "smo@@": 6750, 
  "beneath": 6751, 
  "ly@@": 6752, 
  "materi@@": 6753, 
  "inertia": 6754, 
  "patents": 6755, 
  "Holland": 6756, 
  "31": 6757, 
  "Inter@@": 6758, 
  "heroic": 6759, 
  "disagreements": 6760, 
  "rain": 6761, 
  "irrigation": 6762, 
  "disappointing": 6763, 
  "tle": 6764, 
  "frameworks": 6765, 
  "Man@@": 6766, 
  "Austrian": 6767, 
  "cross": 6768, 
  "evasion": 6769, 
  "tak@@": 6770, 
  "trade-@@": 6771, 
  "hy@@": 6772, 
  "ney": 6773, 
  "fifty": 6774, 
  "hikes": 6775, 
  "vice": 6776, 
  "delivery": 6777, 
  "ignoring": 6778, 
  "personality": 6779, 
  "flaws": 6780, 
  "liberties": 6781, 
  "conflicting": 6782, 
  "unthinkable": 6783, 
  "Force": 6784, 
  "daunting": 6785, 
  "genetically": 6786, 
  "smooth": 6787, 
  "Ayatollah": 6788, 
  "29": 6789, 
  "breakthroughs": 6790, 
  "disappearance": 6791, 
  "foreign-policy": 6792, 
  "Panel": 6793, 
  "remittances": 6794, 
  "resignation": 6795, 
  "constituencies": 6796, 
  "swept": 6797, 
  "correctly": 6798, 
  "switch": 6799, 
  "gro@@": 6800, 
  "Is@@": 6801, 
  "delicate": 6802, 
  "drought": 6803, 
  "non-proliferation": 6804, 
  "igh@@": 6805, 
  "convenient": 6806, 
  "proving": 6807, 
  "incomplete": 6808, 
  "lations": 6809, 
  "chan@@": 6810, 
  "fun@@": 6811, 
  "appreciated": 6812, 
  "contrac@@": 6813, 
  "ministries": 6814, 
  "resur@@": 6815, 
  "Wahhabi": 6816, 
  "Koizumi": 6817, 
  "fascism": 6818, 
  "season": 6819, 
  "relatives": 6820, 
  "Scotland": 6821, 
  "infla@@": 6822, 
  "maker": 6823, 
  "manufacturers": 6824, 
  "temp@@": 6825, 
  "self-determination": 6826, 
  "ecosystems": 6827, 
  "Seoul": 6828, 
  "calculated": 6829, 
  "theme": 6830, 
  "ore": 6831, 
  "retains": 6832, 
  "self-defense": 6833, 
  "distrust": 6834, 
  "hitting": 6835, 
  "lur@@": 6836, 
  "Congressional": 6837, 
  "outrage": 6838, 
  "stores": 6839, 
  "Balkan": 6840, 
  "fundamentalists": 6841, 
  "ka": 6842, 
  "atomic": 6843, 
  "landscape": 6844, 
  "cou@@": 6845, 
  "bled": 6846, 
  "rank": 6847, 
  "exclude": 6848, 
  "itable": 6849, 
  "incumbent": 6850, 
  "Second": 6851, 
  "short-run": 6852, 
  "hol@@": 6853, 
  "ron@@": 6854, 
  "wounded": 6855, 
  "lifting": 6856, 
  "studying": 6857, 
  "crackdown": 6858, 
  "resume": 6859, 
  "strive": 6860, 
  "outset": 6861, 
  "EU-@@": 6862, 
  "rock": 6863, 
  "win@@": 6864, 
  "reas@@": 6865, 
  "sof@@": 6866, 
  "lobbying": 6867, 
  "verdict": 6868, 
  "arrival": 6869, 
  "shops": 6870, 
  "Cro@@": 6871, 
  "innov@@": 6872, 
  "Ri@@": 6873, 
  "yourself": 6874, 
  "tougher": 6875, 
  "time@@": 6876, 
  "oun@@": 6877, 
  "overthrow": 6878, 
  "polio": 6879, 
  "endless": 6880, 
  "handled": 6881, 
  "conception": 6882, 
  "inputs": 6883, 
  "dated": 6884, 
  "neglected": 6885, 
  "opted": 6886, 
  "atten@@": 6887, 
  "cl@@": 6888, 
  "gather": 6889, 
  "zi@@": 6890, 
  "teach": 6891, 
  "boosted": 6892, 
  "pragmatism": 6893, 
  "thro@@": 6894, 
  "square": 6895, 
  "cour@@": 6896, 
  "mayor": 6897, 
  "holy": 6898, 
  "rendered": 6899, 
  "IC@@": 6900, 
  "stimulating": 6901, 
  "OSCE": 6902, 
  "ew": 6903, 
  "cool": 6904, 
  "fits": 6905, 
  "lists": 6906, 
  "continuation": 6907, 
  "Tibetan": 6908, 
  "outstanding": 6909, 
  "independently": 6910, 
  "qualify": 6911, 
  "guidance": 6912, 
  "market-@@": 6913, 
  "Pentagon": 6914, 
  "bio@@": 6915, 
  "St.": 6916, 
  "reinforcing": 6917, 
  "disruption": 6918, 
  "Bay": 6919, 
  "stalemate": 6920, 
  "Economy": 6921, 
  "best-@@": 6922, 
  "famine": 6923, 
  "invisible": 6924, 
  "Franklin": 6925, 
  "US@@": 6926, 
  "allied": 6927, 
  "slogan": 6928, 
  "Bangladesh": 6929, 
  "unavoidable": 6930, 
  "administrations": 6931, 
  "comments": 6932, 
  "Silvio": 6933, 
  "lab@@": 6934, 
  "partisan": 6935, 
  "non-state": 6936, 
  "center-right": 6937, 
  "thinkers": 6938, 
  "adds": 6939, 
  "gathered": 6940, 
  "resigned": 6941, 
  "labor-market": 6942, 
  "premature": 6943, 
  "ians": 6944, 
  "oni@@": 6945, 
  "evolve": 6946, 
  "bun@@": 6947, 
  "superiority": 6948, 
  "infectious": 6949, 
  "undercut": 6950, 
  "Euro-@@": 6951, 
  "insists": 6952, 
  "frozen": 6953, 
  "moderation": 6954, 
  "power@@": 6955, 
  "arrive": 6956, 
  "reminder": 6957, 
  "curse": 6958, 
  "pit@@": 6959, 
  "fan@@": 6960, 
  "unhappy": 6961, 
  "unexpected": 6962, 
  "Basel": 6963, 
  "soun@@": 6964, 
  "doubtful": 6965, 
  "selected": 6966, 
  "undervalued": 6967, 
  "evidently": 6968, 
  "shortfall": 6969, 
  "devise": 6970, 
  "600": 6971, 
  "upcoming": 6972, 
  "provincial": 6973, 
  "stayed": 6974, 
  "fat@@": 6975, 
  "sensitivity": 6976, 
  "ace": 6977, 
  "empowerment": 6978, 
  "grim": 6979, 
  "applying": 6980, 
  "Un@@": 6981, 
  "tual": 6982, 
  "proposition": 6983, 
  "anxious": 6984, 
  "complained": 6985, 
  "Iceland": 6986, 
  "whoever": 6987, 
  "frequency": 6988, 
  "gla@@": 6989, 
  "statehood": 6990, 
  "-of-@@": 6991, 
  "exceeds": 6992, 
  "liability": 6993, 
  "eroded": 6994, 
  "feels": 6995, 
  "ser@@": 6996, 
  "scare": 6997, 
  "One": 6998, 
  "elled": 6999, 
  "occupying": 7000, 
  "Games": 7001, 
  "tran@@": 7002, 
  "preceded": 7003, 
  "technocrats": 7004, 
  "drastic": 7005, 
  "tification": 7006, 
  "shortly": 7007, 
  "O": 7008, 
  "Marshall": 7009, 
  "Albania": 7010, 
  "fif@@": 7011, 
  "risk-taking": 7012, 
  "Krugman": 7013, 
  "quantities": 7014, 
  "mandatory": 7015, 
  "Petersburg": 7016, 
  "tain": 7017, 
  "Ev@@": 7018, 
  "professors": 7019, 
  "reviving": 7020, 
  "neuro@@": 7021, 
  "accumulated": 7022, 
  "industrialization": 7023, 
  "dig@@": 7024, 
  "Ne@@": 7025, 
  "secretary": 7026, 
  "arose": 7027, 
  "ural": 7028, 
  "blin@@": 7029, 
  "Liberation": 7030, 
  "cro@@": 7031, 
  "inhabitants": 7032, 
  "conten@@": 7033, 
  "rounds": 7034, 
  "enact": 7035, 
  "flu": 7036, 
  "triple": 7037, 
  "drove": 7038, 
  "sho@@": 7039, 
  "floating": 7040, 
  "combatants": 7041, 
  "routine": 7042, 
  "Ku@@": 7043, 
  "acity": 7044, 
  "teenth": 7045, 
  "detention": 7046, 
  "top@@": 7047, 
  "proposing": 7048, 
  "bizarre": 7049, 
  "intervening": 7050, 
  "onic": 7051, 
  "credentials": 7052, 
  "ji@@": 7053, 
  "dividing": 7054, 
  "autonomous": 7055, 
  "prosecutor": 7056, 
  "voter": 7057, 
  "hood": 7058, 
  "motiv@@": 7059, 
  "ino": 7060, 
  "existential": 7061, 
  "icious": 7062, 
  "aligned": 7063, 
  "composed": 7064, 
  "tobacco": 7065, 
  "sh-@@": 7066, 
  "pun@@": 7067, 
  "adversaries": 7068, 
  "reportedly": 7069, 
  "10,000": 7070, 
  "requirement": 7071, 
  "shop": 7072, 
  "suff@@": 7073, 
  "refer": 7074, 
  "ologists": 7075, 
  "category": 7076, 
  "indicator": 7077, 
  "giants": 7078, 
  "expects": 7079, 
  "speaks": 7080, 
  "expan@@": 7081, 
  "Peru": 7082, 
  "pan-European": 7083, 
  "drain": 7084, 
  "Prodi": 7085, 
  "n-@@": 7086, 
  "adjusted": 7087, 
  "hearing": 7088, 
  "trees": 7089, 
  "connect": 7090, 
  "guess": 7091, 
  "artists": 7092, 
  "ests": 7093, 
  "bleak": 7094, 
  "practiced": 7095, 
  "safe@@": 7096, 
  "aded": 7097, 
  "durable": 7098, 
  "obsessed": 7099, 
  "collect": 7100, 
  "deb@@": 7101, 
  "14@@": 7102, 
  "supreme": 7103, 
  "Texas": 7104, 
  "ol": 7105, 
  "ements": 7106, 
  "receives": 7107, 
  "Palin": 7108, 
  "clubs": 7109, 
  "execution": 7110, 
  "industri@@": 7111, 
  "prisons": 7112, 
  "conver@@": 7113, 
  "vic@@": 7114, 
  "medi@@": 7115, 
  "rebels": 7116, 
  "pul@@": 7117, 
  "warrant": 7118, 
  "affir@@": 7119, 
  "overs": 7120, 
  "sequence": 7121, 
  "posi@@": 7122, 
  "sky@@": 7123, 
  "Karzai": 7124, 
  "judgments": 7125, 
  "spi@@": 7126, 
  "hem@@": 7127, 
  "Ghraib": 7128, 
  "Cor@@": 7129, 
  "mented": 7130, 
  "condemn": 7131, 
  "communicate": 7132, 
  "opt": 7133, 
  "authors": 7134, 
  "fortunes": 7135, 
  "thir@@": 7136, 
  "separatist": 7137, 
  "profile": 7138, 
  "chair": 7139, 
  "beautiful": 7140, 
  "accommodate": 7141, 
  "enjoying": 7142, 
  "heated": 7143, 
  "portfolios": 7144, 
  "dismantling": 7145, 
  "minim@@": 7146, 
  "ridic@@": 7147, 
  "na": 7148, 
  "naval": 7149, 
  "scra@@": 7150, 
  "forum": 7151, 
  "energy-@@": 7152, 
  "ration@@": 7153, 
  "eth@@": 7154, 
  "suspicious": 7155, 
  "branch": 7156, 
  "deploy": 7157, 
  "composition": 7158, 
  "comply": 7159, 
  "pessimism": 7160, 
  "merits": 7161, 
  "virtues": 7162, 
  "endangered": 7163, 
  "vary": 7164, 
  "unleashed": 7165, 
  "tie": 7166, 
  "incidents": 7167, 
  "quarters": 7168, 
  "talked": 7169, 
  "hum@@": 7170, 
  "doubling": 7171, 
  "properties": 7172, 
  "pandemic": 7173, 
  "staggering": 7174, 
  "insul@@": 7175, 
  "lobby": 7176, 
  "Lu@@": 7177, 
  "rene@@": 7178, 
  "Enlightenment": 7179, 
  "pockets": 7180, 
  "Adam": 7181, 
  "1948": 7182, 
  "successive": 7183, 
  "shocked": 7184, 
  "seven@@": 7185, 
  "pl@@": 7186, 
  "attracting": 7187, 
  "matched": 7188, 
  "islands": 7189, 
  "recal@@": 7190, 
  "placing": 7191, 
  "pe": 7192, 
  "fulfilled": 7193, 
  "hugely": 7194, 
  "soul": 7195, 
  "Mahathir": 7196, 
  "sheet": 7197, 
  "cry": 7198, 
  "Mitterrand": 7199, 
  "agrees": 7200, 
  "deforestation": 7201, 
  "cap-and-trade": 7202, 
  "vigorous": 7203, 
  "eng@@": 7204, 
  "Los": 7205, 
  "convicted": 7206, 
  "Kofi": 7207, 
  "monarchy": 7208, 
  "za": 7209, 
  "separated": 7210, 
  "equi@@": 7211, 
  "Davos": 7212, 
  "Alexander": 7213, 
  "expenses": 7214, 
  "Erdogan": 7215, 
  "Cambodia": 7216, 
  "exact": 7217, 
  "95": 7218, 
  "premier": 7219, 
  "praise": 7220, 
  "Greeks": 7221, 
  "demonstration": 7222, 
  "conscience": 7223, 
  "native": 7224, 
  "video": 7225, 
  "insistence": 7226, 
  "underscores": 7227, 
  "Wor@@": 7228, 
  "distorted": 7229, 
  "charisma": 7230, 
  "caution": 7231, 
  "resembles": 7232, 
  "blocking": 7233, 
  "zer": 7234, 
  "tenure": 7235, 
  "humiliating": 7236, 
  "lying": 7237, 
  "reaches": 7238, 
  "discontent": 7239, 
  "quantity": 7240, 
  "producer": 7241, 
  "sacred": 7242, 
  "trauma": 7243, 
  "Karl": 7244, 
  "conventions": 7245, 
  "directors": 7246, 
  "pipelines": 7247, 
  "wounds": 7248, 
  "marketplace": 7249, 
  "internally": 7250, 
  "institu@@": 7251, 
  "life@@": 7252, 
  "incompetence": 7253, 
  "bright": 7254, 
  "mped": 7255, 
  "Russian-@@": 7256, 
  "birds": 7257, 
  "Mc@@": 7258, 
  "The@@": 7259, 
  "Sadat": 7260, 
  "questioned": 7261, 
  "Research": 7262, 
  "arts": 7263, 
  "passage": 7264, 
  "literature": 7265, 
  "1933": 7266, 
  "thoughts": 7267, 
  "tone": 7268, 
  "torn": 7269, 
  "cognitive": 7270, 
  "penetra@@": 7271, 
  "‑@@": 7272, 
  "refrain": 7273, 
  "complaints": 7274, 
  "diver@@": 7275, 
  "mathematical": 7276, 
  "-L@@": 7277, 
  "shareholder": 7278, 
  "Albanian": 7279, 
  "lied": 7280, 
  "First": 7281, 
  "moderni@@": 7282, 
  "indicted": 7283, 
  "anybody": 7284, 
  "endured": 7285, 
  "pretty": 7286, 
  "limitations": 7287, 
  "lec@@": 7288, 
  "for-@@": 7289, 
  "San": 7290, 
  "prevents": 7291, 
  "gen": 7292, 
  "extends": 7293, 
  "harmony": 7294, 
  "On": 7295, 
  "hostage": 7296, 
  "tail@@": 7297, 
  "marketing": 7298, 
  "alarm": 7299, 
  "thrive": 7300, 
  "post-crisis": 7301, 
  "geographical": 7302, 
  "Pri@@": 7303, 
  "Fin@@": 7304, 
  "suppliers": 7305, 
  "arsenal": 7306, 
  "fashionable": 7307, 
  "foot": 7308, 
  "ung@@": 7309, 
  "ret@@": 7310, 
  "nor@@": 7311, 
  "critically": 7312, 
  "unequal": 7313, 
  "dates": 7314, 
  "papers": 7315, 
  "bits": 7316, 
  "mirror": 7317, 
  "pling": 7318, 
  "self": 7319, 
  "republic": 7320, 
  "concerted": 7321, 
  "circu@@": 7322, 
  "imposes": 7323, 
  "contradic@@": 7324, 
  "profitability": 7325, 
  "drops": 7326, 
  "agent": 7327, 
  "conditionality": 7328, 
  "1988": 7329, 
  "lit@@": 7330, 
  "heightened": 7331, 
  "duration": 7332, 
  "pre-crisis": 7333, 
  "frustrated": 7334, 
  "incor@@": 7335, 
  "rejects": 7336, 
  "telecommunications": 7337, 
  "urbanization": 7338, 
  "fascist": 7339, 
  "7-@@": 7340, 
  "Atomic": 7341, 
  "20-@@": 7342, 
  "bat@@": 7343, 
  "vol@@": 7344, 
  "compromised": 7345, 
  "and-@@": 7346, 
  "nonsense": 7347, 
  "resign": 7348, 
  "extremes": 7349, 
  "debtor": 7350, 
  "continuity": 7351, 
  "Science": 7352, 
  "distortions": 7353, 
  "privatized": 7354, 
  "motor": 7355, 
  "Brotherhood": 7356, 
  "pulled": 7357, 
  "bor@@": 7358, 
  "foreign-@@": 7359, 
  "length": 7360, 
  "dedu@@": 7361, 
  "el-@@": 7362, 
  "arising": 7363, 
  "longstanding": 7364, 
  "ssi@@": 7365, 
  "deteriorating": 7366, 
  "privilege": 7367, 
  "driver": 7368, 
  "lap@@": 7369, 
  "paralyzed": 7370, 
  "abilities": 7371, 
  "tal@@": 7372, 
  "autocratic": 7373, 
  "berg": 7374, 
  "equals": 7375, 
  "embracing": 7376, 
  "redress": 7377, 
  "tighter": 7378, 
  "Libyan": 7379, 
  "sleep": 7380, 
  "feeding": 7381, 
  "rockets": 7382, 
  "arrogance": 7383, 
  "recourse": 7384, 
  "band": 7385, 
  "aver@@": 7386, 
  "imprisoned": 7387, 
  "bloodshed": 7388, 
  "nation-state": 7389, 
  "fic@@": 7390, 
  "transitional": 7391, 
  "mul@@": 7392, 
  "holes": 7393, 
  "ne": 7394, 
  "monopoli@@": 7395, 
  "cted": 7396, 
  "judging": 7397, 
  "mid@@": 7398, 
  "bed@@": 7399, 
  "insights": 7400, 
  "mentality": 7401, 
  "referred": 7402, 
  "Istanbul": 7403, 
  "bling": 7404, 
  "ures": 7405, 
  "ute": 7406, 
  "prohibition": 7407, 
  "persists": 7408, 
  "Tu@@": 7409, 
  "diversification": 7410, 
  "age-@@": 7411, 
  "Hugo": 7412, 
  "masters": 7413, 
  "scores": 7414, 
  "convention": 7415, 
  "beneficiaries": 7416, 
  "denying": 7417, 
  "landing": 7418, 
  "cents": 7419, 
  "ignores": 7420, 
  "laboratory": 7421, 
  "fatal": 7422, 
  "Coun@@": 7423, 
  "susceptible": 7424, 
  "reversing": 7425, 
  "arly": 7426, 
  "transportation": 7427, 
  "ctions": 7428, 
  "domin@@": 7429, 
  "Bundesbank": 7430, 
  "troubles": 7431, 
  "suppression": 7432, 
  "1986": 7433, 
  "but@@": 7434, 
  "1940": 7435, 
  "owner": 7436, 
  "fearful": 7437, 
  "collected": 7438, 
  "mature": 7439, 
  "strategically": 7440, 
  "EFSF": 7441, 
  "bombers": 7442, 
  "suspended": 7443, 
  "plight": 7444, 
  "N": 7445, 
  "lean": 7446, 
  "analogous": 7447, 
  "explore": 7448, 
  "ffs": 7449, 
  "commerce": 7450, 
  "powerless": 7451, 
  "discretion": 7452, 
  "inten@@": 7453, 
  "hardest": 7454, 
  "Florida": 7455, 
  "1970s": 7456, 
  "contempt": 7457, 
  "jail": 7458, 
  "Gre@@": 7459, 
  "cruel": 7460, 
  "dividends": 7461, 
  "econom@@": 7462, 
  "owed": 7463, 
  "bru@@": 7464, 
  "Yu@@": 7465, 
  "enshrined": 7466, 
  "discussing": 7467, 
  "hyper@@": 7468, 
  "hiring": 7469, 
  "wearing": 7470, 
  "amed": 7471, 
  "evalu@@": 7472, 
  "anchor": 7473, 
  "varied": 7474, 
  "irreversible": 7475, 
  "gathering": 7476, 
  "communic@@": 7477, 
  "sentenced": 7478, 
  "6-@@": 7479, 
  "low-wage": 7480, 
  "consul@@": 7481, 
  "tioned": 7482, 
  "Ju@@": 7483, 
  "banning": 7484, 
  "tempting": 7485, 
  "slump": 7486, 
  "turing": 7487, 
  "Pen": 7488, 
  "perpetu@@": 7489, 
  "capitals": 7490, 
  "proceedings": 7491, 
  "subsidized": 7492, 
  "end@@": 7493, 
  "cable": 7494, 
  "lining": 7495, 
  "Vatican": 7496, 
  "walls": 7497, 
  "diet": 7498, 
  "subsidiaries": 7499, 
  "negotiators": 7500, 
  "cav@@": 7501, 
  "Thai": 7502, 
  "portra@@": 7503, 
  "responsive": 7504, 
  "transitions": 7505, 
  "tiveness": 7506, 
  "directions": 7507, 
  "rop@@": 7508, 
  "°": 7509, 
  "Manuel": 7510, 
  "jurisdiction": 7511, 
  "wholesale": 7512, 
  "Erdoğan": 7513, 
  "Zealand": 7514, 
  "crowded": 7515, 
  "holder": 7516, 
  "ingredients": 7517, 
  "rewarding": 7518, 
  "dot@@": 7519, 
  "convert": 7520, 
  "recommended": 7521, 
  "yesterday": 7522, 
  "sweeping": 7523, 
  "xed": 7524, 
  "tness": 7525, 
  "coloni@@": 7526, 
  "hab@@": 7527, 
  "description": 7528, 
  "press@@": 7529, 
  "dangerously": 7530, 
  "Margaret": 7531, 
  "Wilders": 7532, 
  "pages": 7533, 
  "xing": 7534, 
  "show@@": 7535, 
  "armies": 7536, 
  "desert": 7537, 
  "Uni@@": 7538, 
  "demon@@": 7539, 
  "surgery": 7540, 
  "cau@@": 7541, 
  "battlefield": 7542, 
  "Likud": 7543, 
  "rapprochement": 7544, 
  "manship": 7545, 
  "bribes": 7546, 
  "insiders": 7547, 
  "recommen@@": 7548, 
  "Fran@@": 7549, 
  "unskilled": 7550, 
  "attached": 7551, 
  "hesit@@": 7552, 
  "rap@@": 7553, 
  "Three": 7554, 
  "Forces": 7555, 
  "adult": 7556, 
  "safeguards": 7557, 
  "trafficking": 7558, 
  "articles": 7559, 
  "infant": 7560, 
  "approve": 7561, 
  "cross-@@": 7562, 
  "med@@": 7563, 
  "selective": 7564, 
  "hec@@": 7565, 
  "monarch@@": 7566, 
  "interact": 7567, 
  "spin": 7568, 
  "exhausted": 7569, 
  "Am@@": 7570, 
  "interrup@@": 7571, 
  "qualities": 7572, 
  "decentralized": 7573, 
  "ances": 7574, 
  "chemicals": 7575, 
  "trivial": 7576, 
  "Sy@@": 7577, 
  "prudence": 7578, 
  "uprising": 7579, 
  "ased": 7580, 
  "teen": 7581, 
  "gling": 7582, 
  "anemic": 7583, 
  "categories": 7584, 
  "ody": 7585, 
  "nineteenth-century": 7586, 
  "pieces": 7587, 
  "dare": 7588, 
  "News": 7589, 
  "hin@@": 7590, 
  "killings": 7591, 
  "steep": 7592, 
  "eness": 7593, 
  "array": 7594, 
  "peripheral": 7595, 
  "unchanged": 7596, 
  "fixing": 7597, 
  "You": 7598, 
  "export-led": 7599, 
  "embodied": 7600, 
  "silver": 7601, 
  "unlimited": 7602, 
  "exagger@@": 7603, 
  "maintains": 7604, 
  "ap": 7605, 
  "trillions": 7606, 
  "notorious": 7607, 
  "sup@@": 7608, 
  "Aristide": 7609, 
  "nomin@@": 7610, 
  "detainees": 7611, 
  "desired": 7612, 
  "compelled": 7613, 
  "ensuing": 7614, 
  "disadvantage": 7615, 
  "st-@@": 7616, 
  "Jiang": 7617, 
  "hegemonic": 7618, 
  "activism": 7619, 
  "narrowly": 7620, 
  "gent": 7621, 
  "jun@@": 7622, 
  "eva@@": 7623, 
  "stand@@": 7624, 
  "deri@@": 7625, 
  "constraint": 7626, 
  "nostalgia": 7627, 
  "beauty": 7628, 
  "meets": 7629, 
  "Tymoshenko": 7630, 
  "appealing": 7631, 
  "9.@@": 7632, 
  "distra@@": 7633, 
  "crisis-@@": 7634, 
  "predic@@": 7635, 
  "brains": 7636, 
  "preference": 7637, 
  "notions": 7638, 
  "myriad": 7639, 
  "Affairs": 7640, 
  "suggestion": 7641, 
  "childhood": 7642, 
  "Ad@@": 7643, 
  "peg": 7644, 
  "Go@@": 7645, 
  "repercussions": 7646, 
  "collapses": 7647, 
  "Kazakhstan": 7648, 
  "Slobodan": 7649, 
  "Henry": 7650, 
  "overheating": 7651, 
  "rot": 7652, 
  "trick": 7653, 
  "liberalizing": 7654, 
  "odd": 7655, 
  "ories": 7656, 
  "collec@@": 7657, 
  "ady": 7658, 
  "illiquid": 7659, 
  "fruits": 7660, 
  "ich@@": 7661, 
  "ental": 7662, 
  "Kar@@": 7663, 
  "bent": 7664, 
  "Exchange": 7665, 
  "mad@@": 7666, 
  "ier": 7667, 
  "arm": 7668, 
  "defines": 7669, 
  "drag": 7670, 
  "bar": 7671, 
  "boy": 7672, 
  "dedicated": 7673, 
  "reminds": 7674, 
  "grievances": 7675, 
  "oting": 7676, 
  "preach@@": 7677, 
  "four@@": 7678, 
  "endorse": 7679, 
  "persons": 7680, 
  "intelligent": 7681, 
  "murderous": 7682, 
  "drama": 7683, 
  "bulk": 7684, 
  "cent": 7685, 
  "fled": 7686, 
  "reactors": 7687, 
  "Hosni": 7688, 
  "ven": 7689, 
  "talents": 7690, 
  "lower-@@": 7691, 
  "Fannie": 7692, 
  "ugly": 7693, 
  "1.3": 7694, 
  "mild": 7695, 
  "inflation-@@": 7696, 
  "ethos": 7697, 
  "NGO": 7698, 
  "attractiveness": 7699, 
  "Wel@@": 7700, 
  "fronts": 7701, 
  "inhi@@": 7702, 
  "tim@@": 7703, 
  "par": 7704, 
  "vulnerabilities": 7705, 
  "foolish": 7706, 
  "0.7": 7707, 
  "resisting": 7708, 
  "Thaksin": 7709, 
  "Darwin": 7710, 
  "psycho@@": 7711, 
  "clearer": 7712, 
  "obsession": 7713, 
  "cost-@@": 7714, 
  "Oxford": 7715, 
  "proceeds": 7716, 
  "starvation": 7717, 
  "Bashar": 7718, 
  "dling": 7719, 
  "strains": 7720, 
  "inflated": 7721, 
  "demago@@": 7722, 
  "demonstrators": 7723, 
  "SDR": 7724, 
  "impending": 7725, 
  "pos@@": 7726, 
  "escalating": 7727, 
  "barrier": 7728, 
  "pulling": 7729, 
  "www.@@": 7730, 
  "social-welfare": 7731, 
  "Sal@@": 7732, 
  "benefiting": 7733, 
  "prefers": 7734, 
  "Amsterdam": 7735, 
  "ethanol": 7736, 
  "Advis@@": 7737, 
  "vit@@": 7738, 
  "entail": 7739, 
  "exceeded": 7740, 
  "daughter": 7741, 
  "Congo": 7742, 
  "Ang@@": 7743, 
  "tened": 7744, 
  "imprisonment": 7745, 
  "rationality": 7746, 
  "kings": 7747, 
  "linking": 7748, 
  "coffee": 7749, 
  "thri@@": 7750, 
  "Liberal": 7751, 
  "quali@@": 7752, 
  "please": 7753, 
  "care@@": 7754, 
  "neutr@@": 7755, 
  "corresponding": 7756, 
  "consultation": 7757, 
  "gation": 7758, 
  "coastal": 7759, 
  "utter": 7760, 
  "Leader": 7761, 
  "telephone": 7762, 
  "ko": 7763, 
  "so-@@": 7764, 
  "spite": 7765, 
  "infer@@": 7766, 
  "Dr.": 7767, 
  "motive": 7768, 
  "Cha@@": 7769, 
  "dependency": 7770, 
  "complic@@": 7771, 
  "slu@@": 7772, 
  "-in-@@": 7773, 
  "wil@@": 7774, 
  "truce": 7775, 
  "20,000": 7776, 
  "recipient": 7777, 
  "Orleans": 7778, 
  "unwillingness": 7779, 
  "simplistic": 7780, 
  "demonstrating": 7781, 
  "reminiscent": 7782, 
  "rejecting": 7783, 
  "diminishing": 7784, 
  "automobiles": 7785, 
  "asymmetric": 7786, 
  "complacency": 7787, 
  "distribu@@": 7788, 
  "insured": 7789, 
  "tedly": 7790, 
  "stolen": 7791, 
  "storms": 7792, 
  "WHO": 7793, 
  "discount": 7794, 
  "arti@@": 7795, 
  "glut": 7796, 
  "whereby": 7797, 
  "poppy": 7798, 
  "drives": 7799, 
  "freer": 7800, 
  "xenophobic": 7801, 
  "undemocratic": 7802, 
  "intends": 7803, 
  "kin": 7804, 
  "centered": 7805, 
  "anism": 7806, 
  "broker": 7807, 
  "possesses": 7808, 
  "prosecutors": 7809, 
  "forging": 7810, 
  "inward": 7811, 
  "wanting": 7812, 
  "council": 7813, 
  "calculation": 7814, 
  "chemistry": 7815, 
  "crimin@@": 7816, 
  "dismal": 7817, 
  "sle@@": 7818, 
  "rob@@": 7819, 
  "upside": 7820, 
  "utility": 7821, 
  "lan": 7822, 
  "transferred": 7823, 
  "Movement": 7824, 
  "Afghans": 7825, 
  "rogue": 7826, 
  "indu@@": 7827, 
  "tax-@@": 7828, 
  "countryside": 7829, 
  "metaphor": 7830, 
  "bridges": 7831, 
  "realm": 7832, 
  "embarra@@": 7833, 
  "cancel@@": 7834, 
  "Ta@@": 7835, 
  "stimu@@": 7836, 
  "Indi@@": 7837, 
  "publishing": 7838, 
  "burned": 7839, 
  "orchest@@": 7840, 
  "middle-class": 7841, 
  "aro@@": 7842, 
  "hard@@": 7843, 
  "bud@@": 7844, 
  "harmonization": 7845, 
  "mathematics": 7846, 
  "overlooked": 7847, 
  "manageable": 7848, 
  "self-fulfilling": 7849, 
  "umbrella": 7850, 
  "accusations": 7851, 
  "proponents": 7852, 
  "Damascus": 7853, 
  "earning": 7854, 
  "historian": 7855, 
  "poc@@": 7856, 
  "counterpart": 7857, 
  "198@@": 7858, 
  "CD@@": 7859, 
  "dominates": 7860, 
  "behavioral": 7861, 
  "severity": 7862, 
  "protections": 7863, 
  "widen": 7864, 
  "shore": 7865, 
  "extinction": 7866, 
  "onist": 7867, 
  "war-@@": 7868, 
  "agreeing": 7869, 
  "bolster": 7870, 
  "exporter": 7871, 
  "securitization": 7872, 
  "murdered": 7873, 
  "investigations": 7874, 
  "illiberal": 7875, 
  "lots": 7876, 
  "nau@@": 7877, 
  "cement": 7878, 
  "gay": 7879, 
  "Val@@": 7880, 
  "rail@@": 7881, 
  "civili@@": 7882, 
  "dog": 7883, 
  "puzz@@": 7884, 
  "testimony": 7885, 
  "occup@@": 7886, 
  "bloated": 7887, 
  "flying": 7888, 
  "decreased": 7889, 
  "concep@@": 7890, 
  "parasites": 7891, 
  "equitable": 7892, 
  "Se@@": 7893, 
  "ets": 7894, 
  "fans": 7895, 
  "mistrust": 7896, 
  "sins": 7897, 
  "business-@@": 7898, 
  "drew": 7899, 
  "select": 7900, 
  "constructing": 7901, 
  "containing": 7902, 
  "Fukushima": 7903, 
  "tolerant": 7904, 
  "faction": 7905, 
  "arist": 7906, 
  "stroke": 7907, 
  "Black": 7908, 
  "fires": 7909, 
  "Foundation": 7910, 
  "mosque": 7911, 
  "rem@@": 7912, 
  "locations": 7913, 
  "bes": 7914, 
  "forming": 7915, 
  "Mumbai": 7916, 
  "opium": 7917, 
  "Guatemala": 7918, 
  "resurgence": 7919, 
  "detail": 7920, 
  "outbreak": 7921, 
  "plain": 7922, 
  "advancing": 7923, 
  "counted": 7924, 
  "justi@@": 7925, 
  "monks": 7926, 
  "37": 7927, 
  "nationalization": 7928, 
  "Karadzic": 7929, 
  "busy": 7930, 
  "HAVEN": 7931, 
  "1.4": 7932, 
  "manipulated": 7933, 
  "disclosure": 7934, 
  "doctor": 7935, 
  "Lukashenko": 7936, 
  "insight": 7937, 
  "sca@@": 7938, 
  "quantum": 7939, 
  "taxpayer": 7940, 
  "lag": 7941, 
  "constituted": 7942, 
  "slack": 7943, 
  "cronies": 7944, 
  "opponent": 7945, 
  "stro@@": 7946, 
  "T": 7947, 
  "analyses": 7948, 
  "­@@": 7949, 
  "drug-@@": 7950, 
  "Hungarian": 7951, 
  "emulate": 7952, 
  "awa@@": 7953, 
  "jeopardize": 7954, 
  "hike": 7955, 
  "align": 7956, 
  "illegitimate": 7957, 
  "bureaucracies": 7958, 
  "250": 7959, 
  "designing": 7960, 
  "converted": 7961, 
  "equation": 7962, 
  "overvalued": 7963, 
  "siege": 7964, 
  "legislators": 7965, 
  "shooting": 7966, 
  "paci@@": 7967, 
  "reap": 7968, 
  "unra@@": 7969, 
  "branches": 7970, 
  "Non-Proliferation": 7971, 
  "regards": 7972, 
  "disa@@": 7973, 
  "predicament": 7974, 
  "whi@@": 7975, 
  "geo-@@": 7976, 
  "repudi@@": 7977, 
  "cyber": 7978, 
  "Milton": 7979, 
  "patriotism": 7980, 
  "well-known": 7981, 
  "taste": 7982, 
  "loved": 7983, 
  "issu@@": 7984, 
  "school@@": 7985, 
  "greeted": 7986, 
  "elec@@": 7987, 
  "horse": 7988, 
  "supervisors": 7989, 
  "disorderly": 7990, 
  "legi@@": 7991, 
  "Ottoman": 7992, 
  "decides": 7993, 
  "com": 7994, 
  "sty": 7995, 
  "veri@@": 7996, 
  "Soviet-@@": 7997, 
  "projections": 7998, 
  "tivity": 7999, 
  "intractable": 8000, 
  "Wen": 8001, 
  "affluent": 8002, 
  "coast": 8003, 
  "mixture": 8004, 
  "resilient": 8005, 
  "Power": 8006, 
  "degra@@": 8007, 
  "jointly": 8008, 
  "peso": 8009, 
  "Michael": 8010, 
  "-R@@": 8011, 
  "charter": 8012, 
  "arrogant": 8013, 
  "repayment": 8014, 
  "bio-@@": 8015, 
  "listening": 8016, 
  "taboo": 8017, 
  "cease": 8018, 
  "occupy": 8019, 
  "promotes": 8020, 
  "adapted": 8021, 
  "odi@@": 8022, 
  "privately": 8023, 
  "horrible": 8024, 
  "fulfilling": 8025, 
  "obscure": 8026, 
  "declaring": 8027, 
  "retaliation": 8028, 
  "impasse": 8029, 
  "neo-liberal": 8030, 
  "variations": 8031, 
  "zh@@": 8032, 
  "acknowledging": 8033, 
  "cut@@": 8034, 
  "dro@@": 8035, 
  "clever": 8036, 
  "femin@@": 8037, 
  "Executive": 8038, 
  "hosts": 8039, 
  "prof@@": 8040, 
  "intend": 8041, 
  "high-level": 8042, 
  "adhere": 8043, 
  "PA": 8044, 
  "conducive": 8045, 
  "cosmopolitan": 8046, 
  "optimal": 8047, 
  "stops": 8048, 
  "meat": 8049, 
  "technically": 8050, 
  "trades": 8051, 
  "omin@@": 8052, 
  "expansionary": 8053, 
  "royal": 8054, 
  "churches": 8055, 
  "tive-@@": 8056, 
  "haven": 8057, 
  "invite": 8058, 
  "pretend": 8059, 
  "avi@@": 8060, 
  "salary": 8061, 
  "slaughter": 8062, 
  "ce-@@": 8063, 
  "genetics": 8064, 
  "mergers": 8065, 
  "10-@@": 8066, 
  "molecular": 8067, 
  "formerly": 8068, 
  "eating": 8069, 
  "soar": 8070, 
  "paramount": 8071, 
  "MDGs": 8072, 
  "Project": 8073, 
  "peasant": 8074, 
  "visits": 8075, 
  "infections": 8076, 
  "troop": 8077, 
  "rism": 8078, 
  "journalist": 8079, 
  "accommod@@": 8080, 
  "low@@": 8081, 
  "influences": 8082, 
  "vel@@": 8083, 
  "preferable": 8084, 
  "prompted": 8085, 
  "nurture": 8086, 
  "loos@@": 8087, 
  "underestimated": 8088, 
  "succumb": 8089, 
  "stock@@": 8090, 
  "incompetent": 8091, 
  "devised": 8092, 
  "exploiting": 8093, 
  "Ibrahim": 8094, 
  "dec@@": 8095, 
  "dom": 8096, 
  "pharmaceutical": 8097, 
  "high@@": 8098, 
  "Djindjic": 8099, 
  "ga": 8100, 
  "SDRs": 8101, 
  "thoroughly": 8102, 
  "theorists": 8103, 
  "III": 8104, 
  "deepened": 8105, 
  "capit@@": 8106, 
  "tables": 8107, 
  "twin": 8108, 
  "nan@@": 8109, 
  "passes": 8110, 
  "remedy": 8111, 
  "cel@@": 8112, 
  "criterion": 8113, 
  "enjoys": 8114, 
  "interpretations": 8115, 
  "multiplied": 8116, 
  "naïve": 8117, 
  "documented": 8118, 
  "stature": 8119, 
  "intact": 8120, 
  "1956": 8121, 
  "not-@@": 8122, 
  "mobilized": 8123, 
  "hen@@": 8124, 
  "ton@@": 8125, 
  "are@@": 8126, 
  "evaluate": 8127, 
  "parallels": 8128, 
  "conditional": 8129, 
  "eu@@": 8130, 
  "talented": 8131, 
  "ICC": 8132, 
  "journalism": 8133, 
  "champions": 8134, 
  "ascen@@": 8135, 
  "combining": 8136, 
  "exercises": 8137, 
  "indictment": 8138, 
  "accepts": 8139, 
  "shocking": 8140, 
  "too-@@": 8141, 
  "fostering": 8142, 
  "entertainment": 8143, 
  "si": 8144, 
  "ich": 8145, 
  "remarks": 8146, 
  "pol@@": 8147, 
  "Dis@@": 8148, 
  "addiction": 8149, 
  "gamble": 8150, 
  "v": 8151, 
  "sy@@": 8152, 
  "slight": 8153, 
  "grip": 8154, 
  "Chi@@": 8155, 
  "blocks": 8156, 
  "ler@@": 8157, 
  "cking": 8158, 
  "Bal@@": 8159, 
  "twelve": 8160, 
  "minute": 8161, 
  "ared": 8162, 
  "m-@@": 8163, 
  "dead@@": 8164, 
  "mbling": 8165, 
  "eling": 8166, 
  "equities": 8167, 
  "ranked": 8168, 
  "safely": 8169, 
  "matic": 8170, 
  "est-@@": 8171, 
  "commun@@": 8172, 
  "maturity": 8173, 
  "scheduled": 8174, 
  "decre@@": 8175, 
  "cling": 8176, 
  "unwanted": 8177, 
  "li": 8178, 
  "contradiction": 8179, 
  "clean@@": 8180, 
  "contra@@": 8181, 
  "Albanians": 8182, 
  "protocol": 8183, 
  "undergoing": 8184, 
  "survivors": 8185, 
  "000-@@": 8186, 
  "examination": 8187, 
  "graduate": 8188, 
  "stall": 8189, 
  "puzzle": 8190, 
  "wea@@": 8191, 
  "scarcely": 8192, 
  "noble": 8193, 
  "Italians": 8194, 
  "micro-@@": 8195, 
  "François": 8196, 
  "advent": 8197, 
  "dov@@": 8198, 
  "underpinned": 8199, 
  "readiness": 8200, 
  "discretionary": 8201, 
  "pac@@": 8202, 
  "explo@@": 8203, 
  "syn@@": 8204, 
  "revised": 8205, 
  "predictability": 8206, 
  "ele@@": 8207, 
  "hubris": 8208, 
  "Nordic": 8209, 
  "Th@@": 8210, 
  "charismatic": 8211, 
  "perverse": 8212, 
  "DELHI": 8213, 
  "turbulence": 8214, 
  "seldom": 8215, 
  "sul@@": 8216, 
  "publish": 8217, 
  "2100": 8218, 
  "theirs": 8219, 
  "U": 8220, 
  "vian": 8221, 
  "transmitted": 8222, 
  "alleviate": 8223, 
  "tt@@": 8224, 
  "Bosnian": 8225, 
  "prevails": 8226, 
  "warn": 8227, 
  "Jud@@": 8228, 
  "elusive": 8229, 
  "ient": 8230, 
  "ethnicity": 8231, 
  "edi@@": 8232, 
  "vanished": 8233, 
  "resource-@@": 8234, 
  "conferences": 8235, 
  "cked": 8236, 
  "Lo@@": 8237, 
  "Caribbean": 8238, 
  "Jean-Claude": 8239, 
  "mode@@": 8240, 
  "motivation": 8241, 
  "Xiaoping": 8242, 
  "serv@@": 8243, 
  "athletes": 8244, 
  "mankind": 8245, 
  "shly": 8246, 
  "higher-@@": 8247, 
  "compassion": 8248, 
  "mining": 8249, 
  "fearing": 8250, 
  "notes": 8251, 
  "elevated": 8252, 
  "rist": 8253, 
  "With": 8254, 
  "overcoming": 8255, 
  "integral": 8256, 
  "Nazism": 8257, 
  "lights": 8258, 
  "Conservative": 8259, 
  "initiate": 8260, 
  "subjected": 8261, 
  "nerve": 8262, 
  "hot@@": 8263, 
  "sand": 8264, 
  "tat@@": 8265, 
  "Burmese": 8266, 
  "fare": 8267, 
  "confronts": 8268, 
  "Vi@@": 8269, 
  "Resolution": 8270, 
  "120": 8271, 
  "administered": 8272, 
  "44": 8273, 
  "mainland": 8274, 
  "horrific": 8275, 
  "campaigning": 8276, 
  "tainted": 8277, 
  "attribute": 8278, 
  "nate": 8279, 
  "1985": 8280, 
  "cy@@": 8281, 
  "dog@@": 8282, 
  "appetite": 8283, 
  "remedies": 8284, 
  "good@@": 8285, 
  "sin": 8286, 
  "celebrated": 8287, 
  "emigra@@": 8288, 
  "shment": 8289, 
  "Azerbaijan": 8290, 
  "Corporation": 8291, 
  "ideally": 8292, 
  "aggravated": 8293, 
  "executed": 8294, 
  "weakens": 8295, 
  "evolving": 8296, 
  "mation": 8297, 
  "wrong@@": 8298, 
  "ization": 8299, 
  "abstract": 8300, 
  "rein@@": 8301, 
  "aire": 8302, 
  "ssment": 8303, 
  "homosexuality": 8304, 
  "backward": 8305, 
  "Golan": 8306, 
  "pet": 8307, 
  "timely": 8308, 
  "periodic": 8309, 
  "William": 8310, 
  "consecutive": 8311, 
  "amid": 8312, 
  "would-be": 8313, 
  "publication": 8314, 
  "cting": 8315, 
  "assessed": 8316, 
  "ecosystem": 8317, 
  "supportive": 8318, 
  "anic": 8319, 
  "troubling": 8320, 
  "toral": 8321, 
  "humane": 8322, 
  "privacy": 8323, 
  "isolate": 8324, 
  "oceans": 8325, 
  "gravity": 8326, 
  "eastward": 8327, 
  "48": 8328, 
  "Wil@@": 8329, 
  "gement": 8330, 
  "expelled": 8331, 
  "objections": 8332, 
  "brilliant": 8333, 
  "posts": 8334, 
  "55": 8335, 
  "3,000": 8336, 
  "offense": 8337, 
  "mem@@": 8338, 
  "frame": 8339, 
  "enforcing": 8340, 
  "manifest@@": 8341, 
  "Old": 8342, 
  "G-@@": 8343, 
  "impressed": 8344, 
  "00,000": 8345, 
  "enters": 8346, 
  "post-Cold": 8347, 
  "accessible": 8348, 
  "relation": 8349, 
  "retired": 8350, 
  "emphasizes": 8351, 
  "Mexicans": 8352, 
  "Uruguay": 8353, 
  "obtaining": 8354, 
  "discoveries": 8355, 
  "tele@@": 8356, 
  "topic": 8357, 
  "nuclear-armed": 8358, 
  "Thomas": 8359, 
  "Tudor": 8360, 
  "gged": 8361, 
  "sionist": 8362, 
  "Blix": 8363, 
  "mount": 8364, 
  "honesty": 8365, 
  "Democrat": 8366, 
  "ania": 8367, 
  "world-@@": 8368, 
  "deep-@@": 8369, 
  "precondition": 8370, 
  "hun@@": 8371, 
  "descen@@": 8372, 
  "beating": 8373, 
  "ratify": 8374, 
  "compulsory": 8375, 
  "bonus": 8376, 
  "herself": 8377, 
  "rewarded": 8378, 
  "brothers": 8379, 
  "Ecuador": 8380, 
  "Market": 8381, 
  "dry": 8382, 
  "acupuncture": 8383, 
  "uniform": 8384, 
  "vaccine": 8385, 
  "old-fashioned": 8386, 
  "modi@@": 8387, 
  "deleg@@": 8388, 
  "peninsula": 8389, 
  "slogans": 8390, 
  "Hollywood": 8391, 
  "clock": 8392, 
  "inspiring": 8393, 
  "W": 8394, 
  "coercion": 8395, 
  "variant": 8396, 
  "penalties": 8397, 
  "spot": 8398, 
  "hardship": 8399, 
  "comprehend": 8400, 
  "£": 8401, 
  "lax": 8402, 
  "ulous": 8403, 
  "nutrition": 8404, 
  "But": 8405, 
  "fiction": 8406, 
  "Ter@@": 8407, 
  "Summers": 8408, 
  "imperatives": 8409, 
  "pile": 8410, 
  "advocating": 8411, 
  "ei@@": 8412, 
  "unted": 8413, 
  "-out": 8414, 
  "alienated": 8415, 
  "sympath@@": 8416, 
  "30-@@": 8417, 
  "ally-@@": 8418, 
  "collection": 8419, 
  "cloning": 8420, 
  "stabili@@": 8421, 
  "Paulson": 8422, 
  "hypothesis": 8423, 
  "insure": 8424, 
  "FARC": 8425, 
  "les@@": 8426, 
  "cushion": 8427, 
  "eligible": 8428, 
  "districts": 8429, 
  "sl@@": 8430, 
  "stressed": 8431, 
  "explaining": 8432, 
  "rents": 8433, 
  "Uzbekistan": 8434, 
  "For": 8435, 
  "voluntarily": 8436, 
  "waters": 8437, 
  "frontier": 8438, 
  "ini@@": 8439, 
  "sty@@": 8440, 
  "illicit": 8441, 
  "vocal": 8442, 
  "invading": 8443, 
  "organic": 8444, 
  "disagreement": 8445, 
  "squandered": 8446, 
  "cyc@@": 8447, 
  "wav@@": 8448, 
  "wal@@": 8449, 
  "disciplined": 8450, 
  "emp@@": 8451, 
  "undeniable": 8452, 
  "bers": 8453, 
  "mismanagement": 8454, 
  "as-@@": 8455, 
  "looms": 8456, 
  "deser@@": 8457, 
  "ables": 8458, 
  "disappointment": 8459, 
  "reporters": 8460, 
  "ensures": 8461, 
  "specified": 8462, 
  "wishful": 8463, 
  "erial": 8464, 
  "exert": 8465, 
  "FTA": 8466, 
  "translated": 8467, 
  "amounted": 8468, 
  "wear": 8469, 
  "ati@@": 8470, 
  "Silicon": 8471, 
  "smoking": 8472, 
  "inst@@": 8473, 
  "eng": 8474, 
  "colleague": 8475, 
  "sians": 8476, 
  "coincidence": 8477, 
  "fur@@": 8478, 
  "modernizing": 8479, 
  "titude": 8480, 
  "buff@@": 8481, 
  "GM": 8482, 
  "Angeles": 8483, 
  "Isla@@": 8484, 
  "ful@@": 8485, 
  "Phelps": 8486, 
  "exceptionally": 8487, 
  "anytime": 8488, 
  "temptations": 8489, 
  "structured": 8490, 
  "refinancing": 8491, 
  "AIG": 8492, 
  "husband": 8493, 
  "opaque": 8494, 
  "tain@@": 8495, 
  "burg": 8496, 
  "ambiguous": 8497, 
  "ocracy": 8498, 
  "proposes": 8499, 
  "volunte@@": 8500, 
  "uting": 8501, 
  "incar@@": 8502, 
  "livelihoods": 8503, 
  "hyper-@@": 8504, 
  "Freddie": 8505, 
  "loaded": 8506, 
  "Rubin": 8507, 
  "rainfall": 8508, 
  "Wolfensohn": 8509, 
  "forgiveness": 8510, 
  "longevity": 8511, 
  "cha@@": 8512, 
  "organs": 8513, 
  "cocaine": 8514, 
  "perestroika": 8515, 
  "Jintao": 8516, 
  "mines": 8517, 
  "inspiration": 8518, 
  "cumulative": 8519, 
  "ruthless": 8520, 
  "tap@@": 8521, 
  "score": 8522, 
  "laying": 8523, 
  "string": 8524, 
  "contested": 8525, 
  "grassroots": 8526, 
  "icians": 8527, 
  "develops": 8528, 
  "ailing": 8529, 
  "concei@@": 8530, 
  "bone": 8531, 
  "Os": 8532, 
  "euphoria": 8533, 
  "disruptive": 8534, 
  "Academy": 8535, 
  "guidelines": 8536, 
  "X": 8537, 
  "Poor": 8538, 
  "man-made": 8539, 
  "market-oriented": 8540, 
  "Scandinavian": 8541, 
  "IBM": 8542, 
  "transcend": 8543, 
  "Ni@@": 8544, 
  "replic@@": 8545, 
  "hang": 8546, 
  "fol@@": 8547, 
  "planes": 8548, 
  "jihad": 8549, 
  "Uribe": 8550, 
  "diffusion": 8551, 
  "Mu@@": 8552, 
  "mountains": 8553, 
  "tionary": 8554, 
  "expressing": 8555, 
  "Tudjman": 8556, 
  "drivers": 8557, 
  "es-@@": 8558, 
  "lock": 8559, 
  "averaged": 8560, 
  "chil@@": 8561, 
  "cynicism": 8562, 
  "Hollande": 8563, 
  "ess@@": 8564, 
  "transaction": 8565, 
  "accurately": 8566, 
  "biologists": 8567, 
  "correlation": 8568, 
  "accidents": 8569, 
  "Governor": 8570, 
  "distort": 8571, 
  "supranational": 8572, 
  "ola": 8573, 
  "jailed": 8574, 
  "overdue": 8575, 
  "legality": 8576, 
  "vel": 8577, 
  "objects": 8578, 
  "recipients": 8579, 
  "plot": 8580, 
  "employ": 8581, 
  "horrors": 8582, 
  "trag@@": 8583, 
  "grossly": 8584, 
  "disdain": 8585, 
  "charity": 8586, 
  "450": 8587, 
  "lat@@": 8588, 
  "strained": 8589, 
  "inde@@": 8590, 
  "similarities": 8591, 
  "secre@@": 8592, 
  "cal": 8593, 
  "cleansing": 8594, 
  "havoc": 8595, 
  "narcotics": 8596, 
  "withstand": 8597, 
  "é@@": 8598, 
  "rich-country": 8599, 
  "contentious": 8600, 
  "Action": 8601, 
  "sil@@": 8602, 
  "deepest": 8603, 
  "ambassador": 8604, 
  "downturns": 8605, 
  "Soros": 8606, 
  "intensify": 8607, 
  "inclined": 8608, 
  "ph": 8609, 
  "tab@@": 8610, 
  "demograph@@": 8611, 
  "opportun@@": 8612, 
  "advised": 8613, 
  "interfere": 8614, 
  "Fi@@": 8615, 
  "arians": 8616, 
  "itu@@": 8617, 
  "condemnation": 8618, 
  "posture": 8619, 
  "ales": 8620, 
  "moc@@": 8621, 
  "depic@@": 8622, 
  "kes": 8623, 
  "powered": 8624, 
  "casting": 8625, 
  "divergence": 8626, 
  "goodwill": 8627, 
  "imposition": 8628, 
  "2007-@@": 8629, 
  "Commissioner": 8630, 
  "let@@": 8631, 
  "spill": 8632, 
  "proportions": 8633, 
  "dru@@": 8634, 
  "confirms": 8635, 
  "tackling": 8636, 
  "rolled": 8637, 
  "managerial": 8638, 
  "clashes": 8639, 
  "convertibility": 8640, 
  "constitutions": 8641, 
  "nice": 8642, 
  "prolong": 8643, 
  "clin@@": 8644, 
  "strip": 8645, 
  "cri@@": 8646, 
  "escalation": 8647, 
  "quarter-century": 8648, 
  "anom@@": 8649, 
  "solvency": 8650, 
  "Mi@@": 8651, 
  "predominantly": 8652, 
  "Western-@@": 8653, 
  "span": 8654, 
  "surro@@": 8655, 
  "renew": 8656, 
  "strengthens": 8657, 
  "replied": 8658, 
  "stering": 8659, 
  "polling": 8660, 
  "ass": 8661, 
  "tolerated": 8662, 
  "tank": 8663, 
  "incident": 8664, 
  "nit@@": 8665, 
  "Islamabad": 8666, 
  "quasi-@@": 8667, 
  "universally": 8668, 
  "enthusiastic": 8669, 
  "divisive": 8670, 
  "operates": 8671, 
  "unusually": 8672, 
  "achievable": 8673, 
  "nationality": 8674, 
  "tribes": 8675, 
  "instructions": 8676, 
  "Zionism": 8677, 
  "mobilizing": 8678, 
  "stemming": 8679, 
  "rigorous": 8680, 
  "Facebook": 8681, 
  "compounded": 8682, 
  "uniting": 8683, 
  "rad@@": 8684, 
  "instruc@@": 8685, 
  "consolidated": 8686, 
  "lawyer": 8687, 
  "value-added": 8688, 
  "Jong": 8689, 
  "System": 8690, 
  "investigate": 8691, 
  "Leone": 8692, 
  "ack@@": 8693, 
  "Muhammad": 8694, 
  "modified": 8695, 
  "newcomers": 8696, 
  "addic@@": 8697, 
  "possessed": 8698, 
  "chec@@": 8699, 
  "divert": 8700, 
  "providers": 8701, 
  "Americas": 8702, 
  "Delhi": 8703, 
  "transferring": 8704, 
  "Civil": 8705, 
  "refin@@": 8706, 
  "urging": 8707, 
  "59": 8708, 
  "supremacy": 8709, 
  "rebound": 8710, 
  "bon@@": 8711, 
  "meth@@": 8712, 
  "tier": 8713, 
  "petition": 8714, 
  "coral": 8715, 
  "scor@@": 8716, 
  "lowered": 8717, 
  "uneven": 8718, 
  "inspections": 8719, 
  "firing": 8720, 
  "therapeutic": 8721, 
  "ceremony": 8722, 
  "dose": 8723, 
  "designs": 8724, 
  "shaky": 8725, 
  "noticed": 8726, 
  "inefficiency": 8727, 
  "Rio": 8728, 
  "Solzhenitsyn": 8729, 
  "stock-market": 8730, 
  "fore": 8731, 
  "legislature": 8732, 
  "12@@": 8733, 
  "51": 8734, 
  "2008-2009": 8735, 
  "ostensibly": 8736, 
  "heed": 8737, 
  "dest": 8738, 
  "atic": 8739, 
  "arbit@@": 8740, 
  "sher": 8741, 
  "Cultural": 8742, 
  "Strauss-Kahn": 8743, 
  "greenhouse-gas": 8744, 
  "-country": 8745, 
  "illusions": 8746, 
  "cler@@": 8747, 
  "misrule": 8748, 
  "Mladic": 8749, 
  "smoke": 8750, 
  "moneti@@": 8751, 
  "intri@@": 8752, 
  "Dalai": 8753, 
  "premise": 8754, 
  "agu@@": 8755, 
  "El": 8756, 
  "un-@@": 8757, 
  "Da@@": 8758, 
  "reinvigor@@": 8759, 
  "coups": 8760, 
  "owes": 8761, 
  "constitu@@": 8762, 
  "oldest": 8763, 
  "leveraging": 8764, 
  "rup@@": 8765, 
  "chips": 8766, 
  "endure": 8767, 
  "nic@@": 8768, 
  "victories": 8769, 
  "scant": 8770, 
  "Frankfurt": 8771, 
  "sluggish": 8772, 
  "Do@@": 8773, 
  "cap": 8774, 
  "Sierra": 8775, 
  "spike": 8776, 
  "circulation": 8777, 
  "schooling": 8778, 
  "aria": 8779, 
  "deterred": 8780, 
  "1984": 8781, 
  "pil@@": 8782, 
  "framed": 8783, 
  "och@@": 8784, 
  "meager": 8785, 
  "metr@@": 8786, 
  "Bin": 8787, 
  "99": 8788, 
  "mated": 8789, 
  "upheaval": 8790, 
  "j": 8791, 
  "headline": 8792, 
  "frightening": 8793, 
  "Israeli-@@": 8794, 
  "activist": 8795, 
  "thr@@": 8796, 
  "hoc": 8797, 
  "spots": 8798, 
  "sixth": 8799, 
  "ambiguity": 8800, 
  "stag@@": 8801, 
  "pledges": 8802, 
  "linguistic": 8803, 
  "threw": 8804, 
  "applications": 8805, 
  "correction": 8806, 
  "me-@@": 8807, 
  "dismis@@": 8808, 
  "lined": 8809, 
  "Club": 8810, 
  "2,@@": 8811, 
  "bird": 8812, 
  "anti-Semitic": 8813, 
  "protec@@": 8814, 
  "pain@@": 8815, 
  "suitable": 8816, 
  "occasional": 8817, 
  "engineer": 8818, 
  "illustrates": 8819, 
  "50,000": 8820, 
  "reson@@": 8821, 
  "free-@@": 8822, 
  "centrist": 8823, 
  "Two": 8824, 
  "social-@@": 8825, 
  "band@@": 8826, 
  "2013": 8827, 
  "yer": 8828, 
  "respective": 8829, 
  "ogra@@": 8830, 
  "dirty": 8831, 
  "tortured": 8832, 
  "banker": 8833, 
  "sword": 8834, 
  "forefront": 8835, 
  "sterili@@": 8836, 
  "technocratic": 8837, 
  "Jong-il": 8838, 
  "monitored": 8839, 
  "withdrawn": 8840, 
  "peculiar": 8841, 
  "invo@@": 8842, 
  "Luzhkov": 8843, 
  "anticipate": 8844, 
  "rough": 8845, 
  "immunity": 8846, 
  "dele@@": 8847, 
  "implicitly": 8848, 
  "che": 8849, 
  "comple@@": 8850, 
  "Economics": 8851, 
  "cont@@": 8852, 
  "Kur@@": 8853, 
  "Qatar": 8854, 
  "idity": 8855, 
  "user": 8856, 
  "assessments": 8857, 
  "DP@@": 8858, 
  "disruptions": 8859, 
  "fastest": 8860, 
  "respectable": 8861, 
  "vivid": 8862, 
  "comment@@": 8863, 
  "hierarchy": 8864, 
  "campaigners": 8865, 
  "flooding": 8866, 
  "curious": 8867, 
  "deterrent": 8868, 
  "describes": 8869, 
  "resumption": 8870, 
  "old-@@": 8871, 
  "off-@@": 8872, 
  "shy": 8873, 
  "affirmative": 8874, 
  "sna@@": 8875, 
  "Che": 8876, 
  "mobilization": 8877, 
  "yp@@": 8878, 
  "tment": 8879, 
  "prescri@@": 8880, 
  "short-lived": 8881, 
  "Fifth": 8882, 
  "one-party": 8883, 
  "complementary": 8884, 
  "cease-fire": 8885, 
  "stresses": 8886, 
  "accordance": 8887, 
  "submitted": 8888, 
  "emphasizing": 8889, 
  "rit@@": 8890, 
  "embar@@": 8891, 
  "journey": 8892, 
  "reassure": 8893, 
  "shell": 8894, 
  "exciting": 8895, 
  "Quartet": 8896, 
  "maintenance": 8897, 
  "secularism": 8898, 
  "erode": 8899, 
  "ading": 8900, 
  "tighten": 8901, 
  "defer@@": 8902, 
  "loc@@": 8903, 
  "dropping": 8904, 
  "magazine": 8905, 
  "sa": 8906, 
  "Bhutan": 8907, 
  "Mos@@": 8908, 
  "dering": 8909, 
  "ome": 8910, 
  "cheaply": 8911, 
  "subsidize": 8912, 
  "apathy": 8913, 
  "mel@@": 8914, 
  "zero-sum": 8915, 
  "competence": 8916, 
  "Lenin": 8917, 
  "self-confidence": 8918, 
  "sometime": 8919, 
  "ome@@": 8920, 
  "insofar": 8921, 
  "seed": 8922, 
  "START": 8923, 
  "subordin@@": 8924, 
  "physicians": 8925, 
  "worn": 8926, 
  "smarter": 8927, 
  "Far": 8928, 
  "trajectory": 8929, 
  "artificially": 8930, 
  "Mill": 8931, 
  "identi@@": 8932, 
  "unfettered": 8933, 
  "compromising": 8934, 
  "reckoning": 8935, 
  "confusing": 8936, 
  "ceased": 8937, 
  "eri@@": 8938, 
  "delegation": 8939, 
  "unifying": 8940, 
  "cation": 8941, 
  "countercyclical": 8942, 
  "preten@@": 8943, 
  "indul@@": 8944, 
  "rooms": 8945, 
  "stricter": 8946, 
  "neo@@": 8947, 
  "manipulate": 8948, 
  "trade@@": 8949, 
  "te-@@": 8950, 
  "cheating": 8951, 
  "commanders": 8952, 
  "sity": 8953, 
  "suppressed": 8954, 
  "shine": 8955, 
  "counting": 8956, 
  "instances": 8957, 
  "classi@@": 8958, 
  "restricting": 8959, 
  "predictably": 8960, 
  "interdependent": 8961, 
  "ou": 8962, 
  "Bucharest": 8963, 
  "semin@@": 8964, 
  "differenti@@": 8965, 
  "1975": 8966, 
  "Monti": 8967, 
  "disarray": 8968, 
  "Cal@@": 8969, 
  "disposal": 8970, 
  "tactic": 8971, 
  "Economist": 8972, 
  "migrant": 8973, 
  "laboratories": 8974, 
  "adviser": 8975, 
  "NATO@@": 8976, 
  "Zhao": 8977, 
  "reproductive": 8978, 
  "turnaround": 8979, 
  "fence": 8980, 
  "examined": 8981, 
  "Pe@@": 8982, 
  "build-up": 8983, 
  "hopeful": 8984, 
  "reig@@": 8985, 
  "succeeds": 8986, 
  "killer": 8987, 
  "individually": 8988, 
  "absorbed": 8989, 
  "tax@@": 8990, 
  "cin@@": 8991, 
  "theast": 8992, 
  "simpli@@": 8993, 
  "comprise": 8994, 
  "precautionary": 8995, 
  "thereafter": 8996, 
  "ond": 8997, 
  "pronounced": 8998, 
  "celebrating": 8999, 
  "watershed": 9000, 
  "steam": 9001, 
  "American-@@": 9002, 
  "orthodox": 9003, 
  "Kadima": 9004, 
  "fights": 9005, 
  "confid@@": 9006, 
  "observe": 9007, 
  "directive": 9008, 
  "normalization": 9009, 
  "Westerners": 9010, 
  "awarded": 9011, 
  "relieve": 9012, 
  "flat@@": 9013, 
  "blue": 9014, 
  "sol@@": 9015, 
  "contributors": 9016, 
  "eradicate": 9017, 
  "nationalistic": 9018, 
  "joke": 9019, 
  "participated": 9020, 
  "genius": 9021, 
  "inheritance": 9022, 
  "appeasement": 9023, 
  "pares": 9024, 
  "multiculturalism": 9025, 
  "ink@@": 9026, 
  "desires": 9027, 
  "beg@@": 9028, 
  "Condoleezza": 9029, 
  "mid-century": 9030, 
  "tenth": 9031, 
  "thu@@": 9032, 
  "footing": 9033, 
  "Tehran": 9034, 
  "Peter": 9035, 
  "unregulated": 9036, 
  "uphold": 9037, 
  "grab@@": 9038, 
  "copy": 9039, 
  "tip": 9040, 
  "bailed": 9041, 
  "sex@@": 9042, 
  "abundant": 9043, 
  "interior": 9044, 
  "cite": 9045, 
  "encing": 9046, 
  "11th": 9047, 
  "alo@@": 9048, 
  "critique": 9049, 
  "Livni": 9050, 
  "Anwar": 9051, 
  "Pearl": 9052, 
  "fantasy": 9053, 
  "rol@@": 9054, 
  "speaker": 9055, 
  "Harbor": 9056, 
  "Koran": 9057, 
  "destabilize": 9058, 
  "oil-rich": 9059, 
  "financial-market": 9060, 
  "ord@@": 9061, 
  "ade@@": 9062, 
  "Kostunica": 9063, 
  "interestingly": 9064, 
  "vac@@": 9065, 
  "fertili@@": 9066, 
  "legitimize": 9067, 
  "injections": 9068, 
  "Journal": 9069, 
  "ordin@@": 9070, 
  "year-@@": 9071, 
  "pro-Western": 9072, 
  "experimental": 9073, 
  "Klaus": 9074, 
  "detect": 9075, 
  "frightened": 9076, 
  "liberated": 9077, 
  "uneasy": 9078, 
  "To": 9079, 
  "generational": 9080, 
  "Ay@@": 9081, 
  "fragmented": 9082, 
  "protects": 9083, 
  "esti@@": 9084, 
  "Lama": 9085, 
  "exercised": 9086, 
  "satisfactory": 9087, 
  "do-@@": 9088, 
  "behaving": 9089, 
  "tari@@": 9090, 
  "advis@@": 9091, 
  "three-quarters": 9092, 
  "depar@@": 9093, 
  "uncontrolled": 9094, 
  "successors": 9095, 
  "child@@": 9096, 
  "curtailing": 9097, 
  "phenomena": 9098, 
  "icked": 9099, 
  "dation": 9100, 
  "aping": 9101, 
  "dissident": 9102, 
  "ologist": 9103, 
  "TR@@": 9104, 
  "glori@@": 9105, 
  "crossed": 9106, 
  "load": 9107, 
  "fallout": 9108, 
  "38": 9109, 
  "Medicare": 9110, 
  "render": 9111, 
  "EU-wide": 9112, 
  "assertive": 9113, 
  "outlets": 9114, 
  "tening": 9115, 
  "ye@@": 9116, 
  "redistribu@@": 9117, 
  "collecting": 9118, 
  "Stanford": 9119, 
  "microbes": 9120, 
  "interview": 9121, 
  "tune": 9122, 
  "comparing": 9123, 
  "summits": 9124, 
  "indebtedness": 9125, 
  "proclaim": 9126, 
  "unequi@@": 9127, 
  "Why": 9128, 
  "spra@@": 9129, 
  "individu@@": 9130, 
  "descent": 9131, 
  "dev@@": 9132, 
  "desp@@": 9133, 
  "codes": 9134, 
  "Can@@": 9135, 
  "restructure": 9136, 
  "tified": 9137, 
  "oms": 9138, 
  "triggering": 9139, 
  "betting": 9140, 
  "Yale": 9141, 
  "loom": 9142, 
  "denounce": 9143, 
  "liter@@": 9144, 
  "morning": 9145, 
  "displa@@": 9146, 
  "High": 9147, 
  "invaded": 9148, 
  "benchmark": 9149, 
  "ard@@": 9150, 
  "viewers": 9151, 
  "mind@@": 9152, 
  "No@@": 9153, 
  "financial-sector": 9154, 
  "thered": 9155, 
  "grace": 9156, 
  "sibly": 9157, 
  "dissol@@": 9158, 
  "crushed": 9159, 
  "victorious": 9160, 
  "class@@": 9161, 
  "tist": 9162, 
  "Revolutionary": 9163, 
  "feud@@": 9164, 
  "maximize": 9165, 
  "Luxembourg": 9166, 
  "heroin": 9167, 
  "Haider": 9168, 
  "warranted": 9169, 
  "outlays": 9170, 
  "warheads": 9171, 
  "anxieties": 9172, 
  "unconditional": 9173, 
  "hiding": 9174, 
  "persist@@": 9175, 
  "better-@@": 9176, 
  "yev": 9177, 
  "pp@@": 9178, 
  "-term": 9179, 
  "unfolding": 9180, 
  "challen@@": 9181, 
  "bac@@": 9182, 
  "parks": 9183, 
  "broaden": 9184, 
  "Standard": 9185, 
  "gran@@": 9186, 
  "slide": 9187, 
  "undertaking": 9188, 
  "unintended": 9189, 
  "0.0@@": 9190, 
  "Arthur": 9191, 
  "Arctic": 9192, 
  "delu@@": 9193, 
  "Ocean": 9194, 
  "nourished": 9195, 
  "friendship": 9196, 
  "verge": 9197, 
  "chooses": 9198, 
  "sman": 9199, 
  "ell": 9200, 
  "girl": 9201, 
  "excellence": 9202, 
  "donations": 9203, 
  "corrup@@": 9204, 
  "Nato": 9205, 
  "Bali": 9206, 
  "3-@@": 9207, 
  "cotton": 9208, 
  "twenty-@@": 9209, 
  "gift": 9210, 
  "Ken@@": 9211, 
  "coordinating": 9212, 
  "search@@": 9213, 
  "33": 9214, 
  "spr@@": 9215, 
  "thorough": 9216, 
  "peacekeepers": 9217, 
  "coercive": 9218, 
  "stor@@": 9219, 
  "synthetic": 9220, 
  "inations": 9221, 
  "ek": 9222, 
  "subordinate": 9223, 
  "ma": 9224, 
  "tility": 9225, 
  "numer@@": 9226, 
  "revealing": 9227, 
  "labeled": 9228, 
  "far-@@": 9229, 
  "struc@@": 9230, 
  "divides": 9231, 
  "Tung": 9232, 
  "tionism": 9233, 
  "dividend": 9234, 
  "waging": 9235, 
  "smoothly": 9236, 
  "spare": 9237, 
  "airline": 9238, 
  "Bayrou": 9239, 
  "friction": 9240, 
  "-market": 9241, 
  "retained": 9242, 
  "comman@@": 9243, 
  "neighborhoods": 9244, 
  "Einstein": 9245, 
  "assurance": 9246, 
  "out-@@": 9247, 
  "trick@@": 9248, 
  "Truth": 9249, 
  "invitation": 9250, 
  "commerci@@": 9251, 
  "affili@@": 9252, 
  "indexed": 9253, 
  "medieval": 9254, 
  "web": 9255, 
  "wholly": 9256, 
  "worsened": 9257, 
  "Mae": 9258, 
  "twentieth-century": 9259, 
  "atives": 9260, 
  "realistically": 9261, 
  "setbacks": 9262, 
  "restrictive": 9263, 
  "nation-states": 9264, 
  "airport": 9265, 
  "subscri@@": 9266, 
  "inist": 9267, 
  "vigorously": 9268, 
  "readers": 9269, 
  "miser@@": 9270, 
  "provocative": 9271, 
  "uniquely": 9272, 
  "one-time": 9273, 
  "elling": 9274, 
  "simultaneous": 9275, 
  "corporation": 9276, 
  "Confucian": 9277, 
  "River": 9278, 
  "adapting": 9279, 
  "dismantle": 9280, 
  "tar@@": 9281, 
  "unanimous": 9282, 
  "autocracy": 9283, 
  "Holy": 9284, 
  "guar@@": 9285, 
  "arming": 9286, 
  "prisoner": 9287, 
  "Palme": 9288, 
  "tun@@": 9289, 
  "abortion": 9290, 
  "heating": 9291, 
  "distribute": 9292, 
  "portray": 9293, 
  "manager": 9294, 
  "shaken": 9295, 
  "gesture": 9296, 
  "oppressive": 9297, 
  "Representatives": 9298, 
  "1978": 9299, 
  "calamity": 9300, 
  "premiums": 9301, 
  "freed": 9302, 
  "Kouchner": 9303, 
  "aks": 9304, 
  "wisely": 9305, 
  "eable": 9306, 
  "employee": 9307, 
  "adventure": 9308, 
  "deca@@": 9309, 
  "Age": 9310, 
  "compu@@": 9311, 
  "session": 9312, 
  "ink": 9313, 
  "seriousness": 9314, 
  "blackmail": 9315, 
  "diagnostic": 9316, 
  "permissible": 9317, 
  "orial": 9318, 
  "lifel@@": 9319, 
  "History": 9320, 
  "straight": 9321, 
  "intui@@": 9322, 
  "endemic": 9323, 
  "fertilizer": 9324, 
  "league": 9325, 
  "weighed": 9326, 
  "dent": 9327, 
  "versions": 9328, 
  "Je@@": 9329, 
  "cry@@": 9330, 
  "refer@@": 9331, 
  "beaten": 9332, 
  "divorce": 9333, 
  "diversified": 9334, 
  "woes": 9335, 
  "breach": 9336, 
  "real@@": 9337, 
  "wrec@@": 9338, 
  "al-Assad": 9339, 
  "debtors": 9340, 
  "hybrid": 9341, 
  "competent": 9342, 
  "church": 9343, 
  "brother": 9344, 
  "grid": 9345, 
  "draws": 9346, 
  "sob@@": 9347, 
  "paths": 9348, 
  "suspects": 9349, 
  "sym@@": 9350, 
  "mega-@@": 9351, 
  "guaranteeing": 9352, 
  "designated": 9353, 
  "nity": 9354, 
  "quota": 9355, 
  "awash": 9356, 
  "tuberculosis": 9357, 
  "attain": 9358, 
  "Geithner": 9359, 
  "oring": 9360, 
  "analogies": 9361, 
  "craft": 9362, 
  "Mario": 9363, 
  "recep@@": 9364, 
  "0.1": 9365, 
  "plu@@": 9366, 
  "registered": 9367, 
  "expecting": 9368, 
  "fascin@@": 9369, 
  "fit@@": 9370, 
  "surpassed": 9371, 
  "Canadian": 9372, 
  "2.7": 9373, 
  "Elec@@": 9374, 
  "radi@@": 9375, 
  "alien": 9376, 
  "lagging": 9377, 
  "eds": 9378, 
  "curiosity": 9379, 
  "suppressing": 9380, 
  "bullet": 9381, 
  "edy": 9382, 
  "ter-@@": 9383, 
  "fifteen": 9384, 
  "prohibited": 9385, 
  "Jam@@": 9386, 
  "bipartisan": 9387, 
  "suits": 9388, 
  "pro-European": 9389, 
  "sway": 9390, 
  "infec@@": 9391, 
  "person@@": 9392, 
  "depleted": 9393, 
  "Kennedy": 9394, 
  "feder@@": 9395, 
  "extin@@": 9396, 
  "commemor@@": 9397, 
  "valuation": 9398, 
  "15-@@": 9399, 
  "ubiquitous": 9400, 
  "lov@@": 9401, 
  "heal": 9402, 
  "manifest": 9403, 
  "forbidden": 9404, 
  "contracting": 9405, 
  "dragged": 9406, 
  "zable": 9407, 
  "foreclosures": 9408, 
  "purchased": 9409, 
  "197@@": 9410, 
  "assurances": 9411, 
  "height": 9412, 
  "ssing": 9413, 
  "mentally": 9414, 
  "prin@@": 9415, 
  "rhetorical": 9416, 
  "supplier": 9417, 
  "Services": 9418, 
  "galvani@@": 9419, 
  "62": 9420, 
  "altruism": 9421, 
  "allocate": 9422, 
  "batt@@": 9423, 
  "contend": 9424, 
  "movies": 9425, 
  "mightily": 9426, 
  "stat@@": 9427, 
  "interconnected": 9428, 
  "stretch": 9429, 
  "unjust": 9430, 
  "exceeding": 9431, 
  "corrected": 9432, 
  "brutality": 9433, 
  "presumption": 9434, 
  "kids": 9435, 
  "ment-@@": 9436, 
  "median": 9437, 
  "lobbies": 9438, 
  "glance": 9439, 
  "subtle": 9440, 
  "embryo": 9441, 
  "hopeless": 9442, 
  "profligate": 9443, 
  "you@@": 9444, 
  "Reinhart": 9445, 
  "loo@@": 9446, 
  "68": 9447, 
  "combines": 9448, 
  "CIS": 9449, 
  "SGP": 9450, 
  "Bro@@": 9451, 
  "rendering": 9452, 
  "Ariel": 9453, 
  "flaw": 9454, 
  "ame": 9455, 
  "Sheikh": 9456, 
  "setback": 9457, 
  "complement": 9458, 
  "injury": 9459, 
  "Napoleon": 9460, 
  "theater": 9461, 
  "ising": 9462, 
  "self-defeating": 9463, 
  "ul": 9464, 
  "precarious": 9465, 
  "denounced": 9466, 
  "behaved": 9467, 
  "abide": 9468, 
  "ignorant": 9469, 
  "recruit": 9470, 
  "alar@@": 9471, 
  "region@@": 9472, 
  "play@@": 9473, 
  "José": 9474, 
  "traits": 9475, 
  "fat": 9476, 
  "file": 9477, 
  "otic": 9478, 
  "clerics": 9479, 
  "Marxism": 9480, 
  "47": 9481, 
  "Facility": 9482, 
  "Morgan": 9483, 
  "altered": 9484, 
  "award": 9485, 
  "Sudanese": 9486, 
  "write-@@": 9487, 
  "strong@@": 9488, 
  "measurable": 9489, 
  "bio-fuels": 9490, 
  "incompatible": 9491, 
  "Churchill": 9492, 
  "devalue": 9493, 
  "-style": 9494, 
  "stered": 9495, 
  "Mbeki": 9496, 
  "rice": 9497, 
  "circ@@": 9498, 
  "Chad": 9499, 
  "addresses": 9500, 
  "mantra": 9501, 
  "myths": 9502, 
  "sional": 9503, 
  "outdated": 9504, 
  "hardliners": 9505, 
  "picking": 9506, 
  "sis": 9507, 
  "humiliated": 9508, 
  "Barak": 9509, 
  "Berezovsky": 9510, 
  "0": 9511, 
  "discre@@": 9512, 
  "abused": 9513, 
  "prefer@@": 9514, 
  "arsenals": 9515, 
  "measu@@": 9516, 
  "shortsighted": 9517, 
  "Ram@@": 9518, 
  "aming": 9519, 
  "mine": 9520, 
  "Guantanamo": 9521, 
  "projec@@": 9522, 
  "tuous": 9523, 
  "ris@@": 9524, 
  "reli@@": 9525, 
  "Conservatives": 9526, 
  "Sou@@": 9527, 
  "impulse": 9528, 
  "1974": 9529, 
  "lent": 9530, 
  "prejudice": 9531, 
  "pup@@": 9532, 
  "That": 9533, 
  "allegiance": 9534, 
  "Nuremberg": 9535, 
  "world-class": 9536, 
  "instrumental": 9537, 
  "upset": 9538, 
  "illi@@": 9539, 
  "xenophobia": 9540, 
  "amazing": 9541, 
  "21st": 9542, 
  "run@@": 9543, 
  "encouragement": 9544, 
  "adversary": 9545, 
  "withdrawing": 9546, 
  "resemb@@": 9547, 
  "eted": 9548, 
  "stly": 9549, 
  "hydro@@": 9550, 
  "subsidizing": 9551, 
  "Yasir": 9552, 
  "devote": 9553, 
  "enly": 9554, 
  "Armenian": 9555, 
  "edding": 9556, 
  "envy": 9557, 
  "disengagement": 9558, 
  "offshore": 9559, 
  "anti-Western": 9560, 
  "ater": 9561, 
  "underscored": 9562, 
  "announcing": 9563, 
  "park": 9564, 
  "alienation": 9565, 
  "happier": 9566, 
  "à": 9567, 
  "owning": 9568, 
  "abolished": 9569, 
  "savers": 9570, 
  "ruble": 9571, 
  "stretched": 9572, 
  "hits": 9573, 
  "coca": 9574, 
  "fana@@": 9575, 
  "-related": 9576, 
  "year@@": 9577, 
  "devastated": 9578, 
  "que@@": 9579, 
  "lo": 9580, 
  "Scandinavia": 9581, 
  "dication": 9582, 
  "sink": 9583, 
  "draw@@": 9584, 
  "antagon@@": 9585, 
  "nearby": 9586, 
  "fathers": 9587, 
  "CO@@": 9588, 
  "bets": 9589, 
  "eggs": 9590, 
  "ja": 9591, 
  "pronouncements": 9592, 
  "Muammar": 9593, 
  "asks": 9594, 
  "1914": 9595, 
  "invoked": 9596, 
  "creditworthiness": 9597, 
  "passionate": 9598, 
  "risking": 9599, 
  "displayed": 9600, 
  "reconciled": 9601, 
  "tame": 9602, 
  "Wilson": 9603, 
  "retrenchment": 9604, 
  "liquid@@": 9605, 
  "stakeholders": 9606, 
  "supplied": 9607, 
  "progressively": 9608, 
  "Min@@": 9609, 
  "Khomeini": 9610, 
  "Eli@@": 9611, 
  "inappropriate": 9612, 
  "havens": 9613, 
  "ey@@": 9614, 
  "preoccupied": 9615, 
  "stagna@@": 9616, 
  "utili@@": 9617, 
  "ris": 9618, 
  "1947": 9619, 
  "outgoing": 9620, 
  "ost": 9621, 
  "-Russian": 9622, 
  "re-elected": 9623, 
  "appointments": 9624, 
  "immoral": 9625, 
  "it-@@": 9626, 
  "Mes@@": 9627, 
  "tious": 9628, 
  "arrests": 9629, 
  "Catholics": 9630, 
  "impa@@": 9631, 
  "excitement": 9632, 
  "anti-globalization": 9633, 
  "encompas@@": 9634, 
  "indifferent": 9635, 
  "transit": 9636, 
  "shall": 9637, 
  "denominated": 9638, 
  "Presidency": 9639, 
  "Dick": 9640, 
  "violates": 9641, 
  "merit@@": 9642, 
  "vari@@": 9643, 
  "prohibi@@": 9644, 
  "Democracy": 9645, 
  "casts": 9646, 
  "euthanasia": 9647, 
  "alizations": 9648, 
  "deregu@@": 9649, 
  "p-@@": 9650, 
  "embryos": 9651, 
  "weigh@@": 9652, 
  "nud@@": 9653, 
  "iz@@": 9654, 
  "violating": 9655, 
  "allegations": 9656, 
  "assigned": 9657, 
  "turbines": 9658, 
  "Anglo-Saxon": 9659, 
  "diff@@": 9660, 
  "Iron": 9661, 
  "Mr": 9662, 
  "someday": 9663, 
  "belonging": 9664, 
  "greedy": 9665, 
  "questionable": 9666, 
  "Universal": 9667, 
  "Year": 9668, 
  "teaches": 9669, 
  "continuously": 9670, 
  "Ti@@": 9671, 
  "correc@@": 9672, 
  "domain": 9673, 
  "land-@@": 9674, 
  "summar@@": 9675, 
  "itting": 9676, 
  "prosper": 9677, 
  "random@@": 9678, 
  "chains": 9679, 
  "racist": 9680, 
  "describing": 9681, 
  "commissions": 9682, 
  "guiding": 9683, 
  "spur@@": 9684, 
  "specialists": 9685, 
  "persistence": 9686, 
  "unimaginable": 9687, 
  "brid@@": 9688, 
  "conducting": 9689, 
  "workplace": 9690, 
  "shield": 9691, 
  "abdu@@": 9692, 
  "legitimized": 9693, 
  "competi@@": 9694, 
  "franc": 9695, 
  "rand": 9696, 
  "rehabilitation": 9697, 
  "inspection": 9698, 
  "Investment": 9699, 
  "attended": 9700, 
  "vise": 9701, 
  "residential": 9702, 
  "rs": 9703, 
  "simp@@": 9704, 
  "slavery": 9705, 
  "ensured": 9706, 
  "betra@@": 9707, 
  "neo-conservative": 9708, 
  "icks": 9709, 
  "wildly": 9710, 
  "fragmentation": 9711, 
  "nomination": 9712, 
  "identifying": 9713, 
  "spil@@": 9714, 
  "guess@@": 9715, 
  "brigh@@": 9716, 
  "comprising": 9717, 
  "deficiency": 9718, 
  "need@@": 9719, 
  "revol@@": 9720, 
  "mouth": 9721, 
  "device": 9722, 
  "Budapest": 9723, 
  "importing": 9724, 
  "staying": 9725, 
  "Food": 9726, 
  "ep": 9727, 
  "viability": 9728, 
  "secrecy": 9729, 
  "descendants": 9730, 
  "culprit": 9731, 
  "round@@": 9732, 
  "atmospheric": 9733, 
  "implosion": 9734, 
  "dies": 9735, 
  "portrayed": 9736, 
  "elaborate": 9737, 
  "tit@@": 9738, 
  "keys": 9739, 
  "ren": 9740, 
  "ring@@": 9741, 
  "appearing": 9742, 
  "wa": 9743, 
  "East@@": 9744, 
  "Nicaragua": 9745, 
  "employing": 9746, 
  "Conventions": 9747, 
  "lical": 9748, 
  "catalyst": 9749, 
  "pop@@": 9750, 
  "bran@@": 9751, 
  "praised": 9752, 
  "Dmitri": 9753, 
  "phic": 9754, 
  "adi@@": 9755, 
  "repar@@": 9756, 
  "BBC": 9757, 
  "balance-of-@@": 9758, 
  "psychologists": 9759, 
  "conversation": 9760, 
  "NA@@": 9761, 
  "recovering": 9762, 
  "rig@@": 9763, 
  "ounce": 9764, 
  "endorsement": 9765, 
  "Len@@": 9766, 
  "signaled": 9767, 
  "rich@@": 9768, 
  "withdrew": 9769, 
  "suicidal": 9770, 
  "180": 9771, 
  "anim@@": 9772, 
  "Mas@@": 9773, 
  "ud": 9774, 
  "suc@@": 9775, 
  "spark": 9776, 
  "restrain": 9777, 
  "vers": 9778, 
  "drafting": 9779, 
  "Shin@@": 9780, 
  "nurtured": 9781, 
  "condu@@": 9782, 
  "blunt": 9783, 
  "stu@@": 9784, 
  "overha@@": 9785, 
  "desig@@": 9786, 
  "Americ@@": 9787, 
  "Columbia": 9788, 
  "capitalists": 9789, 
  "All": 9790, 
  "Deputy": 9791, 
  "adap@@": 9792, 
  "appe@@": 9793, 
  "glory": 9794, 
  "compact": 9795, 
  "PC": 9796, 
  "mandates": 9797, 
  "evaluation": 9798, 
  "dollar-denominated": 9799, 
  "coherence": 9800, 
  "19th": 9801, 
  "lecture": 9802, 
  "leisure": 9803, 
  "mili@@": 9804, 
  "Sup@@": 9805, 
  "liked": 9806, 
  "deficiencies": 9807, 
  "willingly": 9808, 
  "fli@@": 9809, 
  "tribunals": 9810, 
  "bailing": 9811, 
  "disrupt": 9812, 
  "chickens": 9813, 
  "ten-@@": 9814, 
  "Stockholm": 9815, 
  "G": 9816, 
  "impartial": 9817, 
  "mode": 9818, 
  "exuberance": 9819, 
  "phy": 9820, 
  "spac@@": 9821, 
  "distinctive": 9822, 
  "Milan": 9823, 
  "post-communist": 9824, 
  "jumped": 9825, 
  "stripped": 9826, 
  "monthly": 9827, 
  "functional": 9828, 
  "section": 9829, 
  "ales@@": 9830, 
  "lofty": 9831, 
  "defec@@": 9832, 
  "shut@@": 9833, 
  "corporatist": 9834, 
  "beside": 9835, 
  "At": 9836, 
  "exploration": 9837, 
  "dol@@": 9838, 
  "mates": 9839, 
  "authori@@": 9840, 
  "gene@@": 9841, 
  "Mac@@": 9842, 
  "exemp@@": 9843, 
  "spaw@@": 9844, 
  "villa@@": 9845, 
  "yielded": 9846, 
  "thed": 9847, 
  "vali@@": 9848, 
  "market-based": 9849, 
  "ala": 9850, 
  "onds": 9851, 
  "macro-@@": 9852, 
  "councils": 9853, 
  "seas@@": 9854, 
  "ces@@": 9855, 
  "Greater": 9856, 
  "hs": 9857, 
  "stun@@": 9858, 
  "referenda": 9859, 
  "Kissinger": 9860, 
  "depor@@": 9861, 
  "powerfully": 9862, 
  "merger": 9863, 
  "barred": 9864, 
  "rot@@": 9865, 
  "mercy": 9866, 
  "dispersed": 9867, 
  "empower": 9868, 
  "tate": 9869, 
  "yearning": 9870, 
  "upheavals": 9871, 
  "culturally": 9872, 
  "-the-@@": 9873, 
  "guerrillas": 9874, 
  "eman@@": 9875, 
  "roadmap": 9876, 
  "von": 9877, 
  "Mac": 9878, 
  "investig@@": 9879, 
  "acqu@@": 9880, 
  "Is": 9881, 
  "strife": 9882, 
  "succeeding": 9883, 
  "beli@@": 9884, 
  "nostalgic": 9885, 
  "San@@": 9886, 
  "prosecuted": 9887, 
  "pendulum": 9888, 
  "provoking": 9889, 
  "uncompetitive": 9890, 
  "terly": 9891, 
  "ops": 9892, 
  "ground@@": 9893, 
  "kets": 9894, 
  "announce": 9895, 
  "amounting": 9896, 
  "Ph@@": 9897, 
  "accomplishments": 9898, 
  "specialized": 9899, 
  "aspire": 9900, 
  "liable": 9901, 
  "occupations": 9902, 
  "reinforces": 9903, 
  "ponder": 9904, 
  "ods": 9905, 
  "avo@@": 9906, 
  "isola@@": 9907, 
  "assemb@@": 9908, 
  "ethnically": 9909, 
  "pouring": 9910, 
  "philosophers": 9911, 
  "random": 9912, 
  "literacy": 9913, 
  "frac@@": 9914, 
  "explod@@": 9915, 
  "stagflation": 9916, 
  "reconsider": 9917, 
  "swa@@": 9918, 
  "breakup": 9919, 
  "righte@@": 9920, 
  "swit@@": 9921, 
  "much-@@": 9922, 
  "lance": 9923, 
  "wr@@": 9924, 
  "1.2": 9925, 
  "sinking": 9926, 
  "handful": 9927, 
  "contexts": 9928, 
  "blockade": 9929, 
  "adequacy": 9930, 
  "Menem": 9931, 
  "xes": 9932, 
  "enter@@": 9933, 
  "ational": 9934, 
  "responsibly": 9935, 
  "junta": 9936, 
  "nes": 9937, 
  "reign": 9938, 
  "religi@@": 9939, 
  "efficacy": 9940, 
  "stan": 9941, 
  "airports": 9942, 
  "flag": 9943, 
  "ward-looking": 9944, 
  "petroleum": 9945, 
  "oming": 9946, 
  "devastation": 9947, 
  "Emp@@": 9948, 
  "once-@@": 9949, 
  "condi@@": 9950, 
  "Carter": 9951, 
  "intra-@@": 9952, 
  "mus": 9953, 
  "compound": 9954, 
  "granting": 9955, 
  "co": 9956, 
  "sem@@": 9957, 
  "Tibetans": 9958, 
  "associates": 9959, 
  "wonders": 9960, 
  "Federation": 9961, 
  "facilitated": 9962, 
  "Europe@@": 9963, 
  "Heights": 9964, 
  "lad@@": 9965, 
  "pretext": 9966, 
  "junior": 9967, 
  "tipping": 9968, 
  "inher@@": 9969, 
  "ese": 9970, 
  "anonymous": 9971, 
  "yard": 9972, 
  "infamous": 9973, 
  "Regi@@": 9974, 
  "mbled": 9975, 
  "plunged": 9976, 
  "inconsistent": 9977, 
  "conceivable": 9978, 
  "senators": 9979, 
  "entang@@": 9980, 
  "Czechs": 9981, 
  "quoted": 9982, 
  "hearings": 9983, 
  "paved": 9984, 
  "rying": 9985, 
  "worldview": 9986, 
  "spectacle": 9987, 
  "top-@@": 9988, 
  "emotion": 9989, 
  "district": 9990, 
  "patri@@": 9991, 
  "bury": 9992, 
  "elev@@": 9993, 
  "bind": 9994, 
  "mir@@": 9995, 
  "outlined": 9996, 
  "hind@@": 9997, 
  "boat": 9998, 
  "regulator": 9999, 
  "full-time": 10000, 
  "diverted": 10001, 
  "tary": 10002, 
  "devaluations": 10003, 
  "unbalanced": 10004, 
  "gun@@": 10005, 
  "alien@@": 10006, 
  "meters": 10007, 
  "charitable": 10008, 
  "document@@": 10009, 
  "VAT": 10010, 
  "presid@@": 10011, 
  "mid-1990": 10012, 
  "deadlock": 10013, 
  "Bahrain": 10014, 
  "ffected": 10015, 
  "unanimity": 10016, 
  "repeating": 10017, 
  "eded": 10018, 
  "ingrained": 10019, 
  "authorized": 10020, 
  "patriotic": 10021, 
  "Po@@": 10022, 
  "lowing": 10023, 
  "rupture": 10024, 
  "rav@@": 10025, 
  "working-age": 10026, 
  "tape": 10027, 
  "inva@@": 10028, 
  "sibility": 10029, 
  "diamonds": 10030, 
  "declarations": 10031, 
  "eter@@": 10032, 
  "colum@@": 10033, 
  "Ver@@": 10034, 
  "orph@@": 10035, 
  "merchan@@": 10036, 
  "criticizing": 10037, 
  "ert": 10038, 
  "Mul@@": 10039, 
  "proximity": 10040, 
  "rough@@": 10041, 
  "library": 10042, 
  "Em@@": 10043, 
  "stru@@": 10044, 
  "cataly@@": 10045, 
  "mechan@@": 10046, 
  "wast@@": 10047, 
  "monetary-policy": 10048, 
  "landslide": 10049, 
  "real-@@": 10050, 
  "Os@@": 10051, 
  "nings": 10052, 
  "federalism": 10053, 
  "tis@@": 10054, 
  "constituency": 10055, 
  "destined": 10056, 
  "grab": 10057, 
  "interpre@@": 10058, 
  "blown": 10059, 
  "Dominique": 10060, 
  "appropriately": 10061, 
  "manufactures": 10062, 
  "plummeted": 10063, 
  "200,000": 10064, 
  "fleeing": 10065, 
  "wound": 10066, 
  "burn": 10067, 
  "colonies": 10068, 
  "blaming": 10069, 
  "predicting": 10070, 
  "escalate": 10071, 
  "squab@@": 10072, 
  "Marx@@": 10073, 
  "full-scale": 10074, 
  "outflows": 10075, 
  "revision": 10076, 
  "tantamount": 10077, 
  "worlds": 10078, 
  "EU@@": 10079, 
  "dilemmas": 10080, 
  "Rivero": 10081, 
  "vitality": 10082, 
  "thesis": 10083, 
  "soli@@": 10084, 
  "therland": 10085, 
  "Deal": 10086, 
  "len": 10087, 
  "appla@@": 10088, 
  "bicy@@": 10089, 
  "Mol@@": 10090, 
  "trump": 10091, 
  "rivers": 10092, 
  "tripled": 10093, 
  "1960s": 10094, 
  "Rom@@": 10095, 
  "alty": 10096, 
  "fted": 10097, 
  "bullets": 10098, 
  "wings": 10099, 
  "53": 10100, 
  "materialize": 10101, 
  "municipal": 10102, 
  "dampen": 10103, 
  "tis": 10104, 
  "happily": 10105, 
  "32": 10106, 
  "requested": 10107, 
  "halted": 10108, 
  "194@@": 10109, 
  "fulness": 10110, 
  "marke@@": 10111, 
  "backgrounds": 10112, 
  "disappearing": 10113, 
  "plau@@": 10114, 
  "cov@@": 10115, 
  "opens": 10116, 
  "underestimate": 10117, 
  "proportional": 10118, 
  "cong@@": 10119, 
  "seces@@": 10120, 
  "2.4": 10121, 
  "disarm": 10122, 
  "Yen": 10123, 
  "ld": 10124, 
  "So@@": 10125, 
  "correcting": 10126, 
  "swaps": 10127, 
  "IF@@": 10128, 
  "workable": 10129, 
  "DP": 10130, 
  "ko@@": 10131, 
  "substitution": 10132, 
  "proteins": 10133, 
  "curr@@": 10134, 
  "healthier": 10135, 
  "2.3": 10136, 
  "married": 10137, 
  "extrapo@@": 10138, 
[...]
