{
  "eos": 0, 
  "UNK": 1, 
  "(NP": 2, 
  ")NP": 3, 
  "(VP": 4, 
  ")VP": 5, 
  ")PP": 6, 
  "(PP": 7, 
  ")S": 8, 
  "(S": 9, 
  "the": 10, 
  ",": 11, 
  "(S1": 12, 
  ")S1": 13, 
  ".": 14, 
  "(SBAR": 15, 
  ")SBAR": 16, 
  "of": 17, 
  ")ADVP": 18, 
  "(ADVP": 19, 
  "to": 20, 
  "and": 21, 
  "(ADJP": 22, 
  ")ADJP": 23, 
  "in": 24, 
  "a": 25, 
  "'@@": 26, 
  "that": 27, 
  "is": 28, 
  ")WHNP": 29, 
  "(WHNP": 30, 
  "s": 31, 
  "for": 32, 
  "as": 33, 
  "it": 34, 
  "be": 35, 
  "are": 36, 
  "not": 37, 
  "on": 38, 
  "with": 39, 
  "but": 40, 
  "-": 41, 
  "by": 42, 
  "'": 43, 
  "have": 44, 
  "has": 45, 
  "this": 46, 
  "will": 47, 
  "``": 48, 
  "from": 49, 
  "their": 50, 
  "its": 51, 
  "an": 52, 
  "(PRN": 53, 
  ")PRN": 54, 
  ")WHADVP": 55, 
  "(WHADVP": 56, 
  "more": 57, 
  "was": 58, 
  "they": 59, 
  "at": 60, 
  "or": 61, 
  "(PRT": 62, 
  ")PRT": 63, 
  "would": 64, 
  "can": 65, 
  "countries": 66, 
  "US": 67, 
  "which": 68, 
  "than": 69, 
  ")QP": 70, 
  "(QP": 71, 
  "world": 72, 
  "if": 73, 
  "we": 74, 
  "all": 75, 
  "one": 76, 
  "-RRB-": 77, 
  "-LRB-": 78, 
  "been": 79, 
  "so": 80, 
  "only": 81, 
  "China": 82, 
  "economic": 83, 
  "his": 84, 
  "new": 85, 
  ":": 86, 
  "there": 87, 
  "government": 88, 
  "no": 89, 
  "other": 90, 
  "political": 91, 
  "even": 92, 
  "about": 93, 
  "%": 94, 
  "should": 95, 
  "when": 96, 
  "such": 97, 
  "who": 98, 
  "were": 99, 
  "now": 100, 
  "also": 101, 
  "Europe": 102, 
  "these": 103, 
  "most": 104, 
  "what": 105, 
  "people": 106, 
  "many": 107, 
  ";": 108, 
  "he": 109, 
  "some": 110, 
  "do": 111, 
  "could": 112, 
  "global": 113, 
  "?": 114, 
  "years": 115, 
  "European": 116, 
  ")SQ": 117, 
  "(SQ": 118, 
  "financial": 119, 
  "country": 120, 
  "growth": 121, 
  "because": 122, 
  "must": 123, 
  "into": 124, 
  "may": 125, 
  "America": 126, 
  "had": 127, 
  "much": 128, 
  "power": 129, 
  "over": 130, 
  "time": 131, 
  "them": 132, 
  ")CONJP": 133, 
  "(CONJP": 134, 
  "economy": 135, 
  "policy": 136, 
  "out": 137, 
  "while": 138, 
  "between": 139, 
  "after": 140, 
  "up": 141, 
  "those": 142, 
  "like": 143, 
  "Russia": 144, 
  "EU": 145, 
  "I": 146, 
  "crisis": 147, 
  "our": 148, 
  "international": 149, 
  "first": 150, 
  "two": 151, 
  "any": 152, 
  "public": 153, 
  "both": 154, 
  "well": 155, 
  "how": 156, 
  "against": 157, 
  "indeed": 158, 
  "today": 159, 
  "way": 160, 
  "system": 161, 
  "(WHPP": 162, 
  ")WHPP": 163, 
  "United": 164, 
  "year": 165, 
  "state": 166, 
  "need": 167, 
  "market": 168, 
  "too": 169, 
  "American": 170, 
  "less": 171, 
  "t": 172, 
  "make": 173, 
  "military": 174, 
  "just": 175, 
  "markets": 176, 
  "own": 177, 
  "change": 178, 
  "does": 179, 
  "become": 180, 
  "since": 181, 
  "last": 182, 
  "war": 183, 
  "where": 184, 
  ")SBARQ": 185, 
  "(SBARQ": 186, 
  "leaders": 187, 
  "debt": 188, 
  "national": 189, 
  "support": 190, 
  "n@@": 191, 
  "$": 192, 
  "trade": 193, 
  "-@@": 194, 
  "yet": 195, 
  "President": 196, 
  "governments": 197, 
  "still": 198, 
  "banks": 199, 
  "long": 200, 
  "without": 201, 
  "un@@": 202, 
  "far": 203, 
  "foreign": 204, 
  "being": 205, 
  "same": 206, 
  "might": 207, 
  "did": 208, 
  "future": 209, 
  "important": 210, 
  "through": 211, 
  "example": 212, 
  "rates": 213, 
  "recent": 214, 
  "then": 215, 
  "high": 216, 
  "social": 217, 
  "Japan": 218, 
  "interest": 219, 
  "policies": 220, 
  "Chinese": 221, 
  "States": 222, 
  "Iraq": 223, 
  "real": 224, 
  "(FRAG": 225, 
  ")FRAG": 226, 
  "Israel": 227, 
  "under": 228, 
  "end": 229, 
  "made": 230, 
  "India": 231, 
  "security": 232, 
  "re@@": 233, 
  "current": 234, 
  "good": 235, 
  "capital": 236, 
  "fiscal": 237, 
  "likely": 238, 
  "democracy": 239, 
  "right": 240, 
  "take": 241, 
  "prices": 242, 
  "human": 243, 
  "large": 244, 
  "before": 245, 
  "course": 246, 
  "part": 247, 
  "states": 248, 
  "rather": 249, 
  "nuclear": 250, 
  "rate": 251, 
  "very": 252, 
  "work": 253, 
  ")UCP": 254, 
  "(UCP": 255, 
  "development": 256, 
  "use": 257, 
  "Germany": 258, 
  "problem": 259, 
  "another": 260, 
  "past": 261, 
  "investment": 262, 
  "us": 263, 
  "however": 264, 
  "better": 265, 
  "energy": 266, 
  "Bush": 267, 
  "Iran": 268, 
  "risk": 269, 
  "often": 270, 
  "Union": 271, 
  "major": 272, 
  "during": 273, 
  "oil": 274, 
  "including": 275, 
  "result": 276, 
  "you": 277, 
  "help": 278, 
  "why": 279, 
  "billion": 280, 
  "problems": 281, 
  "fact": 282, 
  "institutions": 283, 
  "order": 284, 
  "thus": 285, 
  "three": 286, 
  "money": 287, 
  "economies": 288, 
  "moreover": 289, 
  "few": 290, 
  "able": 291, 
  "whether": 292, 
  "little": 293, 
  "among": 294, 
  "around": 295, 
  "Obama": 296, 
  "poor": 297, 
  "West": 298, 
  "--": 299, 
  "rights": 300, 
  "East": 301, 
  "given": 302, 
  "tax": 303, 
  "France": 304, 
  "down": 305, 
  "means": 306, 
  "process": 307, 
  "role": 308, 
  "region": 309, 
  "back": 310, 
  "developing": 311, 
  "ed": 312, 
  "already": 313, 
  "others": 314, 
  "Bank": 315, 
  "members": 316, 
  "different": 317, 
  "second": 318, 
  "GDP": 319, 
  "increase": 320, 
  "central": 321, 
  "reform": 322, 
  "case": 323, 
  "demand": 324, 
  "spending": 325, 
  "higher": 326, 
  "within": 327, 
  "ing": 328, 
  "democratic": 329, 
  "least": 330, 
  "Asia": 331, 
  "clear": 332, 
  "needs": 333, 
  "come": 334, 
  "ago": 335, 
  "private": 336, 
  "almost": 337, 
  "next": 338, 
  "law": 339, 
  ")SINV": 340, 
  "(SINV": 341, 
  "life": 342, 
  "led": 343, 
  "million": 344, 
  "each": 345, 
  "itself": 346, 
  "peace": 347, 
  "never": 348, 
  "needed": 349, 
  "point": 350, 
  "&": 351, 
  "in@@": 352, 
  "domestic": 353, 
  "strong": 354, 
  "history": 355, 
  "greater": 356, 
  "inflation": 357, 
  "society": 358, 
  "perhaps": 359, 
  "price": 360, 
  "remains": 361, 
  "seems": 362, 
  "World": 363, 
  "regime": 364, 
  "free": 365, 
  "women": 366, 
  "costs": 367, 
  "income": 368, 
  "control": 369, 
  "Africa": 370, 
  "despite": 371, 
  "remain": 372, 
  "health": 373, 
  "see": 374, 
  ")NX": 375, 
  "(NX": 376, 
  "once": 377, 
  "interests": 378, 
  "continue": 379, 
  "put": 380, 
  "currency": 381, 
  "administration": 382, 
  "climate": 383, 
  "politics": 384, 
  "force": 385, 
  "used": 386, 
  "every": 387, 
  "especially": 388, 
  "French": 389, 
  "possible": 390, 
  "rise": 391, 
  "common": 392, 
  "off": 393, 
  "further": 394, 
  "growing": 395, 
  "want": 396, 
  "say": 397, 
  "themselves": 398, 
  "IMF": 399, 
  "best": 400, 
  "euro": 401, 
  "UN": 402, 
  "population": 403, 
  "difficult": 404, 
  "former": 405, 
  "level": 406, 
  "great": 407, 
  "number": 408, 
  "president": 409, 
  "Arab": 410, 
  "The": 411, 
  "es": 412, 
  "place": 413, 
  "Western": 414, 
  "him": 415, 
  "get": 416, 
  "true": 417, 
  "set": 418, 
  "election": 419, 
  "longer": 420, 
  "enough": 421, 
  "question": 422, 
  "recently": 423, 
  "go": 424, 
  "forces": 425, 
  "based": 426, 
  "resources": 427, 
  "Turkey": 428, 
  "Putin": 429, 
  "eurozone": 430, 
  "instead": 431, 
  "business": 432, 
  "dollar": 433, 
  "companies": 434, 
  "decades": 435, 
  "my": 436, 
  "believe": 437, 
  "small": 438, 
  "member": 439, 
  "South": 440, 
  "again": 441, 
  "though": 442, 
  "monetary": 443, 
  "sense": 444, 
  "provide": 445, 
  "century": 446, 
  "citizens": 447, 
  "ever": 448, 
  "Russian": 449, 
  "key": 450, 
  "stability": 451, 
  "know": 452, 
  "lead": 453, 
  "efforts": 454, 
  "face": 455, 
  "issues": 456, 
  "old": 457, 
  "left": 458, 
  "unemployment": 459, 
  "Americans": 460, 
  "rule": 461, 
  "sector": 462, 
  "long-term": 463, 
  "terms": 464, 
  "benefits": 465, 
  "serious": 466, 
  "Middle": 467, 
  "reforms": 468, 
  "cost": 469, 
  "Korea": 470, 
  "view": 471, 
  "simply": 472, 
  "leadership": 473, 
  "early": 474, 
  "always": 475, 
  "making": 476, 
  "War": 477, 
  "rich": 478, 
  "per": 479, 
  "low": 480, 
  ")INTJ": 481, 
  "(INTJ": 482, 
  "issue": 483, 
  "education": 484, 
  "reduce": 485, 
  "exchange": 486, 
  "labor": 487, 
  "until": 488, 
  "elections": 489, 
  "although": 490, 
  "party": 491, 
  "big": 492, 
  "increasingly": 493, 
  "Palestinian": 494, 
  "find": 495, 
  "particularly": 496, 
  "reason": 497, 
  "ated": 498, 
  "poverty": 499, 
  "research": 500, 
  "hard": 501, 
  "value": 502, 
  "North": 503, 
  "times": 504, 
  "regional": 505, 
  "community": 506, 
  "workers": 507, 
  "local": 508, 
  "budget": 509, 
  "home": 510, 
  "relations": 511, 
  "strategy": 512, 
  "credit": 513, 
  "said": 514, 
  "investors": 515, 
  "emerging": 516, 
  "politicians": 517, 
  "conflict": 518, 
  "children": 519, 
  "bank": 520, 
  "deficit": 521, 
  "her": 522, 
  "decade": 523, 
  "lower": 524, 
  "parties": 525, 
  "turn": 526, 
  "whose": 527, 
  "run": 528, 
  "Council": 529, 
  "approach": 530, 
  "day": 531, 
  "ate": 532, 
  "al": 533, 
  "create": 534, 
  "open": 535, 
  "risks": 536, 
  "effective": 537, 
  "services": 538, 
  "action": 539, 
  "several": 540, 
  "finance": 541, 
  "form": 542, 
  "non-@@": 543, 
  "Minister": 544, 
  "fall": 545, 
  "c@@": 546, 
  "share": 547, 
  "ways": 548, 
  "together": 549, 
  "increased": 550, 
  "think": 551, 
  "jobs": 552, 
  "violence": 553, 
  "rising": 554, 
  "developed": 555, 
  "Party": 556, 
  "levels": 557, 
  "hope": 558, 
  "pay": 559, 
  "ting": 560, 
  "similar": 561, 
  "seen": 562, 
  "groups": 563, 
  "ation": 564, 
  "potential": 565, 
  "opposition": 566, 
  "called": 567, 
  "information": 568, 
  "necessary": 569, 
  "threat": 570, 
  "NATO": 571, 
  "Afghanistan": 572, 
  "return": 573, 
  "done": 574, 
  "success": 575, 
  "officials": 576, 
  "seem": 577, 
  "toward": 578, 
  "nor": 579, 
  "Soviet": 580, 
  "measures": 581, 
  "weapons": 582, 
  "agreement": 583, 
  "across": 584, 
  "challenge": 585, 
  "cause": 586, 
  "Pakistan": 587, 
  "rules": 588, 
  "idea": 589, 
  "changes": 590, 
  "(X": 591, 
  ")X": 592, 
  "y": 593, 
  "deal": 594, 
  "failed": 595, 
  "ted": 596, 
  "lack": 597, 
  "short": 598, 
  "balance": 599, 
  "nothing": 600, 
  "recession": 601, 
  "failure": 602, 
  "majority": 603, 
  "according": 604, 
  "conditions": 605, 
  "taken": 606, 
  "Latin": 607, 
  "position": 608, 
  "firms": 609, 
  "ts": 610, 
  "half": 611, 
  "rest": 612, 
  "months": 613, 
  "powerful": 614, 
  "main": 615, 
  "British": 616, 
  "modern": 617, 
  "away": 618, 
  "influence": 619, 
  "makes": 620, 
  "er": 621, 
  "became": 622, 
  "something": 623, 
  "ating": 624, 
  "really": 625, 
  "beyond": 626, 
  "pressure": 627, 
  "20": 628, 
  "values": 629, 
  "production": 630, 
  "freedom": 631, 
  "food": 632, 
  "group": 633, 
  "look": 634, 
  "requires": 635, 
  "either": 636, 
  "debate": 637, 
  "give": 638, 
  "young": 639, 
  "term": 640, 
  "deficits": 641, 
  "systems": 642, 
  "huge": 643, 
  "technology": 644, 
  "fear": 645, 
  "here": 646, 
  "aid": 647, 
  "assets": 648, 
  "found": 649, 
  "bad": 650, 
  "religious": 651, 
  "leading": 652, 
  "created": 653, 
  "civil": 654, 
  "prevent": 655, 
  "increasing": 656, 
  "significant": 657, 
  "Europeans": 658, 
  "s@@": 659, 
  "progress": 660, 
  "bring": 661, 
  "ability": 662, 
  "Central": 663, 
  "lost": 664, 
  "media": 665, 
  "German": 666, 
  "age": 667, 
  "having": 668, 
  "massive": 669, 
  "ers": 670, 
  "/@@": 671, 
  "keep": 672, 
  "model": 673, 
  "water": 674, 
  "strategic": 675, 
  "banking": 676, 
  "legal": 677, 
  "response": 678, 
  "consider": 679, 
  "areas": 680, 
  "program": 681, 
  "start": 682, 
  "dis@@": 683, 
  "doing": 684, 
  "Britain": 685, 
  "decline": 686, 
  "employment": 687, 
  "globalization": 688, 
  "leader": 689, 
  "natural": 690, 
  "later": 691, 
  "play": 692, 
  "five": 693, 
  "anti-@@": 694, 
  "1990": 695, 
  "matter": 696, 
  "consequences": 697, 
  "access": 698, 
  "ECB": 699, 
  "over@@": 700, 
  "things": 701, 
  "single": 702, 
  "exports": 703, 
  "impact": 704, 
  "official": 705, 
  "Ukraine": 706, 
  "challenges": 707, 
  "corruption": 708, 
  "alone": 709, 
  "Greece": 710, 
  "situation": 711, 
  "effect": 712, 
  "advanced": 713, 
  "began": 714, 
  "finally": 715, 
  "period": 716, 
  "move": 717, 
  "ensure": 718, 
  "terrorism": 719, 
  "full": 720, 
  "probably": 721, 
  "Muslim": 722, 
  "live": 723, 
  "four": 724, 
  "presidential": 725, 
  "let": 726, 
  "Asian": 727, 
  "2008": 728, 
  "Prime": 729, 
  "late": 730, 
  "cooperation": 731, 
  "Italy": 732, 
  "worse": 733, 
  "Commission": 734, 
  "consumption": 735, 
  "average": 736, 
  "defense": 737, 
  "care": 738, 
  "soon": 739, 
  "individual": 740, 
  "clearly": 741, 
  "close": 742, 
  "fundamental": 743, 
  "evidence": 744, 
  "de@@": 745, 
  "job": 746, 
  "wealth": 747, 
  "nations": 748, 
  "behind": 749, 
  "#": 750, 
  "men": 751, 
  "integration": 752, 
  "total": 753, 
  "funds": 754, 
  "wrong": 755, 
  "effort": 756, 
  "focus": 757, 
  "require": 758, 
  "emissions": 759, 
  "recovery": 760, 
  "solution": 761, 
  "10": 762, 
  "lives": 763, 
  "goods": 764, 
  "effects": 765, 
  "Islamic": 766, 
  "opportunity": 767, 
  "confidence": 768, 
  "programs": 769, 
  "third": 770, 
  "taking": 771, 
  "popular": 772, 
  "hand": 773, 
  "experience": 774, 
  "side": 775, 
  "Japanese": 776, 
  "taxes": 777, 
  "mean": 778, 
  "traditional": 779, 
  "p@@": 780, 
  "collapse": 781, 
  "she": 782, 
  "living": 783, 
  "cut": 784, 
  "t@@": 785, 
  "science": 786, 
  "took": 787, 
  "Fund": 788, 
  "capacity": 789, 
  "came": 790, 
  "moral": 791, 
  "Egypt": 792, 
  "decision": 793, 
  "man": 794, 
  "achieve": 795, 
  "comes": 796, 
  "everyone": 797, 
  "gas": 798, 
  "allow": 799, 
  "Israeli": 800, 
  "powers": 801, 
  "Hamas": 802, 
  "act": 803, 
  "International": 804, 
  "S@@": 805, 
  "vote": 806, 
  "attention": 807, 
  "coming": 808, 
  "held": 809, 
  "working": 810, 
  "o": 811, 
  "largely": 812, 
  "hold": 813, 
  "y@@": 814, 
  "understand": 815, 
  "1": 816, 
  "top": 817, 
  "Security": 818, 
  "Brazil": 819, 
  "following": 820, 
  "avoid": 821, 
  "particular": 822, 
  "me": 823, 
  "di@@": 824, 
  "largest": 825, 
  "using": 826, 
  "campaign": 827, 
  "New": 828, 
  "negotiations": 829, 
  "Spain": 830, 
  "competition": 831, 
  "plan": 832, 
  "economists": 833, 
  "benefit": 834, 
  "successful": 835, 
  "cases": 836, 
  "e": 837, 
  "ti@@": 838, 
  "reality": 839, 
  "limited": 840, 
  "Palestinians": 841, 
  "responsibility": 842, 
  "kind": 843, 
  "call": 844, 
  "line": 845, 
  "industrial": 846, 
  "above": 847, 
  "produce": 848, 
  "annual": 849, 
  "d@@": 850, 
  "expected": 851, 
  "C@@": 852, 
  "reasons": 853, 
  "50": 854, 
  "supply": 855, 
  "actually": 856, 
  "outside": 857, 
  "basic": 858, 
  "decisions": 859, 
  "culture": 860, 
  "cuts": 861, 
  "towards": 862, 
  "infrastructure": 863, 
  "contrast": 864, 
  "status": 865, 
  "certain": 866, 
  "step": 867, 
  "o@@": 868, 
  "brought": 869, 
  "show": 870, 
  "attacks": 871, 
  "alternative": 872, 
  "known": 873, 
  "minister": 874, 
  "independent": 875, 
  "relative": 876, 
  "rapid": 877, 
  "en@@": 878, 
  "ates": 879, 
  "self-@@": 880, 
  "relatively": 881, 
  "governance": 882, 
  "highly": 883, 
  "death": 884, 
  "African": 885, 
  "stock": 886, 
  "accept": 887, 
  "ly": 888, 
  "thought": 889, 
  "con@@": 890, 
  "certainly": 891, 
  "Mexico": 892, 
  "land": 893, 
  "30": 894, 
  "general": 895, 
  "revolution": 896, 
  "address": 897, 
  "behavior": 898, 
  "results": 899, 
  "productivity": 900, 
  "family": 901, 
  "building": 902, 
  "days": 903, 
  "de": 904, 
  "standards": 905, 
  "bonds": 906, 
  "direct": 907, 
  "concerns": 908, 
  "authorities": 909, 
  "voters": 910, 
  "environment": 911, 
  "era": 912, 
  "weak": 913, 
  "fully": 914, 
  "words": 915, 
  "allowed": 916, 
  "environmental": 917, 
  "nearly": 918, 
  "stimulus": 919, 
  "elsewhere": 920, 
  "Nations": 921, 
  "b@@": 922, 
  "protect": 923, 
  "sometimes": 924, 
  "throughout": 925, 
  "e@@": 926, 
  "agenda": 927, 
  "re-@@": 928, 
  "neither": 929, 
  "build": 930, 
  "warming": 931, 
  "fight": 932, 
  "appears": 933, 
  "scientific": 934, 
  "structural": 935, 
  "unlikely": 936, 
  "2": 937, 
  "respect": 938, 
  "helped": 939, 
  "creating": 940, 
  "forced": 941, 
  "deep": 942, 
  "easy": 943, 
  "Great": 944, 
  "independence": 945, 
  "investments": 946, 
  "intervention": 947, 
  "larger": 948, 
  "crises": 949, 
  "individuals": 950, 
  "due": 951, 
  "thing": 952, 
  "answer": 953, 
  "unfortunately": 954, 
  "meeting": 955, 
  "nation": 956, 
  "2009": 957, 
  "caused": 958, 
  "maintain": 959, 
  "stop": 960, 
  "industry": 961, 
  "dangerous": 962, 
  "2010": 963, 
  "millions": 964, 
  "goal": 965, 
  "news": 966, 
  "argue": 967, 
  "eventually": 968, 
  "quickly": 969, 
  "insurance": 970, 
  "societies": 971, 
  "required": 972, 
  "movement": 973, 
  "nbsp": 974, 
  "cultural": 975, 
  "ten": 976, 
  "nature": 977, 
  "commitment": 978, 
  "f@@": 979, 
  "September": 980, 
  "becoming": 981, 
  "ch@@": 982, 
  "events": 983, 
  "Syria": 984, 
  "parts": 985, 
  "turned": 986, 
  "reserves": 987, 
  "housing": 988, 
  "merely": 989, 
  "followed": 990, 
  "reducing": 991, 
  "established": 992, 
  "co@@": 993, 
  "include": 994, 
  "th": 995, 
  "claim": 996, 
  "policymakers": 997, 
  "elected": 998, 
  "union": 999, 
  "dollars": 1000, 
  "simple": 1001, 
  "sure": 1002, 
  "H@@": 1003, 
  "therefore": 1004, 
  "basis": 1005, 
  "along": 1006, 
  "outcome": 1007, 
  "generation": 1008, 
  "shift": 1009, 
  "moment": 1010, 
  "Argentina": 1011, 
  "provided": 1012, 
  "a@@": 1013, 
  "1980": 1014, 
  "whole": 1015, 
  "ally": 1016, 
  "thinking": 1017, 
  "reach": 1018, 
  "offer": 1019, 
  "external": 1020, 
  "owing": 1021, 
  "g@@": 1022, 
  "area": 1023, 
  "li@@": 1024, 
  "seek": 1025, 
  "carbon": 1026, 
  "report": 1027, 
  "performance": 1028, 
  "currently": 1029, 
  "disease": 1030, 
  "going": 1031, 
  "entire": 1032, 
  "membership": 1033, 
  "relationship": 1034, 
  "mass": 1035, 
  "Gaza": 1036, 
  "liberal": 1037, 
  "account": 1038, 
  "beginning": 1039, 
  "assistance": 1040, 
  "organizations": 1041, 
  "increases": 1042, 
  "similarly": 1043, 
  "3": 1044, 
  "month": 1045, 
  "meet": 1046, 
  "choice": 1047, 
  "police": 1048, 
  "feel": 1049, 
  "George": 1050, 
  "terrorist": 1051, 
  "2000": 1052, 
  "creation": 1053, 
  "P@@": 1054, 
  "attack": 1055, 
  "ar@@": 1056, 
  "questions": 1057, 
  "2001": 1058, 
  "your": 1059, 
  "London": 1060, 
  "recognize": 1061, 
  "loss": 1062, 
  "A@@": 1063, 
  "critical": 1064, 
  "internal": 1065, 
  "ous": 1066, 
  "office": 1067, 
  "am": 1068, 
  "begin": 1069, 
  "wants": 1070, 
  "40": 1071, 
  "Treaty": 1072, 
  "source": 1073, 
  "l@@": 1074, 
  "chance": 1075, 
  "concern": 1076, 
  "economics": 1077, 
  "im@@": 1078, 
  "knowledge": 1079, 
  "size": 1080, 
  "regions": 1081, 
  "160": 1082, 
  "willing": 1083, 
  "sh@@": 1084, 
  "Washington": 1085, 
  "complex": 1086, 
  "regulation": 1087, 
  "institutional": 1088, 
  "N@@": 1089, 
  "roughly": 1090, 
  "sustainable": 1091, 
  "authority": 1092, 
  "e-@@": 1093, 
  "Poland": 1094, 
  "improve": 1095, 
  "incentives": 1096, 
  "ties": 1097, 
  "ideas": 1098, 
  "zed": 1099, 
  "raise": 1100, 
  "k": 1101, 
  "management": 1102, 
  "legitimacy": 1103, 
  "corporate": 1104, 
  "proposed": 1105, 
  "army": 1106, 
  "grow": 1107, 
  "tion": 1108, 
  "2007": 1109, 
  "Saudi": 1110, 
  "obvious": 1111, 
  "trying": 1112, 
  "victory": 1113, 
  "drug": 1114, 
  "talks": 1115, 
  "available": 1116, 
  "Islam": 1117, 
  "positive": 1118, 
  "st@@": 1119, 
  "prime": 1120, 
  "principle": 1121, 
  "Congress": 1122, 
  "Sarkozy": 1123, 
  "products": 1124, 
  "impossible": 1125, 
  "essential": 1126, 
  "personal": 1127, 
  "actions": 1128, 
  "i@@": 1129, 
  "historical": 1130, 
  "politically": 1131, 
  "differences": 1132, 
  "laws": 1133, 
  "anything": 1134, 
  "path": 1135, 
  "continued": 1136, 
  "under@@": 1137, 
  "develop": 1138, 
  "fail": 1139, 
  "summit": 1140, 
  "savings": 1141, 
  "ans": 1142, 
  "promote": 1143, 
  "export": 1144, 
  "reduced": 1145, 
  "ultimately": 1146, 
  "ations": 1147, 
  "technologies": 1148, 
  "easily": 1149, 
  "an@@": 1150, 
  "vision": 1151, 
  "spread": 1152, 
  "capitalism": 1153, 
  "paid": 1154, 
  "scale": 1155, 
  "so-called": 1156, 
  "try": 1157, 
  "damage": 1158, 
  "losses": 1159, 
  "ethnic": 1160, 
  "appear": 1161, 
  "transition": 1162, 
  "opportunities": 1163, 
  "head": 1164, 
  "rapidly": 1165, 
  "understanding": 1166, 
  "E@@": 1167, 
  "gain": 1168, 
  "changed": 1169, 
  "w@@": 1170, 
  "Barack": 1171, 
  "2005": 1172, 
  "unless": 1173, 
  "factors": 1174, 
  "press": 1175, 
  "ri@@": 1176, 
  "L@@": 1177, 
  "cities": 1178, 
  "welfare": 1179, 
  "saving": 1180, 
  "ahead": 1181, 
  "al-@@": 1182, 
  "theory": 1183, 
  "continues": 1184, 
  "justice": 1185, 
  "consensus": 1186, 
  "company": 1187, 
  "v@@": 1188, 
  "lending": 1189, 
  "boom": 1190, 
  "opinion": 1191, 
  "aimed": 1192, 
  "wars": 1193, 
  "2004": 1194, 
  "d": 1195, 
  "save": 1196, 
  "le": 1197, 
  "matters": 1198, 
  "additional": 1199, 
  "core": 1200, 
  "Lebanon": 1201, 
  "or@@": 1202, 
  "M@@": 1203, 
  "suggests": 1204, 
  "Fed": 1205, 
  "competitive": 1206, 
  "himself": 1207, 
  "special": 1208, 
  "Muslims": 1209, 
  "II": 1210, 
  "forward": 1211, 
  "committed": 1212, 
  "Indian": 1213, 
  "15": 1214, 
  "sides": 1215, 
  "story": 1216, 
  "asset": 1217, 
  "11": 1218, 
  "be@@": 1219, 
  "le@@": 1220, 
  "pre@@": 1221, 
  "seemed": 1222, 
  "protection": 1223, 
  "trillion": 1224, 
  "quality": 1225, 
  "tions": 1226, 
  "on@@": 1227, 
  "25": 1228, 
  "troops": 1229, 
  "treatment": 1230, 
  "extreme": 1231, 
  "prosperity": 1232, 
  "stable": 1233, 
  "D@@": 1234, 
  "financing": 1235, 
  "Kosovo": 1236, 
  "inequality": 1237, 
  "demands": 1238, 
  "default": 1239, 
  "loans": 1240, 
  "Georgia": 1241, 
  "directly": 1242, 
  "constitution": 1243, 
  "ant": 1244, 
  "Eastern": 1245, 
  "buy": 1246, 
  "follow": 1247, 
  "G@@": 1248, 
  "various": 1249, 
  "output": 1250, 
  "responsible": 1251, 
  "5": 1252, 
  "claims": 1253, 
  "diplomatic": 1254, 
  "asked": 1255, 
  "allies": 1256, 
  "agreed": 1257, 
  "six": 1258, 
  "class": 1259, 
  "usually": 1260, 
  "started": 1261, 
  "National": 1262, 
  "vast": 1263, 
  "expect": 1264, 
  "immediate": 1265, 
  "doubt": 1266, 
  "net": 1267, 
  "existing": 1268, 
  "steps": 1269, 
  "present": 1270, 
  "leave": 1271, 
  "households": 1272, 
  "happened": 1273, 
  "coalition": 1274, 
  "whatever": 1275, 
  "difference": 1276, 
  "thousands": 1277, 
  "importance": 1278, 
  "Iraqi": 1279, 
  "upon": 1280, 
  "democracies": 1281, 
  "Federal": 1282, 
  "ordinary": 1283, 
  "happen": 1284, 
  "presidency": 1285, 
  "B@@": 1286, 
  "favor": 1287, 
  "reduction": 1288, 
  "ro@@": 1289, 
  "mis@@": 1290, 
  "produced": 1291, 
  "none": 1292, 
  "went": 1293, 
  "else": 1294, 
  "inter@@": 1295, 
  "amount": 1296, 
  "sanctions": 1297, 
  "neighbors": 1298, 
  "contrary": 1299, 
  "Iranian": 1300, 
  "ground": 1301, 
  "limits": 1302, 
  "unlike": 1303, 
  "General": 1304, 
  "slow": 1305, 
  "compared": 1306, 
  "al@@": 1307, 
  "Internet": 1308, 
  "lose": 1309, 
  "otherwise": 1310, 
  "(WHADJP": 1311, 
  "stronger": 1312, 
  ")WHADJP": 1313, 
  "severe": 1314, 
  "reached": 1315, 
  "short-term": 1316, 
  "achieved": 1317, 
  "designed": 1318, 
  "negative": 1319, 
  "abroad": 1320, 
  "Cold": 1321, 
  "worldwide": 1322, 
  "record": 1323, 
  "direction": 1324, 
  "out@@": 1325, 
  "overall": 1326, 
  "service": 1327, 
  "surplus": 1328, 
  "th@@": 1329, 
  "earlier": 1330, 
  "facing": 1331, 
  "trust": 1332, 
  "soft": 1333, 
  "T@@": 1334, 
  "2006": 1335, 
  "er@@": 1336, 
  "whereas": 1337, 
  "data": 1338, 
  "tried": 1339, 
  "widely": 1340, 
  "project": 1341, 
  "argument": 1342, 
  "competitiveness": 1343, 
  "framework": 1344, 
  "mostly": 1345, 
  "ings": 1346, 
  "calls": 1347, 
  "attempt": 1348, 
  "truth": 1349, 
  "liquidity": 1350, 
  "suggest": 1351, 
  "R@@": 1352, 
  "enormous": 1353, 
  "effectively": 1354, 
  "built": 1355, 
  "ra@@": 1356, 
  "standard": 1357, 
  "Secretary": 1358, 
  "shows": 1359, 
  "innovation": 1360, 
  "plans": 1361, 
  "Republic": 1362, 
  "study": 1363, 
  "fighting": 1364, 
  "c": 1365, 
  "task": 1366, 
  "test": 1367, 
  "am@@": 1368, 
  "Kremlin": 1369, 
  "vital": 1370, 
  "boost": 1371, 
  "ding": 1372, 
  "excessive": 1373, 
  "sovereign": 1374, 
  "spent": 1375, 
  "spend": 1376, 
  "previous": 1377, 
  "providing": 1378, 
  "struggle": 1379, 
  "projects": 1380, 
  "principles": 1381, 
  "extent": 1382, 
  "below": 1383, 
  "activities": 1384, 
  "threats": 1385, 
  "crucial": 1386, 
  "ab@@": 1387, 
  "name": 1388, 
  "candidate": 1389, 
  "serve": 1390, 
  "radical": 1391, 
  "hundreds": 1392, 
  "advantage": 1393, 
  "game": 1394, 
  "burden": 1395, 
  "whom": 1396, 
  "widespread": 1397, 
  "structure": 1398, 
  "anyone": 1399, 
  "stand": 1400, 
  "goals": 1401, 
  "Taiwan": 1402, 
  "agree": 1403, 
  "safety": 1404, 
  "provides": 1405, 
  "substantial": 1406, 
  "talk": 1407, 
  "imbalances": 1408, 
  "takes": 1409, 
  "victims": 1410, 
  "giving": 1411, 
  "crimes": 1412, 
  "establish": 1413, 
  "Greek": 1414, 
  "ze": 1415, 
  "A": 1416, 
  "farmers": 1417, 
  "wages": 1418, 
  "F@@": 1419, 
  "everything": 1420, 
  "argued": 1421, 
  "goes": 1422, 
  "YORK": 1423, 
  "constitutional": 1424, 
  "ar": 1425, 
  "meanwhile": 1426, 
  "points": 1427, 
  "O@@": 1428, 
  "equal": 1429, 
  "near": 1430, 
  "told": 1431, 
  "normal": 1432, 
  "consumers": 1433, 
  "students": 1434, 
  "secure": 1435, 
  "collective": 1436, 
  "borders": 1437, 
  "ons": 1438, 
  "gains": 1439, 
  "2@@": 1440, 
  "parliament": 1441, 
  "scientists": 1442, 
  "Court": 1443, 
  "m": 1444, 
  "electoral": 1445, 
  "thereby": 1446, 
  "body": 1447, 
  "60": 1448, 
  "reflect": 1449, 
  "reflects": 1450, 
  "adopted": 1451, 
  "protests": 1452, 
  "zing": 1453, 
  "Clinton": 1454, 
  "book": 1455, 
  "drugs": 1456, 
  "businesses": 1457, 
  "shown": 1458, 
  "sources": 1459, 
  "regimes": 1460, 
  "prove": 1461, 
  "G-20": 1462, 
  "falling": 1463, 
  "person": 1464, 
  "si@@": 1465, 
  "ded": 1466, 
  "becomes": 1467, 
  "ac@@": 1468, 
  "absence": 1469, 
  "win": 1470, 
  "ism": 1471, 
  "center": 1472, 
  "worked": 1473, 
  "100": 1474, 
  "supported": 1475, 
  "property": 1476, 
  "ves": 1477, 
  "city": 1478, 
  "currencies": 1479, 
  "space": 1480, 
  "sectors": 1481, 
  "safe": 1482, 
  "m@@": 1483, 
  "running": 1484, 
  "fair": 1485, 
  "Ireland": 1486, 
  "Communist": 1487, 
  "k@@": 1488, 
  "federal": 1489, 
  "armed": 1490, 
  "involved": 1491, 
  "4": 1492, 
  "conflicts": 1493, 
  "addition": 1494, 
  "1970": 1495, 
  "school": 1496, 
  "st": 1497, 
  "gap": 1498, 
  "expansion": 1499, 
  "worth": 1500, 
  "target": 1501, 
  "circumstances": 1502, 
  "December": 1503, 
  "getting": 1504, 
  "hit": 1505, 
  "mainly": 1506, 
  "supposed": 1507, 
  "improved": 1508, 
  "won": 1509, 
  "regulatory": 1510, 
  "sought": 1511, 
  "views": 1512, 
  "Monetary": 1513, 
  "ent": 1514, 
  "identity": 1515, 
  "hands": 1516, 
  "efficient": 1517, 
  "specific": 1518, 
  "join": 1519, 
  "imports": 1520, 
  "November": 1521, 
  "equity": 1522, 
  "!": 1523, 
  "subsidies": 1524, 
  "ask": 1525, 
  "est": 1526, 
  "causes": 1527, 
  "lo@@": 1528, 
  "faced": 1529, 
  "candidates": 1530, 
  "practice": 1531, 
  "permanent": 1532, 
  "lies": 1533, 
  "ruling": 1534, 
  "faces": 1535, 
  "house": 1536, 
  "consumer": 1537, 
  "worst": 1538, 
  "week": 1539, 
  "language": 1540, 
  "Al": 1541, 
  "shared": 1542, 
  "John": 1543, 
  "type": 1544, 
  "sovereignty": 1545, 
  "ine": 1546, 
  "6": 1547, 
  "treaty": 1548, 
  "wage": 1549, 
  "danger": 1550, 
  "y-@@": 1551, 
  "45": 1552, 
  "alliance": 1553, 
  "fell": 1554, 
  "trading": 1555, 
  "vulnerable": 1556, 
  "po@@": 1557, 
  "mi@@": 1558, 
  "Saddam": 1559, 
  "smaller": 1560, 
  "flows": 1561, 
  "seeking": 1562, 
  "managed": 1563, 
  "fuel": 1564, 
  "macroeconomic": 1565, 
  "partners": 1566, 
  "generally": 1567, 
  "partly": 1568, 
  "exist": 1569, 
  "j@@": 1570, 
  "round": 1571, 
  "communities": 1572, 
  "related": 1573, 
  "message": 1574, 
  "looks": 1575, 
  "biggest": 1576, 
  "strengthen": 1577, 
  "forms": 1578, 
  "Kingdom": 1579, 
  "expectations": 1580, 
  "terrorists": 1581, 
  "push": 1582, 
  "industries": 1583, 
  "concerned": 1584, 
  "tend": 1585, 
  "sub@@": 1586, 
  "factor": 1587, 
  "learned": 1588, 
  "depends": 1589, 
  "prospects": 1590, 
  "W.": 1591, 
  "likewise": 1592, 
  "lot": 1593, 
  "Moscow": 1594, 
  "lesson": 1595, 
  "received": 1596, 
  "activity": 1597, 
  "post-@@": 1598, 
  "mind": 1599, 
  "seriously": 1600, 
  "unable": 1601, 
  "nowadays": 1602, 
  "cancer": 1603, 
  "respond": 1604, 
  "lines": 1605, 
  "instability": 1606, 
  "ones": 1607, 
  "significantly": 1608, 
  "borrowing": 1609, 
  "arms": 1610, 
  "Blair": 1611, 
  "2003": 1612, 
  "middle": 1613, 
  "diplomacy": 1614, 
  "peaceful": 1615, 
  "faster": 1616, 
  "Reserve": 1617, 
  "stage": 1618, 
  "encourage": 1619, 
  "religion": 1620, 
  "weeks": 1621, 
  "sp@@": 1622, 
  "solutions": 1623, 
  "places": 1624, 
  "for@@": 1625, 
  "equally": 1626, 
  "red": 1627, 
  "nevertheless": 1628, 
  "gave": 1629, 
  "medical": 1630, 
  "manage": 1631, 
  "Libya": 1632, 
  "possibility": 1633, 
  "ve": 1634, 
  "revenues": 1635, 
  "combined": 1636, 
  "liberalization": 1637, 
  "active": 1638, 
  "positions": 1639, 
  "affairs": 1640, 
  "focused": 1641, 
  "invest": 1642, 
  "belief": 1643, 
  "rural": 1644, 
  "recognized": 1645, 
  "operations": 1646, 
  "base": 1647, 
  "agencies": 1648, 
  "priority": 1649, 
  "parliamentary": 1650, 
  "everywhere": 1651, 
  "poorest": 1652, 
  "Indonesia": 1653, 
  "organization": 1654, 
  "sign": 1655, 
  "imposed": 1656, 
  "killed": 1657, 
  "disaster": 1658, 
  "intellectual": 1659, 
  "u@@": 1660, 
  "changing": 1661, 
  "speech": 1662, 
  "technological": 1663, 
  "K@@": 1664, 
  "ne@@": 1665, 
  "closer": 1666, 
  "als": 1667, 
  "saw": 1668, 
  "models": 1669, 
  "Russians": 1670, 
  "promises": 1671, 
  "deeply": 1672, 
  "Hezbollah": 1673, 
  "funding": 1674, 
  "primary": 1675, 
  "efficiency": 1676, 
  "bubble": 1677, 
  "sufficient": 1678, 
  "remained": 1679, 
  "raising": 1680, 
  "ors": 1681, 
  "se": 1682, 
  "range": 1683, 
  "commercial": 1684, 
  "austerity": 1685, 
  "met": 1686, 
  "credibility": 1687, 
  "border": 1688, 
  "trend": 1689, 
  "controls": 1690, 
  "Development": 1691, 
  "suffering": 1692, 
  "destruction": 1693, 
  "virtually": 1694, 
  "it@@": 1695, 
  "March": 1696, 
  "sts": 1697, 
  "conservative": 1698, 
  "multilateral": 1699, 
  "State": 1700, 
  "accounts": 1701, 
  "participation": 1702, 
  "elite": 1703, 
  "crime": 1704, 
  "ended": 1705, 
  "ready": 1706, 
  "learn": 1707, 
  "promise": 1708, 
  "explain": 1709, 
  "Arabia": 1710, 
  "afford": 1711, 
  "restore": 1712, 
  "played": 1713, 
  "uncertainty": 1714, 
  "zation": 1715, 
  "bilateral": 1716, 
  "numbers": 1717, 
  "raised": 1718, 
  "appropriate": 1719, 
  "heart": 1720, 
  "rhetoric": 1721, 
  "violent": 1722, 
  "gold": 1723, 
  "des": 1724, 
  "el": 1725, 
  "experts": 1726, 
  "targets": 1727, 
  "at@@": 1728, 
  "guarantee": 1729, 
  "hardly": 1730, 
  "Hong": 1731, 
  "construction": 1732, 
  "considered": 1733, 
  "intelligence": 1734, 
  "incomes": 1735, 
  "current-account": 1736, 
  "impose": 1737, 
  "patients": 1738, 
  "quite": 1739, 
  "universal": 1740, 
  "ble": 1741, 
  "Israelis": 1742, 
  "families": 1743, 
  "looking": 1744, 
  "ca": 1745, 
  "helping": 1746, 
  "well-@@": 1747, 
  "limit": 1748, 
  "movements": 1749, 
  "as@@": 1750, 
  "proposal": 1751, 
  "air": 1752, 
  "degree": 1753, 
  "8": 1754, 
  "final": 1755, 
  "child": 1756, 
  "presence": 1757, 
  "court": 1758, 
  "ty": 1759, 
  "expensive": 1760, 
  "es@@": 1761, 
  "cutting": 1762, 
  "mo@@": 1763, 
  "York": 1764, 
  "inevitable": 1765, 
  "Treasury": 1766, 
  "strength": 1767, 
  "...": 1768, 
  "minority": 1769, 
  "Revolution": 1770, 
  "prospect": 1771, 
  "context": 1772, 
  "diseases": 1773, 
  "sound": 1774, 
  "bankers": 1775, 
  "May": 1776, 
  "bo@@": 1777, 
  "greatest": 1778, 
  "manufacturing": 1779, 
  "blame": 1780, 
  "Serbia": 1781, 
  "light": 1782, 
  "driven": 1783, 
  "depend": 1784, 
  "gra@@": 1785, 
  "UK": 1786, 
  "southern": 1787, 
  "decided": 1788, 
  "occupation": 1789, 
  "sharply": 1790, 
  "measure": 1791, 
  "continuing": 1792, 
  "initiative": 1793, 
  "continent": 1794, 
  "ary": 1795, 
  "announced": 1796, 
  "Y@@": 1797, 
  "regard": 1798, 
  "agreements": 1799, 
  "visit": 1800, 
  "pro@@": 1801, 
  "Organization": 1802, 
  "2011": 1803, 
  "road": 1804, 
  "resolution": 1805, 
  "knows": 1806, 
  "l": 1807, 
  "Copenhagen": 1808, 
  "populations": 1809, 
  "believed": 1810, 
  "list": 1811, 
  "option": 1812, 
  "break": 1813, 
  "agricultural": 1814, 
  "em@@": 1815, 
  "vi@@": 1816, 
  "precisely": 1817, 
  "holding": 1818, 
  "June": 1819, 
  "fast": 1820, 
  "studies": 1821, 
  "Taliban": 1822, 
  "tive": 1823, 
  "legislation": 1824, 
  "born": 1825, 
  "civilian": 1826, 
  "capita": 1827, 
  "desire": 1828, 
  "schools": 1829, 
  "resulting": 1830, 
  "over-@@": 1831, 
  "truly": 1832, 
  "determined": 1833, 
  "ex@@": 1834, 
  "dialogue": 1835, 
  "January": 1836, 
  "fund": 1837, 
  "Cambridge": 1838, 
  "importantly": 1839, 
  "op@@": 1840, 
  "7": 1841, 
  "unity": 1842, 
  "associated": 1843, 
  "fears": 1844, 
  "ment": 1845, 
  "communism": 1846, 
  "Beijing": 1847, 
  "scenario": 1848, 
  "household": 1849, 
  "Kong": 1850, 
  "works": 1851, 
  "ministers": 1852, 
  "succeed": 1853, 
  "sustained": 1854, 
  "ic": 1855, 
  "amp": 1856, 
  "opening": 1857, 
  "z@@": 1858, 
  "Turkish": 1859, 
  "gone": 1860, 
  "declared": 1861, 
  "immigrants": 1862, 
  "3@@": 1863, 
  "Korean": 1864, 
  "2002": 1865, 
  "Republican": 1866, 
  "Wall": 1867, 
  "18@@": 1868, 
  "easier": 1869, 
  "broader": 1870, 
  "moving": 1871, 
  "leaving": 1872, 
  "meant": 1873, 
  "decide": 1874, 
  "wanted": 1875, 
  "cal": 1876, 
  "training": 1877, 
  "temporary": 1878, 
  "AIDS": 1879, 
  "pre-@@": 1880, 
  "subject": 1881, 
  "authoritarian": 1882, 
  "divided": 1883, 
  "lessons": 1884, 
  "solidarity": 1885, 
  "demonstrated": 1886, 
  "University": 1887, 
  "universities": 1888, 
  "J@@": 1889, 
  "accepted": 1890, 
  "payments": 1891, 
  "profits": 1892, 
  "implies": 1893, 
  "terror": 1894, 
  "12": 1895, 
  "occur": 1896, 
  "choose": 1897, 
  "skills": 1898, 
  "securities": 1899, 
  "tensions": 1900, 
  "worry": 1901, 
  "moderate": 1902, 
  "enlargement": 1903, 
  "highest": 1904, 
  "legitimate": 1905, 
  "genetic": 1906, 
  "sell": 1907, 
  "defined": 1908, 
  "urban": 1909, 
  "transparency": 1910, 
  "W@@": 1911, 
  "team": 1912, 
  "understood": 1913, 
  "promised": 1914, 
  "pursue": 1915, 
  "car@@": 1916, 
  "emerged": 1917, 
  "adjustment": 1918, 
  "entirely": 1919, 
  "compromise": 1920, 
  "ongoing": 1921, 
  "nationalism": 1922, 
  "kept": 1923, 
  "options": 1924, 
  "opponents": 1925, 
  "conventional": 1926, 
  "I@@": 1927, 
  "to@@": 1928, 
  "ch": 1929, 
  "Palestine": 1930, 
  "broad": 1931, 
  "immigration": 1932, 
  "resistance": 1933, 
  "possibly": 1934, 
  ")NAC": 1935, 
  "sort": 1936, 
  "(NAC": 1937, 
  "dramatic": 1938, 
  "drive": 1939, 
  "latest": 1940, 
  "prepared": 1941, 
  "settlement": 1942, 
  "eight": 1943, 
  "underlying": 1944, 
  "debts": 1945, 
  "friends": 1946, 
  "rulers": 1947, 
  "1989": 1948, 
  "ative": 1949, 
  "July": 1950, 
  "regulators": 1951, 
  "h@@": 1952, 
  "says": 1953, 
  "sharp": 1954, 
  "ness": 1955, 
  "ideological": 1956, 
  "te": 1957, 
  "implement": 1958, 
  "so@@": 1959, 
  "ds": 1960, 
  "qu@@": 1961, 
  "economist": 1962, 
  "estimated": 1963, 
  "structures": 1964, 
  "n": 1965, 
  "practices": 1966, 
  "defeat": 1967, 
  "choices": 1968, 
  "par@@": 1969, 
  "wide": 1970, 
  "perceived": 1971, 
  "Depression": 1972, 
  "receive": 1973, 
  "faith": 1974, 
  "suffer": 1975, 
  "October": 1976, 
  "imagine": 1977, 
  "occurred": 1978, 
  "generate": 1979, 
  "combination": 1980, 
  "deliver": 1981, 
  "malaria": 1982, 
  "immediately": 1983, 
  "contribute": 1984, 
  "ad@@": 1985, 
  "room": 1986, 
  "speak": 1987, 
  "board": 1988, 
  "paying": 1989, 
  "alized": 1990, 
  "high-@@": 1991, 
  "secular": 1992, 
  "viewed": 1993, 
  "senior": 1994, 
  "offered": 1995, 
  "surprise": 1996, 
  "1999": 1997, 
  "deaths": 1998, 
  "experienced": 1999, 
  "technical": 2000, 
  "bound": 2001, 
  "pace": 2002, 
  "uses": 2003, 
  "ci@@": 2004, 
  "soldiers": 2005, 
  "bringing": 2006, 
  "bond": 2007, 
  "Paris": 2008, 
  "excess": 2009, 
  "rely": 2010, 
  "bear": 2011, 
  "comprehensive": 2012, 
  "chief": 2013, 
  "80": 2014, 
  "corrupt": 2015, 
  "unprecedented": 2016, 
  "communist": 2017, 
  "ap@@": 2018, 
  "promoting": 2019, 
  "tradition": 2020, 
  "unique": 2021, 
  "carry": 2022, 
  "represent": 2023, 
  "wo": 2024, 
  "proposals": 2025, 
  "offers": 2026, 
  "allowing": 2027, 
  "analysis": 2028, 
  "starting": 2029, 
  "aim": 2030, 
  "V@@": 2031, 
  "Nobel": 2032, 
  "recognition": 2033, 
  "commitments": 2034, 
  "solve": 2035, 
  "institution": 2036, 
  "ending": 2037, 
  "estimates": 2038, 
  "revenue": 2039, 
  "establishment": 2040, 
  "regardless": 2041, 
  "field": 2042, 
  "includes": 2043, 
  "potentially": 2044, 
  "Democratic": 2045, 
  "r@@": 2046, 
  "Jewish": 2047, 
  "launched": 2048, 
  "someone": 2049, 
  "ously": 2050, 
  "maintaining": 2051, 
  "organized": 2052, 
  "nationalist": 2053, 
  "per@@": 2054, 
  "tell": 2055, 
  "represents": 2056, 
  "9": 2057, 
  "ma@@": 2058, 
  "CO2": 2059, 
  "surely": 2060, 
  "controlled": 2061, 
  "typically": 2062, 
  "enable": 2063, 
  "players": 2064, 
  "dramatically": 2065, 
  "mechanism": 2066, 
  "keeping": 2067, 
  "percentage": 2068, 
  "deeper": 2069, 
  "homes": 2070, 
  ".@@": 2071, 
  "trial": 2072, 
  "treated": 2073, 
  "wider": 2074, 
  "green": 2075, 
  "product": 2076, 
  "commodity": 2077, 
  "a-@@": 2078, 
  "signs": 2079, 
  "zone": 2080, 
  "do@@": 2081, 
  "supplies": 2082, 
  "die": 2083, 
  "electricity": 2084, 
  "concept": 2085, 
  "physical": 2086, 
  "rec@@": 2087, 
  "critics": 2088, 
  "economically": 2089, 
  "opposed": 2090, 
  "charge": 2091, 
  "mission": 2092, 
  "mechanisms": 2093, 
  "trouble": 2094, 
  "attempts": 2095, 
  "Islamist": 2096, 
  "mistake": 2097, 
  "losing": 2098, 
  "survive": 2099, 
  "distribution": 2100, 
  "improving": 2101, 
  "linked": 2102, 
  "resolve": 2103, 
  "affected": 2104, 
  "Nigeria": 2105, 
  "flow": 2106, 
  "undermine": 2107, 
  "heavily": 2108, 
  "Economic": 2109, 
  "battle": 2110, 
  "shocks": 2111, 
  "declining": 2112, 
  "el@@": 2113, 
  "humanity": 2114, 
  "les": 2115, 
  "happens": 2116, 
  "70": 2117, 
  "useful": 2118, 
  "ideology": 2119, 
  "inevitably": 2120, 
  "productive": 2121, 
  "ur@@": 2122, 
  "extremely": 2123, 
  "yes": 2124, 
  "Christian": 2125, 
  "supporting": 2126, 
  "dependent": 2127, 
  "leads": 2128, 
  "causing": 2129, 
  "playing": 2130, 
  "relief": 2131, 
  "proved": 2132, 
  "practical": 2133, 
  "agriculture": 2134, 
  "hopes": 2135, 
  "ec@@": 2136, 
  "complete": 2137, 
  "legacy": 2138, 
  "overcome": 2139, 
  "sc@@": 2140, 
  "survival": 2141, 
  "stake": 2142, 
  "remarkable": 2143, 
  "cash": 2144, 
  "determine": 2145, 
  "ist": 2146, 
  "la@@": 2147, 
  "pattern": 2148, 
  "Vladimir": 2149, 
  "invasion": 2150, 
  "conference": 2151, 
  "·": 2152, 
  "restrictions": 2153, 
  "ter": 2154, 
  "unions": 2155, 
  "tri@@": 2156, 
  "implemented": 2157, 
  "fewer": 2158, 
  "Trade": 2159, 
  "ying": 2160, 
  "Parliament": 2161, 
  "closed": 2162, 
  "ters": 2163, 
  "ged": 2164, 
  "territory": 2165, 
  "initiatives": 2166, 
  "supporters": 2167, 
  "summer": 2168, 
  "engage": 2169, 
  "event": 2170, 
  "1960": 2171, 
  "ratio": 2172, 
  "ably": 2173, 
  "quarter": 2174, 
  "House": 2175, 
  "gained": 2176, 
  "Democrats": 2177, 
  "firm": 2178, 
  "style": 2179, 
  "no@@": 2180, 
  "dealing": 2181, 
  "Stability": 2182, 
  "objective": 2183, 
  "strategies": 2184, 
  "threatened": 2185, 
  "August": 2186, 
  "transfer": 2187, 
  "observers": 2188, 
  "depression": 2189, 
  "twentieth": 2190, 
  "ni@@": 2191, 
  "published": 2192, 
  "criticism": 2193, 
  "word": 2194, 
  "€": 2195, 
  "ingly": 2196, 
  "sh": 2197, 
  "-based": 2198, 
  "fallen": 2199, 
  "considerable": 2200, 
  "votes": 2201, 
  "he@@": 2202, 
  "nonetheless": 2203, 
  "issued": 2204, 
  "billions": 2205, 
  "April": 2206, 
  "1930": 2207, 
  "downturn": 2208, 
  "Kim": 2209, 
  "double": 2210, 
  "modest": 2211, 
  "putting": 2212, 
  "turning": 2213, 
  "package": 2214, 
  "exposed": 2215, 
  "returns": 2216, 
  "shape": 2217, 
  "referendum": 2218, 
  "allows": 2219, 
  "necessarily": 2220, 
  "centuries": 2221, 
  "pressures": 2222, 
  "seven": 2223, 
  "corporations": 2224, 
  "t-@@": 2225, 
  "requirements": 2226, 
  "D": 2227, 
  "Vietnam": 2228, 
  "dominated": 2229, 
  "Dutch": 2230, 
  "restructuring": 2231, 
  "Italian": 2232, 
  "grew": 2233, 
  "strengthening": 2234, 
  "mortgage": 2235, 
  "costly": 2236, 
  "aging": 2237, 
  "obviously": 2238, 
  "developments": 2239, 
  "begun": 2240, 
  "wrote": 2241, 
  "reasonable": 2242, 
  "adopt": 2243, 
  "ling": 2244, 
  "ity": 2245, 
  "affect": 2246, 
  "planet": 2247, 
  "slowdown": 2248, 
  "genuine": 2249, 
  "ality": 2250, 
  "willingness": 2251, 
  "television": 2252, 
  "setting": 2253, 
  "barriers": 2254, 
  "image": 2255, 
  "implications": 2256, 
  "suffered": 2257, 
  "creditors": 2258, 
  "sustain": 2259, 
  "stands": 2260, 
  "regulations": 2261, 
  "cycle": 2262, 
  "cells": 2263, 
  "defend": 2264, 
  "reports": 2265, 
  "realize": 2266, 
  "generations": 2267, 
  "pension": 2268, 
  "showed": 2269, 
  "hours": 2270, 
  "purpose": 2271, 
  "amounts": 2272, 
  "race": 2273, 
  "credible": 2274, 
  "criminal": 2275, 
  "bottom": 2276, 
  "alism": 2277, 
  "woman": 2278, 
  "pushed": 2279, 
  "historic": 2280, 
  "backed": 2281, 
  "saying": 2282, 
  "mere": 2283, 
  "figure": 2284, 
  "Brussels": 2285, 
  "p": 2286, 
  "revolutionary": 2287, 
  "joint": 2288, 
  "standing": 2289, 
  "outcomes": 2290, 
  "taxpayers": 2291, 
  "supposedly": 2292, 
  "advance": 2293, 
  "emerge": 2294, 
  "objectives": 2295, 
  "got": 2296, 
  "served": 2297, 
  "rescue": 2298, 
  "appreciation": 2299, 
  "gives": 2300, 
  "proven": 2301, 
  "1@@": 2302, 
  "Abbas": 2303, 
  "died": 2304, 
  "Sweden": 2305, 
  "described": 2306, 
  "Kyoto": 2307, 
  "discussion": 2308, 
  "arrangements": 2309, 
  "In": 2310, 
  "weight": 2311, 
  "gi@@": 2312, 
  "dictatorship": 2313, 
  "Mubarak": 2314, 
  "2012": 2315, 
  "gh@@": 2316, 
  "R": 2317, 
  "appeared": 2318, 
  "logic": 2319, 
  "buying": 2320, 
  "elites": 2321, 
  "zero": 2322, 
  "establishing": 2323, 
  "partner": 2324, 
  "prison": 2325, 
  "elements": 2326, 
  "exchange-rate": 2327, 
  "grown": 2328, 
  "eyes": 2329, 
  "acts": 2330, 
  "moved": 2331, 
  "exists": 2332, 
  "healthy": 2333, 
  "discipline": 2334, 
  "fl@@": 2335, 
  "ants": 2336, 
  "i": 2337, 
  "mandate": 2338, 
  "completely": 2339, 
  "mortgages": 2340, 
  "plants": 2341, 
  "father": 2342, 
  "pro-@@": 2343, 
  "ently": 2344, 
  "contributed": 2345, 
  "killing": 2346, 
  "attractive": 2347, 
  "fi@@": 2348, 
  "dominant": 2349, 
  "closely": 2350, 
  "failures": 2351, 
  "reflected": 2352, 
  "viable": 2353, 
  "accounting": 2354, 
  "Chávez": 2355, 
  "capable": 2356, 
  "risky": 2357, 
  "added": 2358, 
  "ho@@": 2359, 
  "opposite": 2360, 
  "dynamic": 2361, 
  "Street": 2362, 
  "borrow": 2363, 
  "weakness": 2364, 
  "son": 2365, 
  "ance": 2366, 
  "migration": 2367, 
  "tools": 2368, 
  "cheap": 2369, 
  "charges": 2370, 
  "strongly": 2371, 
  "addressed": 2372, 
  "computer": 2373, 
  "Jews": 2374, 
  "planning": 2375, 
  "journalists": 2376, 
  "convinced": 2377, 
  "felt": 2378, 
  "surpluses": 2379, 
  "fate": 2380, 
  "assume": 2381, 
  "leverage": 2382, 
  "unsustainable": 2383, 
  "bodies": 2384, 
  "voting": 2385, 
  "ensuring": 2386, 
  "Paul": 2387, 
  "tic": 2388, 
  "replaced": 2389, 
  "priorities": 2390, 
  "ence": 2391, 
  "ag@@": 2392, 
  "exception": 2393, 
  "Berlin": 2394, 
  "protest": 2395, 
  "university": 2396, 
  "encouraging": 2397, 
  "enemy": 2398, 
  "included": 2399, 
  "front": 2400, 
  "united": 2401, 
  "equivalent": 2402, 
  "expand": 2403, 
  "humans": 2404, 
  "aggressive": 2405, 
  "mon@@": 2406, 
  "figures": 2407, 
  "aside": 2408, 
  "C": 2409, 
  "perspective": 2410, 
  "transformation": 2411, 
  "ul@@": 2412, 
  "arguments": 2413, 
  "daily": 2414, 
  "signed": 2415, 
  "suddenly": 2416, 
  "wave": 2417, 
  "marked": 2418, 
  "Gulf": 2419, 
  "reported": 2420, 
  "shock": 2421, 
  "holds": 2422, 
  "profound": 2423, 
  "producers": 2424, 
  "cor@@": 2425, 
  "clean": 2426, 
  "ce": 2427, 
  "stance": 2428, 
  "embrace": 2429, 
  "se@@": 2430, 
  "peoples": 2431, 
  "Mao": 2432, 
  "add": 2433, 
  "et@@": 2434, 
  "root": 2435, 
  "mutual": 2436, 
  "except": 2437, 
  "is@@": 2438, 
  "host": 2439, 
  "shareholders": 2440, 
  "deflation": 2441, 
  "compete": 2442, 
  "ging": 2443, 
  "successfully": 2444, 
  "sales": 2445, 
  "enterprises": 2446, 
  "4@@": 2447, 
  "min@@": 2448, 
  "emerging-market": 2449, 
  "illegal": 2450, 
  "tough": 2451, 
  "Venezuela": 2452, 
  "Medvedev": 2453, 
  "northern": 2454, 
  "pi@@": 2455, 
  "contracts": 2456, 
  "carried": 2457, 
  "tests": 2458, 
  "expenditures": 2459, 
  "professional": 2460, 
  "incentive": 2461, 
  "18": 2462, 
  "Burma": 2463, 
  "kill": 2464, 
  "ad": 2465, 
  "cre@@": 2466, 
  "passed": 2467, 
  "populist": 2468, 
  "Portugal": 2469, 
  "ge": 2470, 
  "read": 2471, 
  "replace": 2472, 
  "managers": 2473, 
  "equality": 2474, 
  "meaning": 2475, 
  "aware": 2476, 
  "one-@@": 2477, 
  "bailout": 2478, 
  "Committee": 2479, 
  "thanks": 2480, 
  "surprising": 2481, 
  "ge@@": 2482, 
  "low-@@": 2483, 
  "withdrawal": 2484, 
  "networks": 2485, 
  "remaining": 2486, 
  "species": 2487, 
  "achieving": 2488, 
  "welcome": 2489, 
  "publicly": 2490, 
  "WTO": 2491, 
  "parents": 2492, 
  "heads": 2493, 
  "fixed": 2494, 
  "series": 2495, 
  "Netherlands": 2496, 
  "coal": 2497, 
  "Chile": 2498, 
  "correct": 2499, 
  "polls": 2500, 
  "ha@@": 2501, 
  "stress": 2502, 
  "cover": 2503, 
  "driving": 2504, 
  "latter": 2505, 
  "threaten": 2506, 
  "genes": 2507, 
  "Qaeda": 2508, 
  "Syrian": 2509, 
  "managing": 2510, 
  "Pact": 2511, 
  "urgent": 2512, 
  "Cuba": 2513, 
  "inside": 2514, 
  "expanding": 2515, 
  "Sudan": 2516, 
  "primarily": 2517, 
  "previously": 2518, 
  "brain": 2519, 
  "ut@@": 2520, 
  "regarded": 2521, 
  "Constitution": 2522, 
  "animals": 2523, 
  "ship": 2524, 
  "har@@": 2525, 
  "budgets": 2526, 
  "up@@": 2527, 
  "Republicans": 2528, 
  "pushing": 2529, 
  "and@@": 2530, 
  "Musharraf": 2531, 
  "easing": 2532, 
  "engaged": 2533, 
  "examples": 2534, 
  "harm": 2535, 
  "confront": 2536, 
  "dream": 2537, 
  "humanitarian": 2538, 
  "ruled": 2539, 
  "calling": 2540, 
  "fire": 2541, 
  "claimed": 2542, 
  "exactly": 2543, 
  "sent": 2544, 
  "ir@@": 2545, 
  "educational": 2546, 
  "af@@": 2547, 
  "appeal": 2548, 
  "processes": 2549, 
  "enemies": 2550, 
  "stay": 2551, 
  "1991": 2552, 
  "hence": 2553, 
  "go@@": 2554, 
  "debates": 2555, 
  "rejected": 2556, 
  "emergency": 2557, 
  "knew": 2558, 
  "ins": 2559, 
  "bu@@": 2560, 
  "financed": 2561, 
  "February": 2562, 
  "date": 2563, 
  "refused": 2564, 
  "fied": 2565, 
  "gu@@": 2566, 
  "quo": 2567, 
  "difficulties": 2568, 
  "civilians": 2569, 
  "et": 2570, 
  "partnership": 2571, 
  "black": 2572, 
  "robust": 2573, 
  "trends": 2574, 
  "ess": 2575, 
  "existence": 2576, 
  "fuels": 2577, 
  "badly": 2578, 
  "Hu": 2579, 
  "table": 2580, 
  "paper": 2581, 
  "formal": 2582, 
  "emergence": 2583, 
  "material": 2584, 
  "ownership": 2585, 
  "modernization": 2586, 
  "wish": 2587, 
  "scope": 2588, 
  "mid-@@": 2589, 
  "sea": 2590, 
  "gradually": 2591, 
  "weaker": 2592, 
  "decision-making": 2593, 
  "integrated": 2594, 
  "reserve": 2595, 
  "failing": 2596, 
  "b": 2597, 
  "pri@@": 2598, 
  "renminbi": 2599, 
  "concerning": 2600, 
  "fortunately": 2601, 
  "constraints": 2602, 
  "cally": 2603, 
  "remember": 2604, 
  "om@@": 2605, 
  "ks": 2606, 
  "joined": 2607, 
  "demanding": 2608, 
  "ages": 2609, 
  "d-@@": 2610, 
  "fragile": 2611, 
  "ignore": 2612, 
  "intended": 2613, 
  "streets": 2614, 
  "reaction": 2615, 
  "producing": 2616, 
  "applied": 2617, 
  "resort": 2618, 
  "believes": 2619, 
  "Shia": 2620, 
  "initially": 2621, 
  "finding": 2622, 
  "rational": 2623, 
  "courts": 2624, 
  "accession": 2625, 
  "Australia": 2626, 
  "heavy": 2627, 
  "mistakes": 2628, 
  "identify": 2629, 
  "It": 2630, 
  "an-@@": 2631, 
  "g": 2632, 
  "activists": 2633, 
  "Euro": 2634, 
  "enter": 2635, 
  "fossil": 2636, 
  "essentially": 2637, 
  "posed": 2638, 
  "1998": 2639, 
  "judges": 2640, 
  "dead": 2641, 
  "famous": 2642, 
  "Chirac": 2643, 
  "educated": 2644, 
  "Hussein": 2645, 
  "Berlusconi": 2646, 
  "repeatedly": 2647, 
  "Chancellor": 2648, 
  "au@@": 2649, 
  "threatening": 2650, 
  "accompanied": 2651, 
  "written": 2652, 
  "ou@@": 2653, 
  "We": 2654, 
  "systemic": 2655, 
  "us@@": 2656, 
  "accountability": 2657, 
  "Financial": 2658, 
  "kinds": 2659, 
  "super@@": 2660, 
  "version": 2661, 
  "Rights": 2662, 
  "ving": 2663, 
  "guarantees": 2664, 
  "wind": 2665, 
  "missile": 2666, 
  "Canada": 2667, 
  "alize": 2668, 
  "suggested": 2669, 
  "conducted": 2670, 
  "tra@@": 2671, 
  "Keynes": 2672, 
  "demonstrate": 2673, 
  "apply": 2674, 
  "reaching": 2675, 
  "actual": 2676, 
  "Fatah": 2677, 
  "mark": 2678, 
  "evolution": 2679, 
  "extra": 2680, 
  "exercise": 2681, 
  "Merkel": 2682, 
  "extended": 2683, 
  "heard": 2684, 
  "5@@": 2685, 
  "Pakistani": 2686, 
  "der@@": 2687, 
  "granted": 2688, 
  "network": 2689, 
  "blood": 2690, 
  "U@@": 2691, 
  "pain": 2692, 
  "condition": 2693, 
  "presidents": 2694, 
  "complicated": 2695, 
  "tor@@": 2696, 
  "ambitious": 2697, 
  "assumed": 2698, 
  "de-@@": 2699, 
  "co-@@": 2700, 
  "preventing": 2701, 
  "spirit": 2702, 
  "users": 2703, 
  "ic@@": 2704, 
  "headed": 2705, 
  "creates": 2706, 
  "sustainability": 2707, 
  "launch": 2708, 
  "Sunni": 2709, 
  "Colombia": 2710, 
  "resulted": 2711, 
  "expressed": 2712, 
  "design": 2713, 
  "shares": 2714, 
  "abuse": 2715, 
  "Arabs": 2716, 
  "consequence": 2717, 
  "protectionism": 2718, 
  "notion": 2719, 
  "link": 2720, 
  "aggregate": 2721, 
  "painful": 2722, 
  "apparently": 2723, 
  "opened": 2724, 
  "bi@@": 2725, 
  "obligations": 2726, 
  "inflows": 2727, 
  "send": 2728, 
  "TV": 2729, 
  "consolidation": 2730, 
  "advice": 2731, 
  "balanced": 2732, 
  "stories": 2733, 
  "200": 2734, 
  "addressing": 2735, 
  "voice": 2736, 
  "Germans": 2737, 
  "responses": 2738, 
  "narrow": 2739, 
  "introduced": 2740, 
  "relevant": 2741, 
  "employees": 2742, 
  "conduct": 2743, 
  "discrimination": 2744, 
  "wing": 2745, 
  "Egyptian": 2746, 
  "apparent": 2747, 
  "weakened": 2748, 
  "Defense": 2749, 
  "u": 2750, 
  "9@@": 2751, 
  "mental": 2752, 
  "returned": 2753, 
  "enhance": 2754, 
  "cell": 2755, 
  "uncertain": 2756, 
  "expression": 2757, 
  "hi@@": 2758, 
  "re": 2759, 
  "instruments": 2760, 
  "ru@@": 2761, 
  "acting": 2762, 
  "Con@@": 2763, 
  "An@@": 2764, 
  "fueled": 2765, 
  "Spanish": 2766, 
  "encouraged": 2767, 
  "ators": 2768, 
  "usual": 2769, 
  "bed": 2770, 
  "ultimate": 2771, 
  "represented": 2772, 
  "function": 2773, 
  "chaos": 2774, 
  "transparent": 2775, 
  "notably": 2776, 
  "Thailand": 2777, 
  "cra@@": 2778, 
  "initial": 2779, 
  "generated": 2780, 
  "90": 2781, 
  "proportion": 2782, 
  "Supreme": 2783, 
  "ver@@": 2784, 
  "via": 2785, 
  "sexual": 2786, 
  "engagement": 2787, 
  "renewed": 2788, 
  "contain": 2789, 
  "ces": 2790, 
  "happening": 2791, 
  "People": 2792, 
  "Afghan": 2793, 
  "escape": 2794, 
  "on-@@": 2795, 
  "Atlantic": 2796, 
  "brings": 2797, 
  "confrontation": 2798, 
  "ban": 2799, 
  "placed": 2800, 
  "500": 2801, 
  "Social": 2802, 
  "minds": 2803, 
  "executive": 2804, 
  "te@@": 2805, 
  "operate": 2806, 
  "manner": 2807, 
  "anniversary": 2808, 
  "prefer": 2809, 
  "participants": 2810, 
  "facts": 2811, 
  "predict": 2812, 
  "simultaneously": 2813, 
  "south": 2814, 
  "actors": 2815, 
  "original": 2816, 
  "frequently": 2817, 
  "back@@": 2818, 
  "justified": 2819, 
  "empire": 2820, 
  "flexibility": 2821, 
  "ethical": 2822, 
  "explanation": 2823, 
  "ren@@": 2824, 
  "Robert": 2825, 
  "Ahmadinejad": 2826, 
  "1997": 2827, 
  "arrest": 2828, 
  "compensation": 2829, 
  "eliminate": 2830, 
  "du@@": 2831, 
  "ent@@": 2832, 
  "search": 2833, 
  "abandon": 2834, 
  "atmosphere": 2835, 
  "speed": 2836, 
  "14": 2837, 
  "bubbles": 2838, 
  "leaves": 2839, 
  "G-8": 2840, 
  "slowly": 2841, 
  "effectiveness": 2842, 
  "der": 2843, 
  "draw": 2844, 
  "multi-@@": 2845, 
  "Singapore": 2846, 
  "ry": 2847, 
  "Re@@": 2848, 
  "sions": 2849, 
  "minorities": 2850, 
  "warning": 2851, 
  "stopped": 2852, 
  "aries": 2853, 
  "birth": 2854, 
  "estate": 2855, 
  "destroy": 2856, 
  "medicine": 2857, 
  "sophisticated": 2858, 
  "concluded": 2859, 
  "ourselves": 2860, 
  "Yeltsin": 2861, 
  "targeted": 2862, 
  "gets": 2863, 
  "barely": 2864, 
  "surprisingly": 2865, 
  "wonder": 2866, 
  "bigger": 2867, 
  "expense": 2868, 
  "door": 2869, 
  "harder": 2870, 
  "extraordinary": 2871, 
  "the@@": 2872, 
  "ator": 2873, 
  "drop": 2874, 
  "fourth": 2875, 
  "released": 2876, 
  "twice": 2877, 
  "youth": 2878, 
  "Assembly": 2879, 
  "preserve": 2880, 
  "variety": 2881, 
  "strengthened": 2882, 
  "alist": 2883, 
  "selling": 2884, 
  "Czech": 2885, 
  "volatility": 2886, 
  "newly": 2887, 
  "reverse": 2888, 
  "solar": 2889, 
  "resource": 2890, 
  "sheets": 2891, 
  "approaches": 2892, 
  "bankruptcy": 2893, 
  "worried": 2894, 
  "representatives": 2895, 
  "realistic": 2896, 
  "plant": 2897, 
  "rarely": 2898, 
  "protecting": 2899, 
  "divide": 2900, 
  "ed@@": 2901, 
  "poorer": 2902, 
  "Jordan": 2903, 
  "expanded": 2904, 
  "coordination": 2905, 
  "England": 2906, 
  "ats": 2907, 
  "advocates": 2908, 
  "ure": 2909, 
  "ends": 2910, 
  "collapsed": 2911, 
  "treat": 2912, 
  "mar@@": 2913, 
  "ful": 2914, 
  "review": 2915, 
  "periphery": 2916, 
  "stimulate": 2917, 
  "Romania": 2918, 
  "operation": 2919, 
  "pose": 2920, 
  "transport": 2921, 
  "su@@": 2922, 
  "acceptable": 2923, 
  "Hungary": 2924, 
  "promising": 2925, 
  "diversity": 2926, 
  "capabilities": 2927, 
  "man@@": 2928, 
  "ms": 2929, 
  "yield": 2930, 
  "alizing": 2931, 
  "revealed": 2932, 
  "war@@": 2933, 
  "rating": 2934, 
  "wi@@": 2935, 
  "sensitive": 2936, 
  "absolute": 2937, 
  "adequate": 2938, 
  "combat": 2939, 
  "um": 2940, 
  "wisdom": 2941, 
  "rose": 2942, 
  "helps": 2943, 
  "strike": 2944, 
  "lie": 2945, 
  "academic": 2946, 
  "advantages": 2947, 
  "ph@@": 2948, 
  "x": 2949, 
  "unemployed": 2950, 
  "enjoy": 2951, 
  "ges": 2952, 
  "rightly": 2953, 
  "prisoners": 2954, 
  "oppose": 2955, 
  "wa@@": 2956, 
  "ered": 2957, 
  "statement": 2958, 
  "track": 2959, 
  "alike": 2960, 
  "ignored": 2961, 
  "destroyed": 2962, 
  "bra@@": 2963, 
  "Authority": 2964, 
  "openly": 2965, 
  "improvement": 2966, 
  "conclusion": 2967, 
  "secret": 2968, 
  "consistent": 2969, 
  "block": 2970, 
  "contribution": 2971, 
  "stocks": 2972, 
  "Plan": 2973, 
  "division": 2974, 
  "surveillance": 2975, 
  "extremists": 2976, 
  "command": 2977, 
  "stem": 2978, 
  "Polish": 2979, 
  "13": 2980, 
  "weakening": 2981, 
  "drawn": 2982, 
  "bill": 2983, 
  "facilities": 2984, 
  "directed": 2985, 
  "w": 2986, 
  "contributions": 2987, 
  "winning": 2988, 
  "picture": 2989, 
  "concrete": 2990, 
  "dispute": 2991, 
  "proper": 2992, 
  "f": 2993, 
  "Reagan": 2994, 
  "ders": 2995, 
  "looked": 2996, 
  "Human": 2997, 
  "pressing": 2998, 
  "popularity": 2999, 
  "justify": 3000, 
  "focusing": 3001, 
  "openness": 3002, 
  "accused": 3003, 
  "somewhat": 3004, 
  "overwhelming": 3005, 
  "presented": 3006, 
  "large-scale": 3007, 
  "privatization": 3008, 
  "shed": 3009, 
  "protected": 3010, 
  "fy": 3011, 
  "invested": 3012, 
  "wake": 3013, 
  "atory": 3014, 
  "street": 3015, 
  "measured": 3016, 
  "staff": 3017, 
  "bul@@": 3018, 
  "investing": 3019, 
  "7@@": 3020, 
  "weaken": 3021, 
  "tu@@": 3022, 
  "grounds": 3023, 
  "exit": 3024, 
  "insist": 3025, 
  "lived": 3026, 
  "Global": 3027, 
  "succeeded": 3028, 
  "abandoned": 3029, 
  "16": 3030, 
  "alternatives": 3031, 
  "types": 3032, 
  "responsibilities": 3033, 
  "extend": 3034, 
  "refugees": 3035, 
  "proliferation": 3036, 
  "decisive": 3037, 
  "successor": 3038, 
  "colleagues": 3039, 
  "donors": 3040, 
  "sites": 3041, 
  "ments": 3042, 
  "gen@@": 3043, 
  "sk@@": 3044, 
  "diverse": 3045, 
  "inf@@": 3046, 
  "Sea": 3047, 
  "sold": 3048, 
  "happy": 3049, 
  "aftermath": 3050, 
  "bit": 3051, 
  "flexible": 3052, 
  "mor@@": 3053, 
  "subsequent": 3054, 
  "trials": 3055, 
  "recover": 3056, 
  "hunger": 3057, 
  "turmoil": 3058, 
  "27": 3059, 
  "fought": 3060, 
  "researchers": 3061, 
  "wait": 3062, 
  "en": 3063, 
  "missiles": 3064, 
  "inability": 3065, 
  "profit": 3066, 
  "ambitions": 3067, 
  "liberty": 3068, 
  "intellectuals": 3069, 
  "seeks": 3070, 
  "books": 3071, 
  "twenty-first": 3072, 
  "-RSB-": 3073, 
  "-LSB-": 3074, 
  "discussions": 3075, 
  "caught": 3076, 
  "dly": 3077, 
  "visible": 3078, 
  "Arafat": 3079, 
  "Bolivia": 3080, 
  "fundamentally": 3081, 
  "com@@": 3082, 
  "minimum": 3083, 
  "retirement": 3084, 
  "pursued": 3085, 
  "demographic": 3086, 
  "earth": 3087, 
  "fo@@": 3088, 
  "OECD": 3089, 
  "falls": 3090, 
  "alization": 3091, 
  "attitude": 3092, 
  "ard": 3093, 
  "regarding": 3094, 
  "delivered": 3095, 
  "Tunisia": 3096, 
  "emphasis": 3097, 
  "inflationary": 3098, 
  "perfect": 3099, 
  "interested": 3100, 
  "participate": 3101, 
  "Haiti": 3102, 
  "dependence": 3103, 
  "repression": 3104, 
  "ing@@": 3105, 
  "maintained": 3106, 
  "bold": 3107, 
  "ob@@": 3108, 
  "Ch@@": 3109, 
  "apart": 3110, 
  "purposes": 3111, 
  "neighboring": 3112, 
  "Malaysia": 3113, 
  "avoided": 3114, 
  "ot@@": 3115, 
  "state-owned": 3116, 
  "David": 3117, 
  "California": 3118, 
  "geopolitical": 3119, 
  "stagnation": 3120, 
  "showing": 3121, 
  "ars": 3122, 
  "fails": 3123, 
  "monitoring": 3124, 
  "Denmark": 3125, 
  "somehow": 3126, 
  "female": 3127, 
  "eastern": 3128, 
  "foundation": 3129, 
  "ter@@": 3130, 
  "ls": 3131, 
  "resist": 3132, 
  "learning": 3133, 
  "mention": 3134, 
  "planned": 3135, 
  "politician": 3136, 
  "ses": 3137, 
  "qui@@": 3138, 
  "meaningful": 3139, 
  "judge": 3140, 
  "ches": 3141, 
  "links": 3142, 
  "engineering": 3143, 
  "DC": 3144, 
  "norms": 3145, 
  "waiting": 3146, 
  "ology": 3147, 
  "ver": 3148, 
  "reductions": 3149, 
  "circle": 3150, 
  "historically": 3151, 
  "Romney": 3152, 
  "17": 3153, 
  "centers": 3154, 
  "argues": 3155, 
  "moves": 3156, 
  "torture": 3157, 
  "devastating": 3158, 
  "approval": 3159, 
  "pa@@": 3160, 
  "methods": 3161, 
  "zes": 3162, 
  "patient": 3163, 
  "suicide": 3164, 
  "responded": 3165, 
  "Stalin": 3166, 
  "substantially": 3167, 
  "tens": 3168, 
  "equipment": 3169, 
  "Greenspan": 3170, 
  "separate": 3171, 
  "hundred": 3172, 
  "King": 3173, 
  "75": 3174, 
  "Milosevic": 3175, 
  "agency": 3176, 
  "voted": 3177, 
  "ws": 3178, 
  "ought": 3179, 
  "pl@@": 3180, 
  "ill": 3181, 
  "entrepreneurs": 3182, 
  "seemingly": 3183, 
  "comparable": 3184, 
  "reliable": 3185, 
  "negotiating": 3186, 
  "attitudes": 3187, 
  "stated": 3188, 
  "pped": 3189, 
  "private-sector": 3190, 
  "car": 3191, 
  "undoubtedly": 3192, 
  "pursuing": 3193, 
  "component": 3194, 
  "transfers": 3195, 
  "evil": 3196, 
  "accountable": 3197, 
  "ev@@": 3198, 
  "annually": 3199, 
  "doctors": 3200, 
  "properly": 3201, 
  "fit": 3202, 
  "mobility": 3203, 
  "predicted": 3204, 
  "fresh": 3205, 
  "pe@@": 3206, 
  "reluctant": 3207, 
  "warned": 3208, 
  "lasting": 3209, 
  "aims": 3210, 
  "feeling": 3211, 
  "one-third": 3212, 
  "memory": 3213, 
  "cars": 3214, 
  "6@@": 3215, 
  "discuss": 3216, 
  "sion": 3217, 
  "sharing": 3218, 
  "implementation": 3219, 
  "s-@@": 3220, 
  "fields": 3221, 
  "disputes": 3222, 
  "influential": 3223, 
  "pass": 3224, 
  "transformed": 3225, 
  "retain": 3226, 
  "ys": 3227, 
  "threatens": 3228, 
  "officers": 3229, 
  "broken": 3230, 
  "chronic": 3231, 
  "sentiment": 3232, 
  "Lisbon": 3233, 
  "false": 3234, 
  "funded": 3235, 
  "S": 3236, 
  "seeing": 3237, 
  "Protocol": 3238, 
  "1950": 3239, 
  "king": 3240, 
  "long-@@": 3241, 
  "lay": 3242, 
  "write": 3243, 
  "tragedy": 3244, 
  "earnings": 3245, 
  "Doha": 3246, 
  "US-@@": 3247, 
  "stood": 3248, 
  "coordinated": 3249, 
  "dangers": 3250, 
  "hand@@": 3251, 
  "inadequate": 3252, 
  "anti@@": 3253, 
  "Peace": 3254, 
  "commit": 3255, 
  "ring": 3256, 
  "ali@@": 3257, 
  "def@@": 3258, 
  "sooner": 3259, 
  "unilateral": 3260, 
  "reconciliation": 3261, 
  "internationally": 3262, 
  "greenhouse": 3263, 
  "ps": 3264, 
  "wealthy": 3265, 
  "Islamists": 3266, 
  "concentrated": 3267, 
  "me@@": 3268, 
  "chosen": 3269, 
  "territorial": 3270, 
  "globally": 3271, 
  "impressive": 3272, 
  "quick": 3273, 
  "seats": 3274, 
  "reject": 3275, 
  "negotiate": 3276, 
  "inv@@": 3277, 
  "import": 3278, 
  "fish": 3279, 
  "experiences": 3280, 
  "reconstruction": 3281, 
  "disorder": 3282, 
  "cs": 3283, 
  "cur@@": 3284, 
  "Yugoslavia": 3285, 
  "newspaper": 3286, 
  "football": 3287, 
  "Zimbabwe": 3288, 
  "carefully": 3289, 
  "God": 3290, 
  "spring": 3291, 
  "peak": 3292, 
  "valuable": 3293, 
  "waste": 3294, 
  "isolation": 3295, 
  "ck": 3296, 
  "significance": 3297, 
  "definition": 3298, 
  "White": 3299, 
  "doctrine": 3300, 
  "entry": 3301, 
  "monopoly": 3302, 
  "reliance": 3303, 
  "innovative": 3304, 
  "abuses": 3305, 
  "colonial": 3306, 
  "HIV": 3307, 
  "generous": 3308, 
  "tool": 3309, 
  "prevented": 3310, 
  "saved": 3311, 
  "love": 3312, 
  "ents": 3313, 
  "taxation": 3314, 
  "panic": 3315, 
  "nominal": 3316, 
  "administrative": 3317, 
  "territories": 3318, 
  "offset": 3319, 
  "English": 3320, 
  "nobody": 3321, 
  "discovered": 3322, 
  "patterns": 3323, 
  "yields": 3324, 
  "Roma": 3325, 
  "hoped": 3326, 
  "recognizing": 3327, 
  "Darfur": 3328, 
  "white": 3329, 
  "offering": 3330, 
  "0-@@": 3331, 
  "rare": 3332, 
  "judgment": 3333, 
  "Foreign": 3334, 
  "naturally": 3335, 
  "runs": 3336, 
  "brutal": 3337, 
  "ov": 3338, 
  "finances": 3339, 
  "reputation": 3340, 
  "hear": 3341, 
  "functioning": 3342, 
  "yen": 3343, 
  "operating": 3344, 
  "24": 3345, 
  "ved": 3346, 
  "quantitative": 3347, 
  "express": 3348, 
  "Chairman": 3349, 
  "raises": 3350, 
  "hedge": 3351, 
  "35": 3352, 
  "sufficiently": 3353, 
  "sphere": 3354, 
  "ade": 3355, 
  "governing": 3356, 
  "aspects": 3357, 
  "perception": 3358, 
  "h": 3359, 
  "occupied": 3360, 
  "declined": 3361, 
  "vo@@": 3362, 
  "meetings": 3363, 
  "settlements": 3364, 
  "Iraqis": 3365, 
  "attract": 3366, 
  "supervision": 3367, 
  "realized": 3368, 
  "lend": 3369, 
  "friendly": 3370, 
  "In@@": 3371, 
  "scheme": 3372, 
  "ck@@": 3373, 
  "Nicolas": 3374, 
  "ur": 3375, 
  "inspired": 3376, 
  "health-care": 3377, 
  "roots": 3378, 
  "greatly": 3379, 
  "19": 3380, 
  "genocide": 3381, 
  "Bill": 3382, 
  "imposing": 3383, 
  "1995": 3384, 
  "release": 3385, 
  "honor": 3386, 
  "tribal": 3387, 
  "sed": 3388, 
  "hostile": 3389, 
  "Hitler": 3390, 
  "repeated": 3391, 
  "implementing": 3392, 
  "materials": 3393, 
  "cultures": 3394, 
  "tor": 3395, 
  "sur@@": 3396, 
  "surge": 3397, 
  "Tony": 3398, 
  "provision": 3399, 
  "Jerusalem": 3400, 
  "define": 3401, 
  "dominate": 3402, 
  "Tibet": 3403, 
  "socialist": 3404, 
  "Bosnia": 3405, 
  "intervene": 3406, 
  "realities": 3407, 
  "ASEAN": 3408, 
  "2015": 3409, 
  "girls": 3410, 
  "Netanyahu": 3411, 
  "indicate": 3412, 
  "imply": 3413, 
  "generals": 3414, 
  "numerous": 3415, 
  "analysts": 3416, 
  "phenomenon": 3417, 
  "stabilize": 3418, 
  "nine": 3419, 
  "animal": 3420, 
  "mainstream": 3421, 
  "nu@@": 3422, 
  "Department": 3423, 
  "imperial": 3424, 
  "ely": 3425, 
  "tiny": 3426, 
  "western": 3427, 
  "Summit": 3428, 
  "unrest": 3429, 
  "protectionist": 3430, 
  "tackle": 3431, 
  "backing": 3432, 
  "arguing": 3433, 
  "richer": 3434, 
  "near-@@": 3435, 
  "newspapers": 3436, 
  "convince": 3437, 
  "giant": 3438, 
  "formed": 3439, 
  "Khamenei": 3440, 
  "sex": 3441, 
  "resolved": 3442, 
  "Mediterranean": 3443, 
  "prior": 3444, 
  "ced": 3445, 
  "Mahmoud": 3446, 
  "houses": 3447, 
  "divisions": 3448, 
  "coup": 3449, 
  "P": 3450, 
  "gar@@": 3451, 
  "extremism": 3452, 
  "we@@": 3453, 
  "catastrophe": 3454, 
  "bailouts": 3455, 
  "sensible": 3456, 
  "lawyers": 3457, 
  "enforcement": 3458, 
  "criteria": 3459, 
  "rival": 3460, 
  "ite": 3461, 
  "draft": 3462, 
  "founded": 3463, 
  "features": 3464, 
  "Shi@@": 3465, 
  "0.@@": 3466, 
  "principal": 3467, 
  "travel": 3468, 
  "Laden": 3469, 
  "sees": 3470, 
  "onto": 3471, 
  "underway": 3472, 
  "300": 3473, 
  "ological": 3474, 
  "plays": 3475, 
  "16@@": 3476, 
  "heat": 3477, 
  "approved": 3478, 
  "ies": 3479, 
  "damaged": 3480, 
  "tolerance": 3481, 
  "breaking": 3482, 
  "nowhere": 3483, 
  "tively": 3484, 
  "demonstrations": 3485, 
  "estimate": 3486, 
  "informed": 3487, 
  "sting": 3488, 
  "fication": 3489, 
  "dignity": 3490, 
  "eye": 3491, 
  "bri@@": 3492, 
  "marks": 3493, 
  "achievement": 3494, 
  "inefficient": 3495, 
  "sec@@": 3496, 
  "ati@@": 3497, 
  "consistently": 3498, 
  "alive": 3499, 
  "Bernanke": 3500, 
  "slightly": 3501, 
  "Web": 3502, 
  "Senate": 3503, 
  "transform": 3504, 
  "ice": 3505, 
  "Army": 3506, 
  "removed": 3507, 
  "E": 3508, 
  "executives": 3509, 
  "renewable": 3510, 
  "constant": 3511, 
  "earthquake": 3512, 
  "benefited": 3513, 
  "judicial": 3514, 
  "prosperous": 3515, 
  "contract": 3516, 
  "regularly": 3517, 
  "involve": 3518, 
  "Deng": 3519, 
  "Irish": 3520, 
  "Alliance": 3521, 
  "richest": 3522, 
  "smart": 3523, 
  "gaining": 3524, 
  "involvement": 3525, 
  "intense": 3526, 
  "connected": 3527, 
  "adopting": 3528, 
  "appreciate": 3529, 
  "match": 3530, 
  "ran": 3531, 
  "IV@@": 3532, 
  "insufficient": 3533, 
  "identified": 3534, 
  "ths": 3535, 
  "transactions": 3536, 
  "propaganda": 3537, 
  "disarmament": 3538, 
  "expenditure": 3539, 
  "male": 3540, 
  "yed": 3541, 
  "1.5": 3542, 
  "chain": 3543, 
  "ep@@": 3544, 
  "17@@": 3545, 
  "turns": 3546, 
  "toxic": 3547, 
  "avoiding": 3548, 
  "undermining": 3549, 
  "sudden": 3550, 
  "protesters": 3551, 
  "anger": 3552, 
  "sa@@": 3553, 
  "rooted": 3554, 
  "ol@@": 3555, 
  "solid": 3556, 
  "Board": 3557, 
  "tends": 3558, 
  "arrested": 3559, 
  "foreigners": 3560, 
  "albeit": 3561, 
  "crash": 3562, 
  "capture": 3563, 
  "older": 3564, 
  "fairly": 3565, 
  "fundamentals": 3566, 
  "constitute": 3567, 
  "gradual": 3568, 
  "undermined": 3569, 
  "difficulty": 3570, 
  "lu@@": 3571, 
  "capitalist": 3572, 
  "DNA": 3573, 
  "donor": 3574, 
  "wall": 3575, 
  "forever": 3576, 
  "joining": 3577, 
  "shifted": 3578, 
  "longer-term": 3579, 
  "fold": 3580, 
  "assessment": 3581, 
  "interest-rate": 3582, 
  "puts": 3583, 
  "phase": 3584, 
  "mother": 3585, 
  "sl@@": 3586, 
  "pollution": 3587, 
  "character": 3588, 
  "pur@@": 3589, 
  "content": 3590, 
  "involving": 3591, 
  "improvements": 3592, 
  "bureaucracy": 3593, 
  "lenders": 3594, 
  "alists": 3595, 
  "Millennium": 3596, 
  "forests": 3597, 
  "adverse": 3598, 
  "nineteenth": 3599, 
  "pride": 3600, 
  "As": 3601, 
  "imperative": 3602, 
  "right-wing": 3603, 
  "uni@@": 3604, 
  "innocent": 3605, 
  "assumption": 3606, 
  "advances": 3607, 
  "selection": 3608, 
  "bid": 3609, 
  "surface": 3610, 
  "sets": 3611, 
  "tactics": 3612, 
  "um@@": 3613, 
  "competing": 3614, 
  "restoring": 3615, 
  "site": 3616, 
  "1992": 3617, 
  "neo-@@": 3618, 
  "autonomy": 3619, 
  "likelihood": 3620, 
  "guaranteed": 3621, 
  "purchasing": 3622, 
  "sen@@": 3623, 
  "confronted": 3624, 
  "halt": 3625, 
  "convergence": 3626, 
  "murder": 3627, 
  "creative": 3628, 
  "ever-@@": 3629, 
  "asking": 3630, 
  "tion@@": 3631, 
  "alongside": 3632, 
  "voices": 3633, 
  "noted": 3634, 
  "desirable": 3635, 
  "electorate": 3636, 
  "traditionally": 3637, 
  "8@@": 3638, 
  "z": 3639, 
  "tied": 3640, 
  "om": 3641, 
  "explains": 3642, 
  "limiting": 3643, 
  "ships": 3644, 
  "Administration": 3645, 
  "Northern": 3646, 
  "superpower": 3647, 
  "pursuit": 3648, 
  "magnitude": 3649, 
  "deny": 3650, 
  "No": 3651, 
  "Catholic": 3652, 
  "worthy": 3653, 
  "unwilling": 3654, 
  "dilemma": 3655, 
  "computers": 3656, 
  "democratization": 3657, 
  "Southeast": 3658, 
  "statements": 3659, 
  "traditions": 3660, 
  "explained": 3661, 
  "instance": 3662, 
  "downward": 3663, 
  "forcing": 3664, 
  "Sharon": 3665, 
  "1994": 3666, 
  "coherent": 3667, 
  "chose": 3668, 
  "bin": 3669, 
  "unstable": 3670, 
  "charged": 3671, 
  "favorable": 3672, 
  "purchases": 3673, 
  "chances": 3674, 
  "lacks": 3675, 
  "1.@@": 3676, 
  "triggered": 3677, 
  "Energy": 3678, 
  "achievements": 3679, 
  "Justice": 3680, 
  "speaking": 3681, 
  "appointed": 3682, 
  "cross-border": 3683, 
  "fa@@": 3684, 
  "hidden": 3685, 
  "obstacles": 3686, 
  "island": 3687, 
  "sing": 3688, 
  "shifting": 3689, 
  "finds": 3690, 
  "contemporary": 3691, 
  "integrity": 3692, 
  "Le@@": 3693, 
  "grave": 3694, 
  "impoverished": 3695, 
  "foundations": 3696, 
  "Al@@": 3697, 
  "Bo@@": 3698, 
  "plus": 3699, 
  "couple": 3700, 
  "gender": 3701, 
  "slower": 3702, 
  "Austria": 3703, 
  "interventions": 3704, 
  "film": 3705, 
  "art": 3706, 
  "speculative": 3707, 
  "communication": 3708, 
  "fellow": 3709, 
  "League": 3710, 
  "F": 3711, 
  "distant": 3712, 
  "isolated": 3713, 
  "counter": 3714, 
  "attacked": 3715, 
  "est@@": 3716, 
  "pen@@": 3717, 
  "ratios": 3718, 
  "disasters": 3719, 
  "judiciary": 3720, 
  "2020": 3721, 
  "borrowers": 3722, 
  "down@@": 3723, 
  "Mo@@": 3724, 
  "under-@@": 3725, 
  "embraced": 3726, 
  "x@@": 3727, 
  "prominent": 3728, 
  "civilization": 3729, 
  "optimism": 3730, 
  "deals": 3731, 
  "instrument": 3732, 
  "comparison": 3733, 
  "typical": 3734, 
  "refusal": 3735, 
  "communications": 3736, 
  "bl@@": 3737, 
  "counter@@": 3738, 
  "element": 3739, 
  "pointed": 3740, 
  "adapt": 3741, 
  "talking": 3742, 
  "delay": 3743, 
  "22": 3744, 
  "fashion": 3745, 
  "two-thirds": 3746, 
  "victim": 3747, 
  "dec@@": 3748, 
  "migrants": 3749, 
  "careful": 3750, 
  "ast@@": 3751, 
  "representative": 3752, 
  "earn": 3753, 
  "cks": 3754, 
  "expertise": 3755, 
  "trigger": 3756, 
  "persistent": 3757, 
  "owners": 3758, 
  "fying": 3759, 
  "binding": 3760, 
  "res": 3761, 
  "writing": 3762, 
  "mu@@": 3763, 
  "troubled": 3764, 
  "outlook": 3765, 
  "understandable": 3766, 
  "survey": 3767, 
  "student": 3768, 
  "entered": 3769, 
  "unit": 3770, 
  "tested": 3771, 
  "employers": 3772, 
  "Nazi": 3773, 
  "doubts": 3774, 
  "ideal": 3775, 
  "ven@@": 3776, 
  "urgently": 3777, 
  "sm": 3778, 
  "assuming": 3779, 
  "Jacques": 3780, 
  "depreciation": 3781, 
  "dominance": 3782, 
  "stri@@": 3783, 
  "disastrous": 3784, 
  "government-@@": 3785, 
  "tru@@": 3786, 
  "guide": 3787, 
  "tsunami": 3788, 
  "mounting": 3789, 
  "bureaucratic": 3790, 
  "grand": 3791, 
  "refuse": 3792, 
  "normally": 3793, 
  "negotiated": 3794, 
  "acknowledge": 3795, 
  "count": 3796, 
  "unfair": 3797, 
  "med": 3798, 
  "fin@@": 3799, 
  "destructive": 3800, 
  "ari@@": 3801, 
  "bombing": 3802, 
  "whenever": 3803, 
  "fies": 3804, 
  "desperate": 3805, 
  "sight": 3806, 
  "north": 3807, 
  "wor@@": 3808, 
  "wife": 3809, 
  "da": 3810, 
  "to-@@": 3811, 
  "deposits": 3812, 
  "Yemen": 3813, 
  "admit": 3814, 
  "ber@@": 3815, 
  "Harvard": 3816, 
  "evident": 3817, 
  "requiring": 3818, 
  "epidemic": 3819, 
  "in-@@": 3820, 
  "ed-@@": 3821, 
  "visited": 3822, 
  "mixed": 3823, 
  "Agency": 3824, 
  "aspect": 3825, 
  "roads": 3826, 
  "classes": 3827, 
  "situations": 3828, 
  "extensive": 3829, 
  "Myanmar": 3830, 
  "Pacific": 3831, 
  "state-@@": 3832, 
  "conservatives": 3833, 
  "images": 3834, 
  "enting": 3835, 
  "lowering": 3836, 
  "bre@@": 3837, 
  "tasks": 3838, 
  "relationships": 3839, 
  "produces": 3840, 
  "reduces": 3841, 
  "meltdown": 3842, 
  "acceptance": 3843, 
  "momentum": 3844, 
  "ta@@": 3845, 
  "2013": 3846, 
  "arise": 3847, 
  "ple@@": 3848, 
  "commodities": 3849, 
  "regular": 3850, 
  "weapon": 3851, 
  "enabled": 3852, 
  "Convention": 3853, 
  "Indians": 3854, 
  "purchase": 3855, 
  "periods": 3856, 
  "declines": 3857, 
  "struggling": 3858, 
  "multiple": 3859, 
  "demanded": 3860, 
  "answers": 3861, 
  "amp@@": 3862, 
  "bureaucrats": 3863, 
  "inc@@": 3864, 
  "balances": 3865, 
  "striking": 3866, 
  "1967": 3867, 
  "Belarus": 3868, 
  "missing": 3869, 
  "Spring": 3870, 
  "actively": 3871, 
  "declaration": 3872, 
  "Earth": 3873, 
  "interesting": 3874, 
  "ned": 3875, 
  "supports": 3876, 
  "serves": 3877, 
  "article": 3878, 
  "bar@@": 3879, 
  "philosophy": 3880, 
  "bomb": 3881, 
  "damaging": 3882, 
  "pragmatic": 3883, 
  "ets": 3884, 
  "Brown": 3885, 
  "weather": 3886, 
  "shing": 3887, 
  "prolonged": 3888, 
  "parallel": 3889, 
  "fac@@": 3890, 
  "two-@@": 3891, 
  "enhanced": 3892, 
  "marginal": 3893, 
  "rejection": 3894, 
  "Mexican": 3895, 
  "poorly": 3896, 
  "signal": 3897, 
  "ancient": 3898, 
  "Qaddafi": 3899, 
  "dark": 3900, 
  "biological": 3901, 
  "skilled": 3902, 
  "obtain": 3903, 
  "loan": 3904, 
  "half-@@": 3905, 
  "Holocaust": 3906, 
  "revolutions": 3907, 
  "fu@@": 3908, 
  "schemes": 3909, 
  "unknown": 3910, 
  "prepare": 3911, 
  "ironically": 3912, 
  "ical": 3913, 
  "ton": 3914, 
  "o-@@": 3915, 
  "ber": 3916, 
  "triumph": 3917, 
  "liabilities": 3918, 
  "generating": 3919, 
  "testing": 3920, 
  "foster": 3921, 
  "ning": 3922, 
  "campaigns": 3923, 
  "Thaksin": 3924, 
  "owned": 3925, 
  "st-@@": 3926, 
  "restored": 3927, 
  "severely": 3928, 
  "Q@@": 3929, 
  "functions": 3930, 
  "ju@@": 3931, 
  "mix": 3932, 
  "procedures": 3933, 
  "acted": 3934, 
  "Square": 3935, 
  "Constitutional": 3936, 
  "ten@@": 3937, 
  "explicit": 3938, 
  "sti@@": 3939, 
  "ste@@": 3940, 
  "mortality": 3941, 
  "conclude": 3942, 
  "diagnosis": 3943, 
  "forget": 3944, 
  "silence": 3945, 
  "reversed": 3946, 
  "denied": 3947, 
  "flo@@": 3948, 
  "transatlantic": 3949, 
  "Switzerland": 3950, 
  "compelling": 3951, 
  "unacceptable": 3952, 
  "accepting": 3953, 
  "1990s": 3954, 
  "assess": 3955, 
  "thousand": 3956, 
  "Cyprus": 3957, 
  "disp@@": 3958, 
  "predictable": 3959, 
  "boosting": 3960, 
  "perform": 3961, 
  "eli@@": 3962, 
  "hor@@": 3963, 
  "McCain": 3964, 
  "tendency": 3965, 
  "punishment": 3966, 
  "successes": 3967, 
  "watch": 3968, 
  "innovations": 3969, 
  "Princeton": 3970, 
  "ordered": 3971, 
  "Z@@": 3972, 
  "diplomats": 3973, 
  "customers": 3974, 
  "provisions": 3975, 
  "Institute": 3976, 
  "sters": 3977, 
  "village": 3978, 
  "treaties": 3979, 
  "shes": 3980, 
  "cheaper": 3981, 
  "cal@@": 3982, 
  "exposure": 3983, 
  "fe@@": 3984, 
  "weaknesses": 3985, 
  "blamed": 3986, 
  "fill": 3987, 
  "re-election": 3988, 
  "long-run": 3989, 
  "chairman": 3990, 
  "ratings": 3991, 
  "racial": 3992, 
  "exceed": 3993, 
  "enterprise": 3994, 
  "method": 3995, 
  "sub-prime": 3996, 
  "committee": 3997, 
  "telling": 3998, 
  "confident": 3999, 
  "returning": 4000, 
  "engine": 4001, 
  "ils": 4002, 
  "i.e.": 4003, 
  "honest": 4004, 
  "Mar@@": 4005, 
  "considering": 4006, 
  "deepening": 4007, 
  "receiving": 4008, 
  "solely": 4009, 
  "Lula": 4010, 
  "freely": 4011, 
  "facto": 4012, 
  "keeps": 4013, 
  "FDI": 4014, 
  "persuade": 4015, 
  "map": 4016, 
  "statistics": 4017, 
  "City": 4018, 
  "Health": 4019, 
  "bur@@": 4020, 
  "pensions": 4021, 
  "duty": 4022, 
  "fix": 4023, 
  "involves": 4024, 
  "bloody": 4025, 
  "ineffective": 4026, 
  "eventual": 4027, 
  "controlling": 4028, 
  "signals": 4029, 
  "Rome": 4030, 
  "eliminating": 4031, 
  "dictator": 4032, 
  "Policy": 4033, 
  "Center": 4034, 
  "accomplished": 4035, 
  "immense": 4036, 
  "governed": 4037, 
  "5.@@": 4038, 
  "Church": 4039, 
  "code": 4040, 
  "distinct": 4041, 
  "night": 4042, 
  "strikes": 4043, 
  "land@@": 4044, 
  "neighbor": 4045, 
  "fer@@": 4046, 
  "volatile": 4047, 
  "flight": 4048, 
  "promoted": 4049, 
  "director": 4050, 
  "explicitly": 4051, 
  "AKP": 4052, 
  "aspirations": 4053, 
  "looming": 4054, 
  "worries": 4055, 
  "purely": 4056, 
  "expert": 4057, 
  "constructive": 4058, 
  "feared": 4059, 
  "claiming": 4060, 
  "targeting": 4061, 
  "happiness": 4062, 
  "De@@": 4063, 
  "Chen": 4064, 
  "tur@@": 4065, 
  "respected": 4066, 
  "sports": 4067, 
  "index": 4068, 
  "hour": 4069, 
  "counterparts": 4070, 
  "Mr.": 4071, 
  "concentration": 4072, 
  "flawed": 4073, 
  "This": 4074, 
  "steel": 4075, 
  "ill-@@": 4076, 
  "struck": 4077, 
  "adding": 4078, 
  "Baghdad": 4079, 
  "fed": 4080, 
  "experiencing": 4081, 
  "r": 4082, 
  "tering": 4083, 
  "follows": 4084, 
  "safer": 4085, 
  "awareness": 4086, 
  "os": 4087, 
  "younger": 4088, 
  "documents": 4089, 
  "Philippines": 4090, 
  "experiment": 4091, 
  "familiar": 4092, 
  "fraud": 4093, 
  "convincing": 4094, 
  "seat": 4095, 
  "shifts": 4096, 
  "controversial": 4097, 
  "lowest": 4098, 
  "mood": 4099, 
  "trip": 4100, 
  "rep@@": 4101, 
  "lands": 4102, 
  "gs": 4103, 
  "sum": 4104, 
  "explosion": 4105, 
  "suspicion": 4106, 
  "Gazprom": 4107, 
  "tly": 4108, 
  "Ali": 4109, 
  "violations": 4110, 
  "maybe": 4111, 
  "ched": 4112, 
  "debt-@@": 4113, 
  "1996": 4114, 
  "21": 4115, 
  "feature": 4116, 
  "dic@@": 4117, 
  "vulnerability": 4118, 
  "coverage": 4119, 
  "recessions": 4120, 
  "emotional": 4121, 
  "plausible": 4122, 
  "psychological": 4123, 
  "outright": 4124, 
  "representation": 4125, 
  "Africans": 4126, 
  "challenging": 4127, 
  "da@@": 4128, 
  "freedoms": 4129, 
  "withdraw": 4130, 
  "connection": 4131, 
  "deregulation": 4132, 
  "é": 4133, 
  "ching": 4134, 
  "undertaken": 4135, 
  "differently": 4136, 
  "defending": 4137, 
  "work@@": 4138, 
  "Agreement": 4139, 
  "Kenya": 4140, 
  "friend": 4141, 
  "well-being": 4142, 
  "scene": 4143, 
  "pays": 4144, 
  "obstacle": 4145, 
  "intention": 4146, 
  "cer@@": 4147, 
  "qualified": 4148, 
  "ranging": 4149, 
  "150": 4150, 
  "sending": 4151, 
  "named": 4152, 
  "mobile": 4153, 
  "feed": 4154, 
  "player": 4155, 
  "ory": 4156, 
  "Forum": 4157, 
  "hegemony": 4158, 
  "worrying": 4159, 
  "prevention": 4160, 
  "euros": 4161, 
  "storm": 4162, 
  "col@@": 4163, 
  "legislative": 4164, 
  "bility": 4165, 
  "tre@@": 4166, 
  "spoke": 4167, 
  "informal": 4168, 
  "representing": 4169, 
  "stakes": 4170, 
  "specifically": 4171, 
  "courage": 4172, 
  "quest": 4173, 
  "dity": 4174, 
  "Lebanese": 4175, 
  "complexity": 4176, 
  "motivated": 4177, 
  "hatred": 4178, 
  "micro@@": 4179, 
  "blow": 4180, 
  "forgotten": 4181, 
  "Friedman": 4182, 
  "poses": 4183, 
  "den@@": 4184, 
  "soaring": 4185, 
  "projected": 4186, 
  "Growth": 4187, 
  "vehicles": 4188, 
  "volume": 4189, 
  "interpretation": 4190, 
  "hospital": 4191, 
  "guard": 4192, 
  "progressive": 4193, 
  "serving": 4194, 
  "dynamism": 4195, 
  "essence": 4196, 
  "counter-@@": 4197, 
  "naval": 4198, 
  "uring": 4199, 
  "midst": 4200, 
  "alleged": 4201, 
  "shadow": 4202, 
  "2050": 4203, 
  "residents": 4204, 
  "details": 4205, 
  "farm": 4206, 
  "condemned": 4207, 
  "entitled": 4208, 
  "entering": 4209, 
  "beings": 4210, 
  "Angela": 4211, 
  "makers": 4212, 
  "revive": 4213, 
  "hin@@": 4214, 
  "Mon@@": 4215, 
  "morality": 4216, 
  "bor@@": 4217, 
  "por@@": 4218, 
  "determination": 4219, 
  "subjects": 4220, 
  "contained": 4221, 
  "gre@@": 4222, 
  "overseas": 4223, 
  "socialism": 4224, 
  "twenty": 4225, 
  "globalized": 4226, 
  "che@@": 4227, 
  "demonstrates": 4228, 
  "indigenous": 4229, 
  "cooperative": 4230, 
  "unpopular": 4231, 
  "officially": 4232, 
  "begins": 4233, 
  "cast": 4234, 
  "medium": 4235, 
  "suspect": 4236, 
  "tension": 4237, 
  "terrible": 4238, 
  "constrained": 4239, 
  "post": 4240, 
  "ational": 4241, 
  "consideration": 4242, 
  "ran@@": 4243, 
  "resolving": 4244, 
  "regulated": 4245, 
  "Prize": 4246, 
  "bro@@": 4247, 
  "devoted": 4248, 
  "dioxide": 4249, 
  "Israeli-Palestinian": 4250, 
  "ming": 4251, 
  "prevailing": 4252, 
  "intentions": 4253, 
  "first-@@": 4254, 
  "vicious": 4255, 
  "peacekeeping": 4256, 
  "reinforced": 4257, 
  "Brothers": 4258, 
  "contagion": 4259, 
  "Group": 4260, 
  "deserve": 4261, 
  "ease": 4262, 
  "NPT": 4263, 
  "discussed": 4264, 
  "bought": 4265, 
  "evolutionary": 4266, 
  "theories": 4267, 
  "virtual": 4268, 
  "23": 4269, 
  "Cairo": 4270, 
  "professionals": 4271, 
  "beliefs": 4272, 
  "cking": 4273, 
  "é@@": 4274, 
  "absent": 4275, 
  "forecast": 4276, 
  "stabilization": 4277, 
  "Third": 4278, 
  "spreading": 4279, 
  "note": 4280, 
  "engineers": 4281, 
  "Annan": 4282, 
  "devaluation": 4283, 
  "ented": 4284, 
  "tered": 4285, 
  "bs": 4286, 
  "pat@@": 4287, 
  "waves": 4288, 
  "illness": 4289, 
  "bitter": 4290, 
  "recall": 4291, 
  "desperately": 4292, 
  "trained": 4293, 
  "mobilize": 4294, 
  "distance": 4295, 
  "confirmed": 4296, 
  "feasible": 4297, 
  "dra@@": 4298, 
  "contributing": 4299, 
  "components": 4300, 
  "ath@@": 4301, 
  "acc@@": 4302, 
  "il@@": 4303, 
  "software": 4304, 
  "-led": 4305, 
  "sit": 4306, 
  "professor": 4307, 
  "risen": 4308, 
  "-year": 4309, 
  "enforce": 4310, 
  "sub-Saharan": 4311, 
  "non@@": 4312, 
  "alliances": 4313, 
  "reinforce": 4314, 
  "characterized": 4315, 
  "undertake": 4316, 
  "liberals": 4317, 
  "ics": 4318, 
  "eager": 4319, 
  "ists": 4320, 
  "speci@@": 4321, 
  "Assad": 4322, 
  "resentment": 4323, 
  "tariffs": 4324, 
  "trans@@": 4325, 
  "anywhere": 4326, 
  "findings": 4327, 
  "challenged": 4328, 
  "implied": 4329, 
  "Shanghai": 4330, 
  "manipulation": 4331, 
  "accumulation": 4332, 
  "stabilizing": 4333, 
  "starts": 4334, 
  "treating": 4335, 
  "hot": 4336, 
  "frequent": 4337, 
  "ass@@": 4338, 
  "recognizes": 4339, 
  "introduction": 4340, 
  "ak": 4341, 
  "check": 4342, 
  "19@@": 4343, 
  "Gorbachev": 4344, 
  "Ar@@": 4345, 
  "displaced": 4346, 
  "steadily": 4347, 
  "anxiety": 4348, 
  "formation": 4349, 
  "channels": 4350, 
  "tors": 4351, 
  "winners": 4352, 
  "aged": 4353, 
  "fairness": 4354, 
  "Caucasus": 4355, 
  "beneficial": 4356, 
  "multi@@": 4357, 
  "tional": 4358, 
  "passing": 4359, 
  "Gaulle": 4360, 
  "hostility": 4361, 
  "criticized": 4362, 
  "insurgency": 4363, 
  "free-trade": 4364, 
  "ke": 4365, 
  "proof": 4366, 
  "defeated": 4367, 
  "considerations": 4368, 
  "promotion": 4369, 
  "imported": 4370, 
  "dropped": 4371, 
  "hard-@@": 4372, 
  "surrounding": 4373, 
  "facilitate": 4374, 
  "decent": 4375, 
  "cold": 4376, 
  "acknowledged": 4377, 
  "Balkans": 4378, 
  "accelerate": 4379, 
  "free-market": 4380, 
  "foreign-policy": 4381, 
  "sole": 4382, 
  "permit": 4383, 
  "favored": 4384, 
  "cope": 4385, 
  "Charles": 4386, 
  "shut": 4387, 
  "silent": 4388, 
  "defining": 4389, 
  "burdens": 4390, 
  "tro@@": 4391, 
  "holders": 4392, 
  "harsh": 4393, 
  "blind": 4394, 
  "namely": 4395, 
  "tightening": 4396, 
  "reporting": 4397, 
  "Tokyo": 4398, 
  "exploit": 4399, 
  "dying": 4400, 
  "remove": 4401, 
  "witnessed": 4402, 
  "dozens": 4403, 
  "narrative": 4404, 
  "ai@@": 4405, 
  "fraction": 4406, 
  "Chicago": 4407, 
  "ori@@": 4408, 
  "inter-@@": 4409, 
  "enabling": 4410, 
  "half-century": 4411, 
  "implicit": 4412, 
  "memories": 4413, 
  "dynamics": 4414, 
  "hum@@": 4415, 
  "orders": 4416, 
  "online": 4417, 
  "background": 4418, 
  "stick": 4419, 
  "Gates": 4420, 
  "Mikhail": 4421, 
  "observed": 4422, 
  "exporters": 4423, 
  "adoption": 4424, 
  "ceiling": 4425, 
  "superior": 4426, 
  "bridge": 4427, 
  "distinction": 4428, 
  "voluntary": 4429, 
  "chemical": 4430, 
  "physics": 4431, 
  "unified": 4432, 
  "advocate": 4433, 
  "knowing": 4434, 
  "200@@": 4435, 
  "neglect": 4436, 
  "introduce": 4437, 
  "accurate": 4438, 
  "ture": 4439, 
  "teams": 4440, 
  "downside": 4441, 
  "mer": 4442, 
  "doomed": 4443, 
  "dire": 4444, 
  "traders": 4445, 
  "pres@@": 4446, 
  "ex-@@": 4447, 
  "adjustments": 4448, 
  "steady": 4449, 
  "que": 4450, 
  "pressed": 4451, 
  "Mugabe": 4452, 
  "investor": 4453, 
  "antly": 4454, 
  "1,000": 4455, 
  "clinical": 4456, 
  "deemed": 4457, 
  "eted": 4458, 
  "men@@": 4459, 
  "confined": 4460, 
  "holdings": 4461, 
  "units": 4462, 
  "versus": 4463, 
  "excluded": 4464, 
  "fra@@": 4465, 
  "pipeline": 4466, 
  "demise": 4467, 
  "roles": 4468, 
  "high-tech": 4469, 
  "dd@@": 4470, 
  "Baltic": 4471, 
  "hospitals": 4472, 
  "gene": 4473, 
  "Madrid": 4474, 
  "profitable": 4475, 
  "employed": 4476, 
  "burst": 4477, 
  "EMU": 4478, 
  "sacrifice": 4479, 
  "vers": 4480, 
  "names": 4481, 
  "foremost": 4482, 
  "Consensus": 4483, 
  "induced": 4484, 
  "rebuild": 4485, 
  "captured": 4486, 
  "When": 4487, 
  "broadly": 4488, 
  "euro-zone": 4489, 
  "forest": 4490, 
  "feelings": 4491, 
  "ss": 4492, 
  "bust": 4493, 
  "watching": 4494, 
  "1993": 4495, 
  "budgetary": 4496, 
  "ranks": 4497, 
  "shaped": 4498, 
  "disappear": 4499, 
  "Com@@": 4500, 
  "air@@": 4501, 
  "ess@@": 4502, 
  "optimistic": 4503, 
  "year-old": 4504, 
  "precedent": 4505, 
  "enacted": 4506, 
  "cl@@": 4507, 
  "equilibrium": 4508, 
  "uranium": 4509, 
  "experiments": 4510, 
  "secondary": 4511, 
  "Gu@@": 4512, 
  "concessions": 4513, 
  "describe": 4514, 
  "practically": 4515, 
  "5-@@": 4516, 
  "prevail": 4517, 
  "foreseeable": 4518, 
  "fine": 4519, 
  "therapy": 4520, 
  "broke": 4521, 
  "commission": 4522, 
  "enjoyed": 4523, 
  "ak@@": 4524, 
  "doubled": 4525, 
  "ens": 4526, 
  "factions": 4527, 
  "overwhelmingly": 4528, 
  "behave": 4529, 
  "conviction": 4530, 
  "famously": 4531, 
  "the-@@": 4532, 
  "citizen": 4533, 
  "Act": 4534, 
  "contraction": 4535, 
  "ve@@": 4536, 
  "Abdullah": 4537, 
  "applies": 4538, 
  "prof@@": 4539, 
  "automatic": 4540, 
  "irrelevant": 4541, 
  "bias": 4542, 
  "vis-à-vis": 4543, 
  "revival": 4544, 
  "Association": 4545, 
  "bet": 4546, 
  "commentators": 4547, 
  "strange": 4548, 
  "0@@": 4549, 
  "boundaries": 4550, 
  "cul@@": 4551, 
  "drawing": 4552, 
  "lit@@": 4553, 
  "poll": 4554, 
  "DPJ": 4555, 
  "globe": 4556, 
  "Belgium": 4557, 
  "machine": 4558, 
  "oc@@": 4559, 
  "ster": 4560, 
  "camps": 4561, 
  "cap@@": 4562, 
  "upper": 4563, 
  "minor": 4564, 
  "ically": 4565, 
  "Keynesian": 4566, 
  "mal@@": 4567, 
  "approximately": 4568, 
  "ia": 4569, 
  "bio@@": 4570, 
  "exc@@": 4571, 
  "al-Qaeda": 4572, 
  "settle": 4573, 
  "1979": 4574, 
  "ban@@": 4575, 
  "lacking": 4576, 
  "grows": 4577, 
  "Article": 4578, 
  "techniques": 4579, 
  "proc@@": 4580, 
  "shot": 4581, 
  "wh@@": 4582, 
  "competitors": 4583, 
  "head@@": 4584, 
  "emphasized": 4585, 
  "altogether": 4586, 
  "imp@@": 4587, 
  "scenarios": 4588, 
  "remarkably": 4589, 
  "buildings": 4590, 
  "Gore": 4591, 
  "real-estate": 4592, 
  "redistribution": 4593, 
  "veto": 4594, 
  "fulfill": 4595, 
  "Co@@": 4596, 
  "paradox": 4597, 
  "preparing": 4598, 
  "soci@@": 4599, 
  "ethics": 4600, 
  "speculation": 4601, 
  "cas@@": 4602, 
  "Iranians": 4603, 
  "parity": 4604, 
  "province": 4605, 
  "survived": 4606, 
  "14@@": 4607, 
  "Kurdish": 4608, 
  "losers": 4609, 
  "tomorrow": 4610, 
  "constantly": 4611, 
  "accident": 4612, 
  "minded": 4613, 
  "frustration": 4614, 
  "vested": 4615, 
  "countless": 4616, 
  "bel@@": 4617, 
  "er-@@": 4618, 
  "-and-@@": 4619, 
  "skepticism": 4620, 
  "novel": 4621, 
  "strict": 4622, 
  "east": 4623, 
  "worker": 4624, 
  "bling": 4625, 
  "1945": 4626, 
  "soared": 4627, 
  "policymaking": 4628, 
  "What": 4629, 
  "reactions": 4630, 
  "impression": 4631, 
  "sake": 4632, 
  "declare": 4633, 
  "backlash": 4634, 
  "confronting": 4635, 
  "morally": 4636, 
  "oriented": 4637, 
  "career": 4638, 
  "industrialized": 4639, 
  "ballot": 4640, 
  "box": 4641, 
  "USSR": 4642, 
  "hurt": 4643, 
  "marriage": 4644, 
  "surprised": 4645, 
  "perfectly": 4646, 
  "Microsoft": 4647, 
  "automatically": 4648, 
  "atic": 4649, 
  "reference": 4650, 
  "biology": 4651, 
  "formula": 4652, 
  "combine": 4653, 
  "repeat": 4654, 
  "En@@": 4655, 
  "temperature": 4656, 
  "cyclical": 4657, 
  "adjust": 4658, 
  "collateral": 4659, 
  "foreign-exchange": 4660, 
  "laid": 4661, 
  "hom@@": 4662, 
  "inclusive": 4663, 
  "extending": 4664, 
  "dubious": 4665, 
  "scarce": 4666, 
  "discredited": 4667, 
  "enrichment": 4668, 
  "dismissed": 4669, 
  "ach@@": 4670, 
  "Car@@": 4671, 
  "ani": 4672, 
  "firmly": 4673, 
  "breakthrough": 4674, 
  "classic": 4675, 
  "nets": 4676, 
  "furthermore": 4677, 
  "Ghana": 4678, 
  "compensate": 4679, 
  "end@@": 4680, 
  "ser@@": 4681, 
  "clash": 4682, 
  "Lehman": 4683, 
  "Abu": 4684, 
  "eliminated": 4685, 
  "loyalty": 4686, 
  "g-@@": 4687, 
  "crops": 4688, 
  "Bangladesh": 4689, 
  "pping": 4690, 
  "agents": 4691, 
  "iness": 4692, 
  "strongest": 4693, 
  "teachers": 4694, 
  "spreads": 4695, 
  "discourse": 4696, 
  "investigation": 4697, 
  "400": 4698, 
  "acquire": 4699, 
  "20@@": 4700, 
  "followers": 4701, 
  "reward": 4702, 
  "sky": 4703, 
  "ath": 4704, 
  "conf@@": 4705, 
  "packages": 4706, 
  "multinational": 4707, 
  "ot": 4708, 
  "id": 4709, 
  "with@@": 4710, 
  "plenty": 4711, 
  "cy": 4712, 
  "bloc": 4713, 
  "stra@@": 4714, 
  "edge": 4715, 
  "10@@": 4716, 
  "2.5": 4717, 
  "IPCC": 4718, 
  "rel@@": 4719, 
  "26": 4720, 
  "criminals": 4721, 
  "relied": 4722, 
  "Serbs": 4723, 
  "diminished": 4724, 
  "ery": 4725, 
  "ya": 4726, 
  "nuclear-@@": 4727, 
  "banned": 4728, 
  "B": 4729, 
  "three-@@": 4730, 
  "cing": 4731, 
  "deterrence": 4732, 
  "insisted": 4733, 
  "everybody": 4734, 
  "obligation": 4735, 
  "homeowners": 4736, 
  "sovereign-debt": 4737, 
  "cooperate": 4738, 
  "deployed": 4739, 
  "integrate": 4740, 
  "customs": 4741, 
  "relies": 4742, 
  "equ@@": 4743, 
  "hu@@": 4744, 
  "raw": 4745, 
  "initiated": 4746, 
  "forecasts": 4747, 
  "ase": 4748, 
  "misguided": 4749, 
  "existed": 4750, 
  "Richard": 4751, 
  "reflecting": 4752, 
  "Ab@@": 4753, 
  "des@@": 4754, 
  "Cup": 4755, 
  "Si@@": 4756, 
  "mess": 4757, 
  "mothers": 4758, 
  "indicators": 4759, 
  "allocation": 4760, 
  "application": 4761, 
  "devi@@": 4762, 
  "wishes": 4763, 
  "transnational": 4764, 
  "discovery": 4765, 
  "istic": 4766, 
  "Nixon": 4767, 
  "derivatives": 4768, 
  "miracle": 4769, 
  "grasp": 4770, 
  "cohesion": 4771, 
  "alistic": 4772, 
  "town": 4773, 
  "relying": 4774, 
  "wed": 4775, 
  "attempted": 4776, 
  "rebels": 4777, 
  "Cooperation": 4778, 
  "tells": 4779, 
  "bled": 4780, 
  "Ro@@": 4781, 
  "entrenched": 4782, 
  "factory": 4783, 
  "postcommunist": 4784, 
  "Ronald": 4785, 
  "28": 4786, 
  "arrived": 4787, 
  "citizenship": 4788, 
  "carrying": 4789, 
  "Ex@@": 4790, 
  "Community": 4791, 
  "Google": 4792, 
  "vastly": 4793, 
  "collectively": 4794, 
  "minimal": 4795, 
  "upward": 4796, 
  "vely": 4797, 
  "Conference": 4798, 
  "rampant": 4799, 
  "tragic": 4800, 
  "prone": 4801, 
  "Pope": 4802, 
  "denial": 4803, 
  "ke@@": 4804, 
  "symptoms": 4805, 
  "characteristics": 4806, 
  "assist": 4807, 
  "error": 4808, 
  "artificial": 4809, 
  "second-@@": 4810, 
  "Ethiopia": 4811, 
  "proud": 4812, 
  "cabinet": 4813, 
  "hal@@": 4814, 
  "intensive": 4815, 
  "shortage": 4816, 
  "sive": 4817, 
  "iled": 4818, 
  "Chechnya": 4819, 
  "origin": 4820, 
  "ns": 4821, 
  "reading": 4822, 
  "Declaration": 4823, 
  "breast": 4824, 
  "fueling": 4825, 
  "ay@@": 4826, 
  "WWII": 4827, 
  "possibilities": 4828, 
  "train": 4829, 
  "Law": 4830, 
  "ang": 4831, 
  "ement": 4832, 
  "irrational": 4833, 
  "buyers": 4834, 
  "Charter": 4835, 
  "Prague": 4836, 
  "off@@": 4837, 
  "invited": 4838, 
  "ler": 4839, 
  "piece": 4840, 
  "premium": 4841, 
  "Swedish": 4842, 
  "scandals": 4843, 
  "absorb": 4844, 
  "anticipated": 4845, 
  "contains": 4846, 
  "crop": 4847, 
  "governmental": 4848, 
  "partial": 4849, 
  "distributed": 4850, 
  "bombs": 4851, 
  "predecessor": 4852, 
  "odds": 4853, 
  "ah": 4854, 
  "Royal": 4855, 
  "deliberately": 4856, 
  "symbolic": 4857, 
  "interference": 4858, 
  "post@@": 4859, 
  "grade": 4860, 
  "wise": 4861, 
  "exclusively": 4862, 
  "ici@@": 4863, 
  "symbol": 4864, 
  "overnight": 4865, 
  "censorship": 4866, 
  "comp@@": 4867, 
  "ines": 4868, 
  "militias": 4869, 
  "arguably": 4870, 
  "separation": 4871, 
  "regain": 4872, 
  "Labour": 4873, 
  "accounted": 4874, 
  "tr@@": 4875, 
  "temperatures": 4876, 
  "earned": 4877, 
  "tically": 4878, 
  "connections": 4879, 
  "skeptical": 4880, 
  "document": 4881, 
  "creditor": 4882, 
  "Somalia": 4883, 
  "comparative": 4884, 
  "Wen": 4885, 
  "catch": 4886, 
  "arrangement": 4887, 
  "acute": 4888, 
  "liquid": 4889, 
  "sin@@": 4890, 
  "suffers": 4891, 
  "platform": 4892, 
  "patent": 4893, 
  "cu@@": 4894, 
  "negotiation": 4895, 
  "sadly": 4896, 
  "dy": 4897, 
  "comm@@": 4898, 
  "decrease": 4899, 
  "calculations": 4900, 
  "systematic": 4901, 
  "insecurity": 4902, 
  "populism": 4903, 
  "salaries": 4904, 
  "futures": 4905, 
  "studied": 4906, 
  "checks": 4907, 
  "logical": 4908, 
  "occurs": 4909, 
  "offensive": 4910, 
  "reasonably": 4911, 
  "architecture": 4912, 
  "Climate": 4913, 
  "constitutes": 4914, 
  "lan@@": 4915, 
  "widening": 4916, 
  "pull": 4917, 
  "Red": 4918, 
  "proclaimed": 4919, 
  "bearing": 4920, 
  "substitute": 4921, 
  "calm": 4922, 
  "erupted": 4923, 
  "cautious": 4924, 
  "unnecessary": 4925, 
  "Times": 4926, 
  "neighborhood": 4927, 
  "Gandhi": 4928, 
  "Brazilian": 4929, 
  "games": 4930, 
  "talent": 4931, 
  "lender": 4932, 
  "reformers": 4933, 
  "indifference": 4934, 
  "endorsed": 4935, 
  "spends": 4936, 
  "filled": 4937, 
  "missions": 4938, 
  "EFSF": 4939, 
  "affects": 4940, 
  "govern": 4941, 
  "clu@@": 4942, 
  "shortcomings": 4943, 
  "notice": 4944, 
  "internet": 4945, 
  "bly": 4946, 
  "panel": 4947, 
  "public-@@": 4948, 
  "ony": 4949, 
  "sw@@": 4950, 
  "split": 4951, 
  "bal@@": 4952, 
  "unite": 4953, 
  "taught": 4954, 
  "restricted": 4955, 
  "Socialist": 4956, 
  "prevailed": 4957, 
  "propose": 4958, 
  "public-sector": 4959, 
  "indirect": 4960, 
  "inclusion": 4961, 
  "eling": 4962, 
  "nation@@": 4963, 
  "emerges": 4964, 
  "skeptics": 4965, 
  "LDP": 4966, 
  "ron@@": 4967, 
  "Congo": 4968, 
  "sentiments": 4969, 
  "determining": 4970, 
  "extension": 4971, 
  "stic": 4972, 
  "rated": 4973, 
  "performed": 4974, 
  "destroying": 4975, 
  "spe@@": 4976, 
  "justification": 4977, 
  "65": 4978, 
  "remote": 4979, 
  "margin": 4980, 
  "Liu": 4981, 
  "traffic": 4982, 
  "Koizumi": 4983, 
  "cure": 4984, 
  "Kurds": 4985, 
  "br@@": 4986, 
  "degrees": 4987, 
  "preferred": 4988, 
  "dozen": 4989, 
  "recovered": 4990, 
  "av@@": 4991, 
  "slowing": 4992, 
  "solved": 4993, 
  "ots": 4994, 
  "accelerated": 4995, 
  "ases": 4996, 
  "sectarian": 4997, 
  "He@@": 4998, 
  "rivals": 4999, 
  "T": 5000, 
  "gross": 5001, 
  "bases": 5002, 
  "extremist": 5003, 
  "centralized": 5004, 
  "indebted": 5005, 
  "opposing": 5006, 
  "distress": 5007, 
  "founding": 5008, 
  "sted": 5009, 
  "Mi@@": 5010, 
  "stuck": 5011, 
  "undermines": 5012, 
  "del@@": 5013, 
  "luxury": 5014, 
  "misleading": 5015, 
  "attempting": 5016, 
  "availability": 5017, 
  "forge": 5018, 
  "settled": 5019, 
  "ese": 5020, 
  "capability": 5021, 
  "Geneva": 5022, 
  "partnerships": 5023, 
  "inaction": 5024, 
  "evi@@": 5025, 
  "Office": 5026, 
  "exporting": 5027, 
  "regulate": 5028, 
  "iting": 5029, 
  "ll": 5030, 
  "understands": 5031, 
  "Cameron": 5032, 
  "Free": 5033, 
  "mer@@": 5034, 
  "transmission": 5035, 
  "ty-@@": 5036, 
  "str@@": 5037, 
  "route": 5038, 
  "Chief": 5039, 
  "biodiversity": 5040, 
  "reveal": 5041, 
  "originally": 5042, 
  "overly": 5043, 
  "rises": 5044, 
  "Yushchenko": 5045, 
  "v": 5046, 
  "ment@@": 5047, 
  "unification": 5048, 
  "consolidate": 5049, 
  "val@@": 5050, 
  "adaptation": 5051, 
  "Premier": 5052, 
  "dimension": 5053, 
  "post-war": 5054, 
  "locked": 5055, 
  "electric": 5056, 
  "enduring": 5057, 
  "�": 5058, 
  "uted": 5059, 
  "Maastricht": 5060, 
  "burning": 5061, 
  "display": 5062, 
  "thinks": 5063, 
  "temptation": 5064, 
  "heading": 5065, 
  "announcement": 5066, 
  "form@@": 5067, 
  "cked": 5068, 
  "assumptions": 5069, 
  "predecessors": 5070, 
  "pick": 5071, 
  "choosing": 5072, 
  "request": 5073, 
  "acquired": 5074, 
  "portfolio": 5075, 
  "defaults": 5076, 
  "covered": 5077, 
  "Ben": 5078, 
  "collaboration": 5079, 
  "ce-@@": 5080, 
  "Swiss": 5081, 
  "GNP": 5082, 
  "atten@@": 5083, 
  "Sh@@": 5084, 
  "mat@@": 5085, 
  "fifth": 5086, 
  "tradable": 5087, 
  "Schröder": 5088, 
  "q@@": 5089, 
  "militants": 5090, 
  "origins": 5091, 
  "fundamentalism": 5092, 
  "sto@@": 5093, 
  "stations": 5094, 
  "scandal": 5095, 
  "ades": 5096, 
  "radically": 5097, 
  "located": 5098, 
  "hazard": 5099, 
  "defensive": 5100, 
  "securing": 5101, 
  "Khrushchev": 5102, 
  "Berkeley": 5103, 
  "gases": 5104, 
  "consent": 5105, 
  "wn": 5106, 
  "sub-@@": 5107, 
  "lec@@": 5108, 
  "ger": 5109, 
  "personnel": 5110, 
  "villages": 5111, 
  "invented": 5112, 
  "Sunnis": 5113, 
  "bargain": 5114, 
  "religions": 5115, 
  "Ban": 5116, 
  "Asians": 5117, 
  "bondholders": 5118, 
  "ation@@": 5119, 
  "mentioned": 5120, 
  "association": 5121, 
  "Moldova": 5122, 
  "rebalancing": 5123, 
  "assault": 5124, 
  "brief": 5125, 
  "ther": 5126, 
  "prize": 5127, 
  "bail": 5128, 
  "rigid": 5129, 
  "completed": 5130, 
  "immigrant": 5131, 
  "ong": 5132, 
  "motives": 5133, 
  "Chechen": 5134, 
  "statistical": 5135, 
  "ast": 5136, 
  "medium-term": 5137, 
  "downs": 5138, 
  "coun@@": 5139, 
  "reforming": 5140, 
  "outsiders": 5141, 
  "riots": 5142, 
  "facility": 5143, 
  "tes": 5144, 
  "TB": 5145, 
  "retail": 5146, 
  "provinces": 5147, 
  "sal@@": 5148, 
  "poised": 5149, 
  "Program": 5150, 
  "islands": 5151, 
  "virus": 5152, 
  "Trichet": 5153, 
  "keen": 5154, 
  "compare": 5155, 
  "exchanges": 5156, 
  "dri@@": 5157, 
  "Nuclear": 5158, 
  "responding": 5159, 
  "solving": 5160, 
  "pact": 5161, 
  "run-up": 5162, 
  "entity": 5163, 
  "If": 5164, 
  "excuse": 5165, 
  "minimize": 5166, 
  "parliaments": 5167, 
  "indicates": 5168, 
  "timing": 5169, 
  "secured": 5170, 
  "resilience": 5171, 
  "San": 5172, 
  "6.@@": 5173, 
  "interim": 5174, 
  "her@@": 5175, 
  "brink": 5176, 
  "organize": 5177, 
  "ideals": 5178, 
  "witness": 5179, 
  "ach": 5180, 
  "Round": 5181, 
  "occasion": 5182, 
  "civilized": 5183, 
  "tide": 5184, 
  "unpredictable": 5185, 
  "shor@@": 5186, 
  "uns@@": 5187, 
  "Norway": 5188, 
  "Alan": 5189, 
  "attracted": 5190, 
  "tanks": 5191, 
  "react": 5192, 
  "spectacular": 5193, 
  "Th@@": 5194, 
  "bears": 5195, 
  "scholars": 5196, 
  "underground": 5197, 
  "irresponsible": 5198, 
  "tissue": 5199, 
  "ward": 5200, 
  "incapable": 5201, 
  "Thatcher": 5202, 
  "decisively": 5203, 
  "nationalists": 5204, 
  "probability": 5205, 
  "trap": 5206, 
  "disappeared": 5207, 
  "dealt": 5208, 
  "warnings": 5209, 
  "assured": 5210, 
  "phrase": 5211, 
  "tremendous": 5212, 
  "exceptions": 5213, 
  "balancing": 5214, 
  "Leader": 5215, 
  "PLO": 5216, 
  "booms": 5217, 
  "entities": 5218, 
  "ant@@": 5219, 
  "accomplish": 5220, 
  "For@@": 5221, 
  "detailed": 5222, 
  "meantime": 5223, 
  "empty": 5224, 
  "formidable": 5225, 
  "deb@@": 5226, 
  "ration": 5227, 
  "Roosevelt": 5228, 
  "differ": 5229, 
  "conservation": 5230, 
  "affair": 5231, 
  "object": 5232, 
  "teaching": 5233, 
  "15@@": 5234, 
  "grant": 5235, 
  "barrel": 5236, 
  "unclear": 5237, 
  "arian": 5238, 
  "outs": 5239, 
  "winner": 5240, 
  "star": 5241, 
  "assumes": 5242, 
  "monitor": 5243, 
  "bli@@": 5244, 
  "implying": 5245, 
  "excellent": 5246, 
  "ap": 5247, 
  "affecting": 5248, 
  "Government": 5249, 
  "Ri@@": 5250, 
  "imbalance": 5251, 
  "organisms": 5252, 
  "ti": 5253, 
  "totally": 5254, 
  "messages": 5255, 
  "motion": 5256, 
  "la": 5257, 
  "zz@@": 5258, 
  "radiation": 5259, 
  "routinely": 5260, 
  "ining": 5261, 
  "etc": 5262, 
  "vacuum": 5263, 
  "cri@@": 5264, 
  "Tiananmen": 5265, 
  "persist": 5266, 
  "warfare": 5267, 
  "harmful": 5268, 
  "cro@@": 5269, 
  "sheer": 5270, 
  "fighters": 5271, 
  "medicines": 5272, 
  "distressed": 5273, 
  "outsourcing": 5274, 
  "judged": 5275, 
  "Morocco": 5276, 
  "fertility": 5277, 
  "ering": 5278, 
  "revived": 5279, 
  "blocked": 5280, 
  "Green": 5281, 
  "forth": 5282, 
  "carbon-@@": 5283, 
  "hon@@": 5284, 
  "payment": 5285, 
  "stark": 5286, 
  "stems": 5287, 
  "affordable": 5288, 
  "sale": 5289, 
  "illusion": 5290, 
  "seeds": 5291, 
  "suppose": 5292, 
  "Per@@": 5293, 
  "guilty": 5294, 
  "far-reaching": 5295, 
  "coupled": 5296, 
  "100,000": 5297, 
  "repressive": 5298, 
  "medi@@": 5299, 
  "ana": 5300, 
  "temporarily": 5301, 
  "assassination": 5302, 
  "blo@@": 5303, 
  "restraint": 5304, 
  "humiliation": 5305, 
  "bills": 5306, 
  "fired": 5307, 
  "benign": 5308, 
  "rally": 5309, 
  "peripheral": 5310, 
  "ame": 5311, 
  "len@@": 5312, 
  "invariably": 5313, 
  "engaging": 5314, 
  "ambition": 5315, 
  "imagination": 5316, 
  "containment": 5317, 
  "Hague": 5318, 
  "threshold": 5319, 
  "sick": 5320, 
  "freeze": 5321, 
  "electronic": 5322, 
  "new@@": 5323, 
  "camp": 5324, 
  "considerably": 5325, 
  "miss": 5326, 
  "roll": 5327, 
  "succession": 5328, 
  "mutually": 5329, 
  "Report": 5330, 
  "Serbian": 5331, 
  "welcomed": 5332, 
  "myth": 5333, 
  "angry": 5334, 
  "examine": 5335, 
  "wary": 5336, 
  "insolvent": 5337, 
  "departure": 5338, 
  "beat": 5339, 
  "subsequently": 5340, 
  "healthcare": 5341, 
  "socially": 5342, 
  "retreat": 5343, 
  "low-income": 5344, 
  "recorded": 5345, 
  "behalf": 5346, 
  "businessmen": 5347, 
  "audience": 5348, 
  "sport": 5349, 
  "station": 5350, 
  "fre@@": 5351, 
  "vice": 5352, 
  "James": 5353, 
  "Rwanda": 5354, 
  "reflection": 5355, 
  "1973": 5356, 
  "Li@@": 5357, 
  "deputy": 5358, 
  "missed": 5359, 
  "sounds": 5360, 
  "likes": 5361, 
  "crowd": 5362, 
  "complain": 5363, 
  "oned": 5364, 
  "aggression": 5365, 
  "vague": 5366, 
  "enthusiasm": 5367, 
  "tariff": 5368, 
  "Peru": 5369, 
  "channel": 5370, 
  "rewards": 5371, 
  "jo@@": 5372, 
  "equipped": 5373, 
  "booming": 5374, 
  "democrats": 5375, 
  "Algeria": 5376, 
  "8.@@": 5377, 
  "liberation": 5378, 
  "satisfy": 5379, 
  "Bi@@": 5380, 
  "Communists": 5381, 
  "Georgian": 5382, 
  "orderly": 5383, 
  "performing": 5384, 
  "shrinking": 5385, 
  "discover": 5386, 
  "confusion": 5387, 
  "semi-@@": 5388, 
  "0,000": 5389, 
  "tolerate": 5390, 
  "readily": 5391, 
  "disin@@": 5392, 
  "self-interest": 5393, 
  "pledged": 5394, 
  "aircraft": 5395, 
  "encourages": 5396, 
  "suit": 5397, 
  "peasants": 5398, 
  "elderly": 5399, 
  "inherited": 5400, 
  "wins": 5401, 
  "counts": 5402, 
  "peacefully": 5403, 
  "gaps": 5404, 
  "Jintao": 5405, 
  "card": 5406, 
  "ani@@": 5407, 
  "farming": 5408, 
  "democratically": 5409, 
  "Secretary-General": 5410, 
  "intent": 5411, 
  "Par@@": 5412, 
  "seized": 5413, 
  "fal@@": 5414, 
  "legally": 5415, 
  "catastrophic": 5416, 
  "devices": 5417, 
  "uncertainties": 5418, 
  "substance": 5419, 
  "il": 5420, 
  "Initiative": 5421, 
  "massacre": 5422, 
  "writers": 5423, 
  "surveys": 5424, 
  "kes": 5425, 
  "masses": 5426, 
  "brand": 5427, 
  "tangible": 5428, 
  "But": 5429, 
  "4-@@": 5430, 
  "genuinely": 5431, 
  "unusual": 5432, 
  "conclusions": 5433, 
  "ok": 5434, 
  "There": 5435, 
  "low-cost": 5436, 
  "ner@@": 5437, 
  "all-@@": 5438, 
  "ening": 5439, 
  "occurring": 5440, 
  "bing": 5441, 
  "rice": 5442, 
  "factories": 5443, 
  "dreams": 5444, 
  "abandoning": 5445, 
  "and-@@": 5446, 
  "rever@@": 5447, 
  "ft": 5448, 
  "Hillary": 5449, 
  "satellite": 5450, 
  "oligarchs": 5451, 
  "middle-income": 5452, 
  "value-added": 5453, 
  "moderates": 5454, 
  "ect": 5455, 
  "ley": 5456, 
  "recommendations": 5457, 
  "att@@": 5458, 
  "infected": 5459, 
  "hide": 5460, 
  "portion": 5461, 
  "inherently": 5462, 
  "sanitation": 5463, 
  "exaggerated": 5464, 
  "gun": 5465, 
  "IAEA": 5466, 
  "systematically": 5467, 
  "single-@@": 5468, 
  "notable": 5469, 
  "ash@@": 5470, 
  "Ukrainian": 5471, 
  "CEO": 5472, 
  "KGB": 5473, 
  "199@@": 5474, 
  "identities": 5475, 
  "aring": 5476, 
  "Day": 5477, 
  "literally": 5478, 
  "ble@@": 5479, 
  "crimin@@": 5480, 
  "sustaining": 5481, 
  "deterioration": 5482, 
  "continental": 5483, 
  "Pro@@": 5484, 
  "plac@@": 5485, 
  "oversight": 5486, 
  "boards": 5487, 
  "Ma@@": 5488, 
  "M": 5489, 
  "ads": 5490, 
  "hydro@@": 5491, 
  "dissidents": 5492, 
  "Morsi": 5493, 
  "dysfunctional": 5494, 
  "formally": 5495, 
  "urge": 5496, 
  "seize": 5497, 
  "struggles": 5498, 
  "poll@@": 5499, 
  "spiral": 5500, 
  "breakdown": 5501, 
  "alities": 5502, 
  "Castro": 5503, 
  "settlers": 5504, 
  "preserving": 5505, 
  "phone": 5506, 
  "feet": 5507, 
  "Brotherhood": 5508, 
  "IC@@": 5509, 
  "diminish": 5510, 
  "carries": 5511, 
  "gri@@": 5512, 
  "pool": 5513, 
  "takeover": 5514, 
  "radicals": 5515, 
  "doors": 5516, 
  "Goals": 5517, 
  "Fox": 5518, 
  "Saudis": 5519, 
  "Kazakhstan": 5520, 
  "deleveraging": 5521, 
  "appearance": 5522, 
  "im": 5523, 
  "inherent": 5524, 
  "delivering": 5525, 
  "Criminal": 5526, 
  "sely": 5527, 
  "letter": 5528, 
  "tended": 5529, 
  "emission": 5530, 
  "depressed": 5531, 
  "or-@@": 5532, 
  "potent": 5533, 
  "sis": 5534, 
  "sm@@": 5535, 
  "Orthodox": 5536, 
  "Osama": 5537, 
  "elled": 5538, 
  "induce": 5539, 
  "requirement": 5540, 
  "Ministry": 5541, 
  "tourism": 5542, 
  "clo@@": 5543, 
  "oning": 5544, 
  "exclusion": 5545, 
  "One": 5546, 
  "-up": 5547, 
  "ignorance": 5548, 
  "fil@@": 5549, 
  "lau@@": 5550, 
  "respectively": 5551, 
  "cli@@": 5552, 
  "dictators": 5553, 
  "relevance": 5554, 
  "Change": 5555, 
  "psychology": 5556, 
  "bankrupt": 5557, 
  "Empire": 5558, 
  "depth": 5559, 
  "listen": 5560, 
  "partisan": 5561, 
  "4.@@": 5562, 
  "pointing": 5563, 
  "accordingly": 5564, 
  "Tibetan": 5565, 
  "fat@@": 5566, 
  "Hollande": 5567, 
  "quar@@": 5568, 
  "financially": 5569, 
  "profession": 5570, 
  "favorite": 5571, 
  "letting": 5572, 
  "besides": 5573, 
  "Southern": 5574, 
  "bonuses": 5575, 
  "landing": 5576, 
  "upcoming": 5577, 
  "episodes": 5578, 
  "closing": 5579, 
  "Thai": 5580, 
  "Front": 5581, 
  "Christians": 5582, 
  "shortages": 5583, 
  "recipe": 5584, 
  "safeguard": 5585, 
  "Erdoğan": 5586, 
  "afraid": 5587, 
  "permitted": 5588, 
  "emotions": 5589, 
  "Yanukovich": 5590, 
  "lessly": 5591, 
  "FARC": 5592, 
  "Argentine": 5593, 
  "arises": 5594, 
  "unilaterally": 5595, 
  "virtue": 5596, 
  "ew": 5597, 
  "refuses": 5598, 
  "problematic": 5599, 
  "Finland": 5600, 
  "tempted": 5601, 
  "handle": 5602, 
  "ined": 5603, 
  "Olympic": 5604, 
  "accelerating": 5605, 
  "advisers": 5606, 
  "removing": 5607, 
  "punished": 5608, 
  "foot@@": 5609, 
  "curb": 5610, 
  "traded": 5611, 
  "sponsored": 5612, 
  "despair": 5613, 
  "utterly": 5614, 
  "aggressively": 5615, 
  "assembly": 5616, 
  "termin@@": 5617, 
  "far@@": 5618, 
  "pervasive": 5619, 
  "focuses": 5620, 
  "shrink": 5621, 
  "chains": 5622, 
  "paralysis": 5623, 
  "delayed": 5624, 
  "ball": 5625, 
  "disparities": 5626, 
  "spectrum": 5627, 
  "resisted": 5628, 
  "admission": 5629, 
  "0.5": 5630, 
  "liber@@": 5631, 
  "bosses": 5632, 
  "indication": 5633, 
  "ards": 5634, 
  "tons": 5635, 
  "enforced": 5636, 
  "perceptions": 5637, 
  "academics": 5638, 
  "notwithstanding": 5639, 
  "construct": 5640, 
  "preventive": 5641, 
  "certainty": 5642, 
  "errors": 5643, 
  "pure": 5644, 
  "category": 5645, 
  "arbitrary": 5646, 
  "ked": 5647, 
  "Olympics": 5648, 
  "vibrant": 5649, 
  "shortfall": 5650, 
  "und@@": 5651, 
  "disorders": 5652, 
  "bers": 5653, 
  "believing": 5654, 
  "Koreans": 5655, 
  "ther@@": 5656, 
  "Havel": 5657, 
  "civic": 5658, 
  "servants": 5659, 
  "bargaining": 5660, 
  "depending": 5661, 
  "helpful": 5662, 
  "faction": 5663, 
  "disputed": 5664, 
  "13@@": 5665, 
  "pay@@": 5666, 
  "5,000": 5667, 
  "permanently": 5668, 
  "orientation": 5669, 
  "concepts": 5670, 
  "2,000": 5671, 
  "EU-@@": 5672, 
  "adequately": 5673, 
  "power@@": 5674, 
  "creativity": 5675, 
  "lity": 5676, 
  "Forces": 5677, 
  "ites": 5678, 
  "Dis@@": 5679, 
  "violation": 5680, 
  "slowed": 5681, 
  "preferences": 5682, 
  "alarming": 5683, 
  "expose": 5684, 
  "grants": 5685, 
  "od@@": 5686, 
  "perceive": 5687, 
  "disintegration": 5688, 
  "rat@@": 5689, 
  "erosion": 5690, 
  "location": 5691, 
  "prestige": 5692, 
  "stat@@": 5693, 
  "Uribe": 5694, 
  "Ukrainians": 5695, 
  "resistant": 5696, 
  "Guantánamo": 5697, 
  "pillars": 5698, 
  "concentrate": 5699, 
  "destabilizing": 5700, 
  "urged": 5701, 
  "Erdogan": 5702, 
  "distinguish": 5703, 
  "consume": 5704, 
  "efficiently": 5705, 
  "Su@@": 5706, 
  "postwar": 5707, 
  "Warsaw": 5708, 
  "approaching": 5709, 
  "low-carbon": 5710, 
  "tioning": 5711, 
  "processing": 5712, 
  "adi@@": 5713, 
  "imminent": 5714, 
  "touch": 5715, 
  "1-@@": 5716, 
  "Be@@": 5717, 
  "energy-@@": 5718, 
  "precise": 5719, 
  "exile": 5720, 
  "hungry": 5721, 
  "Rumsfeld": 5722, 
  "all@@": 5723, 
  "stream": 5724, 
  "win@@": 5725, 
  "crude": 5726, 
  "First": 5727, 
  "labor-market": 5728, 
  "Egyptians": 5729, 
  "accumulated": 5730, 
  "historians": 5731, 
  "Hatoyama": 5732, 
  "deployment": 5733, 
  "reportedly": 5734, 
  "fled": 5735, 
  "hate": 5736, 
  "deliberate": 5737, 
  "asing": 5738, 
  "ce@@": 5739, 
  "philosopher": 5740, 
  "bas@@": 5741, 
  "Strip": 5742, 
  "appreciated": 5743, 
  "ah@@": 5744, 
  "ell@@": 5745, 
  "toll": 5746, 
  "symbols": 5747, 
  "hearts": 5748, 
  "fic@@": 5749, 
  "ack": 5750, 
  "can@@": 5751, 
  "ini@@": 5752, 
  "fundamentalist": 5753, 
  "Governing": 5754, 
  "reasoning": 5755, 
  "participating": 5756, 
  "geography": 5757, 
  "entails": 5758, 
  "Un@@": 5759, 
  "operational": 5760, 
  "communists": 5761, 
  "Ayatollah": 5762, 
  "evolved": 5763, 
  "deserves": 5764, 
  "lic@@": 5765, 
  "pricing": 5766, 
  "eat": 5767, 
  "infl@@": 5768, 
  "blin@@": 5769, 
  "disturbing": 5770, 
  "port": 5771, 
  "multilateralism": 5772, 
  "driver": 5773, 
  "habits": 5774, 
  "flaws": 5775, 
  "offices": 5776, 
  "excessively": 5777, 
  "Go@@": 5778, 
  "inner": 5779, 
  "subsidy": 5780, 
  "Vice": 5781, 
  "coast": 5782, 
  "Oslo": 5783, 
  "interdependence": 5784, 
  "School": 5785, 
  "Recession": 5786, 
  "unresolved": 5787, 
  "theoretical": 5788, 
  "transportation": 5789, 
  "inspire": 5790, 
  "comfortable": 5791, 
  "guided": 5792, 
  "eless": 5793, 
  "accord": 5794, 
  "prudential": 5795, 
  "lift": 5796, 
  "controversy": 5797, 
  "malaise": 5798, 
  "2-@@": 5799, 
  "insisting": 5800, 
  "eting": 5801, 
  "human-rights": 5802, 
  "enlightened": 5803, 
  "excesses": 5804, 
  "zones": 5805, 
  "workforce": 5806, 
  "kilometers": 5807, 
  "ing-@@": 5808, 
  "righ@@": 5809, 
  "cited": 5810, 
  "fications": 5811, 
  "Labor": 5812, 
  "th-@@": 5813, 
  "premature": 5814, 
  "1,@@": 5815, 
  "walk": 5816, 
  "sho@@": 5817, 
  "spiritual": 5818, 
  "O": 5819, 
  "paradigm": 5820, 
  "liberalism": 5821, 
  "scarcity": 5822, 
  "engines": 5823, 
  "Jazeera": 5824, 
  "markedly": 5825, 
  "reveals": 5826, 
  "injustice": 5827, 
  "assert": 5828, 
  "reckless": 5829, 
  "ll@@": 5830, 
  "cards": 5831, 
  "mistaken": 5832, 
  "avert": 5833, 
  "ports": 5834, 
  "treatments": 5835, 
  "tation": 5836, 
  "baby": 5837, 
  "Gordon": 5838, 
  "universe": 5839, 
  "Fukushima": 5840, 
  "enti@@": 5841, 
  "high-quality": 5842, 
  "soil": 5843, 
  "degradation": 5844, 
  "refugee": 5845, 
  "classical": 5846, 
  "aligned": 5847, 
  "Woods": 5848, 
  "stor@@": 5849, 
  "distrust": 5850, 
  "gotten": 5851, 
  "leveraged": 5852, 
  "admitted": 5853, 
  "venture": 5854, 
  "march": 5855, 
  "distortions": 5856, 
  "grain": 5857, 
  "conceived": 5858, 
  "1980s": 5859, 
  "Orange": 5860, 
  "tures": 5861, 
  "ts@@": 5862, 
  "skill": 5863, 
  "ff": 5864, 
  "casualties": 5865, 
  "Smith": 5866, 
  "Ecuador": 5867, 
  "author": 5868, 
  "exclusive": 5869, 
  "edi@@": 5870, 
  "ang@@": 5871, 
  "Hugo": 5872, 
  "proceed": 5873, 
  "lin@@": 5874, 
  "cross": 5875, 
  "cynical": 5876, 
  "no-@@": 5877, 
  "rape": 5878, 
  "emphasize": 5879, 
  "iling": 5880, 
  "trade-@@": 5881, 
  "lest": 5882, 
  "Donald": 5883, 
  "soccer": 5884, 
  "sei@@": 5885, 
  "drag": 5886, 
  "elec@@": 5887, 
  "deposit": 5888, 
  "Libyan": 5889, 
  "legislators": 5890, 
  "borrowed": 5891, 
  "debtor": 5892, 
  "constituencies": 5893, 
  "paradoxically": 5894, 
  "op": 5895, 
  "horizon": 5896, 
  "dictatorships": 5897, 
  "attend": 5898, 
  "urgency": 5899, 
  "wild": 5900, 
  "tight": 5901, 
  "1.3": 5902, 
  "kno@@": 5903, 
  "presumably": 5904, 
  "totalitarian": 5905, 
  "intensity": 5906, 
  "penalty": 5907, 
  "ann@@": 5908, 
  "Kuchma": 5909, 
  "Khodorkovsky": 5910, 
  "manufactured": 5911, 
  "sheet": 5912, 
  "records": 5913, 
  "aming": 5914, 
  "warm": 5915, 
  "merit": 5916, 
  "sentence": 5917, 
  "but@@": 5918, 
  "UN@@": 5919, 
  "music": 5920, 
  "cle@@": 5921, 
  "shaping": 5922, 
  "gh": 5923, 
  "specter": 5924, 
  "founder": 5925, 
  "repair": 5926, 
  "valued": 5927, 
  "sia": 5928, 
  "incidents": 5929, 
  "thir@@": 5930, 
  "neglected": 5931, 
  "embedded": 5932, 
  "impunity": 5933, 
  "boys": 5934, 
  "five-year": 5935, 
  "X@@": 5936, 
  "Maynard": 5937, 
  "combating": 5938, 
  "Viktor": 5939, 
  "patents": 5940, 
  "assi@@": 5941, 
  "eh@@": 5942, 
  "exported": 5943, 
  "provoke": 5944, 
  "Olmert": 5945, 
  "Di@@": 5946, 
  "transaction": 5947, 
  "reformed": 5948, 
  "dissent": 5949, 
  "9.@@": 5950, 
  "borne": 5951, 
  "inn@@": 5952, 
  "comfort": 5953, 
  "wherever": 5954, 
  "rap@@": 5955, 
  "Duma": 5956, 
  "ministries": 5957, 
  "Arab-Israeli": 5958, 
  "urbanization": 5959, 
  "incomplete": 5960, 
  "irony": 5961, 
  "ranking": 5962, 
  "supervisory": 5963, 
  "myriad": 5964, 
  "chil@@": 5965, 
  "authoritarianism": 5966, 
  "oil-@@": 5967, 
  "loose": 5968, 
  "allegedly": 5969, 
  "lethal": 5970, 
  "governor": 5971, 
  "radio": 5972, 
  "ly-@@": 5973, 
  "respects": 5974, 
  "absurd": 5975, 
  "militant": 5976, 
  "ie": 5977, 
  "Finance": 5978, 
  "ample": 5979, 
  "remembered": 5980, 
  "(LST": 5981, 
  "explosive": 5982, 
  ")LST": 5983, 
  "dent": 5984, 
  "alter": 5985, 
  "NGOs": 5986, 
  "attributed": 5987, 
  "hurricanes": 5988, 
  "gy": 5989, 
  "explanations": 5990, 
  "allocated": 5991, 
  "immune": 5992, 
  "exacerbated": 5993, 
  "2030": 5994, 
  "Hu@@": 5995, 
  "middle-class": 5996, 
  "thri@@": 5997, 
  "arly": 5998, 
  "29": 5999, 
  "Lee": 6000, 
  "Bretton": 6001, 
  "eding": 6002, 
  "consuming": 6003, 
  "favors": 6004, 
  "exploited": 6005, 
  "rests": 6006, 
  "conspiracy": 6007, 
  "master": 6008, 
  "Bahrain": 6009, 
  "eded": 6010, 
  "federation": 6011, 
  "battles": 6012, 
  "life-@@": 6013, 
  "row": 6014, 
  "sing@@": 6015, 
  "stagnant": 6016, 
  "secretary": 6017, 
  "atively": 6018, 
  "trapped": 6019, 
  "marginalized": 6020, 
  "adjusted": 6021, 
  "surrender": 6022, 
  "speculators": 6023, 
  "reversal": 6024, 
  "eg@@": 6025, 
  "contest": 6026, 
  "commonly": 6027, 
  "unexpected": 6028, 
  "Congressional": 6029, 
  "aling": 6030, 
  "extraordinarily": 6031, 
  "absolutely": 6032, 
  "appealing": 6033, 
  "whi@@": 6034, 
  "Strategy": 6035, 
  "scrutiny": 6036, 
  "ker": 6037, 
  "-market": 6038, 
  "bles": 6039, 
  "picked": 6040, 
  "insurgents": 6041, 
  "gues": 6042, 
  "hire": 6043, 
  "entrepreneurial": 6044, 
  "az@@": 6045, 
  "swept": 6046, 
  "lasted": 6047, 
  "surrounded": 6048, 
  "85": 6049, 
  "confi@@": 6050, 
  "ened": 6051, 
  "statehood": 6052, 
  "perpetrators": 6053, 
  "deforestation": 6054, 
  "analogy": 6055, 
  "actor": 6056, 
  "ra": 6057, 
  "MDGs": 6058, 
  "enhancing": 6059, 
  "generates": 6060, 
  "indispensable": 6061, 
  "consists": 6062, 
  "imperfect": 6063, 
  "non-proliferation": 6064, 
  "luck": 6065, 
  "squ@@": 6066, 
  "scientist": 6067, 
  "pit@@": 6068, 
  "provincial": 6069, 
  "guns": 6070, 
  "sad": 6071, 
  "moments": 6072, 
  "straightforward": 6073, 
  "Calderón": 6074, 
  "crisis-@@": 6075, 
  "gener@@": 6076, 
  "dismiss": 6077, 
  "Caribbean": 6078, 
  "necessity": 6079, 
  "Fi@@": 6080, 
  "defended": 6081, 
  "Chernobyl": 6082, 
  "dre@@": 6083, 
  "floods": 6084, 
  "Bulgaria": 6085, 
  "imagined": 6086, 
  "rage": 6087, 
  "interpreted": 6088, 
  "deepen": 6089, 
  "quiet": 6090, 
  "rush": 6091, 
  "throwing": 6092, 
  "landscape": 6093, 
  "gue": 6094, 
  "long-standing": 6095, 
  "lam@@": 6096, 
  "grand@@": 6097, 
  "Boris": 6098, 
  "­-": 6099, 
  "ef@@": 6100, 
  "Jiang": 6101, 
  "For": 6102, 
  "organizing": 6103, 
  "app@@": 6104, 
  "Shiite": 6105, 
  "sitting": 6106, 
  "counterproductive": 6107, 
  "jail": 6108, 
  "suggesting": 6109, 
  "distorted": 6110, 
  "insists": 6111, 
  "post-Soviet": 6112, 
  "interaction": 6113, 
  "apparatus": 6114, 
  "vac@@": 6115, 
  "reluctance": 6116, 
  "Obasanjo": 6117, 
  "breaks": 6118, 
  "iron": 6119, 
  "personality": 6120, 
  "indirectly": 6121, 
  "translate": 6122, 
  "ruler": 6123, 
  "pound": 6124, 
  "US-led": 6125, 
  "lesser": 6126, 
  "elect": 6127, 
  "ner": 6128, 
  "Latvia": 6129, 
  "crackdown": 6130, 
  "offs": 6131, 
  "influenced": 6132, 
  "tactical": 6133, 
  "El": 6134, 
  "exceptional": 6135, 
  "endless": 6136, 
  "entrepreneurship": 6137, 
  "college": 6138, 
  "waters": 6139, 
  "anemic": 6140, 
  "tle": 6141, 
  "handed": 6142, 
  "norm": 6143, 
  "daunting": 6144, 
  "attacking": 6145, 
  "west": 6146, 
  "debt-to-GDP": 6147, 
  "precious": 6148, 
  "SCO": 6149, 
  "loses": 6150, 
  "impede": 6151, 
  "fur@@": 6152, 
  "circles": 6153, 
  "commerce": 6154, 
  "shi@@": 6155, 
  "smooth": 6156, 
  "of-@@": 6157, 
  "text": 6158, 
  "maneuver": 6159, 
  "exceeds": 6160, 
  "restoration": 6161, 
  "store": 6162, 
  "unrealistic": 6163, 
  "restrict": 6164, 
  "labor-intensive": 6165, 
  "char@@": 6166, 
  "corner": 6167, 
  "ass": 6168, 
  "amed": 6169, 
  "lower-@@": 6170, 
  "ent-@@": 6171, 
  "31": 6172, 
  "10,000": 6173, 
  "advertising": 6174, 
  "outstanding": 6175, 
  "exp@@": 6176, 
  "cat@@": 6177, 
  "PA": 6178, 
  "reunification": 6179, 
  "expects": 6180, 
  "genome": 6181, 
  "closest": 6182, 
  "occasionally": 6183, 
  "seeming": 6184, 
  "Bar@@": 6185, 
  "avi@@": 6186, 
  "Estonia": 6187, 
  "tics": 6188, 
  "mining": 6189, 
  "issuing": 6190, 
  "stalemate": 6191, 
  "cycles": 6192, 
  "belong": 6193, 
  "civilizations": 6194, 
  "si": 6195, 
  "Revolutionary": 6196, 
  "bulk": 6197, 
  "hero": 6198, 
  "Cambodia": 6199, 
  "arena": 6200, 
  "resolutions": 6201, 
  "replacement": 6202, 
  "introducing": 6203, 
  "essed": 6204, 
  "tries": 6205, 
  "inequalities": 6206, 
  "ately": 6207, 
  "infectious": 6208, 
  "worsen": 6209, 
  "derived": 6210, 
  "Movement": 6211, 
  "detention": 6212, 
  "Sachs": 6213, 
  "advocated": 6214, 
  "mired": 6215, 
  "12@@": 6216, 
  "transforming": 6217, 
  "dge": 6218, 
  "hurricane": 6219, 
  "Partnership": 6220, 
  "le-@@": 6221, 
  "1981": 6222, 
  "considers": 6223, 
  "ests": 6224, 
  "stars": 6225, 
  "duties": 6226, 
  "Cheney": 6227, 
  "prosecution": 6228, 
  "ored": 6229, 
  "Director": 6230, 
  "ash": 6231, 
  "headlines": 6232, 
  "fees": 6233, 
  "tier": 6234, 
  "worsening": 6235, 
  "writer": 6236, 
  "laureate": 6237, 
  "drinking": 6238, 
  "lying": 6239, 
  "sh-@@": 6240, 
  "mas@@": 6241, 
  "onic": 6242, 
  "somewhere": 6243, 
  "thrown": 6244, 
  "incident": 6245, 
  "machines": 6246, 
  "sympathy": 6247, 
  "cru@@": 6248, 
  "Danish": 6249, 
  "cry": 6250, 
  "Australian": 6251, 
  "enables": 6252, 
  "materi@@": 6253, 
  "hikes": 6254, 
  "rail@@": 6255, 
  "sup@@": 6256, 
  "conditionality": 6257, 
  "foods": 6258, 
  "incumbent": 6259, 
  "pundits": 6260, 
  "ignoring": 6261, 
  "20th": 6262, 
  "winter": 6263, 
  "reminder": 6264, 
  "storage": 6265, 
  "pre-crisis": 6266, 
  "after@@": 6267, 
  "Abkhazia": 6268, 
  "mindset": 6269, 
  "Armenia": 6270, 
  "1987": 6271, 
  "obtained": 6272, 
  "prosecutors": 6273, 
  "Jong-il": 6274, 
  "_@@": 6275, 
  "flat": 6276, 
  "deadly": 6277, 
  "episode": 6278, 
  "Joseph": 6279, 
  "domestically": 6280, 
  "ern@@": 6281, 
  "600": 6282, 
  "1982": 6283, 
  "provoked": 6284, 
  "discontent": 6285, 
  "discourage": 6286, 
  "vehicle": 6287, 
  "lim@@": 6288, 
  "indi@@": 6289, 
  "swings": 6290, 
  "gging": 6291, 
  "sciences": 6292, 
  "predictions": 6293, 
  "clout": 6294, 
  "mitigate": 6295, 
  "ratified": 6296, 
  "flu": 6297, 
  "hoping": 6298, 
  "confused": 6299, 
  "Hindu": 6300, 
  "forthcoming": 6301, 
  "vary": 6302, 
  "pal@@": 6303, 
  "No@@": 6304, 
  "rein": 6305, 
  "tribunal": 6306, 
  "fierce": 6307, 
  "benefiting": 6308, 
  "disagree": 6309, 
  "credits": 6310, 
  "liberties": 6311, 
  "subsidized": 6312, 
  "possess": 6313, 
  "whereby": 6314, 
  "export-led": 6315, 
  "ide@@": 6316, 
  "scheduled": 6317, 
  "accustomed": 6318, 
  "spur": 6319, 
  "Kar@@": 6320, 
  "wards": 6321, 
  "infection": 6322, 
  "resignation": 6323, 
  "unthinkable": 6324, 
  "autocratic": 6325, 
  "presents": 6326, 
  "gen": 6327, 
  "strictly": 6328, 
  "unilateralism": 6329, 
  "ocean": 6330, 
  "ham@@": 6331, 
  "Communism": 6332, 
  "elling": 6333, 
  "autumn": 6334, 
  "droughts": 6335, 
  "bol@@": 6336, 
  "debacle": 6337, 
  "ka": 6338, 
  "Saleh": 6339, 
  "disproportionate": 6340, 
  "destiny": 6341, 
  "miles": 6342, 
  "itation": 6343, 
  "personally": 6344, 
  "rene@@": 6345, 
  "ga@@": 6346, 
  "nineteenth-century": 6347, 
  "window": 6348, 
  "Rice": 6349, 
  "launching": 6350, 
  "Foundation": 6351, 
  "pp@@": 6352, 
  "adults": 6353, 
  "exacerbate": 6354, 
  "Goldman": 6355, 
  "don@@": 6356, 
  "Force": 6357, 
  "feels": 6358, 
  "neutral": 6359, 
  "9-@@": 6360, 
  "Ossetia": 6361, 
  "rebuilding": 6362, 
  "viruses": 6363, 
  "Abe": 6364, 
  "vel@@": 6365, 
  "hur@@": 6366, 
  "resigned": 6367, 
  "distinguished": 6368, 
  "remittances": 6369, 
  "deter": 6370, 
  "dr@@": 6371, 
  "flowing": 6372, 
  "700": 6373, 
  "Mu@@": 6374, 
  "Kennedy": 6375, 
  "persuaded": 6376, 
  "es-@@": 6377, 
  "c-@@": 6378, 
  "uri@@": 6379, 
  "coastal": 6380, 
  "imperialism": 6381, 
  "empirical": 6382, 
  "grim": 6383, 
  "employ": 6384, 
  "contradictory": 6385, 
  "Henry": 6386, 
  "procedure": 6387, 
  "capital-@@": 6388, 
  "environmentally": 6389, 
  "oring": 6390, 
  "Poles": 6391, 
  "ff@@": 6392, 
  "tobacco": 6393, 
  "transitions": 6394, 
  "path@@": 6395, 
  "non-governmental": 6396, 
  "continuation": 6397, 
  "-L@@": 6398, 
  "star@@": 6399, 
  "accumulate": 6400, 
  "posi@@": 6401, 
  "childhood": 6402, 
  "protracted": 6403, 
  "pack@@": 6404, 
  "maintains": 6405, 
  "stages": 6406, 
  "gasoline": 6407, 
  "militia": 6408, 
  "spo@@": 6409, 
  "occupying": 6410, 
  "outset": 6411, 
  "directors": 6412, 
  "So@@": 6413, 
  "fortune": 6414, 
  "towns": 6415, 
  "pluralism": 6416, 
  "higher-@@": 6417, 
  "attraction": 6418, 
  "ss-@@": 6419, 
  "au": 6420, 
  "fruit": 6421, 
  "searching": 6422, 
  "stre@@": 6423, 
  "1968": 6424, 
  "7.@@": 6425, 
  "sums": 6426, 
  "myself": 6427, 
  "appointment": 6428, 
  "Pre@@": 6429, 
  "bombings": 6430, 
  "To@@": 6431, 
  "complaints": 6432, 
  "cies": 6433, 
  "oni@@": 6434, 
  "Freedom": 6435, 
  "siveness": 6436, 
  "lacked": 6437, 
  "mem@@": 6438, 
  "journalist": 6439, 
  "break@@": 6440, 
  "pragmatism": 6441, 
  "tual": 6442, 
  "contacts": 6443, 
  "Sri": 6444, 
  "percent": 6445, 
  "believers": 6446, 
  "walls": 6447, 
  "capacities": 6448, 
  "placing": 6449, 
  "pillar": 6450, 
  "internation@@": 6451, 
  "credentials": 6452, 
  "Tribunal": 6453, 
  "admittedly": 6454, 
  "lifted": 6455, 
  "St@@": 6456, 
  "administrations": 6457, 
  "hiring": 6458, 
  "wer": 6459, 
  "activism": 6460, 
  "deflationary": 6461, 
  "atrocities": 6462, 
  "oll@@": 6463, 
  "automobile": 6464, 
  "lifetime": 6465, 
  "rapprochement": 6466, 
  "Turks": 6467, 
  "best-@@": 6468, 
  "Ehud": 6469, 
  "unlimited": 6470, 
  "Sa@@": 6471, 
  "ai": 6472, 
  "futile": 6473, 
  "coalitions": 6474, 
  "receives": 6475, 
  "post-crisis": 6476, 
  "pling": 6477, 
  "moderation": 6478, 
  "revolt": 6479, 
  "items": 6480, 
  "prudent": 6481, 
  "Slovakia": 6482, 
  "arrival": 6483, 
  "gathering": 6484, 
  "sentenced": 6485, 
  "River": 6486, 
  "treasury": 6487, 
  "diversification": 6488, 
  "languages": 6489, 
  "existential": 6490, 
  "800": 6491, 
  "inspectors": 6492, 
  "associations": 6493, 
  "slogan": 6494, 
  "mature": 6495, 
  "Marx": 6496, 
  "risk-@@": 6497, 
  "breakthroughs": 6498, 
  "stressed": 6499, 
  "42": 6500, 
  "consciousness": 6501, 
  "vity": 6502, 
  "abortion": 6503, 
  "Guard": 6504, 
  "pra@@": 6505, 
  "Ju@@": 6506, 
  "shel@@": 6507, 
  "3.5": 6508, 
  "Corporation": 6509, 
  "clients": 6510, 
  "bar": 6511, 
  "indefinitely": 6512, 
  "contributes": 6513, 
  "club": 6514, 
  "Games": 6515, 
  "realization": 6516, 
  "signing": 6517, 
  "Seoul": 6518, 
  "two-state": 6519, 
  "abundant": 6520, 
  "fault": 6521, 
  "Solidarity": 6522, 
  "prosecutor": 6523, 
  "owe": 6524, 
  "indicator": 6525, 
  "autonomous": 6526, 
  "technocrats": 6527, 
  "1.4": 6528, 
  "Ba@@": 6529, 
  "dation": 6530, 
  "manufacturers": 6531, 
  "Xiaoping": 6532, 
  "allied": 6533, 
  "witnessing": 6534, 
  "chan@@": 6535, 
  "Kashmir": 6536, 
  "Hosni": 6537, 
  "reassuring": 6538, 
  "aches": 6539, 
  "boosted": 6540, 
  "Senator": 6541, 
  "distra@@": 6542, 
  "tat@@": 6543, 
  "sun": 6544, 
  "frozen": 6545, 
  "hy@@": 6546, 
  "comments": 6547, 
  "square": 6548, 
  "left-wing": 6549, 
  "Schroeder": 6550, 
  "ay": 6551, 
  "Croatia": 6552, 
  "brave": 6553, 
  "Ho@@": 6554, 
  "killings": 6555, 
  "page": 6556, 
  "axis": 6557, 
  "dogs": 6558, 
  "hostage": 6559, 
  "agendas": 6560, 
  "clarity": 6561, 
  "Sinai": 6562, 
  "wasted": 6563, 
  "gathered": 6564, 
  "sorts": 6565, 
  "akin": 6566, 
  "tuberculosis": 6567, 
  "thro@@": 6568, 
  "bolster": 6569, 
  "guidelines": 6570, 
  "eradication": 6571, 
  "crunch": 6572, 
  "celebrate": 6573, 
  "watched": 6574, 
  "exemp@@": 6575, 
  "movie": 6576, 
  "forming": 6577, 
  "eful": 6578, 
  "activist": 6579, 
  "deprived": 6580, 
  "Cro@@": 6581, 
  "repay": 6582, 
  "enormously": 6583, 
  "shame": 6584, 
  "implication": 6585, 
  "fle@@": 6586, 
  "stunning": 6587, 
  "industrialization": 6588, 
  "maximum": 6589, 
  "FSB": 6590, 
  "denying": 6591, 
  "complained": 6592, 
  "tin@@": 6593, 
  "floating": 6594, 
  "pledge": 6595, 
  "evolving": 6596, 
  "Morales": 6597, 
  "appeals": 6598, 
  "scores": 6599, 
  "lat@@": 6600, 
  "ration@@": 6601, 
  "8-@@": 6602, 
  "of@@": 6603, 
  "expectancy": 6604, 
  "quarters": 6605, 
  "frequency": 6606, 
  "worrisome": 6607, 
  "inhabitants": 6608, 
  "profoundly": 6609, 
  "removal": 6610, 
  "chess": 6611, 
  "malnutrition": 6612, 
  "Liberation": 6613, 
  "climate-change": 6614, 
  "exhausted": 6615, 
  "covering": 6616, 
  "Mor@@": 6617, 
  "rank": 6618, 
  "mainland": 6619, 
  "edness": 6620, 
  "Tea": 6621, 
  "frustrated": 6622, 
  "ousness": 6623, 
  "Governor": 6624, 
  "silver": 6625, 
  "imprisoned": 6626, 
  "convicted": 6627, 
  "equitable": 6628, 
  "postponed": 6629, 
  "Cultural": 6630, 
  "prompted": 6631, 
  "ecological": 6632, 
  "Yes": 6633, 
  "greed": 6634, 
  "2008-2009": 6635, 
  "ambassador": 6636, 
  "Ni@@": 6637, 
  "prevents": 6638, 
  "obliged": 6639, 
  "dro@@": 6640, 
  "flood": 6641, 
  "quantity": 6642, 
  "Greeks": 6643, 
  "vol@@": 6644, 
  "psychiatric": 6645, 
  "refusing": 6646, 
  "oppression": 6647, 
  "viewing": 6648, 
  "recipient": 6649, 
  "demonstrating": 6650, 
  "mirror": 6651, 
  "bleak": 6652, 
  "speeches": 6653, 
  "canc@@": 6654, 
  "adds": 6655, 
  ",000": 6656, 
  "Czechoslovakia": 6657, 
  "Research": 6658, 
  "Bhutto": 6659, 
  "fishing": 6660, 
  "blocks": 6661, 
  "G": 6662, 
  "resembles": 6663, 
  "trees": 6664, 
  "devise": 6665, 
  "dy@@": 6666, 
  "Zhao": 6667, 
  "arti@@": 6668, 
  "internally": 6669, 
  "sized": 6670, 
  "gr@@": 6671, 
  "assure": 6672, 
  "tenure": 6673, 
  "continuity": 6674, 
  "reactor": 6675, 
  "proposing": 6676, 
  "risk-taking": 6677, 
  "seed": 6678, 
  "outbreak": 6679, 
  "realizing": 6680, 
  "cen@@": 6681, 
  "gravity": 6682, 
  "sou@@": 6683, 
  "frameworks": 6684, 
  "colonialism": 6685, 
  "delivery": 6686, 
  "forged": 6687, 
  "On": 6688, 
  "applying": 6689, 
  "highlights": 6690, 
  "interview": 6691, 
  "depositors": 6692, 
  "gro@@": 6693, 
  "literature": 6694, 
  "ss@@": 6695, 
  "adversaries": 6696, 
  "Po@@": 6697, 
  "ride": 6698, 
  "triple": 6699, 
  "polio": 6700, 
  "strengths": 6701, 
  "chair": 6702, 
  "punish": 6703, 
  "domination": 6704, 
  "militarily": 6705, 
  "ited": 6706, 
  "composition": 6707, 
  "uprising": 6708, 
  "backs": 6709, 
  "eu@@": 6710, 
  "G-7": 6711, 
  "sons": 6712, 
  "fluctuations": 6713, 
  "doctor": 6714, 
  "gate": 6715, 
  "gencies": 6716, 
  "pharmaceutical": 6717, 
  "armies": 6718, 
  "dering": 6719, 
  "Kuwait": 6720, 
  "overthrow": 6721, 
  "tone": 6722, 
  "heightened": 6723, 
  "fat": 6724, 
  "reinforcing": 6725, 
  "murdered": 6726, 
  "St.": 6727, 
  "Man@@": 6728, 
  "ok@@": 6729, 
  "modernity": 6730, 
  "resilient": 6731, 
  "Valley": 6732, 
  "approve": 6733, 
  "remedy": 6734, 
  "continuous": 6735, 
  "modernize": 6736, 
  "organizational": 6737, 
  "Roman": 6738, 
  "glob@@": 6739, 
  "den": 6740, 
  "troubles": 6741, 
  "genetically": 6742, 
  "confirm": 6743, 
  "unfortunate": 6744, 
  "sanc@@": 6745, 
  "misery": 6746, 
  "passage": 6747, 
  "wo@@": 6748, 
  "highlighted": 6749, 
  "broad@@": 6750, 
  "consequently": 6751, 
  "resume": 6752, 
  "digital": 6753, 
  "optimal": 6754, 
  "micro-@@": 6755, 
  "high-level": 6756, 
  "Basel": 6757, 
  "Qu@@": 6758, 
  "accidents": 6759, 
  "ush@@": 6760, 
  "champion": 6761, 
  "evolve": 6762, 
  "Ottoman": 6763, 
  "irrigation": 6764, 
  "ei@@": 6765, 
  "ian": 6766, 
  "par": 6767, 
  "lobbying": 6768, 
  "tism": 6769, 
  "caste": 6770, 
  "suppress": 6771, 
  "composed": 6772, 
  "lists": 6773, 
  "sensitivity": 6774, 
  "finished": 6775, 
  "Liberal": 6776, 
  "arose": 6777, 
  "1920": 6778, 
  "un-@@": 6779, 
  "suspected": 6780, 
  "invention": 6781, 
  "privileged": 6782, 
  "color": 6783, 
  "Le": 6784, 
  "grip": 6785, 
  "publication": 6786, 
  "evidently": 6787, 
  "throw": 6788, 
  "ministry": 6789, 
  "SARS": 6790, 
  "dimensions": 6791, 
  "negotiators": 6792, 
  "traumatic": 6793, 
  "title": 6794, 
  "swing": 6795, 
  "squeeze": 6796, 
  "transferred": 6797, 
  "elimination": 6798, 
  "dismal": 6799, 
  "retains": 6800, 
  "satisfied": 6801, 
  "contact": 6802, 
  "understandably": 6803, 
  "assessing": 6804, 
  "judgments": 6805, 
  "lucky": 6806, 
  "disorderly": 6807, 
  "tou@@": 6808, 
  "liqui@@": 6809, 
  "fly": 6810, 
  "reacted": 6811, 
  "1988": 6812, 
  "Bashar": 6813, 
  "det@@": 6814, 
  "son@@": 6815, 
  "routine": 6816, 
  "criticize": 6817, 
  "speaks": 6818, 
  "plot": 6819, 
  "pretty": 6820, 
  "properties": 6821, 
  "appetite": 6822, 
  "council": 6823, 
  "Socialists": 6824, 
  "cyber": 6825, 
  "preference": 6826, 
  "maturity": 6827, 
  "replacing": 6828, 
  "diver@@": 6829, 
  "ratification": 6830, 
  "prisons": 6831, 
  "husband": 6832, 
  "attracting": 6833, 
  "ma": 6834, 
  "thin": 6835, 
  "incited": 6836, 
  "opt": 6837, 
  "predicament": 6838, 
  "Big": 6839, 
  "profile": 6840, 
  "homeland": 6841, 
  "ny": 6842, 
  "renewal": 6843, 
  "rivalry": 6844, 
  "ve-@@": 6845, 
  "indicated": 6846, 
  "Istanbul": 6847, 
  "ens@@": 6848, 
  "thirty": 6849, 
  "populated": 6850, 
  "successive": 6851, 
  "heroic": 6852, 
  "paralyzed": 6853, 
  "veri@@": 6854, 
  "ured": 6855, 
  "valid": 6856, 
  "cronies": 6857, 
  "mandatory": 6858, 
  "ologists": 6859, 
  "penet@@": 6860, 
  "by@@": 6861, 
  "limitations": 6862, 
  "ranked": 6863, 
  "cap": 6864, 
  "proceedings": 6865, 
  "1.2": 6866, 
  "disc@@": 6867, 
  "suited": 6868, 
  "stu@@": 6869, 
  "-in-@@": 6870, 
  "yourself": 6871, 
  "Lanka": 6872, 
  "mus@@": 6873, 
  "ven": 6874, 
  "handled": 6875, 
  "anti-American": 6876, 
  "anchor": 6877, 
  "officer": 6878, 
  "permits": 6879, 
  "strategically": 6880, 
  "comparisons": 6881, 
  "studying": 6882, 
  "exercises": 6883, 
  "clearer": 6884, 
  "communic@@": 6885, 
  "storms": 6886, 
  "forum": 6887, 
  "consumed": 6888, 
  "constructed": 6889, 
  "(RRC": 6890, 
  "postpone": 6891, 
  "crowds": 6892, 
  "loyal": 6893, 
  "inputs": 6894, 
  "troubling": 6895, 
  "reconcile": 6896, 
  "graduate": 6897, 
  "aw@@": 6898, 
  "mount": 6899, 
  "overlooked": 6900, 
  "partially": 6901, 
  ")RRC": 6902, 
  "Affairs": 6903, 
  "relatives": 6904, 
  "drives": 6905, 
  "anyway": 6906, 
  "turnout": 6907, 
  "With": 6908, 
  "organs": 6909, 
  "ey": 6910, 
  "inflicted": 6911, 
  "persons": 6912, 
  "talked": 6913, 
  "cour@@": 6914, 
  "met@@": 6915, 
  "Davos": 6916, 
  "curtail": 6917, 
  "Vienna": 6918, 
  "obsolete": 6919, 
  "matched": 6920, 
  "notes": 6921, 
  "skin": 6922, 
  "US@@": 6923, 
  "convenient": 6924, 
  "cross-@@": 6925, 
  "Serb": 6926, 
  "undervalued": 6927, 
  "decentralized": 6928, 
  "monarchy": 6929, 
  "season": 6930, 
  "endured": 6931, 
  "buried": 6932, 
  "useless": 6933, 
  "spoken": 6934, 
  "nervous": 6935, 
  "revised": 6936, 
  "papers": 6937, 
  "adult": 6938, 
  "nightmare": 6939, 
  "trusted": 6940, 
  "insistence": 6941, 
  "opponent": 6942, 
  "Gre@@": 6943, 
  "coloni@@": 6944, 
  "correctly": 6945, 
  "array": 6946, 
  "grievances": 6947, 
  "Austrian": 6948, 
  "Three": 6949, 
  "suppression": 6950, 
  "rebellion": 6951, 
  "pil@@": 6952, 
  "deciding": 6953, 
  "dan@@": 6954, 
  "outrage": 6955, 
  "trafficking": 6956, 
  "dies": 6957, 
  "super-@@": 6958, 
  "marine": 6959, 
  "ency": 6960, 
  "radicalism": 6961, 
  "conscience": 6962, 
  "6-@@": 6963, 
  "Second": 6964, 
  "length": 6965, 
  "lets": 6966, 
  "sun@@": 6967, 
  "readiness": 6968, 
  "conscious": 6969, 
  "interpret": 6970, 
  "sli@@": 6971, 
  "Franco-German": 6972, 
  "four@@": 6973, 
  "ups": 6974, 
  "congressional": 6975, 
  "voter": 6976, 
  "discussing": 6977, 
  "ght": 6978, 
  "Los": 6979, 
  "teach": 6980, 
  "incite": 6981, 
  "ret@@": 6982, 
  "0.7": 6983, 
  "regulating": 6984, 
  "OSCE": 6985, 
  "frontier": 6986, 
  "exporter": 6987, 
  "sible": 6988, 
  "farms": 6989, 
  "blessing": 6990, 
  "`": 6991, 
  "Saakashvili": 6992, 
  "onset": 6993, 
  "owner": 6994, 
  "38": 6995, 
  "committing": 6996, 
  "Ortega": 6997, 
  "rationale": 6998, 
  "aking": 6999, 
  "defenders": 7000, 
  "abound": 7001, 
  "projections": 7002, 
  "Ocean": 7003, 
  "boy": 7004, 
  "owed": 7005, 
  "ful@@": 7006, 
  "accommodate": 7007, 
  "everyday": 7008, 
  "econom@@": 7009, 
  "suspicious": 7010, 
  "reversing": 7011, 
  "ref@@": 7012, 
  "switch": 7013, 
  "anim@@": 7014, 
  "Alexander": 7015, 
  "ICC": 7016, 
  "ails": 7017, 
  "ached": 7018, 
  "cling": 7019, 
  "Churchill": 7020, 
  "video": 7021, 
  "NAFTA": 7022, 
  "jointly": 7023, 
  "communal": 7024, 
  "Tymoshenko": 7025, 
  "possession": 7026, 
  "stimulating": 7027, 
  "Bo": 7028, 
  "Science": 7029, 
  "unhappy": 7030, 
  "foreign-@@": 7031, 
  "please": 7032, 
  "heritage": 7033, 
  "ures": 7034, 
  "identical": 7035, 
  "expectation": 7036, 
  "compliance": 7037, 
  "investigate": 7038, 
  "empowered": 7039, 
  "shortly": 7040, 
  "swe@@": 7041, 
  "sy@@": 7042, 
  "unequal": 7043, 
  "demonstration": 7044, 
  "hearing": 7045, 
  "alizes": 7046, 
  "flourish": 7047, 
  "Guatemala": 7048, 
  "ell": 7049, 
  "fatal": 7050, 
  "Ra@@": 7051, 
  "marketing": 7052, 
  "trump@@": 7053, 
  "arians": 7054, 
  "disruption": 7055, 
  "disposal": 7056, 
  "agrees": 7057, 
  "staggering": 7058, 
  "reporters": 7059, 
  "pan@@": 7060, 
  "phones": 7061, 
  "quasi-@@": 7062, 
  "financiers": 7063, 
  "stalled": 7064, 
  "drug-@@": 7065, 
  "ace": 7066, 
  "ements": 7067, 
  "vari@@": 7068, 
  "hole": 7069, 
  "producer": 7070, 
  "emp@@": 7071, 
  "tun@@": 7072, 
  "industri@@": 7073, 
  "cau@@": 7074, 
  "anxious": 7075, 
  "drew": 7076, 
  "fire@@": 7077, 
  "coordinate": 7078, 
  "cents": 7079, 
  "resign": 7080, 
  "201@@": 7081, 
  "ail": 7082, 
  "François": 7083, 
  "Jiabao": 7084, 
  "violated": 7085, 
  "reminded": 7086, 
  "sel@@": 7087, 
  "delicate": 7088, 
  "racism": 7089, 
  "Eur@@": 7090, 
  "maker": 7091, 
  "deser@@": 7092, 
  "urs": 7093, 
  "portfolios": 7094, 
  "married": 7095, 
  "hypocrisy": 7096, 
  "Nazis": 7097, 
  "discount": 7098, 
  "handling": 7099, 
  "Mal@@": 7100, 
  "leftist": 7101, 
  "gn@@": 7102, 
  "norm@@": 7103, 
  "republics": 7104, 
  "Islands": 7105, 
  "democrati@@": 7106, 
  "articles": 7107, 
  "screening": 7108, 
  "oli@@": 7109, 
  "vigorous": 7110, 
  "Special": 7111, 
  "Gerhard": 7112, 
  "guilt": 7113, 
  "meters": 7114, 
  "unwillingness": 7115, 
  "Cuban": 7116, 
  "verdict": 7117, 
  "market-@@": 7118, 
  "load": 7119, 
  "passive": 7120, 
  "counterpart": 7121, 
  "compatible": 7122, 
  "critically": 7123, 
  "Franklin": 7124, 
  "magic": 7125, 
  "monopolies": 7126, 
  "sively": 7127, 
  "gl@@": 7128, 
  "school@@": 7129, 
  "headquarters": 7130, 
  "eve": 7131, 
  "exact": 7132, 
  "dependency": 7133, 
  "conservatism": 7134, 
  "Executive": 7135, 
  "disappearance": 7136, 
  "scre@@": 7137, 
  "quotas": 7138, 
  "opinions": 7139, 
  "masters": 7140, 
  "1985": 7141, 
  "bank@@": 7142, 
  "breakup": 7143, 
  "heroes": 7144, 
  "pla@@": 7145, 
  "stopping": 7146, 
  "timely": 7147, 
  "N": 7148, 
  "calculated": 7149, 
  "rid": 7150, 
  "caution": 7151, 
  "gam@@": 7152, 
  "polar": 7153, 
  "strains": 7154, 
  "ligh@@": 7155, 
  "disagreements": 7156, 
  "hardest": 7157, 
  "ign@@": 7158, 
  "3,000": 7159, 
  "alling": 7160, 
  "hol@@": 7161, 
  "lots": 7162, 
  "Karzai": 7163, 
  "sweeping": 7164, 
  "embargo": 7165, 
  "beneath": 7166, 
  "ading": 7167, 
  "violate": 7168, 
  "infections": 7169, 
  "categories": 7170, 
  "locations": 7171, 
  "meas@@": 7172, 
  "dangerously": 7173, 
  "els": 7174, 
  "giants": 7175, 
  "homo@@": 7176, 
  "tropical": 7177, 
  "collect": 7178, 
  "HAVEN": 7179, 
  "debated": 7180, 
  "Facility": 7181, 
  "correc@@": 7182, 
  "recommended": 7183, 
  "ultra-@@": 7184, 
  "notorious": 7185, 
  "Petersburg": 7186, 
  "inward": 7187, 
  "Common": 7188, 
  "Katrina": 7189, 
  "-related": 7190, 
  "documented": 7191, 
  "Bu@@": 7192, 
  "gated": 7193, 
  "lon@@": 7194, 
  "leap": 7195, 
  "contin@@": 7196, 
  "mixture": 7197, 
  "jeopardize": 7198, 
  "short-run": 7199, 
  "NA@@": 7200, 
  "remind": 7201, 
  "investigations": 7202, 
  "Scotland": 7203, 
  "fusion": 7204, 
  "Michael": 7205, 
  "plight": 7206, 
  "privileges": 7207, 
  "lifting": 7208, 
  "legislature": 7209, 
  "Lo@@": 7210, 
  "theme": 7211, 
  "repercussions": 7212, 
  "answered": 7213, 
  "Balkan": 7214, 
  "zer": 7215, 
  "exploitation": 7216, 
  "Fo@@": 7217, 
  "reminds": 7218, 
  "elevated": 7219, 
  "persists": 7220, 
  "thinkers": 7221, 
  "tendencies": 7222, 
  "ped": 7223, 
  "authors": 7224, 
  "native": 7225, 
  "ideologies": 7226, 
  "tain@@": 7227, 
  "stepped": 7228, 
  "beneficiaries": 7229, 
  "calculation": 7230, 
  "modified": 7231, 
  "portra@@": 7232, 
  "­@@": 7233, 
  "pan-European": 7234, 
  "strive": 7235, 
  "outlets": 7236, 
  "exclude": 7237, 
  "san@@": 7238, 
  "constitu@@": 7239, 
  "News": 7240, 
  "pockets": 7241, 
  "soul": 7242, 
  "drought": 7243, 
  "Yukos": 7244, 
  "reviving": 7245, 
  "Nice": 7246, 
  "printing": 7247, 
  "brothers": 7248, 
  "satisfaction": 7249, 
  "prop@@": 7250, 
  "extremes": 7251, 
  "regulator": 7252, 
  "rounds": 7253, 
  "Milan": 7254, 
  "professors": 7255, 
  "exert": 7256, 
  "Sharia": 7257, 
  "250": 7258, 
  "ta": 7259, 
  "smoking": 7260, 
  "proves": 7261, 
  "obsessed": 7262, 
  "mitigation": 7263, 
  "Bal@@": 7264, 
  "Ad@@": 7265, 
  "kin@@": 7266, 
  "evasion": 7267, 
  "exec@@": 7268, 
  "asi@@": 7269, 
  "Resolution": 7270, 
  "enshrined": 7271, 
  "arm": 7272, 
  "Iceland": 7273, 
  "dedicated": 7274, 
  "li": 7275, 
  "embracing": 7276, 
  "bizarre": 7277, 
  "appoint": 7278, 
  "ared": 7279, 
  "ction": 7280, 
  "regards": 7281, 
  "Project": 7282, 
  "famine": 7283, 
  "desired": 7284, 
  "clean@@": 7285, 
  "longstanding": 7286, 
  "Beirut": 7287, 
  "peg": 7288, 
  "ICTY": 7289, 
  "busy": 7290, 
  "bit@@": 7291, 
  "patri@@": 7292, 
  "kin": 7293, 
  "responsive": 7294, 
  "sequence": 7295, 
  "safeguards": 7296, 
  "lobby": 7297, 
  "cism": 7298, 
  "pain@@": 7299, 
  "graphy": 7300, 
  "anti-Semitism": 7301, 
  "expansionary": 7302, 
  "ignores": 7303, 
  "Ki@@": 7304, 
  "Margaret": 7305, 
  "1940": 7306, 
  "shareholder": 7307, 
  "adviser": 7308, 
  "evaluate": 7309, 
  "poli@@": 7310, 
  "lawyer": 7311, 
  "quantities": 7312, 
  "paci@@": 7313, 
  "gather": 7314, 
  "chemistry": 7315, 
  "Do@@": 7316, 
  "resi@@": 7317, 
  "refrain": 7318, 
  "strain": 7319, 
  "rejecting": 7320, 
  "fronts": 7321, 
  "authorized": 7322, 
  "RMB": 7323, 
  "ams": 7324, 
  "emi@@": 7325, 
  "embodied": 7326, 
  "Uruguay": 7327, 
  "collec@@": 7328, 
  "bombers": 7329, 
  "attached": 7330, 
  "Non-Proliferation": 7331, 
  "dates": 7332, 
  "Wolfowitz": 7333, 
  "Oxford": 7334, 
  "duration": 7335, 
  "Uganda": 7336, 
  "anism": 7337, 
  "six@@": 7338, 
  "water@@": 7339, 
  "liability": 7340, 
  "pandemic": 7341, 
  "profitability": 7342, 
  "arising": 7343, 
  "patience": 7344, 
  "blocking": 7345, 
  "talented": 7346, 
  "extends": 7347, 
  "referred": 7348, 
  "preceded": 7349, 
  "accurately": 7350, 
  "Pentagon": 7351, 
  "directions": 7352, 
  "insured": 7353, 
  "wounded": 7354, 
  "financial-sector": 7355, 
  "fran@@": 7356, 
  "cognitive": 7357, 
  "superiority": 7358, 
  "explaining": 7359, 
  "arrive": 7360, 
  "entitlement": 7361, 
  "tougher": 7362, 
  "branch": 7363, 
  "drain": 7364, 
  "intelligent": 7365, 
  "Marshall": 7366, 
  "Fin@@": 7367, 
  "repudi@@": 7368, 
  "ert": 7369, 
  "linking": 7370, 
  "condemn": 7371, 
  "belongs": 7372, 
  "yesterday": 7373, 
  "precautionary": 7374, 
  "surgery": 7375, 
  "quietly": 7376, 
  "al-Assad": 7377, 
  "invisible": 7378, 
  "ick": 7379, 
  "embarked": 7380, 
  "drastic": 7381, 
  "1929": 7382, 
  "qualify": 7383, 
  "diminishing": 7384, 
  "ari": 7385, 
  "region@@": 7386, 
  "solvency": 7387, 
  "slaughter": 7388, 
  "ki@@": 7389, 
  "suspended": 7390, 
  "ashed": 7391, 
  "basically": 7392, 
  "L": 7393, 
  "G8": 7394, 
  "pessimism": 7395, 
  "ung": 7396, 
  "Ti@@": 7397, 
  "ab": 7398, 
  "moon": 7399, 
  "collapsing": 7400, 
  "realism": 7401, 
  "ethanol": 7402, 
  "convention": 7403, 
  "Christianity": 7404, 
  "band": 7405, 
  "Civil": 7406, 
  "manageable": 7407, 
  "communicate": 7408, 
  "laboratory": 7409, 
  "bits": 7410, 
  "elusive": 7411, 
  "Panel": 7412, 
  "dividing": 7413, 
  "diagnosed": 7414, 
  "grassroots": 7415, 
  "stemming": 7416, 
  "tyranny": 7417, 
  "redress": 7418, 
  "spec@@": 7419, 
  "beautiful": 7420, 
  "jump": 7421, 
  "cy@@": 7422, 
  "combatants": 7423, 
  "integrating": 7424, 
  "golden": 7425, 
  "formerly": 7426, 
  "priced": 7427, 
  "endorse": 7428, 
  "CCP": 7429, 
  "divergence": 7430, 
  "chemicals": 7431, 
  "mic": 7432, 
  "majorities": 7433, 
  "concerted": 7434, 
  "conc@@": 7435, 
  "Nor@@": 7436, 
  "orthodox": 7437, 
  "governors": 7438, 
  "mild": 7439, 
  "tran@@": 7440, 
  "proteins": 7441, 
  "ger@@": 7442, 
  "orthodoxy": 7443, 
  "alas": 7444, 
  "need@@": 7445, 
  "pulled": 7446, 
  "ences": 7447, 
  "burdened": 7448, 
  "earning": 7449, 
  "ir": 7450, 
  "apologi@@": 7451, 
  "by-@@": 7452, 
  "dou@@": 7453, 
  "mobilized": 7454, 
  "Bro@@": 7455, 
  "reactors": 7456, 
  "maritime": 7457, 
  "yuan": 7458, 
  "feedback": 7459, 
  "smoke": 7460, 
  "virtues": 7461, 
  "Kofi": 7462, 
  "tech": 7463, 
  "cable": 7464, 
  "visions": 7465, 
  "imprisonment": 7466, 
  "shattered": 7467, 
  "subjected": 7468, 
  "ung@@": 7469, 
  "upside": 7470, 
  "Persian": 7471, 
  "passes": 7472, 
  "+@@": 7473, 
  "popul@@": 7474, 
  "pipelines": 7475, 
  "Investment": 7476, 
  "holy": 7477, 
  "deploy": 7478, 
  "Exchange": 7479, 
  "ank@@": 7480, 
  "guess": 7481, 
  "barrier": 7482, 
  "Texas": 7483, 
  "emphasizing": 7484, 
  "replic@@": 7485, 
  "Mario": 7486, 
  "vulnerabilities": 7487, 
  "acity": 7488, 
  "defenses": 7489, 
  "hawks": 7490, 
  "insight": 7491, 
  "120": 7492, 
  "surpassed": 7493, 
  "undercut": 7494, 
  "Azerbaijan": 7495, 
  "doubtful": 7496, 
  "unleashed": 7497, 
  "sian": 7498, 
  "trac@@": 7499, 
  "overheating": 7500, 
  "Florida": 7501, 
  "DELHI": 7502, 
  "Zealand": 7503, 
  "committees": 7504, 
  "comply": 7505, 
  "sum@@": 7506, 
  "ro": 7507, 
  "trillions": 7508, 
  "war-@@": 7509, 
  "oking": 7510, 
  "capitals": 7511, 
  "ire": 7512, 
  "fundamentalists": 7513, 
  "doubling": 7514, 
  "clin@@": 7515, 
  "unc@@": 7516, 
  "characteristic": 7517, 
  "che": 7518, 
  "responds": 7519, 
  "Hi@@": 7520, 
  "self-defense": 7521, 
  "weakens": 7522, 
  "mel@@": 7523, 
  "web": 7524, 
  "praise": 7525, 
  "intends": 7526, 
  "sacred": 7527, 
  "conce@@": 7528, 
  "lining": 7529, 
  "hitting": 7530, 
  "republic": 7531, 
  "diet": 7532, 
  "providers": 7533, 
  "Thomas": 7534, 
  "sav@@": 7535, 
  "Liberia": 7536, 
  "denounced": 7537, 
  "compromises": 7538, 
  "torn": 7539, 
  "detail": 7540, 
  "ev": 7541, 
  "listed": 7542, 
  "Representatives": 7543, 
  "asymmetric": 7544, 
  "quot": 7545, 
  "Food": 7546, 
  "insur@@": 7547, 
  "ecosystems": 7548, 
  "•": 7549, 
  "pet": 7550, 
  "1986": 7551, 
  "questioned": 7552, 
  "obs@@": 7553, 
  "20-@@": 7554, 
  "disappointed": 7555, 
  "daughter": 7556, 
  "demago@@": 7557, 
  "bailed": 7558, 
  "ity-@@": 7559, 
  "1948": 7560, 
  "198@@": 7561, 
  "durable": 7562, 
  "arsenal": 7563, 
  "advocating": 7564, 
  "ballistic": 7565, 
  "reformist": 7566, 
  "merits": 7567, 
  "stayed": 7568, 
  "tainted": 7569, 
  "habit@@": 7570, 
  "Power": 7571, 
  "Dubai": 7572, 
  "fifty": 7573, 
  "specified": 7574, 
  "OPEC": 7575, 
  "dividends": 7576, 
  "quali@@": 7577, 
  "fashionable": 7578, 
  "fans": 7579, 
  "Nicaragua": 7580, 
  "Taiwanese": 7581, 
  "disappointing": 7582, 
  "frame": 7583, 
  "empowerment": 7584, 
  "fascist": 7585, 
  "flying": 7586, 
  "conditional": 7587, 
  "kids": 7588, 
  "sin": 7589, 
  "identifying": 7590, 
  "birds": 7591, 
  "social-@@": 7592, 
  "guidance": 7593, 
  "declaring": 7594, 
  "monopoli@@": 7595, 
  "smo@@": 7596, 
  "Silvio": 7597, 
  "deci@@": 7598, 
  "alarm": 7599, 
  "questioning": 7600, 
  "Ru@@": 7601, 
  "contrac@@": 7602, 
  "fits": 7603, 
  "absorbed": 7604, 
  "Pinochet": 7605, 
  "tification": 7606, 
  "Black": 7607, 
  "ancy": 7608, 
  "Democracy": 7609, 
  "underscores": 7610, 
  "inertia": 7611, 
  "Peter": 7612, 
  "Qatar": 7613, 
  "Bay": 7614, 
  "advised": 7615, 
  "excluding": 7616, 
  "ailing": 7617, 
  "crum@@": 7618, 
  "siege": 7619, 
  "scant": 7620, 
  "privately": 7621, 
  "run@@": 7622, 
  "-out": 7623, 
  "dismantling": 7624, 
  "prec@@": 7625, 
  "interact": 7626, 
  "cruel": 7627, 
  "attended": 7628, 
  "hear@@": 7629, 
  "sol@@": 7630, 
  "supervisors": 7631, 
  "contemplate": 7632, 
  "starvation": 7633, 
  "collabor@@": 7634, 
  "outweigh": 7635, 
  "interior": 7636, 
  "res@@": 7637, 
  "combining": 7638, 
  "functional": 7639, 
  "fragmented": 7640, 
  "nutrition": 7641, 
  "ances": 7642, 
  "ffs": 7643, 
  "emulate": 7644, 
  "endangered": 7645, 
  "metaphor": 7646, 
  "Twitter": 7647, 
  "ore": 7648, 
  "savers": 7649, 
  "colleague": 7650, 
  "examination": 7651, 
  "undertaking": 7652, 
  "sign@@": 7653, 
  "bone": 7654, 
  "minute": 7655, 
  "harmony": 7656, 
  "hugely": 7657, 
  "entail": 7658, 
  "cate": 7659, 
  "trauma": 7660, 
  "psycho@@": 7661, 
  "shore": 7662, 
  "notions": 7663, 
  "sses": 7664, 
  "Ham@@": 7665, 
  "Nigerian": 7666, 
  "stores": 7667, 
  "manipulate": 7668, 
  "forefront": 7669, 
  "publish": 7670, 
  "eroded": 7671, 
  "forging": 7672, 
  "administered": 7673, 
  "offense": 7674, 
  "steep": 7675, 
  "disruptive": 7676, 
  "proposition": 7677, 
  "complacency": 7678, 
  "trick": 7679, 
  "Ber@@": 7680, 
  "ouse": 7681, 
  "mismanagement": 7682, 
  "semin@@": 7683, 
  "0.1": 7684, 
  "automobiles": 7685, 
  "modi@@": 7686, 
  "contempt": 7687, 
  "habit": 7688, 
  "severity": 7689, 
  "fires": 7690, 
  "livelihoods": 7691, 
  "jurisdiction": 7692, 
  "offshore": 7693, 
  "rebel": 7694, 
  "Medicare": 7695, 
  "judging": 7696, 
  "cement": 7697, 
  "burned": 7698, 
  "collected": 7699, 
  "mark@@": 7700, 
  "institution@@": 7701, 
  "noti@@": 7702, 
  "ental": 7703, 
  "Lu@@": 7704, 
  "obsession": 7705, 
  "plain": 7706, 
  "demonstrators": 7707, 
  "countryside": 7708, 
  "hot@@": 7709, 
  "ins@@": 7710, 
  "Wahhabi": 7711, 
  "susceptible": 7712, 
  "fol@@": 7713, 
  "integral": 7714, 
  "temp@@": 7715, 
  "warrant": 7716, 
  "Che": 7717, 
  "incompetence": 7718, 
  "fascism": 7719, 
  "Enron": 7720, 
  "tak@@": 7721, 
  "Ministers": 7722, 
  "prescri@@": 7723, 
  "self-determination": 7724, 
  "tain": 7725, 
  "reminiscent": 7726, 
  "selected": 7727, 
  "low@@": 7728, 
  "ump@@": 7729, 
  "Burmese": 7730, 
  "laying": 7731, 
  "ose": 7732, 
  "forgiveness": 7733, 
  "anymore": 7734, 
  "Holland": 7735, 
  "practiced": 7736, 
  "rocket": 7737, 
  "high-income": 7738, 
  "rain": 7739, 
  "refer@@": 7740, 
  "acknowledging": 7741, 
  "wers": 7742, 
  "unavoidable": 7743, 
  "apes": 7744, 
  "ceasefire": 7745, 
  "Continent": 7746, 
  "III": 7747, 
  "Gi@@": 7748, 
  "fostering": 7749, 
  "Romanian": 7750, 
  "curse": 7751, 
  "un": 7752, 
  "stone": 7753, 
  "atomic": 7754, 
  "quantum": 7755, 
  "Salvador": 7756, 
  "transitional": 7757, 
  "collection": 7758, 
  "visits": 7759, 
  "20,000": 7760, 
  "defines": 7761, 
  "genom@@": 7762, 
  "containing": 7763, 
  "ale": 7764, 
  "ethos": 7765, 
  "hyper@@": 7766, 
  "constituted": 7767, 
  "pul@@": 7768, 
  "Stanford": 7769, 
  "occasions": 7770, 
  "Asia-Pacific": 7771, 
  "ei": 7772, 
  "To": 7773, 
  "predominantly": 7774, 
  "illustrates": 7775, 
  "bon@@": 7776, 
  "coffee": 7777, 
  "revealing": 7778, 
  "pages": 7779, 
  "95": 7780, 
  "fortunes": 7781, 
  "tighter": 7782, 
  "-style": 7783, 
  "imagin@@": 7784, 
  "whoever": 7785, 
  "protec@@": 7786, 
  "dom@@": 7787, 
  "cle": 7788, 
  "turbulence": 7789, 
  "ge-@@": 7790, 
  "synthetic": 7791, 
  "Yale": 7792, 
  "trajectory": 7793, 
  "narrowly": 7794, 
  "centered": 7795, 
  "Kerry": 7796, 
  "publi@@": 7797, 
  "naïve": 7798, 
  "conducive": 7799, 
  "accessible": 7800, 
  "delegation": 7801, 
  "infamous": 7802, 
  "tackling": 7803, 
  "Munich": 7804, 
  "buff@@": 7805, 
  "dog": 7806, 
  "hard@@": 7807, 
  "ga": 7808, 
  "infant": 7809, 
  "gent": 7810, 
  "High": 7811, 
  "Sadat": 7812, 
  "pledges": 7813, 
  "domin@@": 7814, 
  "ina": 7815, 
  "interconnected": 7816, 
  "reckoning": 7817, 
  "suppressed": 7818, 
  "slump": 7819, 
  "irreversible": 7820, 
  "mine": 7821, 
  "repe@@": 7822, 
  "peer": 7823, 
  "ark@@": 7824, 
  "modernizing": 7825, 
  "mathematics": 7826, 
  "viol@@": 7827, 
  "particles": 7828, 
  "tory": 7829, 
  "inefficiency": 7830, 
  "imposes": 7831, 
  "exceptionally": 7832, 
  "proving": 7833, 
  "7-@@": 7834, 
  "cated": 7835, 
  "yielding": 7836, 
  "Lithuania": 7837, 
  "Darwin": 7838, 
  "You": 7839, 
  "magi@@": 7840, 
  "participated": 7841, 
  "unchanged": 7842, 
  "comprise": 7843, 
  "deteriorating": 7844, 
  "stops": 7845, 
  "mathematical": 7846, 
  "nation-state": 7847, 
  "NGO": 7848, 
  "intervening": 7849, 
  "Is": 7850, 
  "fearful": 7851, 
  "Kissinger": 7852, 
  "insiders": 7853, 
  "conversation": 7854, 
  "stru@@": 7855, 
  "blood@@": 7856, 
  "premier": 7857, 
  "highlight": 7858, 
  "church": 7859, 
  "Euro-@@": 7860, 
  "varied": 7861, 
  "opted": 7862, 
  "geographical": 7863, 
  "shocked": 7864, 
  "j": 7865, 
  "rooms": 7866, 
  "net@@": 7867, 
  "contradiction": 7868, 
  "jailed": 7869, 
  "corporation": 7870, 
  "tie": 7871, 
  "execution": 7872, 
  "outlays": 7873, 
  "seldom": 7874, 
  "debtors": 7875, 
  "José": 7876, 
  "agent": 7877, 
  "enlarged": 7878, 
  "Atomic": 7879, 
  "manipulated": 7880, 
  "Stat@@": 7881, 
  "discretionary": 7882, 
  "dissemin@@": 7883, 
  "prudence": 7884, 
  "flu@@": 7885, 
  "arrogance": 7886, 
  "historian": 7887, 
  "suppliers": 7888, 
  "advancing": 7889, 
  "compromised": 7890, 
  "anti-Americanism": 7891, 
  "pulling": 7892, 
  "expedi@@": 7893, 
  "cians": 7894, 
  "eth@@": 7895, 
  "margins": 7896, 
  "assertive": 7897, 
  "averaged": 7898, 
  "amid": 7899, 
  "preserved": 7900, 
  "banker": 7901, 
  "escap@@": 7902, 
  "questionable": 7903, 
  "equi@@": 7904, 
  "peso": 7905, 
  "classified": 7906, 
  "withdrawing": 7907, 
  "indebtedness": 7908, 
  "50,000": 7909, 
  "oms": 7910, 
  "simplistic": 7911, 
  "decreased": 7912, 
  "influences": 7913, 
  "Prince": 7914, 
  "protections": 7915, 
  "impasse": 7916, 
  "consultation": 7917, 
  "affluent": 7918, 
  "desc@@": 7919, 
  "wel@@": 7920, 
  "enact": 7921, 
  "press@@": 7922, 
  "slight": 7923, 
  "ol": 7924, 
  "aire": 7925, 
  "drama": 7926, 
  "Mbeki": 7927, 
  "refer": 7928, 
  "1933": 7929, 
  "fulfilled": 7930, 
  "meat": 7931, 
  "han@@": 7932, 
  "haven": 7933, 
  "supreme": 7934, 
  "W": 7935, 
  "stro@@": 7936, 
  "respective": 7937, 
  "unding": 7938, 
  "hierarchy": 7939, 
  "ury": 7940, 
  "GM": 7941, 
  "social-welfare": 7942, 
  "Ahmedinejad": 7943, 
  "je@@": 7944, 
  "petro@@": 7945, 
  "stature": 7946, 
  "ise": 7947, 
  "ous@@": 7948, 
  "Einstein": 7949, 
  "prescription": 7950, 
  "off-@@": 7951, 
  "lowered": 7952, 
  "select": 7953, 
  "envi@@": 7954, 
  "competent": 7955, 
  "connect": 7956, 
  "conventions": 7957, 
  "pleasure": 7958, 
  "diagnostic": 7959, 
  "escalating": 7960, 
  "Academy": 7961, 
  "prot@@": 7962, 
  "agu@@": 7963, 
  "treason": 7964, 
  "agreeing": 7965, 
  "At": 7966, 
  "bloodshed": 7967, 
  "Sch@@": 7968, 
  "apping": 7969, 
  "ute": 7970, 
  "free-@@": 7971, 
  "beating": 7972, 
  "1978": 7973, 
  "underpinned": 7974, 
  "clock": 7975, 
  "ake": 7976, 
  "ghts": 7977, 
  "illegitimate": 7978, 
  "convert": 7979, 
  "objects": 7980, 
  "revenge": 7981, 
  "unintended": 7982, 
  "withstand": 7983, 
  "feder@@": 7984, 
  "dead@@": 7985, 
  "zers": 7986, 
  "rolled": 7987, 
  "audi@@": 7988, 
  "mobilization": 7989, 
  "liberalizing": 7990, 
  "Ko@@": 7991, 
  "patriotism": 7992, 
  "shops": 7993, 
  "yp@@": 7994, 
  "reaches": 7995, 
  "stering": 7996, 
  "banning": 7997, 
  "lea@@": 7998, 
  "exploiting": 7999, 
  "monitored": 8000, 
  "peasant": 8001, 
  "deleg@@": 8002, 
  "separated": 8003, 
  "ail@@": 8004, 
  "girl": 8005, 
  "19th": 8006, 
  "cular": 8007, 
  "depic@@": 8008, 
  "rendered": 8009, 
  "invitation": 8010, 
  "glut": 8011, 
  "selective": 8012, 
  "Tahrir": 8013, 
  "Rio": 8014, 
  "privilege": 8015, 
  "wiel@@": 8016, 
  "Soviets": 8017, 
  "lifestyle": 8018, 
  "crowded": 8019, 
  "districts": 8020, 
  "Col@@": 8021, 
  "Manuel": 8022, 
  "motor": 8023, 
  "mers": 8024, 
  "concei@@": 8025, 
  "retaliation": 8026, 
  "Americas": 8027, 
  "visiting": 8028, 
  "ESDP": 8029, 
  "astic": 8030, 
  "cheating": 8031, 
  "for-@@": 8032, 
  "33": 8033, 
  "inde@@": 8034, 
  "Mumbai": 8035, 
  "Is@@": 8036, 
  "ini": 8037, 
  "prevalence": 8038, 
  "44": 8039, 
  "1956": 8040, 
  "analyses": 8041, 
  "assessments": 8042, 
  "forest@@": 8043, 
  "disagreement": 8044, 
  "successors": 8045, 
  "precipit@@": 8046, 
  "oldest": 8047, 
  "promotes": 8048, 
  "El@@": 8049, 
  "rogue": 8050, 
  "independently": 8051, 
  "vit@@": 8052, 
  "Leone": 8053, 
  "volumes": 8054, 
  "branches": 8055, 
  "Russian-@@": 8056, 
  "aping": 8057, 
  "alli@@": 8058, 
  "fruits": 8059, 
  "fit@@": 8060, 
  "Palin": 8061, 
  "self": 8062, 
  "Muammar": 8063, 
  "cut@@": 8064, 
  "triumph@@": 8065, 
  "prin@@": 8066, 
  "chaotic": 8067, 
  "sixth": 8068, 
  "drivers": 8069, 
  "Dmitri": 8070, 
  "penalties": 8071, 
  "discretion": 8072, 
  "deli@@": 8073, 
  "neo-liberal": 8074, 
  "scare": 8075, 
  "restricting": 8076, 
  "fragmentation": 8077, 
  "Monti": 8078, 
  "converted": 8079, 
  "uting": 8080, 
  "petition": 8081, 
  "Mechanism": 8082, 
  "Muhammad": 8083, 
  "gged": 8084, 
  "addic@@": 8085, 
  "junta": 8086, 
  "cap-and-trade": 8087, 
  "out-@@": 8088, 
  "alien@@": 8089, 
  "charisma": 8090, 
  "Milton": 8091, 
  "short-lived": 8092, 
  "rumors": 8093, 
  "attractiveness": 8094, 
  "safely": 8095, 
  "parallels": 8096, 
  "height": 8097, 
  "sn@@": 8098, 
  "attribute": 8099, 
  "insights": 8100, 
  "od": 8101, 
  "structured": 8102, 
  "37": 8103, 
  "hike": 8104, 
  "Me@@": 8105, 
  "overdue": 8106, 
  "oun@@": 8107, 
  "bipolar": 8108, 
  "humane": 8109, 
  "tness": 8110, 
  "analy@@": 8111, 
  "consolidated": 8112, 
  "suitable": 8113, 
  "executed": 8114, 
  "Anwar": 8115, 
  "Mexicans": 8116, 
  "NTC": 8117, 
  "fantasy": 8118, 
  "retired": 8119, 
  "IT": 8120, 
  "conduc@@": 8121, 
  "ward-looking": 8122, 
  "mines": 8123, 
  "turing": 8124, 
  "wanting": 8125, 
  "cite": 8126, 
  "fix@@": 8127, 
  "divert": 8128, 
  "sham@@": 8129, 
  "ster@@": 8130, 
  "Colombian": 8131, 
  "ar-@@": 8132, 
  "handful": 8133, 
  "2.3": 8134, 
  "Uni@@": 8135, 
  "tives": 8136, 
  "ain@@": 8137, 
  "heated": 8138, 
  "tionally": 8139, 
  "grid": 8140, 
  "Wi@@": 8141, 
  "clim@@": 8142, 
  "ling@@": 8143, 
  "cher": 8144, 
  "dry": 8145, 
  "feeding": 8146, 
  "www.@@": 8147, 
  "roll@@": 8148, 
  "conflicting": 8149, 
  "Do": 8150, 
  "accusations": 8151, 
  "fec@@": 8152, 
  "exceeded": 8153, 
  "ear@@": 8154, 
  "AN@@": 8155, 
  "perverse": 8156, 
  "troop": 8157, 
  "dating": 8158, 
  "non-state": 8159, 
  "soldier": 8160, 
  "emit@@": 8161, 
  "impending": 8162, 
  "utility": 8163, 
  "populists": 8164, 
  "inspiration": 8165, 
  "proceeds": 8166, 
  "2,@@": 8167, 
  "posts": 8168, 
  "resurgence": 8169, 
  "Albania": 8170, 
  "broker": 8171, 
  "irre@@": 8172, 
  "Tibetans": 8173, 
  "Pri@@": 8174, 
  "dated": 8175, 
  "looms": 8176, 
  "patriotic": 8177, 
  "hil@@": 8178, 
  "maintenance": 8179, 
  "careers": 8180, 
  "constraint": 8181, 
  "tan@@": 8182, 
  "olo@@": 8183, 
  "Sierra": 8184, 
  "36": 8185, 
  "ensuing": 8186, 
  "brother": 8187, 
  "insolvency": 8188, 
  "van@@": 8189, 
  "oper@@": 8190, 
  "cliff": 8191, 
  "Standard": 8192, 
  "expelled": 8193, 
  "anytime": 8194, 
  "objec@@": 8195, 
  "compact": 8196, 
  "Sudanese": 8197, 
  "print": 8198, 
  "portrayed": 8199, 
  "quota": 8200, 
  "°": 8201, 
  "fearing": 8202, 
  "decides": 8203, 
  "IM@@": 8204, 
  "yer": 8205, 
  "marketplace": 8206, 
  "alle@@": 8207, 
  "pieces": 8208, 
  "survivors": 8209, 
  "celebrated": 8210, 
  "Left": 8211, 
  "linguistic": 8212, 
  "conferences": 8213, 
  "loved": 8214, 
  "time-@@": 8215, 
  "realm": 8216, 
  "abstract": 8217, 
  "adapted": 8218, 
  "journey": 8219, 
  "rin@@": 8220, 
  "journalism": 8221, 
  "Ha@@": 8222, 
  "remedies": 8223, 
  "testimony": 8224, 
  "va": 8225, 
  "imperatives": 8226, 
  "That": 8227, 
  "molecular": 8228, 
  "inflation-@@": 8229, 
  "preferable": 8230, 
  "residential": 8231, 
  "backward": 8232, 
  "illiquid": 8233, 
  "confirms": 8234, 
  "hosts": 8235, 
  "rot": 8236, 
  "elev@@": 8237, 
  "absor@@": 8238, 
  "Inter@@": 8239, 
  "endemic": 8240, 
  "enjoying": 8241, 
  "tig@@": 8242, 
  "racist": 8243, 
  "one-party": 8244, 
  "rebound": 8245, 
  "motivation": 8246, 
  "gation": 8247, 
  "dumping": 8248, 
  "foot": 8249, 
  "defen@@": 8250, 
  "stin@@": 8251, 
  "sle@@": 8252, 
  "nostalgia": 8253, 
  "Pi@@": 8254, 
  "telecommunications": 8255, 
  "battlefield": 8256, 
  "design@@": 8257, 
  "warn": 8258, 
  "scenes": 8259, 
  "shaky": 8260, 
  "Action": 8261, 
  "cens@@": 8262, 
  "clashes": 8263, 
  "compet@@": 8264, 
  "efully": 8265, 
  "tense": 8266, 
  "ping": 8267, 
  "30,000": 8268, 
  "Adam": 8269, 
  "Economics": 8270, 
  "Tel": 8271, 
  "lagging": 8272, 
  "ue": 8273, 
  "ko": 8274, 
  "registered": 8275, 
  "tribes": 8276, 
  "cool": 8277, 
  "Tro@@": 8278, 
  "unwanted": 8279, 
  "intractable": 8280, 
  "alienated": 8281, 
  "ush": 8282, 
  "resisting": 8283, 
  "dence": 8284, 
  "bridges": 8285, 
  "Mc@@": 8286, 
  "qualities": 8287, 
  "regi@@": 8288, 
  "-of-@@": 8289, 
  "reassure": 8290, 
  "bipartisan": 8291, 
  "dose": 8292, 
  "phenomena": 8293, 
  "opaque": 8294, 
  "reinvigor@@": 8295, 
  "trivial": 8296, 
  "liable": 8297, 
  "verge": 8298, 
  "brains": 8299, 
  "premiums": 8300, 
  "interfere": 8301, 
  "center-right": 8302, 
  "human-@@": 8303, 
  "salary": 8304, 
  "lights": 8305, 
  "expenses": 8306, 
  "remarks": 8307, 
  "angle": 8308, 
  "compounded": 8309, 
  "adhere": 8310, 
  "wounds": 8311, 
  "desert": 8312, 
  "discoveries": 8313, 
  "hopeful": 8314, 
  "requests": 8315, 
  "ament": 8316, 
  "embassy": 8317, 
  "bent": 8318, 
  "equation": 8319, 
  "engineer": 8320, 
  "enjoys": 8321, 
  "Pen": 8322, 
  "prohibition": 8323, 
  "aggravated": 8324, 
  "compelled": 8325, 
  "tery": 8326, 
  "fulfilling": 8327, 
  "fore@@": 8328, 
  "commander": 8329, 
  "Anglo-Saxon": 8330, 
  "obscure": 8331, 
  "manship": 8332, 
  "deterrent": 8333, 
  "Ts@@": 8334, 
  "benchmark": 8335, 
  "shly": 8336, 
  "fla@@": 8337, 
  "mp@@": 8338, 
  "assertion": 8339, 
  "divisive": 8340, 
  "triggering": 8341, 
  "aff@@": 8342, 
  "interpretations": 8343, 
  "description": 8344, 
  "atives": 8345, 
  "shooting": 8346, 
  "wholesale": 8347, 
  "flag": 8348, 
  "ten-@@": 8349, 
  "Hollywood": 8350, 
  "origin@@": 8351, 
  "urging": 8352, 
  "cent@@": 8353, 
  "eggs": 8354, 
  "hack@@": 8355, 
  "diabetes": 8356, 
  "repayment": 8357, 
  "dubbed": 8358, 
  "fif@@": 8359, 
  "oz@@": 8360, 
  "rewarded": 8361, 
  "cla@@": 8362, 
  "glo@@": 8363, 
  "55": 8364, 
  "abor@@": 8365, 
  "powerless": 8366, 
  "withdrawn": 8367, 
  "dru@@": 8368, 
  "emer@@": 8369, 
  "incompetent": 8370, 
  "extract": 8371, 
  "calamity": 8372, 
  "Har@@": 8373, 
  "mistrust": 8374, 
  "engineered": 8375, 
  "Ac@@": 8376, 
  "describes": 8377, 
  "ize": 8378, 
  "compassion": 8379, 
  "1975": 8380, 
  "thoughts": 8381, 
  "ne": 8382, 
  "horse": 8383, 
  "analogous": 8384, 
  "ino": 8385, 
  "rati@@": 8386, 
  "WikiLeaks": 8387, 
  "drove": 8388, 
  "aps": 8389, 
  "allocate": 8390, 
  "alleviate": 8391, 
  "U": 8392, 
  "aci@@": 8393, 
  "public-health": 8394, 
  "nit@@": 8395, 
  "Afghans": 8396, 
  "brutality": 8397, 
  "cted": 8398, 
  "van": 8399, 
  "possesses": 8400, 
  "hood": 8401, 
  "PC": 8402, 
  "overcoming": 8403, 
  "deadlock": 8404, 
  "generational": 8405, 
  "compulsory": 8406, 
  "oil-rich": 8407, 
  "Dar@@": 8408, 
  "counting": 8409, 
  "unk@@": 8410, 
  "equals": 8411, 
  "ssi@@": 8412, 
  "Zedong": 8413, 
  "mayor": 8414, 
  "champions": 8415, 
  "clubs": 8416, 
  "ter-@@": 8417, 
  "magazine": 8418, 
  "mentality": 8419, 
  "disadvantage": 8420, 
  "intact": 8421, 
  "designing": 8422, 
  "threw": 8423, 
  "spil@@": 8424, 
  "transmitted": 8425, 
  "recommen@@": 8426, 
  "tion-@@": 8427, 
  "opium": 8428, 
  "clever": 8429, 
  "much-@@": 8430, 
  "instances": 8431, 
  "fiction": 8432, 
  "lab@@": 8433, 
  "nonsense": 8434, 
  "immunity": 8435, 
  "consult@@": 8436, 
  "bright": 8437, 
  "bus": 8438, 
  "shocking": 8439, 
  "recourse": 8440, 
  "credit-@@": 8441, 
  "geo-@@": 8442, 
  "cumulative": 8443, 
  "royal": 8444, 
  "Westerners": 8445, 
  "lobbies": 8446, 
  "China-@@": 8447, 
  "detainees": 8448, 
  "scor@@": 8449, 
  "passi@@": 8450, 
  "empower": 8451, 
  "individu@@": 8452, 
  "politi@@": 8453, 
  "dered": 8454, 
  "leveraging": 8455, 
  "-to-@@": 8456, 
  "proposes": 8457, 
  "black@@": 8458, 
  "disclosure": 8459, 
  "sluggish": 8460, 
  "sty@@": 8461, 
  "greenhouse-gas": 8462, 
  "nor@@": 8463, 
  "tax-@@": 8464, 
  "gru@@": 8465, 
  "ells": 8466, 
  "well-known": 8467, 
  "defec@@": 8468, 
  "devised": 8469, 
  "publishing": 8470, 
  "herself": 8471, 
  "powered": 8472, 
  "stolen": 8473, 
  "dentally": 8474, 
  "Vatican": 8475, 
  "allegations": 8476, 
  "dging": 8477, 
  "widen": 8478, 
  "freer": 8479, 
  "overvalued": 8480, 
  "Barroso": 8481, 
  "uneven": 8482, 
  "brilliant": 8483, 
  "Geithner": 8484, 
  "apo@@": 8485, 
  "ial": 8486, 
  "home@@": 8487, 
  "eness": 8488, 
  "ssed": 8489, 
  "thoroughly": 8490, 
  "recipients": 8491, 
  "mut@@": 8492, 
  "resem@@": 8493, 
  "ill@@": 8494, 
  "beg@@": 8495, 
  "fri@@": 8496, 
  "pas@@": 8497, 
  "explore": 8498, 
  "3-@@": 8499, 
  "spill": 8500, 
  "renegoti@@": 8501, 
  "leg@@": 8502, 
  "ased": 8503, 
  "tolerant": 8504, 
  "EC@@": 8505, 
  "-off": 8506, 
  "transferring": 8507, 
  "ination": 8508, 
  "yielded": 8509, 
  "conducting": 8510, 
  "Krugman": 8511, 
  "Kyi": 8512, 
  "criterion": 8513, 
  "soar": 8514, 
  "espo@@": 8515, 
  "Suu": 8516, 
  "ugly": 8517, 
  "‑@@": 8518, 
  "Old": 8519, 
  "stakeholders": 8520, 
  "struc@@": 8521, 
  "awarded": 8522, 
  "32": 8523, 
  "sleep": 8524, 
  "stresses": 8525, 
  "Ku@@": 8526, 
  "Yu@@": 8527, 
  "contentious": 8528, 
  "spin": 8529, 
  "occupy": 8530, 
  "commanders": 8531, 
  "corresponding": 8532, 
  "pile": 8533, 
  "eb@@": 8534, 
  "gui@@": 8535, 
  "dominates": 8536, 
  "thrive": 8537, 
  "traveled": 8538, 
  "goodwill": 8539, 
  "ambiguity": 8540, 
  "Mahathir": 8541, 
  "Reinhart": 8542, 
  "anc@@": 8543, 
  "workplace": 8544, 
  "replied": 8545, 
  "opportun@@": 8546, 
  "erup@@": 8547, 
  "revi@@": 8548, 
  "ye@@": 8549, 
  "mergers": 8550, 
  "deepest": 8551, 
  "traits": 8552, 
  "sins": 8553, 
  "old-fashioned": 8554, 
  "Hamilton": 8555, 
  "Khomeini": 8556, 
  "slack": 8557, 
  "charismatic": 8558, 
  "inclined": 8559, 
  "lap@@": 8560, 
  "variations": 8561, 
  "Scandinavian": 8562, 
  "isolate": 8563, 
  "lessness": 8564, 
  "ano@@": 8565, 
  "ist@@": 8566, 
  "rigi@@": 8567, 
  "drops": 8568, 
  "behavioral": 8569, 
  "recapitalization": 8570, 
  "dness": 8571, 
  "Chi@@": 8572, 
  "organic": 8573, 
  "tim@@": 8574, 
  "military-@@": 8575, 
  "Costa": 8576, 
  "Silicon": 8577, 
  "facilitating": 8578, 
  "short@@": 8579, 
  "fathers": 8580, 
  "hybrid": 8581, 
  "1.6": 8582, 
  "bureaucracies": 8583, 
  "mobilizing": 8584, 
  "IF@@": 8585, 
  "ctions": 8586, 
  "inappropriate": 8587, 
  "literacy": 8588, 
  "Se@@": 8589, 
  "Tehran": 8590, 
  "addiction": 8591, 
  "inflated": 8592, 
  "amounted": 8593, 
  "pois@@": 8594, 
  "tical": 8595, 
  "Market": 8596, 
  "newcomers": 8597, 
  "reproductive": 8598, 
  "eradicate": 8599, 
  "exercised": 8600, 
  "deficiencies": 8601, 
  "reap": 8602, 
  "Society": 8603, 
  "ede": 8604, 
  "Islami@@": 8605, 
  "paramount": 8606, 
  "hyp@@": 8607, 
  "individually": 8608, 
  "intra-@@": 8609, 
  "advent": 8610, 
  "ames": 8611, 
  "CO@@": 8612, 
  "000-@@": 8613, 
  "rents": 8614, 
  "1914": 8615, 
  "variant": 8616, 
  "Mitterrand": 8617, 
  "cence": 8618, 
  "hyper-@@": 8619, 
  "abo@@": 8620, 
  "gar": 8621, 
  "much-needed": 8622, 
  "entertainment": 8623, 
  "descent": 8624, 
  "speaker": 8625, 
  "circul@@": 8626, 
  "Iron": 8627, 
  "coordinating": 8628, 
  "three-quarters": 8629, 
  "equities": 8630, 
  "Ghraib": 8631, 
  "ami@@": 8632, 
  "accepts": 8633, 
  "artists": 8634, 
  "barred": 8635, 
  "swaps": 8636, 
  "business-@@": 8637, 
  "predic@@": 8638, 
  "uniform": 8639, 
  "tempting": 8640, 
  "merger": 8641, 
  "conception": 8642, 
  "reli@@": 8643, 
  "193@@": 8644, 
  "films": 8645, 
  "physicians": 8646, 
  "escalation": 8647, 
  "prevails": 8648, 
  "corn": 8649, 
  "longevity": 8650, 
  "ee": 8651, 
  "victories": 8652, 
  "preoccupied": 8653, 
  "seas@@": 8654, 
  "Martin": 8655, 
  "mankind": 8656, 
  "CIA": 8657, 
  "aded": 8658, 
  "parasites": 8659, 
  "circum@@": 8660, 
  "disposable": 8661, 
  "spi@@": 8662, 
  "comment": 8663, 
  "vering": 8664, 
  "refinancing": 8665, 
  "protective": 8666, 
  "heating": 8667, 
  "build-up": 8668, 
  "wearing": 8669, 
  "correlation": 8670, 
  "bloated": 8671, 
  "valuation": 8672, 
  "systemically": 8673, 
  "sa": 8674, 
  "havoc": 8675, 
  "departments": 8676, 
  "high@@": 8677, 
  "extinction": 8678, 
  "stretch": 8679, 
  "Facebook": 8680, 
  "Delhi": 8681, 
  "curtailing": 8682, 
  "invading": 8683, 
  "hiding": 8684, 
  "flooding": 8685, 
  "humiliating": 8686, 
  "growth-@@": 8687, 
  "summits": 8688, 
  "insi@@": 8689, 
  "sovereigns": 8690, 
  "Year": 8691, 
  "cancers": 8692, 
  "organ": 8693, 
  "devastation": 8694, 
  "align@@": 8695, 
  "ick@@": 8696, 
  "autocracy": 8697, 
  "dare": 8698, 
  "underestimated": 8699, 
  "War@@": 8700, 
  "projec@@": 8701, 
  "suggestion": 8702, 
  "arts": 8703, 
  "Bur@@": 8704, 
  "wa": 8705, 
  "corrup@@": 8706, 
  "cocaine": 8707, 
  "perpetu@@": 8708, 
  "regre@@": 8709, 
  "varying": 8710, 
  "essing": 8711, 
  "bes": 8712, 
  "adher@@": 8713, 
  "award": 8714, 
  "Belgrade": 8715, 
  "foolish": 8716, 
  "self-fulfilling": 8717, 
  "adequacy": 8718, 
  "hardship": 8719, 
  "imposition": 8720, 
  "ected": 8721, 
  "1974": 8722, 
  "Bin": 8723, 
  "depreci@@": 8724, 
  "acqu@@": 8725, 
  "varieties": 8726, 
  "motiv@@": 8727, 
  "merchan@@": 8728, 
  "Buddhist": 8729, 
  "plagued": 8730, 
  "gamble": 8731, 
  "Journal": 8732, 
  "chooses": 8733, 
  "aspi@@": 8734, 
  "possessed": 8735, 
  "subsidiaries": 8736, 
  "insu@@": 8737, 
  "taste": 8738, 
  "operates": 8739, 
  "0s": 8740, 
  "ow@@": 8741, 
  "manifest@@": 8742, 
  "WHO": 8743, 
  "experimental": 8744, 
  "distributional": 8745, 
  "cease": 8746, 
  "glori@@": 8747, 
  "Prodi": 8748, 
  "sch@@": 8749, 
  "predicting": 8750, 
  "strife": 8751, 
  "stroke": 8752, 
  "surro@@": 8753, 
  "tank": 8754, 
  "Mitt": 8755, 
  "gran@@": 8756, 
  "pretend": 8757, 
  "1971": 8758, 
  "rain@@": 8759, 
  "nationality": 8760, 
  "bribes": 8761, 
  "supportive": 8762, 
  "rockets": 8763, 
  "strained": 8764, 
  "proponents": 8765, 
  "score": 8766, 
  "operated": 8767, 
  "capitalized": 8768, 
  "consecutive": 8769, 
  "ensured": 8770, 
  "mes": 8771, 
  "dissident": 8772, 
  "schooling": 8773, 
  "wishful": 8774, 
  "leisure": 8775, 
  "describing": 8776, 
  "rivers": 8777, 
  "airport": 8778, 
  "bets": 8779, 
  "condemnation": 8780, 
  "separatist": 8781, 
  "reck@@": 8782, 
  "broadcast": 8783, 
  "nomin@@": 8784, 
  "underscored": 8785, 
  "maternal": 8786, 
  "device": 8787, 
  "voluntarily": 8788, 
  "Services": 8789, 
  "uphold": 8790, 
  "initiate": 8791, 
  "eating": 8792, 
  "firing": 8793, 
  "cotton": 8794, 
  "mode": 8795, 
  "ack@@": 8796, 
  "grossly": 8797, 
  "euro-@@": 8798, 
  "las@@": 8799, 
  "tment": 8800, 
  "murderous": 8801, 
  "6,000": 8802, 
  "radi@@": 8803, 
  "recovering": 8804, 
  "co": 8805, 
  "dest@@": 8806, 
  "reconstruc@@": 8807, 
  "designated": 8808, 
  "fores@@": 8809, 
  "teen": 8810, 
  "Karl": 8811, 
  "cataly@@": 8812, 
  "polling": 8813, 
  "monks": 8814, 
  "zero-sum": 8815, 
  "leprosy": 8816, 
  "pe": 8817, 
  "ballo@@": 8818, 
  "Singh": 8819, 
  "umbrella": 8820, 
  "lag": 8821, 
  "gg@@": 8822, 
  "di": 8823, 
  "gni@@": 8824, 
  "ali": 8825, 
  "ao": 8826, 
  "curious": 8827, 
  "versa": 8828, 
  "talents": 8829, 
  "ignorant": 8830, 
  "47": 8831, 
  "relation": 8832, 
  "portray": 8833, 
  "subtle": 8834, 
  "ruthless": 8835, 
  "SWFs": 8836, 
  "custom@@": 8837, 
  "Em@@": 8838, 
  "underestimate": 8839, 
  "dist@@": 8840, 
  "cou@@": 8841, 
  "constitutions": 8842, 
  "Indonesian": 8843, 
  "implicitly": 8844, 
  "incidence": 8845, 
  "string": 8846, 
  "extrac@@": 8847, 
  "recruit": 8848, 
  "bio-@@": 8849, 
  "physi@@": 8850, 
  "wear": 8851, 
  "coercive": 8852, 
  "collapses": 8853, 
  "aw": 8854, 
  "guaranteeing": 8855, 
  "graduates": 8856, 
  "retained": 8857, 
  "median": 8858, 
  "akers": 8859, 
  "harmoni@@": 8860, 
  "undemocratic": 8861, 
  "unded": 8862, 
  "cushion": 8863, 
  "originated": 8864, 
  "reson@@": 8865, 
  "How": 8866, 
  "alty": 8867, 
  "aled": 8868, 
  "Dominique": 8869, 
  "rigorous": 8870, 
  "vaccine": 8871, 
  "ands": 8872, 
  "horrors": 8873, 
  "taxpayer": 8874, 
  "balance-sheet": 8875, 
  "centrist": 8876, 
  "Cri@@": 8877, 
  "ze@@": 8878, 
  "competence": 8879, 
  "fore": 8880, 
  "Golan": 8881, 
  "anxieties": 8882, 
  "nurture": 8883, 
  "peril": 8884, 
  "William": 8885, 
  "Budget": 8886, 
  "ambiguous": 8887, 
  "meager": 8888, 
  "rock": 8889, 
  "Likud": 8890, 
  "eable": 8891, 
  "ethnicity": 8892, 
  "peninsula": 8893, 
  "My@@": 8894, 
  "Islamabad": 8895, 
  "restructure": 8896, 
  "rewarding": 8897, 
  "2.7": 8898, 
  "examined": 8899, 
  "expressing": 8900, 
  "erode": 8901, 
  "migrant": 8902, 
  "tortured": 8903, 
  "premise": 8904, 
  "genetics": 8905, 
  "ural": 8906, 
  "odd": 8907, 
  "heed": 8908, 
  "proxy": 8909, 
  "Euro@@": 8910, 
  "alous": 8911, 
  "Ver@@": 8912, 
  "pause": 8913, 
  "American-@@": 8914, 
  "predictably": 8915, 
  "movies": 8916, 
  "supremacy": 8917, 
  "ort": 8918, 
  "Two": 8919, 
  "strip": 8920, 
  "domain": 8921, 
  "wings": 8922, 
  "ills": 8923, 
  "lock": 8924, 
  "ops": 8925, 
  "proclaim": 8926, 
  "stock@@": 8927, 
  "demon@@": 8928, 
  "upheaval": 8929, 
  "exploration": 8930, 
  "yers": 8931, 
  "motive": 8932, 
  "assurances": 8933, 
  "inhi@@": 8934, 
  "Stra@@": 8935, 
  "undergoing": 8936, 
  "tighten": 8937, 
  "pronounced": 8938, 
  "countercyclical": 8939, 
  "labor-@@": 8940, 
  "sil@@": 8941, 
  "prefers": 8942, 
  "meets": 8943, 
  "financial-market": 8944, 
  "ek@@": 8945, 
  "downturns": 8946, 
  "reign": 8947, 
  "variation": 8948, 
  "vor": 8949, 
  "Morgan": 8950, 
  "chers": 8951, 
  "Draghi": 8952, 
  "squandered": 8953, 
  "far-@@": 8954, 
  "incur@@": 8955, 
  "taboo": 8956, 
  "divorce": 8957, 
  "weighed": 8958, 
  "enthusiastic": 8959, 
  "ki": 8960, 
  "shield": 8961, 
  "dropping": 8962, 
  "contingent": 8963, 
  "sor@@": 8964, 
  "ine@@": 8965, 
  "moneti@@": 8966, 
  "Americ@@": 8967, 
  "theorists": 8968, 
  "Strauss-Kahn": 8969, 
  "positioned": 8970, 
  "confin@@": 8971, 
  "anticipate": 8972, 
  "prohibited": 8973, 
  "instruc@@": 8974, 
  "spra@@": 8975, 
  "fallout": 8976, 
  "48": 8977, 
  "observer": 8978, 
  "write-@@": 8979, 
  "intensified": 8980, 
  "lik@@": 8981, 
  "privatized": 8982, 
  "convertibility": 8983, 
  "unskilled": 8984, 
  "abi@@": 8985, 
  "cont@@": 8986, 
  "-R@@": 8987, 
  "rail": 8988, 
  "protein": 8989, 
  "vul@@": 8990, 
  "contend": 8991, 
  "disappointment": 8992, 
  "footing": 8993, 
  "dol@@": 8994, 
  "slide": 8995, 
  "Bali": 8996, 
  "Val@@": 8997, 
  "do-@@": 8998, 
  "1970s": 8999, 
  "viability": 9000, 
  "translated": 9001, 
  "deeds": 9002, 
  "shine": 9003, 
  "facilitated": 9004, 
  "Economist": 9005, 
  "complementary": 9006, 
  "jump@@": 9007, 
  "Uzbekistan": 9008, 
  "tip": 9009, 
  "acquies@@": 9010, 
  "acious": 9011, 
  "Slobodan": 9012, 
  "paths": 9013, 
  "dirty": 9014, 
  "DP": 9015, 
  "CD@@": 9016, 
  "1972": 9017, 
  "pan-@@": 9018, 
  "lows": 9019, 
  "anonymous": 9020, 
  "coincidence": 9021, 
  "nearby": 9022, 
  "Damascus": 9023, 
  "mid-1990": 9024, 
  "themes": 9025, 
  "skill@@": 9026, 
  "friendship": 9027, 
  "stered": 9028, 
  "ingredients": 9029, 
  "Why": 9030, 
  "ashing": 9031, 
  "submitted": 9032, 
  "Poor": 9033, 
  "specialized": 9034, 
  "Or@@": 9035, 
  "ensures": 9036, 
  "4.5": 9037, 
  "hydrogen": 9038, 
  "Niger": 9039, 
  "nuclear-armed": 9040, 
  "reinforces": 9041, 
  "technically": 9042, 
  "Canadian": 9043, 
  "gift": 9044, 
  "They": 9045, 
  "spots": 9046, 
  "eligible": 9047, 
  "kni@@": 9048, 
  "vic@@": 9049, 
  "campaigning": 9050, 
  "laun@@": 9051, 
  "joke": 9052, 
  "astonishing": 9053, 
  "four-@@": 9054, 
  "achievable": 9055, 
  "discriminatory": 9056, 
  "confronts": 9057, 
  "Commissioner": 9058, 
  "zable": 9059, 
  "ravaged": 9060, 
  "predictability": 9061, 
  "horrific": 9062, 
  "exceeding": 9063, 
  "low-wage": 9064, 
  "Dalai": 9065, 
  "devote": 9066, 
  "biased": 9067, 
  "put@@": 9068, 
  "grab": 9069, 
  "vanished": 9070, 
  "Angeles": 9071, 
  "post-Cold": 9072, 
  "demo@@": 9073, 
  "untenable": 9074, 
  "transit": 9075, 
  "undeniable": 9076, 
  "hoc": 9077, 
  "cop@@": 9078, 
  "worlds": 9079, 
  "secrecy": 9080, 
  "comparing": 9081, 
  "coups": 9082, 
  "ual": 9083, 
  "pon@@": 9084, 
  "ind": 9085, 
  "antagoni@@": 9086, 
  "ratify": 9087, 
  "caudi@@": 9088, 
  "unconditional": 9089, 
  "bil@@": 9090, 
  "owes": 9091, 
  "unfettered": 9092, 
  "1947": 9093, 
  "š@@": 9094, 
  "hi": 9095, 
  "anom@@": 9096, 
  "oppressive": 9097, 
  "Volcker": 9098, 
  "provocative": 9099, 
  "resumption": 9100, 
  "ideally": 9101, 
  "inspections": 9102, 
  "announce": 9103, 
  "glu@@": 9104, 
  "intim@@": 9105, 
  "som@@": 9106, 
  "crossed": 9107, 
  "codes": 9108, 
  "coercion": 9109, 
  "dest": 9110, 
  "ales": 9111, 
  "tel@@": 9112, 
  "mal": 9113, 
  "dé@@": 9114, 
  "multiculturalism": 9115, 
  "blue": 9116, 
  "distur@@": 9117, 
  "forbidden": 9118, 
  "post-communist": 9119, 
  "wisely": 9120, 
  "Review": 9121, 
  "CEOs": 9122, 
  "lt": 9123, 
  "appoin@@": 9124, 
  "disruptions": 9125, 
  "delaying": 9126, 
  "Fannie": 9127, 
  "detect": 9128, 
  "intern@@": 9129, 
  "simpli@@": 9130, 
  "politicized": 9131, 
  "encomp@@": 9132, 
  "fan@@": 9133, 
  "Lama": 9134, 
  "strengthens": 9135, 
  "locally": 9136, 
  "re-elected": 9137, 
  "edly": 9138, 
  "Bri@@": 9139, 
  "artificially": 9140, 
  "depended": 9141, 
  "feminism": 9142, 
  "blueprint": 9143, 
  "evaluation": 9144, 
  "US-China": 9145, 
  "hed@@": 9146, 
  "employing": 9147, 
  "bacteria": 9148, 
  "maximize": 9149, 
  "accomplishments": 9150, 
  "illusions": 9151, 
  "indul@@": 9152, 
  "signaled": 9153, 
  "-like": 9154, 
  "ten-year": 9155, 
  "1931": 9156, 
  "mentally": 9157, 
  "occupations": 9158, 
  "nomination": 9159, 
  "aspire": 9160, 
  "plane": 9161, 
  "mak@@": 9162, 
  "casting": 9163, 
  "enters": 9164, 
  "anybody": 9165, 
  "cheaply": 9166, 
  "deepened": 9167, 
  "aya": 9168, 
  "stricter": 9169, 
  "broaden": 9170, 
  "prosecuted": 9171, 
  "indicted": 9172, 
  "rou@@": 9173, 
  "gesture": 9174, 
  "defer@@": 9175, 
  "confusing": 9176, 
  "rock@@": 9177, 
  "persecution": 9178, 
  "Five-Year": 9179, 
  "farther": 9180, 
  "attain": 9181, 
  "quarter-century": 9182, 
  "distort": 9183, 
  "abide": 9184, 
  "session": 9185, 
  "guards": 9186, 
  "boycott": 9187, 
  "scar@@": 9188, 
  "world-@@": 9189, 
  "arrogant": 9190, 
  "forecasting": 9191, 
  "duc@@": 9192, 
  "athed": 9193, 
  "SDRs": 9194, 
  "euphoria": 9195, 
  "align": 9196, 
  "partition": 9197, 
  "retrenchment": 9198, 
  "telephone": 9199, 
  "1949": 9200, 
  "Jean-Claude": 9201, 
  "ped@@": 9202, 
  "Deputy": 9203, 
  "constituents": 9204, 
  "subsidize": 9205, 
  "readers": 9206, 
  "worsened": 9207, 
  "Al-@@": 9208, 
  "mountains": 9209, 
  "autom@@": 9210, 
  "DDT": 9211, 
  "Eurobonds": 9212, 
  "oceans": 9213, 
  "double-dip": 9214, 
  "friction": 9215, 
  "jurisdictions": 9216, 
  "aria": 9217, 
  "succeeds": 9218, 
  "contested": 9219, 
  "gangs": 9220, 
  "cartels": 9221, 
  "primacy": 9222, 
  "healthier": 9223, 
  "Hungarian": 9224, 
  "mar": 9225, 
  "fixing": 9226, 
  "simultaneous": 9227, 
  "predatory": 9228, 
  "disrupt": 9229, 
  "Lukashenko": 9230, 
  "fiable": 9231, 
  "suspicions": 9232, 
  "comprehend": 9233, 
  "outlined": 9234, 
  "peacekeepers": 9235, 
  "winds": 9236, 
  "clause": 9237, 
  "succumb": 9238, 
  "matches": 9239, 
  "headline": 9240, 
  "morning": 9241, 
  "rejects": 9242, 
  "twelve": 9243, 
  "relieve": 9244, 
  "injury": 9245, 
  "eng@@": 9246, 
  "guerrillas": 9247, 
  "common@@": 9248, 
  "arch@@": 9249, 
  "plummeted": 9250, 
  "starters": 9251, 
  "massively": 9252, 
  "Italians": 9253, 
  "shop": 9254, 
  "supplied": 9255, 
  "Bosnian": 9256, 
  "posing": 9257, 
  "capit@@": 9258, 
  "G-@@": 9259, 
  "guiding": 9260, 
  "abrupt": 9261, 
  "road@@": 9262, 
  "ney": 9263, 
  "counted": 9264, 
  "nationalization": 9265, 
  "15-@@": 9266, 
  "ridden": 9267, 
  "loo@@": 9268, 
  "Recep": 9269, 
  "Am@@": 9270, 
  "Tayyip": 9271, 
  "shar@@": 9272, 
  "diversify": 9273, 
  "toppled": 9274, 
  "devastated": 9275, 
  "notoriously": 9276, 
  "2100": 9277, 
  "comprises": 9278, 
  "68": 9279, 
  "uneasy": 9280, 
  "spur@@": 9281, 
  "ostensibly": 9282, 
  "respondents": 9283, 
  "ek": 9284, 
  "Nepal": 9285, 
  "ironic": 9286, 
  "distribu@@": 9287, 
  "couples": 9288, 
  "incarcer@@": 9289, 
  "denomin@@": 9290, 
  "ables": 9291, 
  "wer@@": 9292, 
  "intensify": 9293, 
  "Enlightenment": 9294, 
  "Raf@@": 9295, 
  "í@@": 9296, 
  "proportions": 9297, 
  "invoked": 9298, 
  "41": 9299, 
  "constrain": 9300, 
  "sparked": 9301, 
  "Orleans": 9302, 
  "similarities": 9303, 
  "tail@@": 9304, 
  "capitalists": 9305, 
  "polarization": 9306, 
  "advocacy": 9307, 
  "revision": 9308, 
  "persistence": 9309, 
  "suffice": 9310, 
  "Euro-Atlantic": 9311, 
  "label": 9312, 
  "dual": 9313, 
  "Vi@@": 9314, 
  "assigned": 9315, 
  "sway": 9316, 
  "prepar@@": 9317, 
  "segments": 9318, 
  "disdain": 9319, 
  "swift": 9320, 
  "obtaining": 9321, 
  "cation": 9322, 
  "vali@@": 9323, 
  "staged": 9324, 
  "Ph@@": 9325, 
  "charity": 9326, 
  "Du@@": 9327, 
  "peculiar": 9328, 
  "swit@@": 9329, 
  "cease-fire": 9330, 
  "provoking": 9331, 
  "selec@@": 9332, 
  "impressed": 9333, 
  "gan@@": 9334, 
  "laboratories": 9335, 
  "ein": 9336, 
  "efficacy": 9337, 
  "nationwide": 9338, 
  "crony": 9339, 
  "would-be": 9340, 
  "denominated": 9341, 
  "Can@@": 9342, 
  "perpet@@": 9343, 
  "brutally": 9344, 
  "passionate": 9345, 
  "nationalistic": 9346, 
  "destabilize": 9347, 
  "clinics": 9348, 
  "gay": 9349, 
  "fro@@": 9350, 
  "intend": 9351, 
  "department": 9352, 
  "All": 9353, 
  "acy": 9354, 
  "Maliki": 9355, 
  "mir@@": 9356, 
  "classi@@": 9357, 
  "secession": 9358, 
  "maneu@@": 9359, 
  "rhetorical": 9360, 
  "ris@@": 9361, 
  "H": 9362, 
  "boss": 9363, 
  "steam": 9364, 
  "puni@@": 9365, 
  "voc@@": 9366, 
  "Barak": 9367, 
  "spark": 9368, 
  "delu@@": 9369, 
  "aided": 9370, 
  "39": 9371, 
  "tum@@": 9372, 
  "loc@@": 9373, 
  "attachment": 9374, 
  "Economy": 9375, 
  "ade@@": 9376, 
  "geni@@": 9377, 
  "behaving": 9378, 
  "occasional": 9379, 
  "hubris": 9380, 
  "lowing": 9381, 
  ".ampnbsp": 9382, 
  "demograph@@": 9383, 
  "humiliated": 9384, 
  "colonies": 9385, 
  "lax": 9386, 
  "posture": 9387, 
  "negligible": 9388, 
  "Napoleon": 9389, 
  "melting": 9390, 
  "decay": 9391, 
  "prosecute": 9392, 
  "el-@@": 9393, 
  "em": 9394, 
  "pro-democracy": 9395, 
  "frightening": 9396, 
  "boat": 9397, 
  "plunged": 9398, 
  "file": 9399, 
  "discouraged": 9400, 
  "recoveries": 9401, 
  "ata": 9402, 
  "reconciled": 9403, 
  "Dick": 9404, 
  "START": 9405, 
  "allegiance": 9406, 
  "enriched": 9407, 
  "Solzhenitsyn": 9408, 
  "Fa@@": 9409, 
  "pouring": 9410, 
  "zi@@": 9411, 
  "better-@@": 9412, 
  "flat@@": 9413, 
  "impetus": 9414, 
  "otic": 9415, 
  "pled": 9416, 
  "sens@@": 9417, 
  "ain": 9418, 
  "mented": 9419, 
  "blockade": 9420, 
  "undergo": 9421, 
  "fabric": 9422, 
  "oke": 9423, 
  "CD": 9424, 
  "fastest": 9425, 
  "1.1": 9426, 
  "vowed": 9427, 
  "System": 9428, 
  "prohibi@@": 9429, 
  "£": 9430, 
  "anded": 9431, 
  "dragged": 9432, 
  "bird": 9433, 
  "disability": 9434, 
  "Shell": 9435, 
  "ples": 9436, 
  "suspects": 9437, 
  "aces": 9438, 
  "formulate": 9439, 
  "Nordic": 9440, 
  "ep": 9441, 
  "franc": 9442, 
  "oked": 9443, 
  "swa@@": 9444, 
  "unfolding": 9445, 
  "pending": 9446, 
  "precarious": 9447, 
  "castes": 9448, 
  "Condoleezza": 9449, 
  "indic@@": 9450, 
  "man-made": 9451, 
  "destination": 9452, 
  "old-@@": 9453, 
  "gn": 9454, 
  "utter": 9455, 
  "endure": 9456, 
  "permissible": 9457, 
  "wholly": 9458, 
  "comple@@": 9459, 
  "Armenian": 9460, 
  "0.2": 9461, 
  "honesty": 9462, 
  "develops": 9463, 
  "Ash@@": 9464, 
  "gang": 9465, 
  "l-@@": 9466, 
  "encountered": 9467, 
  "applications": 9468, 
  "seriousness": 9469, 
  "river": 9470, 
  "candidacy": 9471, 
  "medium-size": 9472, 
  "woes": 9473, 
  "ica": 9474, 
  "noticed": 9475, 
  "license": 9476, 
  "2014": 9477, 
  "bottom@@": 9478, 
  "Mad@@": 9479, 
  "grace": 9480, 
  "spot": 9481, 
  "Ta@@": 9482, 
  "rum@@": 9483, 
  "dam": 9484, 
  "person@@": 9485, 
  "deri@@": 9486, 
  "Binyamin": 9487, 
  "precondition": 9488, 
  "sugar": 9489, 
  "havens": 9490, 
  "macro-@@": 9491, 
  "critique": 9492, 
  "prejudice": 9493, 
  "churches": 9494, 
  "secret@@": 9495, 
  "Hurricane": 9496, 
  "dust": 9497, 
  "invaded": 9498, 
  "daughters": 9499, 
  "escaped": 9500, 
  "neighborhoods": 9501, 
  "donations": 9502, 
  "widened": 9503, 
  "SDR": 9504, 
  "bat@@": 9505, 
  "hang": 9506, 
  "deficiency": 9507, 
  "correction": 9508, 
  "shr@@": 9509, 
  "Aristide": 9510, 
  "Fidel": 9511, 
  "essions": 9512, 
  "discredit": 9513, 
  "alcohol": 9514, 
  "visa": 9515, 
  "biofuels": 9516, 
  "catalyst": 9517, 
  "We@@": 9518, 
  "depar@@": 9519, 
  "violating": 9520, 
  "tolerated": 9521, 
  "Maoist": 9522, 
  "altered": 9523, 
  "IN@@": 9524, 
  "gul@@": 9525, 
  "narratives": 9526, 
  "se-@@": 9527, 
  "lified": 9528, 
  "harassment": 9529, 
  "assessed": 9530, 
  "ank": 9531, 
  "Libyans": 9532, 
  "render": 9533, 
  "ariat": 9534, 
  "draws": 9535, 
  "antagonism": 9536, 
  "apped": 9537, 
  "arrests": 9538, 
  "impulse": 9539, 
  "flaw": 9540, 
  "Albanian": 9541, 
  "51": 9542, 
  "beauty": 9543, 
  "assem@@": 9544, 
  "incurred": 9545, 
  "Bra@@": 9546, 
  "mid@@": 9547, 
  "search@@": 9548, 
  "appeasement": 9549, 
  "articulate": 9550, 
  "insure": 9551, 
  "civil-society": 9552, 
  "breach": 9553, 
  "versions": 9554, 
  "athletes": 9555, 
  "lied": 9556, 
  "boom@@": 9557, 
  "militarized": 9558, 
  "servi@@": 9559, 
  "deadline": 9560, 
  "compar@@": 9561, 
  "excellence": 9562, 
  "privacy": 9563, 
  "betra@@": 9564, 
  "degra@@": 9565, 
  "Amsterdam": 9566, 
  "cleansing": 9567, 
  "ghted": 9568, 
  "dispat@@": 9569, 
  "virtuous": 9570, 
  "hab@@": 9571, 
  "staying": 9572, 
  "betrayal": 9573, 
  "smarter": 9574, 
  "invite": 9575, 
  "charter": 9576, 
  "geographic": 9577, 
  "unjust": 9578, 
  "K": 9579, 
  "materialize": 9580, 
  "money-@@": 9581, 
  "show@@": 9582, 
  "wed@@": 9583, 
  "realistically": 9584, 
  "implosion": 9585, 
  "centr@@": 9586, 
  "turnaround": 9587, 
  "ums": 9588, 
  "revolutionaries": 9589, 
  "protocol": 9590, 
  "Chavez": 9591, 
  "unusually": 9592, 
  "lawmakers": 9593, 
  "Fifth": 9594, 
  "shall": 9595, 
  "Y": 9596, 
  "district": 9597, 
  "requested": 9598, 
  "liked": 9599, 
  "continually": 9600, 
  "overhang": 9601, 
  "substantive": 9602, 
  "AR@@": 9603, 
  "promptly": 9604, 
  "particip@@": 9605, 
  "world-class": 9606, 
  "Coun@@": 9607, 
  "importing": 9608, 
  "revaluation": 9609, 
  "market-oriented": 9610, 
  "observation": 9611, 
  "complement": 9612, 
  "orable": 9613, 
  "craf@@": 9614, 
  "okes": 9615, 
  "hegemonic": 9616, 
  "convened": 9617, 
  "random": 9618, 
  "ologi@@": 9619, 
  "once-@@": 9620, 
  "bonus": 9621, 
  "lin": 9622, 
  "sand": 9623, 
  "Mer@@": 9624, 
  "trades": 9625, 
  "well-functioning": 9626, 
  "loaded": 9627, 
  "1984": 9628, 
  "ene": 9629, 
  "contexts": 9630, 
  "misrule": 9631, 
  "appro@@": 9632, 
  "populous": 9633, 
  "withdrew": 9634, 
  "fragility": 9635, 
  "viewers": 9636, 
  "transcend": 9637, 
  "Mill": 9638, 
  "jihad": 9639, 
  "self-confidence": 9640, 
  "conve@@": 9641, 
  "dem@@": 9642, 
  "subordinate": 9643, 
  "1.7": 9644, 
  "mi": 9645, 
  "compromising": 9646, 
  "microbes": 9647, 
  "progressively": 9648, 
  "Carter": 9649, 
  "kl@@": 9650, 
  "Paulson": 9651, 
  "greeted": 9652, 
  "nourished": 9653, 
  "sof@@": 9654, 
  "intensi@@": 9655, 
  "basi@@": 9656, 
  "nice": 9657, 
  "10-@@": 9658, 
  "Som@@": 9659, 
  "outflows": 9660, 
  "um-@@": 9661, 
  "compensated": 9662, 
  "Mozambique": 9663, 
  "fertile": 9664, 
  "stan@@": 9665, 
  "me-@@": 9666, 
  "gradu@@": 9667, 
  "unifying": 9668, 
  "interactions": 9669, 
  "gur@@": 9670, 
  "monthly": 9671, 
  "belonging": 9672, 
  "spare": 9673, 
  "Maghreb": 9674, 
  "embryos": 9675, 
  "not@@": 9676, 
  "payroll": 9677, 
  "VAT": 9678, 
  "refuge": 9679, 
  "noble": 9680, 
  "risk@@": 9681, 
  "ices": 9682, 
  "Her@@": 9683, 
  "din": 9684, 
  "sat": 9685, 
  "solvent": 9686, 
  "Banking": 9687, 
  "ridi@@": 9688, 
  "observe": 9689, 
  "veness": 9690, 
  "bili@@": 9691, 
  "orial": 9692, 
  "freed": 9693, 
  "crushed": 9694, 
  "culturally": 9695, 
  "blackmail": 9696, 
  "conversion": 9697, 
  "Assange": 9698, 
  "ura": 9699, 
  "holi@@": 9700, 
  "abolish": 9701, 
  "itable": 9702, 
  "Acc@@": 9703, 
  "recommend": 9704, 
  "vet@@": 9705, 
  "stagn@@": 9706, 
  "Summers": 9707, 
  "burg": 9708, 
  "At@@": 9709, 
  "multiplied": 9710, 
  "alo@@": 9711, 
  "emphasizes": 9712, 
  "intervened": 9713, 
  "normalization": 9714, 
  "Federation": 9715, 
  "intri@@": 9716, 
  "hr@@": 9717, 
  "disarray": 9718, 
  "99": 9719, 
  "metals": 9720, 
  "unbalanced": 9721, 
  "inci@@": 9722, 
  "subscri@@": 9723, 
  "section": 9724, 
  "tude": 9725, 
  "differs": 9726, 
  "xenophobic": 9727, 
  "taxing": 9728, 
  "rethink": 9729, 
  "conten@@": 9730, 
  "e.g.": 9731, 
  "employ@@": 9732, 
  "suits": 9733, 
  "ine-@@": 9734, 
  "57": 9735, 
  "resurrec@@": 9736, 
  "Hariri": 9737, 
  "uniquely": 9738, 
  "peers": 9739, 
  "then-@@": 9740, 
  "ole": 9741, 
  "impaired": 9742, 
  "transl@@": 9743, 
  "covert": 9744, 
  "ong@@": 9745, 
  "unanimous": 9746, 
  "continuously": 9747, 
  "pornography": 9748, 
  "nerve": 9749, 
  "hypothesis": 9750, 
  "therapies": 9751, 
  "recapitalize": 9752, 
  "puzzle": 9753, 
  "-of-GDP": 9754, 
  "Srebrenica": 9755, 
  "reserved": 9756, 
  "12th": 9757, 
  "ized": 9758, 
  "accru@@": 9759, 
  "tal@@": 9760, 
  "debating": 9761, 
  "Rica": 9762, 
  "pun@@": 9763, 
  "spike": 9764, 
  "apartheid": 9765, 
  "outdated": 9766, 
  "proximity": 9767, 
  "Wilson": 9768, 
  "cosmopolitan": 9769, 
  "Mladic": 9770, 
  "full-time": 9771, 
  "specialists": 9772, 
  "inheritance": 9773, 
  "int": 9774, 
  "restrictive": 9775, 
  "planes": 9776, 
  "prefer@@": 9777, 
  "objections": 9778, 
  "constructing": 9779, 
  "6.5": 9780, 
  "Turkmenistan": 9781, 
  "swap": 9782, 
  "disciplines": 9783, 
  "acquiring": 9784, 
  "announcing": 9785, 
  "councils": 9786, 
  "1962": 9787, 
  "abilities": 9788, 
  "sus": 9789, 
  "AIG": 9790, 
  "ety": 9791, 
  "dam@@": 9792, 
  "sacrifices": 9793, 
  "topic": 9794, 
  "tit@@": 9795, 
  "-minded": 9796, 
  "technocratic": 9797, 
  "redistribu@@": 9798, 
  "adventure": 9799, 
  "homosexuality": 9800, 
  "explo@@": 9801, 
  "small@@": 9802, 
  "strang@@": 9803, 
  "mountain": 9804, 
  "league": 9805, 
  "Columbia": 9806, 
  "History": 9807, 
  "ren": 9808, 
  "rendering": 9809, 
  "Coast": 9810, 
  "profligate": 9811, 
  "53": 9812, 
  "aching": 9813, 
  "addresses": 9814, 
  "margin@@": 9815, 
  "quoted": 9816, 
  "rainfall": 9817, 
  "twin": 9818, 
  "intimidation": 9819, 
  "deception": 9820, 
  "vivid": 9821, 
  "neg@@": 9822, 
  "pes": 9823, 
  "regained": 9824, 
  "briefly": 9825, 
  "gling": 9826, 
  "oh@@": 9827, 
  "apathy": 9828, 
  "biotechnology": 9829, 
  "Liber@@": 9830, 
  "accumulating": 9831, 
  "Kabul": 9832, 
  "Bangkok": 9833, 
  "tactic": 9834, 
  "tin": 9835, 
  "determines": 9836, 
  "parks": 9837, 
  "34": 9838, 
  "Bundesbank": 9839, 
  "desires": 9840, 
  "teenth": 9841, 
  "exciting": 9842, 
  "appe@@": 9843, 
  "ko@@": 9844, 
  "forcefully": 9845, 
  "QE": 9846, 
  "ees": 9847, 
  "Yasukuni": 9848, 
  "stretched": 9849, 
  "courageous": 9850, 
  "universally": 9851, 
  "Kirchner": 9852, 
  "managerial": 9853, 
  "gridlock": 9854, 
  "tici@@": 9855, 
  "immoral": 9856, 
  "tripled": 9857, 
  "Industrial": 9858, 
  "Guinea": 9859, 
  "mes@@": 9860, 
  "enter@@": 9861, 
  "Jo@@": 9862, 
  "persistently": 9863, 
  "fertilizer": 9864, 
  "indicating": 9865, 
  "interdependent": 9866, 
  "Frankfurt": 9867, 
  "oting": 9868, 
  "protects": 9869, 
  "trick@@": 9870, 
  "ane": 9871, 
  "dictate": 9872, 
  "dilemmas": 9873, 
  "real-@@": 9874, 
  "spir@@": 9875, 
  "tipping": 9876, 
  "determinant": 9877, 
  "massacres": 9878, 
  "harmonization": 9879, 
  "revol@@": 9880, 
  "liberalize": 9881, 
  "simpler": 9882, 
  "Tunisian": 9883, 
  "DS@@": 9884, 
  "Delta": 9885, 
  "frat@@": 9886, 
  "keys": 9887, 
  "unregulated": 9888, 
  "erous": 9889, 
  "aver@@": 9890, 
  "Cor@@": 9891, 
  "Confucian": 9892, 
  "round@@": 9893, 
  "cloning": 9894, 
  "rein@@": 9895, 
  "1997-1998": 9896, 
  "histories": 9897, 
  "doub@@": 9898, 
  "thereafter": 9899, 
  "slogans": 9900, 
  "detained": 9901, 
  "stes": 9902, 
  "turbines": 9903, 
  "tal": 9904, 
  "deduc@@": 9905, 
  "disengagement": 9906, 
  "arsenals": 9907, 
  "sinking": 9908, 
  "Ben@@": 9909, 
  "Sha@@": 9910, 
  "reconsider": 9911, 
  "blunt": 9912, 
  "rescued": 9913, 
  "mightily": 9914, 
  "BBC": 9915, 
  "fence": 9916, 
  "wildly": 9917, 
  "one-fifth": 9918, 
  "alignment": 9919, 
  "amounting": 9920, 
  "proportion@@": 9921, 
  "disciplined": 9922, 
  "harmonious": 9923, 
  "beaten": 9924, 
  "unchecked": 9925, 
  "sink": 9926, 
  "orchest@@": 9927, 
  "Toledo": 9928, 
  "plum@@": 9929, 
  "framed": 9930, 
  "revit@@": 9931, 
  "minutes": 9932, 
  "prolong": 9933, 
  "Xi": 9934, 
  "listening": 9935, 
  "frightened": 9936, 
  "year-@@": 9937, 
  "securitization": 9938, 
  "worldview": 9939, 
  "designs": 9940, 
  "rent": 9941, 
  "affili@@": 9942, 
  "rob@@": 9943, 
  "uniting": 9944, 
  "deterred": 9945, 
  "gned": 9946, 
  "ization": 9947, 
  "thwest": 9948, 
  "mur@@": 9949, 
  "sity": 9950, 
  "identi@@": 9951, 
  "contra@@": 9952, 
  "measuring": 9953, 
  "lobbyists": 9954, 
  "fabri@@": 9955, 
  "amendments": 9956, 
  "anti-Semitic": 9957, 
  "dividend": 9958, 
  "anti-Western": 9959, 
  "senators": 9960, 
  "wra@@": 9961, 
  "He": 9962, 
  "theater": 9963, 
  "victorious": 9964, 
  "refinance": 9965, 
  "197@@": 9966, 
  "tribunals": 9967, 
  "noting": 9968, 
  "Barcelona": 9969, 
  "sibility": 9970, 
  "manifest": 9971, 
  "poppy": 9972, 
  "purchased": 9973, 
  "Dr.": 9974, 
  "book@@": 9975, 
  "financial-@@": 9976, 
  "monetary-policy": 9977, 
  "nasty": 9978, 
  "assurance": 9979, 
  "0.3": 9980, 
  "62": 9981, 
  "retro@@": 9982, 
  "sizeable": 9983, 
  "betting": 9984, 
  "greedy": 9985, 
  "instructions": 9986, 
  "expecting": 9987, 
  "onia": 9988, 
  "affirmative": 9989, 
  "labeled": 9990, 
  "five-@@": 9991, 
  "shut@@": 9992, 
  "Tur@@": 9993, 
  "1.8": 9994, 
  "ment-@@": 9995, 
  "retire": 9996, 
  "bars": 9997, 
  "big-@@": 9998, 
  "shopping": 9999, 
  "DP@@": 10000, 
  "physicists": 10001, 
  "46": 10002, 
  "aversion": 10003, 
  "unleash": 10004, 
  "oes": 10005, 
  "Senegal": 10006, 
  "slows": 10007, 
  "age-@@": 10008, 
  "Pakistanis": 10009, 
  "roadmap": 10010, 
  "omed": 10011, 
  "produc@@": 10012, 
  "copy": 10013, 
  "incorpor@@": 10014, 
  "positively": 10015, 
  "Lenin": 10016, 
  "Kan": 10017, 
  "Stockholm": 10018, 
  "market-based": 10019, 
  "stubbornly": 10020, 
  "landslide": 10021, 
  "30@@": 10022, 
  "diffusion": 10023, 
  "kov": 10024, 
  "sians": 10025, 
  "Venezuelan": 10026, 
  "risking": 10027, 
  "shell": 10028, 
  "thering": 10029, 
  "450": 10030, 
  "dampen": 10031, 
  "alis@@": 10032, 
  "Koran": 10033, 
  "will@@": 10034, 
  "rats": 10035, 
  "perestroika": 10036, 
  "earliest": 10037, 
  "renew": 10038, 
  "mouth": 10039, 
  "burden-sharing": 10040, 
  "multi-polar": 10041, 
  "shu@@": 10042, 
  "tap": 10043, 
  "glory": 10044, 
  "planted": 10045, 
  "stun@@": 10046, 
  "glaciers": 10047, 
  "dable": 10048, 
  "celebration": 10049, 
  "liberated": 10050, 
  "spotlight": 10051, 
  "Marxist": 10052, 
  "liation": 10053, 
  "Im@@": 10054, 
  "genius": 10055, 
  "indications": 10056, 
  "hard-line": 10057, 
  "detected": 10058, 
  "sympathetic": 10059, 
  "mini-@@": 10060, 
  "machinery": 10061, 
  "therland": 10062, 
  "killer": 10063, 
  "tful": 10064, 
  "crossroads": 10065, 
  "tough@@": 10066, 
  "smoothly": 10067, 
  "quit": 10068, 
  "cratic": 10069, 
  "prisoner": 10070, 
  "insul@@": 10071, 
  "illnesses": 10072, 
  "bac@@": 10073, 
  "timetable": 10074, 
  "Pervez": 10075, 
  "Israeli-@@": 10076, 
  "sided": 10077, 
  "ri": 10078, 
  "consumer@@": 10079, 
  "cleaner": 10080, 
  "clothing": 10081, 
  "hed": 10082, 
  "campaigners": 10083, 
  "periodic": 10084, 
  "Tu@@": 10085, 
  "Yanukovych": 10086, 
  "ski": 10087, 
  "diss@@": 10088, 
  "holder": 10089, 
  "Mohamed": 10090, 
  "alien": 10091, 
  "drafting": 10092, 
  "vitality": 10093, 
  "Chad": 10094, 
  "tax@@": 10095, 
  "monitors": 10096, 
  "misin@@": 10097, 
  "mosque": 10098, 
  "commerci@@": 10099, 
  "repaid": 10100, 
  "59": 10101, 
  "teri@@": 10102, 
  "activ@@": 10103, 
  "park": 10104, 
  "lia": 10105, 
  "uate": 10106, 
  "Pearl": 10107, 
  "adver@@": 10108, 
  "3.@@": 10109, 
  "messy": 10110, 
  "crucially": 10111, 
  "supplier": 10112, 
  "eri@@": 10113, 
  "tables": 10114, 
  "surpass": 10115, 
  "ised": 10116, 
  "IBM": 10117, 
  "screen": 10118, 
  "diplomat": 10119, 
  "theirs": 10120, 
  "spell": 10121, 
  "daring": 10122, 
  "examining": 10123, 
  "2.@@": 10124, 
  "stuff": 10125, 
  "precedents": 10126, 
  "navy": 10127, 
  "register": 10128, 
  "decei@@": 10129, 
  "fiscally": 10130, 
  "illustrated": 10131, 
  "unwise": 10132, 
  "provi@@": 10133, 
  "regul@@": 10134, 
  "ze-@@": 10135, 
  "therapeutic": 10136, 
  "subordin@@": 10137, 
  "strat@@": 10138, 
  "picking": 10139, 
  "Mecca": 10140, 
  "constituency": 10141, 
[...]
