{
  "eos": 57906, 
  "UNK": 1, 
  ",": 2, 
  ".": 3, 
  "die": 4, 
  "der": 5, 
  "und": 6, 
  "in": 7, 
  "zu": 8, 
  "von": 9, 
  "den": 10, 
  "das": 11, 
  "ist": 12, 
  "für": 13, 
  "@-@": 14, 
  "mit": 15, 
  "auf": 16, 
  "des": 17, 
  "eine": 18, 
  "wir": 19, 
  "im": 20, 
  "es": 21, 
  "Sie": 22, 
  "nicht": 23, 
  "ein": 24, 
  "ich": 25, 
  "werden": 26, 
  "&quot;": 27, 
  "dass": 28, 
  "dem": 29, 
  "sich": 30, 
  "auch": 31, 
  "-": 32, 
  "sind": 33, 
  "wird": 34, 
  "an": 35, 
  "(": 36, 
  ")": 37, 
  "als": 38, 
  "um": 39, 
  "oder": 40, 
  "wie": 41, 
  ":": 42, 
  "über": 43, 
  "haben": 44, 
  "einer": 45, 
  "hat": 46, 
  "bei": 47, 
  "sie": 48, 
  "zur": 49, 
  "diese": 50, 
  "aus": 51, 
  "einen": 52, 
  "können": 53, 
  "nach": 54, 
  "wenn": 55, 
  "zum": 56, 
  "einem": 57, 
  "durch": 58, 
  "nur": 59, 
  "dieser": 60, 
  "uns": 61, 
  "kann": 62, 
  "so": 63, 
  "aber": 64, 
  "er": 65, 
  "!": 66, 
  "vor": 67, 
  "noch": 68, 
  "daß": 69, 
  "Kommission": 70, 
  "wurde": 71, 
  "was": 72, 
  "am": 73, 
  "sehr": 74, 
  "Herr": 75, 
  "sein": 76, 
  "alle": 77, 
  "müssen": 78, 
  "man": 79, 
  "?": 80, 
  "/": 81, 
  "diesem": 82, 
  "mehr": 83, 
  "dieses": 84, 
  "Union": 85, 
  "bis": 86, 
  "Europäischen": 87, 
  "hier": 88, 
  "dies": 89, 
  "war": 90, 
  "möchte": 91, 
  "ihre": 92, 
  "unsere": 93, 
  "eines": 94, 
  "vom": 95, 
  "unter": 96, 
  "Hotel": 97, 
  "Präsident": 98, 
  "gibt": 99, 
  "sowie": 100, 
  "&apos;": 101, 
  "EU": 102, 
  "the": 103, 
  "zwischen": 104, 
  "da": 105, 
  "muss": 106, 
  "keine": 107, 
  "Bericht": 108, 
  "damit": 109, 
  "Ihnen": 110, 
  "Parlament": 111, 
  "dann": 112, 
  "...": 113, 
  "Mitgliedstaaten": 114, 
  "anderen": 115, 
  "Europa": 116, 
  "immer": 117, 
  "de": 118, 
  "diesen": 119, 
  "a": 120, 
  ";": 121, 
  "heute": 122, 
  "wurden": 123, 
  "gegen": 124, 
  "seine": 125, 
  "Frau": 126, 
  "Zeit": 127, 
  "unserer": 128, 
  "jedoch": 129, 
  "habe": 130, 
  "neue": 131, 
  "sondern": 132, 
  "Europäische": 133, 
  "Menschen": 134, 
  "bereits": 135, 
  "sollte": 136, 
  "ohne": 137, 
  "Jahr": 138, 
  "and": 139, 
  "viele": 140, 
  "Ihre": 141, 
  "andere": 142, 
  "mich": 143, 
  "sollten": 144, 
  "dazu": 145, 
  "zwei": 146, 
  "ihrer": 147, 
  "europäischen": 148, 
  "Jahren": 149, 
  "neuen": 150, 
  "%": 151, 
  "ganz": 152, 
  "doch": 153, 
  "finden": 154, 
  "denn": 155, 
  "Rat": 156, 
  "jetzt": 157, 
  "Entwicklung": 158, 
  "Frage": 159, 
  "einige": 160, 
  "denen": 161, 
  "bietet": 162, 
  "seit": 163, 
  "machen": 164, 
  "während": 165, 
  "meine": 166, 
  "allen": 167, 
  "liegt": 168, 
  "weil": 169, 
  "ihr": 170, 
  "Welt": 171, 
  "Unternehmen": 172, 
  "wieder": 173, 
  "dafür": 174, 
  "of": 175, 
  "selbst": 176, 
  "schon": 177, 
  "2": 178, 
  "geht": 179, 
  "darauf": 180, 
  "seiner": 181, 
  "daher": 182, 
  "nun": 183, 
  "Informationen": 184, 
  "Lage": 185, 
  "Bereich": 186, 
  "lassen": 187, 
  "ob": 188, 
  "Maßnahmen": 189, 
  "dabei": 190, 
  "mir": 191, 
  "ihren": 192, 
  "Jahre": 193, 
  "ab": 194, 
  "Herrn": 195, 
  "Arbeit": 196, 
  "wollen": 197, 
  "allem": 198, 
  "viel": 199, 
  "würde": 200, 
  "bin": 201, 
  "unseren": 202, 
  "unser": 203, 
  "darüber": 204, 
  "deshalb": 205, 
  "wo": 206, 
  "s": 207, 
  "to": 208, 
  "insbesondere": 209, 
  "en": 210, 
  "1": 211, 
  "gut": 212, 
  "beim": 213, 
  "etwas": 214, 
  "Land": 215, 
  "also": 216, 
  "Zimmer": 217, 
  "sagen": 218, 
  "&#93;": 219, 
  "Länder": 220, 
  "&#91;": 221, 
  "waren": 222, 
  "möglich": 223, 
  "geben": 224, 
  "3": 225, 
  "natürlich": 226, 
  "erhalten": 227, 
  "sehen": 228, 
  "Unterstützung": 229, 
  "Rahmen": 230, 
  "welche": 231, 
  "ersten": 232, 
  "stehen": 233, 
  "Ländern": 234, 
  "er@@": 235, 
  "Zusammenarbeit": 236, 
  "Teil": 237, 
  "Parlaments": 238, 
  "besteht": 239, 
  "wichtig": 240, 
  "soll": 241, 
  "einfach": 242, 
  "steht": 243, 
  "un@@": 244, 
  "drei": 245, 
  "stellen": 246, 
  "Vorschlag": 247, 
  "Fall": 248, 
  "wäre": 249, 
  "tun": 250, 
  "einmal": 251, 
  "bitte": 252, 
  "seinen": 253, 
  "du": 254, 
  "Ziel": 255, 
  "Bürger": 256, 
  "weitere": 257, 
  "Stadt": 258, 
  "meiner": 259, 
  "Fragen": 260, 
  "ver@@": 261, 
  "Problem": 262, 
  "vielen": 263, 
  "letzten": 264, 
  "Namen": 265, 
  "Seite": 266, 
  "große": 267, 
  "Kollegen": 268, 
  "Art": 269, 
  "kommen": 270, 
  "Daten": 271, 
  "besonders": 272, 
  "großen": 273, 
  "worden": 274, 
  "deren": 275, 
  "weiter": 276, 
  "alles": 277, 
  "Recht": 278, 
  "Verfügung": 279, 
  "Bedeutung": 280, 
  "kein": 281, 
  "sowohl": 282, 
  "Sicherheit": 283, 
  "Möglichkeit": 284, 
  "davon": 285, 
  "-@@": 286, 
  "politischen": 287, 
  "an@@": 288, 
  "4": 289, 
  "bieten": 290, 
  "Regierung": 291, 
  "könnte": 292, 
  "Fraktion": 293, 
  "dort": 294, 
  "Staaten": 295, 
  "muß": 296, 
  "Thema": 297, 
  "eigenen": 298, 
  "wissen": 299, 
  "Probleme": 300, 
  "&amp;": 301, 
  "ab@@": 302, 
  "innerhalb": 303, 
  "ja": 304, 
  "Kunden": 305, 
  "befindet": 306, 
  "10": 307, 
  "Weise": 308, 
  "Kommissar": 309, 
  "aller": 310, 
  "Politik": 311, 
  "zwar": 312, 
  "5": 313, 
  "System": 314, 
  "erreichen": 315, 
  "Ihrer": 316, 
  "jeder": 317, 
  "Ende": 318, 
  "hatte": 319, 
  "möchten": 320, 
  "wirklich": 321, 
  "Zukunft": 322, 
  "unterstützen": 323, 
  "Beispiel": 324, 
  "entfernt": 325, 
  "ihnen": 326, 
  "gegenüber": 327, 
  "is": 328, 
  "verschiedenen": 329, 
  "USA": 330, 
  "Euro": 331, 
  "direkt": 332, 
  "te": 333, 
  "Rolle": 334, 
  "Seiten": 335, 
  "Richtlinie": 336, 
  "allerdings": 337, 
  "internationalen": 338, 
  "Weg": 339, 
  "la": 340, 
  "führen": 341, 
  "Frauen": 342, 
  "außerdem": 343, 
  "erste": 344, 
  "ten": 345, 
  "all": 346, 
  "Ihren": 347, 
  "europäische": 348, 
  "Tag": 349, 
  "kommt": 350, 
  "�": 351, 
  "nehmen": 352, 
  "ein@@": 353, 
  "Ihr": 354, 
  "bringen": 355, 
  "Programm": 356, 
  "e": 357, 
  "E": 358, 
  "Artikel": 359, 
  "Meinung": 360, 
  "stellt": 361, 
  "en@@": 362, 
  "Uhr": 363, 
  "beiden": 364, 
  "Lösung": 365, 
  "unserem": 366, 
  "politische": 367, 
  "Situation": 368, 
  "on": 369, 
  "pro": 370, 
  "weniger": 371, 
  "Zusammenhang": 372, 
  "indem": 373, 
  "gehen": 374, 
  "Hilfe": 375, 
  "daran": 376, 
  "aufgrund": 377, 
  "sogar": 378, 
  "gerade": 379, 
  "2009": 380, 
  "m": 381, 
  "etwa": 382, 
  "Produkte": 383, 
  "Präsidentin": 384, 
  "Mittel": 385, 
  "K@@": 386, 
  "ebenfalls": 387, 
  "gilt": 388, 
  "Leben": 389, 
  "aus@@": 390, 
  "gesagt": 391, 
  "darin": 392, 
  "Ver@@": 393, 
  "Region": 394, 
  "bzw.": 395, 
  "genau": 396, 
  "Haus": 397, 
  "Grund": 398, 
  "Millionen": 399, 
  "ins": 400, 
  "o": 401, 
  "Europas": 402, 
  "i": 403, 
  "vielleicht": 404, 
  "gute": 405, 
  "gemacht": 406, 
  "will": 407, 
  "Hotels": 408, 
  "Schutz": 409, 
  "nämlich": 410, 
  "weiterhin": 411, 
  "20": 412, 
  "Kinder": 413, 
  "hinaus": 414, 
  "darf": 415, 
  "dessen": 416, 
  "auf@@": 417, 
  "ihn": 418, 
  "ihm": 419, 
  "betrifft": 420, 
  "unterstützt": 421, 
  "neben": 422, 
  "sicher": 423, 
  "zusammen": 424, 
  "seinem": 425, 
  "Internet": 426, 
  "Ebene": 427, 
  "nichts": 428, 
  "jeden": 429, 
  "Punkt": 430, 
  "Deutschland": 431, 
  "k@@": 432, 
  "Personen": 433, 
  "gleichzeitig": 434, 
  "solche": 435, 
  "einigen": 436, 
  "Aussprache": 437, 
  "macht": 438, 
  "Qualität": 439, 
  "S@@": 440, 
  "ebenso": 441, 
  "brauchen": 442, 
  "öffentlichen": 443, 
  "schaffen": 444, 
  "dürfen": 445, 
  "erst": 446, 
  "s@@": 447, 
  "glaube": 448, 
  "Software": 449, 
  "as": 450, 
  "sollen": 451, 
  "arbeiten": 452, 
  "meisten": 453, 
  "Rates": 454, 
  "Form": 455, 
  "B@@": 456, 
  "Abstimmung": 457, 
  "P@@": 458, 
  "Wirtschaft": 459, 
  "keinen": 460, 
  "ihrem": 461, 
  "handelt": 462, 
  "nationalen": 463, 
  "T@@": 464, 
  "nutzen": 465, 
  "Gemeinschaft": 466, 
  "t": 467, 
  "Rechte": 468, 
  "30": 469, 
  "obwohl": 470, 
  "for": 471, 
  "Ab@@": 472, 
  "würden": 473, 
  "Ort": 474, 
  "statt": 475, 
  "bedeutet": 476, 
  "zunächst": 477, 
  "Website": 478, 
  "sei": 479, 
  "klar": 480, 
  "wichtige": 481, 
  "schnell": 482, 
  "besser": 483, 
  "Service": 484, 
  "Bezug": 485, 
  "ge@@": 486, 
  "Kosten": 487, 
  "beispielsweise": 488, 
  "findet": 489, 
  "besten": 490, 
  "deutlich": 491, 
  "halten": 492, 
  "t@@": 493, 
  "&#124;": 494, 
  "Zugang": 495, 
  "G@@": 496, 
  "Dank": 497, 
  "An@@": 498, 
  "weit": 499, 
  "Gesellschaft": 500, 
  "Richtung": 501, 
  "nächsten": 502, 
  "z@@": 503, 
  "wegen": 504, 
  "et": 505, 
  "Strategie": 506, 
  "ent@@": 507, 
  "d": 508, 
  "M@@": 509, 
  "l": 510, 
  "Ansicht": 511, 
  "15": 512, 
  "Markt": 513, 
  "Nähe": 514, 
  "jede": 515, 
  "2008": 516, 
  "darum": 517, 
  "Umsetzung": 518, 
  "A@@": 519, 
  "je": 520, 
  "Menschenrechte": 521, 
  "D@@": 522, 
  "n@@": 523, 
  "2010": 524, 
  "werde": 525, 
  "bekannt": 526, 
  "el": 527, 
  "Ziele": 528, 
  "hoffe": 529, 
  "at": 530, 
  "jedes": 531, 
  "China": 532, 
  "über@@": 533, 
  "gehört": 534, 
  "6": 535, 
  "Die": 536, 
  "Vertrag": 537, 
  "Verantwortung": 538, 
  "notwendig": 539, 
  "Verfahren": 540, 
  "schließlich": 541, 
  "Bedingungen": 542, 
  "verwendet": 543, 
  "oft": 544, 
  "I": 545, 
  "Anwendung": 546, 
  "sprechen": 547, 
  "Demokratie": 548, 
  "Interesse": 549, 
  "könnten": 550, 
  "Vorschläge": 551, 
  "N@@": 552, 
  "verschiedene": 553, 
  "gemeinsamen": 554, 
  "ter": 555, 
  "kleinen": 556, 
  "Grundlage": 557, 
  "Ihrem": 558, 
  "Reihe": 559, 
  "bleiben": 560, 
  "H@@": 561, 
  "Herren": 562, 
  "erreicht": 563, 
  "Geschichte": 564, 
  "Gebiet": 565, 
  "Möglichkeiten": 566, 
  "setzen": 567, 
  "fast": 568, 
  "leider": 569, 
  "hin": 570, 
  "lange": 571, 
  "zu@@": 572, 
  "sozialen": 573, 
  "ung": 574, 
  "F@@": 575, 
  "führt": 576, 
  "Debatte": 577, 
  "Institutionen": 578, 
  "km": 579, 
  "tatsächlich": 580, 
  "wirtschaftlichen": 581, 
  "weltweit": 582, 
  "Version": 583, 
  "verfügt": 584, 
  "wenig": 585, 
  "L@@": 586, 
  "per": 587, 
  "it": 588, 
  "ermöglicht": 589, 
  "gemeinsame": 590, 
  "Minuten": 591, 
  "Damen": 592, 
  "Auswirkungen": 593, 
  "zeigt": 594, 
  "R@@": 595, 
  "vier": 596, 
  "50": 597, 
  "gemeinsam": 598, 
  "Dienstleistungen": 599, 
  "2007": 600, 
  "erforderlich": 601, 
  "um@@": 602, 
  "Berichterstatter": 603, 
  "Preis": 604, 
  "Abkommen": 605, 
  "al@@": 606, 
  "hatten": 607, 
  "ern": 608, 
  "Ein@@": 609, 
  "angesichts": 610, 
  "internationale": 611, 
  "zudem": 612, 
  "Verhandlungen": 613, 
  "Mitglieder": 614, 
  "enden": 615, 
  "E@@": 616, 
  "dadurch": 617, 
  "ischen": 618, 
  "Hinblick": 619, 
  "Tatsache": 620, 
  "warum": 621, 
  "gesamten": 622, 
  "Regionen": 623, 
  "danken": 624, 
  "Restaurant": 625, 
  "US": 626, 
  "entwickelt": 627, 
  "sch@@": 628, 
  "spielen": 629, 
  "in@@": 630, 
  "einzelnen": 631, 
  "Schritt": 632, 
  "*": 633, 
  "hätte": 634, 
  "Gruppe": 635, 
  "Liste": 636, 
  "denke": 637, 
  "bereit": 638, 
  "el@@": 639, 
  "dar": 640, 
  "jedem": 641, 
  "Kolleginnen": 642, 
  "Ergebnis": 643, 
  "derzeit": 644, 
  "ungs@@": 645, 
  "Zentrum": 646, 
  "Entscheidung": 647, 
  "100": 648, 
  "helfen": 649, 
  "2000": 650, 
  "Bereichen": 651, 
  "konnte": 652, 
  "Antwort": 653, 
  "vor@@": 654, 
  "8": 655, 
  "kleine": 656, 
  "7": 657, 
  "Änderungsanträge": 658, 
  "mein": 659, 
  "befinden": 660, 
  "d@@": 661, 
  "Vereinigten": 662, 
  "ungen": 663, 
  "gerne": 664, 
  "wer": 665, 
  "Änderungsantrag": 666, 
  "weiteren": 667, 
  "Krise": 668, 
  "gestellt": 669, 
  "neu": 670, 
  "Blick": 671, 
  "Beziehungen": 672, 
  "mehrere": 673, 
  "W@@": 674, 
  "Erfolg": 675, 
  "Bevölkerung": 676, 
  "falls": 677, 
  "hinsichtlich": 678, 
  "liegen": 679, 
  "bleibt": 680, 
  "ende": 681, 
  "weiß": 682, 
  "le": 683, 
  "tes": 684, 
  "Geld": 685, 
  "heißt": 686, 
  "unseres": 687, 
  "wichtigen": 688, 
  "z.B.": 689, 
  "Ausdruck": 690, 
  "Abgeordneten": 691, 
  "Türkei": 692, 
  "meinen": 693, 
  "Aufgabe": 694, 
  "gab": 695, 
  "V@@": 696, 
  "Z@@": 697, 
  "Platz": 698, 
  "somit": 699, 
  "y": 700, 
  "f@@": 701, 
  "rund": 702, 
  "bekommen": 703, 
  "verbunden": 704, 
  "Verbindung": 705, 
  "i@@": 706, 
  "Aus@@": 707, 
  "Projekt": 708, 
  "Einsatz": 709, 
  "Kontrolle": 710, 
  "Mal": 711, 
  "C@@": 712, 
  "O@@": 713, 
  "e@@": 714, 
  "Jahres": 715, 
  "meines": 716, 
  "Förderung": 717, 
  "12": 718, 
  "gestimmt": 719, 
  "st@@": 720, 
  ".@@": 721, 
  "+": 722, 
  "richtig": 723, 
  "Verordnung": 724, 
  "Forschung": 725, 
  "Lösungen": 726, 
  "m@@": 727, 
  "voll": 728, 
  "_": 729, 
  "wohl": 730, 
  "Erweiterung": 731, 
  "Behörden": 732, 
  "Entschließung": 733, 
  "zurück": 734, 
  "zeigen": 735, 
  "wichtigsten": 736, 
  "später": 737, 
  "ische": 738, 
  "genießen": 739, 
  "verwenden": 740, 
  "ar@@": 741, 
  "Beitrag": 742, 
  "gegeben": 743, 
  "enthalten": 744, 
  "Russland": 745, 
  "enthält": 746, 
  "2006": 747, 
  "lässt": 748, 
  "bisher": 749, 
  "n": 750, 
  "Nutzung": 751, 
  "Ausschuss": 752, 
  "ganze": 753, 
  "ermöglichen": 754, 
  "Vor@@": 755, 
  "ganzen": 756, 
  "wobei": 757, 
  "insgesamt": 758, 
  "trotz": 759, 
  "Verbesserung": 760, 
  "recht": 761, 
  "Landes": 762, 
  "Stunden": 763, 
  "Mail": 764, 
  "eigene": 765, 
  "völlig": 766, 
  "Verbraucher": 767, 
  "Ergebnisse": 768, 
  "with": 769, 
  "fünf": 770, 
  "zahlreiche": 771, 
  "Sch@@": 772, 
  "Wort": 773, 
  "Gelegenheit": 774, 
  "verbessern": 775, 
  "Angebot": 776, 
  "wirtschaftliche": 777, 
  "nachdem": 778, 
  "Ausschusses": 779, 
  "dennoch": 780, 
  "Schaffung": 781, 
  "Woche": 782, 
  "großer": 783, 
  "leben": 784, 
  "bevor": 785, 
  "guten": 786, 
  "Regierungen": 787, 
  "Verwendung": 788, 
  "verfügen": 789, 
  "l@@": 790, 
  "g@@": 791, 
  "Partner": 792, 
  "Mitarbeiter": 793, 
  "gehören": 794, 
  "soziale": 795, 
  "gemäß": 796, 
  "gleichen": 797, 
  "Bild": 798, 
  "tragen": 799, 
  "Text": 800, 
  "klicken": 801, 
  "be@@": 802, 
  "Interessen": 803, 
  "Lissabon": 804, 
  "sorgen": 805, 
  "Themen": 806, 
  "b@@": 807, 
  "Wert": 808, 
  "Tage": 809, 
  "Notwendigkeit": 810, 
  "lediglich": 811, 
  "meinem": 812, 
  "Familie": 813, 
  "wählen": 814, 
  "Zeitpunkt": 815, 
  "Änderungen": 816, 
  "gebracht": 817, 
  "Frankreich": 818, 
  "25": 819, 
  "bestehen": 820, 
  "angenommen": 821, 
  "Erfahrung": 822, 
  "Kultur": 823, 
  "geführt": 824, 
  "fördern": 825, 
  "hotel": 826, 
  "Gesundheit": 827, 
  "Auswahl": 828, 
  "be": 829, 
  "Herzen": 830, 
  "alten": 831, 
  "kurz": 832, 
  "Umgebung": 833, 
  "verstehen": 834, 
  "Person": 835, 
  "Anfang": 836, 
  "ch@@": 837, 
  "u@@": 838, 
  "schriftlich": 839, 
  "äußerst": 840, 
  "fest": 841, 
  "se": 842, 
  "hohen": 843, 
  "Un@@": 844, 
  "Juni": 845, 
  "Mitglied": 846, 
  "Umwelt": 847, 
  "ziehen": 848, 
  "y@@": 849, 
  "Einführung": 850, 
  "versuchen": 851, 
  "gesamte": 852, 
  "di": 853, 
  "Kampf": 854, 
  "Wasser": 855, 
  "bestimmte": 856, 
  "®": 857, 
  "Prozess": 858, 
  "k": 859, 
  "Anzahl": 860, 
  "Aktivitäten": 861, 
  "Mai": 862, 
  "nie": 863, 
  "24": 864, 
  "suchen": 865, 
  "Meer": 866, 
  "A": 867, 
  "hohe": 868, 
  "Initiative": 869, 
  "2005": 870, 
  "Gäste": 871, 
  "Wachstum": 872, 
  "un": 873, 
  "o@@": 874, 
  "gewährleisten": 875, 
  "Wahl": 876, 
  "sten": 877, 
  "Sprache": 878, 
  "bereich": 879, 
  "ens": 880, 
  "entwickeln": 881, 
  "Haupt@@": 882, 
  "anderer": 883, 
  "et@@": 884, 
  "stark": 885, 
  "Produktion": 886, 
  "p@@": 887, 
  "scheint": 888, 
  "Industrie": 889, 
  "Programme": 890, 
  "Raum": 891, 
  "wann": 892, 
  "zweite": 893, 
  "ausgestattet": 894, 
  "bestimmten": 895, 
  "leicht": 896, 
  "Zahl": 897, 
  "Dinge": 898, 
  "Kommissarin": 899, 
  "selbstverständlich": 900, 
  "Natur": 901, 
  "Bekämpfung": 902, 
  "Fortschritte": 903, 
  "September": 904, 
  "Online": 905, 
  "bar": 906, 
  "ändern": 907, 
  "Preise": 908, 
  "or": 909, 
  "Insel": 910, 
  "Erachtens": 911, 
  "Hand": 912, 
  "a@@": 913, 
  "eigentlich": 914, 
  "Spiel": 915, 
  "erster": 916, 
  "beide": 917, 
  "allein": 918, 
  "einschließlich": 919, 
  "Funktion": 920, 
  "es@@": 921, 
  "zweitens": 922, 
  "unternehmen": 923, 
  "2004": 924, 
  "Erklärung": 925, 
  "solchen": 926, 
  "Bestimmungen": 927, 
  "einzige": 928, 
  "1.": 929, 
  "sagte": 930, 
  "gleich": 931, 
  "Jahrhundert": 932, 
  "Dezember": 933, 
  "vergangenen": 934, 
  "Stelle": 935, 
  "40": 936, 
  "00": 937, 
  "los": 938, 
  "treffen": 939, 
  "J@@": 940, 
  "re@@": 941, 
  "Punkte": 942, 
  "Integration": 943, 
  "Mehrheit": 944, 
  "Handel": 945, 
  "zweiten": 946, 
  "9": 947, 
  "ca.": 948, 
  "diejenigen": 949, 
  "r": 950, 
  "z": 951, 
  "Gewalt": 952, 
  "größten": 953, 
  "gen": 954, 
  "Entscheidungen": 955, 
  "r@@": 956, 
  "Anforderungen": 957, 
  "Bar": 958, 
  "wenige": 959, 
  "Dialog": 960, 
  "us": 961, 
  "Energie": 962, 
  "Investitionen": 963, 
  "v@@": 964, 
  "gar": 965, 
  "os": 966, 
  "weder": 967, 
  "Küche": 968, 
  "Vorschriften": 969, 
  "Aufmerksamkeit": 970, 
  "Position": 971, 
  "Gästebewertungen": 972, 
  "system": 973, 
  "bezüglich": 974, 
  "öffentliche": 975, 
  "Strand": 976, 
  "leisten": 977, 
  "Arbeits@@": 978, 
  "Gefahr": 979, 
  "März": 980, 
  "bringt": 981, 
  "fahren": 982, 
  "by": 983, 
  "or@@": 984, 
  "Auf@@": 985, 
  "are": 986, 
  "Projekte": 987, 
  "Grenzen": 988, 
  "neuer": 989, 
  "wichtiger": 990, 
  "fragen": 991, 
  "sieht": 992, 
  "very": 993, 
  "Bereiche": 994, 
  "del": 995, 
  "eingesetzt": 996, 
  "Folgen": 997, 
  "al": 998, 
  "Team": 999, 
  "aufgenommen": 1000, 
  "konnten": 1001, 
  "aktuellen": 1002, 
  "I@@": 1003, 
  "Freiheit": 1004, 
  "benötigen": 1005, 
  "Design": 1006, 
  "2003": 1007, 
  "Wettbewerb": 1008, 
  "C": 1009, 
  "Regeln": 1010, 
  "genommen": 1011, 
  "europäischer": 1012, 
  "Anfrage": 1013, 
  "Musik": 1014, 
  "Server": 1015, 
  "Landwirtschaft": 1016, 
  "em": 1017, 
  "this": 1018, 
  "halte": 1019, 
  "liche": 1020, 
  "ar": 1021, 
  "Macht": 1022, 
  "durchgeführt": 1023, 
  "at@@": 1024, 
  "nahe": 1025, 
  "kannst": 1026, 
  "Beschäftigung": 1027, 
  "st": 1028, 
  "h@@": 1029, 
  "erwarten": 1030, 
  "Präsidenten": 1031, 
  "Benutzer": 1032, 
  "ieren": 1033, 
  "end": 1034, 
  "TV": 1035, 
  "lichen": 1036, 
  "ale": 1037, 
  "que": 1038, 
  "Oktober": 1039, 
  "Linie": 1040, 
  "Firma": 1041, 
  "hinter": 1042, 
  "Diskussion": 1043, 
  "Höhe": 1044, 
  "Nationen": 1045, 
  "Frühstück": 1046, 
  "Standpunkt": 1047, 
  "Bildung": 1048, 
  "Januar": 1049, 
  "sofort": 1050, 
  "Kraft": 1051, 
  "frei": 1052, 
  "geschlossen": 1053, 
  "Unter@@": 1054, 
  "eher": 1055, 
  "erstens": 1056, 
  "Transparenz": 1057, 
  "erneut": 1058, 
  "vergessen": 1059, 
  "j@@": 1060, 
  "Fehler": 1061, 
  "ihres": 1062, 
  "Berichts": 1063, 
  "nimmt": 1064, 
  "Gründen": 1065, 
  "besondere": 1066, 
  "morgen": 1067, 
  "gefunden": 1068, 
  "Bemühungen": 1069, 
  "Sache": 1070, 
  "gelten": 1071, 
  "getan": 1072, 
  "Sinne": 1073, 
  "begrüße": 1074, 
  "Flughafen": 1075, 
  "Schlusselwortern": 1076, 
  "Ansatz": 1077, 
  "Öffentlichkeit": 1078, 
  "Präsidentschaft": 1079, 
  "Auffassung": 1080, 
  "GmbH": 1081, 
  "gern": 1082, 
  "18": 1083, 
  "geworden": 1084, 
  "hätten": 1085, 
  "entsprechend": 1086, 
  "Berlin": 1087, 
  "beitragen": 1088, 
  "Bilder": 1089, 
  "entsprechenden": 1090, 
  "häufig": 1091, 
  "Er@@": 1092, 
  "lesen": 1093, 
  "Fällen": 1094, 
  "größte": 1095, 
  "fordern": 1096, 
  "Urlaub": 1097, 
  "verhindern": 1098, 
  "à": 1099, 
  "Druck": 1100, 
  "on@@": 1101, 
  "Windows": 1102, 
  "lich": 1103, 
  "stimmen": 1104, 
  "behandelt": 1105, 
  "ers": 1106, 
  "welches": 1107, 
  "erfolgt": 1108, 
  "Dateien": 1109, 
  "2001": 1110, 
  "B": 1111, 
  "f": 1112, 
  "Basis": 1113, 
  "hoch": 1114, 
  "11": 1115, 
  "Monaten": 1116, 
  "Juli": 1117, 
  "In@@": 1118, 
  "Finanz@@": 1119, 
  "paar": 1120, 
  "Organisation": 1121, 
  "genannten": 1122, 
  "Bürgern": 1123, 
  "4@@": 1124, 
  "zumindest": 1125, 
  "€": 1126, 
  "Atmosphäre": 1127, 
  "Behandlung": 1128, 
  "Tagen": 1129, 
  "versucht": 1130, 
  "Tat": 1131, 
  "freuen": 1132, 
  "neues": 1133, 
  "ter@@": 1134, 
  "AG": 1135, 
  "November": 1136, 
  "zehn": 1137, 
  "we": 1138, 
  "U@@": 1139, 
  "Restaurants": 1140, 
  "Technologie": 1141, 
  "Wirtschafts@@": 1142, 
  "anderem": 1143, 
  "Datei": 1144, 
  "Bürgerinnen": 1145, 
  "überhaupt": 1146, 
  "vertreten": 1147, 
  "besuchen": 1148, 
  "beste": 1149, 
  "Tagesordnung": 1150, 
  "richtige": 1151, 
  "c@@": 1152, 
  "technischen": 1153, 
  "ti@@": 1154, 
  "politik": 1155, 
  "danke": 1156, 
  "deutschen": 1157, 
  "14": 1158, 
  "New": 1159, 
  "setzt": 1160, 
  "Sicht": 1161, 
  "16": 1162, 
  "Italien": 1163, 
  "außerhalb": 1164, 
  "berücksichtigt": 1165, 
  "Ressourcen": 1166, 
  "Wasser@@": 1167, 
  "Nr.": 1168, 
  "freien": 1169, 
  "Änderung": 1170, 
  "2002": 1171, 
  "historischen": 1172, 
  "erklärt": 1173, 
  "Konferenz": 1174, 
  "chen": 1175, 
  "zusätzlich": 1176, 
  "Beginn": 1177, 
  "erfolgreich": 1178, 
  "Republik": 1179, 
  "April": 1180, 
  "g": 1181, 
  "Aufenthalt": 1182, 
  "Gruppen": 1183, 
  "Spanien": 1184, 
  "isch": 1185, 
  "Vergangenheit": 1186, 
  "verantwortlich": 1187, 
  "modernen": 1188, 
  "durch@@": 1189, 
  "letzte": 1190, 
  "Finanzierung": 1191, 
  "Rechtsvorschriften": 1192, 
  "gewesen": 1193, 
  "ste": 1194, 
  "Reform": 1195, 
  "lang": 1196, 
  "zahlreichen": 1197, 
  "erfüllen": 1198, 
  "you": 1199, 
  "Wochen": 1200, 
  "is@@": 1201, 
  "stets": 1202, 
  "jeweiligen": 1203, 
  "schützen": 1204, 
  "sechs": 1205, 
  "T": 1206, 
  "Erfahrungen": 1207, 
  "Information": 1208, 
  "Schritte": 1209, 
  "unter@@": 1210, 
  "ere": 1211, 
  "geschaffen": 1212, 
  "000": 1213, 
  "mal": 1214, 
  "3@@": 1215, 
  "eben": 1216, 
  "endlich": 1217, 
  "Über@@": 1218, 
  "Adresse": 1219, 
  "genug": 1220, 
  "Vertrauen": 1221, 
  "Werte": 1222, 
  "Inhalt": 1223, 
  "Sterne": 1224, 
  "kam": 1225, 
  "Aspekte": 1226, 
  "verpflichtet": 1227, 
  "oben": 1228, 
  "B.": 1229, 
  "Herausforderungen": 1230, 
  "bessere": 1231, 
  "x": 1232, 
  "EUR": 1233, 
  "z.": 1234, 
  "Bad": 1235, 
  "di@@": 1236, 
  "Systems": 1237, 
  "moderne": 1238, 
  "Angelegenheit": 1239, 
  "heutigen": 1240, 
  "erlaubt": 1241, 
  "privaten": 1242, 
  "Sicherheits@@": 1243, 
  "seines": 1244, 
  "abschließend": 1245, 
  "Parteien": 1246, 
  "erinnern": 1247, 
  "&gt;": 1248, 
  "Gebäude": 1249, 
  "vollständig": 1250, 
  "erwartet": 1251, 
  "gesehen": 1252, 
  "kaum": 1253, 
  "persönlichen": 1254, 
  "room": 1255, 
  "Ich": 1256, 
  "Spieler": 1257, 
  "ausschließlich": 1258, 
  "Schwierigkeiten": 1259, 
  "kennen": 1260, 
  "Milliarden": 1261, 
  "Berichterstatterin": 1262, 
  "anders": 1263, 
  "entscheiden": 1264, 
  "Arbeitnehmer": 1265, 
  "Staat": 1266, 
  "beginnen": 1267, 
  "Hinsicht": 1268, 
  "schwer": 1269, 
  "b": 1270, 
  "deine": 1271, 
  "from": 1272, 
  "u": 1273, 
  "Bau@@": 1274, 
  "ne": 1275, 
  "bald": 1276, 
  "Prozent": 1277, 
  "iert": 1278, 
  "zusätzliche": 1279, 
  "Ihres": 1280, 
  "Folge": 1281, 
  "legen": 1282, 
  "siehe": 1283, 
  "Krieg": 1284, 
  "übernehmen": 1285, 
  "The": 1286, 
  "Praxis": 1287, 
  "Vertreter": 1288, 
  "S": 1289, 
  "Einrichtung": 1290, 
  "automatisch": 1291, 
  "Wunsch": 1292, 
  "one": 1293, 
  "möglicherweise": 1294, 
  "unten": 1295, 
  "Arbeitsplätze": 1296, 
  "aktuelle": 1297, 
  "bitten": 1298, 
  "Opfer": 1299, 
  "ts": 1300, 
  "gesetzt": 1301, 
  "Der": 1302, 
  "begrüßen": 1303, 
  "gelegen": 1304, 
  "Angelegenheiten": 1305, 
  "Aufgaben": 1306, 
  "folgen": 1307, 
  "Solidarität": 1308, 
  "erfahren": 1309, 
  "danach": 1310, 
  "folgenden": 1311, 
  "größere": 1312, 
  "erkennen": 1313, 
  "13": 1314, 
  "allgemeinen": 1315, 
  "Frieden": 1316, 
  "usw.": 1317, 
  "Organisationen": 1318, 
  "Armut": 1319, 
  "60": 1320, 
  "bilden": 1321, 
  "am@@": 1322, 
  "glauben": 1323, 
  "Annahme": 1324, 
  "programm": 1325, 
  "mindestens": 1326, 
  "Leute": 1327, 
  "vorgeschlagen": 1328, 
  "benutzt": 1329, 
  "wahrscheinlich": 1330, 
  "ischer": 1331, 
  "Verfassung": 1332, 
  "darstellt": 1333, 
  "eindeutig": 1334, 
  "ri@@": 1335, 
  "offen": 1336, 
  "alen": 1337, 
  "ferner": 1338, 
  "Karte": 1339, 
  "unbedingt": 1340, 
  "Systeme": 1341, 
  "folgt": 1342, 
  "Sitzung": 1343, 
  "w@@": 1344, 
  "benutzen": 1345, 
  "zahlen": 1346, 
  "bewusst": 1347, 
  "Verpflichtungen": 1348, 
  "erleben": 1349, 
  "Anstrengungen": 1350, 
  "Hause": 1351, 
  "Protokoll": 1352, 
  "Personal": 1353, 
  "Dollar": 1354, 
  "Produkt": 1355, 
  "genutzt": 1356, 
  "Funktionen": 1357, 
  "Falle": 1358, 
  "entspricht": 1359, 
  "globalen": 1360, 
  "nationale": 1361, 
  "überzeugt": 1362, 
  "Um@@": 1363, 
  "ging": 1364, 
  "St@@": 1365, 
  "Idee": 1366, 
  "Grund@@": 1367, 
  "..": 1368, 
  "trotzdem": 1369, 
  "Kriterien": 1370, 
  "Partei": 1371, 
  "sobald": 1372, 
  "eren": 1373, 
  "entsprechende": 1374, 
  "außer": 1375, 
  "li@@": 1376, 
  "Wahlen": 1377, 
  "1999": 1378, 
  "San": 1379, 
  "Zustimmung": 1380, 
  "demokratischen": 1381, 
  "EN": 1382, 
  "200": 1383, 
  "Paris": 1384, 
  "D": 1385, 
  "Computer": 1386, 
  "gezeigt": 1387, 
  "sicherlich": 1388, 
  "Vereinbarung": 1389, 
  "de@@": 1390, 
  "amerikanischen": 1391, 
  "www.@@": 1392, 
  "genannt": 1393, 
  "Reformen": 1394, 
  "Verwaltung": 1395, 
  "wesentlich": 1396, 
  "Terrorismus": 1397, 
  "vorgelegt": 1398, 
  "unterschiedlichen": 1399, 
  "ro@@": 1400, 
  "ur@@": 1401, 
  "Park": 1402, 
  "lösen": 1403, 
  "Instrument": 1404, 
  "Gipfel": 1405, 
  "Site": 1406, 
  "dringend": 1407, 
  "Osten": 1408, 
  "Vorteile": 1409, 
  "Management": 1410, 
  "stärker": 1411, 
  "Anerkennung": 1412, 
  "verfügbar": 1413, 
  "entweder": 1414, 
  "Binnenmarkt": 1415, 
  "Stabilität": 1416, 
  "zuletzt": 1417, 
  "Technologien": 1418, 
  "Haushalt": 1419, 
  "mehreren": 1420, 
  "technische": 1421, 
  "no": 1422, 
  "Produkten": 1423, 
  "Inhalte": 1424, 
  "denken": 1425, 
  "0": 1426, 
  "berücksichtigen": 1427, 
  "Sektor": 1428, 
  "Besuch": 1429, 
  "hoffen": 1430, 
  "darunter": 1431, 
  "prüfen": 1432, 
  "bestimmt": 1433, 
  "online": 1434, 
  "Ausschuß": 1435, 
  "O": 1436, 
  "5@@": 1437, 
  "Al@@": 1438, 
  "Sommer": 1439, 
  "licher": 1440, 
  "andererseits": 1441, 
  "zeit": 1442, 
  "lernen": 1443, 
  "wünschen": 1444, 
  "hinweisen": 1445, 
  "akzeptieren": 1446, 
  "teilen": 1447, 
  "Volk": 1448, 
  "erwähnt": 1449, 
  "sen": 1450, 
  "dagegen": 1451, 
  "ge": 1452, 
  ".com": 1453, 
  "besonderen": 1454, 
  "it@@": 1455, 
  "Durchführung": 1456, 
  "Mitteilung": 1457, 
  "gerecht": 1458, 
  "sicherzustellen": 1459, 
  "Medien": 1460, 
  "Homepage": 1461, 
  "erzielt": 1462, 
  "bestehenden": 1463, 
  "Augen": 1464, 
  "gekommen": 1465, 
  "sp@@": 1466, 
  "jene": 1467, 
  "zurück@@": 1468, 
  "les": 1469, 
  "Anwendungen": 1470, 
  "kosten": 1471, 
  "Unterkategorien": 1472, 
  "gesprochen": 1473, 
  "sk@@": 1474, 
  "der@@": 1475, 
  "Kontakt": 1476, 
  "euch": 1477, 
  "braucht": 1478, 
  "6@@": 1479, 
  "Suche": 1480, 
  "geändert": 1481, 
  "speziell": 1482, 
  "ie": 1483, 
  "Einrichtungen": 1484, 
  "th@@": 1485, 
  "au": 1486, 
  "umgesetzt": 1487, 
  "gleiche": 1488, 
  "vermeiden": 1489, 
  "dienen": 1490, 
  "Chance": 1491, 
  "getroffen": 1492, 
  "Wettbewerbsfähigkeit": 1493, 
  "Haltung": 1494, 
  "Straße": 1495, 
  "teilweise": 1496, 
  "as@@": 1497, 
  "Kunst": 1498, 
  "notwendigen": 1499, 
  "aktiv": 1500, 
  "Web": 1501, 
  "Zeichen": 1502, 
  "finanziellen": 1503, 
  "Sonder@@": 1504, 
  "Handels@@": 1505, 
  "­": 1506, 
  "erfüllt": 1507, 
  "informieren": 1508, 
  "Monate": 1509, 
  "Standard": 1510, 
  "Einfluss": 1511, 
  "si@@": 1512, 
  "ergreifen": 1513, 
  "jederzeit": 1514, 
  "kommenden": 1515, 
  "anderes": 1516, 
  "ständig": 1517, 
  "ra@@": 1518, 
  "sämtliche": 1519, 
  "festgelegt": 1520, 
  "beziehen": 1521, 
  "eingerichtet": 1522, 
  "Ausbildung": 1523, 
  "freie": 1524, 
  "unabhängig": 1525, 
  "che": 1526, 
  "ler": 1527, 
  "alte": 1528, 
  "em@@": 1529, 
  "Irak": 1530, 
  "Rechts@@": 1531, 
  "gegenwärtig": 1532, 
  "Israel": 1533, 
  "ber@@": 1534, 
  "jeweils": 1535, 
  "La": 1536, 
  "rechts": 1537, 
  "=": 1538, 
  "Kindern": 1539, 
  "wären": 1540, 
  "Familien": 1541, 
  "U": 1542, 
  "politischer": 1543, 
  "erhöhen": 1544, 
  "übernachten": 1545, 
  "Anspruch": 1546, 
  "500": 1547, 
  "do": 1548, 
  "Vielfalt": 1549, 
  "Meter": 1550, 
  "welcher": 1551, 
  "angezeigt": 1552, 
  "funktioniert": 1553, 
  "Menge": 1554, 
  "erzielen": 1555, 
  "nachfolgend": 1556, 
  "Konzept": 1557, 
  "au@@": 1558, 
  "entschieden": 1559, 
  "Vertrags": 1560, 
  "hält": 1561, 
  "sagt": 1562, 
  "verbessert": 1563, 
  "Webseite": 1564, 
  "Leistungen": 1565, 
  "gelangen": 1566, 
  "hoch@@": 1567, 
  "Umwelt@@": 1568, 
  "Stimme": 1569, 
  "Sprachen": 1570, 
  "Wege": 1571, 
  "manchmal": 1572, 
  "etc.": 1573, 
  "verfolgen": 1574, 
  "stärken": 1575, 
  "stimme": 1576, 
  "17": 1577, 
  "baren": 1578, 
  "deswegen": 1579, 
  "profitieren": 1580, 
  "Instrumente": 1581, 
  "hören": 1582, 
  "liebe": 1583, 
  "not": 1584, 
  "ger@@": 1585, 
  "ierung": 1586, 
  "me": 1587, 
  "Februar": 1588, 
  "Schweiz": 1589, 
  "erstellt": 1590, 
  "Tätigkeit": 1591, 
  "Veränderungen": 1592, 
  "Kenntnis": 1593, 
  "Spiel@@": 1594, 
  "Stand": 1595, 
  "erstellen": 1596, 
  "geeignet": 1597, 
  "Modell": 1598, 
  "Berichte": 1599, 
  "Vereinten": 1600, 
  "ierte": 1601, 
  "Abschluss": 1602, 
  "klare": 1603, 
  "ei@@": 1604, 
  "IT": 1605, 
  "vorgesehen": 1606, 
  "Forderung": 1607, 
  "wollte": 1608, 
  "Initiativen": 1609, 
  "ausdrücklich": 1610, 
  "trägt": 1611, 
  "zugleich": 1612, 
  "August": 1613, 
  "80": 1614, 
  "gen@@": 1615, 
  "Garten": 1616, 
  "Haushalts@@": 1617, 
  "é": 1618, 
  "betonen": 1619, 
  "beachten": 1620, 
  "eg@@": 1621, 
  "ierten": 1622, 
  "bare": 1623, 
  "zentrale": 1624, 
  "handeln": 1625, 
  "stand": 1626, 
  "Teile": 1627, 
  "X@@": 1628, 
  "Vergleich": 1629, 
  "verfahren": 1630, 
  "Rück@@": 1631, 
  "Abgeordnete": 1632, 
  "Besucher": 1633, 
  "arbeitet": 1634, 
  "Ausgaben": 1635, 
  "London": 1636, 
  "Regelung": 1637, 
  "links": 1638, 
  "Mitte": 1639, 
  "durchaus": 1640, 
  "Zeiten": 1641, 
  "mit@@": 1642, 
  "Engagement": 1643, 
  "spielt": 1644, 
  "that": 1645, 
  "beschlossen": 1646, 
  "Markt@@": 1647, 
  "Herausforderung": 1648, 
  "daraus": 1649, 
  "finanzielle": 1650, 
  "Dienste": 1651, 
  "ene": 1652, 
  "betrachtet": 1653, 
  "gefordert": 1654, 
  "Standards": 1655, 
  "nen": 1656, 
  "konkrete": 1657, 
  "Mitgliedstaat": 1658, 
  "willkommen": 1659, 
  "Komfort": 1660, 
  "vorhanden": 1661, 
  "nach@@": 1662, 
  "bedarf": 1663, 
  "lokalen": 1664, 
  "ad@@": 1665, 
  "x@@": 1666, 
  "benötigt": 1667, 
  "wenigen": 1668, 
  "nächste": 1669, 
  "Arbeiten": 1670, 
  "Stil": 1671, 
  "ser@@": 1672, 
  "Angaben": 1673, 
  "gegründet": 1674, 
  "angeboten": 1675, 
  "unterschiedliche": 1676, 
  "ten@@": 1677, 
  "ol@@": 1678, 
  "Zeitraum": 1679, 
  "Japan": 1680, 
  "Fonds": 1681, 
  "veröffentlicht": 1682, 
  "konzentrieren": 1683, 
  "Großbritannien": 1684, 
  "freue": 1685, 
  "Währung": 1686, 
  "reichen": 1687, 
  "Iran": 1688, 
  "wert": 1689, 
  "Hauses": 1690, 
  "enen": 1691, 
  "Mio.": 1692, 
  "überprüfen": 1693, 
  "dank": 1694, 
  "Gebieten": 1695, 
  "täglich": 1696, 
  "gewährleistet": 1697, 
  "Jahrhunderts": 1698, 
  "erscheint": 1699, 
  "überall": 1700, 
  "ot@@": 1701, 
  "erklären": 1702, 
  "h": 1703, 
  "erfolgen": 1704, 
  "darstellen": 1705, 
  "entstehen": 1706, 
  "systeme": 1707, 
  "elle": 1708, 
  "Beitritt": 1709, 
  "damals": 1710, 
  "Video": 1711, 
  "persönlich": 1712, 
  "gewinnen": 1713, 
  "ag@@": 1714, 
  "ideal": 1715, 
  "Terrasse": 1716, 
  "Programms": 1717, 
  "her": 1718, 
  "Herstellung": 1719, 
  "offensichtlich": 1720, 
  "Worte": 1721, 
  "schwierig": 1722, 
  "absolut": 1723, 
  "möglichst": 1724, 
  "Einigung": 1725, 
  "möglichkeiten": 1726, 
  "Auto": 1727, 
  "Antrag": 1728, 
  "Zweifel": 1729, 
  "CD": 1730, 
  "Rede": 1731, 
  "positive": 1732, 
  "laden": 1733, 
  "schönen": 1734, 
  "fallen": 1735, 
  "Steuer@@": 1736, 
  "Achtung": 1737, 
  "Kirche": 1738, 
  "Zweck": 1739, 
  "Forderungen": 1740, 
  "Analyse": 1741, 
  "Afrika": 1742, 
  "gestalten": 1743, 
  "umfasst": 1744, 
  "ek@@": 1745, 
  "eingehen": 1746, 
  "Y@@": 1747, 
  "7@@": 1748, 
  "schreiben": 1749, 
  "diskutieren": 1750, 
  "Österreich": 1751, 
  "ak@@": 1752, 
  "Einhaltung": 1753, 
  "Paket": 1754, 
  "herzlich": 1755, 
  "geschehen": 1756, 
  "Aufnahme": 1757, 
  "Regel": 1758, 
  "Stellungnahme": 1759, 
  "isches": 1760, 
  "verlassen": 1761, 
  "Sehenswürdigkeiten": 1762, 
  "X": 1763, 
  "Griechenland": 1764, 
  "geleistet": 1765, 
  "Ukraine": 1766, 
  "8@@": 1767, 
  "Nach@@": 1768, 
  "gutes": 1769, 
  "Nutzen": 1770, 
  "her@@": 1771, 
  "Barcelona": 1772, 
  "Abend": 1773, 
  "ens@@": 1774, 
  "ä@@": 1775, 
  "Hintergrund": 1776, 
  "Texte": 1777, 
  "treten": 1778, 
  "positiv": 1779, 
  "Kultur@@": 1780, 
  "Name": 1781, 
  "richtigen": 1782, 
  "Fuß": 1783, 
  "Du": 1784, 
  "Status": 1785, 
  "mittels": 1786, 
  "Linux": 1787, 
  "vielmehr": 1788, 
  "garantiert": 1789, 
  "See": 1790, 
  "niemand": 1791, 
  "Vielzahl": 1792, 
  "tätig": 1793, 
  "laut": 1794, 
  "Dokument": 1795, 
  "Das": 1796, 
  "einfache": 1797, 
  "Sorge": 1798, 
  "regionalen": 1799, 
  "Hersteller": 1800, 
  "Aspekt": 1801, 
  "Prioritäten": 1802, 
  "Kommunikation": 1803, 
  "men": 1804, 
  "Entwicklungen": 1805, 
  "Ar@@": 1806, 
  "zen": 1807, 
  "spezielle": 1808, 
  "Polen": 1809, 
  "ken": 1810, 
  "feststellen": 1811, 
  "300": 1812, 
  "einiger": 1813, 
  "entdecken": 1814, 
  "weiterer": 1815, 
  "é@@": 1816, 
  "Daten@@": 1817, 
  "Arbeitslosigkeit": 1818, 
  "Arten": 1819, 
  "liches": 1820, 
  "21": 1821, 
  "om@@": 1822, 
  "PC": 1823, 
  "senden": 1824, 
  "Geschäfts@@": 1825, 
  "komplett": 1826, 
  "Debian": 1827, 
  "kulturellen": 1828, 
  "Partnerschaft": 1829, 
  "Indien": 1830, 
  "Museum": 1831, 
  "us@@": 1832, 
  "weg": 1833, 
  "miteinander": 1834, 
  "Stärkung": 1835, 
  "est@@": 1836, 
  "Film": 1837, 
  "angesprochen": 1838, 
  "Rechnung": 1839, 
  "kaufen": 1840, 
  "Universität": 1841, 
  "Wissen": 1842, 
  "schöne": 1843, 
  "Villa": 1844, 
  "bezeichnet": 1845, 
  "Nacht": 1846, 
  "eln": 1847, 
  "übrigen": 1848, 
  "Installation": 1849, 
  "großes": 1850, 
  "verfolgt": 1851, 
  "warten": 1852, 
  "eingeführt": 1853, 
  "erhält": 1854, 
  "Betrieb": 1855, 
  "folgende": 1856, 
  "Bedürfnisse": 1857, 
  "Beschreibung": 1858, 
  "Ideen": 1859, 
  "umfassende": 1860, 
  "groß": 1861, 
  "Problemen": 1862, 
  "französischen": 1863, 
  "Gesetz": 1864, 
  "Leistung": 1865, 
  "Formen": 1866, 
  "hingewiesen": 1867, 
  "Gesamt@@": 1868, 
  "Moment": 1869, 
  "2@@": 1870, 
  "starke": 1871, 
  "Irland": 1872, 
  "Banken": 1873, 
  "ellen": 1874, 
  "Brüssel": 1875, 
  "Lesung": 1876, 
  "Titel": 1877, 
  "Elemente": 1878, 
  "zuvor": 1879, 
  "beginnt": 1880, 
  "den@@": 1881, 
  "ke": 1882, 
  "Richtlinien": 1883, 
  "geschützt": 1884, 
  "zusammen@@": 1885, 
  "unterstütze": 1886, 
  "private": 1887, 
  "langen": 1888, 
  "einsetzen": 1889, 
  "Fach@@": 1890, 
  "Priorität": 1891, 
  "c": 1892, 
  "Gemeinsamen": 1893, 
  "ausreichend": 1894, 
  "fällt": 1895, 
  "keinerlei": 1896, 
  "ender": 1897, 
  "L": 1898, 
  "Überwachung": 1899, 
  "G": 1900, 
  "aufmerksam": 1901, 
  "besitzt": 1902, 
  "$": 1903, 
  "bestätigt": 1904, 
  "Geschäftsordnung": 1905, 
  "betrachten": 1906, 
  "Business": 1907, 
  "empfehlen": 1908, 
  "erforderlichen": 1909, 
  "internationaler": 1910, 
  "Regelungen": 1911, 
  "Fortschritt": 1912, 
  "Pro@@": 1913, 
  "größeren": 1914, 
  "beteiligt": 1915, 
  "ung@@": 1916, 
  "nennen": 1917, 
  "Anteil": 1918, 
  "ate": 1919, 
  "2.": 1920, 
  "Bewertung": 1921, 
  "vorliegenden": 1922, 
  "Verhältnis": 1923, 
  "Märkte": 1924, 
  "acht": 1925, 
  "0@@": 1926, 
  "länger": 1927, 
  "Kritik": 1928, 
  "In": 1929, 
  "op@@": 1930, 
  "19": 1931, 
  "Innovation": 1932, 
  "Technik": 1933, 
  "Größe": 1934, 
  "soweit": 1935, 
  "ert": 1936, 
  "kostenlos": 1937, 
  "schen": 1938, 
  "Prinzip": 1939, 
  "gegenwärtigen": 1940, 
  "möglichen": 1941, 
  "Neu@@": 1942, 
  "zuerst": 1943, 
  "hin@@": 1944, 
  "Entwurf": 1945, 
  "Sinn": 1946, 
  "inzwischen": 1947, 
  "1998": 1948, 
  "Tradition": 1949, 
  "Verpflichtung": 1950, 
  "deutsche": 1951, 
  "{": 1952, 
  "volle": 1953, 
  "se@@": 1954, 
  "beinhaltet": 1955, 
  "garantieren": 1956, 
  "verbundenen": 1957, 
  "Bank": 1958, 
  "land": 1959, 
  "sofern": 1960, 
  "Globalisierung": 1961, 
  "Maße": 1962, 
  "Produktions@@": 1963, 
  "Worten": 1964, 
  "22": 1965, 
  "Mitteln": 1966, 
  "WTO": 1967, 
  "Agentur": 1968, 
  "eten": 1969, 
  "früher": 1970, 
  "stelle": 1971, 
  "90": 1972, 
  "führenden": 1973, 
  "politisch": 1974, 
  "M": 1975, 
  "voller": 1976, 
  "übertragen": 1977, 
  "Unterkunft": 1978, 
  "stattfinden": 1979, 
  "27": 1980, 
  "International": 1981, 
  "Gründe": 1982, 
  "seien": 1983, 
  "Zu@@": 1984, 
  "frage": 1985, 
  "Reise": 1986, 
  "Mar@@": 1987, 
  "ationen": 1988, 
  "ger": 1989, 
  "aten": 1990, 
  "70": 1991, 
  "Gemeinschafts@@": 1992, 
  "Monat": 1993, 
  "dient": 1994, 
  "Erklärungen": 1995, 
  "relativ": 1996, 
  "Umfang": 1997, 
  "Kosovo": 1998, 
  "ma@@": 1999, 
  "ation": 2000, 
  "Fotos": 2001, 
  "markt": 2002, 
  "britischen": 2003, 
  "Niveau": 2004, 
  "wesentlichen": 2005, 
  "Verkehr": 2006, 
  "geöffnet": 2007, 
  "zufrieden": 2008, 
  "Land@@": 2009, 
  "Welt@@": 2010, 
  "echte": 2011, 
  "gestern": 2012, 
  "Patienten": 2013, 
  "Club": 2014, 
  "our": 2015, 
  "hauptsächlich": 2016, 
  "entsprechen": 2017, 
  "solcher": 2018, 
  "II": 2019, 
  "Beteiligung": 2020, 
  "Politiker": 2021, 
  "sonst": 2022, 
  "verloren": 2023, 
  "Kon@@": 2024, 
  "Risiken": 2025, 
  "erhöht": 2026, 
  "maßnahmen": 2027, 
  "Altstadt": 2028, 
  "allgemeine": 2029, 
  "booking.com": 2030, 
  "Kompromiss": 2031, 
  "Hoch@@": 2032, 
  "Entschließungsantrag": 2033, 
  "Gegensatz": 2034, 
  "Europäer": 2035, 
  "tern": 2036, 
  "guter": 2037, 
  "kürzlich": 2038, 
  "Flexibilität": 2039, 
  "Netzwerk": 2040, 
  "innen": 2041, 
  "eb@@": 2042, 
  "speziellen": 2043, 
  "le@@": 2044, 
  "were": 2045, 
  "ze": 2046, 
  "Methode": 2047, 
  "persönliche": 2048, 
  "jüngsten": 2049, 
  "Mann": 2050, 
  "UN": 2051, 
  "Aktionen": 2052, 
  "Eindruck": 2053, 
  "Ereignisse": 2054, 
  "Mitgliedern": 2055, 
  "Absatz": 2056, 
  "abgeschlossen": 2057, 
  "Risiko": 2058, 
  "ideale": 2059, 
  "9@@": 2060, 
  "staff": 2061, 
  "gel@@": 2062, 
  "est": 2063, 
  "Aussicht": 2064, 
  "praktisch": 2065, 
  "il@@": 2066, 
  "genauso": 2067, 
  "rechtlichen": 2068, 
  "Aufbau": 2069, 
  "nationaler": 2070, 
  "Erde": 2071, 
  "Empfehlungen": 2072, 
  "schließen": 2073, 
  "Botschaft": 2074, 
  "Rezeption": 2075, 
  "Sp@@": 2076, 
  "Wirkung": 2077, 
  "Begriff": 2078, 
  "informiert": 2079, 
  "Verständnis": 2080, 
  "globale": 2081, 
  "p": 2082, 
  "ier@@": 2083, 
  "ber": 2084, 
  "Gebiete": 2085, 
  "Treffen": 2086, 
  "erfordert": 2087, 
  "geschieht": 2088, 
  "nachhaltige": 2089, 
  "sage": 2090, 
  "Firmen": 2091, 
  "regelmäßig": 2092, 
  "Realität": 2093, 
  "Anlagen": 2094, 
  "19.": 2095, 
  "Hinweis": 2096, 
  "35": 2097, 
  "Entwicklungs@@": 2098, 
  "Nutzer": 2099, 
  "laufen": 2100, 
  "demokratische": 2101, 
  "Hoffnung": 2102, 
  "Führung": 2103, 
  "teile": 2104, 
  "achten": 2105, 
  "junge": 2106, 
  "zählen": 2107, 
  "einverstanden": 2108, 
  "Grundsatz": 2109, 
  "spricht": 2110, 
  "Inseln": 2111, 
  "23": 2112, 
  "sichern": 2113, 
  "Sport@@": 2114, 
  "führte": 2115, 
  "bewegen": 2116, 
  "gehalten": 2117, 
  "abhängig": 2118, 
  "ts@@": 2119, 
  "mm": 2120, 
  "wichtigste": 2121, 
  "jungen": 2122, 
  "Einzel@@": 2123, 
  "Dr.": 2124, 
  "betroffen": 2125, 
  "Kinder@@": 2126, 
  "einzigen": 2127, 
  "Sozial@@": 2128, 
  "Be@@": 2129, 
  "Infrastruktur": 2130, 
  "Grunde": 2131, 
  "Berg@@": 2132, 
  "une": 2133, 
  "Fraktionen": 2134, 
  "festgestellt": 2135, 
  "Bedarf": 2136, 
  "Beihilfen": 2137, 
  "Gegenteil": 2138, 
  "schneller": 2139, 
  "Hälfte": 2140, 
  "Hauptstadt": 2141, 
  "Agenda": 2142, 
  "Vorteil": 2143, 
  "einzelne": 2144, 
  "welchen": 2145, 
  "World": 2146, 
  "Voraussetzungen": 2147, 
  "Web@@": 2148, 
  "ü@@": 2149, 
  "daten": 2150, 
  "ations@@": 2151, 
  "anstatt": 2152, 
  "Amsterdam": 2153, 
  "wenden": 2154, 
  "mag": 2155, 
  "vorgeschlagenen": 2156, 
  "kon@@": 2157, 
  "Städte": 2158, 
  "d.": 2159, 
  "Bestandteil": 2160, 
  "ing@@": 2161, 
  "wodurch": 2162, 
  "V": 2163, 
  "Bahnhof": 2164, 
  "}": 2165, 
  "starken": 2166, 
  "reicht": 2167, 
  "Und": 2168, 
  "Option": 2169, 
  "York": 2170, 
  "Prüfung": 2171, 
  "Natur@@": 2172, 
  "Phase": 2173, 
  "u.": 2174, 
  "solange": 2175, 
  "traditionellen": 2176, 
  "programme": 2177, 
  "Groß@@": 2178, 
  "Sport": 2179, 
  "einerseits": 2180, 
  "anbieten": 2181, 
  "Veranstaltungen": 2182, 
  "Landschaft": 2183, 
  "Apartments": 2184, 
  "service": 2185, 
  "Produkt@@": 2186, 
  "Ruhe": 2187, 
  "Re@@": 2188, 
  "zweifellos": 2189, 
  "Links": 2190, 
  "vollkommen": 2191, 
  "beschäftigt": 2192, 
  "betroffenen": 2193, 
  "Dienst": 2194, 
  "Ausland": 2195, 
  "Klimaanlage": 2196, 
  "Bar@@": 2197, 
  "weiteres": 2198, 
  "vorschlagen": 2199, 
  "Unternehmens": 2200, 
  "reden": 2201, 
  "Angebote": 2202, 
  "Unabhängigkeit": 2203, 
  "Hotel@@": 2204, 
  "keiner": 2205, 
  "Farben": 2206, 
  "gewählt": 2207, 
  "Gesetzgebung": 2208, 
  "Erhöhung": 2209, 
  "Internationalen": 2210, 
  "Zimmern": 2211, 
  "bequem": 2212, 
  "Buch": 2213, 
  "Struktur": 2214, 
  "all@@": 2215, 
  "ete": 2216, 
  "Charakter": 2217, 
  "begann": 2218, 
  "finde": 2219, 
  "ungs-": 2220, 
  "diskutiert": 2221, 
  "nochmals": 2222, 
  "have": 2223, 
  "besseren": 2224, 
  "hergestellt": 2225, 
  "fordert": 2226, 
  "Services": 2227, 
  "Center": 2228, 
  "good": 2229, 
  "tem": 2230, 
  "Überprüfung": 2231, 
  "sch": 2232, 
  "reagieren": 2233, 
  "Zahlen": 2234, 
  "ac@@": 2235, 
  "Königreich": 2236, 
  "ges@@": 2237, 
  "Stadtzentrum": 2238, 
  "seitens": 2239, 
  "Wein@@": 2240, 
  "Teilen": 2241, 
  "Liberalisierung": 2242, 
  "Männer": 2243, 
  "Methoden": 2244, 
  "1997": 2245, 
  "Licht": 2246, 
  "Di@@": 2247, 
  "Laufe": 2248, 
  "läuft": 2249, 
  "but": 2250, 
  "weshalb": 2251, 
  "Ro@@": 2252, 
  "sen@@": 2253, 
  "fand": 2254, 
  "Ratspräsident": 2255, 
  "teil": 2256, 
  "Generation": 2257, 
  "Fähigkeit": 2258, 
  "Gästen": 2259, 
  "van": 2260, 
  "ed@@": 2261, 
  "Diskriminierung": 2262, 
  "Teilnehmer": 2263, 
  "höchste": 2264, 
  "Verkehrs@@": 2265, 
  "Klimawandel": 2266, 
  "Bewegung": 2267, 
  "Musik@@": 2268, 
  "ell@@": 2269, 
  "regionale": 2270, 
  "jährlich": 2271, 
  "buchen": 2272, 
  "Gott": 2273, 
  "angeht": 2274, 
  "Telefon": 2275, 
  "ul@@": 2276, 
  "akzeptiert": 2277, 
  "sieben": 2278, 
  "Grenze": 2279, 
  "St.": 2280, 
  "Fälle": 2281, 
  "ing": 2282, 
  "Serie": 2283, 
  "betont": 2284, 
  "systems": 2285, 
  "bildet": 2286, 
  "manche": 2287, 
  "Ordnung": 2288, 
  "positiven": 2289, 
  "Dokumente": 2290, 
  "Koordinierung": 2291, 
  "ner": 2292, 
  "international": 2293, 
  "Bild@@": 2294, 
  "K": 2295, 
  "Tiere": 2296, 
  "Westen": 2297, 
  "eh@@": 2298, 
  "20.": 2299, 
  "Download": 2300, 
  "Reaktion": 2301, 
  "drittens": 2302, 
  "Druck@@": 2303, 
  "verlieren": 2304, 
  "gewisse": 2305, 
  "Anpassung": 2306, 
  "sicherstellen": 2307, 
  "breite": 2308, 
  "Versuch": 2309, 
  "Willen": 2310, 
  "Unterschiede": 2311, 
  "gelegt": 2312, 
  "po@@": 2313, 
  "Informations@@": 2314, 
  "Kombination": 2315, 
  "ländlichen": 2316, 
  "Gefühl": 2317, 
  "h.": 2318, 
  "wiederum": 2319, 
  "17@@": 2320, 
  "Freunde": 2321, 
  "übernommen": 2322, 
  "gesch@@": 2323, 
  "verstärkt": 2324, 
  "liefern": 2325, 
  "lichkeit": 2326, 
  "Körper": 2327, 
  "Plan": 2328, 
  "Spiele": 2329, 
  "berühmten": 2330, 
  "ka": 2331, 
  "ob@@": 2332, 
  "basiert": 2333, 
  "Stunde": 2334, 
  "Umständen": 2335, 
  "Gesetze": 2336, 
  "sh@@": 2337, 
  "Vorbereitung": 2338, 
  "derartige": 2339, 
  "abzu@@": 2340, 
  "zunehmend": 2341, 
  "nötig": 2342, 
  "Süden": 2343, 
  "dritten": 2344, 
  "Format": 2345, 
  "Zeit@@": 2346, 
  "Anliegen": 2347, 
  "Stadt@@": 2348, 
  "ehemaligen": 2349, 
  "entlang": 2350, 
  "Diskussionen": 2351, 
  "Amerika": 2352, 
  "Zustand": 2353, 
  "ergeben": 2354, 
  "Strategien": 2355, 
  "En@@": 2356, 
  "Dimension": 2357, 
  "ell": 2358, 
  "ster": 2359, 
  "höhere": 2360, 
  "Teilnahme": 2361, 
  "vi@@": 2362, 
  "Sanktionen": 2363, 
  "Eigenschaften": 2364, 
  "starten": 2365, 
  "historische": 2366, 
  "Einklang": 2367, 
  "H": 2368, 
  "Bedenken": 2369, 
  "Lebens@@": 2370, 
  "rechten": 2371, 
  "R": 2372, 
  "zi@@": 2373, 
  "3.": 2374, 
  "hierbei": 2375, 
  "spezifischen": 2376, 
  "derzeitigen": 2377, 
  "zustimmen": 2378, 
  "Portugal": 2379, 
  "verlangen": 2380, 
  "Stellen": 2381, 
  "bekannten": 2382, 
  "öffnen": 2383, 
  "Anlage": 2384, 
  "²": 2385, 
  "45": 2386, 
  "Studie": 2387, 
  "Material": 2388, 
  "Kollege": 2389, 
  "@": 2390, 
  "entscheidend": 2391, 
  "erhältlich": 2392, 
  "Verfügbarkeit": 2393, 
  "industrie": 2394, 
  "Voraussetzung": 2395, 
  "Freude": 2396, 
  "ben": 2397, 
  "DVD": 2398, 
  "werte": 2399, 
  "unternommen": 2400, 
  "wichtiges": 2401, 
  "sektor": 2402, 
  "umfassenden": 2403, 
  "erlauben": 2404, 
  "21.": 2405, 
  "Antworten": 2406, 
  "ons": 2407, 
  "Grundrechte": 2408, 
  "Fenster": 2409, 
  "Kunde": 2410, 
  "Karten": 2411, 
  "ine": 2412, 
  "allgemein": 2413, 
  "weltweiten": 2414, 
  "il": 2415, 
  "zer@@": 2416, 
  "P": 2417, 
  "befassen": 2418, 
  "kleiner": 2419, 
  "mögliche": 2420, 
  "stimmt": 2421, 
  "hoher": 2422, 
  "F": 2423, 
  "anerkannt": 2424, 
  "Geist": 2425, 
  "Waren": 2426, 
  "Architektur": 2427, 
  "Datenbank": 2428, 
  "Microsoft": 2429, 
  "deiner": 2430, 
  "geschrieben": 2431, 
  "lage": 2432, 
  "ana": 2433, 
  "legt": 2434, 
  "heraus": 2435, 
  "Effizienz": 2436, 
  "amerikanische": 2437, 
  "ziemlich": 2438, 
  "behandeln": 2439, 
  "Schule": 2440, 
  "Sitz": 2441, 
  "1.@@": 2442, 
  "Allgemeinen": 2443, 
  "Foto": 2444, 
  "Formular": 2445, 
  "Zugriff": 2446, 
  "Ent@@": 2447, 
  "Bau": 2448, 
  "System@@": 2449, 
  "bedingungen": 2450, 
  "Untersuchung": 2451, 
  "ente": 2452, 
  "Tod": 2453, 
  "Verhalten": 2454, 
  "Schutz@@": 2455, 
  "Küste": 2456, 
  "Mo@@": 2457, 
  "Übereinkommen": 2458, 
  "Holz@@": 2459, 
  "ina": 2460, 
  "Berücksichtigung": 2461, 
  "Google": 2462, 
  "geb@@": 2463, 
  "fühlen": 2464, 
  "unmittelbar": 2465, 
  "Beifall": 2466, 
  "wesentliche": 2467, 
  "meist": 2468, 
  "Sprach@@": 2469, 
  "schön": 2470, 
  "bezieht": 2471, 
  "konkreten": 2472, 
  "künftig": 2473, 
  "enk@@": 2474, 
  "betreffen": 2475, 
  "gelungen": 2476, 
  "Frei@@": 2477, 
  "Grundsätze": 2478, 
  "lo@@": 2479, 
  "Lebens": 2480, 
  "tische": 2481, 
  "Schäden": 2482, 
  "1996": 2483, 
  "gest@@": 2484, 
  "#": 2485, 
  "Auftrag": 2486, 
  "beträgt": 2487, 
  "Verträge": 2488, 
  "tut": 2489, 
  "Details": 2490, 
  "richten": 2491, 
  "begonnen": 2492, 
  "Klima": 2493, 
  "eröffnet": 2494, 
  "erscheinen": 2495, 
  "prozess": 2496, 
  "ig@@": 2497, 
  "eng": 2498, 
  "Fahr@@": 2499, 
  "jemand": 2500, 
  "umgeben": 2501, 
  "Leitlinien": 2502, 
  "Kategorie": 2503, 
  "ismus": 2504, 
  "kurze": 2505, 
  "mann": 2506, 
  "Materialien": 2507, 
  "bei@@": 2508, 
  "Maßnahme": 2509, 
  "hilft": 2510, 
  "ernst": 2511, 
  "Staats@@": 2512, 
  "mitten": 2513, 
  "Verbrechen": 2514, 
  "Nachfrage": 2515, 
  "na": 2516, 
  "Bus": 2517, 
  "Norden": 2518, 
  "eigenes": 2519, 
  "trifft": 2520, 
  "kan@@": 2521, 
  "niemals": 2522, 
  "Mon@@": 2523, 
  "hervorragende": 2524, 
  "Anfragen": 2525, 
  "Kunst@@": 2526, 
  "interessiert": 2527, 
  "Kunden@@": 2528, 
  "Landwirte": 2529, 
  "rasch": 2530, 
  "location": 2531, 
  "Völker": 2532, 
  "Wirtschafts-": 2533, 
  "ausgezeichnete": 2534, 
  "ales": 2535, 
  "Gedanken": 2536, 
  "zusätzlichen": 2537, 
  "Absicht": 2538, 
  "Experten": 2539, 
  "Bahn": 2540, 
  "näher": 2541, 
  "italienischen": 2542, 
  "art": 2543, 
  "kurzem": 2544, 
  "Wahrheit": 2545, 
  "Schaden": 2546, 
  "Erwartungen": 2547, 
  "gebiet": 2548, 
  "City": 2549, 
  "bi@@": 2550, 
  "re": 2551, 
  "ia": 2552, 
  "schnelle": 2553, 
  "installiert": 2554, 
  "Werk": 2555, 
  "platz": 2556, 
  "zeiten": 2557, 
  "Fischerei": 2558, 
  "BIP": 2559, 
  "Ch@@": 2560, 
  "reisen": 2561, 
  "Kind": 2562, 
  "Ober@@": 2563, 
  "zwei@@": 2564, 
  "verändert": 2565, 
  "Code": 2566, 
  "Definition": 2567, 
  "schönsten": 2568, 
  "gefördert": 2569, 
  "verbringen": 2570, 
  "Entwicklungsländern": 2571, 
  "grundlegenden": 2572, 
  "Mittelpunkt": 2573, 
  "Link": 2574, 
  "Ambiente": 2575, 
  "besitzen": 2576, 
  "ap@@": 2577, 
  "im@@": 2578, 
  "vollen": 2579, 
  "grundsätzlich": 2580, 
  "Wien": 2581, 
  "Englisch": 2582, 
  "schwierigen": 2583, 
  "ant": 2584, 
  "ö@@": 2585, 
  "Schweden": 2586, 
  "sorgt": 2587, 
  "gezogen": 2588, 
  "EG": 2589, 
  "neuesten": 2590, 
  "Angriff": 2591, 
  "übrigens": 2592, 
  "natürlichen": 2593, 
  "ur": 2594, 
  "Gesundheits@@": 2595, 
  "Enterprise": 2596, 
  "ko@@": 2597, 
  "entstanden": 2598, 
  "Privat@@": 2599, 
  "FR": 2600, 
  "ti": 2601, 
  "Einstellung": 2602, 
  "Verkauf": 2603, 
  "out": 2604, 
  "Verbesserungen": 2605, 
  "Beispiele": 2606, 
  "Flug@@": 2607, 
  "menschlichen": 2608, 
  "letztlich": 2609, 
  "Test@@": 2610, 
  "Tagung": 2611, 
  "Kur@@": 2612, 
  "Badezimmer": 2613, 
  "bedeuten": 2614, 
  "teilnehmen": 2615, 
  "ne@@": 2616, 
  "grundlegende": 2617, 
  "kulturelle": 2618, 
  "Normen": 2619, 
  "erweitert": 2620, 
  "Beratung": 2621, 
  "kämpfen": 2622, 
  "tischen": 2623, 
  "Qualitäts@@": 2624, 
  "Waffen": 2625, 
  "ruhigen": 2626, 
  "Delegation": 2627, 
  "weisen": 2628, 
  "Forum": 2629, 
  "1@@": 2630, 
  "offenen": 2631, 
  "16@@": 2632, 
  "Verwaltungs@@": 2633, 
  "Boden": 2634, 
  "sche": 2635, 
  "32": 2636, 
  "Winter": 2637, 
  "Wirklichkeit": 2638, 
  "anschließend": 2639, 
  "einfachen": 2640, 
  "ß@@": 2641, 
  "Kamera": 2642, 
  "wissenschaftlichen": 2643, 
  "Nahen": 2644, 
  "dritte": 2645, 
  "schicken": 2646, 
  "organisiert": 2647, 
  "ch": 2648, 
  "höchsten": 2649, 
  "Par@@": 2650, 
  "ausgezeichneten": 2651, 
  "zählt": 2652, 
  "Selbst@@": 2653, 
  "Agrarpolitik": 2654, 
  "ungs": 2655, 
  "Bucht": 2656, 
  "Strukturen": 2657, 
  "Unterschied": 2658, 
  "Regime": 2659, 
  "spezifische": 2660, 
  "11.": 2661, 
  "elt": 2662, 
  "losen": 2663, 
  "falsch": 2664, 
  "Car@@": 2665, 
  "00@@": 2666, 
  "Maschinen": 2667, 
  "einzu@@": 2668, 
  "Unternehmens@@": 2669, 
  "ma": 2670, 
  "Ã": 2671, 
  "präsentiert": 2672, 
  "bemüht": 2673, 
  "Ratsvorsitz": 2674, 
  "aufzunehmen": 2675, 
  "chinesischen": 2676, 
  "staatlichen": 2677, 
  "schlagen": 2678, 
  "Hand@@": 2679, 
  "Rechts": 2680, 
  "ck@@": 2681, 
  "last": 2682, 
  "ursprünglichen": 2683, 
  "ent": 2684, 
  "zufolge": 2685, 
  "schafft": 2686, 
  "musste": 2687, 
  "Ausstattung": 2688, 
  "Mittel@@": 2689, 
  "Stellung": 2690, 
  "spanischen": 2691, 
  "Nein": 2692, 
  "zugänglich": 2693, 
  "schauen": 2694, 
  "dir": 2695, 
  "rechte": 2696, 
  "riesigen": 2697, 
  "Anbieter": 2698, 
  "entspannen": 2699, 
  "Dusche": 2700, 
  "anlagen": 2701, 
  "°": 2702, 
  "wieder@@": 2703, 
  "Pflicht": 2704, 
  "abgelehnt": 2705, 
  "extrem": 2706, 
  "Überzeugung": 2707, 
  "Inter@@": 2708, 
  "Ausgangspunkt": 2709, 
  "umzusetzen": 2710, 
  "gratulieren": 2711, 
  "Steuern": 2712, 
  "Tourismus": 2713, 
  "ut@@": 2714, 
  "Dorf": 2715, 
  "Künstler": 2716, 
  "verursacht": 2717, 
  "abge@@": 2718, 
  "Empfehlung": 2719, 
  "zentralen": 2720, 
  "weiter@@": 2721, 
  "Preis@@": 2722, 
  "verehrte": 2723, 
  "Hafen": 2724, 
  "entwickelten": 2725, 
  "Golf": 2726, 
  "5.": 2727, 
  "Geräte": 2728, 
  "Farb@@": 2729, 
  "lautet": 2730, 
  "höher": 2731, 
  "Punkten": 2732, 
  "Krankheiten": 2733, 
  "Kooperation": 2734, 
  "Schul@@": 2735, 
  "gelöst": 2736, 
  "hierzu": 2737, 
  "Projekten": 2738, 
  "tigen": 2739, 
  "funktionieren": 2740, 
  "fordere": 2741, 
  "übernimmt": 2742, 
  "jegliche": 2743, 
  "Bestellung": 2744, 
  "betreffenden": 2745, 
  "NATO": 2746, 
  "Verbindungen": 2747, 
  "Forschungs@@": 2748, 
  "bezug": 2749, 
  "Mitgliedschaft": 2750, 
  "vorgenommen": 2751, 
  "Emissionen": 2752, 
  "Abschnitt": 2753, 
  "to@@": 2754, 
  "echten": 2755, 
  "arbeit": 2756, 
  "qu@@": 2757, 
  "Fähigkeiten": 2758, 
  "Kern@@": 2759, 
  "erheblich": 2760, 
  "sehe": 2761, 
  "Abkommens": 2762, 
  "Durch@@": 2763, 
  "Klasse": 2764, 
  "CO2": 2765, 
  "stehenden": 2766, 
  "Harmonisierung": 2767, 
  "DE": 2768, 
  "vieler": 2769, 
  "bekämpfen": 2770, 
  "™": 2771, 
  "Netz": 2772, 
  "künftigen": 2773, 
  "verlangt": 2774, 
  "Minister": 2775, 
  "durchzuführen": 2776, 
  "mo@@": 2777, 
  "verschiedener": 2778, 
  "ungefähr": 2779, 
  "Bo@@": 2780, 
  "Erholung": 2781, 
  "ep@@": 2782, 
  "egal": 2783, 
  "sinnvoll": 2784, 
  "vorher": 2785, 
  "Eltern": 2786, 
  "UNO": 2787, 
  "len": 2788, 
  "hängt": 2789, 
  "Beweis": 2790, 
  "behalten": 2791, 
  "Strukturfonds": 2792, 
  "Rumänien": 2793, 
  "4.": 2794, 
  "Alternative": 2795, 
  "schlägt": 2796, 
  "Farbe": 2797, 
  "Gebrauch": 2798, 
  "Tisch": 2799, 
  "Ausführungen": 2800, 
  "ergriffen": 2801, 
  "par@@": 2802, 
  "interessante": 2803, 
  "serviert": 2804, 
  "bezahlen": 2805, 
  "hervorheben": 2806, 
  "Kar@@": 2807, 
  "Luft": 2808, 
  "Entwicklungsländer": 2809, 
  "í@@": 2810, 
  "en-": 2811, 
  "Ausnahme": 2812, 
  "zentrum": 2813, 
  "your": 2814, 
  "Veranstaltung": 2815, 
  "Start": 2816, 
  "Roma": 2817, 
  "Konflikt": 2818, 
  "leiden": 2819, 
  "Co@@": 2820, 
  "N": 2821, 
  "Partnern": 2822, 
  "aufgefordert": 2823, 
  "Angst": 2824, 
  "auszu@@": 2825, 
  "KMU": 2826, 
  "stellung": 2827, 
  "Nachrichten": 2828, 
  "Gegend": 2829, 
  "Ratspräsidentschaft": 2830, 
  "ausgeschlossen": 2831, 
  "Alter": 2832, 
  "nahezu": 2833, 
  "Ma@@": 2834, 
  "produktion": 2835, 
  "Änderungsanträgen": 2836, 
  "nachhaltigen": 2837, 
  "Straßen": 2838, 
  "kurzen": 2839, 
  "Austausch": 2840, 
  "gespielt": 2841, 
  "Afghanistan": 2842, 
  "frei@@": 2843, 
  "Übereinstimmung": 2844, 
  "Buchung": 2845, 
  "28": 2846, 
  "annehmen": 2847, 
  "besch@@": 2848, 
  "400": 2849, 
  "westlichen": 2850, 
  "notwendige": 2851, 
  "w": 2852, 
  "Gestaltung": 2853, 
  "einzigartige": 2854, 
  "bislang": 2855, 
  "Websites": 2856, 
  "Vorschlägen": 2857, 
  "produziert": 2858, 
  "beschränkt": 2859, 
  "Programmen": 2860, 
  "produkte": 2861, 
  "15@@": 2862, 
  "Mensch": 2863, 
  "überzeugen": 2864, 
  "beglückwünschen": 2865, 
  "Kilometer": 2866, 
  "Schlafzimmer": 2867, 
  "bestätigen": 2868, 
  "steigen": 2869, 
  "¤": 2870, 
  "Schwerpunkt": 2871, 
  "gestatten": 2872, 
  "d.h.": 2873, 
  "früheren": 2874, 
  "Mit@@": 2875, 
  "tieren": 2876, 
  "Öl@@": 2877, 
  "Per@@": 2878, 
  "Geschäfte": 2879, 
  "ach@@": 2880, 
  "per@@": 2881, 
  "durchführen": 2882, 
  "18.": 2883, 
  "Internet@@": 2884, 
  "geboren": 2885, 
  "ou": 2886, 
  "up": 2887, 
  "gebaut": 2888, 
  "con": 2889, 
  "Ausstellung": 2890, 
  "Umgang": 2891, 
  "ff@@": 2892, 
  "erten": 2893, 
  "erung": 2894, 
  "erreichbar": 2895, 
  "Ausführung": 2896, 
  "Komponenten": 2897, 
  "tritt": 2898, 
  "zugunsten": 2899, 
  "verabschiedet": 2900, 
  "10@@": 2901, 
  "ange@@": 2902, 
  "ausgesprochen": 2903, 
  "definiert": 2904, 
  "la@@": 2905, 
  "Maß": 2906, 
  "Kopf": 2907, 
  "sodass": 2908, 
  "ans": 2909, 
  "verhindert": 2910, 
  "kl@@": 2911, 
  "Arbeitsplätzen": 2912, 
  "2020": 2913, 
  "Drittländern": 2914, 
  "sin@@": 2915, 
  "so@@": 2916, 
  "u.a.": 2917, 
  "si": 2918, 
  "raum": 2919, 
  "lose": 2920, 
  "26": 2921, 
  "Spa": 2922, 
  "öffentlich": 2923, 
  "ausgesetzt": 2924, 
  "Übersetzung": 2925, 
  "zuständigen": 2926, 
  "München": 2927, 
  "werk": 2928, 
  "geprüft": 2929, 
  "ei": 2930, 
  "Costa": 2931, 
  "Her@@": 2932, 
  "russischen": 2933, 
  "Prinzipien": 2934, 
  "führende": 2935, 
  "Gleichgewicht": 2936, 
  "erte": 2937, 
  "ce": 2938, 
  "tige": 2939, 
  "Wein": 2940, 
  "kamen": 2941, 
  "ursprünglich": 2942, 
  "berg": 2943, 
  "ir@@": 2944, 
  "ra": 2945, 
  "ähnlich": 2946, 
  "Element": 2947, 
  "passiert": 2948, 
  "Faktoren": 2949, 
  "vollständige": 2950, 
  "aufzu@@": 2951, 
  "Wissenschaft": 2952, 
  "150": 2953, 
  "aufnehmen": 2954, 
  "rufen": 2955, 
  "Verringerung": 2956, 
  "zentral": 2957, 
  "kostet": 2958, 
  "Optionen": 2959, 
  "individuelle": 2960, 
  "Planung": 2961, 
  "Plattform": 2962, 
  "verringern": 2963, 
  "Außenpolitik": 2964, 
  "Beziehung": 2965, 
  "installieren": 2966, 
  "Vereinbarungen": 2967, 
  "unmöglich": 2968, 
  "alt": 2969, 
  "Ge@@": 2970, 
  "Bi@@": 2971, 
  "Gerichte": 2972, 
  "vous": 2973, 
  "rechtliche": 2974, 
  "normalerweise": 2975, 
  "essen": 2976, 
  "Schluss": 2977, 
  "Werbung": 2978, 
  "á@@": 2979, 
  "Con@@": 2980, 
  "Einstellungen": 2981, 
  "hinzufügen": 2982, 
  "1995": 2983, 
  "form": 2984, 
  "Beiträge": 2985, 
  "wohnen": 2986, 
  "schlecht": 2987, 
  "perfekt": 2988, 
  "entsteht": 2989, 
  "verstanden": 2990, 
  "ef@@": 2991, 
  "Gesellschaften": 2992, 
  "verleihen": 2993, 
  "Chinas": 2994, 
  "mittel": 2995, 
  "inmitten": 2996, 
  "höheren": 2997, 
  "nunmehr": 2998, 
  "Gespräche": 2999, 
  "welchem": 3000, 
  "Problems": 3001, 
  "stellte": 3002, 
  "wollten": 3003, 
  "end@@": 3004, 
  "Festlegung": 3005, 
  "Ausgabe": 3006, 
  "bestand": 3007, 
  "gespeichert": 3008, 
  "verändern": 3009, 
  "li": 3010, 
  "direkten": 3011, 
  "bau@@": 3012, 
  "sorgfältig": 3013, 
  "Sonne": 3014, 
  "Plenum": 3015, 
  "iger": 3016, 
  "angemessen": 3017, 
  "Bemerkungen": 3018, 
  "ker": 3019, 
  "una": 3020, 
  "bestehende": 3021, 
  "Wünsche": 3022, 
  "Garantie": 3023, 
  "Regierungskonferenz": 3024, 
  "eller": 3025, 
  "lokale": 3026, 
  "Man@@": 3027, 
  "ausgeführt": 3028, 
  "Pool": 3029, 
  "erleichtern": 3030, 
  "ss@@": 3031, 
  "ha@@": 3032, 
  "no@@": 3033, 
  "Regierungs@@": 3034, 
  "berechtigt": 3035, 
  "Casino": 3036, 
  "Handeln": 3037, 
  "Minderheiten": 3038, 
  "begrüßt": 3039, 
  "page": 3040, 
  "Zentralbank": 3041, 
  "....": 3042, 
  "Po@@": 3043, 
  "Verteidigung": 3044, 
  "klaren": 3045, 
  "Star": 3046, 
  "Asien": 3047, 
  "bestimmen": 3048, 
  "letztendlich": 3049, 
  "Liebe": 3050, 
  "WLAN": 3051, 
  "ci@@": 3052, 
  "Ziffer": 3053, 
  "dich": 3054, 
  "Institution": 3055, 
  "Stück": 3056, 
  "bemühen": 3057, 
  "heutige": 3058, 
  "weise": 3059, 
  "wei@@": 3060, 
  "erfolgreiche": 3061, 
  "Deutschen": 3062, 
  "Ware": 3063, 
  "Li@@": 3064, 
  "Justiz": 3065, 
  "Post@@": 3066, 
  "Haftung": 3067, 
  "Studenten": 3068, 
  "Verbot": 3069, 
  "Aktion": 3070, 
  "innovative": 3071, 
  "Gründung": 3072, 
  "man@@": 3073, 
  "anti@@": 3074, 
  "breakfast": 3075, 
  "bau": 3076, 
  "Veröffentlichung": 3077, 
  "britische": 3078, 
  "ener": 3079, 
  "direkte": 3080, 
  "angemessene": 3081, 
  "vieles": 3082, 
  "Essen": 3083, 
  "erinnert": 3084, 
  "Tour": 3085, 
  "weist": 3086, 
  "Marktes": 3087, 
  "Einbeziehung": 3088, 
  "schutz": 3089, 
  "Wahl@@": 3090, 
  "nahm": 3091, 
  "dürfte": 3092, 
  "aktivieren": 3093, 
  "Chancen": 3094, 
  "Webseiten": 3095, 
  "gezwungen": 3096, 
  "staatliche": 3097, 
  "Hostels": 3098, 
  "15.": 3099, 
  "Browser": 3100, 
  "Charta": 3101, 
  "geltenden": 3102, 
  "Umfeld": 3103, 
  "rooms": 3104, 
  "Grand": 3105, 
  "fer@@": 3106, 
  "voll@@": 3107, 
  "Signal": 3108, 
  "beraten": 3109, 
  "ette": 3110, 
  "Mobilität": 3111, 
  "organisieren": 3112, 
  "Transport": 3113, 
  "vorlegen": 3114, 
  "wirksam": 3115, 
  "Bank@@": 3116, 
  "verkaufen": 3117, 
  "erstmals": 3118, 
  "abgestimmt": 3119, 
  "Zielen": 3120, 
  "traditionelle": 3121, 
  "hinzu": 3122, 
  "seite": 3123, 
  "Preisen": 3124, 
  "Kurs": 3125, 
  "Ex@@": 3126, 
  "Balkon": 3127, 
  "entscheidende": 3128, 
  "Vorgehen": 3129, 
  "Or@@": 3130, 
  "Band": 3131, 
  "tisch": 3132, 
  "Identität": 3133, 
  "Untersuchungen": 3134, 
  "Vorschlags": 3135, 
  "rei@@": 3136, 
  "ersetzt": 3137, 
  "verdient": 3138, 
  "Versionen": 3139, 
  "verurteilt": 3140, 
  "kontaktieren": 3141, 
  "inklusive": 3142, 
  "Freiheiten": 3143, 
  "Sauna": 3144, 
  "Konsens": 3145, 
  "hoffentlich": 3146, 
  "einfacher": 3147, 
  "erhebliche": 3148, 
  "einig": 3149, 
  "reduzieren": 3150, 
  "do@@": 3151, 
  "größer": 3152, 
  "mittlerweile": 3153, 
  "wirtschaftlicher": 3154, 
  "Kräfte": 3155, 
  "and@@": 3156, 
  "Arbeitsmarkt": 3157, 
  "fehlt": 3158, 
  "vorhandenen": 3159, 
  "ruhig": 3160, 
  "zieht": 3161, 
  "Gerichtshof": 3162, 
  "ort": 3163, 
  "Politiken": 3164, 
  "Rom": 3165, 
  "Standard@@": 3166, 
  "gewährt": 3167, 
  "entwickelte": 3168, 
  "individuellen": 3169, 
  "breiten": 3170, 
  "einheitlichen": 3171, 
  "Studio": 3172, 
  "Außen@@": 3173, 
  "äußern": 3174, 
  "Klein@@": 3175, 
  "beruht": 3176, 
  "Verbreitung": 3177, 
  "verbinden": 3178, 
  "gearbeitet": 3179, 
  "Studien": 3180, 
  "ien": 3181, 
  "Besorgnis": 3182, 
  "abgesehen": 3183, 
  "2011": 3184, 
  "liefert": 3185, 
  "strategischen": 3186, 
  "vorstellen": 3187, 
  "how": 3188, 
  "Mitarbeitern": 3189, 
  "Kapitel": 3190, 
  "Nachricht": 3191, 
  "freundlich": 3192, 
  "lag": 3193, 
  "Krankheit": 3194, 
  "Player": 3195, 
  "End@@": 3196, 
  "Schlüssel@@": 3197, 
  "Tri@@": 3198, 
  "ischem": 3199, 
  "Anschluss": 3200, 
  "Zwecke": 3201, 
  "Einwanderung": 3202, 
  "pf@@": 3203, 
  "gestaltet": 3204, 
  "Vorstellung": 3205, 
  "beschäftigen": 3206, 
  "ster@@": 3207, 
  "Gewicht": 3208, 
  "Städten": 3209, 
  "ähnliche": 3210, 
  "gt": 3211, 
  "Bedrohung": 3212, 
  "via": 3213, 
  "tiert": 3214, 
  "anhand": 3215, 
  "Freunden": 3216, 
  "hierfür": 3217, 
  "stattdessen": 3218, 
  "französische": 3219, 
  "Station": 3220, 
  "Sorgen": 3221, 
  "wissenschaftliche": 3222, 
  "can": 3223, 
  "jenen": 3224, 
  "effektiv": 3225, 
  "tr@@": 3226, 
  "offiziellen": 3227, 
  "außerordentlich": 3228, 
  "aktive": 3229, 
  "Hohen": 3230, 
  "kleines": 3231, 
  "Bemerkung": 3232, 
  "Werke": 3233, 
  "formen": 3234, 
  "angegebenen": 3235, 
  "wiederholen": 3236, 
  "tsch@@": 3237, 
  "Kauf": 3238, 
  "komme": 3239, 
  "genannte": 3240, 
  "Wohn@@": 3241, 
  "zusammenarbeiten": 3242, 
  "there": 3243, 
  "Mindest@@": 3244, 
  "Frankfurt": 3245, 
  "vorbereitet": 3246, 
  "testen": 3247, 
  "Wohnung": 3248, 
  "Schulen": 3249, 
  "aussprechen": 3250, 
  "Erzeugnisse": 3251, 
  "erk@@": 3252, 
  "ca": 3253, 
  "Sal@@": 3254, 
  "haus": 3255, 
  "ern@@": 3256, 
  "Kontroll@@": 3257, 
  "barer": 3258, 
  "verstärken": 3259, 
  "Systemen": 3260, 
  "gewonnen": 3261, 
  "gi@@": 3262, 
  "6.": 3263, 
  "Vision": 3264, 
  "jener": 3265, 
  "stadt": 3266, 
  "Open": 3267, 
  "af@@": 3268, 
  "Alle": 3269, 
  "Rest": 3270, 
  "systemen": 3271, 
  "Auge": 3272, 
  "druck": 3273, 
  "Sektoren": 3274, 
  "01": 3275, 
  "Zahlungs@@": 3276, 
  "fuer": 3277, 
  "inter@@": 3278, 
  "Touristen": 3279, 
  "Kontrollen": 3280, 
  "eingereicht": 3281, 
  "erfolgreichen": 3282, 
  "ige": 3283, 
  "machte": 3284, 
  "lagen": 3285, 
  "Betriebs@@": 3286, 
  "verkauft": 3287, 
  "unverzüglich": 3288, 
  "Luft@@": 3289, 
  "erhielt": 3290, 
  "Marke": 3291, 
  "75": 3292, 
  "Viertel": 3293, 
  "finanziert": 3294, 
  "bauen": 3295, 
  "rein": 3296, 
  "Live": 3297, 
  "Wir": 3298, 
  "Wohlstand": 3299, 
  "management": 3300, 
  "http": 3301, 
  "17.": 3302, 
  "entscheidender": 3303, 
  "dans": 3304, 
  "2.@@": 3305, 
  "a.": 3306, 
  "Vorsitz": 3307, 
  "7.": 3308, 
  "Bereitstellung": 3309, 
  "W": 3310, 
  "Einkommen": 3311, 
  "las": 3312, 
  "Eurozone": 3313, 
  "beigetragen": 3314, 
  "wer@@": 3315, 
  "beschrieben": 3316, 
  "Erstellung": 3317, 
  "betrieben": 3318, 
  "Bars": 3319, 
  "interessant": 3320, 
  "av@@": 3321, 
  "speichern": 3322, 
  "stolz": 3323, 
  "erzeugt": 3324, 
  "Messe": 3325, 
  "Pakete": 3326, 
  "Manager": 3327, 
  "großem": 3328, 
  "ta": 3329, 
  "gefallen": 3330, 
  "tig": 3331, 
  "sichere": 3332, 
  "Konto": 3333, 
  "dienst": 3334, 
  "Grad": 3335, 
  "Schlussfolgerungen": 3336, 
  "Ri@@": 3337, 
  "bestellen": 3338, 
  "Group": 3339, 
  "Beschluss": 3340, 
  "Spaß": 3341, 
  "Ungarn": 3342, 
  "wunderschönen": 3343, 
  "modern": 3344, 
  "integriert": 3345, 
  "Männern": 3346, 
  "beteiligen": 3347, 
  "Einheit": 3348, 
  "schriftliche": 3349, 
  "my": 3350, 
  "ation@@": 3351, 
  "dern": 3352, 
  "Katastrophe": 3353, 
  "lei@@": 3354, 
  "Grenz@@": 3355, 
  "Brasilien": 3356, 
  "investieren": 3357, 
  "Kontext": 3358, 
  "Post": 3359, 
  "Ansichten": 3360, 
  "Mangel": 3361, 
  "anzu@@": 3362, 
  "vermitteln": 3363, 
  "son": 3364, 
  "individuell": 3365, 
  "PL": 3366, 
  "bestimmter": 3367, 
  "Red": 3368, 
  "regeln": 3369, 
  "he": 3370, 
  "Staates": 3371, 
  "Mess@@": 3372, 
  "Polizei": 3373, 
  "had": 3374, 
  "du@@": 3375, 
  "Einwohner": 3376, 
  "langfristig": 3377, 
  "anwesend": 3378, 
  "Vater": 3379, 
  "ISO": 3380, 
  "geboten": 3381, 
  "reich": 3382, 
  "Ko@@": 3383, 
  "solches": 3384, 
  "16.": 3385, 
  "bedeutende": 3386, 
  "optimale": 3387, 
  "einzigartigen": 3388, 
  "Ö@@": 3389, 
  "elektronischen": 3390, 
  "fest@@": 3391, 
  "verbindet": 3392, 
  "gerät": 3393, 
  "langsam": 3394, 
  "AKP": 3395, 
  "Rechtsgrundlage": 3396, 
  "pour": 3397, 
  "Lieferung": 3398, 
  "Genehmigung": 3399, 
  "Schlüssel": 3400, 
  "barkeit": 3401, 
  "ausgezeichnet": 3402, 
  "Menü": 3403, 
  "beobachten": 3404, 
  "angegeben": 3405, 
  "tiger": 3406, 
  "hervor": 3407, 
  "EZB": 3408, 
  "wiederholt": 3409, 
  "diesbezüglich": 3410, 
  "heit": 3411, 
  "feld": 3412, 
  "hingegen": 3413, 
  "beantworten": 3414, 
  "Gegen@@": 3415, 
  "Provinz": 3416, 
  "Konsequenzen": 3417, 
  "folglich": 3418, 
  "Dauer": 3419, 
  "Morgen": 3420, 
  "endes": 3421, 
  "dar@@": 3422, 
  "Nummer": 3423, 
  "v": 3424, 
  "IP": 3425, 
  "scheinen": 3426, 
  "weitgehend": 3427, 
  "eingehalten": 3428, 
  "Am@@": 3429, 
  "läßt": 3430, 
  "Gast": 3431, 
  "Modelle": 3432, 
  "Gerät": 3433, 
  "langfristige": 3434, 
  "gewissen": 3435, 
  "allzu": 3436, 
  "Test": 3437, 
  "genügend": 3438, 
  "herrscht": 3439, 
  "gebiete": 3440, 
  "zuständig": 3441, 
  "EADS": 3442, 
  "Beschlüsse": 3443, 
  "Sicherung": 3444, 
  "bereitgestellt": 3445, 
  "Projekt@@": 3446, 
  "Kroatien": 3447, 
  "Kapital@@": 3448, 
  "Positionen": 3449, 
  "ums": 3450, 
  "än@@": 3451, 
  "überprüft": 3452, 
  "Glaubwürdigkeit": 3453, 
  "PHP": 3454, 
  "8.": 3455, 
  "gelingt": 3456, 
  "Gas@@": 3457, 
  "Prozesse": 3458, 
  "EN@@": 3459, 
  "eignet": 3460, 
  "erlebt": 3461, 
  "mussten": 3462, 
  "Betrag": 3463, 
  "sozialer": 3464, 
  "Support": 3465, 
  "tet": 3466, 
  "lieber": 3467, 
  "san@@": 3468, 
  "mer@@": 3469, 
  "3D": 3470, 
  "entwicklung": 3471, 
  "Lehr@@": 3472, 
  "Lebensmittel": 3473, 
  "Videos": 3474, 
  "Bulgarien": 3475, 
  "men@@": 3476, 
  "offene": 3477, 
  "anbelangt": 3478, 
  "Kontakte": 3479, 
  "Überlegungen": 3480, 
  "des@@": 3481, 
  "ec@@": 3482, 
  "ano": 3483, 
  "Militär@@": 3484, 
  "getragen": 3485, 
  "Reduzierung": 3486, 
  "wünsche": 3487, 
  "reduziert": 3488, 
  "Zivilgesellschaft": 3489, 
  "bekommt": 3490, 
  "weg@@": 3491, 
  "Korruption": 3492, 
  "Bu@@": 3493, 
  "bereiche": 3494, 
  "rück@@": 3495, 
  "Le": 3496, 
  "Gegenstand": 3497, 
  "aler": 3498, 
  "mittleren": 3499, 
  "Feld": 3500, 
  "einge@@": 3501, 
  "Parkplatz": 3502, 
  "gestattet": 3503, 
  "ic@@": 3504, 
  "Suiten": 3505, 
  "j": 3506, 
  "gruppen": 3507, 
  "Mrd.": 3508, 
  "Gehminuten": 3509, 
  "Pro": 3510, 
  "Energien": 3511, 
  "ran@@": 3512, 
  "wirtschaft": 3513, 
  "ausge@@": 3514, 
  "Ziel@@": 3515, 
  "angesehen": 3516, 
  "ersetzen": 3517, 
  "pro@@": 3518, 
  "momentan": 3519, 
  "WC": 3520, 
  "Ber@@": 3521, 
  "verteilt": 3522, 
  "Gefahren": 3523, 
  "Anlass": 3524, 
  "Geschmack": 3525, 
  "hochwertige": 3526, 
  "Stein@@": 3527, 
  "igen": 3528, 
  "Vorhaben": 3529, 
  "Beschäftigungs@@": 3530, 
  "militärische": 3531, 
  "ausgerichtet": 3532, 
  "Kollegin": 3533, 
  "insofern": 3534, 
  "da@@": 3535, 
  "betreiben": 3536, 
  "auftreten": 3537, 
  "Film@@": 3538, 
  "Stoffe": 3539, 
  "entschlossen": 3540, 
  "grosse": 3541, 
  "hei@@": 3542, 
  "tung": 3543, 
  "ati@@": 3544, 
  "El": 3545, 
  "Verlust": 3546, 
  "menschliche": 3547, 
  "PDF": 3548, 
  "behaupten": 3549, 
  "ließ": 3550, 
  "Fischerei@@": 3551, 
  "strategie": 3552, 
  "Gewährleistung": 3553, 
  "Buch@@": 3554, 
  ".....": 3555, 
  "Mal@@": 3556, 
  "umfangreiche": 3557, 
  "jedenfalls": 3558, 
  "sur": 3559, 
  "beendet": 3560, 
  "see": 3561, 
  "wirtschaftlich": 3562, 
  "technik": 3563, 
  "zukünftigen": 3564, 
  "Wirtschaftswachstum": 3565, 
  "Eigentum": 3566, 
  "versichern": 3567, 
  "konfrontiert": 3568, 
  "selten": 3569, 
  "ok@@": 3570, 
  "internen": 3571, 
  "klein": 3572, 
  "Tra@@": 3573, 
  "Schiffe": 3574, 
  "verfügbaren": 3575, 
  "ft": 3576, 
  "Ak@@": 3577, 
  "Glück": 3578, 
  "mer": 3579, 
  "drei@@": 3580, 
  "Tier@@": 3581, 
  "gebieten": 3582, 
  "160": 3583, 
  "unterscheiden": 3584, 
  "künftige": 3585, 
  "Kulturen": 3586, 
  "Entlastung": 3587, 
  "entgegen": 3588, 
  "De": 3589, 
  "militärischen": 3590, 
  "größeres": 3591, 
  "verteidigen": 3592, 
  "Belgien": 3593, 
  "Praktiken": 3594, 
  "Stimmen": 3595, 
  "plus": 3596, 
  "dienste": 3597, 
  "angepasst": 3598, 
  "Gericht": 3599, 
  "Rei@@": 3600, 
  "konzentriert": 3601, 
  "Familien@@": 3602, 
  "Branche": 3603, 
  "einzusetzen": 3604, 
  "Qu@@": 3605, 
  "versch@@": 3606, 
  "strategische": 3607, 
  "bel@@": 3608, 
  "cm": 3609, 
  "Gemeinde": 3610, 
  "10.": 3611, 
  "Fahrzeuge": 3612, 
  "1994": 3613, 
  "praktische": 3614, 
  "Erfüllung": 3615, 
  "Schiff": 3616, 
  "Know": 3617, 
  "institutionellen": 3618, 
  "natürliche": 3619, 
  "Prozesses": 3620, 
  "Haus@@": 3621, 
  "gerichtet": 3622, 
  "Fernseh@@": 3623, 
  "For@@": 3624, 
  "Anstieg": 3625, 
  "Ausflüge": 3626, 
  "has": 3627, 
  "sprach": 3628, 
  "Gerechtigkeit": 3629, 
  "bus": 3630, 
  "fen": 3631, 
  "Marketing": 3632, 
  "eng@@": 3633, 
  "Mikro@@": 3634, 
  "begrenzt": 3635, 
  "unabhängigen": 3636, 
  "arten": 3637, 
  "ée": 3638, 
  "del@@": 3639, 
  "Madrid": 3640, 
  "zukünftige": 3641, 
  "Standort": 3642, 
  "Verletzung": 3643, 
  "herunterladen": 3644, 
  "Nicht@@": 3645, 
  "unterstreichen": 3646, 
  "unabhängige": 3647, 
  "Freitag": 3648, 
  "Spezial@@": 3649, 
  "wirksame": 3650, 
  "Blog": 3651, 
  "Santa": 3652, 
  "12.": 3653, 
  "Übernachtung": 3654, 
  "Mut": 3655, 
  "Perspektive": 3656, 
  "Mor@@": 3657, 
  "Situationen": 3658, 
  "Nachbarn": 3659, 
  "eins": 3660, 
  "which": 3661, 
  "unterzeichnet": 3662, 
  "600": 3663, 
  "bet@@": 3664, 
  "Flüchtlinge": 3665, 
  "Medien@@": 3666, 
  "els": 3667, 
  "Verarbeitung": 3668, 
  "Amt": 3669, 
  "könnt": 3670, 
  "Organe": 3671, 
  "Deutsch": 3672, 
  "Runde": 3673, 
  "Bei@@": 3674, 
  "Doppel@@": 3675, 
  "ig": 3676, 
  "Sachen": 3677, 
  "13.": 3678, 
  "einbezogen": 3679, 
  "ST@@": 3680, 
  "verdienen": 3681, 
  "mitteilen": 3682, 
  "ER": 3683, 
  "Firmen@@": 3684, 
  "ters": 3685, 
  "illegalen": 3686, 
  "bisherigen": 3687, 
  "vorzulegen": 3688, 
  "kraft": 3689, 
  "Pläne": 3690, 
  "empfangen": 3691, 
  "ergibt": 3692, 
  "Tätigkeiten": 3693, 
  "Betten": 3694, 
  "fall": 3695, 
  "IN@@": 3696, 
  "abstimmen": 3697, 
  "Lizenz": 3698, 
  "Märkten": 3699, 
  "2013": 3700, 
  "John": 3701, 
  "behoben": 3702, 
  "gruppe": 3703, 
  "geprägt": 3704, 
  "bekannte": 3705, 
  "Geld@@": 3706, 
  "Grünen": 3707, 
  "Weiteren": 3708, 
  "vorgeschlagene": 3709, 
  "ER@@": 3710, 
  "Finanzkrise": 3711, 
  "lebt": 3712, 
  "sicheren": 3713, 
  "betreffend": 3714, 
  "Ger@@": 3715, 
  "ino": 3716, 
  "form@@": 3717, 
  "vorbei": 3718, 
  "ben@@": 3719, 
  "fertig": 3720, 
  "9.": 3721, 
  "Veränderung": 3722, 
  "ech@@": 3723, 
  "unterliegen": 3724, 
  "Widerspruch": 3725, 
  "Frühstücksbuffet": 3726, 
  "besonderer": 3727, 
  "effizient": 3728, 
  "punkt": 3729, 
  "Redner": 3730, 
  "Regierungschefs": 3731, 
  "Sammlung": 3732, 
  "laufenden": 3733, 
  "Abendessen": 3734, 
  "Donnerstag": 3735, 
  "ator": 3736, 
  "Kanada": 3737, 
  "Distribution": 3738, 
  "Meeres@@": 3739, 
  "Top": 3740, 
  "USB": 3741, 
  "onen": 3742, 
  "anzuzeigen": 3743, 
  "Ankunft": 3744, 
  "Deutsche": 3745, 
  "14@@": 3746, 
  "Ausmaß": 3747, 
  "anschließen": 3748, 
  "zimmer": 3749, 
  "Su@@": 3750, 
  "Zuständigkeit": 3751, 
  "vorgesehenen": 3752, 
  "schutz@@": 3753, 
  "Geschäft": 3754, 
  "Öl": 3755, 
  "Gang": 3756, 
  "29": 3757, 
  "Air": 3758, 
  "Lebensmittel@@": 3759, 
  "Schweizer": 3760, 
  "Ablehnung": 3761, 
  "Z": 3762, 
  "geraten": 3763, 
  "präsentieren": 3764, 
  "gebeten": 3765, 
  "Armee": 3766, 
  "geplant": 3767, 
  "är@@": 3768, 
  "Nord@@": 3769, 
  "Marken": 3770, 
  "ik@@": 3771, 
  "Teil@@": 3772, 
  "gleichermaßen": 3773, 
  "pl@@": 3774, 
  "Herz": 3775, 
  "geniessen": 3776, 
  "High": 3777, 
  "95": 3778, 
  "Best": 3779, 
  "station": 3780, 
  "Tages": 3781, 
  "kontrollieren": 3782, 
  "Fischer": 3783, 
  "wachsenden": 3784, 
  "fähigkeit": 3785, 
  "tief": 3786, 
  "lan@@": 3787, 
  "gewähren": 3788, 
  "Vorlage": 3789, 
  "get@@": 3790, 
  "Ebenen": 3791, 
  "Respekt": 3792, 
  "za": 3793, 
  "komfortable": 3794, 
  "48": 3795, 
  "Newsletter": 3796, 
  "letzter": 3797, 
  "Apartment": 3798, 
  "Shop": 3799, 
  "konkret": 3800, 
  "Bürger@@": 3801, 
  "if": 3802, 
  "dankbar": 3803, 
  "14.": 3804, 
  "Quellen": 3805, 
  "dargestellt": 3806, 
  "hervorragenden": 3807, 
  "Büro": 3808, 
  "erfreut": 3809, 
  "tre@@": 3810, 
  "Leitung": 3811, 
  "anlage": 3812, 
  "alt@@": 3813, 
  "Gold": 3814, 
  "infolge": 3815, 
  "Freizügigkeit": 3816, 
  "Leistungs@@": 3817, 
  "perfekte": 3818, 
  "Kommunikations@@": 3819, 
  "komplette": 3820, 
  "sogenannten": 3821, 
  "ou@@": 3822, 
  "enz@@": 3823, 
  "lichem": 3824, 
  "politisches": 3825, 
  "Du@@": 3826, 
  "AN@@": 3827, 
  "vorliegende": 3828, 
  "Maschine": 3829, 
  "qualität": 3830, 
  "derer": 3831, 
  "isten": 3832, 
  "Rückkehr": 3833, 
  "normalen": 3834, 
  "com": 3835, 
  "elles": 3836, 
  "schnellen": 3837, 
  "gewünschten": 3838, 
  ".de": 3839, 
  "schätzen": 3840, 
  "enthaltenen": 3841, 
  "selbst@@": 3842, 
  "Mittelmeer": 3843, 
  "co@@": 3844, 
  "verboten": 3845, 
  "ha": 3846, 
  "hohem": 3847, 
  "aufs": 3848, 
  "Heizung": 3849, 
  "überaus": 3850, 
  "Aktionsplan": 3851, 
  "ru@@": 3852, 
  "Reservierung": 3853, 
  "heißen": 3854, 
  "Abschaffung": 3855, 
  "hervorgehoben": 3856, 
  "Abhängigkeit": 3857, 
  "ernsthaft": 3858, 
  "Bel@@": 3859, 
  "sauber": 3860, 
  "brachte": 3861, 
  "enten": 3862, 
  "vereinbart": 3863, 
  "Planeten": 3864, 
  "Haushaltsplan": 3865, 
  "einheitliche": 3866, 
  "Volkes": 3867, 
  "Revolution": 3868, 
  "Sohn": 3869, 
  "humanitäre": 3870, 
  "füllen": 3871, 
  "Reisen": 3872, 
  "erwähnen": 3873, 
  "Passwort": 3874, 
  "Tor@@": 3875, 
  "Jahres@@": 3876, 
  "Steuerung": 3877, 
  "alisierung": 3878, 
  "wahren": 3879, 
  "effiziente": 3880, 
  "Befugnisse": 3881, 
  "its": 3882, 
  "Entspannung": 3883, 
  "Führer": 3884, 
  "Vertrags@@": 3885, 
  "800": 3886, 
  "ve": 3887, 
  "begleitet": 3888, 
  "Zoll@@": 3889, 
  "jetzigen": 3890, 
  "Beteiligten": 3891, 
  "Erinnerung": 3892, 
  "karte": 3893, 
  "Geschwindigkeit": 3894, 
  "nice": 3895, 
  "fördert": 3896, 
  "Binnenmarktes": 3897, 
  "Zahlungen": 3898, 
  "Bush": 3899, 
  "Jahrzehnten": 3900, 
  "Wochenende": 3901, 
  "Konflikte": 3902, 
  "bericht": 3903, 
  "griechischen": 3904, 
  "Handels": 3905, 
  "leichter": 3906, 
  "entdeckt": 3907, 
  "lu@@": 3908, 
  "zulassen": 3909, 
  "istischen": 3910, 
  "Gleichstellung": 3911, 
  "sucht": 3912, 
  "wirkt": 3913, 
  "gegangen": 3914, 
  "aktuell": 3915, 
  "Fahrt": 3916, 
  "Mutter": 3917, 
  "werfen": 3918, 
  "mi@@": 3919, 
  "aufgebaut": 3920, 
  "richtet": 3921, 
  "externen": 3922, 
  "untersucht": 3923, 
  "Resort": 3924, 
  "schweren": 3925, 
  "heutzutage": 3926, 
  "erweitern": 3927, 
  "fort": 3928, 
  "National": 3929, 
  "lin@@": 3930, 
  "beschränken": 3931, 
  "unterschiedlich": 3932, 
  "Berichten": 3933, 
  "ständigen": 3934, 
  "erfordern": 3935, 
  "bedanken": 3936, 
  "alter": 3937, 
  "Dritten": 3938, 
  "Computer@@": 3939, 
  "ser": 3940, 
  "straße": 3941, 
  "nachdrücklich": 3942, 
  "existiert": 3943, 
  "Förder@@": 3944, 
  "spreche": 3945, 
  "sti@@": 3946, 
  "Großteil": 3947, 
  "36": 3948, 
  "Innen@@": 3949, 
  "König": 3950, 
  "zugrunde": 3951, 
  "Barroso": 3952, 
  "Kreditkarte": 3953, 
  "Orte": 3954, 
  "Vorausschau": 3955, 
  "ds": 3956, 
  "West@@": 3957, 
  "Michael": 3958, 
  "überein": 3959, 
  "zurückzuführen": 3960, 
  "det": 3961, 
  "antworten": 3962, 
  "Schönheit": 3963, 
  "eingestellt": 3964, 
  "Agrar@@": 3965, 
  "klassischen": 3966, 
  "gemeinschaftlichen": 3967, 
  "PT": 3968, 
  "senken": 3969, 
  "ergänzt": 3970, 
  "umsetzen": 3971, 
  "spiel": 3972, 
  "Poker": 3973, 
  "Hamburg": 3974, 
  "wagen": 3975, 
  "Darstellung": 3976, 
  "wi@@": 3977, 
  "Tausende": 3978, 
  "Street": 3979, 
  "ist@@": 3980, 
  "zeichnet": 3981, 
  "gleich@@": 3982, 
  "ah@@": 3983, 
  "Verteilung": 3984, 
  "umfassend": 3985, 
  "besorgt": 3986, 
  "maschinen": 3987, 
  "eingegangen": 3988, 
  "Faktor": 3989, 
  "Ursachen": 3990, 
  "Quelle": 3991, 
  "geeignete": 3992, 
  "Papier": 3993, 
  "Arbeitsplatz": 3994, 
  "Investoren": 3995, 
  "mon@@": 3996, 
  "wachsen": 3997, 
  "Süd@@": 3998, 
  "generell": 3999, 
  "festzulegen": 4000, 
  "korrekt": 4001, 
  "Zeitung": 4002, 
  "Agenturen": 4003, 
  "einzuführen": 4004, 
  "Kriminalität": 4005, 
  "bes@@": 4006, 
  "hast": 4007, 
  "wonach": 4008, 
  "ität": 4009, 
  "Reise@@": 4010, 
  "Fest@@": 4011, 
  "enge": 4012, 
  "äre": 4013, 
  "freundliche": 4014, 
  "berichten": 4015, 
  "Generationen": 4016, 
  "98": 4017, 
  "grossen": 4018, 
  "enorme": 4019, 
  "Rechten": 4020, 
  "Anwender": 4021, 
  "schaft": 4022, 
  "genaue": 4023, 
  "Update": 4024, 
  "verwende": 4025, 
  "ed": 4026, 
  "beenden": 4027, 
  "•": 4028, 
  "time": 4029, 
  "empfohlen": 4030, 
  "Zug": 4031, 
  "para": 4032, 
  "Licht@@": 4033, 
  "Mission": 4034, 
  "min": 4035, 
  "Vertrages": 4036, 
  "Stiftung": 4037, 
  "Bereitschaft": 4038, 
  "steigern": 4039, 
  "tu@@": 4040, 
  "Liefer@@": 4041, 
  "einrichtungen": 4042, 
  "qualitativ": 4043, 
  "aktiven": 4044, 
  "anischen": 4045, 
  "reiche": 4046, 
  "schließt": 4047, 
  "great": 4048, 
  "bares": 4049, 
  "ado": 4050, 
  "Kopenhagen": 4051, 
  "bereiten": 4052, 
  "Euch": 4053, 
  "eigener": 4054, 
  "Haut": 4055, 
  "sm@@": 4056, 
  "......": 4057, 
  "modified": 4058, 
  "Rechtsstaatlichkeit": 4059, 
  "festgelegten": 4060, 
  "rate": 4061, 
  "Es": 4062, 
  "gesellschaft": 4063, 
  "Eingang": 4064, 
  "Museen": 4065, 
  "fassen": 4066, 
  "angewendet": 4067, 
  "verkehr": 4068, 
  "Energie@@": 4069, 
  "gefragt": 4070, 
  "wirken": 4071, 
  "Au@@": 4072, 
  "Gu@@": 4073, 
  "keinem": 4074, 
  "geräte": 4075, 
  "geh@@": 4076, 
  "optimal": 4077, 
  "House": 4078, 
  "digitalen": 4079, 
  "frühen": 4080, 
  "Parameter": 4081, 
  "bahn": 4082, 
  "bar@@": 4083, 
  "vornehmen": 4084, 
  "sammeln": 4085, 
  "Speisen": 4086, 
  "nützlich": 4087, 
  "geäußert": 4088, 
  "Innenstadt": 4089, 
  "Eisenbahn@@": 4090, 
  "Fernsehen": 4091, 
  "Öffnung": 4092, 
  "liste": 4093, 
  "fähig": 4094, 
  "offenbar": 4095, 
  "Stärke": 4096, 
  "Schloss": 4097, 
  "England": 4098, 
  "verweisen": 4099, 
  "festen": 4100, 
  "offizielle": 4101, 
  "Kaffee": 4102, 
  "tionen": 4103, 
  "Zwischen@@": 4104, 
  "stattfindet": 4105, 
  "Parkplätze": 4106, 
  "avec": 4107, 
  "Kompetenz": 4108, 
  "gestärkt": 4109, 
  "bu@@": 4110, 
  "Ä@@": 4111, 
  "Bearbeitung": 4112, 
  "Tal": 4113, 
  "Dokumenten": 4114, 
  "voraus": 4115, 
  "Kontinent": 4116, 
  "34": 4117, 
  "welt": 4118, 
  "Sk@@": 4119, 
  "Personal@@": 4120, 
  "31": 4121, 
  "30.": 4122, 
  "gr@@": 4123, 
  "Г": 4124, 
  "Verlauf": 4125, 
  "bild": 4126, 
  "verhalten": 4127, 
  "ck": 4128, 
  "türkischen": 4129, 
  "ada": 4130, 
  "Registrierung": 4131, 
  "Währungsunion": 4132, 
  "oftmals": 4133, 
  "Jugend": 4134, 
  "Zone": 4135, 
  "angebot": 4136, 
  "Frist": 4137, 
  "Symbol": 4138, 
  "Theater": 4139, 
  "Amerikaner": 4140, 
  "Umweltschutz": 4141, 
  "55": 4142, 
  "OS": 4143, 
  "Niederlanden": 4144, 
  "leiten": 4145, 
  "mögen": 4146, 
  "Bundes@@": 4147, 
  "Strecke": 4148, 
  "dasselbe": 4149, 
  "min@@": 4150, 
  "ologie": 4151, 
  "preis": 4152, 
  "Hardware": 4153, 
  "Berliner": 4154, 
  "Bibliothek": 4155, 
  "eu@@": 4156, 
  "selber": 4157, 
  "ak": 4158, 
  "herrlichen": 4159, 
  "Teams": 4160, 
  "ren@@": 4161, 
  "09": 4162, 
  "gelesen": 4163, 
  "Ferienwohnung": 4164, 
  "Kategorien": 4165, 
  "bewältigen": 4166, 
  "Friedens@@": 4167, 
  "rechtzeitig": 4168, 
  "zerstört": 4169, 
  "Überblick": 4170, 
  "33": 4171, 
  "age": 4172, 
  "sel@@": 4173, 
  "Allianz": 4174, 
  "sichergestellt": 4175, 
  "Fluss": 4176, 
  "überwinden": 4177, 
  "Volksgesundheit": 4178, 
  "angebracht": 4179, 
  "gegenwärtige": 4180, 
  "ungsp@@": 4181, 
  "Wirtschaftskrise": 4182, 
  "su@@": 4183, 
  "Kapital": 4184, 
  "selben": 4185, 
  "aufge@@": 4186, 
  "problem": 4187, 
  "ansonsten": 4188, 
  "stärkere": 4189, 
  "knapp": 4190, 
  "sa": 4191, 
  "Pakistan": 4192, 
  "Gelder": 4193, 
  "Wandel": 4194, 
  "bezahlt": 4195, 
  "te@@": 4196, 
  "eventuell": 4197, 
  "froh": 4198, 
  "Kampagne": 4199, 
  "Kor@@": 4200, 
  "99": 4201, 
  "Album": 4202, 
  "sichtbar": 4203, 
  "material": 4204, 
  "kontrolliert": 4205, 
  "th": 4206, 
  "Opposition": 4207, 
  "Kosten@@": 4208, 
  "Straßburg": 4209, 
  "denjenigen": 4210, 
  "Vereinfachung": 4211, 
  "unmittelbarer": 4212, 
  "bo@@": 4213, 
  "gesetzlichen": 4214, 
  "Potenzial": 4215, 
  "Länge": 4216, 
  "Bestimmung": 4217, 
  "Debatten": 4218, 
  "Bord": 4219, 
  "Suite": 4220, 
  "Presse": 4221, 
  "integrierten": 4222, 
  "struktur": 4223, 
  "stammt": 4224, 
  "effektive": 4225, 
  "fl@@": 4226, 
  "tik": 4227, 
  "Investitions@@": 4228, 
  "Belarus": 4229, 
  "Inn": 4230, 
  "Herbst": 4231, 
  "heraus@@": 4232, 
  "besucht": 4233, 
  "Zahlung": 4234, 
  "mar@@": 4235, 
  "Kal@@": 4236, 
  "tion@@": 4237, 
  "Bildungs@@": 4238, 
  "rat": 4239, 
  "Montag": 4240, 
  "Freund": 4241, 
  "tiges": 4242, 
  "Volks@@": 4243, 
  "tz@@": 4244, 
  "Berichterstatters": 4245, 
  "irischen": 4246, 
  "zurzeit": 4247, 
  "ler@@": 4248, 
  "gedacht": 4249, 
  "langfristigen": 4250, 
  "und@@": 4251, 
  "hart": 4252, 
  "stoffe": 4253, 
  "Tür": 4254, 
  "außen": 4255, 
  "Tonnen": 4256, 
  "europäisches": 4257, 
  "Eis@@": 4258, 
  "Erhaltung": 4259, 
  "Programm@@": 4260, 
  "ß": 4261, 
  "Wesentlichen": 4262, 
  "organisation": 4263, 
  "stehende": 4264, 
  "produzieren": 4265, 
  "clean": 4266, 
  "Zwei@@": 4267, 
  "erzeugen": 4268, 
  "IWF": 4269, 
  "derzeitige": 4270, 
  "angemessenen": 4271, 
  "Beseitigung": 4272, 
  "anzubieten": 4273, 
  "preise": 4274, 
  "zeit@@": 4275, 
  "Voll@@": 4276, 
  "genden": 4277, 
  "Schulden": 4278, 
  "Fisch@@": 4279, 
  "os@@": 4280, 
  "Email": 4281, 
  "fi@@": 4282, 
  "Maria": 4283, 
  "Q@@": 4284, 
  "unentgeltlich": 4285, 
  "negativen": 4286, 
  "Festival": 4287, 
  "Autos": 4288, 
  "Oberfläche": 4289, 
  "park": 4290, 
  "Parlamente": 4291, 
  "Sa@@": 4292, 
  "well": 4293, 
  "Kern": 4294, 
  "bedeutenden": 4295, 
  "stammen": 4296, 
  "Dritte": 4297, 
  "Mexiko": 4298, 
  "Projekts": 4299, 
  "1992": 4300, 
  "IS@@": 4301, 
  "Kandidaten": 4302, 
  "Cor@@": 4303, 
  "hinzugefügt": 4304, 
  "überlassen": 4305, 
  "13@@": 4306, 
  "ad": 4307, 
  "Mechanismen": 4308, 
  "typischen": 4309, 
  "Hei@@": 4310, 
  "12@@": 4311, 
  "software": 4312, 
  "Saison": 4313, 
  "ms": 4314, 
  "cht": 4315, 
  "spezialisiert": 4316, 
  "use": 4317, 
  "Benutzung": 4318, 
  "PPE": 4319, 
  "str@@": 4320, 
  "German": 4321, 
  "Dingen": 4322, 
  "professionelle": 4323, 
  "ländliche": 4324, 
  "get": 4325, 
  "AL@@": 4326, 
  "untersuchen": 4327, 
  "Lo@@": 4328, 
  "tier@@": 4329, 
  "errichtet": 4330, 
  "neun": 4331, 
  "Transport@@": 4332, 
  "alität": 4333, 
  "scher": 4334, 
  "chinesische": 4335, 
  "just": 4336, 
  "müsste": 4337, 
  "zug": 4338, 
  "kümmern": 4339, 
  "sah": 4340, 
  "Versorgung": 4341, 
  "entscheidenden": 4342, 
  "dauert": 4343, 
  "friendly": 4344, 
  "Detail": 4345, 
  "isierung": 4346, 
  "Bedürfnissen": 4347, 
  "Minute": 4348, 
  "cher": 4349, 
  "Zypern": 4350, 
  "Drittel": 4351, 
  "Tests": 4352, 
  "realer": 4353, 
  "vorgestellt": 4354, 
  "leistungen": 4355, 
  "Innovationen": 4356, 
  "more": 4357, 
  "rechnen": 4358, 
  "free": 4359, 
  "gu@@": 4360, 
  "Ferien@@": 4361, 
  "kostenlose": 4362, 
  "soeben": 4363, 
  "Berg": 4364, 
  "Boot": 4365, 
  "berechnet": 4366, 
  "Lu@@": 4367, 
  "Senkung": 4368, 
  "finanzieren": 4369, 
  "Winter@@": 4370, 
  "rechts@@": 4371, 
  "S.": 4372, 
  "Augenblick": 4373, 
  "weltweite": 4374, 
  "beinhalten": 4375, 
  "they": 4376, 
  "praktischen": 4377, 
  "auffordern": 4378, 
  "ausgewählt": 4379, 
  "om": 4380, 
  "Berge": 4381, 
  "So@@": 4382, 
  "Regulierung": 4383, 
  "sitzen": 4384, 
  "gekennzeichnet": 4385, 
  "erkannt": 4386, 
  "Menschenrechts@@": 4387, 
  "Fläche": 4388, 
  "erklärte": 4389, 
  "afrikanischen": 4390, 
  "illegale": 4391, 
  "Martin": 4392, 
  "iz@@": 4393, 
  "Häuser": 4394, 
  "Institut": 4395, 
  "20@@": 4396, 
  "grünen": 4397, 
  "Hinweise": 4398, 
  "Ägypten": 4399, 
  "Gemeinsame": 4400, 
  "Ru@@": 4401, 
  "chten": 4402, 
  "Zusammenhalt": 4403, 
  "Appartements": 4404, 
  "dung": 4405, 
  "Autobahn": 4406, 
  "Hindernisse": 4407, 
  "erkunden": 4408, 
  "Radio": 4409, 
  "3.@@": 4410, 
  "Hauptbahnhof": 4411, 
  "Se@@": 4412, 
  "befasst": 4413, 
  "Staats-": 4414, 
  "Pflanzen": 4415, 
  "freut": 4416, 
  "wesentlicher": 4417, 
  "Erlebnis": 4418, 
  "JavaScript": 4419, 
  "Holz": 4420, 
  "Mechanismus": 4421, 
  "Sicherheitspolitik": 4422, 
  "Premierminister": 4423, 
  "leistung": 4424, 
  "Todesstrafe": 4425, 
  "Dialogs": 4426, 
  "Beachtung": 4427, 
  "Vi@@": 4428, 
  "Peter": 4429, 
  "renoviert": 4430, 
  "Mandat": 4431, 
  "only": 4432, 
  "Vertretern": 4433, 
  "Nachhaltigkeit": 4434, 
  "Anmeldung": 4435, 
  "müssten": 4436, 
  "täglichen": 4437, 
  "Ergebnissen": 4438, 
  "älteren": 4439, 
  "Jugendlichen": 4440, 
  "Sonntag": 4441, 
  "ex@@": 4442, 
  "Ansprüche": 4443, 
  "vollständigen": 4444, 
  "AS@@": 4445, 
  "Luxemburg": 4446, 
  "ungsan@@": 4447, 
  "festzustellen": 4448, 
  "wahr": 4449, 
  "ini": 4450, 
  "va": 4451, 
  "Übertragung": 4452, 
  "Min@@": 4453, 
  "Lei@@": 4454, 
  "schwere": 4455, 
  "Blut@@": 4456, 
  "Spielen": 4457, 
  "Kurz@@": 4458, 
  "stein": 4459, 
  "geblieben": 4460, 
  "beeinflussen": 4461, 
  "Wer@@": 4462, 
  "Truppen": 4463, 
  "produkten": 4464, 
  "Urteil": 4465, 
  "behält": 4466, 
  "drücken": 4467, 
  "Wirksamkeit": 4468, 
  "gefährdet": 4469, 
  "ruhige": 4470, 
  "inen": 4471, 
  "Käufer": 4472, 
  "Energieeffizienz": 4473, 
  "entfernen": 4474, 
  "zer": 4475, 
  "verletzt": 4476, 
  "planen": 4477, 
  "führung": 4478, 
  "Glas@@": 4479, 
  "Spezialitäten": 4480, 
  "Widerstand": 4481, 
  "cken": 4482, 
  "land@@": 4483, 
  "gewählten": 4484, 
  "UN@@": 4485, 
  "linken": 4486, 
  "Entfernung": 4487, 
  "Journalisten": 4488, 
  "Flash": 4489, 
  "Super@@": 4490, 
  "25.": 4491, 
  "nehme": 4492, 
  "Immobilien": 4493, 
  "schwierige": 4494, 
  "ys": 4495, 
  "Entwickler": 4496, 
  "wider@@": 4497, 
  "Versammlung": 4498, 
  "fer": 4499, 
  "wirkliche": 4500, 
  "neu@@": 4501, 
  "Paul": 4502, 
  "erin": 4503, 
  "Ton@@": 4504, 
  "Typ": 4505, 
  "sa@@": 4506, 
  "ante": 4507, 
  "ik": 4508, 
  "GAP": 4509, 
  "Zusammen@@": 4510, 
  "Finnland": 4511, 
  "oren": 4512, 
  "spät": 4513, 
  "fläche": 4514, 
  "kennt": 4515, 
  "angewandt": 4516, 
  "gesellschaften": 4517, 
  "Datum": 4518, 
  "ergänzen": 4519, 
  "führer": 4520, 
  "digitale": 4521, 
  "beabsichtigt": 4522, 
  "Reform@@": 4523, 
  "geregelt": 4524, 
  "Präsenz": 4525, 
  "hervorragend": 4526, 
  "Wohnzimmer": 4527, 
  "Airport": 4528, 
  "Betreuung": 4529, 
  "Media": 4530, 
  "ai": 4531, 
  "liegenden": 4532, 
  "besonderes": 4533, 
  "Dokumentation": 4534, 
  "Bal@@": 4535, 
  "Kohäsionspolitik": 4536, 
  "Strände": 4537, 
  "langer": 4538, 
  "verringert": 4539, 
  "Mädchen": 4540, 
  "08": 4541, 
  "Boden@@": 4542, 
  "Ku@@": 4543, 
  "festlegen": 4544, 
  "prozesses": 4545, 
  "Räume": 4546, 
  "Gemeinschaften": 4547, 
  "Ratschlag": 4548, 
  "views": 4549, 
  "tions@@": 4550, 
  "armen": 4551, 
  "ansehen": 4552, 
  "250": 4553, 
  "1000": 4554, 
  "Verzeichnis": 4555, 
  "ehemalige": 4556, 
  "italienische": 4557, 
  "anzunehmen": 4558, 
  "Cookies": 4559, 
  "sparen": 4560, 
  "De@@": 4561, 
  "Gast@@": 4562, 
  "aller@@": 4563, 
  "palästinensischen": 4564, 
  "Verwirklichung": 4565, 
  "ären": 4566, 
  "steuern": 4567, 
  "bewerten": 4568, 
  "spiele": 4569, 
  "Modernisierung": 4570, 
  "ata": 4571, 
  "plan": 4572, 
  "eter": 4573, 
  "Vorstellungen": 4574, 
  "Aufzug": 4575, 
  "Sieg": 4576, 
  "1990": 4577, 
  "ansprechen": 4578, 
  "Spitze": 4579, 
  "ges": 4580, 
  "fe": 4581, 
  "ett": 4582, 
  "hinweg": 4583, 
  "aufzubauen": 4584, 
  "1993": 4585, 
  "aktiviert": 4586, 
  "Zuge": 4587, 
  "ses": 4588, 
  "co": 4589, 
  "Wirtschaftspolitik": 4590, 
  "humanitären": 4591, 
  "probleme": 4592, 
  "Video@@": 4593, 
  "ie@@": 4594, 
  "42": 4595, 
  "Pal@@": 4596, 
  "ken@@": 4597, 
  "mittel@@": 4598, 
  "Übrigen": 4599, 
  "37": 4600, 
  "manchen": 4601, 
  "National@@": 4602, 
  "Bücher": 4603, 
  "Ost@@": 4604, 
  "kar@@": 4605, 
  "mehrfach": 4606, 
  "Weiterentwicklung": 4607, 
  "bewahren": 4608, 
  "Doppelzimmer": 4609, 
  "angenehmen": 4610, 
  "zukommen": 4611, 
  "Betriebe": 4612, 
  "m2": 4613, 
  "lädt": 4614, 
  "organisationen": 4615, 
  "Errichtung": 4616, 
  "Schüler": 4617, 
  "ó@@": 4618, 
  "bearbeiten": 4619, 
  "gende": 4620, 
  "geliefert": 4621, 
  "Gar@@": 4622, 
  "Außen-": 4623, 
  "Unterkünfte": 4624, 
  "West": 4625, 
  "ks": 4626, 
  "San@@": 4627, 
  "versteht": 4628, 
  "city": 4629, 
  "Argumente": 4630, 
  "enthalt": 4631, 
  "Volkswirtschaften": 4632, 
  "Gen@@": 4633, 
  "Bildern": 4634, 
  "gründen": 4635, 
  "Rad@@": 4636, 
  "Pan@@": 4637, 
  "nutzt": 4638, 
  "Schengen": 4639, 
  "ari@@": 4640, 
  "Flughäfen": 4641, 
  "Werten": 4642, 
  "Traditionen": 4643, 
  "Wähler": 4644, 
  "gegebenenfalls": 4645, 
  "bereitet": 4646, 
  "kt": 4647, 
  "lau@@": 4648, 
  "Fahrer": 4649, 
  "Wellness": 4650, 
  "Wohnungen": 4651, 
  "65": 4652, 
  "Wiederaufbau": 4653, 
  "ess@@": 4654, 
  "Samstag": 4655, 
  "kontextuellen": 4656, 
  "Ausarbeitung": 4657, 
  "Le@@": 4658, 
  "entdeckst": 4659, 
  "enger": 4660, 
  "Akteure": 4661, 
  "Not@@": 4662, 
  "chte": 4663, 
  "Saint": 4664, 
  "Arbeitnehmern": 4665, 
  "Annehmlichkeiten": 4666, 
  "Sektors": 4667, 
  "Auflösung": 4668, 
  "Grundlagen": 4669, 
  "genauer": 4670, 
  "ek": 4671, 
  "07": 4672, 
  "Listings": 4673, 
  "aden": 4674, 
  "¼": 4675, 
  "rü@@": 4676, 
  "tan@@": 4677, 
  "Philosophie": 4678, 
  "anische": 4679, 
  "Religion": 4680, 
  "lösung": 4681, 
  "melden": 4682, 
  "gemeinsames": 4683, 
  "solch": 4684, 
  "Finde": 4685, 
  "Wissenschaftler": 4686, 
  "ta@@": 4687, 
  "Krieges": 4688, 
  "tri@@": 4689, 
  "Ur@@": 4690, 
  "hinzufugen": 4691, 
  "eingebracht": 4692, 
  "Objekte": 4693, 
  "zweiter": 4694, 
  "grammatisch": 4695, 
  "Sonnen@@": 4696, 
  "Obama": 4697, 
  "Y": 4698, 
  "kontextuell": 4699, 
  "General": 4700, 
  "és": 4701, 
  "best@@": 4702, 
  "entstand": 4703, 
  "definieren": 4704, 
  "Serbien": 4705, 
  "Modul": 4706, 
  "enormen": 4707, 
  "Europe": 4708, 
  "gemütliche": 4709, 
  "verwendeten": 4710, 
  "Orten": 4711, 
  "Effekt": 4712, 
  "spiel@@": 4713, 
  "Schlusselwort": 4714, 
  "überwachen": 4715, 
  "Schlusselphrase": 4716, 
  "umso": 4717, 
  "ven": 4718, 
  "Florenz": 4719, 
  "beseitigen": 4720, 
  "ierter": 4721, 
  "super": 4722, 
  "IT@@": 4723, 
  "aufgezahlt": 4724, 
  "Tieren": 4725, 
  "bereichen": 4726, 
  "offiziell": 4727, 
  "erteilt": 4728, 
  "ID": 4729, 
  "Umweltfragen": 4730, 
  "Th@@": 4731, 
  "Klima@@": 4732, 
  "vorzunehmen": 4733, 
  "Sub@@": 4734, 
  "Verbraucherschutz": 4735, 
  "anwenden": 4736, 
  "Straßen@@": 4737, 
  "ausüben": 4738, 
  "Fern@@": 4739, 
  "Com@@": 4740, 
  "gesellschaftlichen": 4741, 
  "Filme": 4742, 
  "vorliegen": 4743, 
  "programmen": 4744, 
  "è@@": 4745, 
  "reagiert": 4746, 
  "tungen": 4747, 
  "tsp@@": 4748, 
  "elegante": 4749, 
  "š@@": 4750, 
  "Card": 4751, 
  "Internetzugang": 4752, 
  "RE@@": 4753, 
  "Ausbau": 4754, 
  "ang@@": 4755, 
  "aufbauen": 4756, 
  "desto": 4757, 
  "Dänemark": 4758, 
  "beantwortet": 4759, 
  "reise": 4760, 
  "vorgelegten": 4761, 
  "Anti@@": 4762, 
  "gelassen": 4763, 
  "Nizza": 4764, 
  "vermutlich": 4765, 
  "Aussage": 4766, 
  "Wander@@": 4767, 
  "gew@@": 4768, 
  "Russlands": 4769, 
  "Satz": 4770, 
  "stell@@": 4771, 
  "ECU": 4772, 
  "Himmel": 4773, 
  "tw@@": 4774, 
  "Katalog": 4775, 
  "freundlichen": 4776, 
  "erstes": 4777, 
  "teilt": 4778, 
  "Java": 4779, 
  "eingeleitet": 4780, 
  "günstige": 4781, 
  "Deutschlands": 4782, 
  "umgehen": 4783, 
  "ats": 4784, 
  "Vordergrund": 4785, 
  "zentren": 4786, 
  "professionellen": 4787, 
  "Ausweitung": 4788, 
  "ver": 4789, 
  "jährigen": 4790, 
  "technisch": 4791, 
  "keineswegs": 4792, 
  "Übergang": 4793, 
  "NICHT": 4794, 
  "südlichen": 4795, 
  "alismus": 4796, 
  "elektronische": 4797, 
  "nächster": 4798, 
  "verstehe": 4799, 
  "38": 4800, 
  "go@@": 4801, 
  "Airbus": 4802, 
  "integrierte": 4803, 
  "Internationale": 4804, 
  "31.": 4805, 
  "Jean": 4806, 
  "97": 4807, 
  "Inflation": 4808, 
  "gem@@": 4809, 
  "Berufs@@": 4810, 
  "Br@@": 4811, 
  "lösungen": 4812, 
  "Ein": 4813, 
  "Universitäten": 4814, 
  "Rechner": 4815, 
  "kleinere": 4816, 
  "ich@@": 4817, 
  "bl@@": 4818, 
  "gewidmet": 4819, 
  "Mängel": 4820, 
  "Besitz": 4821, 
  "günstigen": 4822, 
  "Vorsitzenden": 4823, 
  "messen": 4824, 
  "e-": 4825, 
  "Ruf": 4826, 
  "este": 4827, 
  "wege": 4828, 
  "ings": 4829, 
  "excellent": 4830, 
  "Nord": 4831, 
  "Erwachsene": 4832, 
  "Bestätigung": 4833, 
  "Souveränität": 4834, 
  "Macht@@": 4835, 
  "satz": 4836, 
  "innovativen": 4837, 
  "kur@@": 4838, 
  "me@@": 4839, 
  "Werkzeug": 4840, 
  "interne": 4841, 
  "96": 4842, 
  "La@@": 4843, 
  "hilfreich": 4844, 
  "ständige": 4845, 
  "Gegner": 4846, 
  "hochwertigen": 4847, 
  "tur@@": 4848, 
  "Such@@": 4849, 
  "con@@": 4850, 
  "Bezeichnung": 4851, 
  "Erfolge": 4852, 
  "löschen": 4853, 
  "Tools": 4854, 
  "landwirtschaftlichen": 4855, 
  "64": 4856, 
  "Soldaten": 4857, 
  "fin@@": 4858, 
  "seitdem": 4859, 
  "räume": 4860, 
  "veröffentlichen": 4861, 
  "haften": 4862, 
  "Audio": 4863, 
  "Spaziergang": 4864, 
  "netz": 4865, 
  "Pi@@": 4866, 
  "ausgehen": 4867, 
  "ica": 4868, 
  "Zweiten": 4869, 
  "Gottes": 4870, 
  "erhoben": 4871, 
  "Kauf@@": 4872, 
  "24.": 4873, 
  "davor": 4874, 
  "Vereinigte": 4875, 
  "Eigen@@": 4876, 
  "linie": 4877, 
  "ore": 4878, 
  "wesen": 4879, 
  "Tool": 4880, 
  "Niederlande": 4881, 
  "El@@": 4882, 
  "Argument": 4883, 
  "ökologischen": 4884, 
  "Win@@": 4885, 
  "höchst": 4886, 
  "leg@@": 4887, 
  "for@@": 4888, 
  "go": 4889, 
  "aner": 4890, 
  "etten": 4891, 
  "s-": 4892, 
  "größter": 4893, 
  "herzustellen": 4894, 
  "Go@@": 4895, 
  "Plan@@": 4896, 
  "--": 4897, 
  "niveau": 4898, 
  "Plaza": 4899, 
  "Existenz": 4900, 
  "parlamentarischen": 4901, 
  "vollem": 4902, 
  "vorschriften": 4903, 
  "steigt": 4904, 
  "konsequent": 4905, 
  "üblichen": 4906, 
  "Prag": 4907, 
  "Ehre": 4908, 
  "ausländischen": 4909, 
  "effizienter": 4910, 
  "nicht@@": 4911, 
  "Fassung": 4912, 
  "USS": 4913, 
  "verbreitet": 4914, 
  "projekte": 4915, 
  "typisch": 4916, 
  "Sekunden": 4917, 
  "Anbetracht": 4918, 
  "stärksten": 4919, 
  "weiten": 4920, 
  "Prodi": 4921, 
  "umfassen": 4922, 
  "angenehm": 4923, 
  "negative": 4924, 
  "Venedig": 4925, 
  "Zentral@@": 4926, 
  "Mu@@": 4927, 
  "4.@@": 4928, 
  "ark@@": 4929, 
  "Nichtraucherzimmer": 4930, 
  "Verhandlungs@@": 4931, 
  "nahmen": 4932, 
  "ard": 4933, 
  "entgegen@@": 4934, 
  "früh": 4935, 
  "tischer": 4936, 
  "kontrolle": 4937, 
  "weite": 4938, 
  "Western": 4939, 
  "Entschlossenheit": 4940, 
  "Konvent": 4941, 
  "ungeachtet": 4942, 
  "vo@@": 4943, 
  "Kommentare": 4944, 
  "Prozeß": 4945, 
  "bildung": 4946, 
  "Modus": 4947, 
  "modell": 4948, 
  "Tauch@@": 4949, 
  "fach@@": 4950, 
  "Ausblick": 4951, 
  "tor@@": 4952, 
  "erwiesen": 4953, 
  "schwedischen": 4954, 
  "Körper@@": 4955, 
  "auswählen": 4956, 
  "beteiligten": 4957, 
  "Har@@": 4958, 
  "helpful": 4959, 
  "wächst": 4960, 
  "Lounge": 4961, 
  "nummer": 4962, 
  "fonds": 4963, 
  "Anmerkungen": 4964, 
  "intensiv": 4965, 
  "Kyoto": 4966, 
  "Demokraten": 4967, 
  "MySQL": 4968, 
  "ausgegeben": 4969, 
  "jüngste": 4970, 
  "berichtet": 4971, 
  "existieren": 4972, 
  "Ablauf": 4973, 
  "Telefon@@": 4974, 
  "widmen": 4975, 
  "Ad@@": 4976, 
  "erheben": 4977, 
  "Motor": 4978, 
  "maximal": 4979, 
  "bedroht": 4980, 
  "ton": 4981, 
  "hohes": 4982, 
  "AR@@": 4983, 
  "Client": 4984, 
  "Kompetenzen": 4985, 
  "Verbrauchern": 4986, 
  "komplexe": 4987, 
  "legte": 4988, 
  "III": 4989, 
  "berühmte": 4990, 
  "einst": 4991, 
  "falsche": 4992, 
  "kombiniert": 4993, 
  "Publikum": 4994, 
  "passt": 4995, 
  "120": 4996, 
  "Schreiben": 4997, 
  "Gebühren": 4998, 
  "istische": 4999, 
  "enes": 5000, 
  "Aspekten": 5001, 
  "bewegt": 5002, 
  "Lehrer": 5003, 
  "era": 5004, 
  "lenken": 5005, 
  "Erreichung": 5006, 
  "Drei@@": 5007, 
  "derart": 5008, 
  "Ausrüstung": 5009, 
  "überrascht": 5010, 
  "ft@@": 5011, 
  "ya": 5012, 
  "ersch@@": 5013, 
  "parallel": 5014, 
  "erwerben": 5015, 
  "Ja": 5016, 
  "Ratifizierung": 5017, 
  "fehlen": 5018, 
  "bewußt": 5019, 
  "mu@@": 5020, 
  "grenzüberschreitenden": 5021, 
  "chemische": 5022, 
  "wunderschöne": 5023, 
  "ass@@": 5024, 
  "gh@@": 5025, 
  "tierte": 5026, 
  "18@@": 5027, 
  "Rotary": 5028, 
  "Heimat": 5029, 
  "öffentlicher": 5030, 
  "arabischen": 5031, 
  "Zusatz@@": 5032, 
  "anten": 5033, 
  "gem": 5034, 
  "Ausbildungs@@": 5035, 
  "Beach": 5036, 
  "Reg@@": 5037, 
  "erkennt": 5038, 
  "beibehalten": 5039, 
  "kostenlosen": 5040, 
  "spanische": 5041, 
  "Slowakei": 5042, 
  "39": 5043, 
  "ll@@": 5044, 
  "Dis@@": 5045, 
  "Bio@@": 5046, 
  "bad": 5047, 
  "fährt": 5048, 
  "chen@@": 5049, 
  "Mark@@": 5050, 
  "Behörde": 5051, 
  "ähnlichen": 5052, 
  "Vorrang": 5053, 
  "Via": 5054, 
  "karten": 5055, 
  "ehrlich": 5056, 
  "Wald@@": 5057, 
  "geschichte": 5058, 
  "eres": 5059, 
  "ang": 5060, 
  "unterschiedlicher": 5061, 
  "alisiert": 5062, 
  "GNU": 5063, 
  "Luxus": 5064, 
  "Konvention": 5065, 
  "behörden": 5066, 
  "Office": 5067, 
  "len@@": 5068, 
  "wachsende": 5069, 
  "Lateinamerika": 5070, 
  "Durchsetzung": 5071, 
  "wechseln": 5072, 
  "Autor": 5073, 
  "umgehend": 5074, 
  "vermittelt": 5075, 
  "Ursache": 5076, 
  "ziele": 5077, 
  "Rennen": 5078, 
  "Gemeinden": 5079, 
  "ausländische": 5080, 
  "Festplatte": 5081, 
  "Bestellungen": 5082, 
  "hand@@": 5083, 
  "Klarheit": 5084, 
  "Skype": 5085, 
  "Statistiken": 5086, 
  "Steigerung": 5087, 
  "Weine": 5088, 
  "centre": 5089, 
  "1989": 5090, 
  "branche": 5091, 
  "1,@@": 5092, 
  "bewertet": 5093, 
  "Wichtigkeit": 5094, 
  "Küsten@@": 5095, 
  "22.": 5096, 
  "zone": 5097, 
  "War@@": 5098, 
  "vertritt": 5099, 
  "mithilfe": 5100, 
  "Fleisch": 5101, 
  "Australien": 5102, 
  "ant@@": 5103, 
  "Haushalts": 5104, 
  "verurteilen": 5105, 
  "az@@": 5106, 
  "aktualisiert": 5107, 
  "flexibel": 5108, 
  "res@@": 5109, 
  "standen": 5110, 
  "Schicksal": 5111, 
  "zentraler": 5112, 
  "erteilen": 5113, 
  "Ausrichtung": 5114, 
  "700": 5115, 
  "rä@@": 5116, 
  "behauptet": 5117, 
  "Felder": 5118, 
  "mitteln": 5119, 
  "Netz@@": 5120, 
  "Entwicklungshilfe": 5121, 
  "restaurant": 5122, 
  "zeichnen": 5123, 
  "Ereignis": 5124, 
  "Dynamik": 5125, 
  "geleitet": 5126, 
  "abend": 5127, 
  "langem": 5128, 
  "beweisen": 5129, 
  "jährlichen": 5130, 
  "Nieder@@": 5131, 
  "Häfen": 5132, 
  "anzuwenden": 5133, 
  "Vorgehensweise": 5134, 
  "Innen": 5135, 
  "Garantien": 5136, 
  "Tor": 5137, 
  "User": 5138, 
  "mel@@": 5139, 
  "lebens@@": 5140, 
  "hal@@": 5141, 
  "Kenntnisse": 5142, 
  "strukturen": 5143, 
  "Abteilung": 5144, 
  "Brücke": 5145, 
  "mail": 5146, 
  "präzise": 5147, 
  "Hände": 5148, 
  "geringen": 5149, 
  "sterben": 5150, 
  "decken": 5151, 
  "Mehr@@": 5152, 
  "ven@@": 5153, 
  "Volkspartei": 5154, 
  "medizinische": 5155, 
  "IS": 5156, 
  "einiges": 5157, 
  "Kommissionspräsident": 5158, 
  "lich@@": 5159, 
  "gef@@": 5160, 
  "jährige": 5161, 
  "Palette": 5162, 
  "Seele": 5163, 
  "Plätze": 5164, 
  "mes": 5165, 
  "gestellten": 5166, 
  "iges": 5167, 
  "räumen": 5168, 
  "setzte": 5169, 
  "markt@@": 5170, 
  "institutionelle": 5171, 
  "unver@@": 5172, 
  "gefährlich": 5173, 
  "befürworten": 5174, 
  "fahrt": 5175, 
  "Neben@@": 5176, 
  "Kriegs@@": 5177, 
  "regelung": 5178, 
  "verursachen": 5179, 
  "russische": 5180, 
  "Fortsetzung": 5181, 
  "č@@": 5182, 
  "Ferienwohnungen": 5183, 
  "dieselbe": 5184, 
  "anzupassen": 5185, 
  "1991": 5186, 
  "engen": 5187, 
  "Weltkrieg": 5188, 
  "beinahe": 5189, 
  "Versprechen": 5190, 
  "Werkzeuge": 5191, 
  "Gold@@": 5192, 
  "automatische": 5193, 
  "umfangreichen": 5194, 
  "Strom": 5195, 
  "erarbeitet": 5196, 
  "Menschheit": 5197, 
  "Ges@@": 5198, 
  "gs": 5199, 
  "ausgestattete": 5200, 
  "gemütlichen": 5201, 
  "Zimmerbeschreibung": 5202, 
  "wirklichen": 5203, 
  "erheblichen": 5204, 
  "Tages@@": 5205, 
  "ara": 5206, 
  "Währungs@@": 5207, 
  "gang": 5208, 
  "respektieren": 5209, 
  "leichte": 5210, 
  "atoren": 5211, 
  "Betreiber": 5212, 
  "ebene": 5213, 
  "op": 5214, 
  "Motor@@": 5215, 
  "Bett": 5216, 
  "Lager": 5217, 
  "Zuverlässigkeit": 5218, 
  "punkte": 5219, 
  "begegnen": 5220, 
  "dieselben": 5221, 
  "Aussagen": 5222, 
  "geehrte": 5223, 
  "NL": 5224, 
  "bewegung": 5225, 
  "könne": 5226, 
  "Burg": 5227, 
  "Kürze": 5228, 
  "05": 5229, 
  "Zürich": 5230, 
  "stattgefunden": 5231, 
  "deutliche": 5232, 
  "Alternativen": 5233, 
  "Reinigung": 5234, 
  "Offenheit": 5235, 
  "Einzelheiten": 5236, 
  "ssen": 5237, 
  "Lieferanten": 5238, 
  "komplexen": 5239, 
  "greifen": 5240, 
  "erleichtert": 5241, 
  "uneingeschränkt": 5242, 
  "holen": 5243, 
  "Por@@": 5244, 
  "Kennzeichnung": 5245, 
  "einander": 5246, 
  "angekündigt": 5247, 
  "Wei@@": 5248, 
  "niedrigen": 5249, 
  "Inhalten": 5250, 
  "raten": 5251, 
  "nieder@@": 5252, 
  "sogenannte": 5253, 
  "Problematik": 5254, 
  "Show": 5255, 
  "oc@@": 5256, 
  "Fans": 5257, 
  "03": 5258, 
  "lo": 5259, 
  "ku@@": 5260, 
  "gestartet": 5261, 
  "programms": 5262, 
  "tierten": 5263, 
  "AT@@": 5264, 
  "fortsetzen": 5265, 
  "maschine": 5266, 
  "wider": 5267, 
  "innere": 5268, 
  "43": 5269, 
  "Mischung": 5270, 
  "Nachdruck": 5271, 
  "Revision": 5272, 
  "Betracht": 5273, 
  "able": 5274, 
  "Gesicht": 5275, 
  "Verbraucher@@": 5276, 
  "zustande": 5277, 
  "Strom@@": 5278, 
  "Lern@@": 5279, 
  "auswirken": 5280, 
  "kurzer": 5281, 
  "23.": 5282, 
  "eleganten": 5283, 
  "2012": 5284, 
  "Im@@": 5285, 
  "Bewusstsein": 5286, 
  "49": 5287, 
  "gingen": 5288, 
  "verk@@": 5289, 
  "of@@": 5290, 
  "fahr@@": 5291, 
  "funktion": 5292, 
  "pp@@": 5293, 
  "Beschränkungen": 5294, 
  "vier@@": 5295, 
  "Stahl@@": 5296, 
  "Netze": 5297, 
  "Bauern": 5298, 
  "getrennt": 5299, 
  "realisiert": 5300, 
  "Kredit@@": 5301, 
  "Zeitplan": 5302, 
  "regionaler": 5303, 
  "A5": 5304, 
  "02": 5305, 
  "David": 5306, 
  "Syrien": 5307, 
  "Georgien": 5308, 
  "about": 5309, 
  "derselben": 5310, 
  "\\": 5311, 
  "empfängt": 5312, 
  "mehr@@": 5313, 
  "bedauerlich": 5314, 
  "Hostelsclub": 5315, 
  "Fahrzeug": 5316, 
  "и": 5317, 
  "endgültige": 5318, 
  "Drogen": 5319, 
  "Text@@": 5320, 
  "moderner": 5321, 
  "ES@@": 5322, 
  "Kl@@": 5323, 
  "tungs@@": 5324, 
  "Ministerpräsident": 5325, 
  "Washington": 5326, 
  "Jugend@@": 5327, 
  "Zielsetzungen": 5328, 
  "vorliegt": 5329, 
  "á": 5330, 
  "genießt": 5331, 
  "MS": 5332, 
  "Südafrika": 5333, 
  "gemeinsamer": 5334, 
  "zwölf": 5335, 
  "Gesetzes@@": 5336, 
  "sam@@": 5337, 
  "verschaffen": 5338, 
  "Minderheit": 5339, 
  "österreichischen": 5340, 
  "Glauben": 5341, 
  "erweisen": 5342, 
  "ov@@": 5343, 
  "Sand@@": 5344, 
  "einzig": 5345, 
  "schl@@": 5346, 
  "Bus@@": 5347, 
  "Sol@@": 5348, 
  "comfortable": 5349, 
  "tatsächlichen": 5350, 
  "close": 5351, 
  "freier": 5352, 
  "Eröffnung": 5353, 
  "ierende": 5354, 
  "verzichten": 5355, 
  "Protokolls": 5356, 
  "would": 5357, 
  "Fisch": 5358, 
  "Würde": 5359, 
  "verwiesen": 5360, 
  "Ü@@": 5361, 
  "leistet": 5362, 
  "Übersicht": 5363, 
  "staaten": 5364, 
  "ow@@": 5365, 
  "Lebensmittelsicherheit": 5366, 
  "geringer": 5367, 
  "Wahrung": 5368, 
  "Ausnahmen": 5369, 
  "Übernahme": 5370, 
  "Fl@@": 5371, 
  "Gra@@": 5372, 
  "betrieb": 5373, 
  "anerkennen": 5374, 
  "geschickt": 5375, 
  "Produktivität": 5376, 
  "erforderliche": 5377, 
  "pool": 5378, 
  "erwähnten": 5379, 
  "view": 5380, 
  "Handy": 5381, 
  "44": 5382, 
  "ic": 5383, 
  "Gewinn": 5384, 
  "ES": 5385, 
  "net": 5386, 
  "06": 5387, 
  "Nachmittag": 5388, 
  "Erarbeitung": 5389, 
  "Gr@@": 5390, 
  "§": 5391, 
  "gung": 5392, 
  "formuliert": 5393, 
  "ato": 5394, 
  "erstreckt": 5395, 
  "werten": 5396, 
  "ai@@": 5397, 
  "Taten": 5398, 
  "Tabak@@": 5399, 
  "CO@@": 5400, 
  "wahre": 5401, 
  "tliche": 5402, 
  "Elektro@@": 5403, 
  "eröffnen": 5404, 
  "News": 5405, 
  "Anti": 5406, 
  "Händen": 5407, 
  "Chancengleichheit": 5408, 
  "enn@@": 5409, 
  "bezeichnen": 5410, 
  "anpassen": 5411, 
  "ursprüngliche": 5412, 
  "Val@@": 5413, 
  "technischer": 5414, 
  "Bürokratie": 5415, 
  "zugestimmt": 5416, 
  "fs": 5417, 
  "trat": 5418, 
  "Events": 5419, 
  "Mac": 5420, 
  "Bitte": 5421, 
  "USD": 5422, 
  "vereint": 5423, 
  "¶": 5424, 
  "ee": 5425, 
  "übermitteln": 5426, 
  "vorsieht": 5427, 
  "verabschieden": 5428, 
  "Safe": 5429, 
  "interessanten": 5430, 
  "retten": 5431, 
  "geeigneten": 5432, 
  "sprachen": 5433, 
  "Steuer": 5434, 
  "Appartement": 5435, 
  "Objekt": 5436, 
  "any": 5437, 
  "komfortablen": 5438, 
  "erarbeiten": 5439, 
  "Zerstörung": 5440, 
  "Hel@@": 5441, 
  "ausgehend": 5442, 
  "gering": 5443, 
  "anzeigen": 5444, 
  "Herkunft": 5445, 
  "religiösen": 5446, 
  "verwaltung": 5447, 
  "Hilfs@@": 5448, 
  "Ju@@": 5449, 
  "Empfang": 5450, 
  "Rückgang": 5451, 
  "5.@@": 5452, 
  "located": 5453, 
  "RO": 5454, 
  "ko": 5455, 
  "Anwendungs@@": 5456, 
  "Wettbewerbs": 5457, 
  "Abbau": 5458, 
  "Benutzer@@": 5459, 
  "richtlinie": 5460, 
  "Schw@@": 5461, 
  "Massen@@": 5462, 
  "Updates": 5463, 
  "Händler": 5464, 
  "son@@": 5465, 
  "ev@@": 5466, 
  "Privatsphäre": 5467, 
  "hiermit": 5468, 
  "Gas": 5469, 
  "methoden": 5470, 
  "geringe": 5471, 
  "region": 5472, 
  "höchster": 5473, 
  "gewünschte": 5474, 
  "Nicht": 5475, 
  "Ho@@": 5476, 
  "0,@@": 5477, 
  "maximale": 5478, 
  "zugelassen": 5479, 
  "verarbeitet": 5480, 
  "fu@@": 5481, 
  "uren": 5482, 
  "EL": 5483, 
  "Edition": 5484, 
  "Nichtraucherzonen": 5485, 
  "Zunahme": 5486, 
  "Verfahrens": 5487, 
  "lichsten": 5488, 
  "Robert": 5489, 
  "Terroristen": 5490, 
  "stoff@@": 5491, 
  "Glas": 5492, 
  "tro@@": 5493, 
  "anz@@": 5494, 
  "Original@@": 5495, 
  "Aufhebung": 5496, 
  "einstellen": 5497, 
  "eindeutige": 5498, 
  "gelangt": 5499, 
  "85": 5500, 
  "forschung": 5501, 
  "Bosnien": 5502, 
  "elten": 5503, 
  "Tabelle": 5504, 
  "rau@@": 5505, 
  "Klimawandels": 5506, 
  "sicherheit": 5507, 
  "Liberalen": 5508, 
  "vermieden": 5509, 
  "medizinischen": 5510, 
  "fte": 5511, 
  "Wiederherstellung": 5512, 
  "Mails": 5513, 
  "Ser@@": 5514, 
  "dahin": 5515, 
  "Abfall@@": 5516, 
  "war@@": 5517, 
  "gehabt": 5518, 
  "Cal@@": 5519, 
  "Amerikas": 5520, 
  "Mittwoch": 5521, 
  "ien@@": 5522, 
  "spätestens": 5523, 
  "version": 5524, 
  "Kan@@": 5525, 
  "plötzlich": 5526, 
  "Verordnungen": 5527, 
  "IN": 5528, 
  "befürwortet": 5529, 
  "Großen": 5530, 
  "integrieren": 5531, 
  "fanden": 5532, 
  "Multi@@": 5533, 
  "Immobilien@@": 5534, 
  "angenommenen": 5535, 
  "tel@@": 5536, 
  "Express": 5537, 
  "eigentliche": 5538, 
  "lieben": 5539, 
  "Module": 5540, 
  "ren": 5541, 
  "aufgestellt": 5542, 
  "feste": 5543, 
  "tende": 5544, 
  "Anreize": 5545, 
  "Clubs": 5546, 
  "Thomas": 5547, 
  "aufgeführt": 5548, 
  "Hohe": 5549, 
  "Formulierung": 5550, 
  "funktionen": 5551, 
  "41": 5552, 
  "schlechte": 5553, 
  "Sound": 5554, 
  "geschäft": 5555, 
  "Mag@@": 5556, 
  "Royal": 5557, 
  "Umstände": 5558, 
  "Export@@": 5559, 
  "Hu@@": 5560, 
  "Kapazität": 5561, 
  "Fehler@@": 5562, 
  "Finanzen": 5563, 
  "hielt": 5564, 
  "diesmal": 5565, 
  "ori@@": 5566, 
  "blieb": 5567, 
  "Global": 5568, 
  "relevanten": 5569, 
  "Wind": 5570, 
  "absolute": 5571, 
  "gelegenen": 5572, 
  "typische": 5573, 
  "Begründung": 5574, 
  "like": 5575, 
  "ändert": 5576, 
  "jeglicher": 5577, 
  "br@@": 5578, 
  "ure": 5579, 
  "mor@@": 5580, 
  "Einnahmen": 5581, 
  "endet": 5582, 
  "reg@@": 5583, 
  "CH@@": 5584, 
  "Finanzierungs@@": 5585, 
  "wertvolle": 5586, 
  "problemlos": 5587, 
  "kleineren": 5588, 
  "29.": 5589, 
  "passen": 5590, 
  "Dublin": 5591, 
  "Funktionalität": 5592, 
  "industriellen": 5593, 
  "krise": 5594, 
  "aux": 5595, 
  "Atom@@": 5596, 
  "Stufe": 5597, 
  "schreibt": 5598, 
  "Wälder": 5599, 
  "Schuld": 5600, 
  "Bas@@": 5601, 
  "ph@@": 5602, 
  "stay": 5603, 
  "günstig": 5604, 
  "è": 5605, 
  "fort@@": 5606, 
  "öffnet": 5607, 
  "Anzeige": 5608, 
  "gültig": 5609, 
  "ausschuss": 5610, 
  "gegenseitigen": 5611, 
  "vertraut": 5612, 
  "zen@@": 5613, 
  "Marina": 5614, 
  "Gentoo": 5615, 
  "Golf@@": 5616, 
  "Verabschiedung": 5617, 
  "26.": 5618, 
  "verb@@": 5619, 
  "Landes@@": 5620, 
  "bezogen": 5621, 
  "Pol@@": 5622, 
  "Erhalt": 5623, 
  "Theorie": 5624, 
  "University": 5625, 
  "erlangen": 5626, 
  "Wünschen": 5627, 
  "Ausgrenzung": 5628, 
  "quellen": 5629, 
  "gelegene": 5630, 
  "dé@@": 5631, 
  "schw@@": 5632, 
  "RO@@": 5633, 
  "erst@@": 5634, 
  "tag": 5635, 
  "Spitzen@@": 5636, 
  "design": 5637, 
  "Menschenrechtsverletzungen": 5638, 
  "informationen": 5639, 
  "unterwegs": 5640, 
  "Meinungen": 5641, 
  "Gruppen@@": 5642, 
  "kritischen": 5643, 
  "ré@@": 5644, 
  "abgeben": 5645, 
  "Fuß@@": 5646, 
  "kostenfrei": 5647, 
  "passieren": 5648, 
  "durchzusetzen": 5649, 
  "Rechnungshof": 5650, 
  "Image": 5651, 
  "sonstige": 5652, 
  "Wetter": 5653, 
  "Handlungen": 5654, 
  "Bl@@": 5655, 
  "Kernel": 5656, 
  "Versuche": 5657, 
  "Spezialisten": 5658, 
  "Angabe": 5659, 
  "ches": 5660, 
  "zahl": 5661, 
  "Abgeordneter": 5662, 
  "Bürgerbeauftragten": 5663, 
  "Source": 5664, 
  "Wieder@@": 5665, 
  "ins@@": 5666, 
  "Hinter@@": 5667, 
  "Anbindung": 5668, 
  "Ski@@": 5669, 
  "SP@@": 5670, 
  "Logik": 5671, 
  "späteren": 5672, 
  "eck": 5673, 
  "externe": 5674, 
  "Präsentation": 5675, 
  "Leiter": 5676, 
  "wechsel": 5677, 
  "Nation": 5678, 
  "empfiehlt": 5679, 
  "Zahn@@": 5680, 
  "spielte": 5681, 
  "erlassen": 5682, 
  "basieren": 5683, 
  "Best@@": 5684, 
  "beruhen": 5685, 
  "Port": 5686, 
  "Summe": 5687, 
  "Verfolgung": 5688, 
  "alisieren": 5689, 
  "Weltwirtschaft": 5690, 
  "Fer@@": 5691, 
  "European": 5692, 
  "mittlere": 5693, 
  "Linien": 5694, 
  "Jugendliche": 5695, 
  "Wettbewerbs@@": 5696, 
  "Minibar": 5697, 
  "Werbe@@": 5698, 
  "Kabel": 5699, 
  "Regional@@": 5700, 
  "George": 5701, 
  "Bühne": 5702, 
  "46": 5703, 
  "modernes": 5704, 
  "Spektrum": 5705, 
  "Getränke": 5706, 
  "dienstleistungen": 5707, 
  "rechtlich": 5708, 
  "Charme": 5709, 
  "Sh@@": 5710, 
  "Zimmer@@": 5711, 
  "Kuba": 5712, 
  "detaillierte": 5713, 
  "To@@": 5714, 
  "Anträge": 5715, 
  "enz": 5716, 
  "gerechtfertigt": 5717, 
  "28.": 5718, 
  "bisschen": 5719, 
  "schwieriger": 5720, 
  "Prüf@@": 5721, 
  "12.00": 5722, 
  "Vertrieb": 5723, 
  "ann@@": 5724, 
  "gewinnt": 5725, 
  "Raums": 5726, 
  "Centre": 5727, 
  "bestimmungen": 5728, 
  "Wal@@": 5729, 
  "zei@@": 5730, 
  "polnischen": 5731, 
  "unterscheidet": 5732, 
  "Ausbeutung": 5733, 
  "beschreibt": 5734, 
  "teuer": 5735, 
  "Fakten": 5736, 
  "Performance": 5737, 
  "ls": 5738, 
  "inneren": 5739, 
  "BSE": 5740, 
  "Ordner": 5741, 
  "eingeladen": 5742, 
  "Tur@@": 5743, 
  "Zusammensetzung": 5744, 
  "beeinflusst": 5745, 
  "schenken": 5746, 
  "Netzwerk@@": 5747, 
  "unk@@": 5748, 
  "No@@": 5749, 
  "ausreichende": 5750, 
  "endgültigen": 5751, 
  "Power": 5752, 
  "NRO": 5753, 
  "überwacht": 5754, 
  "Halb@@": 5755, 
  "einführen": 5756, 
  "Wald": 5757, 
  "dan@@": 5758, 
  "steuer@@": 5759, 
  "Belastung": 5760, 
  "nahme": 5761, 
  "Bewohner": 5762, 
  "Türen": 5763, 
  "sprache": 5764, 
  "Datei@@": 5765, 
  "är": 5766, 
  "passende": 5767, 
  "Spannungen": 5768, 
  "Alt@@": 5769, 
  "plätze": 5770, 
  "Im": 5771, 
  "organisierte": 5772, 
  "Schnittstelle": 5773, 
  "att@@": 5774, 
  "Pension": 5775, 
  "ki": 5776, 
  "kom@@": 5777, 
  "Außenminister": 5778, 
  "Osteuropa": 5779, 
  "Filter": 5780, 
  "od@@": 5781, 
  "sagten": 5782, 
  "Star@@": 5783, 
  "Gewinne": 5784, 
  "Marokko": 5785, 
  "dauern": 5786, 
  "Erzeugung": 5787, 
  "angebotenen": 5788, 
  "grenzen": 5789, 
  "meistens": 5790, 
  "Funktionieren": 5791, 
  "gehe": 5792, 
  "og@@": 5793, 
  "verliehen": 5794, 
  "Milch@@": 5795, 
  "Wesen": 5796, 
  "Training": 5797, 
  "effizienten": 5798, 
  "Stock": 5799, 
  "Basis@@": 5800, 
  "abgegeben": 5801, 
  "when": 5802, 
  "Bergen": 5803, 
  "englischen": 5804, 
  "verstärkte": 5805, 
  "ungsh@@": 5806, 
  "tor": 5807, 
  "organisierten": 5808, 
  "ältere": 5809, 
  "Putin": 5810, 
  "bedienen": 5811, 
  "projekt": 5812, 
  "Energiequellen": 5813, 
  "Geschäften": 5814, 
  "dr@@": 5815, 
  "Adressen": 5816, 
  "Tro@@": 5817, 
  "ella": 5818, 
  "vers@@": 5819, 
  "pre@@": 5820, 
  "streng": 5821, 
  "Rezession": 5822, 
  "etc": 5823, 
  "ablehnen": 5824, 
  "ro": 5825, 
  "beschleunigen": 5826, 
  "alleine": 5827, 
  "hängen": 5828, 
  "52": 5829, 
  "Beurteilung": 5830, 
  "gebunden": 5831, 
  "Vis@@": 5832, 
  "herum": 5833, 
  "Raum@@": 5834, 
  "zt": 5835, 
  "geplanten": 5836, 
  "Check": 5837, 
  "investiert": 5838, 
  "non": 5839, 
  "prozesse": 5840, 
  "Fischereipolitik": 5841, 
  "kg": 5842, 
  "Köln": 5843, 
  "einstimmig": 5844, 
  "Migration": 5845, 
  "gehandelt": 5846, 
  "ett@@": 5847, 
  "mobile": 5848, 
  "Französisch": 5849, 
  "Verlängerung": 5850, 
  "Fremdenverkehr": 5851, 
  "linien": 5852, 
  "Verkaufs@@": 5853, 
  "Hostel": 5854, 
  "up@@": 5855, 
  "Balkan": 5856, 
  "dargelegt": 5857, 
  "Pat@@": 5858, 
  "gelingen": 5859, 
  "Ferien": 5860, 
  "israelischen": 5861, 
  "eck@@": 5862, 
  "gebraucht": 5863, 
  "SV": 5864, 
  "Beratungen": 5865, 
  "OR@@": 5866, 
  "Schwer@@": 5867, 
  "Traum": 5868, 
  "Nutz@@": 5869, 
  "pol@@": 5870, 
  "ativen": 5871, 
  "Föderation": 5872, 
  "gesichert": 5873, 
  "Haushalte": 5874, 
  "ane": 5875, 
  "bed": 5876, 
  "kurzfristig": 5877, 
  "Beamten": 5878, 
  "ris@@": 5879, 
  "gebildet": 5880, 
  "Menschenrechten": 5881, 
  "zw@@": 5882, 
  "angeblich": 5883, 
  "ärmsten": 5884, 
  "tt@@": 5885, 
  "Referendum": 5886, 
  "Seiten@@": 5887, 
  "hi@@": 5888, 
  "tätigen": 5889, 
  "Des@@": 5890, 
  "Ergänzung": 5891, 
  "zugute": 5892, 
  "rahmen": 5893, 
  "Saal": 5894, 
  "aussehen": 5895, 
  "Los": 5896, 
  "gebe": 5897, 
  "tra@@": 5898, 
  "Original": 5899, 
  "erbaut": 5900, 
  "Börse": 5901, 
  "einnehmen": 5902, 
  "post@@": 5903, 
  "ah": 5904, 
  "Million": 5905, 
  "hr@@": 5906, 
  "eigenem": 5907, 
  "Erwägung": 5908, 
  "Gärten": 5909, 
  "Einschränkungen": 5910, 
  "ir": 5911, 
  "Rahmenbedingungen": 5912, 
  "Beschwerden": 5913, 
  "feiern": 5914, 
  "Wel@@": 5915, 
  "Gebäuden": 5916, 
  "inakzeptabel": 5917, 
  "vereinbarten": 5918, 
  "Dach@@": 5919, 
  "work": 5920, 
  "Bildschirm": 5921, 
  "versehen": 5922, 
  "nachhaltig": 5923, 
  "Mengen": 5924, 
  "0.@@": 5925, 
  "weitaus": 5926, 
  "stützen": 5927, 
  "new": 5928, 
  "Alpen": 5929, 
  "führten": 5930, 
  "2.0": 5931, 
  "Produzenten": 5932, 
  "ernsthafte": 5933, 
  "î@@": 5934, 
  "ho@@": 5935, 
  "zurückzu@@": 5936, 
  "Steuerzahler": 5937, 
  "eure": 5938, 
  "Arbeitgeber": 5939, 
  "immerhin": 5940, 
  "Schutzes": 5941, 
  "SE@@": 5942, 
  "gebühren": 5943, 
  "Unternehmer": 5944, 
  "Portal": 5945, 
  "geschafft": 5946, 
  "Prozess@@": 5947, 
  "Konferenzen": 5948, 
  "Phänomen": 5949, 
  "basis": 5950, 
  "Trend": 5951, 
  "obgleich": 5952, 
  "area": 5953, 
  "27.": 5954, 
  "vergeben": 5955, 
  "NI": 5956, 
  "por@@": 5957, 
  "een": 5958, 
  "amp@@": 5959, 
  "tim@@": 5960, 
  "kontinuierlich": 5961, 
  "Termin": 5962, 
  "Hof": 5963, 
  "bestens": 5964, 
  "Einwanderer": 5965, 
  "Einschätzung": 5966, 
  "ast@@": 5967, 
  "Anwesenheit": 5968, 
  "tiven": 5969, 
  "eigentlichen": 5970, 
  "Verletzungen": 5971, 
  "vorgehen": 5972, 
  "angenehme": 5973, 
  "Feststellung": 5974, 
  "Last": 5975, 
  "beschließen": 5976, 
  "teilzunehmen": 5977, 
  "Friedens": 5978, 
  "AD@@": 5979, 
  "eingeräumt": 5980, 
  "Rot@@": 5981, 
  "esten": 5982, 
  "breit": 5983, 
  "Unterhaltung": 5984, 
  "Medikamente": 5985, 
  "sei@@": 5986, 
  "Leuten": 5987, 
  "Aufnahmen": 5988, 
  "Verfasser": 5989, 
  "gratis": 5990, 
  "Pflichten": 5991, 
  "flexible": 5992, 
  "ner@@": 5993, 
  "ier": 5994, 
  "Datenschutz": 5995, 
  "lokaler": 5996, 
  "Do@@": 5997, 
  "etz@@": 5998, 
  "Te@@": 5999, 
  "dein": 6000, 
  "wartet": 6001, 
  "eintreten": 6002, 
  "zeigte": 6003, 
  "Arbeitsgruppe": 6004, 
  "kommerziellen": 6005, 
  "Operation": 6006, 
  "win@@": 6007, 
  "Sommer@@": 6008, 
  "beliebigen": 6009, 
  "Gebühr": 6010, 
  "erfasst": 6011, 
  "Mil@@": 6012, 
  "hundert": 6013, 
  "werke": 6014, 
  "gesammelt": 6015, 
  "Island": 6016, 
  "Profil": 6017, 
  "HTML": 6018, 
  "Bet@@": 6019, 
  "Van": 6020, 
  "gut@@": 6021, 
  "Betrug": 6022, 
  "Sony": 6023, 
  "Far@@": 6024, 
  "Adobe": 6025, 
  "jemals": 6026, 
  "normale": 6027, 
  "eigen@@": 6028, 
  "ruhiger": 6029, 
  "в@@": 6030, 
  "oberen": 6031, 
  "Hafen@@": 6032, 
  "itäts@@": 6033, 
  "Drogen@@": 6034, 
  "aktivitäten": 6035, 
  "schaften": 6036, 
  "Gel@@": 6037, 
  "Richter": 6038, 
  "id@@": 6039, 
  "Vertretung": 6040, 
  "ac": 6041, 
  "por": 6042, 
  "Polizei@@": 6043, 
  "ür@@": 6044, 
  "Mehrwert": 6045, 
  "verwirklichen": 6046, 
  "Emissions@@": 6047, 
  "wohl@@": 6048, 
  "ausführlich": 6049, 
  "registrieren": 6050, 
  "gan@@": 6051, 
  "Bahn@@": 6052, 
  "erer": 6053, 
  "Schl@@": 6054, 
  "Community": 6055, 
  "Lizenz@@": 6056, 
  "geistigen": 6057, 
  "gerechte": 6058, 
  "realen": 6059, 
  "Drittstaaten": 6060, 
  "verbesserte": 6061, 
  "gestiegen": 6062, 
  "mp@@": 6063, 
  "ausgewählten": 6064, 
  "komfortabel": 6065, 
  "Krisen": 6066, 
  "Metall@@": 6067, 
  "schönes": 6068, 
  "bewirken": 6069, 
  "ni@@": 6070, 
  "stein@@": 6071, 
  "verpflichten": 6072, 
  "derjenigen": 6073, 
  "Rußland": 6074, 
  "angefangen": 6075, 
  "prä@@": 6076, 
  "erneuerbaren": 6077, 
  "gleichwohl": 6078, 
  "Konfiguration": 6079, 
  "verzeichnen": 6080, 
  "MB": 6081, 
  "Handel@@": 6082, 
  "Medi@@": 6083, 
  "tiefe": 6084, 
  "ften": 6085, 
  "technologische": 6086, 
  "stoff": 6087, 
  "Konzentration": 6088, 
  "Lauf@@": 6089, 
  "teil@@": 6090, 
  "bekanntlich": 6091, 
  "Inkrafttreten": 6092, 
  "Geräten": 6093, 
  "Muster": 6094, 
  "Büros": 6095, 
  "wasser@@": 6096, 
  "Grundsätzen": 6097, 
  "vernünftige": 6098, 
  "würdigen": 6099, 
  "menge": 6100, 
  "drängen": 6101, 
  "kor@@": 6102, 
  "dungs@@": 6103, 
  "Kongress": 6104, 
  "jahr": 6105, 
  "beruflichen": 6106, 
  "Rubrik": 6107, 
  "trennen": 6108, 
  "extra": 6109, 
  "demokratischer": 6110, 
  "schen@@": 6111, 
  "buch": 6112, 
  "tigkeit": 6113, 
  "Export": 6114, 
  "Konstruktion": 6115, 
  "burg": 6116, 
  "respektiert": 6117, 
  "Grünbuch": 6118, 
  "Ausübung": 6119, 
  "ohnehin": 6120, 
  "nt": 6121, 
  "Einsatz@@": 6122, 
  "ordnungsgemäß": 6123, 
  "Auto@@": 6124, 
  "Fax": 6125, 
  "с@@": 6126, 
  "zunehmende": 6127, 
  "begründet": 6128, 
  "Foundation": 6129, 
  "Gesch@@": 6130, 
  "Sitzungen": 6131, 
  "Pu@@": 6132, 
  "Zucker@@": 6133, 
  "schule": 6134, 
  "ba": 6135, 
  "lä@@": 6136, 
  "verwalten": 6137, 
  "erweiterten": 6138, 
  "Erbe": 6139, 
  "Gerichten": 6140, 
  "angelegt": 6141, 
  "car@@": 6142, 
  "Rassismus": 6143, 
  "Tr@@": 6144, 
  "gelernt": 6145, 
  "ns": 6146, 
  "Verluste": 6147, 
  "konzipiert": 6148, 
  "Techniken": 6149, 
  "Unsicherheit": 6150, 
  "nah": 6151, 
  "Medizin": 6152, 
  "Kreativität": 6153, 
  "Ausschüsse": 6154, 
  "aktualisieren": 6155, 
  "Wind@@": 6156, 
  "andernfalls": 6157, 
  "gefährden": 6158, 
  "unterbrochen": 6159, 
  "sches": 6160, 
  "spüren": 6161, 
  "ž@@": 6162, 
  "Flugzeug": 6163, 
  "Gespräch": 6164, 
  "dauer": 6165, 
  "konstruktive": 6166, 
  "fortgesetzt": 6167, 
  "ET@@": 6168, 
  "losigkeit": 6169, 
  "herrliche": 6170, 
  "information": 6171, 
  "gro@@": 6172, 
  "Palace": 6173, 
  "ski": 6174, 
  "stand@@": 6175, 
  "Merkmale": 6176, 
  "spar@@": 6177, 
  "Fernseher": 6178, 
  "esen": 6179, 
  "Konzepte": 6180, 
  "bewiesen": 6181, 
  "situation": 6182, 
  "sonstigen": 6183, 
  "Al": 6184, 
  "kritische": 6185, 
  "fairen": 6186, 
  "Ben@@": 6187, 
  "eri@@": 6188, 
  "EL@@": 6189, 
  "vorbehalten": 6190, 
  "zeichen": 6191, 
  "nung": 6192, 
  "bearbeitet": 6193, 
  "erörtert": 6194, 
  "Kirchen": 6195, 
  "Me@@": 6196, 
  "esch@@": 6197, 
  "bedauere": 6198, 
  "Pf@@": 6199, 
  "erg@@": 6200, 
  "spiegelt": 6201, 
  "Herrschaft": 6202, 
  "ologischen": 6203, 
  "voneinander": 6204, 
  "LE@@": 6205, 
  "Halle": 6206, 
  "schließe": 6207, 
  "Karriere": 6208, 
  "Umsatz": 6209, 
  "lern": 6210, 
  "Kräften": 6211, 
  "51": 6212, 
  "arbeitete": 6213, 
  "transparent": 6214, 
  "Studium": 6215, 
  "vernünftig": 6216, 
  "Alltag": 6217, 
  "fügen": 6218, 
  "wirksamen": 6219, 
  "womit": 6220, 
  "stoffen": 6221, 
  "eingeschränkt": 6222, 
  "elte": 6223, 
  "beizutragen": 6224, 
  "Konkurrenz": 6225, 
  "Gal@@": 6226, 
  "Besteuerung": 6227, 
  "isch@@": 6228, 
  "angewiesen": 6229, 
  "zielt": 6230, 
  "At@@": 6231, 
  "mat@@": 6232, 
  "unterbreiten": 6233, 
  "treiben": 6234, 
  "Abenteuer": 6235, 
  "Äußerungen": 6236, 
  "Unterlagen": 6237, 
  "hof": 6238, 
  "tete": 6239, 
  "Bewältigung": 6240, 
  "Angriffe": 6241, 
  "Abstimmungen": 6242, 
  "Beitritts@@": 6243, 
  "Industrie@@": 6244, 
  "Art.": 6245, 
  "einzugehen": 6246, 
  "Beschluß": 6247, 
  "Gipfeltreffen": 6248, 
  "Güter": 6249, 
  "getötet": 6250, 
  "digen": 6251, 
  "zunehmenden": 6252, 
  "Unterzeichnung": 6253, 
  "ona": 6254, 
  "globaler": 6255, 
  "tig@@": 6256, 
  "Kapazitäten": 6257, 
  "ub@@": 6258, 
  "schrittweise": 6259, 
  "erreichte": 6260, 
  "Entscheidungs@@": 6261, 
  "geräten": 6262, 
  "Aktivität": 6263, 
  "förderung": 6264, 
  "schlimmer": 6265, 
  "Anhörung": 6266, 
  "Subventionen": 6267, 
  "Schlaf@@": 6268, 
  "preis@@": 6269, 
  "Puerto": 6270, 
  "ley": 6271, 
  "begleiten": 6272, 
  "bist": 6273, 
  "ani": 6274, 
  "grenzüberschreitende": 6275, 
  "gefährliche": 6276, 
  "mal@@": 6277, 
  "abends": 6278, 
  "Beschäftigten": 6279, 
  "ierungen": 6280, 
  "vergleichen": 6281, 
  "anlässlich": 6282, 
  "bilateralen": 6283, 
  "erwähnte": 6284, 
  "Energiepolitik": 6285, 
  "inbegriffen": 6286, 
  "Beste": 6287, 
  "Branchen": 6288, 
  "Attraktionen": 6289, 
  "nachdenken": 6290, 
  "Kol@@": 6291, 
  "err@@": 6292, 
  "plan@@": 6293, 
  "interessieren": 6294, 
  "Verteidigungspolitik": 6295, 
  "Life": 6296, 
  "Vorfeld": 6297, 
  "technologischen": 6298, 
  "Motto": 6299, 
  "Lohn@@": 6300, 
  "home": 6301, 
  "Intervention": 6302, 
  "gesetz": 6303, 
  "namens": 6304, 
  "47": 6305, 
  "Transfer": 6306, 
  "strenge": 6307, 
  "übermittelt": 6308, 
  "aufgerufen": 6309, 
  "voran": 6310, 
  "dig": 6311, 
  "1,5": 6312, 
  "Bur@@": 6313, 
  "alis@@": 6314, 
  "Vorgaben": 6315, 
  "old": 6316, 
  "Mi@@": 6317, 
  "io": 6318, 
  "Kom@@": 6319, 
  "Europol": 6320, 
  "zwingen": 6321, 
  "äl@@": 6322, 
  "zog": 6323, 
  "Bedienung": 6324, 
  "Nor@@": 6325, 
  "ausserdem": 6326, 
  "Moskau": 6327, 
  "ethnischen": 6328, 
  "demokratisch": 6329, 
  "Lasten": 6330, 
  "marquis": 6331, 
  "US@@": 6332, 
  "zahlt": 6333, 
  "keinesfalls": 6334, 
  "sub@@": 6335, 
  "·": 6336, 
  "Bezahlung": 6337, 
  "endgültig": 6338, 
  "pi@@": 6339, 
  "angeschlossen": 6340, 
  "Designer": 6341, 
  "Massage": 6342, 
  "Prävention": 6343, 
  "Budapest": 6344, 
  "Fluggesellschaften": 6345, 
  "verwöhnen": 6346, 
  "Frühjahr": 6347, 
  "ierenden": 6348, 
  "ello": 6349, 
  "Kat@@": 6350, 
  "hervor@@": 6351, 
  "Ter@@": 6352, 
  "Besitzer": 6353, 
  "Flugzeuge": 6354, 
  "Sam@@": 6355, 
  "04": 6356, 
  "registriert": 6357, 
  "Missbrauch": 6358, 
  "einhalten": 6359, 
  "oh@@": 6360, 
  "eingerichtete": 6361, 
  "Struktur@@": 6362, 
  "örtlichen": 6363, 
  "DER": 6364, 
  "Mallorca": 6365, 
  "schlag": 6366, 
  "erfolgte": 6367, 
  "dos": 6368, 
  "Lernen": 6369, 
  "lebenden": 6370, 
  "Optimierung": 6371, 
  "freundliches": 6372, 
  "beurteilen": 6373, 
  "tal": 6374, 
  "derartigen": 6375, 
  "Hügel": 6376, 
  "Plus": 6377, 
  "fra@@": 6378, 
  "Si@@": 6379, 
  "vorhin": 6380, 
  "übergeben": 6381, 
  "over": 6382, 
  "gefährlichen": 6383, 
  "ey": 6384, 
  "enttäuscht": 6385, 
  "alternative": 6386, 
  "All@@": 6387, 
  "erneuerbare": 6388, 
  "line": 6389, 
  "Hektar": 6390, 
  "Strasse": 6391, 
  "tausend": 6392, 
  "ec": 6393, 
  "exklusive": 6394, 
  "exklusiven": 6395, 
  "Lehren": 6396, 
  "fliegen": 6397, 
  "Lehre": 6398, 
  "Transaktionen": 6399, 
  "nbsp": 6400, 
  "Übereinkommens": 6401, 
  "Regimes": 6402, 
  "Gi@@": 6403, 
  "mieten": 6404, 
  "kritisiert": 6405, 
  "Mat@@": 6406, 
  "Verteidigungs@@": 6407, 
  "Höchst@@": 6408, 
  "größerer": 6409, 
  "Katastrophen": 6410, 
  "realisieren": 6411, 
  "Eigenschaft": 6412, 
  "Geb@@": 6413, 
  "vertrag": 6414, 
  "live": 6415, 
  "inn@@": 6416, 
  "haft": 6417, 
  "echt": 6418, 
  "ri": 6419, 
  "fern": 6420, 
  "irische": 6421, 
  "Ecke": 6422, 
  "Dritter": 6423, 
  "Data": 6424, 
  "klassische": 6425, 
  "schalten": 6426, 
  "Sach@@": 6427, 
  "anstelle": 6428, 
  "Besuchern": 6429, 
  "Marken@@": 6430, 
  "Tal@@": 6431, 
  "unerlässlich": 6432, 
  "ungsverfahren": 6433, 
  "Professor": 6434, 
  "Pflege": 6435, 
  "Dienstleistung": 6436, 
  "Gewinner": 6437, 
  "gutem": 6438, 
  "negativ": 6439, 
  "unterbreitet": 6440, 
  "Tief@@": 6441, 
  "beiträgt": 6442, 
  "Met@@": 6443, 
  "licht": 6444, 
  "gewisser": 6445, 
  "agentur": 6446, 
  "loser": 6447, 
  "Gefängnis": 6448, 
  "Subsidiarität": 6449, 
  "bit": 6450, 
  "ausführen": 6451, 
  "gn@@": 6452, 
  "fiel": 6453, 
  "Touren": 6454, 
  "erinnere": 6455, 
  "beschreiben": 6456, 
  "ierungs@@": 6457, 
  "ermutigen": 6458, 
  "entscheidet": 6459, 
  "Mel@@": 6460, 
  "Bewegungen": 6461, 
  "deutscher": 6462, 
  "erörtern": 6463, 
  "com@@": 6464, 
  "ordnung": 6465, 
  "band": 6466, 
  "tar@@": 6467, 
  "Desktop": 6468, 
  "schn@@": 6469, 
  "Gran": 6470, 
  "fällen": 6471, 
  "Seen": 6472, 
  "Hamas": 6473, 
  "herstellen": 6474, 
  "falschen": 6475, 
  "Urlaubs@@": 6476, 
  "Bade@@": 6477, 
  "solide": 6478, 
  "lohnt": 6479, 
  "ement": 6480, 
  "gaben": 6481, 
  "schlechten": 6482, 
  "Regionalpolitik": 6483, 
  "erläutern": 6484, 
  "schrieb": 6485, 
  "druck@@": 6486, 
  "Schatten": 6487, 
  "stu@@": 6488, 
  "tin": 6489, 
  "ex": 6490, 
  "lauf@@": 6491, 
  "Genuss": 6492, 
  "Canon": 6493, 
  "Zimmerservice": 6494, 
  "brechen": 6495, 
  "vielfältigen": 6496, 
  "Galerie": 6497, 
  "Ufer": 6498, 
  "Gegenwart": 6499, 
  "gewünscht": 6500, 
  "Gepäckraum": 6501, 
  "daneben": 6502, 
  "ratifiziert": 6503, 
  "Zuständigkeiten": 6504, 
  "ors": 6505, 
  "Anweisungen": 6506, 
  "internationales": 6507, 
  "Betroffenen": 6508, 
  "gar@@": 6509, 
  "Wille": 6510, 
  "ets": 6511, 
  "Men@@": 6512, 
  "Weltbank": 6513, 
  "Einkommens@@": 6514, 
  "He@@": 6515, 
  "Rand": 6516, 
  "Wild@@": 6517, 
  "Budget": 6518, 
  "sor@@": 6519, 
  "leitung": 6520, 
  "berufliche": 6521, 
  "par": 6522, 
  "rechtfertigen": 6523, 
  "Metern": 6524, 
  "Roh@@": 6525, 
  "kritisch": 6526, 
  "Waffen@@": 6527, 
  "Kurse": 6528, 
  "Mas@@": 6529, 
  "Vergnügen": 6530, 
  "ón": 6531, 
  "Gleich@@": 6532, 
  "Aktualisierung": 6533, 
  "Reaktionen": 6534, 
  "igkeit": 6535, 
  "ausgelöst": 6536, 
  "grüne": 6537, 
  "Stand@@": 6538, 
  "sion@@": 6539, 
  "stes": 6540, 
  "akzeptabel": 6541, 
  "v.": 6542, 
  "Mer@@": 6543, 
  "Jo@@": 6544, 
  "staat": 6545, 
  "vertrauen": 6546, 
  "ökologische": 6547, 
  "Überarbeitung": 6548, 
  "Tochter": 6549, 
  "Vermittlung": 6550, 
  "Arbeitsbedingungen": 6551, 
  "Besch@@": 6552, 
  "iertes": 6553, 
  "gefasst": 6554, 
  "Content": 6555, 
  "Autoren": 6556, 
  "Patent@@": 6557, 
  "Schwimmbad": 6558, 
  "arbeits@@": 6559, 
  "Bilanz": 6560, 
  "erei": 6561, 
  "AS": 6562, 
  "Vereinigung": 6563, 
  "unzureichend": 6564, 
  "erzielten": 6565, 
  "Bewertungen": 6566, 
  "Aktien": 6567, 
  "klären": 6568, 
  "Vorsitzender": 6569, 
  "sektors": 6570, 
  "geholfen": 6571, 
  "ausschuß": 6572, 
  "Fi@@": 6573, 
  "schützt": 6574, 
  "Sti@@": 6575, 
  "grundlegender": 6576, 
  "Tickets": 6577, 
  "Hotelsafe": 6578, 
  "wenigstens": 6579, 
  "erläutert": 6580, 
  "Tempo": 6581, 
  "riesige": 6582, 
  "glaubt": 6583, 
  "Arzneimittel": 6584, 
  "Palästinenser": 6585, 
  "vorn": 6586, 
  "Empfänger": 6587, 
  "lehnen": 6588, 
  "starkes": 6589, 
  "japanischen": 6590, 
  "ative": 6591, 
  "Digital": 6592, 
  "J": 6593, 
  "Wachstums@@": 6594, 
  "Ban@@": 6595, 
  "Realisierung": 6596, 
  "ade": 6597, 
  "ese": 6598, 
  "teten": 6599, 
  "größe": 6600, 
  "Arzt": 6601, 
  "bevorstehenden": 6602, 
  "Zufriedenheit": 6603, 
  "some": 6604, 
  "umgekehrt": 6605, 
  "Feuer@@": 6606, 
  "üblich": 6607, 
  "weißen": 6608, 
  "hab@@": 6609, 
  "ignoriert": 6610, 
  "Betriebssystem": 6611, 
  "Herberge": 6612, 
  "Bri@@": 6613, 
  "Israels": 6614, 
  "asi@@": 6615, 
  "geln": 6616, 
  "stre@@": 6617, 
  "ehe": 6618, 
  "aren": 6619, 
  "sal@@": 6620, 
  "Event": 6621, 
  "Renn@@": 6622, 
  "verwaltet": 6623, 
  "irgendwelche": 6624, 
  "ehr@@": 6625, 
  "Heimatland": 6626, 
  "Strand@@": 6627, 
  "Garten@@": 6628, 
  "Anregungen": 6629, 
  "Kopf@@": 6630, 
  "gegenseitige": 6631, 
  "Rund@@": 6632, 
  "inger": 6633, 
  "Pres@@": 6634, 
  "Euro@@": 6635, 
  "aum": 6636, 
  "setzung": 6637, 
  "Tragödie": 6638, 
  "mündlichen": 6639, 
  "Bon@@": 6640, 
  "Verantwortlichen": 6641, 
  "Anreise": 6642, 
  "verständlich": 6643, 
  "wal@@": 6644, 
  "Fußball@@": 6645, 
  "Café": 6646, 
  "Ministerrat": 6647, 
  "eingebunden": 6648, 
  "Rande": 6649, 
  "erworben": 6650, 
  "code": 6651, 
  "Gipfels": 6652, 
  "handel": 6653, 
  "nutzbar": 6654, 
  "Verträgen": 6655, 
  "gewiss": 6656, 
  "ach": 6657, 
  "frisch": 6658, 
  "bedenken": 6659, 
  "Gesprächen": 6660, 
  "Resolution": 6661, 
  "Abstand": 6662, 
  "teilgenommen": 6663, 
  "ungst@@": 6664, 
  "Pa@@": 6665, 
  "Anhang": 6666, 
  "Miet@@": 6667, 
  "het": 6668, 
  "Reich": 6669, 
  "Armen": 6670, 
  "hen": 6671, 
  "My@@": 6672, 
  "Log@@": 6673, 
  "wür@@": 6674, 
  "Las": 6675, 
  "Lebensmitteln": 6676, 
  "Amtszeit": 6677, 
  "einzigartig": 6678, 
  "bekräftigt": 6679, 
  "back": 6680, 
  "Beruf": 6681, 
  "fahrten": 6682, 
  "sta@@": 6683, 
  "stecken": 6684, 
  "Erkenntnisse": 6685, 
  "Tschechischen": 6686, 
  "ältesten": 6687, 
  "haltung": 6688, 
  "Abschluß": 6689, 
  "Gewerkschaften": 6690, 
  "nötigen": 6691, 
  "54": 6692, 
  "ay@@": 6693, 
  "basierend": 6694, 
  "begeistert": 6695, 
  "reine": 6696, 
  "Foto@@": 6697, 
  "Lebensqualität": 6698, 
  "Übersetzungen": 6699, 
  "Eine": 6700, 
  "intensive": 6701, 
  "idealen": 6702, 
  "been": 6703, 
  "Weiterbildung": 6704, 
  "idealer": 6705, 
  "heim": 6706, 
  "James": 6707, 
  "A4": 6708, 
  "03@@": 6709, 
  "della": 6710, 
  "dige": 6711, 
  "small": 6712, 
  "Trek": 6713, 
  "Archiv": 6714, 
  "überwiegend": 6715, 
  "Playa": 6716, 
  "Sowjetunion": 6717, 
  "teils": 6718, 
  "angeben": 6719, 
  "ite": 6720, 
  "pr@@": 6721, 
  "name": 6722, 
  "märkte": 6723, 
  "Libanon": 6724, 
  "analysieren": 6725, 
  "bild@@": 6726, 
  "Karten@@": 6727, 
  "Ti@@": 6728, 
  "Unterdrückung": 6729, 
  "Wachstums": 6730, 
  "Effekte": 6731, 
  "jeweilige": 6732, 
  "lung": 6733, 
  "ton@@": 6734, 
  "gemeinschaft": 6735, 
  "vierten": 6736, 
  "flächen": 6737, 
  "Studien@@": 6738, 
  "ologische": 6739, 
  "wirft": 6740, 
  "AC@@": 6741, 
  "Diese": 6742, 
  "wozu": 6743, 
  "ziel@@": 6744, 
  "sicherer": 6745, 
  "Litauen": 6746, 
  "200@@": 6747, 
  "Speicher@@": 6748, 
  "BMW": 6749, 
  "beträchtliche": 6750, 
  "kern": 6751, 
  "geführten": 6752, 
  "Chi@@": 6753, 
  "berichte": 6754, 
  "ali@@": 6755, 
  "sport": 6756, 
  "XP": 6757, 
  "wofür": 6758, 
  "Mittelmeerraum": 6759, 
  "getreten": 6760, 
  "Free": 6761, 
  "Ein-": 6762, 
  "Erzeuger": 6763, 
  "Ost": 6764, 
  "Wartung": 6765, 
  "ließen": 6766, 
  "einzelner": 6767, 
  "Governance": 6768, 
  "Arbeiter": 6769, 
  "kompatibel": 6770, 
  "iten": 6771, 
  "Straf@@": 6772, 
  "Referenz@@": 6773, 
  "Corporate": 6774, 
  "vorkommen": 6775, 
  "sten@@": 6776, 
  "gemessen": 6777, 
  "gesunden": 6778, 
  "Temperatur": 6779, 
  "Investition": 6780, 
  "Heiligen": 6781, 
  "Islam": 6782, 
  "Lin@@": 6783, 
  "Lobby": 6784, 
  "ó": 6785, 
  "zunehmen": 6786, 
  "Aufforderung": 6787, 
  "einziges": 6788, 
  "Mini": 6789, 
  "Gro@@": 6790, 
  "su": 6791, 
  "Kathedrale": 6792, 
  "Einzelnen": 6793, 
  "ausschusses": 6794, 
  "72": 6795, 
  "Finanzmärkte": 6796, 
  "eingerichteten": 6797, 
  "Dach": 6798, 
  "lichkeiten": 6799, 
  "zumal": 6800, 
  "Kam@@": 6801, 
  "place": 6802, 
  "Verk@@": 6803, 
  "orientiert": 6804, 
  "B5": 6805, 
  "ling": 6806, 
  "tal@@": 6807, 
  "Party": 6808, 
  "längst": 6809, 
  "habt": 6810, 
  "ena": 6811, 
  "kompletten": 6812, 
  "Taste": 6813, 
  "gesellschaftliche": 6814, 
  "mitgeteilt": 6815, 
  "Rahmenprogramm": 6816, 
  ",00": 6817, 
  "tenden": 6818, 
  "Lang@@": 6819, 
  "kn@@": 6820, 
  "AM@@": 6821, 
  "deutsch": 6822, 
  "ernste": 6823, 
  "Pri@@": 6824, 
  "blicken": 6825, 
  "Mazedonien": 6826, 
  "enorm": 6827, 
  "Ausstellungen": 6828, 
  "suche": 6829, 
  "Instrumenten": 6830, 
  "Cam@@": 6831, 
  "zurückkehren": 6832, 
  "ban@@": 6833, 
  "56": 6834, 
  "faire": 6835, 
  "übersetzt": 6836, 
  "Trends": 6837, 
  "Süd": 6838, 
  "Einwohnern": 6839, 
  "ati": 6840, 
  "einzubeziehen": 6841, 
  "than": 6842, 
  "Wiener": 6843, 
  "einheit": 6844, 
  "gefällt": 6845, 
  "jährliche": 6846, 
  "Rahmen@@": 6847, 
  "deinen": 6848, 
  "EM@@": 6849, 
  "vol@@": 6850, 
  "konferenz": 6851, 
  "ff": 6852, 
  "IV": 6853, 
  "Malta": 6854, 
  "zwanzig": 6855, 
  "other": 6856, 
  "SCH@@": 6857, 
  "Finanzmittel": 6858, 
  "einzuhalten": 6859, 
  "vereinfachen": 6860, 
  "Instruments": 6861, 
  "Dem@@": 6862, 
  "ol": 6863, 
  "Einschränkung": 6864, 
  "verschiedensten": 6865, 
  "Flug": 6866, 
  "zuverlässig": 6867, 
  "Tee": 6868, 
  "Maastricht": 6869, 
  "Feld@@": 6870, 
  "Haushaltsplans": 6871, 
  "niederländischen": 6872, 
  "klarer": 6873, 
  "beider": 6874, 
  "längere": 6875, 
  "Cas@@": 6876, 
  "Brand@@": 6877, 
  "gener@@": 6878, 
  "aufweisen": 6879, 
  "seiten": 6880, 
  "neueste": 6881, 
  "Analysen": 6882, 
  "gebühr": 6883, 
  "Fehl@@": 6884, 
  "teren": 6885, 
  "Gerichtshofs": 6886, 
  "kommerzielle": 6887, 
  "bedauerlicherweise": 6888, 
  "Jahrzehnte": 6889, 
  "verglichen": 6890, 
  "gewöhnlich": 6891, 
  "Fil@@": 6892, 
  "gegenseitig": 6893, 
  "nen@@": 6894, 
  "Verkäufer": 6895, 
  "strasse": 6896, 
  "harte": 6897, 
  "e.@@": 6898, 
  "Konsultation": 6899, 
  "Del@@": 6900, 
  "Schulden@@": 6901, 
  "esp@@": 6902, 
  "у@@": 6903, 
  "überlegen": 6904, 
  "Ratsvorsitzes": 6905, 
  "ci": 6906, 
  "komplex": 6907, 
  "theit": 6908, 
  "zukünftig": 6909, 
  "ker@@": 6910, 
  "Ausfahrt": 6911, 
  "Rock": 6912, 
  "tion": 6913, 
  "genehmigt": 6914, 
  "cu@@": 6915, 
  "vorherige": 6916, 
  "denselben": 6917, 
  "Kr@@": 6918, 
  "Geschenk": 6919, 
  "nennt": 6920, 
  "gefangen": 6921, 
  "first": 6922, 
  "Sozialdemokraten": 6923, 
  "unteren": 6924, 
  "Tel": 6925, 
  "site": 6926, 
  "fall@@": 6927, 
  "letztes": 6928, 
  "Dienstleistungs@@": 6929, 
  "Anhänger": 6930, 
  "felder": 6931, 
  "Panorama": 6932, 
  "vielfältige": 6933, 
  "unterhalten": 6934, 
  "lt": 6935, 
  "Master": 6936, 
  "day": 6937, 
  "iPhone": 6938, 
  "elemente": 6939, 
  "schnelles": 6940, 
  "Dreh@@": 6941, 
  "verkauf": 6942, 
  "Weiter@@": 6943, 
  "Temperaturen": 6944, 
  "ées": 6945, 
  "VER@@": 6946, 
  "Can@@": 6947, 
  "Inhaber": 6948, 
  "untergraben": 6949, 
  "Scheitern": 6950, 
  "vorherigen": 6951, 
  "gäbe": 6952, 
  "Verfassungs@@": 6953, 
  "mündliche": 6954, 
  "Heil@@": 6955, 
  "bekanntesten": 6956, 
  "reale": 6957, 
  "wasser": 6958, 
  "ausgewogenen": 6959, 
  "niedriger": 6960, 
  "gekauft": 6961, 
  "Ursprung": 6962, 
  "engagiert": 6963, 
  "Flotte": 6964, 
  "Halbinsel": 6965, 
  "Taiwan": 6966, 
  "länder": 6967, 
  "ita": 6968, 
  "Wie": 6969, 
  "nde": 6970, 
  "zielen": 6971, 
  "Back@@": 6972, 
  "Swimmingpool": 6973, 
  "Absichten": 6974, 
  "bil@@": 6975, 
  "Auslegung": 6976, 
  "Entwicklungszusammenarbeit": 6977, 
  "Fahrzeug@@": 6978, 
  "qualifizierte": 6979, 
  "Sitz@@": 6980, 
  "Führungs@@": 6981, 
  "ökonomischen": 6982, 
  "Box": 6983, 
  "vorsichtig": 6984, 
  "effektiver": 6985, 
  "Partner@@": 6986, 
  "Ball@@": 6987, 
  "vierte": 6988, 
  "analyse": 6989, 
  "Flüge": 6990, 
  "Ha@@": 6991, 
  "Berater": 6992, 
  "Ni@@": 6993, 
  "steuer": 6994, 
  "begangen": 6995, 
  "Stahl": 6996, 
  "basierte": 6997, 
  "Bit": 6998, 
  "Regel@@": 6999, 
  "leidet": 7000, 
  "verehrten": 7001, 
  "Ernährung": 7002, 
  "©": 7003, 
  "Termin@@": 7004, 
  "sämtlichen": 7005, 
  "Palästina": 7006, 
  "wert@@": 7007, 
  "IC@@": 7008, 
  "frischen": 7009, 
  "Mobile": 7010, 
  "versetzt": 7011, 
  "Verstärkung": 7012, 
  "ez": 7013, 
  "kultur": 7014, 
  "verhandeln": 7015, 
  "durchgeführten": 7016, 
  "tn@@": 7017, 
  "tiv@@": 7018, 
  "UND": 7019, 
  "beeinträchtigt": 7020, 
  "beseitigt": 7021, 
  "cht@@": 7022, 
  "Verhältnisse": 7023, 
  "Virus": 7024, 
  "luxuriöse": 7025, 
  "Marktwirtschaft": 7026, 
  "gleicher": 7027, 
  "auswärtige": 7028, 
  "Eigentümer": 7029, 
  "Befehl": 7030, 
  "Geschäftsbedingungen": 7031, 
  "ungarischen": 7032, 
  "Leidenschaft": 7033, 
  "durchsetzen": 7034, 
  "schlage": 7035, 
  "Bedingung": 7036, 
  "Sand": 7037, 
  "Komplettpreise": 7038, 
  "Berichterstattern": 7039, 
  "Maschinen@@": 7040, 
  "asse": 7041, 
  "Frauen@@": 7042, 
  "aufgehoben": 7043, 
  "center": 7044, 
  "position": 7045, 
  "Montage": 7046, 
  "Front": 7047, 
  "les@@": 7048, 
  "Entstehung": 7049, 
  "bank": 7050, 
  "Vizepräsident": 7051, 
  "ausgelegt": 7052, 
  "Servic@@": 7053, 
  "Mehrwertsteuer": 7054, 
  "Quoten": 7055, 
  "Implementierung": 7056, 
  "gl@@": 7057, 
  "Partnerschaften": 7058, 
  "Wikitravel": 7059, 
  "schaden": 7060, 
  "Diensten": 7061, 
  "strengen": 7062, 
  "ün@@": 7063, 
  "angehen": 7064, 
  "rasche": 7065, 
  "Konjunktur@@": 7066, 
  "äußerster": 7067, 
  "verbindung": 7068, 
  "abkommen": 7069, 
  "Jugoslawien": 7070, 
  "Feuer": 7071, 
  "gesunde": 7072, 
  "Nacht@@": 7073, 
  "Dienstag": 7074, 
  "ot": 7075, 
  "Piazza": 7076, 
  "could": 7077, 
  "befürworte": 7078, 
  "Leit@@": 7079, 
  "Internetseite": 7080, 
  "traditionell": 7081, 
  "zahlreicher": 7082, 
  "bedingt": 7083, 
  "amtierender": 7084, 
  "Mode": 7085, 
  "ations": 7086, 
  "unterliegt": 7087, 
  "führender": 7088, 
  "iens": 7089, 
  "Index": 7090, 
  "Versicherungs@@": 7091, 
  "fähigen": 7092, 
  "Vorsitzende": 7093, 
  "Fang@@": 7094, 
  "freiheit": 7095, 
  "Fragestunde": 7096, 
  "Slowenien": 7097, 
  "friedlichen": 7098, 
  "SAP": 7099, 
  "schlechter": 7100, 
  "Kanal": 7101, 
  "beg@@": 7102, 
  "Hans": 7103, 
  "abzielen": 7104, 
  "lungen": 7105, 
  "amerikanischer": 7106, 
  "stärkeren": 7107, 
  "klasse": 7108, 
  "herzlichen": 7109, 
  "gebilligt": 7110, 
  "errichten": 7111, 
  "American": 7112, 
  "Gelände": 7113, 
  "Wenn": 7114, 
  "finanziell": 7115, 
  "zahlungen": 7116, 
  "Bro@@": 7117, 
  "niedrig": 7118, 
  "nützliche": 7119, 
  "д@@": 7120, 
  "ve@@": 7121, 
  "aufeinander": 7122, 
  "tik@@": 7123, 
  "ga": 7124, 
  "Kohärenz": 7125, 
  "Hal@@": 7126, 
  "mt": 7127, 
  "südlich": 7128, 
  "konzept": 7129, 
  "gewählte": 7130, 
  "verleiht": 7131, 
  "Perspektiven": 7132, 
  "lichste": 7133, 
  "Industri@@": 7134, 
  "behörde": 7135, 
  "Ausgang": 7136, 
  "Award": 7137, 
  "pe@@": 7138, 
  "10.@@": 7139, 
  "worauf": 7140, 
  "wenngleich": 7141, 
  "Gewinn@@": 7142, 
  "53": 7143, 
  "ßen": 7144, 
  "schi@@": 7145, 
  "uss@@": 7146, 
  "Brief": 7147, 
  "Features": 7148, 
  "kosten@@": 7149, 
  "einmalige": 7150, 
  "Design@@": 7151, 
  "natur@@": 7152, 
  "Genf": 7153, 
  "diensten": 7154, 
  "yn@@": 7155, 
  "Variante": 7156, 
  "Koordination": 7157, 
  "Beendigung": 7158, 
  "Fu@@": 7159, 
  "liegende": 7160, 
  "Fin@@": 7161, 
  "zusammenzuarbeiten": 7162, 
  "Apple": 7163, 
  "Park@@": 7164, 
  "angebote": 7165, 
  "diverse": 7166, 
  "geteilt": 7167, 
  "Gesetzes": 7168, 
  "tel": 7169, 
  "kommende": 7170, 
  "Textes": 7171, 
  "regelmäßigen": 7172, 
  "toren": 7173, 
  "projekten": 7174, 
  "Ton": 7175, 
  "Dir": 7176, 
  "glücklich": 7177, 
  "Papier@@": 7178, 
  "belegt": 7179, 
  "bern": 7180, 
  "sc@@": 7181, 
  "Beobachter": 7182, 
  "Aufwand": 7183, 
  "Whirlpool": 7184, 
  "erb@@": 7185, 
  "ju@@": 7186, 
  "way": 7187, 
  "stieg": 7188, 
  "Einheiten": 7189, 
  "s.": 7190, 
  "malerischen": 7191, 
  "dischen": 7192, 
  "einzurichten": 7193, 
  "Kredite": 7194, 
  "ME@@": 7195, 
  "möglichkeit": 7196, 
  "Opfern": 7197, 
  "verschieben": 7198, 
  "Gol@@": 7199, 
  "MP3": 7200, 
  "tlichen": 7201, 
  "startet": 7202, 
  "Besonderheiten": 7203, 
  "wünscht": 7204, 
  "50@@": 7205, 
  "schwerer": 7206, 
  "Tourismus@@": 7207, 
  "Schiff@@": 7208, 
  "seh@@": 7209, 
  "Rio": 7210, 
  "Ankündigung": 7211, 
  "Spuren": 7212, 
  "IA": 7213, 
  "Material@@": 7214, 
  "besticht": 7215, 
  "Ereignissen": 7216, 
  "chambres": 7217, 
  "beliebten": 7218, 
  "hört": 7219, 
  "droht": 7220, 
  "zerstören": 7221, 
  "Grafiken": 7222, 
  "ni": 7223, 
  "Aussichten": 7224, 
  "irgendeiner": 7225, 
  "fenster": 7226, 
  "gerufen": 7227, 
  "UNESCO": 7228, 
  "berühmt": 7229, 
  "Gegenstände": 7230, 
  "personenbezogenen": 7231, 
  "einzelstaatlichen": 7232, 
  "aj@@": 7233, 
  "effektiven": 7234, 
  "morgens": 7235, 
  "auszuüben": 7236, 
  "kre@@": 7237, 
  "standards": 7238, 
  "Gelegenheiten": 7239, 
  "Architekten": 7240, 
  "Stein": 7241, 
  "eingereichten": 7242, 
  "portugiesischen": 7243, 
  "Ap@@": 7244, 
  "PSE": 7245, 
  "Administration": 7246, 
  "nördlichen": 7247, 
  "ausführliche": 7248, 
  "tive": 7249, 
  "Speicher": 7250, 
  "daraufhin": 7251, 
  "klares": 7252, 
  "night": 7253, 
  "größtenteils": 7254, 
  "Vista": 7255, 
  "paket": 7256, 
  "Reihenfolge": 7257, 
  "ignorieren": 7258, 
  "Werk@@": 7259, 
  "sach@@": 7260, 
  "biologischen": 7261, 
  "quelle": 7262, 
  "fälle": 7263, 
  "türkische": 7264, 
  "besetzt": 7265, 
  "Mailand": 7266, 
  "Auseinandersetzung": 7267, 
  "normal": 7268, 
  "musik": 7269, 
  "verstoßen": 7270, 
  "Tipps": 7271, 
  "verankert": 7272, 
  "Augen@@": 7273, 
  "Board": 7274, 
  "All": 7275, 
  "ländern": 7276, 
  "sions@@": 7277, 
  "halb@@": 7278, 
  "unterhalb": 7279, 
  "Kommissare": 7280, 
  "Stadtteil": 7281, 
  "wünschenswert": 7282, 
  "Szene": 7283, 
  "ther@@": 7284, 
  "Eintritt": 7285, 
  "landwirtschaftliche": 7286, 
  "eignen": 7287, 
  "los@@": 7288, 
  "linge": 7289, 
  "esse": 7290, 
  "konstruktiven": 7291, 
  "breites": 7292, 
  "Verzögerungen": 7293, 
  "Vorbereitungen": 7294, 
  "Entschließungen": 7295, 
  "benannt": 7296, 
  "stoßen": 7297, 
  "Neue": 7298, 
  "Schnell@@": 7299, 
  "Zinsen": 7300, 
  "Wissens@@": 7301, 
  "analysiert": 7302, 
  "Segel@@": 7303, 
  "Elementen": 7304, 
  "UNG": 7305, 
  "itt@@": 7306, 
  "wendet": 7307, 
  "Tu@@": 7308, 
  "verliert": 7309, 
  "Main": 7310, 
  "agen": 7311, 
  "aufrechterhalten": 7312, 
  "Dek@@": 7313, 
  "Verzögerung": 7314, 
  "langjährige": 7315, 
  "Krisen@@": 7316, 
  "Datenbanken": 7317, 
  "mehrmals": 7318, 
  "unge@@": 7319, 
  "müsse": 7320, 
  "stra@@": 7321, 
  "stabile": 7322, 
  "Sorgfalt": 7323, 
  "gend": 7324, 
  "kurse": 7325, 
  "Kreis": 7326, 
  "gerechten": 7327, 
  "griechische": 7328, 
  "pen@@": 7329, 
  "Legitimität": 7330, 
  "beliebt": 7331, 
  "stücke": 7332, 
  "ermitteln": 7333, 
  "ola": 7334, 
  "anbietet": 7335, 
  "finanzieller": 7336, 
  "diger": 7337, 
  "staatlicher": 7338, 
  "fügt": 7339, 
  "mü@@": 7340, 
  "Ski": 7341, 
  "warmen": 7342, 
  "gelang": 7343, 
  "Mit": 7344, 
  "Max": 7345, 
  "baut": 7346, 
  "auseinander": 7347, 
  "two": 7348, 
  "Juden": 7349, 
  "my@@": 7350, 
  "ari": 7351, 
  "fach": 7352, 
  "Treiber": 7353, 
  "Organen": 7354, 
  "Beweise": 7355, 
  "fehlende": 7356, 
  "junger": 7357, 
  "most": 7358, 
  "bedauern": 7359, 
  "verbindungen": 7360, 
  "enheit": 7361, 
  "kurs": 7362, 
  "etes": 7363, 
  "steigenden": 7364, 
  "Mach@@": 7365, 
  "gender": 7366, 
  "Aufruf": 7367, 
  "außergewöhnliche": 7368, 
  "Kommissionsvorschlag": 7369, 
  "Fi": 7370, 
  "their": 7371, 
  "begreifen": 7372, 
  "Green": 7373, 
  "iers": 7374, 
  "Dich": 7375, 
  "Waren@@": 7376, 
  "assen": 7377, 
  "ole": 7378, 
  "Tendenz": 7379, 
  "lat@@": 7380, 
  "Start@@": 7381, 
  "bereitzustellen": 7382, 
  "Aktien@@": 7383, 
  "Formel": 7384, 
  "Dor@@": 7385, 
  "Ren@@": 7386, 
  "Blut": 7387, 
  "Real": 7388, 
  "Hör@@": 7389, 
  "verschoben": 7390, 
  "Konflikts": 7391, 
  "Arbeitsweise": 7392, 
  "Datenschutz@@": 7393, 
  "machten": 7394, 
  "Zivil@@": 7395, 
  "gewachsen": 7396, 
  "steckt": 7397, 
  "streben": 7398, 
  "entworfen": 7399, 
  "unmittelbaren": 7400, 
  "Tatsachen": 7401, 
  "Integrität": 7402, 
  "listen": 7403, 
  "tigt": 7404, 
  "Eintrag": 7405, 
  "Fehlen": 7406, 
  "Sar@@": 7407, 
  "Les@@": 7408, 
  "mehrerer": 7409, 
  "pu@@": 7410, 
  "wenigsten": 7411, 
  "multi@@": 7412, 
  "Kluft": 7413, 
  "umfassendes": 7414, 
  "Lager@@": 7415, 
  "Christen": 7416, 
  "kr@@": 7417, 
  "Reichtum": 7418, 
  "genauen": 7419, 
  "EVP": 7420, 
  "unterstreicht": 7421, 
  "dis@@": 7422, 
  "Golfplatz": 7423, 
  "Effektivität": 7424, 
  "7.@@": 7425, 
  "belgischen": 7426, 
  "vorne": 7427, 
  "Wahrscheinlichkeit": 7428, 
  "Freien": 7429, 
  "dauerhafte": 7430, 
  "Begriffe": 7431, 
  "Ne@@": 7432, 
  "Hau@@": 7433, 
  "Visa": 7434, 
  "angehören": 7435, 
  "gesucht": 7436, 
  "Logo": 7437, 
  "bestellt": 7438, 
  "wunderbare": 7439, 
  "Randlage": 7440, 
  "art@@": 7441, 
  "C.": 7442, 
  "zutiefst": 7443, 
  "getestet": 7444, 
  "tolle": 7445, 
  "Trennung": 7446, 
  "unweit": 7447, 
  "dienst@@": 7448, 
  "volles": 7449, 
  "AB@@": 7450, 
  "ID@@": 7451, 
  "verknüpft": 7452, 
  "Aufträge": 7453, 
  "besseres": 7454, 
  "Km": 7455, 
  "Kopie": 7456, 
  "Bay": 7457, 
  "Neues": 7458, 
  "Weißbuch": 7459, 
  "parlamentarische": 7460, 
  "Haup@@": 7461, 
  "asiatischen": 7462, 
  "süd@@": 7463, 
  "kopieren": 7464, 
  "Gastfreundschaft": 7465, 
  "geschlossenen": 7466, 
  "geschätzt": 7467, 
  "schöner": 7468, 
  "unvergesslichen": 7469, 
  "Argentinien": 7470, 
  "friedliche": 7471, 
  "frühere": 7472, 
  "Nahrungsmittel@@": 7473, 
  "inwieweit": 7474, 
  "Stabilitäts-": 7475, 
  "Wechsel": 7476, 
  "umzu@@": 7477, 
  "bedeutendsten": 7478, 
  "RA@@": 7479, 
  "Politik@@": 7480, 
  "Menschen@@": 7481, 
  "Spar@@": 7482, 
  "Zubehör": 7483, 
  "wa@@": 7484, 
  "Salzburg": 7485, 
  "Gesellschafts@@": 7486, 
  "hän@@": 7487, 
  "Energieversorgung": 7488, 
  "vorhandene": 7489, 
  "Erst@@": 7490, 
  "Defizite": 7491, 
  "Vorbild": 7492, 
  "Taxi": 7493, 
  "TE": 7494, 
  "bereitstellen": 7495, 
  "Ausgleich": 7496, 
  "gefolgt": 7497, 
  "gewann": 7498, 
  "info": 7499, 
  "Ersatz": 7500, 
  "cker": 7501, 
  "eit": 7502, 
  "frische": 7503, 
  "zes": 7504, 
  "versorgung": 7505, 
  "denden": 7506, 
  "Bil@@": 7507, 
  "58": 7508, 
  "Leid": 7509, 
  "ausgestatteten": 7510, 
  "6.@@": 7511, 
  "erungen": 7512, 
  "TR@@": 7513, 
  "zweimal": 7514, 
  "übrig": 7515, 
  "korrigieren": 7516, 
  "erh@@": 7517, 
  "met@@": 7518, 
  "üben": 7519, 
  "erschienen": 7520, 
  "Stuttgart": 7521, 
  "Cap@@": 7522, 
  "Erd@@": 7523, 
  "Menschenhandel": 7524, 
  "Nationalpark": 7525, 
  "id": 7526, 
  "beitreten": 7527, 
  "Dienst@@": 7528, 
  "viertel": 7529, 
  "Parks": 7530, 
  "Mauer": 7531, 
  "pa@@": 7532, 
  "57": 7533, 
  "optimalen": 7534, 
  "qui": 7535, 
  "standard": 7536, 
  "Vorwand": 7537, 
  "Tunesien": 7538, 
  "Zwecken": 7539, 
  "Zugangs": 7540, 
  "verfasst": 7541, 
  "Denken": 7542, 
  "Geschlechter": 7543, 
  "Innovations@@": 7544, 
  "erweiterte": 7545, 
  "dei": 7546, 
  "har@@": 7547, 
  "minutes": 7548, 
  "best": 7549, 
  "Voraus": 7550, 
  "buch@@": 7551, 
  "müßte": 7552, 
  "Jahresbericht": 7553, 
  "Ostsee": 7554, 
  "Bra@@": 7555, 
  "Spielraum": 7556, 
  "zwangsläufig": 7557, 
  "wahl": 7558, 
  "Ra@@": 7559, 
  "runden": 7560, 
  "geklärt": 7561, 
  "Zulassung": 7562, 
  "reservieren": 7563, 
  "korrekte": 7564, 
  "Thailand": 7565, 
  "Inneres": 7566, 
  "enti@@": 7567, 
  "religiöse": 7568, 
  "kul@@": 7569, 
  "Vermeidung": 7570, 
  "ay": 7571, 
  "reich@@": 7572, 
  "gs@@": 7573, 
  "materialien": 7574, 
  "Pack": 7575, 
  "gehörte": 7576, 
  "legung": 7577, 
  "aktionen": 7578, 
  "Sortiment": 7579, 
  "Bonus": 7580, 
  "Hol@@": 7581, 
  "durchgesetzt": 7582, 
  "Grün@@": 7583, 
  "92": 7584, 
  "regelmäßige": 7585, 
  "Leistungsfähigkeit": 7586, 
  "Übersetzungs@@": 7587, 
  "methode": 7588, 
  "Zusammenbruch": 7589, 
  "glücklicherweise": 7590, 
  "Territorium": 7591, 
  "lauf": 7592, 
  "11.@@": 7593, 
  "ía": 7594, 
  "Fertigung": 7595, 
  "Neuigkeiten": 7596, 
  "Vo@@": 7597, 
  "industrielle": 7598, 
  "ausgebaut": 7599, 
  "ç@@": 7600, 
  "Verein": 7601, 
  "untereinander": 7602, 
  "gebäude": 7603, 
  "ders": 7604, 
  "sion": 7605, 
  "tis": 7606, 
  "inner@@": 7607, 
  "chemischen": 7608, 
  "geltend": 7609, 
  "qualifizierten": 7610, 
  "ausgaben": 7611, 
  "Kommentar": 7612, 
  "Standpunkte": 7613, 
  "Bor@@": 7614, 
  "anmelden": 7615, 
  "Libyen": 7616, 
  "Wand@@": 7617, 
  "Versand": 7618, 
  "fühlt": 7619, 
  "PS": 7620, 
  "Wurzeln": 7621, 
  "automatischen": 7622, 
  "leichten": 7623, 
  "Kn@@": 7624, 
  "Tel@@": 7625, 
  "CS": 7626, 
  "Release": 7627, 
  "dauerhaft": 7628, 
  "900": 7629, 
  "Christdemokraten": 7630, 
  "Fre@@": 7631, 
  "Stimmung": 7632, 
  "tägliche": 7633, 
  "AIDS": 7634, 
  "cke": 7635, 
  "auer": 7636, 
  "genügt": 7637, 
  "Swiss": 7638, 
  "HD": 7639, 
  "Ganzes": 7640, 
  "59": 7641, 
  "technologie": 7642, 
  "Abfälle": 7643, 
  "gesorgt": 7644, 
  "easy": 7645, 
  "Komponente": 7646, 
  "isiert": 7647, 
  "mi": 7648, 
  "islamischen": 7649, 
  "Charles": 7650, 
  "Netzes": 7651, 
  "werk@@": 7652, 
  "vorangegangenen": 7653, 
  "rit@@": 7654, 
  "Fitness": 7655, 
  "großartige": 7656, 
  "veröffentlichten": 7657, 
  "Vorredner": 7658, 
  "anz": 7659, 
  "allmählich": 7660, 
  "Reserve": 7661, 
  "sz@@": 7662, 
  "sozusagen": 7663, 
  "ausgewogene": 7664, 
  "Frankreichs": 7665, 
  "leitet": 7666, 
  "AL": 7667, 
  "Fußball": 7668, 
  "Wohlbefinden": 7669, 
  "off": 7670, 
  "leiter": 7671, 
  "í": 7672, 
  "belegen": 7673, 
  "Kaiser": 7674, 
  "server": 7675, 
  "Spanisch": 7676, 
  "systematisch": 7677, 
  "ron@@": 7678, 
  "GB": 7679, 
  "Captain": 7680, 
  "Kooperations@@": 7681, 
  "Level": 7682, 
  "Kirk": 7683, 
  "Gaza": 7684, 
  "greift": 7685, 
  "denkt": 7686, 
  "Pre@@": 7687, 
  "Präsidium": 7688, 
  "kompliziert": 7689, 
  "Anzeichen": 7690, 
  "Konzert": 7691, 
  "Zielsetzung": 7692, 
  "mechanismus": 7693, 
  "demnach": 7694, 
  "Statistik": 7695, 
  "erschien": 7696, 
  "bemerken": 7697, 
  "bach": 7698, 
  "Albanien": 7699, 
  "CDs": 7700, 
  "finanzierung": 7701, 
  "welt@@": 7702, 
  "bezogene": 7703, 
  "schwarzen": 7704, 
  "Simbabwe": 7705, 
  "Flu@@": 7706, 
  "Gemüse": 7707, 
  "hinzuweisen": 7708, 
  "Casa": 7709, 
  "Arbeitskräfte": 7710, 
  "Rahmens": 7711, 
  "fein@@": 7712, 
  "weitergegeben": 7713, 
  "vi": 7714, 
  "vorrangig": 7715, 
  "Berechnung": 7716, 
  "anderswo": 7717, 
  "erter": 7718, 
  "endem": 7719, 
  "schieben": 7720, 
  "Hilfen": 7721, 
  "pos@@": 7722, 
  "Informationsgesellschaft": 7723, 
  "As@@": 7724, 
  "lag@@": 7725, 
  "å@@": 7726, 
  "rin@@": 7727, 
  "Grundfreiheiten": 7728, 
  "gegebenen": 7729, 
  "assi@@": 7730, 
  "Res@@": 7731, 
  "besichtigen": 7732, 
  "indirekt": 7733, 
  "haftet": 7734, 
  "empf@@": 7735, 
  "chs": 7736, 
  "zulässig": 7737, 
  "passenden": 7738, 
  "CHF": 7739, 
  "Festung": 7740, 
  "weitem": 7741, 
  "entes": 7742, 
  "Fuss": 7743, 
  "stellten": 7744, 
  "gültigen": 7745, 
  "Ernennung": 7746, 
  "ly": 7747, 
  "Geschichten": 7748, 
  "verbieten": 7749, 
  "werken": 7750, 
  "Alexander": 7751, 
  "fertigen": 7752, 
  "wen@@": 7753, 
  "herunter": 7754, 
  "t-": 7755, 
  "Tre@@": 7756, 
  "therapie": 7757, 
  "einzustellen": 7758, 
  "einheiten": 7759, 
  "Col@@": 7760, 
  "garten": 7761, 
  "mach@@": 7762, 
  "saubere": 7763, 
  "stück": 7764, 
  "Busse": 7765, 
  "vielfach": 7766, 
  "eien": 7767, 
  "Ticket": 7768, 
  "DI@@": 7769, 
  "Ka@@": 7770, 
  "ausgedrückt": 7771, 
  "schwedische": 7772, 
  "vorausgesetzt": 7773, 
  "Binnenmarkts": 7774, 
  "SE": 7775, 
  "ausgearbeitet": 7776, 
  "überdies": 7777, 
  "östlichen": 7778, 
  "datei": 7779, 
  "Porto": 7780, 
  "Dörfer": 7781, 
  "Literatur": 7782, 
  "Stränden": 7783, 
  "Kontakt@@": 7784, 
  "Kühlschrank": 7785, 
  "Anmerkung": 7786, 
  "stoppen": 7787, 
  "ment@@": 7788, 
  "Bier": 7789, 
  "Mühe": 7790, 
  "Wahrnehmung": 7791, 
  "Central": 7792, 
  "IC": 7793, 
  "val@@": 7794, 
  "Konflikten": 7795, 
  "Premium": 7796, 
  "Mitwirkung": 7797, 
  "offen@@": 7798, 
  "rich@@": 7799, 
  "Landschaften": 7800, 
  "tere": 7801, 
  "besagt": 7802, 
  "Dringlichkeit": 7803, 
  "ase": 7804, 
  "Informations-": 7805, 
  "Gleichbehandlung": 7806, 
  "ents": 7807, 
  "Nahrungsmittel": 7808, 
  "gefühl": 7809, 
  "Signale": 7810, 
  "Verkehrsmittel": 7811, 
  "wahrnehmen": 7812, 
  "Top@@": 7813, 
  "häufiger": 7814, 
  "Kraft@@": 7815, 
  "züge": 7816, 
  "wir@@": 7817, 
  "Control": 7818, 
  "dateien": 7819, 
  "Transpor@@": 7820, 
  "France": 7821, 
  "Domain": 7822, 
  "Ärzte": 7823, 
  "tatsächliche": 7824, 
  "bin@@": 7825, 
  "arbeiter": 7826, 
  "Applikationen": 7827, 
  "mas": 7828, 
  "mache": 7829, 
  "verwirklicht": 7830, 
  "weichen": 7831, 
  "hinterlassen": 7832, 
  "Zug@@": 7833, 
  "food": 7834, 
  "gers": 7835, 
  "ont": 7836, 
  "deutlicher": 7837, 
  "anstreben": 7838, 
  "Ratspräsidenten": 7839, 
  "meint": 7840, 
  "bilder": 7841, 
  "dende": 7842, 
  "vereinfacht": 7843, 
  "Loch": 7844, 
  "Mittel-": 7845, 
  "abgehalten": 7846, 
  "Impulse": 7847, 
  "SA": 7848, 
  "93": 7849, 
  "Substanzen": 7850, 
  "arme": 7851, 
  "Wunder": 7852, 
  "Einladung": 7853, 
  "bewundern": 7854, 
  "gezielt": 7855, 
  "bur@@": 7856, 
  "Vermarktung": 7857, 
  "verbreiten": 7858, 
  "Stellenwert": 7859, 
  "Parlamenten": 7860, 
  "bewirkt": 7861, 
  "späten": 7862, 
  "sitz": 7863, 
  "Display": 7864, 
  "bri@@": 7865, 
  "Parlaments@@": 7866, 
  "Direkt@@": 7867, 
  "Ac@@": 7868, 
  "ación": 7869, 
  "beh@@": 7870, 
  "sichert": 7871, 
  "Zellen": 7872, 
  ".org": 7873, 
  "Konzerte": 7874, 
  "mangelnde": 7875, 
  "Wärme": 7876, 
  "antiken": 7877, 
  "Doha": 7878, 
  "Besteller": 7879, 
  "EP": 7880, 
  "Automobilindustrie": 7881, 
  "EC@@": 7882, 
  "kat@@": 7883, 
  "Durchschnitt": 7884, 
  "â@@": 7885, 
  "63": 7886, 
  "beantragen": 7887, 
  "stellungen": 7888, 
  "vorschlägt": 7889, 
  "kette": 7890, 
  "aussch@@": 7891, 
  "rein@@": 7892, 
  "sat@@": 7893, 
  "verschwinden": 7894, 
  "benötigten": 7895, 
  "strategien": 7896, 
  "pass@@": 7897, 
  "zo@@": 7898, 
  "zuverlässige": 7899, 
  "ance": 7900, 
  "Fokus": 7901, 
  "Schiffs@@": 7902, 
  "gründlich": 7903, 
  "Finanziellen": 7904, 
  "Klick": 7905, 
  "geladen": 7906, 
  "indi@@": 7907, 
  "marktes": 7908, 
  "Erreichen": 7909, 
  "gel": 7910, 
  "uner@@": 7911, 
  "betreibt": 7912, 
  "schlag@@": 7913, 
  "71": 7914, 
  "Nero": 7915, 
  "Weihnachts@@": 7916, 
  "landes": 7917, 
  "seln": 7918, 
  "box": 7919, 
  "verstärkten": 7920, 
  "Kommissions@@": 7921, 
  "Bes@@": 7922, 
  "tigung": 7923, 
  "ville": 7924, 
  "Annäherung": 7925, 
  "Sor@@": 7926, 
  "Mur@@": 7927, 
  "ss": 7928, 
  "realistisch": 7929, 
  "irgendwann": 7930, 
  "ausgenommen": 7931, 
  "Aufrechterhaltung": 7932, 
  "Indonesien": 7933, 
  "Executive": 7934, 
  "umwelt@@": 7935, 
  "Jahrzehnt": 7936, 
  "Tibet": 7937, 
  "Projektes": 7938, 
  "Karl": 7939, 
  "Benutzern": 7940, 
  "moralische": 7941, 
  "Schiffen": 7942, 
  "Copyright": 7943, 
  "wahr@@": 7944, 
  "einbringen": 7945, 
  "Gefangenen": 7946, 
  "66": 7947, 
  "fair": 7948, 
  "gestellte": 7949, 
  "Satelliten": 7950, 
  "abzielt": 7951, 
  "optimieren": 7952, 
  "sexuellen": 7953, 
  "hel@@": 7954, 
  "Alkohol": 7955, 
  "film": 7956, 
  "Welthandelsorganisation": 7957, 
  "Forsch@@": 7958, 
  "GVO": 7959, 
  "Künstlern": 7960, 
  "eingeben": 7961, 
  "probieren": 7962, 
  "aff@@": 7963, 
  "verbot": 7964, 
  "Zentren": 7965, 
  "persönlicher": 7966, 
  "fließen": 7967, 
  "plant": 7968, 
  "det@@": 7969, 
  "real": 7970, 
  "anfangen": 7971, 
  "harten": 7972, 
  "Doppelbett": 7973, 
  "Sicherheitsrat": 7974, 
  "Einwände": 7975, 
  "ion": 7976, 
  "verkehrs@@": 7977, 
  "tei@@": 7978, 
  "Sol": 7979, 
  "Einblick": 7980, 
  "ausgewählte": 7981, 
  "Behinderungen": 7982, 
  "verband": 7983, 
  "ut": 7984, 
  "Umstrukturierung": 7985, 
  "Foren": 7986, 
  "ass": 7987, 
  "mung": 7988, 
  "bekam": 7989, 
  "rücken": 7990, 
  "Konferenz@@": 7991, 
  "cia": 7992, 
  "Norwegen": 7993, 
  "erreichten": 7994, 
  "befreien": 7995, 
  "Music": 7996, 
  "dy": 7997, 
  "kommunistischen": 7998, 
  "Buchungs@@": 7999, 
  "schwarz": 8000, 
  "Säule": 8001, 
  "orientierten": 8002, 
  "orientierte": 8003, 
  "Sicherheits-": 8004, 
  "veröffentlichte": 8005, 
  "verteilen": 8006, 
  "tiefen": 8007, 
  "Studios": 8008, 
  "beliebtesten": 8009, 
  "HIV": 8010, 
  "oni": 8011, 
  "agieren": 8012, 
  "Metro": 8013, 
  "Q": 8014, 
  "seg@@": 8015, 
  "ensystem": 8016, 
  "beantragt": 8017, 
  "IG@@": 8018, 
  "who": 8019, 
  "lieb@@": 8020, 
  "Vorstand": 8021, 
  "Eleganz": 8022, 
  "Route": 8023, 
  "Fein@@": 8024, 
  "dänischen": 8025, 
  "Fristen": 8026, 
  "mb@@": 8027, 
  "beeinträchtigen": 8028, 
  "damaligen": 8029, 
  "echter": 8030, 
  "gesetzliche": 8031, 
  "Kompromisse": 8032, 
  "baus": 8033, 
  "gelöscht": 8034, 
  "Abwicklung": 8035, 
  "Square": 8036, 
  "Peking": 8037, 
  "Ansätze": 8038, 
  "eil@@": 8039, 
  "ör@@": 8040, 
  "Räumen": 8041, 
  "euer": 8042, 
  "Fol@@": 8043, 
  "Indikatoren": 8044, 
  "vernünftigen": 8045, 
  "zy@@": 8046, 
  "io@@": 8047, 
  "Nachbarschaftspolitik": 8048, 
  "ire": 8049, 
  "Richard": 8050, 
  "Rechnungs@@": 8051, 
  "Gesetzen": 8052, 
  "Banken@@": 8053, 
  "user": 8054, 
  "Griff": 8055, 
  "Demokratien": 8056, 
  "leitungen": 8057, 
  "Unternehmen@@": 8058, 
  "Poly@@": 8059, 
  "prozeß": 8060, 
  "Renten@@": 8061, 
  "Nachteil": 8062, 
  "ppen": 8063, 
  "ever@@": 8064, 
  "School": 8065, 
  "nachzudenken": 8066, 
  "IM@@": 8067, 
  "Ta@@": 8068, 
  "Zeitungen": 8069, 
  "nnen": 8070, 
  "Hongkong": 8071, 
  "abteilung": 8072, 
  "OK": 8073, 
  "richtung": 8074, 
  "anzugehen": 8075, 
  "touristischen": 8076, 
  "koordinieren": 8077, 
  "Operationen": 8078, 
  "Blue": 8079, 
  "6,@@": 8080, 
  "englische": 8081, 
  "museum": 8082, 
  "Anreiz": 8083, 
  "pres@@": 8084, 
  "gesetzlich": 8085, 
  "Alpen@@": 8086, 
  "Infrastrukturen": 8087, 
  "Gleichheit": 8088, 
  "s.@@": 8089, 
  "dungen": 8090, 
  "Airlines": 8091, 
  "gelegentlich": 8092, 
  "AC": 8093, 
  "beweist": 8094, 
  "dementsprechend": 8095, 
  "Generalsekretär": 8096, 
  "Währungen": 8097, 
  "max": 8098, 
  "facilities": 8099, 
  "Verpackung": 8100, 
  "Augenmerk": 8101, 
  "2,5": 8102, 
  "Aufsicht": 8103, 
  "angeführt": 8104, 
  "geführte": 8105, 
  "Diktatur": 8106, 
  "Spielern": 8107, 
  "glich": 8108, 
  "erungs@@": 8109, 
  "port@@": 8110, 
  "Finanz-": 8111, 
  "angen": 8112, 
  "dro@@": 8113, 
  "Teilnehmern": 8114, 
  "berufen": 8115, 
  "Heim@@": 8116, 
  "forderte": 8117, 
  "Verfahrens@@": 8118, 
  "Explorer": 8119, 
  "XML": 8120, 
  "Trans@@": 8121, 
  "rot": 8122, 
  "niedrige": 8123, 
  "viel@@": 8124, 
  "hinzuzufügen": 8125, 
  "Hunger": 8126, 
  "Herz@@": 8127, 
  "Erfolgs@@": 8128, 
  "car": 8129, 
  "namen": 8130, 
  "Möbel": 8131, 
  "dorf": 8132, 
  "Verbrauch": 8133, 
  "Statut": 8134, 
  "gens": 8135, 
  "Kampf@@": 8136, 
  "Energi@@": 8137, 
  "62": 8138, 
  "renovierte": 8139, 
  "ön@@": 8140, 
  "Workshops": 8141, 
  "ow": 8142, 
  "votre": 8143, 
  "Projek@@": 8144, 
  "Sierra": 8145, 
  "Single": 8146, 
  "AU@@": 8147, 
  "Stad@@": 8148, 
  "westliche": 8149, 
  "vorbereiten": 8150, 
  "Baden": 8151, 
  "attraktive": 8152, 
  "geschmackvoll": 8153, 
  "Kühl@@": 8154, 
  "Gri@@": 8155, 
  "qm": 8156, 
  "04@@": 8157, 
  "enter": 8158, 
  "Orientierung": 8159, 
  "12.@@": 8160, 
  "AG@@": 8161, 
  "engagieren": 8162, 
  "Internetseiten": 8163, 
  "Echtzeit": 8164, 
  "Kreuz@@": 8165, 
  "set": 8166, 
  "ße": 8167, 
  "dynamischen": 8168, 
  "sozial": 8169, 
  "adi@@": 8170, 
  "ele": 8171, 
  "geschlagen": 8172, 
  "Jahrhunderte": 8173, 
  "Risiko@@": 8174, 
  "bemerkt": 8175, 
  "dynamische": 8176, 
  "schien": 8177, 
  "Autonomie": 8178, 
  "anscheinend": 8179, 
  "Abend@@": 8180, 
  "ausgeübt": 8181, 
  "Ba@@": 8182, 
  "ord@@": 8183, 
  "Gesamtheit": 8184, 
  "identifizieren": 8185, 
  "global": 8186, 
  "behindert": 8187, 
  "Freizeit": 8188, 
  "dauerhaften": 8189, 
  "Handlungs@@": 8190, 
  "Bruder": 8191, 
  "mengen": 8192, 
  "elf": 8193, 
  "firmen": 8194, 
  "deckt": 8195, 
  "Software@@": 8196, 
  "Tar@@": 8197, 
  "fangen": 8198, 
  "ernannt": 8199, 
  "Früchte": 8200, 
  "Schrift@@": 8201, 
  "Stockholm": 8202, 
  "Dafürhalten": 8203, 
  "emp@@": 8204, 
  "dor@@": 8205, 
  "ies": 8206, 
  "Vol@@": 8207, 
  "ill@@": 8208, 
  "int@@": 8209, 
  "67": 8210, 
  "Arena": 8211, 
  "hôtel": 8212, 
  "drehen": 8213, 
  "Einfluß": 8214, 
  "Security": 8215, 
  "Vietnam": 8216, 
  "Nokia": 8217, 
  "fil@@": 8218, 
  "Telekommunikations@@": 8219, 
  "Verbindungs@@": 8220, 
  "meister": 8221, 
  "Joseph": 8222, 
  "eu": 8223, 
  "Dar@@": 8224, 
  "scht": 8225, 
  "Institute": 8226, 
  "Entschädigung": 8227, 
  "massive": 8228, 
  "Vertriebs@@": 8229, 
  "erkennbar": 8230, 
  "platten": 8231, 
  "Passagiere": 8232, 
  "AP@@": 8233, 
  "fünfzehn": 8234, 
  "votes": 8235, 
  "einsetzt": 8236, 
  "General@@": 8237, 
  "ligen": 8238, 
  "Mac@@": 8239, 
  "urlaub": 8240, 
  "к@@": 8241, 
  "Kalender": 8242, 
  "English": 8243, 
  "GPS": 8244, 
  "bot": 8245, 
  "voraus@@": 8246, 
  "intelligente": 8247, 
  "begab": 8248, 
  "kunst": 8249, 
  "61": 8250, 
  "rufe": 8251, 
  "grad": 8252, 
  "Kleidung": 8253, 
  "bekräftigen": 8254, 
  "into": 8255, 
  "Für": 8256, 
  "kraft@@": 8257, 
  "vermögen": 8258, 
  "bt": 8259, 
  "je@@": 8260, 
  "medi@@": 8261, 
  "Naturkatastrophen": 8262, 
  "erzählt": 8263, 
  "Nichtregierungsorganisationen": 8264, 
  "Chr.": 8265, 
  "mechanismen": 8266, 
  "amen": 8267, 
  "tigem": 8268, 
  "8.@@": 8269, 
  "eventuelle": 8270, 
  "wandern": 8271, 
  "Erneuerung": 8272, 
  "direkter": 8273, 
  "erholen": 8274, 
  "Termine": 8275, 
  "nahen": 8276, 
  "reform": 8277, 
  "Völkern": 8278, 
  "Geburt": 8279, 
  "Fot@@": 8280, 
  "Schottland": 8281, 
  "gesendet": 8282, 
  "intensiven": 8283, 
  "Campingplatz": 8284, 
  "format": 8285, 
  "LT": 8286, 
  "erfassen": 8287, 
  "Themen@@": 8288, 
  "Nachbarschaft": 8289, 
  "römischen": 8290, 
  "II.": 8291, 
  "hilfe": 8292, 
  "ativ": 8293, 
  "Konzern": 8294, 
  "basierten": 8295, 
  "Mass@@": 8296, 
  "82": 8297, 
  "Rats@@": 8298, 
  "Milch": 8299, 
  "EU@@": 8300, 
  "ov": 8301, 
  "Anpassungen": 8302, 
  "Rand@@": 8303, 
  "Games": 8304, 
  "vorzubereiten": 8305, 
  "geräumige": 8306, 
  "dachte": 8307, 
  "м@@": 8308, 
  "behandlung": 8309, 
  "Einbindung": 8310, 
  "billigen": 8311, 
  "Beförderung": 8312, 
  "4,@@": 8313, 
  "zugreifen": 8314, 
  "fortzusetzen": 8315, 
  "tau@@": 8316, 
  "Account": 8317, 
  "Infos": 8318, 
  "Obst": 8319, 
  "Mitglieds@@": 8320, 
  "bezogenen": 8321, 
  "Songs": 8322, 
  "lungs@@": 8323, 
  "elegant": 8324, 
  "Maßstab": 8325, 
  "streichen": 8326, 
  "Dienstes": 8327, 
  "gemütlich": 8328, 
  "Sel@@": 8329, 
  "Dritt@@": 8330, 
  "ON": 8331, 
  "partner": 8332, 
  "Musiker": 8333, 
  "Zeile": 8334, 
  "grundlegend": 8335, 
  "viertens": 8336, 
  "ungssystem": 8337, 
  "pan@@": 8338, 
  "Don@@": 8339, 
  "pri@@": 8340, 
  "unden": 8341, 
  "akt": 8342, 
  "q@@": 8343, 
  "nos": 8344, 
  "350": 8345, 
  "illegal": 8346, 
  "Listen": 8347, 
  "tigsten": 8348, 
  "erfahrenen": 8349, 
  "Op@@": 8350, 
  "Zoll": 8351, 
  "demzufolge": 8352, 
  "internet": 8353, 
  "werks": 8354, 
  "suite": 8355, 
  "Stellungnahmen": 8356, 
  "m.": 8357, 
  "festhalten": 8358, 
  "let@@": 8359, 
  "vis@@": 8360, 
  "Lauf": 8361, 
  "doppelt": 8362, 
  "kal@@": 8363, 
  "Kameras": 8364, 
  "what": 8365, 
  "hinter@@": 8366, 
  "abzulehnen": 8367, 
  "double": 8368, 
  "tiere": 8369, 
  "komm@@": 8370, 
  "rat@@": 8371, 
  "Gültigkeit": 8372, 
  "Meister": 8373, 
  "nah@@": 8374, 
  "Plugin": 8375, 
  "hervorzuheben": 8376, 
  "tierung": 8377, 
  "Haar@@": 8378, 
  "beglückwünsche": 8379, 
  "fro@@": 8380, 
  "Rechtssicherheit": 8381, 
  "istischer": 8382, 
  "Ker@@": 8383, 
  "Paradies": 8384, 
  "he@@": 8385, 
  "urs": 8386, 
  "genen": 8387, 
  "amt": 8388, 
  "68": 8389, 
  "Resultat": 8390, 
  "Hoffnungen": 8391, 
  "Reden": 8392, 
  "ersuchen": 8393, 
  "Installations@@": 8394, 
  "orte": 8395, 
  "Rat@@": 8396, 
  "Siemens": 8397, 
  "öl@@": 8398, 
  "Wil@@": 8399, 
  "Auftraggeber": 8400, 
  "wertvollen": 8401, 
  "Sevilla": 8402, 
  "steigende": 8403, 
  "zivilen": 8404, 
  "kriterien": 8405, 
  "Interview": 8406, 
  "warm": 8407, 
  "Ansprechpartner": 8408, 
  "Basel": 8409, 
  "Sü@@": 8410, 
  "Netzwerke": 8411, 
  "gemeinschaftliche": 8412, 
  "Buffet": 8413, 
  "geachtet": 8414, 
  "Herstellern": 8415, 
  "ll": 8416, 
  "Lust": 8417, 
  "dahingehend": 8418, 
  "ausgestellt": 8419, 
  "unzählige": 8420, 
  "stan@@": 8421, 
  "beobachtet": 8422, 
  "Sen@@": 8423, 
  "Helsinki": 8424, 
  "Entschließungsanträge": 8425, 
  "Mitgliedsstaaten": 8426, 
  "roten": 8427, 
  "ziel": 8428, 
  "landschaft": 8429, 
  "made": 8430, 
  "Prof.": 8431, 
  "gesenkt": 8432, 
  "unterstrichen": 8433, 
  "Vorbehalte": 8434, 
  "let": 8435, 
  "tag@@": 8436, 
  "Konsumenten": 8437, 
  "Rücken": 8438, 
  "orten": 8439, 
  "eingesch@@": 8440, 
  "problematisch": 8441, 
  "ungsanlagen": 8442, 
  "Wa@@": 8443, 
  "ALE": 8444, 
  "Direktor": 8445, 
  "ingen": 8446, 
  "städtischen": 8447, 
  "koordiniert": 8448, 
  "verbindliche": 8449, 
  "Zentralbanken": 8450, 
  "big": 8451, 
  "schneiden": 8452, 
  "fragt": 8453, 
  "Interface": 8454, 
  "Ungleichheit": 8455, 
  "bedürfen": 8456, 
  "LAN": 8457, 
  "Warcraft": 8458, 
  "Büro@@": 8459, 
  "vereinbaren": 8460, 
  "Versorgungs@@": 8461, 
  "starker": 8462, 
  "Inanspruchnahme": 8463, 
  "Sozialpolitik": 8464, 
  "Gegebenheiten": 8465, 
  "wen": 8466, 
  "datum": 8467, 
  "Demokratisierung": 8468, 
  "dorthin": 8469, 
  "Erkrankungen": 8470, 
  "stabilen": 8471, 
  "Komplexität": 8472, 
  "berührt": 8473, 
  "las@@": 8474, 
  "RSS": 8475, 
  "sätze": 8476, 
  "Toleranz": 8477, 
  "löst": 8478, 
  "änderungen": 8479, 
  "Haushaltsjahr": 8480, 
  "ela": 8481, 
  "Ganzen": 8482, 
  "benachrichtigt": 8483, 
  "lager": 8484, 
  "Begeisterung": 8485, 
  "tigte": 8486, 
  "außergewöhnlichen": 8487, 
  "dürften": 8488, 
  "Acht": 8489, 
  "kreative": 8490, 
  "Nuklear@@": 8491, 
  "Schluß": 8492, 
  "can@@": 8493, 
  "historisch": 8494, 
  "diversen": 8495, 
  "и@@": 8496, 
  "Streitkräfte": 8497, 
  "spieler": 8498, 
  "Landwirtschafts@@": 8499, 
  "Nikon": 8500, 
  "beachtet": 8501, 
  "really": 8502, 
  "österreichische": 8503, 
  ".-": 8504, 
  "gra@@": 8505, 
  "Redezeit": 8506, 
  "modernsten": 8507, 
  "AT": 8508, 
  "zung": 8509, 
  "pal@@": 8510, 
  "78": 8511, 
  "ausmachen": 8512, 
  "Persönlichkeiten": 8513, 
  "walk": 8514, 
  "team": 8515, 
  "zuzu@@": 8516, 
  "anspruchsvolle": 8517, 
  "Italiens": 8518, 
  "Quartal": 8519, 
  "wiederhole": 8520, 
  "transatlantischen": 8521, 
  "bekämpft": 8522, 
  "Tschetschenien": 8523, 
  "Fahrzeugen": 8524, 
  "mobilen": 8525, 
  "tschechischen": 8526, 
  "alternativen": 8527, 
  "Höhepunkt": 8528, 
  "geschwindigkeit": 8529, 
  "rel@@": 8530, 
  "Schn@@": 8531, 
  "geräumigen": 8532, 
  "Kloster": 8533, 
  "AN": 8534, 
  "amtierende": 8535, 
  "sto@@": 8536, 
  "Forscher": 8537, 
  "Kanäle": 8538, 
  "business": 8539, 
  "Entwicklungspolitik": 8540, 
  "nte": 8541, 
  "Zutaten": 8542, 
  "versetzen": 8543, 
  "aufweist": 8544, 
  "Network": 8545, 
  "76": 8546, 
  "Chaos": 8547, 
  "politiken": 8548, 
  "Breakfast": 8549, 
  "Mari@@": 8550, 
  "Monte": 8551, 
  "Minimum": 8552, 
  "St": 8553, 
  "ps": 8554, 
  "Gesundheitswesen": 8555, 
  "verschärft": 8556, 
  "after": 8557, 
  "Flüchtlingen": 8558, 
  "boden": 8559, 
  "ausgerüstet": 8560, 
  "hersteller": 8561, 
  "ware": 8562, 
  "ruft": 8563, 
  "ßt": 8564, 
  "hinein": 8565, 
  "esta": 8566, 
  "Zivilisation": 8567, 
  "Gay": 8568, 
  "Kernenergie": 8569, 
  "lig": 8570, 
  "Plat@@": 8571, 
  "kel@@": 8572, 
  "Sat": 8573, 
  "a.@@": 8574, 
  "verlängert": 8575, 
  "Erwerb": 8576, 
  "Buchstaben": 8577, 
  "fluss": 8578, 
  "möge": 8579, 
  "Kranken@@": 8580, 
  "Deine": 8581, 
  "Linken": 8582, 
  "tauchen": 8583, 
  "Vel@@": 8584, 
  "Insel@@": 8585, 
  "Störungen": 8586, 
  "Außengrenzen": 8587, 
  "OS@@": 8588, 
  "Lesen": 8589, 
  "hu@@": 8590, 
  "Aufenthalts@@": 8591, 
  "Fertigungs@@": 8592, 
  "schulen": 8593, 
  "vorzuschlagen": 8594, 
  "SQL": 8595, 
  "scheinbar": 8596, 
  "Louis": 8597, 
  "verbindlich": 8598, 
  "zögern": 8599, 
  "Mark": 8600, 
  "tisches": 8601, 
  "Beitrittsverhandlungen": 8602, 
  "Tanz@@": 8603, 
  "verweist": 8604, 
  "Ag@@": 8605, 
  "lingen": 8606, 
  "Einkaufs@@": 8607, 
  "voranzutreiben": 8608, 
  "gänge": 8609, 
  "Boot@@": 8610, 
  "Engineering": 8611, 
  "abschließen": 8612, 
  "personal": 8613, 
  "star": 8614, 
  "abzuschließen": 8615, 
  "ora": 8616, 
  "Nachfolger": 8617, 
  "Besetzung": 8618, 
  "Produk@@": 8619, 
  "grenze": 8620, 
  "Red@@": 8621, 
  "Entdeckung": 8622, 
  "unglaublich": 8623, 
  "ea": 8624, 
  "einf@@": 8625, 
  "Publikationen": 8626, 
  "services": 8627, 
  "DIE": 8628, 
  "nisse": 8629, 
  "vorzu@@": 8630, 
  "Hunderte": 8631, 
  "volumen": 8632, 
  "Rollen": 8633, 
  "people": 8634, 
  "begrenzte": 8635, 
  "One": 8636, 
  "betrug": 8637, 
  "legislativen": 8638, 
  "Partei@@": 8639, 
  "wunderbaren": 8640, 
  "Moldau": 8641, 
  "abgeschafft": 8642, 
  "A.": 8643, 
  "Laser@@": 8644, 
  "Landwirten": 8645, 
  "lang@@": 8646, 
  "Richtigkeit": 8647, 
  "Kapitalismus": 8648, 
  "Auftrags@@": 8649, 
  "fung": 8650, 
  "beherbergt": 8651, 
  "ars": 8652, 
  "Zinssätze": 8653, 
  "gendes": 8654, 
  "Residence": 8655, 
  "Ferienhaus": 8656, 
  "Kindes": 8657, 
  "dien@@": 8658, 
  "fahrer": 8659, 
  "Pl@@": 8660, 
  "Zucker": 8661, 
  "Wert@@": 8662, 
  "world": 8663, 
  "Button": 8664, 
  "markiert": 8665, 
  "KDE": 8666, 
  "Fel@@": 8667, 
  "Autorität": 8668, 
  "amtierenden": 8669, 
  "pe": 8670, 
  "ise": 8671, 
  "irgendeine": 8672, 
  "I.": 8673, 
  "quote": 8674, 
  "ère": 8675, 
  "Erwachsenen": 8676, 
  "yl@@": 8677, 
  "egt": 8678, 
  "kol@@": 8679, 
  "fünf@@": 8680, 
  "Immunität": 8681, 
  "Gepäck": 8682, 
  "preisen": 8683, 
  "ki@@": 8684, 
  "Mol@@": 8685, 
  "fehler": 8686, 
  "freiwillig": 8687, 
  "Bundesrepublik": 8688, 
  "irgendwie": 8689, 
  "bestraft": 8690, 
  "hafte": 8691, 
  "vergleichbar": 8692, 
  "Fleisch@@": 8693, 
  "mittel-": 8694, 
  "durchschnittlich": 8695, 
  "geld": 8696, 
  "Technology": 8697, 
  "2015": 8698, 
  "Not": 8699, 
  "bewahrt": 8700, 
  "Logistik": 8701, 
  "Monats": 8702, 
  "ario": 8703, 
  "Kreatur": 8704, 
  "begrenzen": 8705, 
  "ł@@": 8706, 
  "BR@@": 8707, 
  "massiven": 8708, 
  "ba@@": 8709, 
  "Geschäftsführer": 8710, 
  "stufen": 8711, 
  "ast": 8712, 
  "Düsseldorf": 8713, 
  "blockiert": 8714, 
  "Zustellbetten": 8715, 
  "verteilung": 8716, 
  "Bad@@": 8717, 
  "180": 8718, 
  "wunder@@": 8719, 
  "angemessener": 8720, 
  "On": 8721, 
  "trinken": 8722, 
  "based": 8723, 
  "sinn@@": 8724, 
  "schwach": 8725, 
  "festgehalten": 8726, 
  "versprochen": 8727, 
  "bedient": 8728, 
  "Jazz": 8729, 
  "а@@": 8730, 
  "iranischen": 8731, 
  "einzuleiten": 8732, 
  "Bestell@@": 8733, 
  "fen@@": 8734, 
  "beides": 8735, 
  "unmittelbare": 8736, 
  "Ziels": 8737, 
  "Artikels": 8738, 
  "halben": 8739, 
  "zugeben": 8740, 
  "Konvents": 8741, 
  "On@@": 8742, 
  "optimiert": 8743, 
  "indischen": 8744, 
  "Zentrums": 8745, 
  "nis": 8746, 
  "Automobil@@": 8747, 
  "ermittelt": 8748, 
  "nissen": 8749, 
  "gemachten": 8750, 
  "fre@@": 8751, 
  "alem": 8752, 
  "regionen": 8753, 
  "forum": 8754, 
  "25@@": 8755, 
  "Brenn@@": 8756, 
  "pflegen": 8757, 
  "Wanderungen": 8758, 
  "Saddam": 8759, 
  "sämtlicher": 8760, 
  "Funk@@": 8761, 
  "Gest@@": 8762, 
  "status": 8763, 
  "sionen": 8764, 
  "Strecken": 8765, 
  "leb@@": 8766, 
  "Michel": 8767, 
  "Ära": 8768, 
  "Anwendungsbereich": 8769, 
  "durchschnittliche": 8770, 
  "Problem@@": 8771, 
  "Standorten": 8772, 
  "verkehrs": 8773, 
  "aufhören": 8774, 
  "Freizeit@@": 8775, 
  "minister": 8776, 
  "edi@@": 8777, 
  "Firefox": 8778, 
  "Beträge": 8779, 
  "ausgeben": 8780, 
  "verz@@": 8781, 
  "Wetter@@": 8782, 
  "Son@@": 8783, 
  "Ausstellungs@@": 8784, 
  "lige": 8785, 
  "exzellente": 8786, 
  "Unterricht": 8787, 
  "schuldig": 8788, 
  "bereitgestellten": 8789, 
  "gratuliere": 8790, 
  "förder@@": 8791, 
  "tat": 8792, 
  "Lan@@": 8793, 
  "23@@": 8794, 
  "Artikeln": 8795, 
  "inform@@": 8796, 
  "Gegenden": 8797, 
  "т@@": 8798, 
  "ausreichen": 8799, 
  "setzten": 8800, 
  "schau@@": 8801, 
  "stil": 8802, 
  "sieren": 8803, 
  "verhältnis": 8804, 
  "Maus": 8805, 
  "lad@@": 8806, 
  "beeindruckende": 8807, 
  "kommunizieren": 8808, 
  "Königreichs": 8809, 
  "veranstaltungen": 8810, 
  "Übergangs@@": 8811, 
  "Geldpolitik": 8812, 
  "Therapie": 8813, 
  "Olympischen": 8814, 
  "Job": 8815, 
  "Akzeptanz": 8816, 
  "bathroom": 8817, 
  "abhängen": 8818, 
  "Regen@@": 8819, 
  "Norm": 8820, 
  "profitiert": 8821, 
  "Wandern": 8822, 
  "bestanden": 8823, 
  "iPod": 8824, 
  "äch@@": 8825, 
  "tak@@": 8826, 
  "hotels": 8827, 
  "Gewährung": 8828, 
  "na@@": 8829, 
  "Beratungs@@": 8830, 
  "irgendwo": 8831, 
  "Aufklärung": 8832, 
  "Gedanke": 8833, 
  "Lizenzen": 8834, 
  "diesbezüglichen": 8835, 
  "Vide@@": 8836, 
  "Etage": 8837, 
  "wil@@": 8838, 
  "multilateralen": 8839, 
  "bek@@": 8840, 
  "Ausgangs@@": 8841, 
  "MO@@": 8842, 
  "schlimmsten": 8843, 
  "Versand@@": 8844, 
  "demnächst": 8845, 
  "Geh@@": 8846, 
  "Masse": 8847, 
  "plätzen": 8848, 
  "parking": 8849, 
  "Afrikas": 8850, 
  "ost@@": 8851, 
  "mis@@": 8852, 
  "pas": 8853, 
  "wirksamer": 8854, 
  "Hindernis": 8855, 
  "Schließung": 8856, 
  "ungsmaßnahmen": 8857, 
  "Defizit": 8858, 
  "Hor@@": 8859, 
  "Schi@@": 8860, 
  "betreut": 8861, 
  "ates": 8862, 
  "Vorsicht": 8863, 
  "Bedrohungen": 8864, 
  "Syn@@": 8865, 
  "Zwischenzeit": 8866, 
  "Register": 8867, 
  "Radi@@": 8868, 
  "ausgeliefert": 8869, 
  "ст@@": 8870, 
  "Gut@@": 8871, 
  "Orts@@": 8872, 
  "Etagen": 8873, 
  "bewegungen": 8874, 
  "Marketing@@": 8875, 
  "verwandeln": 8876, 
  "eiten": 8877, 
  "Fülle": 8878, 
  "tiv": 8879, 
  "gehenden": 8880, 
  "HU": 8881, 
  "Angeboten": 8882, 
  "M.": 8883, 
  "gestrichen": 8884, 
  "begeben": 8885, 
  "rates": 8886, 
  "tä@@": 8887, 
  "Nutzern": 8888, 
  "zonen": 8889, 
  "Flächen": 8890, 
  "5,@@": 8891, 
  "web": 8892, 
  "bestehend": 8893, 
  "Tagungen": 8894, 
  "biologische": 8895, 
  "Gesam@@": 8896, 
  "diplomatischen": 8897, 
  "Beg@@": 8898, 
  "attraktiven": 8899, 
  "mark@@": 8900, 
  "maßgeblich": 8901, 
  "soviel": 8902, 
  "110": 8903, 
  "Jahreszeit": 8904, 
  "wel@@": 8905, 
  ".net": 8906, 
  "KOM": 8907, 
  "privater": 8908, 
  "his": 8909, 
  "mittelalterlichen": 8910, 
  "erie": 8911, 
  "gten": 8912, 
  "Schwerpunkte": 8913, 
  "Kriterium": 8914, 
  "Verhinderung": 8915, 
  "Endes": 8916, 
  "lie": 8917, 
  "ú@@": 8918, 
  "straßen": 8919, 
  "Net@@": 8920, 
  "Phasen": 8921, 
  "atten": 8922, 
  "Stern": 8923, 
  "Meinungsäußerung": 8924, 
  "Wissens": 8925, 
  "Folter": 8926, 
  "Auflagen": 8927, 
  "Werken": 8928, 
  "schweigen": 8929, 
  "gemeint": 8930, 
  "Гј@@": 8931, 
  "Nordkorea": 8932, 
  "ueber": 8933, 
  "aufgaben": 8934, 
  "vermieten": 8935, 
  "Übermittlung": 8936, 
  "virtuellen": 8937, 
  "anzusehen": 8938, 
  "81": 8939, 
  "Mail@@": 8940, 
  "zurückkommen": 8941, 
  "Chef": 8942, 
  "Schätzungen": 8943, 
  "Bestrebungen": 8944, 
  "Lieblings@@": 8945, 
  "heiten": 8946, 
  "Erdbeben": 8947, 
  "schriftlichen": 8948, 
  "Zeitalter": 8949, 
  "port": 8950, 
  "jemanden": 8951, 
  "Sozialisten": 8952, 
  "CA@@": 8953, 
  "stufe": 8954, 
  "Weg@@": 8955, 
  "Spiels": 8956, 
  "Schlag@@": 8957, 
  "1988": 8958, 
  "produkt": 8959, 
  "spezi@@": 8960, 
  "zusammengestellt": 8961, 
  "Sitzungsperiode": 8962, 
  "abzugeben": 8963, 
  "Dienststellen": 8964, 
  "Schritten": 8965, 
  "Kongo": 8966, 
  "Pfad": 8967, 
  "nden": 8968, 
  "erstklassige": 8969, 
  "verhandelt": 8970, 
  "Commerce": 8971, 
  "Folgendes": 8972, 
  "wirst": 8973, 
  "Lag@@": 8974, 
  "Team@@": 8975, 
  "TEN": 8976, 
  "Meilen": 8977, 
  "Eingabe": 8978, 
  "Europ@@": 8979, 
  "Behandlungen": 8980, 
  "Point": 8981, 
  "69": 8982, 
  "Kunststoff@@": 8983, 
  "Korea": 8984, 
  "sag@@": 8985, 
  "log@@": 8986, 
  "Chinesen": 8987, 
  "geschenkt": 8988, 
  "folgte": 8989, 
  "Felsen": 8990, 
  "Ansprüchen": 8991, 
  "ktion": 8992, 
  "Ob@@": 8993, 
  "town": 8994, 
  "aufrufen": 8995, 
  "japanische": 8996, 
  "hol@@": 8997, 
  "betriebe": 8998, 
  "Bü@@": 8999, 
  "Sy@@": 9000, 
  "runde": 9001, 
  "klein@@": 9002, 
  "Shops": 9003, 
  "Terror@@": 9004, 
  "häuser": 9005, 
  "veranstaltet": 9006, 
  "Bandbreite": 9007, 
  "test": 9008, 
  "LA@@": 9009, 
  "dische": 9010, 
  "same": 9011, 
  "Genauigkeit": 9012, 
  "Wäscheservice": 9013, 
  "bro@@": 9014, 
  "Softwar@@": 9015, 
  "wuchs": 9016, 
  "Ungleichheiten": 9017, 
  "erhebt": 9018, 
  "versorgen": 9019, 
  "Fahrrad": 9020, 
  "tief@@": 9021, 
  "sü@@": 9022, 
  "gte": 9023, 
  "auen": 9024, 
  "total": 9025, 
  "Überleben": 9026, 
  "einbeziehen": 9027, 
  "Haltestelle": 9028, 
  "е": 9029, 
  "fr@@": 9030, 
  "gefertigt": 9031, 
  "Bedien@@": 9032, 
  "betragen": 9033, 
  "Chile": 9034, 
  "30@@": 9035, 
  "Breite": 9036, 
  "verdanken": 9037, 
  "Hotelzimmer": 9038, 
  "Leipzig": 9039, 
  "tlich": 9040, 
  "ka@@": 9041, 
  "don": 9042, 
  "Nachteile": 9043, 
  "Häusern": 9044, 
  "Palast": 9045, 
  "Anzeigen": 9046, 
  "Bru@@": 9047, 
  "Erfassung": 9048, 
  "endsten": 9049, 
  "Bürgerrechte": 9050, 
  "klarstellen": 9051, 
  "Vorgang": 9052, 
  "Räumlichkeiten": 9053, 
  "lig@@": 9054, 
  "untergebracht": 9055, 
  "Schlußfolgerungen": 9056, 
  "erzielte": 9057, 
  "Mobil@@": 9058, 
  "Temperatur@@": 9059, 
  "Laden": 9060, 
  "hinzu@@": 9061, 
  "Ganze": 9062, 
  "Formate": 9063, 
  "VIP": 9064, 
  "Freie": 9065, 
  "Jan": 9066, 
  "ehren": 9067, 
  "app@@": 9068, 
  "oll@@": 9069, 
  "Form@@": 9070, 
  "erhöhte": 9071, 
  "terung": 9072, 
  "Tan@@": 9073, 
  "schlicht": 9074, 
  "perfekten": 9075, 
  "Elite": 9076, 
  "Set": 9077, 
  "Cu@@": 9078, 
  "130": 9079, 
  "а": 9080, 
  "problemen": 9081, 
  "Hochschulen": 9082, 
  "verbundene": 9083, 
  "Aufpreis": 9084, 
  "Vermögen": 9085, 
  "erzählen": 9086, 
  "these": 9087, 
  "lim@@": 9088, 
  "Heiz@@": 9089, 
  "CH": 9090, 
  "gewaltige": 9091, 
  "kunden@@": 9092, 
  "ama": 9093, 
  "begrenzten": 9094, 
  "äu@@": 9095, 
  "wald": 9096, 
  "Übereinkunft": 9097, 
  "Stabilisierung": 9098, 
  "Militär": 9099, 
  "sexuelle": 9100, 
  "Pass@@": 9101, 
  "Off@@": 9102, 
  "Is@@": 9103, 
  "künstlerischen": 9104, 
  "ong": 9105, 
  "anzuerkennen": 9106, 
  "nutz@@": 9107, 
  "vern@@": 9108, 
  "not@@": 9109, 
  "Tempel": 9110, 
  "88": 9111, 
  "sicherheits@@": 9112, 
  "cor@@": 9113, 
  "IP@@": 9114, 
  "ack@@": 9115, 
  "ros": 9116, 
  "höherer": 9117, 
  "Terminal": 9118, 
  "Zertifizierung": 9119, 
  "Zei@@": 9120, 
  "Schlacht": 9121, 
  "Instabilität": 9122, 
  "Migranten": 9123, 
  "tage": 9124, 
  "bel": 9125, 
  "EC": 9126, 
  "Gemeinschaftsrecht": 9127, 
  "kultureller": 9128, 
  "fähige": 9129, 
  "Reparatur": 9130, 
  "erwarte": 9131, 
  "air": 9132, 
  "Klang@@": 9133, 
  "Erweiterungen": 9134, 
  "gek@@": 9135, 
  "fur": 9136, 
  "diente": 9137, 
  "ry": 9138, 
  "zuständige": 9139, 
  "OLAF": 9140, 
  "ellem": 9141, 
  "stetig": 9142, 
  "Vor": 9143, 
  "exakt": 9144, 
  "kritisieren": 9145, 
  "belastet": 9146, 
  "Überwachungs@@": 9147, 
  "Fundament": 9148, 
  "ats@@": 9149, 
  "wa": 9150, 
  "Dolomiten": 9151, 
  "Klassen": 9152, 
  "Anleitung": 9153, 
  "Umstellung": 9154, 
  "Fischereiabkommen": 9155, 
  "oberste": 9156, 
  "groß@@": 9157, 
  "Char@@": 9158, 
  "Mitgliedsländer": 9159, 
  "Service@@": 9160, 
  "star@@": 9161, 
  "URL": 9162, 
  "Erhebung": 9163, 
  "Plug": 9164, 
  "Personen@@": 9165, 
  "einrichten": 9166, 
  "kenne": 9167, 
  "Deb@@": 9168, 
  "Reichweite": 9169, 
  "Geheim@@": 9170, 
  "Gestalt": 9171, 
  "gebucht": 9172, 
  "ED": 9173, 
  "netze": 9174, 
  "ggf.": 9175, 
  "Miss@@": 9176, 
  "stat@@": 9177, 
  "Aufstieg": 9178, 
  "Sports": 9179, 
  "gesundheits@@": 9180, 
  "israelische": 9181, 
  "Bed": 9182, 
  "Han@@": 9183, 
  "faktor": 9184, 
  "nächstes": 9185, 
  "7,@@": 9186, 
  "einfaches": 9187, 
  "folge": 9188, 
  "wand@@": 9189, 
  "Viren": 9190, 
  "ag": 9191, 
  "Tisch@@": 9192, 
  "Modellen": 9193, 
  "Funktionsweise": 9194, 
  "fel@@": 9195, 
  "stützt": 9196, 
  "bilaterale": 9197, 
  "Interpretation": 9198, 
  "Begrenzung": 9199, 
  "besuchte": 9200, 
  "SS@@": 9201, 
  "willst": 9202, 
  "Kohäsion": 9203, 
  "ökonomische": 9204, 
  "Mittagessen": 9205, 
  "Mak@@": 9206, 
  "vorgesehene": 9207, 
  "Suites": 9208, 
  "Zusammenfassung": 9209, 
  "behindern": 9210, 
  "wissenschaftlich": 9211, 
  "Entscheidungsträger": 9212, 
  "definitiv": 9213, 
  "Mannschaft": 9214, 
  "rad": 9215, 
  "kontrollen": 9216, 
  "esischen": 9217, 
  "entr@@": 9218, 
  "Drucker": 9219, 
  "Fotografie": 9220, 
  "Space": 9221, 
  "gedenkt": 9222, 
  "büro": 9223, 
  "nachfolgenden": 9224, 
  "77": 9225, 
  "Sudan": 9226, 
  "schriften": 9227, 
  "Begleitung": 9228, 
  "Finanzminister": 9229, 
  "flexiblen": 9230, 
  "verhältnisse": 9231, 
  "versprechen": 9232, 
  "erhielten": 9233, 
  "wach@@": 9234, 
  "Co.": 9235, 
  "itäten": 9236, 
  "Hall": 9237, 
  "ala": 9238, 
  "Valencia": 9239, 
  "gehende": 9240, 
  "Schnee": 9241, 
  "versuchte": 9242, 
  "Zeitschrift": 9243, 
  "planung": 9244, 
  "Verbündeten": 9245, 
  "punkten": 9246, 
  "widerspiegelt": 9247, 
  "auff@@": 9248, 
  "9.@@": 9249, 
  "mischen": 9250, 
  "Konvergenz": 9251, 
  "Air@@": 9252, 
  "Seminare": 9253, 
  "Sim@@": 9254, 
  "Tabellen": 9255, 
  "saal": 9256, 
  "†": 9257, 
  "beheben": 9258, 
  "jenseits": 9259, 
  "genetisch": 9260, 
  "LE": 9261, 
  "1986": 9262, 
  "kapazität": 9263, 
  "Konsolidierung": 9264, 
  "Motoren": 9265, 
  "OECD": 9266, 
  "Spiegel": 9267, 
  "Recht@@": 9268, 
  "buffet": 9269, 
  "Erziehung": 9270, 
  "Korrektur": 9271, 
  "Beibehaltung": 9272, 
  "ty": 9273, 
  "wahrgenommen": 9274, 
  "gefahren": 9275, 
  "Ausschüssen": 9276, 
  "d.@@": 9277, 
  "wohin": 9278, 
  "befreit": 9279, 
  "Christian": 9280, 
  "Griechenlands": 9281, 
  "Arbeitszeit": 9282, 
  "übernahm": 9283, 
  "wählt": 9284, 
  "Palma": 9285, 
  "uss": 9286, 
  "1980": 9287, 
  "anerkannten": 9288, 
  "manager": 9289, 
  "Zukunfts@@": 9290, 
  "Fremd@@": 9291, 
  "Dresden": 9292, 
  "geeinigt": 9293, 
  "Nachrichten@@": 9294, 
  "Betrieb@@": 9295, 
  "Estland": 9296, 
  "Industriepolitik": 9297, 
  "steuerung": 9298, 
  "bestände": 9299, 
  "Rep@@": 9300, 
  "Klaren": 9301, 
  "iner": 9302, 
  "erbringen": 9303, 
  "sus": 9304, 
  "Gerichts@@": 9305, 
  "Erkenntnis": 9306, 
  "mitglieder": 9307, 
  "bal@@": 9308, 
  "Home": 9309, 
  "spor@@": 9310, 
  "DC": 9311, 
  "zweites": 9312, 
  "gründete": 9313, 
  "demselben": 9314, 
  "verläuft": 9315, 
  "muster": 9316, 
  "potenziellen": 9317, 
  "pfen": 9318, 
  "Texten": 9319, 
  "heruntergeladen": 9320, 
  "Spam": 9321, 
  "aufhalten": 9322, 
  "transparente": 9323, 
  "hebt": 9324, 
  "aufgeführten": 9325, 
  "dert": 9326, 
  "stunden": 9327, 
  "SO@@": 9328, 
  "б@@": 9329, 
  "mes@@": 9330, 
  "Gem@@": 9331, 
  "standes": 9332, 
  "aut": 9333, 
  "Darlehen": 9334, 
  "Hauptziel": 9335, 
  "mus": 9336, 
  "Den": 9337, 
  "Turm": 9338, 
  "Anleger": 9339, 
  "Reisenden": 9340, 
  "access": 9341, 
  "korrigiert": 9342, 
  "1945": 9343, 
  "Autom@@": 9344, 
  "Hannover": 9345, 
  "Auskunft": 9346, 
  "set@@": 9347, 
  "eingebettet": 9348, 
  "г@@": 9349, 
  "Nordirland": 9350, 
  "Grab@@": 9351, 
  "versorgt": 9352, 
  "web@@": 9353, 
  "Bestände": 9354, 
  "berechtigten": 9355, 
  "Fr@@": 9356, 
  "aufkommen": 9357, 
  "verlängern": 9358, 
  "dieren": 9359, 
  "kostenfreien": 9360, 
  "halb": 9361, 
  "Rechtsrahmen": 9362, 
  "vereinbar": 9363, 
  "Sozialpartner": 9364, 
  "verursachten": 9365, 
  "Pr@@": 9366, 
  "älteste": 9367, 
  "94": 9368, 
  "Heimat@@": 9369, 
  "Prüfungen": 9370, 
  "eux": 9371, 
  "Tauchen": 9372, 
  "Cafés": 9373, 
  "sich@@": 9374, 
  "restaurants": 9375, 
  "Rohstoffe": 9376, 
  "entnehmen": 9377, 
  "Veranstaltungs@@": 9378, 
  "Fan": 9379, 
  "Côte": 9380, 
  "jo@@": 9381, 
  "Wechsel@@": 9382, 
  "Verschlechterung": 9383, 
  "SMS": 9384, 
  "Plattformen": 9385, 
  "aufrechtzuerhalten": 9386, 
  "lehnt": 9387, 
  "house": 9388, 
  "gesetzten": 9389, 
  "bett": 9390, 
  "ecke": 9391, 
  "Was": 9392, 
  "Band@@": 9393, 
  "christlichen": 9394, 
  "starb": 9395, 
  "Wasch@@": 9396, 
  "Birma": 9397, 
  "dens": 9398, 
  "nördlich": 9399, 
  "start": 9400, 
  "trans@@": 9401, 
  "widmet": 9402, 
  "Warnung": 9403, 
  "Tier": 9404, 
  "Zauber@@": 9405, 
  "Zusagen": 9406, 
  "positives": 9407, 
  "too": 9408, 
  "entsprechender": 9409, 
  "Patten": 9410, 
  "Symbole": 9411, 
  "Versicherung": 9412, 
  "Ministerpräsidenten": 9413, 
  "Terror": 9414, 
  "ando": 9415, 
  "üblicherweise": 9416, 
  "Line": 9417, 
  "ständiger": 9418, 
  "Stamm@@": 9419, 
  "ide@@": 9420, 
  "Seg@@": 9421, 
  "Kamin": 9422, 
  "Gebäudes": 9423, 
  "aufgeben": 9424, 
  "Spannung": 9425, 
  "ke@@": 9426, 
  "mm@@": 9427, 
  "zeitlich": 9428, 
  "vorzugehen": 9429, 
  "anwendungen": 9430, 
  "Franzosen": 9431, 
  "auftritt": 9432, 
  "beunruhigt": 9433, 
  "bedaure": 9434, 
  "entschuldigen": 9435, 
  "Prä@@": 9436, 
  "Fal@@": 9437, 
  "Tiefe": 9438, 
  "günstiger": 9439, 
  "verwandelt": 9440, 
  "Gremien": 9441, 
  "weit@@": 9442, 
  "open": 9443, 
  "stei@@": 9444, 
  "amm@@": 9445, 
  "Europäisches": 9446, 
  "anschauen": 9447, 
  "Kurs@@": 9448, 
  "án": 9449, 
  "Subsidiaritätsprinzip": 9450, 
  "Stadium": 9451, 
  "lem": 9452, 
  "infolgedessen": 9453, 
  "Aluminium": 9454, 
  "price": 9455, 
  "widerspiegeln": 9456, 
  "verwendete": 9457, 
  "Konferenz-": 9458, 
  "mächtigen": 9459, 
  "Potential": 9460, 
  "Komplex": 9461, 
  "Überwindung": 9462, 
  "Tennis": 9463, 
  "Einsparungen": 9464, 
  "CA": 9465, 
  "dreht": 9466, 
  "Wagen": 9467, 
  "Blair": 9468, 
  "gehalt": 9469, 
  "seinerzeit": 9470, 
  "ED@@": 9471, 
  "Appell": 9472, 
  "SK": 9473, 
  "Pakt": 9474, 
  "ams": 9475, 
  "Downloads": 9476, 
  "Wand": 9477, 
  "artikel": 9478, 
  "zwecken": 9479, 
  "facto": 9480, 
  "Place": 9481, 
  "ok": 9482, 
  "laufende": 9483, 
  "überdenken": 9484, 
  "о@@": 9485, 
  "beschleunigt": 9486, 
  "Ly@@": 9487, 
  "sol@@": 9488, 
  "zig": 9489, 
  "eingenommen": 9490, 
  "89": 9491, 
  "Akademie": 9492, 
  "Hochschul@@": 9493, 
  "Arbeit@@": 9494, 
  "auswahl": 9495, 
  "Periode": 9496, 
  "zz@@": 9497, 
  "allgemeiner": 9498, 
  "ear@@": 9499, 
  "Vollständigkeit": 9500, 
  "Sicherstellung": 9501, 
  "Chat": 9502, 
  "Sandstrand": 9503, 
  "juristischen": 9504, 
  "Kompromiß": 9505, 
  "verteidigt": 9506, 
  "Ph@@": 9507, 
  "Chemikalien": 9508, 
  "part": 9509, 
  "entfernten": 9510, 
  "denk@@": 9511, 
  "Presse@@": 9512, 
  "aufnahmen": 9513, 
  "lands": 9514, 
  "stärkt": 9515, 
  "Gut": 9516, 
  "untersagt": 9517, 
  "beauftragt": 9518, 
  "Harmonie": 9519, 
  "PRO@@": 9520, 
  "Preises": 9521, 
  "91": 9522, 
  "Handhabung": 9523, 
  "Zer@@": 9524, 
  "vari@@": 9525, 
  "weiterentwickelt": 9526, 
  "near": 9527, 
  "Festivals": 9528, 
  "verfahrens": 9529, 
  "met": 9530, 
  "einheimischen": 9531, 
  "LCD": 9532, 
  "territorialen": 9533, 
  "Flusses": 9534, 
  "SC@@": 9535, 
  "Jahrestag": 9536, 
  "galt": 9537, 
  "strukturellen": 9538, 
  "Mul@@": 9539, 
  "Lat@@": 9540, 
  "Hom@@": 9541, 
  "isieren": 9542, 
  "Jerusalem": 9543, 
  "Kontinents": 9544, 
  "definierten": 9545, 
  "Gemein@@": 9546, 
  "bauten": 9547, 
  "Ersten": 9548, 
  "bürger@@": 9549, 
  "AV@@": 9550, 
  "Asyl": 9551, 
  "unterschiedlichsten": 9552, 
  "tigungen": 9553, 
  "Geschäftsreisende": 9554, 
  "Inneren": 9555, 
  "König@@": 9556, 
  "zi": 9557, 
  "Designs": 9558, 
  "Fest": 9559, 
  "Pin@@": 9560, 
  "ander@@": 9561, 
  "Aussehen": 9562, 
  "Bibliotheken": 9563, 
  "offenkundig": 9564, 
  "quiet": 9565, 
  "glichen": 9566, 
  "heim@@": 9567, 
  "bedeutender": 9568, 
  "virtuelle": 9569, 
  "geschützten": 9570, 
  "Organ@@": 9571, 
  "Kommissars": 9572, 
  "Fra@@": 9573, 
  "Pfeiler": 9574, 
  "pra@@": 9575, 
  "getroffenen": 9576, 
  "Stoffen": 9577, 
  "Konservativen": 9578, 
  "Delegationen": 9579, 
  "Angehörigen": 9580, 
  "beliebige": 9581, 
  "versichert": 9582, 
  "iker": 9583, 
  "nes": 9584, 
  "Song": 9585, 
  "Allgemeine": 9586, 
  "Schwächen": 9587, 
  "gewaltigen": 9588, 
  "Integrations@@": 9589, 
  "rischen": 9590, 
  "Eis": 9591, 
  "Verkehrsmitteln": 9592, 
  "did": 9593, 
  "Lande": 9594, 
  "formulieren": 9595, 
  "beihilfen": 9596, 
  "Strafe": 9597, 
  "1985": 9598, 
  "bester": 9599, 
  "Algerien": 9600, 
  "OSZE": 9601, 
  "wissenschaftlicher": 9602, 
  "ico": 9603, 
  "berg@@": 9604, 
  "herunter@@": 9605, 
  "Singapur": 9606, 
  "mitt@@": 9607, 
  "ungsin@@": 9608, 
  "Angestellten": 9609, 
  "Association": 9610, 
  "Nachtleben": 9611, 
  "Modell@@": 9612, 
  "Blumen": 9613, 
  "Meeres": 9614, 
  "gänzlich": 9615, 
  "antes": 9616, 
  "CE": 9617, 
  "vereinen": 9618, 
  "ausgegangen": 9619, 
  "Wider@@": 9620, 
  "extremen": 9621, 
  "hinnehmen": 9622, 
  "even": 9623, 
  "ves": 9624, 
  "schutzes": 9625, 
  "uneingeschränkte": 9626, 
  "Nächte": 9627, 
  "eben@@": 9628, 
  "bes": 9629, 
  "gründet": 9630, 
  "stabil": 9631, 
  "zügig": 9632, 
  "Quark": 9633, 
  "Block": 9634, 
  "geschah": 9635, 
  "ehrgeizige": 9636, 
  "entziehen": 9637, 
  "vorwiegend": 9638, 
  "Mitbürger": 9639, 
  "Gewässern": 9640, 
  "nten": 9641, 
  "blauen": 9642, 
  "Filmen": 9643, 
  "Gesichtspunkt": 9644, 
  "86": 9645, 
  "Momente": 9646, 
  "außer@@": 9647, 
  "polnische": 9648, 
  "europaweit": 9649, 
  "osteuropäischen": 9650, 
  "Solarium": 9651, 
  "stag": 9652, 
  "Kriege": 9653, 
  "Edinburgh": 9654, 
  "Müller": 9655, 
  "geplante": 9656, 
  "Variablen": 9657, 
  "Schulz": 9658, 
  "Beschränkung": 9659, 
  "aufgegriffen": 9660, 
  "Verhaltenskodex": 9661, 
  "Veranstaltungsräume": 9662, 
  "Freilassung": 9663, 
  "Multimedia": 9664, 
  "1987": 9665, 
  "right": 9666, 
  "Fax-": 9667, 
  "Badewanne": 9668, 
  "dete": 9669, 
  "umfangreiches": 9670, 
  "carte": 9671, 
  "birgt": 9672, 
  "S.@@": 9673, 
  "Sil@@": 9674, 
  "Fri@@": 9675, 
  "Leser": 9676, 
  "Schulungen": 9677, 
  "aufrecht": 9678, 
  "Kolumbien": 9679, 
  "GUE": 9680, 
  "Gewähr": 9681, 
  "entdeckte": 9682, 
  "Jur@@": 9683, 
  "verlust": 9684, 
  "Tech": 9685, 
  "Aufstellung": 9686, 
  "Ansehen": 9687, 
  "person@@": 9688, 
  "flug": 9689, 
  "appelliere": 9690, 
  "abgedeckt": 9691, 
  "system@@": 9692, 
  "Nigeria": 9693, 
  "sam": 9694, 
  "Botschaften": 9695, 
  "unternimmt": 9696, 
  "biegen": 9697, 
  "fizierung": 9698, 
  "Typen": 9699, 
  "terin": 9700, 
  "bearbeitung": 9701, 
  "Marco": 9702, 
  "schiff": 9703, 
  "bürgerliche": 9704, 
  "rech@@": 9705, 
  "ologen": 9706, 
  "Einleitung": 9707, 
  "Löhne": 9708, 
  "Interventionen": 9709, 
  "mitzuteilen": 9710, 
  "angekommen": 9711, 
  "verarbeiten": 9712, 
  "Road": 9713, 
  "wär@@": 9714, 
  "Unregelmäßigkeiten": 9715, 
  "Lieferungen": 9716, 
  "Bemühen": 9717, 
  "Volkswirtschaft": 9718, 
  "handelte": 9719, 
  "Tom@@": 9720, 
  "sn@@": 9721, 
  "herkömmlichen": 9722, 
  "Aktiv@@": 9723, 
  "betreffende": 9724, 
  "großzügig": 9725, 
  "Gemeinschaftsebene": 9726, 
  "Pen@@": 9727, 
  "Alliance": 9728, 
  "Bou@@": 9729, 
  "Times": 9730, 
  "wan@@": 9731, 
  "Komm@@": 9732, 
  "bus@@": 9733, 
  "Welle": 9734, 
  "repräsentiert": 9735, 
  "bereitschaft": 9736, 
  "teilnehmenden": 9737, 
  "bestrebt": 9738, 
  "teure": 9739, 
  "here": 9740, 
  "veranlassen": 9741, 
  "geehrter": 9742, 
  "vertrieben": 9743, 
  "siv": 9744, 
  "flug@@": 9745, 
  "Toskana": 9746, 
  "Null": 9747, 
  "Aufteilung": 9748, 
  "ade@@": 9749, 
  "aktiver": 9750, 
  "Oper": 9751, 
  "ethnische": 9752, 
  "egel": 9753, 
  "Befürchtungen": 9754, 
  "nungen": 9755, 
  "Auswahl@@": 9756, 
  "gewahrt": 9757, 
  "EG@@": 9758, 
  "modus": 9759, 
  "Elektronik": 9760, 
  "einschlägigen": 9761, 
  "Rechtsprechung": 9762, 
  "Sammel@@": 9763, 
  "Klausel": 9764, 
  "herauszufinden": 9765, 
  "elektrischen": 9766, 
  "vo": 9767, 
  "wirkung": 9768, 
  "Mc@@": 9769, 
  "Portfolio": 9770, 
  "beach": 9771, 
  "tert": 9772, 
  "Bauern@@": 9773, 
  "tur": 9774, 
  "ı@@": 9775, 
  "freundlicher": 9776, 
  "Gesetzgeber": 9777, 
  "appen": 9778, 
  "Riviera": 9779, 
  "abl@@": 9780, 
  "Denk@@": 9781, 
  "aufgeteilt": 9782, 
  "Streben": 9783, 
  "verbesserten": 9784, 
  "reinen": 9785, 
  "Plätzen": 9786, 
  "73": 9787, 
  "Auszeichnung": 9788, 
  "Bonus@@": 9789, 
  "gemeldet": 9790, 
  "ück@@": 9791, 
  "ativer": 9792, 
  "holz": 9793, 
  "unverändert": 9794, 
  "wiederherzustellen": 9795, 
  "historischer": 9796, 
  "els@@": 9797, 
  "lia": 9798, 
  "zusammengefasst": 9799, 
  "q": 9800, 
  "Solar@@": 9801, 
  "iel@@": 9802, 
  "Pflanzen@@": 9803, 
  "zweier": 9804, 
  "Unfall": 9805, 
  "Tei@@": 9806, 
  "iti@@": 9807, 
  "ium": 9808, 
  "Gründer": 9809, 
  "sitzt": 9810, 
  "trag@@": 9811, 
  "Mes@@": 9812, 
  "Holiday": 9813, 
  "nette": 9814, 
  "gei@@": 9815, 
  "many": 9816, 
  "Ausbruch": 9817, 
  "DEN": 9818, 
  "kop@@": 9819, 
  "Exporte": 9820, 
  "Funktions@@": 9821, 
  "Wohlergehen": 9822, 
  "Mutter@@": 9823, 
  "obliegt": 9824, 
  "strecken": 9825, 
  "anforderungen": 9826, 
  "Münzen": 9827, 
  "Politikern": 9828, 
  "Wellnessbereich": 9829, 
  "Reisende": 9830, 
  "Germany": 9831, 
  "SDL": 9832, 
  "kombinieren": 9833, 
  "echtes": 9834, 
  "ihrerseits": 9835, 
  "einzeln": 9836, 
  "ga@@": 9837, 
  "zusätzlicher": 9838, 
  "verweigert": 9839, 
  "Größen": 9840, 
  "vers": 9841, 
  "Genfer": 9842, 
  "betrag": 9843, 
  "Dom@@": 9844, 
  "Südtirol": 9845, 
  "schwachen": 9846, 
  "Label": 9847, 
  "Erdgeschoss": 9848, 
  "Erwärmung": 9849, 
  "Hy@@": 9850, 
  "high": 9851, 
  "wor@@": 9852, 
  "Autovermietung": 9853, 
  "regierung": 9854, 
  "häufigsten": 9855, 
  "Spaniens": 9856, 
  "siert": 9857, 
  "Planet": 9858, 
  "Zi@@": 9859, 
  "freiwillige": 9860, 
  "schlafen": 9861, 
  "verlaufen": 9862, 
  "ain": 9863, 
  "Kohle": 9864, 
  "aussieht": 9865, 
  "tens": 9866, 
  "Wiederaufnahme": 9867, 
  "Sha@@": 9868, 
  "ñ@@": 9869, 
  "ermutigt": 9870, 
  "Wohl@@": 9871, 
  "dem@@": 9872, 
  "versuche": 9873, 
  "make": 9874, 
  "messe": 9875, 
  "unterrichtet": 9876, 
  "veränderten": 9877, 
  "finanz@@": 9878, 
  "tigten": 9879, 
  "Brüder": 9880, 
  "ähnlicher": 9881, 
  "liger": 9882, 
  "istisch": 9883, 
  "Verstöße": 9884, 
  "Anbau": 9885, 
  "Gefühle": 9886, 
  "Dat@@": 9887, 
  "behilflich": 9888, 
  "Ashton": 9889, 
  "studierte": 9890, 
  "Fische": 9891, 
  "optionen": 9892, 
  "Schriften": 9893, 
  "grenzt": 9894, 
  "under": 9895, 
  "Satelliten@@": 9896, 
  "voraussichtlich": 9897, 
  "cher@@": 9898, 
  "reicher": 9899, 
  "ppe": 9900, 
  "liberalen": 9901, 
  "Paar": 9902, 
  "mo": 9903, 
  "Varianten": 9904, 
  "mitzu@@": 9905, 
  "überschritten": 9906, 
  "beautiful": 9907, 
  "ehen": 9908, 
  "Protektionismus": 9909, 
  "icht": 9910, 
  "EIB": 9911, 
  "IM": 9912, 
  "prüft": 9913, 
  "befürchten": 9914, 
  "halbe": 9915, 
  "wechsel@@": 9916, 
  "faktoren": 9917, 
  "Nahrung": 9918, 
  "deten": 9919, 
  "exportieren": 9920, 
  "chter": 9921, 
  "Persönlichkeit": 9922, 
  "eta": 9923, 
  "orientieren": 9924, 
  "nett": 9925, 
  "abzustimmen": 9926, 
  "Super": 9927, 
  "ball": 9928, 
  "boot": 9929, 
  "einräumen": 9930, 
  "ili@@": 9931, 
  "Applikation": 9932, 
  "Trainings@@": 9933, 
  "ero": 9934, 
  "Hil@@": 9935, 
  "Flair": 9936, 
  "sahen": 9937, 
  "sel": 9938, 
  "Professional": 9939, 
  "verzeichnis": 9940, 
  "Aufstockung": 9941, 
  "tin@@": 9942, 
  "drucken": 9943, 
  "konkreter": 9944, 
  "modelle": 9945, 
  "kontinuierliche": 9946, 
  "Herzegowina": 9947, 
  "Fo@@": 9948, 
  "erledigen": 9949, 
  "ganzes": 9950, 
  "Lebensbedingungen": 9951, 
  "ausgewogen": 9952, 
  "Evaluierung": 9953, 
  "itz@@": 9954, 
  "Ford": 9955, 
  "unterstützten": 9956, 
  "egen@@": 9957, 
  "ALDE": 9958, 
  "änge": 9959, 
  "hinausgehen": 9960, 
  "IL@@": 9961, 
  "Bestandteile": 9962, 
  "Nu@@": 9963, 
  "stätte": 9964, 
  "Erste": 9965, 
  "iss@@": 9966, 
  "Besatzung": 9967, 
  "74": 9968, 
  "Da@@": 9969, 
  "ados": 9970, 
  "Lettland": 9971, 
  "Belastungen": 9972, 
  "sensiblen": 9973, 
  "gängigen": 9974, 
  "Krieg@@": 9975, 
  "Editor": 9976, 
  "persönliches": 9977, 
  "brachten": 9978, 
  "wesens": 9979, 
  "unterstützte": 9980, 
  "dicht": 9981, 
  "away": 9982, 
  "5.000": 9983, 
  "Research": 9984, 
  "Em@@": 9985, 
[...]
