{
  "eos": 57912, 
  "UNK": 1, 
  ",": 2, 
  ".": 3, 
  "die": 4, 
  "der": 5, 
  "und": 6, 
  "in": 7, 
  "zu": 8, 
  "von": 9, 
  "den": 10, 
  "das": 11, 
  "ist": 12, 
  "für": 13, 
  "@-@": 14, 
  "mit": 15, 
  "auf": 16, 
  "des": 17, 
  "eine": 18, 
  "wir": 19, 
  "im": 20, 
  "es": 21, 
  "Sie": 22, 
  "nicht": 23, 
  "ein": 24, 
  "ich": 25, 
  "werden": 26, 
  "&quot;": 27, 
  "dass": 28, 
  "dem": 29, 
  "sich": 30, 
  "auch": 31, 
  "-": 32, 
  "sind": 33, 
  "wird": 34, 
  "an": 35, 
  "(": 36, 
  ")": 37, 
  "als": 38, 
  "um": 39, 
  "oder": 40, 
  ":": 41, 
  "wie": 42, 
  "über": 43, 
  "haben": 44, 
  "einer": 45, 
  "hat": 46, 
  "bei": 47, 
  "sie": 48, 
  "zur": 49, 
  "diese": 50, 
  "aus": 51, 
  "einen": 52, 
  "können": 53, 
  "nach": 54, 
  "wenn": 55, 
  "zum": 56, 
  "einem": 57, 
  "durch": 58, 
  "nur": 59, 
  "dieser": 60, 
  "uns": 61, 
  "kann": 62, 
  "so": 63, 
  "aber": 64, 
  "er": 65, 
  "!": 66, 
  "vor": 67, 
  "noch": 68, 
  "daß": 69, 
  "Kommission": 70, 
  "wurde": 71, 
  "was": 72, 
  "am": 73, 
  "sehr": 74, 
  "Herr": 75, 
  "sein": 76, 
  "alle": 77, 
  "müssen": 78, 
  "man": 79, 
  "?": 80, 
  "/": 81, 
  "diesem": 82, 
  "mehr": 83, 
  "dieses": 84, 
  "Union": 85, 
  "bis": 86, 
  "Europäischen": 87, 
  "hier": 88, 
  "dies": 89, 
  "war": 90, 
  "möchte": 91, 
  "ihre": 92, 
  "unsere": 93, 
  "eines": 94, 
  "vom": 95, 
  "unter": 96, 
  "Hotel": 97, 
  "Präsident": 98, 
  "gibt": 99, 
  "sowie": 100, 
  "&apos;": 101, 
  "EU": 102, 
  "the": 103, 
  "zwischen": 104, 
  "da": 105, 
  "muss": 106, 
  "keine": 107, 
  "Bericht": 108, 
  "damit": 109, 
  "Parlament": 110, 
  "Ihnen": 111, 
  "dann": 112, 
  "...": 113, 
  "Mitgliedstaaten": 114, 
  "anderen": 115, 
  "Europa": 116, 
  "immer": 117, 
  "de": 118, 
  "diesen": 119, 
  "a": 120, 
  ";": 121, 
  "heute": 122, 
  "wurden": 123, 
  "gegen": 124, 
  "seine": 125, 
  "Frau": 126, 
  "Zeit": 127, 
  "unserer": 128, 
  "jedoch": 129, 
  "habe": 130, 
  "neue": 131, 
  "sondern": 132, 
  "Europäische": 133, 
  "Menschen": 134, 
  "bereits": 135, 
  "sollte": 136, 
  "ohne": 137, 
  "Jahr": 138, 
  "and": 139, 
  "viele": 140, 
  "andere": 141, 
  "Ihre": 142, 
  "mich": 143, 
  "sollten": 144, 
  "dazu": 145, 
  "zwei": 146, 
  "ihrer": 147, 
  "europäischen": 148, 
  "Jahren": 149, 
  "neuen": 150, 
  "%": 151, 
  "ganz": 152, 
  "doch": 153, 
  "finden": 154, 
  "denn": 155, 
  "Rat": 156, 
  "jetzt": 157, 
  "Entwicklung": 158, 
  "Frage": 159, 
  "einige": 160, 
  "denen": 161, 
  "bietet": 162, 
  "seit": 163, 
  "machen": 164, 
  "während": 165, 
  "meine": 166, 
  "allen": 167, 
  "liegt": 168, 
  "weil": 169, 
  "ihr": 170, 
  "Welt": 171, 
  "Unternehmen": 172, 
  "dafür": 173, 
  "wieder": 174, 
  "of": 175, 
  "selbst": 176, 
  "schon": 177, 
  "2": 178, 
  "darauf": 179, 
  "geht": 180, 
  "seiner": 181, 
  "daher": 182, 
  "nun": 183, 
  "Informationen": 184, 
  "Lage": 185, 
  "Bereich": 186, 
  "lassen": 187, 
  "Maßnahmen": 188, 
  "ob": 189, 
  "dabei": 190, 
  "mir": 191, 
  "ihren": 192, 
  "Jahre": 193, 
  "Herrn": 194, 
  "ab": 195, 
  "Arbeit": 196, 
  "wollen": 197, 
  "allem": 198, 
  "viel": 199, 
  "würde": 200, 
  "bin": 201, 
  "unseren": 202, 
  "unser": 203, 
  "darüber": 204, 
  "deshalb": 205, 
  "wo": 206, 
  "s": 207, 
  "to": 208, 
  "insbesondere": 209, 
  "&#93;": 210, 
  "en": 211, 
  "&#91;": 212, 
  "1": 213, 
  "gut": 214, 
  "beim": 215, 
  "Land": 216, 
  "etwas": 217, 
  "also": 218, 
  "Zimmer": 219, 
  "sagen": 220, 
  "Länder": 221, 
  "waren": 222, 
  "möglich": 223, 
  "geben": 224, 
  "3": 225, 
  "natürlich": 226, 
  "erhalten": 227, 
  "sehen": 228, 
  "Unterstützung": 229, 
  "Rahmen": 230, 
  "ersten": 231, 
  "welche": 232, 
  "stehen": 233, 
  "Ländern": 234, 
  "er@@": 235, 
  "Zusammenarbeit": 236, 
  "Parlaments": 237, 
  "Teil": 238, 
  "besteht": 239, 
  "wichtig": 240, 
  "soll": 241, 
  "einfach": 242, 
  "steht": 243, 
  "un@@": 244, 
  "drei": 245, 
  "stellen": 246, 
  "Vorschlag": 247, 
  "Fall": 248, 
  "wäre": 249, 
  "tun": 250, 
  "einmal": 251, 
  "bitte": 252, 
  "seinen": 253, 
  "Ziel": 254, 
  "du": 255, 
  "Bürger": 256, 
  "weitere": 257, 
  "Stadt": 258, 
  "meiner": 259, 
  "Fragen": 260, 
  "ver@@": 261, 
  "Problem": 262, 
  "vielen": 263, 
  "letzten": 264, 
  "Namen": 265, 
  "große": 266, 
  "Seite": 267, 
  "Kollegen": 268, 
  "Art": 269, 
  "kommen": 270, 
  "Daten": 271, 
  "besonders": 272, 
  "großen": 273, 
  "worden": 274, 
  "deren": 275, 
  "weiter": 276, 
  "alles": 277, 
  "Recht": 278, 
  "Verfügung": 279, 
  "Bedeutung": 280, 
  "kein": 281, 
  "sowohl": 282, 
  "Sicherheit": 283, 
  "-@@": 284, 
  "Möglichkeit": 285, 
  "davon": 286, 
  "politischen": 287, 
  "an@@": 288, 
  "4": 289, 
  "bieten": 290, 
  "Regierung": 291, 
  "Fraktion": 292, 
  "könnte": 293, 
  "dort": 294, 
  "Staaten": 295, 
  "muß": 296, 
  "Thema": 297, 
  "eigenen": 298, 
  "wissen": 299, 
  "Probleme": 300, 
  "&amp;": 301, 
  "ab@@": 302, 
  "innerhalb": 303, 
  "ja": 304, 
  "Kunden": 305, 
  "10": 306, 
  "befindet": 307, 
  "Weise": 308, 
  "aller": 309, 
  "Kommissar": 310, 
  "Politik": 311, 
  "zwar": 312, 
  "5": 313, 
  "System": 314, 
  "erreichen": 315, 
  "Ihrer": 316, 
  "jeder": 317, 
  "Ende": 318, 
  "hatte": 319, 
  "wirklich": 320, 
  "möchten": 321, 
  "Zukunft": 322, 
  "unterstützen": 323, 
  "Beispiel": 324, 
  "ihnen": 325, 
  "entfernt": 326, 
  "gegenüber": 327, 
  "is": 328, 
  "verschiedenen": 329, 
  "USA": 330, 
  "Euro": 331, 
  "te": 332, 
  "direkt": 333, 
  "Rolle": 334, 
  "Richtlinie": 335, 
  "Seiten": 336, 
  "allerdings": 337, 
  "internationalen": 338, 
  "Weg": 339, 
  "la": 340, 
  "führen": 341, 
  "Frauen": 342, 
  "außerdem": 343, 
  "ten": 344, 
  "erste": 345, 
  "all": 346, 
  "Ihren": 347, 
  "europäische": 348, 
  "Tag": 349, 
  "kommt": 350, 
  "�": 351, 
  "ein@@": 352, 
  "nehmen": 353, 
  "Ihr": 354, 
  "bringen": 355, 
  "Programm": 356, 
  "e": 357, 
  "E": 358, 
  "Artikel": 359, 
  "Meinung": 360, 
  "stellt": 361, 
  "en@@": 362, 
  "Uhr": 363, 
  "beiden": 364, 
  "Lösung": 365, 
  "unserem": 366, 
  "politische": 367, 
  "on": 368, 
  "Situation": 369, 
  "weniger": 370, 
  "pro": 371, 
  "Zusammenhang": 372, 
  "indem": 373, 
  "gehen": 374, 
  "Hilfe": 375, 
  "aufgrund": 376, 
  "daran": 377, 
  "sogar": 378, 
  "gerade": 379, 
  "m": 380, 
  "2009": 381, 
  "etwa": 382, 
  "Produkte": 383, 
  "Mittel": 384, 
  "Präsidentin": 385, 
  "K@@": 386, 
  "ebenfalls": 387, 
  "gilt": 388, 
  "Leben": 389, 
  "aus@@": 390, 
  "gesagt": 391, 
  "darin": 392, 
  "Region": 393, 
  "Ver@@": 394, 
  "bzw.": 395, 
  "genau": 396, 
  "Millionen": 397, 
  "Grund": 398, 
  "Haus": 399, 
  "ins": 400, 
  "o": 401, 
  "Europas": 402, 
  "i": 403, 
  "vielleicht": 404, 
  "gemacht": 405, 
  "will": 406, 
  "gute": 407, 
  "Schutz": 408, 
  "Hotels": 409, 
  "nämlich": 410, 
  "weiterhin": 411, 
  "20": 412, 
  "hinaus": 413, 
  "Kinder": 414, 
  "darf": 415, 
  "dessen": 416, 
  "auf@@": 417, 
  "ihm": 418, 
  "ihn": 419, 
  "betrifft": 420, 
  "unterstützt": 421, 
  "neben": 422, 
  "zusammen": 423, 
  "sicher": 424, 
  "seinem": 425, 
  "Ebene": 426, 
  "Internet": 427, 
  "nichts": 428, 
  "jeden": 429, 
  "Punkt": 430, 
  "Deutschland": 431, 
  "k@@": 432, 
  "Personen": 433, 
  "gleichzeitig": 434, 
  "solche": 435, 
  "einigen": 436, 
  "Aussprache": 437, 
  "macht": 438, 
  "Qualität": 439, 
  "S@@": 440, 
  "ebenso": 441, 
  "brauchen": 442, 
  "öffentlichen": 443, 
  "Rates": 444, 
  "schaffen": 445, 
  "dürfen": 446, 
  "erst": 447, 
  "s@@": 448, 
  "glaube": 449, 
  "as": 450, 
  "Software": 451, 
  "sollen": 452, 
  "meisten": 453, 
  "arbeiten": 454, 
  "B@@": 455, 
  "Form": 456, 
  "Abstimmung": 457, 
  "P@@": 458, 
  "Wirtschaft": 459, 
  "keinen": 460, 
  "ihrem": 461, 
  "nationalen": 462, 
  "T@@": 463, 
  "handelt": 464, 
  "nutzen": 465, 
  "Gemeinschaft": 466, 
  "t": 467, 
  "Rechte": 468, 
  "30": 469, 
  "obwohl": 470, 
  "for": 471, 
  "Ab@@": 472, 
  "würden": 473, 
  "Ort": 474, 
  "statt": 475, 
  "bedeutet": 476, 
  "zunächst": 477, 
  "&#124;": 478, 
  "Website": 479, 
  "sei": 480, 
  "wichtige": 481, 
  "klar": 482, 
  "schnell": 483, 
  "besser": 484, 
  "Service": 485, 
  "Bezug": 486, 
  "ge@@": 487, 
  "Kosten": 488, 
  "beispielsweise": 489, 
  "besten": 490, 
  "findet": 491, 
  "deutlich": 492, 
  "halten": 493, 
  "t@@": 494, 
  "Zugang": 495, 
  "G@@": 496, 
  "An@@": 497, 
  "Dank": 498, 
  "weit": 499, 
  "Gesellschaft": 500, 
  "nächsten": 501, 
  "Richtung": 502, 
  "z@@": 503, 
  "wegen": 504, 
  "et": 505, 
  "Strategie": 506, 
  "ent@@": 507, 
  "d": 508, 
  "M@@": 509, 
  "l": 510, 
  "Ansicht": 511, 
  "15": 512, 
  "Markt": 513, 
  "Nähe": 514, 
  "jede": 515, 
  "2008": 516, 
  "darum": 517, 
  "A@@": 518, 
  "Umsetzung": 519, 
  "Menschenrechte": 520, 
  "je": 521, 
  "D@@": 522, 
  "n@@": 523, 
  "2010": 524, 
  "bekannt": 525, 
  "werde": 526, 
  "el": 527, 
  "Ziele": 528, 
  "hoffe": 529, 
  "Die": 530, 
  "China": 531, 
  "at": 532, 
  "6": 533, 
  "über@@": 534, 
  "Vertrag": 535, 
  "jedes": 536, 
  "gehört": 537, 
  "Verantwortung": 538, 
  "notwendig": 539, 
  "Verfahren": 540, 
  "schließlich": 541, 
  "Bedingungen": 542, 
  "verwendet": 543, 
  "oft": 544, 
  "I": 545, 
  "Anwendung": 546, 
  "Demokratie": 547, 
  "sprechen": 548, 
  "Interesse": 549, 
  "könnten": 550, 
  "N@@": 551, 
  "verschiedene": 552, 
  "Vorschläge": 553, 
  "gemeinsamen": 554, 
  "ter": 555, 
  "kleinen": 556, 
  "Grundlage": 557, 
  "H@@": 558, 
  "Reihe": 559, 
  "Ihrem": 560, 
  "bleiben": 561, 
  "Herren": 562, 
  "erreicht": 563, 
  "Gebiet": 564, 
  "Geschichte": 565, 
  "Möglichkeiten": 566, 
  "setzen": 567, 
  "fast": 568, 
  "hin": 569, 
  "leider": 570, 
  "sozialen": 571, 
  "lange": 572, 
  "zu@@": 573, 
  "ung": 574, 
  "F@@": 575, 
  "führt": 576, 
  "Debatte": 577, 
  "Institutionen": 578, 
  "km": 579, 
  "tatsächlich": 580, 
  "wirtschaftlichen": 581, 
  "weltweit": 582, 
  "Version": 583, 
  "wenig": 584, 
  "verfügt": 585, 
  "L@@": 586, 
  "it": 587, 
  "per": 588, 
  "ermöglicht": 589, 
  "gemeinsame": 590, 
  "Minuten": 591, 
  "Damen": 592, 
  "Auswirkungen": 593, 
  "zeigt": 594, 
  "R@@": 595, 
  "vier": 596, 
  "50": 597, 
  "gemeinsam": 598, 
  "Dienstleistungen": 599, 
  "2007": 600, 
  "um@@": 601, 
  "Berichterstatter": 602, 
  "erforderlich": 603, 
  "Abkommen": 604, 
  "Preis": 605, 
  "al@@": 606, 
  "hatten": 607, 
  "ern": 608, 
  "Ein@@": 609, 
  "angesichts": 610, 
  "internationale": 611, 
  "zudem": 612, 
  "Verhandlungen": 613, 
  "Mitglieder": 614, 
  "Hinblick": 615, 
  "enden": 616, 
  "E@@": 617, 
  "ischen": 618, 
  "dadurch": 619, 
  "Regionen": 620, 
  "Tatsache": 621, 
  "warum": 622, 
  "gesamten": 623, 
  "US": 624, 
  "danken": 625, 
  "Restaurant": 626, 
  "entwickelt": 627, 
  "sch@@": 628, 
  "spielen": 629, 
  "*": 630, 
  "in@@": 631, 
  "einzelnen": 632, 
  "hätte": 633, 
  "Schritt": 634, 
  "Gruppe": 635, 
  "Liste": 636, 
  "el@@": 637, 
  "denke": 638, 
  "bereit": 639, 
  "dar": 640, 
  "jedem": 641, 
  "Kolleginnen": 642, 
  "Ergebnis": 643, 
  "derzeit": 644, 
  "ungs@@": 645, 
  "Zentrum": 646, 
  "Entscheidung": 647, 
  "2000": 648, 
  "100": 649, 
  "helfen": 650, 
  "Bereichen": 651, 
  "konnte": 652, 
  "Antwort": 653, 
  "8": 654, 
  "vor@@": 655, 
  "7": 656, 
  "kleine": 657, 
  "Änderungsanträge": 658, 
  "Vereinigten": 659, 
  "mein": 660, 
  "d@@": 661, 
  "befinden": 662, 
  "ungen": 663, 
  "gerne": 664, 
  "wer": 665, 
  "weiteren": 666, 
  "Krise": 667, 
  "Änderungsantrag": 668, 
  "neu": 669, 
  "gestellt": 670, 
  "Beziehungen": 671, 
  "Blick": 672, 
  "W@@": 673, 
  "mehrere": 674, 
  "Erfolg": 675, 
  "Bevölkerung": 676, 
  "falls": 677, 
  "hinsichtlich": 678, 
  "liegen": 679, 
  "ende": 680, 
  "bleibt": 681, 
  "weiß": 682, 
  "le": 683, 
  "tes": 684, 
  "heißt": 685, 
  "Geld": 686, 
  "unseres": 687, 
  "z.B.": 688, 
  "wichtigen": 689, 
  "Ausdruck": 690, 
  "Abgeordneten": 691, 
  "Türkei": 692, 
  "V@@": 693, 
  "Z@@": 694, 
  "meinen": 695, 
  "Aufgabe": 696, 
  "gab": 697, 
  "Platz": 698, 
  "somit": 699, 
  "f@@": 700, 
  "y": 701, 
  "bekommen": 702, 
  "rund": 703, 
  "verbunden": 704, 
  "Verbindung": 705, 
  "i@@": 706, 
  "Aus@@": 707, 
  "Projekt": 708, 
  "Einsatz": 709, 
  "Kontrolle": 710, 
  "Mal": 711, 
  "C@@": 712, 
  "O@@": 713, 
  "Förderung": 714, 
  "e@@": 715, 
  "Jahres": 716, 
  "meines": 717, 
  "12": 718, 
  "gestimmt": 719, 
  "st@@": 720, 
  ".@@": 721, 
  "Verordnung": 722, 
  "+": 723, 
  "richtig": 724, 
  "Forschung": 725, 
  "Lösungen": 726, 
  "_": 727, 
  "m@@": 728, 
  "voll": 729, 
  "wohl": 730, 
  "Erweiterung": 731, 
  "Behörden": 732, 
  "Entschließung": 733, 
  "zurück": 734, 
  "zeigen": 735, 
  "wichtigsten": 736, 
  "später": 737, 
  "ische": 738, 
  "genießen": 739, 
  "ar@@": 740, 
  "verwenden": 741, 
  "Beitrag": 742, 
  "gegeben": 743, 
  "enthalten": 744, 
  "2006": 745, 
  "Russland": 746, 
  "enthält": 747, 
  "Nutzung": 748, 
  "n": 749, 
  "lässt": 750, 
  "bisher": 751, 
  "Ausschuss": 752, 
  "ganze": 753, 
  "Vor@@": 754, 
  "ermöglichen": 755, 
  "ganzen": 756, 
  "wobei": 757, 
  "insgesamt": 758, 
  "trotz": 759, 
  "Verbesserung": 760, 
  "Landes": 761, 
  "recht": 762, 
  "Stunden": 763, 
  "Mail": 764, 
  "eigene": 765, 
  "völlig": 766, 
  "Ausschusses": 767, 
  "Verbraucher": 768, 
  "Ergebnisse": 769, 
  "fünf": 770, 
  "with": 771, 
  "zahlreiche": 772, 
  "Sch@@": 773, 
  "verbessern": 774, 
  "wirtschaftliche": 775, 
  "Gelegenheit": 776, 
  "Wort": 777, 
  "Angebot": 778, 
  "nachdem": 779, 
  "Schaffung": 780, 
  "dennoch": 781, 
  "Woche": 782, 
  "großer": 783, 
  "Regierungen": 784, 
  "leben": 785, 
  "guten": 786, 
  "bevor": 787, 
  "Verwendung": 788, 
  "verfügen": 789, 
  "l@@": 790, 
  "g@@": 791, 
  "Partner": 792, 
  "Mitarbeiter": 793, 
  "soziale": 794, 
  "gehören": 795, 
  "gemäß": 796, 
  "gleichen": 797, 
  "Bild": 798, 
  "tragen": 799, 
  "Text": 800, 
  "klicken": 801, 
  "be@@": 802, 
  "Interessen": 803, 
  "Lissabon": 804, 
  "sorgen": 805, 
  "b@@": 806, 
  "Themen": 807, 
  "Notwendigkeit": 808, 
  "Wert": 809, 
  "Tage": 810, 
  "lediglich": 811, 
  "meinem": 812, 
  "Familie": 813, 
  "Zeitpunkt": 814, 
  "wählen": 815, 
  "Änderungen": 816, 
  "Frankreich": 817, 
  "gebracht": 818, 
  "25": 819, 
  "bestehen": 820, 
  "angenommen": 821, 
  "Kultur": 822, 
  "Erfahrung": 823, 
  "geführt": 824, 
  "Gesundheit": 825, 
  "fördern": 826, 
  "hotel": 827, 
  "Auswahl": 828, 
  "be": 829, 
  "Herzen": 830, 
  "alten": 831, 
  "kurz": 832, 
  "verstehen": 833, 
  "Person": 834, 
  "Umgebung": 835, 
  "Anfang": 836, 
  "ch@@": 837, 
  "u@@": 838, 
  "schriftlich": 839, 
  "äußerst": 840, 
  "se": 841, 
  "fest": 842, 
  "hohen": 843, 
  "Un@@": 844, 
  "Juni": 845, 
  "Umwelt": 846, 
  "Mitglied": 847, 
  "ziehen": 848, 
  "y@@": 849, 
  "Einführung": 850, 
  "Kampf": 851, 
  "versuchen": 852, 
  "di": 853, 
  "gesamte": 854, 
  "bestimmte": 855, 
  "Wasser": 856, 
  "k": 857, 
  "Prozess": 858, 
  "®": 859, 
  "Anzahl": 860, 
  "Mai": 861, 
  "24": 862, 
  "Aktivitäten": 863, 
  "nie": 864, 
  "suchen": 865, 
  "2005": 866, 
  "Meer": 867, 
  "A": 868, 
  "Initiative": 869, 
  "hohe": 870, 
  "Wachstum": 871, 
  "o@@": 872, 
  "Gäste": 873, 
  "un": 874, 
  "gewährleisten": 875, 
  "Wahl": 876, 
  "sten": 877, 
  "Sprache": 878, 
  "bereich": 879, 
  "ens": 880, 
  "Haupt@@": 881, 
  "entwickeln": 882, 
  "anderer": 883, 
  "et@@": 884, 
  "stark": 885, 
  "Produktion": 886, 
  "p@@": 887, 
  "scheint": 888, 
  "Industrie": 889, 
  "zweite": 890, 
  "Programme": 891, 
  "Raum": 892, 
  "wann": 893, 
  "ausgestattet": 894, 
  "bestimmten": 895, 
  "Zahl": 896, 
  "leicht": 897, 
  "Kommissarin": 898, 
  "selbstverständlich": 899, 
  "Dinge": 900, 
  "Bekämpfung": 901, 
  "Natur": 902, 
  "Fortschritte": 903, 
  "Preise": 904, 
  "September": 905, 
  "Online": 906, 
  "bar": 907, 
  "or": 908, 
  "ändern": 909, 
  "Insel": 910, 
  "a@@": 911, 
  "Hand": 912, 
  "Erachtens": 913, 
  "eigentlich": 914, 
  "Spiel": 915, 
  "erster": 916, 
  "beide": 917, 
  "allein": 918, 
  "einschließlich": 919, 
  "Funktion": 920, 
  "es@@": 921, 
  "zweitens": 922, 
  "2004": 923, 
  "unternehmen": 924, 
  "Erklärung": 925, 
  "solchen": 926, 
  "einzige": 927, 
  "Jahrhundert": 928, 
  "Bestimmungen": 929, 
  "1.": 930, 
  "Dezember": 931, 
  "sagte": 932, 
  "gleich": 933, 
  "vergangenen": 934, 
  "Stelle": 935, 
  "40": 936, 
  "los": 937, 
  "00": 938, 
  "treffen": 939, 
  "re@@": 940, 
  "J@@": 941, 
  "Punkte": 942, 
  "Integration": 943, 
  "zweiten": 944, 
  "Handel": 945, 
  "9": 946, 
  "Mehrheit": 947, 
  "ca.": 948, 
  "diejenigen": 949, 
  "Gewalt": 950, 
  "z": 951, 
  "r": 952, 
  "größten": 953, 
  "gen": 954, 
  "Energie": 955, 
  "Entscheidungen": 956, 
  "Investitionen": 957, 
  "r@@": 958, 
  "Anforderungen": 959, 
  "us": 960, 
  "Dialog": 961, 
  "Bar": 962, 
  "wenige": 963, 
  "v@@": 964, 
  "gar": 965, 
  "os": 966, 
  "weder": 967, 
  "Vorschriften": 968, 
  "Aufmerksamkeit": 969, 
  "Küche": 970, 
  "system": 971, 
  "Position": 972, 
  "öffentliche": 973, 
  "bezüglich": 974, 
  "Gästebewertungen": 975, 
  "Arbeits@@": 976, 
  "Strand": 977, 
  "leisten": 978, 
  "bringt": 979, 
  "Gefahr": 980, 
  "März": 981, 
  "or@@": 982, 
  "fahren": 983, 
  "by": 984, 
  "Auf@@": 985, 
  "are": 986, 
  "Projekte": 987, 
  "neuer": 988, 
  "Grenzen": 989, 
  "wichtiger": 990, 
  "fragen": 991, 
  "sieht": 992, 
  "Bereiche": 993, 
  "very": 994, 
  "del": 995, 
  "eingesetzt": 996, 
  "al": 997, 
  "Folgen": 998, 
  "Team": 999, 
  "aufgenommen": 1000, 
  "konnten": 1001, 
  "I@@": 1002, 
  "aktuellen": 1003, 
  "2003": 1004, 
  "Freiheit": 1005, 
  "Design": 1006, 
  "benötigen": 1007, 
  "Wettbewerb": 1008, 
  "C": 1009, 
  "Regeln": 1010, 
  "genommen": 1011, 
  "Landwirtschaft": 1012, 
  "europäischer": 1013, 
  "Anfrage": 1014, 
  "Musik": 1015, 
  "em": 1016, 
  "Server": 1017, 
  "ar": 1018, 
  "this": 1019, 
  "halte": 1020, 
  "liche": 1021, 
  "Macht": 1022, 
  "Beschäftigung": 1023, 
  "at@@": 1024, 
  "durchgeführt": 1025, 
  "nahe": 1026, 
  "h@@": 1027, 
  "st": 1028, 
  "kannst": 1029, 
  "erwarten": 1030, 
  "Präsidenten": 1031, 
  "Benutzer": 1032, 
  "TV": 1033, 
  "ieren": 1034, 
  "ale": 1035, 
  "end": 1036, 
  "Oktober": 1037, 
  "Standpunkt": 1038, 
  "lichen": 1039, 
  "Linie": 1040, 
  "que": 1041, 
  "Nationen": 1042, 
  "Firma": 1043, 
  "Diskussion": 1044, 
  "hinter": 1045, 
  "Höhe": 1046, 
  "Bildung": 1047, 
  "Frühstück": 1048, 
  "Unter@@": 1049, 
  "Kraft": 1050, 
  "Januar": 1051, 
  "sofort": 1052, 
  "frei": 1053, 
  "eher": 1054, 
  "geschlossen": 1055, 
  "erstens": 1056, 
  "vergessen": 1057, 
  "Transparenz": 1058, 
  "erneut": 1059, 
  "j@@": 1060, 
  "ihres": 1061, 
  "Fehler": 1062, 
  "Berichts": 1063, 
  "nimmt": 1064, 
  "Gründen": 1065, 
  "besondere": 1066, 
  "morgen": 1067, 
  "gefunden": 1068, 
  "Bemühungen": 1069, 
  "gelten": 1070, 
  "Sache": 1071, 
  "Sinne": 1072, 
  "getan": 1073, 
  "Ansatz": 1074, 
  "begrüße": 1075, 
  "Flughafen": 1076, 
  "Öffentlichkeit": 1077, 
  "Schlusselwortern": 1078, 
  "Präsidentschaft": 1079, 
  "GmbH": 1080, 
  "Auffassung": 1081, 
  "18": 1082, 
  "gern": 1083, 
  "geworden": 1084, 
  "hätten": 1085, 
  "Berlin": 1086, 
  "entsprechend": 1087, 
  "beitragen": 1088, 
  "Bilder": 1089, 
  "entsprechenden": 1090, 
  "häufig": 1091, 
  "2001": 1092, 
  "Er@@": 1093, 
  "lesen": 1094, 
  "größte": 1095, 
  "Fällen": 1096, 
  "fordern": 1097, 
  "verhindern": 1098, 
  "on@@": 1099, 
  "Urlaub": 1100, 
  "à": 1101, 
  "Druck": 1102, 
  "lich": 1103, 
  "stimmen": 1104, 
  "Windows": 1105, 
  "ers": 1106, 
  "behandelt": 1107, 
  "welches": 1108, 
  "erfolgt": 1109, 
  "Dateien": 1110, 
  "B": 1111, 
  "11": 1112, 
  "f": 1113, 
  "Basis": 1114, 
  "hoch": 1115, 
  "Juli": 1116, 
  "Monaten": 1117, 
  "In@@": 1118, 
  "Finanz@@": 1119, 
  "paar": 1120, 
  "Organisation": 1121, 
  "genannten": 1122, 
  "Bürgern": 1123, 
  "4@@": 1124, 
  "zumindest": 1125, 
  "Behandlung": 1126, 
  "Atmosphäre": 1127, 
  "€": 1128, 
  "Tagen": 1129, 
  "Tat": 1130, 
  "versucht": 1131, 
  "Datei": 1132, 
  "freuen": 1133, 
  "ter@@": 1134, 
  "neues": 1135, 
  "AG": 1136, 
  "Tagesordnung": 1137, 
  "November": 1138, 
  "zehn": 1139, 
  "U@@": 1140, 
  "Wirtschafts@@": 1141, 
  "anderem": 1142, 
  "Technologie": 1143, 
  "we": 1144, 
  "Restaurants": 1145, 
  "Bürgerinnen": 1146, 
  "überhaupt": 1147, 
  "vertreten": 1148, 
  "ti@@": 1149, 
  "beste": 1150, 
  "technischen": 1151, 
  "besuchen": 1152, 
  "c@@": 1153, 
  "richtige": 1154, 
  "politik": 1155, 
  "14": 1156, 
  "New": 1157, 
  "2002": 1158, 
  "deutschen": 1159, 
  "setzt": 1160, 
  "danke": 1161, 
  "Sicht": 1162, 
  "16": 1163, 
  "Änderung": 1164, 
  "Italien": 1165, 
  "Ressourcen": 1166, 
  "Nr.": 1167, 
  "außerhalb": 1168, 
  "Wasser@@": 1169, 
  "berücksichtigt": 1170, 
  "freien": 1171, 
  "Konferenz": 1172, 
  "historischen": 1173, 
  "chen": 1174, 
  "erklärt": 1175, 
  "Beginn": 1176, 
  "Republik": 1177, 
  "zusätzlich": 1178, 
  "April": 1179, 
  "erfolgreich": 1180, 
  "g": 1181, 
  "Spanien": 1182, 
  "Gruppen": 1183, 
  "Aufenthalt": 1184, 
  "isch": 1185, 
  "Vergangenheit": 1186, 
  "Finanzierung": 1187, 
  "verantwortlich": 1188, 
  "durch@@": 1189, 
  "modernen": 1190, 
  "letzte": 1191, 
  "Rechtsvorschriften": 1192, 
  "gewesen": 1193, 
  "Reform": 1194, 
  "zahlreichen": 1195, 
  "ste": 1196, 
  "lang": 1197, 
  "erfüllen": 1198, 
  "is@@": 1199, 
  "you": 1200, 
  "Wochen": 1201, 
  "jeweiligen": 1202, 
  "stets": 1203, 
  "T": 1204, 
  "schützen": 1205, 
  "sechs": 1206, 
  "Information": 1207, 
  "Erfahrungen": 1208, 
  "Schritte": 1209, 
  "unter@@": 1210, 
  "3@@": 1211, 
  "geschaffen": 1212, 
  "ere": 1213, 
  "Über@@": 1214, 
  "000": 1215, 
  "mal": 1216, 
  "eben": 1217, 
  "endlich": 1218, 
  "genug": 1219, 
  "Adresse": 1220, 
  "Vertrauen": 1221, 
  "Werte": 1222, 
  "Inhalt": 1223, 
  "kam": 1224, 
  "Aspekte": 1225, 
  "Sterne": 1226, 
  "verpflichtet": 1227, 
  "oben": 1228, 
  "Herausforderungen": 1229, 
  "B.": 1230, 
  "x": 1231, 
  "bessere": 1232, 
  "EUR": 1233, 
  "z.": 1234, 
  "Systems": 1235, 
  "Bad": 1236, 
  "di@@": 1237, 
  "heutigen": 1238, 
  "moderne": 1239, 
  "Angelegenheit": 1240, 
  "privaten": 1241, 
  "erlaubt": 1242, 
  "seines": 1243, 
  "Sicherheits@@": 1244, 
  "abschließend": 1245, 
  "Parteien": 1246, 
  "erinnern": 1247, 
  "vollständig": 1248, 
  "Gebäude": 1249, 
  "erwartet": 1250, 
  "&gt;": 1251, 
  "kaum": 1252, 
  "gesehen": 1253, 
  "persönlichen": 1254, 
  "room": 1255, 
  "Spieler": 1256, 
  "Ich": 1257, 
  "Milliarden": 1258, 
  "ausschließlich": 1259, 
  "Schwierigkeiten": 1260, 
  "Berichterstatterin": 1261, 
  "kennen": 1262, 
  "entscheiden": 1263, 
  "Arbeitnehmer": 1264, 
  "anders": 1265, 
  "Staat": 1266, 
  "beginnen": 1267, 
  "Hinsicht": 1268, 
  "schwer": 1269, 
  "u": 1270, 
  "b": 1271, 
  "Prozent": 1272, 
  "Bau@@": 1273, 
  "from": 1274, 
  "deine": 1275, 
  "ne": 1276, 
  "bald": 1277, 
  "iert": 1278, 
  "zusätzliche": 1279, 
  "Folge": 1280, 
  "Ihres": 1281, 
  "legen": 1282, 
  "S": 1283, 
  "siehe": 1284, 
  "Krieg": 1285, 
  "übernehmen": 1286, 
  "The": 1287, 
  "Einrichtung": 1288, 
  "Vertreter": 1289, 
  "Praxis": 1290, 
  "Wunsch": 1291, 
  "automatisch": 1292, 
  "one": 1293, 
  "möglicherweise": 1294, 
  "Arbeitsplätze": 1295, 
  "unten": 1296, 
  "aktuelle": 1297, 
  "Der": 1298, 
  "Angelegenheiten": 1299, 
  "bitten": 1300, 
  "ts": 1301, 
  "Opfer": 1302, 
  "gesetzt": 1303, 
  "begrüßen": 1304, 
  "gelegen": 1305, 
  "Aufgaben": 1306, 
  "folgen": 1307, 
  "Solidarität": 1308, 
  "danach": 1309, 
  "erfahren": 1310, 
  "folgenden": 1311, 
  "größere": 1312, 
  "13": 1313, 
  "erkennen": 1314, 
  "allgemeinen": 1315, 
  "Frieden": 1316, 
  "usw.": 1317, 
  "60": 1318, 
  "Organisationen": 1319, 
  "folgt": 1320, 
  "Armut": 1321, 
  "bilden": 1322, 
  "am@@": 1323, 
  "Annahme": 1324, 
  "glauben": 1325, 
  "programm": 1326, 
  "mindestens": 1327, 
  "wahrscheinlich": 1328, 
  "vorgeschlagen": 1329, 
  "ischer": 1330, 
  "Leute": 1331, 
  "benutzt": 1332, 
  "darstellt": 1333, 
  "Verfassung": 1334, 
  "ri@@": 1335, 
  "eindeutig": 1336, 
  "alen": 1337, 
  "offen": 1338, 
  "ferner": 1339, 
  "Systeme": 1340, 
  "Karte": 1341, 
  "unbedingt": 1342, 
  "w@@": 1343, 
  "Sitzung": 1344, 
  "zahlen": 1345, 
  "benutzen": 1346, 
  "Verpflichtungen": 1347, 
  "bewusst": 1348, 
  "Dollar": 1349, 
  "Anstrengungen": 1350, 
  "erleben": 1351, 
  "Protokoll": 1352, 
  "Personal": 1353, 
  "Hause": 1354, 
  "Falle": 1355, 
  "genutzt": 1356, 
  "Produkt": 1357, 
  "globalen": 1358, 
  "1999": 1359, 
  "entspricht": 1360, 
  "Funktionen": 1361, 
  "nationale": 1362, 
  "St@@": 1363, 
  "Um@@": 1364, 
  "ging": 1365, 
  "Grund@@": 1366, 
  "überzeugt": 1367, 
  "Idee": 1368, 
  "Partei": 1369, 
  "trotzdem": 1370, 
  "Kriterien": 1371, 
  "außer": 1372, 
  "eren": 1373, 
  "..": 1374, 
  "sobald": 1375, 
  "entsprechende": 1376, 
  "li@@": 1377, 
  "Wahlen": 1378, 
  "San": 1379, 
  "demokratischen": 1380, 
  "Zustimmung": 1381, 
  "D": 1382, 
  "EN": 1383, 
  "Paris": 1384, 
  "200": 1385, 
  "Computer": 1386, 
  "gezeigt": 1387, 
  "sicherlich": 1388, 
  "amerikanischen": 1389, 
  "de@@": 1390, 
  "www.@@": 1391, 
  "Vereinbarung": 1392, 
  "genannt": 1393, 
  "Reformen": 1394, 
  "Verwaltung": 1395, 
  "wesentlich": 1396, 
  "Terrorismus": 1397, 
  "vorgelegt": 1398, 
  "ur@@": 1399, 
  "ro@@": 1400, 
  "unterschiedlichen": 1401, 
  "Osten": 1402, 
  "Instrument": 1403, 
  "lösen": 1404, 
  "Park": 1405, 
  "Gipfel": 1406, 
  "dringend": 1407, 
  "Vorteile": 1408, 
  "Site": 1409, 
  "Management": 1410, 
  "stärker": 1411, 
  "Anerkennung": 1412, 
  "verfügbar": 1413, 
  "Binnenmarkt": 1414, 
  "entweder": 1415, 
  "Technologien": 1416, 
  "zuletzt": 1417, 
  "Stabilität": 1418, 
  "Haushalt": 1419, 
  "mehreren": 1420, 
  "technische": 1421, 
  "no": 1422, 
  "Produkten": 1423, 
  "0": 1424, 
  "Sektor": 1425, 
  "denken": 1426, 
  "berücksichtigen": 1427, 
  "Inhalte": 1428, 
  "darunter": 1429, 
  "Besuch": 1430, 
  "5@@": 1431, 
  "bestimmt": 1432, 
  "O": 1433, 
  "Ausschuß": 1434, 
  "hoffen": 1435, 
  "prüfen": 1436, 
  "online": 1437, 
  "Al@@": 1438, 
  "Sommer": 1439, 
  "andererseits": 1440, 
  "licher": 1441, 
  "zeit": 1442, 
  "lernen": 1443, 
  "wünschen": 1444, 
  "hinweisen": 1445, 
  "teilen": 1446, 
  "akzeptieren": 1447, 
  "Volk": 1448, 
  "erwähnt": 1449, 
  "sen": 1450, 
  "ge": 1451, 
  "dagegen": 1452, 
  "Mitteilung": 1453, 
  "it@@": 1454, 
  ".com": 1455, 
  "Durchführung": 1456, 
  "besonderen": 1457, 
  "gerecht": 1458, 
  "Medien": 1459, 
  "sicherzustellen": 1460, 
  "erzielt": 1461, 
  "Homepage": 1462, 
  "bestehenden": 1463, 
  "Augen": 1464, 
  "gekommen": 1465, 
  "sp@@": 1466, 
  "jene": 1467, 
  "zurück@@": 1468, 
  "les": 1469, 
  "Anwendungen": 1470, 
  "kosten": 1471, 
  "Unterkategorien": 1472, 
  "sk@@": 1473, 
  "gesprochen": 1474, 
  "der@@": 1475, 
  "6@@": 1476, 
  "Kontakt": 1477, 
  "euch": 1478, 
  "braucht": 1479, 
  "Suche": 1480, 
  "ie": 1481, 
  "speziell": 1482, 
  "geändert": 1483, 
  "Einrichtungen": 1484, 
  "th@@": 1485, 
  "au": 1486, 
  "gleiche": 1487, 
  "umgesetzt": 1488, 
  "Chance": 1489, 
  "vermeiden": 1490, 
  "Wettbewerbsfähigkeit": 1491, 
  "dienen": 1492, 
  "getroffen": 1493, 
  "Web": 1494, 
  "=": 1495, 
  "Haltung": 1496, 
  "­": 1497, 
  "Straße": 1498, 
  "teilweise": 1499, 
  "Kunst": 1500, 
  "as@@": 1501, 
  "notwendigen": 1502, 
  "finanziellen": 1503, 
  "Zeichen": 1504, 
  "aktiv": 1505, 
  "Handels@@": 1506, 
  "Sonder@@": 1507, 
  "erfüllt": 1508, 
  "Monate": 1509, 
  "informieren": 1510, 
  "Einfluss": 1511, 
  "Standard": 1512, 
  "kommenden": 1513, 
  "si@@": 1514, 
  "ergreifen": 1515, 
  "ra@@": 1516, 
  "anderes": 1517, 
  "Ausbildung": 1518, 
  "jederzeit": 1519, 
  "ständig": 1520, 
  "sämtliche": 1521, 
  "festgelegt": 1522, 
  "eingerichtet": 1523, 
  "beziehen": 1524, 
  "freie": 1525, 
  "unabhängig": 1526, 
  "ler": 1527, 
  "che": 1528, 
  "alte": 1529, 
  "em@@": 1530, 
  "Rechts@@": 1531, 
  "Irak": 1532, 
  "gegenwärtig": 1533, 
  "ber@@": 1534, 
  "Israel": 1535, 
  "La": 1536, 
  "jeweils": 1537, 
  "rechts": 1538, 
  "Kindern": 1539, 
  "wären": 1540, 
  "Familien": 1541, 
  "politischer": 1542, 
  "U": 1543, 
  "erhöhen": 1544, 
  "Anspruch": 1545, 
  "500": 1546, 
  "übernachten": 1547, 
  "Vielfalt": 1548, 
  "do": 1549, 
  "Meter": 1550, 
  "welcher": 1551, 
  "Menge": 1552, 
  "angezeigt": 1553, 
  "funktioniert": 1554, 
  "Konzept": 1555, 
  "erzielen": 1556, 
  "au@@": 1557, 
  "nachfolgend": 1558, 
  "Vertrags": 1559, 
  "entschieden": 1560, 
  "hält": 1561, 
  "sagt": 1562, 
  "verbessert": 1563, 
  "Leistungen": 1564, 
  "Webseite": 1565, 
  "hoch@@": 1566, 
  "gelangen": 1567, 
  "Umwelt@@": 1568, 
  "Stimme": 1569, 
  "Wege": 1570, 
  "Sprachen": 1571, 
  "verfolgen": 1572, 
  "etc.": 1573, 
  "manchmal": 1574, 
  "17": 1575, 
  "baren": 1576, 
  "stärken": 1577, 
  "stimme": 1578, 
  "profitieren": 1579, 
  "Instrumente": 1580, 
  "deswegen": 1581, 
  "liebe": 1582, 
  "ger@@": 1583, 
  "hören": 1584, 
  "ierung": 1585, 
  "not": 1586, 
  "Februar": 1587, 
  "me": 1588, 
  "Schweiz": 1589, 
  "Stand": 1590, 
  "Tätigkeit": 1591, 
  "Veränderungen": 1592, 
  "Vereinten": 1593, 
  "Spiel@@": 1594, 
  "erstellt": 1595, 
  "Kenntnis": 1596, 
  "erstellen": 1597, 
  "Modell": 1598, 
  "Berichte": 1599, 
  "geeignet": 1600, 
  "ierte": 1601, 
  "Abschluss": 1602, 
  "klare": 1603, 
  "ei@@": 1604, 
  "IT": 1605, 
  "vorgesehen": 1606, 
  "Forderung": 1607, 
  "Initiativen": 1608, 
  "wollte": 1609, 
  "ausdrücklich": 1610, 
  "trägt": 1611, 
  "zugleich": 1612, 
  "80": 1613, 
  "August": 1614, 
  "gen@@": 1615, 
  "Haushalts@@": 1616, 
  "é": 1617, 
  "Garten": 1618, 
  "betonen": 1619, 
  "ierten": 1620, 
  "eg@@": 1621, 
  "beachten": 1622, 
  "zentrale": 1623, 
  "bare": 1624, 
  "handeln": 1625, 
  "stand": 1626, 
  "verfahren": 1627, 
  "Rück@@": 1628, 
  "Vergleich": 1629, 
  "X@@": 1630, 
  "Teile": 1631, 
  "Ausgaben": 1632, 
  "London": 1633, 
  "Abgeordnete": 1634, 
  "arbeitet": 1635, 
  "Besucher": 1636, 
  "Regelung": 1637, 
  "links": 1638, 
  "Mitte": 1639, 
  "durchaus": 1640, 
  "Zeiten": 1641, 
  "mit@@": 1642, 
  "Engagement": 1643, 
  "beschlossen": 1644, 
  "spielt": 1645, 
  "that": 1646, 
  "Markt@@": 1647, 
  "Herausforderung": 1648, 
  "daraus": 1649, 
  "Dienste": 1650, 
  "finanzielle": 1651, 
  "betrachtet": 1652, 
  "nen": 1653, 
  "ene": 1654, 
  "Standards": 1655, 
  "gefordert": 1656, 
  "Mitgliedstaat": 1657, 
  "konkrete": 1658, 
  "lokalen": 1659, 
  "Komfort": 1660, 
  "willkommen": 1661, 
  "vorhanden": 1662, 
  "benötigt": 1663, 
  "nach@@": 1664, 
  "bedarf": 1665, 
  "ad@@": 1666, 
  "x@@": 1667, 
  "nächste": 1668, 
  "Arbeiten": 1669, 
  "wenigen": 1670, 
  "Stil": 1671, 
  "ser@@": 1672, 
  "Angaben": 1673, 
  "gegründet": 1674, 
  "angeboten": 1675, 
  "ten@@": 1676, 
  "ol@@": 1677, 
  "Japan": 1678, 
  "unterschiedliche": 1679, 
  "Zeitraum": 1680, 
  "Fonds": 1681, 
  "Währung": 1682, 
  "konzentrieren": 1683, 
  "Großbritannien": 1684, 
  "veröffentlicht": 1685, 
  "freue": 1686, 
  "reichen": 1687, 
  "Iran": 1688, 
  "enen": 1689, 
  "wert": 1690, 
  "Hauses": 1691, 
  "Gebieten": 1692, 
  "dank": 1693, 
  "Mio.": 1694, 
  "überprüfen": 1695, 
  "Jahrhunderts": 1696, 
  "gewährleistet": 1697, 
  "täglich": 1698, 
  "ot@@": 1699, 
  "überall": 1700, 
  "erscheint": 1701, 
  "erklären": 1702, 
  "h": 1703, 
  "erfolgen": 1704, 
  "elle": 1705, 
  "darstellen": 1706, 
  "systeme": 1707, 
  "entstehen": 1708, 
  "Beitritt": 1709, 
  "damals": 1710, 
  "Programms": 1711, 
  "ag@@": 1712, 
  "persönlich": 1713, 
  "Video": 1714, 
  "Terrasse": 1715, 
  "gewinnen": 1716, 
  "ideal": 1717, 
  "her": 1718, 
  "Herstellung": 1719, 
  "Worte": 1720, 
  "offensichtlich": 1721, 
  "schwierig": 1722, 
  "möglichkeiten": 1723, 
  "möglichst": 1724, 
  "Einigung": 1725, 
  "absolut": 1726, 
  "Auto": 1727, 
  "Antrag": 1728, 
  "Zweifel": 1729, 
  "Rede": 1730, 
  "CD": 1731, 
  "positive": 1732, 
  "laden": 1733, 
  "Steuer@@": 1734, 
  "fallen": 1735, 
  "Achtung": 1736, 
  "schönen": 1737, 
  "Analyse": 1738, 
  "Zweck": 1739, 
  "Kirche": 1740, 
  "Forderungen": 1741, 
  "Afrika": 1742, 
  "Y@@": 1743, 
  "gestalten": 1744, 
  "eingehen": 1745, 
  "umfasst": 1746, 
  "7@@": 1747, 
  "ek@@": 1748, 
  "Österreich": 1749, 
  "ak@@": 1750, 
  "schreiben": 1751, 
  "diskutieren": 1752, 
  "Einhaltung": 1753, 
  "Aufnahme": 1754, 
  "isches": 1755, 
  "Paket": 1756, 
  "herzlich": 1757, 
  "geschehen": 1758, 
  "Stellungnahme": 1759, 
  "Regel": 1760, 
  "X": 1761, 
  "verlassen": 1762, 
  "Griechenland": 1763, 
  "Sehenswürdigkeiten": 1764, 
  "geleistet": 1765, 
  "8@@": 1766, 
  "Ukraine": 1767, 
  "Nutzen": 1768, 
  "Nach@@": 1769, 
  "gutes": 1770, 
  "her@@": 1771, 
  "Barcelona": 1772, 
  "ens@@": 1773, 
  "Abend": 1774, 
  "ä@@": 1775, 
  "Kultur@@": 1776, 
  "positiv": 1777, 
  "Hintergrund": 1778, 
  "treten": 1779, 
  "Name": 1780, 
  "Texte": 1781, 
  "richtigen": 1782, 
  "Fuß": 1783, 
  "Das": 1784, 
  "vielmehr": 1785, 
  "See": 1786, 
  "Status": 1787, 
  "garantiert": 1788, 
  "mittels": 1789, 
  "niemand": 1790, 
  "laut": 1791, 
  "Du": 1792, 
  "Vielzahl": 1793, 
  "Linux": 1794, 
  "regionalen": 1795, 
  "Sorge": 1796, 
  "tätig": 1797, 
  "Dokument": 1798, 
  "einfache": 1799, 
  "Kommunikation": 1800, 
  "Hersteller": 1801, 
  "Entwicklungen": 1802, 
  "men": 1803, 
  "Aspekt": 1804, 
  "Prioritäten": 1805, 
  "Ar@@": 1806, 
  "zen": 1807, 
  "Polen": 1808, 
  "ken": 1809, 
  "spezielle": 1810, 
  "300": 1811, 
  "feststellen": 1812, 
  "einiger": 1813, 
  "weiterer": 1814, 
  "Arten": 1815, 
  "é@@": 1816, 
  "entdecken": 1817, 
  "Arbeitslosigkeit": 1818, 
  "Daten@@": 1819, 
  "21": 1820, 
  "liches": 1821, 
  "om@@": 1822, 
  "Indien": 1823, 
  "senden": 1824, 
  "PC": 1825, 
  "kulturellen": 1826, 
  "Geschäfts@@": 1827, 
  "komplett": 1828, 
  "Partnerschaft": 1829, 
  "Debian": 1830, 
  "Museum": 1831, 
  "Film": 1832, 
  "us@@": 1833, 
  "Stärkung": 1834, 
  "weg": 1835, 
  "Rechnung": 1836, 
  "miteinander": 1837, 
  "Universität": 1838, 
  "angesprochen": 1839, 
  "est@@": 1840, 
  "kaufen": 1841, 
  "Wissen": 1842, 
  "schöne": 1843, 
  "bezeichnet": 1844, 
  "eln": 1845, 
  "Villa": 1846, 
  "übrigen": 1847, 
  "Nacht": 1848, 
  "{": 1849, 
  "großes": 1850, 
  "verfolgt": 1851, 
  "Installation": 1852, 
  "warten": 1853, 
  "eingeführt": 1854, 
  "erhält": 1855, 
  "folgende": 1856, 
  "Betrieb": 1857, 
  "umfassende": 1858, 
  "2@@": 1859, 
  "Bedürfnisse": 1860, 
  "Ideen": 1861, 
  "Lesung": 1862, 
  "Beschreibung": 1863, 
  "Problemen": 1864, 
  "groß": 1865, 
  "Gesetz": 1866, 
  "Leistung": 1867, 
  "französischen": 1868, 
  "Formen": 1869, 
  "Gesamt@@": 1870, 
  "hingewiesen": 1871, 
  "0@@": 1872, 
  "Moment": 1873, 
  "starke": 1874, 
  "Irland": 1875, 
  "ellen": 1876, 
  "Brüssel": 1877, 
  "Banken": 1878, 
  "Titel": 1879, 
  "ke": 1880, 
  "den@@": 1881, 
  "Gemeinsamen": 1882, 
  "beginnt": 1883, 
  "zuvor": 1884, 
  "Elemente": 1885, 
  "Richtlinien": 1886, 
  "geschützt": 1887, 
  "private": 1888, 
  "langen": 1889, 
  "unterstütze": 1890, 
  "zusammen@@": 1891, 
  "einsetzen": 1892, 
  "Fach@@": 1893, 
  "Priorität": 1894, 
  "c": 1895, 
  "G": 1896, 
  "fällt": 1897, 
  "ender": 1898, 
  "Überwachung": 1899, 
  "ausreichend": 1900, 
  "L": 1901, 
  "keinerlei": 1902, 
  "besitzt": 1903, 
  "aufmerksam": 1904, 
  "betrachten": 1905, 
  "$": 1906, 
  "bestätigt": 1907, 
  "Business": 1908, 
  "Geschäftsordnung": 1909, 
  "internationaler": 1910, 
  "empfehlen": 1911, 
  "größeren": 1912, 
  "Fortschritt": 1913, 
  "Regelungen": 1914, 
  "Pro@@": 1915, 
  "erforderlichen": 1916, 
  "beteiligt": 1917, 
  "ung@@": 1918, 
  "nennen": 1919, 
  "Anteil": 1920, 
  "ate": 1921, 
  "2.": 1922, 
  "Bewertung": 1923, 
  "vorliegenden": 1924, 
  "Verhältnis": 1925, 
  "Märkte": 1926, 
  "acht": 1927, 
  "In": 1928, 
  "Kritik": 1929, 
  "op@@": 1930, 
  "länger": 1931, 
  "19": 1932, 
  "Innovation": 1933, 
  "soweit": 1934, 
  "Technik": 1935, 
  "ert": 1936, 
  "schen": 1937, 
  "Neu@@": 1938, 
  "Größe": 1939, 
  "1998": 1940, 
  "Prinzip": 1941, 
  "kostenlos": 1942, 
  "gegenwärtigen": 1943, 
  "Entwurf": 1944, 
  "möglichen": 1945, 
  "zuerst": 1946, 
  "hin@@": 1947, 
  "Sinn": 1948, 
  "inzwischen": 1949, 
  "Verpflichtung": 1950, 
  "deutsche": 1951, 
  "Tradition": 1952, 
  "se@@": 1953, 
  "volle": 1954, 
  "Bank": 1955, 
  "verbundenen": 1956, 
  "beinhaltet": 1957, 
  "garantieren": 1958, 
  "land": 1959, 
  "sofern": 1960, 
  "Globalisierung": 1961, 
  "Mitteln": 1962, 
  "Maße": 1963, 
  "Produktions@@": 1964, 
  "22": 1965, 
  "WTO": 1966, 
  "Worten": 1967, 
  "eten": 1968, 
  "90": 1969, 
  "Agentur": 1970, 
  "M": 1971, 
  "früher": 1972, 
  "stelle": 1973, 
  "politisch": 1974, 
  "27": 1975, 
  "übertragen": 1976, 
  "führenden": 1977, 
  "voller": 1978, 
  "International": 1979, 
  "Unterkunft": 1980, 
  "stattfinden": 1981, 
  "ationen": 1982, 
  "Zu@@": 1983, 
  "Gründe": 1984, 
  "seien": 1985, 
  "Reise": 1986, 
  "aten": 1987, 
  "70": 1988, 
  "Mar@@": 1989, 
  "frage": 1990, 
  "ger": 1991, 
  "Gemeinschafts@@": 1992, 
  "dient": 1993, 
  "Monat": 1994, 
  "Erklärungen": 1995, 
  "Verkehr": 1996, 
  "Umfang": 1997, 
  "relativ": 1998, 
  "ation": 1999, 
  "Kosovo": 2000, 
  "ma@@": 2001, 
  "wesentlichen": 2002, 
  "Fotos": 2003, 
  "markt": 2004, 
  "Niveau": 2005, 
  "Land@@": 2006, 
  "britischen": 2007, 
  "Welt@@": 2008, 
  "geöffnet": 2009, 
  "Patienten": 2010, 
  "echte": 2011, 
  "Beteiligung": 2012, 
  "II": 2013, 
  "hauptsächlich": 2014, 
  "zufrieden": 2015, 
  "gestern": 2016, 
  "our": 2017, 
  "Club": 2018, 
  "solcher": 2019, 
  "entsprechen": 2020, 
  "Politiker": 2021, 
  "Kon@@": 2022, 
  "verloren": 2023, 
  "maßnahmen": 2024, 
  "sonst": 2025, 
  "erhöht": 2026, 
  "allgemeine": 2027, 
  "Risiken": 2028, 
  "Altstadt": 2029, 
  "Hoch@@": 2030, 
  "Gegensatz": 2031, 
  "guter": 2032, 
  "booking.com": 2033, 
  "kürzlich": 2034, 
  "Kompromiss": 2035, 
  "tern": 2036, 
  "Entschließungsantrag": 2037, 
  "innen": 2038, 
  "Europäer": 2039, 
  "Flexibilität": 2040, 
  "eb@@": 2041, 
  "Netzwerk": 2042, 
  "speziellen": 2043, 
  "le@@": 2044, 
  "UN": 2045, 
  "ze": 2046, 
  "Methode": 2047, 
  "were": 2048, 
  "jüngsten": 2049, 
  "Mann": 2050, 
  "Aktionen": 2051, 
  "persönliche": 2052, 
  "Ereignisse": 2053, 
  "Eindruck": 2054, 
  "Absatz": 2055, 
  "Risiko": 2056, 
  "Mitgliedern": 2057, 
  "9@@": 2058, 
  "}": 2059, 
  "abgeschlossen": 2060, 
  "gel@@": 2061, 
  "ideale": 2062, 
  "est": 2063, 
  "staff": 2064, 
  "Aussicht": 2065, 
  "Aufbau": 2066, 
  "praktisch": 2067, 
  "il@@": 2068, 
  "genauso": 2069, 
  "rechtlichen": 2070, 
  "Erde": 2071, 
  "nationaler": 2072, 
  "Empfehlungen": 2073, 
  "schließen": 2074, 
  "Sp@@": 2075, 
  "Verständnis": 2076, 
  "Rezeption": 2077, 
  "globale": 2078, 
  "Wirkung": 2079, 
  "Botschaft": 2080, 
  "Begriff": 2081, 
  "p": 2082, 
  "informiert": 2083, 
  "ber": 2084, 
  "ier@@": 2085, 
  "Gebiete": 2086, 
  "erfordert": 2087, 
  "Treffen": 2088, 
  "nachhaltige": 2089, 
  "geschieht": 2090, 
  "Entwicklungs@@": 2091, 
  "Firmen": 2092, 
  "35": 2093, 
  "sage": 2094, 
  "Anlagen": 2095, 
  "Realität": 2096, 
  "regelmäßig": 2097, 
  "19.": 2098, 
  "Hinweis": 2099, 
  "Nutzer": 2100, 
  "Hoffnung": 2101, 
  "demokratische": 2102, 
  "laufen": 2103, 
  "Führung": 2104, 
  "zählen": 2105, 
  "Grundsatz": 2106, 
  "teile": 2107, 
  "achten": 2108, 
  "junge": 2109, 
  "einverstanden": 2110, 
  "spricht": 2111, 
  "23": 2112, 
  "Inseln": 2113, 
  "ts@@": 2114, 
  "sichern": 2115, 
  "Sport@@": 2116, 
  "führte": 2117, 
  "bewegen": 2118, 
  "abhängig": 2119, 
  "gehalten": 2120, 
  "Infrastruktur": 2121, 
  "mm": 2122, 
  "wichtigste": 2123, 
  "Dr.": 2124, 
  "Sozial@@": 2125, 
  "jungen": 2126, 
  "Kinder@@": 2127, 
  "betroffen": 2128, 
  "Einzel@@": 2129, 
  "einzigen": 2130, 
  "Be@@": 2131, 
  "une": 2132, 
  "Grunde": 2133, 
  "Berg@@": 2134, 
  "Bedarf": 2135, 
  "Beihilfen": 2136, 
  "festgestellt": 2137, 
  "Fraktionen": 2138, 
  "Gegenteil": 2139, 
  "schneller": 2140, 
  "Hälfte": 2141, 
  "Agenda": 2142, 
  "Hauptstadt": 2143, 
  "Vorteil": 2144, 
  "World": 2145, 
  "einzelne": 2146, 
  "welchen": 2147, 
  "ations@@": 2148, 
  "Voraussetzungen": 2149, 
  "ü@@": 2150, 
  "daten": 2151, 
  "Amsterdam": 2152, 
  "Web@@": 2153, 
  "mag": 2154, 
  "anstatt": 2155, 
  "d.": 2156, 
  "wenden": 2157, 
  "vorgeschlagenen": 2158, 
  "kon@@": 2159, 
  "V": 2160, 
  "Städte": 2161, 
  "wodurch": 2162, 
  "Bestandteil": 2163, 
  "ing@@": 2164, 
  "Bahnhof": 2165, 
  "starken": 2166, 
  "Phase": 2167, 
  "York": 2168, 
  "reicht": 2169, 
  "Und": 2170, 
  "Natur@@": 2171, 
  "Prüfung": 2172, 
  "Option": 2173, 
  "traditionellen": 2174, 
  "u.": 2175, 
  "solange": 2176, 
  "programme": 2177, 
  "einerseits": 2178, 
  "Groß@@": 2179, 
  "anbieten": 2180, 
  "Sport": 2181, 
  "Veranstaltungen": 2182, 
  "Landschaft": 2183, 
  "service": 2184, 
  "Re@@": 2185, 
  "betroffenen": 2186, 
  "Bar@@": 2187, 
  "Apartments": 2188, 
  "Ruhe": 2189, 
  "Klimaanlage": 2190, 
  "zweifellos": 2191, 
  "beschäftigt": 2192, 
  "Produkt@@": 2193, 
  "vollkommen": 2194, 
  "weiteres": 2195, 
  "Dienst": 2196, 
  "Ausland": 2197, 
  "reden": 2198, 
  "Links": 2199, 
  "Unternehmens": 2200, 
  "vorschlagen": 2201, 
  "Angebote": 2202, 
  "Unabhängigkeit": 2203, 
  "keiner": 2204, 
  "Hotel@@": 2205, 
  "Farben": 2206, 
  "gewählt": 2207, 
  "Erhöhung": 2208, 
  "Gesetzgebung": 2209, 
  "Internationalen": 2210, 
  "Zimmern": 2211, 
  "all@@": 2212, 
  "Struktur": 2213, 
  "Buch": 2214, 
  "bequem": 2215, 
  "begann": 2216, 
  "ete": 2217, 
  "Charakter": 2218, 
  "ungs-": 2219, 
  "diskutiert": 2220, 
  "finde": 2221, 
  "fordert": 2222, 
  "nochmals": 2223, 
  "besseren": 2224, 
  "hergestellt": 2225, 
  "have": 2226, 
  "Center": 2227, 
  "sch": 2228, 
  "Services": 2229, 
  "good": 2230, 
  "tem": 2231, 
  "Überprüfung": 2232, 
  "reagieren": 2233, 
  "ac@@": 2234, 
  "Zahlen": 2235, 
  "Königreich": 2236, 
  "Ratspräsident": 2237, 
  "Teilen": 2238, 
  "ges@@": 2239, 
  "1997": 2240, 
  "Wein@@": 2241, 
  "Liberalisierung": 2242, 
  "Methoden": 2243, 
  "seitens": 2244, 
  "Stadtzentrum": 2245, 
  "Laufe": 2246, 
  "Licht": 2247, 
  "Männer": 2248, 
  "Di@@": 2249, 
  "läuft": 2250, 
  "Ro@@": 2251, 
  "but": 2252, 
  "sen@@": 2253, 
  "Generation": 2254, 
  "weshalb": 2255, 
  "teil": 2256, 
  "fand": 2257, 
  "Fähigkeit": 2258, 
  "van": 2259, 
  "Gästen": 2260, 
  "ed@@": 2261, 
  "Diskriminierung": 2262, 
  "Klimawandel": 2263, 
  "Teilnehmer": 2264, 
  "Verkehrs@@": 2265, 
  "höchste": 2266, 
  "jährlich": 2267, 
  "Bewegung": 2268, 
  "Musik@@": 2269, 
  "regionale": 2270, 
  "ell@@": 2271, 
  "buchen": 2272, 
  "Gott": 2273, 
  "angeht": 2274, 
  "Telefon": 2275, 
  "Grenze": 2276, 
  "sieben": 2277, 
  "ul@@": 2278, 
  "akzeptiert": 2279, 
  "Serie": 2280, 
  "systems": 2281, 
  "St.": 2282, 
  "ing": 2283, 
  "Fälle": 2284, 
  "betont": 2285, 
  "bildet": 2286, 
  "Ordnung": 2287, 
  "manche": 2288, 
  "Koordinierung": 2289, 
  "K": 2290, 
  "Dokumente": 2291, 
  "positiven": 2292, 
  "ner": 2293, 
  "Reaktion": 2294, 
  "20.": 2295, 
  "Bild@@": 2296, 
  "international": 2297, 
  "Tiere": 2298, 
  "drittens": 2299, 
  "Druck@@": 2300, 
  "Westen": 2301, 
  "eh@@": 2302, 
  "verlieren": 2303, 
  "Download": 2304, 
  "gewisse": 2305, 
  "sicherstellen": 2306, 
  "Anpassung": 2307, 
  "breite": 2308, 
  "Versuch": 2309, 
  "Unterschiede": 2310, 
  "Willen": 2311, 
  "po@@": 2312, 
  "gelegt": 2313, 
  "ländlichen": 2314, 
  "Informations@@": 2315, 
  "Kombination": 2316, 
  "17@@": 2317, 
  "h.": 2318, 
  "wiederum": 2319, 
  "Gefühl": 2320, 
  "Freunde": 2321, 
  "Körper": 2322, 
  "ka": 2323, 
  "gesch@@": 2324, 
  "übernommen": 2325, 
  "liefern": 2326, 
  "verstärkt": 2327, 
  "Spiele": 2328, 
  "lichkeit": 2329, 
  "berühmten": 2330, 
  "Plan": 2331, 
  "ob@@": 2332, 
  "basiert": 2333, 
  "Stunde": 2334, 
  "Umständen": 2335, 
  "sh@@": 2336, 
  "Vorbereitung": 2337, 
  "Gesetze": 2338, 
  "derartige": 2339, 
  "zunehmend": 2340, 
  "abzu@@": 2341, 
  "dritten": 2342, 
  "Zeit@@": 2343, 
  "Süden": 2344, 
  "nötig": 2345, 
  "Format": 2346, 
  "ehemaligen": 2347, 
  "Anliegen": 2348, 
  "Stadt@@": 2349, 
  "Diskussionen": 2350, 
  "Amerika": 2351, 
  "entlang": 2352, 
  "Zustand": 2353, 
  "En@@": 2354, 
  "Dimension": 2355, 
  "Strategien": 2356, 
  "höhere": 2357, 
  "ergeben": 2358, 
  "vi@@": 2359, 
  "Teilnahme": 2360, 
  "ell": 2361, 
  "Sanktionen": 2362, 
  "ster": 2363, 
  "Eigenschaften": 2364, 
  "starten": 2365, 
  "historische": 2366, 
  "H": 2367, 
  "Einklang": 2368, 
  "Bedenken": 2369, 
  "zi@@": 2370, 
  "Lebens@@": 2371, 
  "R": 2372, 
  "rechten": 2373, 
  "3.": 2374, 
  "hierbei": 2375, 
  "derzeitigen": 2376, 
  "spezifischen": 2377, 
  "bekannten": 2378, 
  "verlangen": 2379, 
  "Portugal": 2380, 
  "zustimmen": 2381, 
  "Stellen": 2382, 
  "45": 2383, 
  "Anlage": 2384, 
  "öffnen": 2385, 
  "²": 2386, 
  "Studie": 2387, 
  "Kollege": 2388, 
  "entscheidend": 2389, 
  "Material": 2390, 
  "@": 2391, 
  "Verfügbarkeit": 2392, 
  "erhältlich": 2393, 
  "industrie": 2394, 
  "Freude": 2395, 
  "ben": 2396, 
  "Voraussetzung": 2397, 
  "sektor": 2398, 
  "unternommen": 2399, 
  "DVD": 2400, 
  "21.": 2401, 
  "werte": 2402, 
  "umfassenden": 2403, 
  "wichtiges": 2404, 
  "erlauben": 2405, 
  "Antworten": 2406, 
  "P": 2407, 
  "weltweiten": 2408, 
  "ons": 2409, 
  "Grundrechte": 2410, 
  "Karten": 2411, 
  "Kunde": 2412, 
  "Fenster": 2413, 
  "kleiner": 2414, 
  "il": 2415, 
  "allgemein": 2416, 
  "zer@@": 2417, 
  "ine": 2418, 
  "F": 2419, 
  "befassen": 2420, 
  "anerkannt": 2421, 
  "stimmt": 2422, 
  "mögliche": 2423, 
  "hoher": 2424, 
  "Waren": 2425, 
  "Formular": 2426, 
  "Geist": 2427, 
  "Architektur": 2428, 
  "Datenbank": 2429, 
  "ana": 2430, 
  "Microsoft": 2431, 
  "amerikanische": 2432, 
  "deiner": 2433, 
  "lage": 2434, 
  "heraus": 2435, 
  "geschrieben": 2436, 
  "Effizienz": 2437, 
  "legt": 2438, 
  "behandeln": 2439, 
  "Sitz": 2440, 
  "Schule": 2441, 
  "ziemlich": 2442, 
  "Tod": 2443, 
  "1.@@": 2444, 
  "Allgemeinen": 2445, 
  "Foto": 2446, 
  "Ent@@": 2447, 
  "bedingungen": 2448, 
  "Zugriff": 2449, 
  "Bau": 2450, 
  "System@@": 2451, 
  "Übereinkommen": 2452, 
  "Schutz@@": 2453, 
  "ente": 2454, 
  "Untersuchung": 2455, 
  "Mo@@": 2456, 
  "Verhalten": 2457, 
  "Berücksichtigung": 2458, 
  "Küste": 2459, 
  "Holz@@": 2460, 
  "ina": 2461, 
  "geb@@": 2462, 
  "Google": 2463, 
  "wesentliche": 2464, 
  "fühlen": 2465, 
  "unmittelbar": 2466, 
  "bezieht": 2467, 
  "Sprach@@": 2468, 
  "konkreten": 2469, 
  "Beifall": 2470, 
  "meist": 2471, 
  "schön": 2472, 
  "künftig": 2473, 
  "enk@@": 2474, 
  "gelungen": 2475, 
  "Frei@@": 2476, 
  "lo@@": 2477, 
  "betreffen": 2478, 
  "Grundsätze": 2479, 
  "Lebens": 2480, 
  "#": 2481, 
  "Schäden": 2482, 
  "1996": 2483, 
  "tische": 2484, 
  "gest@@": 2485, 
  "beträgt": 2486, 
  "Verträge": 2487, 
  "Auftrag": 2488, 
  "tut": 2489, 
  "begonnen": 2490, 
  "Details": 2491, 
  "richten": 2492, 
  "Klima": 2493, 
  "erscheinen": 2494, 
  "eröffnet": 2495, 
  "prozess": 2496, 
  "Fahr@@": 2497, 
  "eng": 2498, 
  "Leitlinien": 2499, 
  "ig@@": 2500, 
  "umgeben": 2501, 
  "jemand": 2502, 
  "ismus": 2503, 
  "Kategorie": 2504, 
  "mann": 2505, 
  "kurze": 2506, 
  "Maßnahme": 2507, 
  "Materialien": 2508, 
  "bei@@": 2509, 
  "hilft": 2510, 
  "ernst": 2511, 
  "Staats@@": 2512, 
  "Nachfrage": 2513, 
  "na": 2514, 
  "mitten": 2515, 
  "Verbrechen": 2516, 
  "Kunst@@": 2517, 
  "Bus": 2518, 
  "kan@@": 2519, 
  "Norden": 2520, 
  "Wirtschafts-": 2521, 
  "trifft": 2522, 
  "Mon@@": 2523, 
  "eigenes": 2524, 
  "niemals": 2525, 
  "Völker": 2526, 
  "Anfragen": 2527, 
  "Landwirte": 2528, 
  "hervorragende": 2529, 
  "rasch": 2530, 
  "interessiert": 2531, 
  "Kunden@@": 2532, 
  "ales": 2533, 
  "location": 2534, 
  "ausgezeichnete": 2535, 
  "zusätzlichen": 2536, 
  "Gedanken": 2537, 
  "re": 2538, 
  "italienischen": 2539, 
  "näher": 2540, 
  "Absicht": 2541, 
  "Experten": 2542, 
  "art": 2543, 
  "bi@@": 2544, 
  "Bahn": 2545, 
  "Erwartungen": 2546, 
  "ia": 2547, 
  "Schaden": 2548, 
  "City": 2549, 
  "Wahrheit": 2550, 
  "kurzem": 2551, 
  "gebiet": 2552, 
  "schnelle": 2553, 
  "Fischerei": 2554, 
  "installiert": 2555, 
  "platz": 2556, 
  "zeiten": 2557, 
  "BIP": 2558, 
  "Werk": 2559, 
  "Ch@@": 2560, 
  "00@@": 2561, 
  "Ober@@": 2562, 
  "Kind": 2563, 
  "Enterprise": 2564, 
  "zwei@@": 2565, 
  "EG": 2566, 
  "Definition": 2567, 
  "reisen": 2568, 
  "verändert": 2569, 
  "Code": 2570, 
  "gefördert": 2571, 
  "Entwicklungsländern": 2572, 
  "grundlegenden": 2573, 
  "schönsten": 2574, 
  "Mittelpunkt": 2575, 
  "verbringen": 2576, 
  "Link": 2577, 
  "besitzen": 2578, 
  "Ambiente": 2579, 
  "Gesundheits@@": 2580, 
  "im@@": 2581, 
  "ap@@": 2582, 
  "vollen": 2583, 
  "grundsätzlich": 2584, 
  "Wien": 2585, 
  "ant": 2586, 
  "ö@@": 2587, 
  "Englisch": 2588, 
  "schwierigen": 2589, 
  "Schweden": 2590, 
  "sorgt": 2591, 
  "Angriff": 2592, 
  "neuesten": 2593, 
  "gezogen": 2594, 
  "übrigens": 2595, 
  "natürlichen": 2596, 
  "ur": 2597, 
  "ti": 2598, 
  "entstanden": 2599, 
  "ko@@": 2600, 
  "Privat@@": 2601, 
  "FR": 2602, 
  "Verkauf": 2603, 
  "menschlichen": 2604, 
  "Verbesserungen": 2605, 
  "out": 2606, 
  "Einstellung": 2607, 
  "letztlich": 2608, 
  "Kur@@": 2609, 
  "Beispiele": 2610, 
  "Flug@@": 2611, 
  "Test@@": 2612, 
  "Tagung": 2613, 
  "Badezimmer": 2614, 
  "grundlegende": 2615, 
  "kulturelle": 2616, 
  "teilnehmen": 2617, 
  "bedeuten": 2618, 
  "ne@@": 2619, 
  "Delegation": 2620, 
  "erweitert": 2621, 
  "1@@": 2622, 
  "weisen": 2623, 
  "kämpfen": 2624, 
  "Normen": 2625, 
  "Qualitäts@@": 2626, 
  "tischen": 2627, 
  "Waffen": 2628, 
  "Beratung": 2629, 
  "ruhigen": 2630, 
  "16@@": 2631, 
  "Forum": 2632, 
  "32": 2633, 
  "offenen": 2634, 
  "sche": 2635, 
  "Verwaltungs@@": 2636, 
  "Boden": 2637, 
  "Wirklichkeit": 2638, 
  "Nahen": 2639, 
  "Winter": 2640, 
  "anschließend": 2641, 
  "wissenschaftlichen": 2642, 
  "ß@@": 2643, 
  "einfachen": 2644, 
  "Kamera": 2645, 
  "ch": 2646, 
  "schicken": 2647, 
  "dritte": 2648, 
  "Selbst@@": 2649, 
  "organisiert": 2650, 
  "Par@@": 2651, 
  "höchsten": 2652, 
  "Agrarpolitik": 2653, 
  "ausgezeichneten": 2654, 
  "Strukturen": 2655, 
  "zählt": 2656, 
  "ungs": 2657, 
  "Unterschied": 2658, 
  "Bucht": 2659, 
  "spezifische": 2660, 
  "Regime": 2661, 
  "Car@@": 2662, 
  "11.": 2663, 
  "losen": 2664, 
  "elt": 2665, 
  "falsch": 2666, 
  "Ã": 2667, 
  "einzu@@": 2668, 
  "ma": 2669, 
  "Maschinen": 2670, 
  "Unternehmens@@": 2671, 
  "chinesischen": 2672, 
  "staatlichen": 2673, 
  "bemüht": 2674, 
  "aufzunehmen": 2675, 
  "Ratsvorsitz": 2676, 
  "präsentiert": 2677, 
  "schlagen": 2678, 
  "Rechts": 2679, 
  "ck@@": 2680, 
  "Hand@@": 2681, 
  "last": 2682, 
  "ent": 2683, 
  "zufolge": 2684, 
  "°": 2685, 
  "Mittel@@": 2686, 
  "schafft": 2687, 
  "ursprünglichen": 2688, 
  "Ausstattung": 2689, 
  "musste": 2690, 
  "Stellung": 2691, 
  "Empfehlung": 2692, 
  "zugänglich": 2693, 
  "Nein": 2694, 
  "dir": 2695, 
  "schauen": 2696, 
  "spanischen": 2697, 
  "anlagen": 2698, 
  "rechte": 2699, 
  "riesigen": 2700, 
  "Dusche": 2701, 
  "wieder@@": 2702, 
  "Anbieter": 2703, 
  "entspannen": 2704, 
  "extrem": 2705, 
  "Inter@@": 2706, 
  "Überzeugung": 2707, 
  "Pflicht": 2708, 
  "abgelehnt": 2709, 
  "Ausgangspunkt": 2710, 
  "Tourismus": 2711, 
  "umzusetzen": 2712, 
  "Steuern": 2713, 
  "gratulieren": 2714, 
  "Künstler": 2715, 
  "ut@@": 2716, 
  "verursacht": 2717, 
  "Dorf": 2718, 
  "abge@@": 2719, 
  "Preis@@": 2720, 
  "zentralen": 2721, 
  "verehrte": 2722, 
  "entwickelten": 2723, 
  "weiter@@": 2724, 
  "Hafen": 2725, 
  "5.": 2726, 
  "Golf": 2727, 
  "Krankheiten": 2728, 
  "Farb@@": 2729, 
  "Geräte": 2730, 
  "Kooperation": 2731, 
  "höher": 2732, 
  "Punkten": 2733, 
  "lautet": 2734, 
  "Schul@@": 2735, 
  "gelöst": 2736, 
  "hierzu": 2737, 
  "tigen": 2738, 
  "funktionieren": 2739, 
  "Klasse": 2740, 
  "Projekten": 2741, 
  "jegliche": 2742, 
  "fordere": 2743, 
  "NATO": 2744, 
  "übernimmt": 2745, 
  "Emissionen": 2746, 
  "Verbindungen": 2747, 
  "betreffenden": 2748, 
  "Forschungs@@": 2749, 
  "bezug": 2750, 
  "Bestellung": 2751, 
  "Mitgliedschaft": 2752, 
  "to@@": 2753, 
  "echten": 2754, 
  "vorgenommen": 2755, 
  "Abschnitt": 2756, 
  "arbeit": 2757, 
  "CO2": 2758, 
  "qu@@": 2759, 
  "Fähigkeiten": 2760, 
  "Abkommens": 2761, 
  "erheblich": 2762, 
  "Kern@@": 2763, 
  "Harmonisierung": 2764, 
  "Durch@@": 2765, 
  "vieler": 2766, 
  "sehe": 2767, 
  "DE": 2768, 
  "bekämpfen": 2769, 
  "stehenden": 2770, 
  "Minister": 2771, 
  "™": 2772, 
  "Netz": 2773, 
  "künftigen": 2774, 
  "verlangt": 2775, 
  "durchzuführen": 2776, 
  "Bo@@": 2777, 
  "verschiedener": 2778, 
  "Erholung": 2779, 
  "mo@@": 2780, 
  "ungefähr": 2781, 
  "UNO": 2782, 
  "ep@@": 2783, 
  "egal": 2784, 
  "sinnvoll": 2785, 
  "Eltern": 2786, 
  "Strukturfonds": 2787, 
  "vorher": 2788, 
  "len": 2789, 
  "hängt": 2790, 
  "Gebrauch": 2791, 
  "schlägt": 2792, 
  "Beweis": 2793, 
  "behalten": 2794, 
  "Alternative": 2795, 
  "Rumänien": 2796, 
  "4.": 2797, 
  "Tisch": 2798, 
  "par@@": 2799, 
  "Farbe": 2800, 
  "Kar@@": 2801, 
  "Ausführungen": 2802, 
  "ergriffen": 2803, 
  "bezahlen": 2804, 
  "Entwicklungsländer": 2805, 
  "Luft": 2806, 
  "serviert": 2807, 
  "interessante": 2808, 
  "hervorheben": 2809, 
  "zentrum": 2810, 
  "í@@": 2811, 
  "Ausnahme": 2812, 
  "your": 2813, 
  "en-": 2814, 
  "leiden": 2815, 
  "Start": 2816, 
  "N": 2817, 
  "Roma": 2818, 
  "Konflikt": 2819, 
  "aufgefordert": 2820, 
  "Co@@": 2821, 
  "Partnern": 2822, 
  "KMU": 2823, 
  "Veranstaltung": 2824, 
  "auszu@@": 2825, 
  "produktion": 2826, 
  "Angst": 2827, 
  "stellung": 2828, 
  "Ma@@": 2829, 
  "Ratspräsidentschaft": 2830, 
  "nachhaltigen": 2831, 
  "Alter": 2832, 
  "gespielt": 2833, 
  "Gegend": 2834, 
  "frei@@": 2835, 
  "Nachrichten": 2836, 
  "nahezu": 2837, 
  "Austausch": 2838, 
  "ausgeschlossen": 2839, 
  "Straßen": 2840, 
  "Änderungsanträgen": 2841, 
  "kurzen": 2842, 
  "Afghanistan": 2843, 
  "28": 2844, 
  "400": 2845, 
  "notwendige": 2846, 
  "annehmen": 2847, 
  "westlichen": 2848, 
  "Buchung": 2849, 
  "Übereinstimmung": 2850, 
  "besch@@": 2851, 
  "w": 2852, 
  "Gestaltung": 2853, 
  "bislang": 2854, 
  "Vorschlägen": 2855, 
  "einzigartige": 2856, 
  "Websites": 2857, 
  "produziert": 2858, 
  "Programmen": 2859, 
  "beschränkt": 2860, 
  "15@@": 2861, 
  "Öl@@": 2862, 
  "Mensch": 2863, 
  "produkte": 2864, 
  "Schlafzimmer": 2865, 
  "Schwerpunkt": 2866, 
  "steigen": 2867, 
  "überzeugen": 2868, 
  "d.h.": 2869, 
  "beglückwünschen": 2870, 
  "bestätigen": 2871, 
  "Kilometer": 2872, 
  "Mit@@": 2873, 
  "tieren": 2874, 
  "¤": 2875, 
  "gestatten": 2876, 
  "ach@@": 2877, 
  "Per@@": 2878, 
  "Geschäfte": 2879, 
  "früheren": 2880, 
  "per@@": 2881, 
  "durchführen": 2882, 
  "erung": 2883, 
  "geboren": 2884, 
  "18.": 2885, 
  "Internet@@": 2886, 
  "up": 2887, 
  "ou": 2888, 
  "ff@@": 2889, 
  "gebaut": 2890, 
  "10@@": 2891, 
  "Umgang": 2892, 
  "Ausstellung": 2893, 
  "con": 2894, 
  "erten": 2895, 
  "tritt": 2896, 
  "Ausführung": 2897, 
  "erreichbar": 2898, 
  "Komponenten": 2899, 
  "zugunsten": 2900, 
  "ange@@": 2901, 
  "verabschiedet": 2902, 
  "Maß": 2903, 
  "Kopf": 2904, 
  "verhindert": 2905, 
  "ausgesprochen": 2906, 
  "la@@": 2907, 
  "sodass": 2908, 
  "ans": 2909, 
  "Arbeitsplätzen": 2910, 
  "definiert": 2911, 
  "kl@@": 2912, 
  "u.a.": 2913, 
  "2020": 2914, 
  "26": 2915, 
  "Drittländern": 2916, 
  "sin@@": 2917, 
  "öffentlich": 2918, 
  "raum": 2919, 
  "si": 2920, 
  "lose": 2921, 
  "so@@": 2922, 
  "Spa": 2923, 
  "zuständigen": 2924, 
  "Her@@": 2925, 
  "ei": 2926, 
  "Übersetzung": 2927, 
  "München": 2928, 
  "ausgesetzt": 2929, 
  "werk": 2930, 
  "ir@@": 2931, 
  "geprüft": 2932, 
  "Costa": 2933, 
  "Prinzipien": 2934, 
  "Gleichgewicht": 2935, 
  "tige": 2936, 
  "russischen": 2937, 
  "erte": 2938, 
  "führende": 2939, 
  "berg": 2940, 
  "Wein": 2941, 
  "ursprünglich": 2942, 
  "ähnlich": 2943, 
  "ce": 2944, 
  "kamen": 2945, 
  "ra": 2946, 
  "Verringerung": 2947, 
  "Faktoren": 2948, 
  "Element": 2949, 
  "passiert": 2950, 
  "Wissenschaft": 2951, 
  "150": 2952, 
  "vollständige": 2953, 
  "aufzu@@": 2954, 
  "verringern": 2955, 
  "aufnehmen": 2956, 
  "Optionen": 2957, 
  "zentral": 2958, 
  "Planung": 2959, 
  "Plattform": 2960, 
  "individuelle": 2961, 
  "Beziehung": 2962, 
  "rufen": 2963, 
  "Ge@@": 2964, 
  "kostet": 2965, 
  "Vereinbarungen": 2966, 
  "unmöglich": 2967, 
  "Außenpolitik": 2968, 
  "alt": 2969, 
  "Bi@@": 2970, 
  "installieren": 2971, 
  "Gerichte": 2972, 
  "normalerweise": 2973, 
  "rechtliche": 2974, 
  "vous": 2975, 
  "Schluss": 2976, 
  "essen": 2977, 
  "Werbung": 2978, 
  "1995": 2979, 
  "Con@@": 2980, 
  "schlecht": 2981, 
  "wohnen": 2982, 
  "Gesellschaften": 2983, 
  "á@@": 2984, 
  "hinzufügen": 2985, 
  "Beiträge": 2986, 
  "Einstellungen": 2987, 
  "ef@@": 2988, 
  "form": 2989, 
  "verstanden": 2990, 
  "perfekt": 2991, 
  "entsteht": 2992, 
  "verleihen": 2993, 
  "Chinas": 2994, 
  "mittel": 2995, 
  "inmitten": 2996, 
  "Festlegung": 2997, 
  "stellte": 2998, 
  "nunmehr": 2999, 
  "höheren": 3000, 
  "Problems": 3001, 
  "wollten": 3002, 
  "end@@": 3003, 
  "Gespräche": 3004, 
  "welchem": 3005, 
  "li": 3006, 
  "verändern": 3007, 
  "Ausgabe": 3008, 
  "bestand": 3009, 
  "bau@@": 3010, 
  "Sonne": 3011, 
  "gespeichert": 3012, 
  "iger": 3013, 
  "direkten": 3014, 
  "sorgfältig": 3015, 
  "Plenum": 3016, 
  "Bemerkungen": 3017, 
  "ker": 3018, 
  "angemessen": 3019, 
  "bestehende": 3020, 
  "una": 3021, 
  "Garantie": 3022, 
  "eller": 3023, 
  "Star": 3024, 
  "Wünsche": 3025, 
  "lokale": 3026, 
  "erleichtern": 3027, 
  "Man@@": 3028, 
  "Regierungskonferenz": 3029, 
  "Pool": 3030, 
  "ausgeführt": 3031, 
  "ss@@": 3032, 
  "no@@": 3033, 
  "berechtigt": 3034, 
  "ha@@": 3035, 
  "Regierungs@@": 3036, 
  "Zentralbank": 3037, 
  "Minderheiten": 3038, 
  "Handeln": 3039, 
  "Casino": 3040, 
  "Asien": 3041, 
  "begrüßt": 3042, 
  "page": 3043, 
  "Po@@": 3044, 
  "....": 3045, 
  "Verteidigung": 3046, 
  "klaren": 3047, 
  "bestimmen": 3048, 
  "letztendlich": 3049, 
  "Justiz": 3050, 
  "ci@@": 3051, 
  "Liebe": 3052, 
  "Ziffer": 3053, 
  "WLAN": 3054, 
  "Institution": 3055, 
  "Stück": 3056, 
  "bemühen": 3057, 
  "wei@@": 3058, 
  "dich": 3059, 
  "Ware": 3060, 
  "weise": 3061, 
  "heutige": 3062, 
  "Deutschen": 3063, 
  "erfolgreiche": 3064, 
  "Verbot": 3065, 
  "anti@@": 3066, 
  "Li@@": 3067, 
  "Post@@": 3068, 
  "Haftung": 3069, 
  "Gründung": 3070, 
  "man@@": 3071, 
  "Studenten": 3072, 
  "Aktion": 3073, 
  "innovative": 3074, 
  "bau": 3075, 
  "britische": 3076, 
  "breakfast": 3077, 
  "direkte": 3078, 
  "Veröffentlichung": 3079, 
  "ener": 3080, 
  "angemessene": 3081, 
  "Essen": 3082, 
  "vieles": 3083, 
  "Tour": 3084, 
  "erinnert": 3085, 
  "Einbeziehung": 3086, 
  "weist": 3087, 
  "Marktes": 3088, 
  "schutz": 3089, 
  "nahm": 3090, 
  "Wahl@@": 3091, 
  "Chancen": 3092, 
  "gezwungen": 3093, 
  "dürfte": 3094, 
  "staatliche": 3095, 
  "Webseiten": 3096, 
  "aktivieren": 3097, 
  "Charta": 3098, 
  "15.": 3099, 
  "geltenden": 3100, 
  "Hostels": 3101, 
  "Browser": 3102, 
  "Umfeld": 3103, 
  "Grand": 3104, 
  "rooms": 3105, 
  "voll@@": 3106, 
  "ette": 3107, 
  "fer@@": 3108, 
  "Mobilität": 3109, 
  "Signal": 3110, 
  "beraten": 3111, 
  "organisieren": 3112, 
  "Transport": 3113, 
  "wirksam": 3114, 
  "vorlegen": 3115, 
  "Bank@@": 3116, 
  "erstmals": 3117, 
  "Zielen": 3118, 
  "verkaufen": 3119, 
  "abgestimmt": 3120, 
  "hinzu": 3121, 
  "traditionelle": 3122, 
  "seite": 3123, 
  "Preisen": 3124, 
  "Kurs": 3125, 
  "Balkon": 3126, 
  "Ex@@": 3127, 
  "entscheidende": 3128, 
  "Or@@": 3129, 
  "Vorgehen": 3130, 
  "Band": 3131, 
  "rei@@": 3132, 
  "tisch": 3133, 
  "Identität": 3134, 
  "Untersuchungen": 3135, 
  "ersetzt": 3136, 
  "Freiheiten": 3137, 
  "Vorschlags": 3138, 
  "Versionen": 3139, 
  "verdient": 3140, 
  "inklusive": 3141, 
  "erhebliche": 3142, 
  "verurteilt": 3143, 
  "Sauna": 3144, 
  "reduzieren": 3145, 
  "kontaktieren": 3146, 
  "do@@": 3147, 
  "Konsens": 3148, 
  "Kräfte": 3149, 
  "einfacher": 3150, 
  "hoffentlich": 3151, 
  "mittlerweile": 3152, 
  "wirtschaftlicher": 3153, 
  "einig": 3154, 
  "größer": 3155, 
  "and@@": 3156, 
  "Arbeitsmarkt": 3157, 
  "fehlt": 3158, 
  "Rom": 3159, 
  "vorhandenen": 3160, 
  "Gerichtshof": 3161, 
  "zieht": 3162, 
  "ort": 3163, 
  "Politiken": 3164, 
  "ruhig": 3165, 
  "entwickelte": 3166, 
  "individuellen": 3167, 
  "Standard@@": 3168, 
  "breiten": 3169, 
  "gewährt": 3170, 
  "einheitlichen": 3171, 
  "Verbreitung": 3172, 
  "Klein@@": 3173, 
  "Außen@@": 3174, 
  "beruht": 3175, 
  "Studio": 3176, 
  "äußern": 3177, 
  "verbinden": 3178, 
  "gearbeitet": 3179, 
  "abgesehen": 3180, 
  "ien": 3181, 
  "Studien": 3182, 
  "2011": 3183, 
  "Krankheit": 3184, 
  "Mitarbeitern": 3185, 
  "strategischen": 3186, 
  "Besorgnis": 3187, 
  "lag": 3188, 
  "how": 3189, 
  "vorstellen": 3190, 
  "liefert": 3191, 
  "Tri@@": 3192, 
  "Kapitel": 3193, 
  "Nachricht": 3194, 
  "Player": 3195, 
  "freundlich": 3196, 
  "End@@": 3197, 
  "Schlüssel@@": 3198, 
  "Anschluss": 3199, 
  "ischem": 3200, 
  "pf@@": 3201, 
  "Zwecke": 3202, 
  "Einwanderung": 3203, 
  "beschäftigen": 3204, 
  "Städten": 3205, 
  "Vorstellung": 3206, 
  "ster@@": 3207, 
  "gestaltet": 3208, 
  "ähnliche": 3209, 
  "Gewicht": 3210, 
  "gt": 3211, 
  "tiert": 3212, 
  "via": 3213, 
  "Bedrohung": 3214, 
  "anhand": 3215, 
  "stattdessen": 3216, 
  "französische": 3217, 
  "hierfür": 3218, 
  "Station": 3219, 
  "Freunden": 3220, 
  "effektiv": 3221, 
  "wissenschaftliche": 3222, 
  "Sorgen": 3223, 
  "offiziellen": 3224, 
  "jenen": 3225, 
  "aktive": 3226, 
  "can": 3227, 
  "Hohen": 3228, 
  "tr@@": 3229, 
  "formen": 3230, 
  "außerordentlich": 3231, 
  "genannte": 3232, 
  "Bemerkung": 3233, 
  "kleines": 3234, 
  "Werke": 3235, 
  "wiederholen": 3236, 
  "angegebenen": 3237, 
  "Mindest@@": 3238, 
  "Wohn@@": 3239, 
  "tsch@@": 3240, 
  "Kauf": 3241, 
  "komme": 3242, 
  "zusammenarbeiten": 3243, 
  "vorbereitet": 3244, 
  "Schulen": 3245, 
  "Frankfurt": 3246, 
  "Wohnung": 3247, 
  "erk@@": 3248, 
  "testen": 3249, 
  "Erzeugnisse": 3250, 
  "there": 3251, 
  "ern@@": 3252, 
  "aussprechen": 3253, 
  "ca": 3254, 
  "haus": 3255, 
  "Sal@@": 3256, 
  "barer": 3257, 
  "verstärken": 3258, 
  "Kontroll@@": 3259, 
  "6.": 3260, 
  "systemen": 3261, 
  "Systemen": 3262, 
  "gewonnen": 3263, 
  "jener": 3264, 
  "gi@@": 3265, 
  "Vision": 3266, 
  "stadt": 3267, 
  "inter@@": 3268, 
  "Rest": 3269, 
  "01": 3270, 
  "Alle": 3271, 
  "Auge": 3272, 
  "af@@": 3273, 
  "Open": 3274, 
  "Sektoren": 3275, 
  "fuer": 3276, 
  "Zahlungs@@": 3277, 
  "druck": 3278, 
  "Kontrollen": 3279, 
  "erfolgreichen": 3280, 
  "Touristen": 3281, 
  "machte": 3282, 
  "ige": 3283, 
  "eingereicht": 3284, 
  "lagen": 3285, 
  "Betriebs@@": 3286, 
  "verkauft": 3287, 
  "Luft@@": 3288, 
  "erhielt": 3289, 
  "Viertel": 3290, 
  "75": 3291, 
  "Marke": 3292, 
  "Wohlstand": 3293, 
  "unverzüglich": 3294, 
  "http": 3295, 
  "finanziert": 3296, 
  "bauen": 3297, 
  "rein": 3298, 
  "management": 3299, 
  "2.@@": 3300, 
  "Wir": 3301, 
  "entscheidender": 3302, 
  "Live": 3303, 
  "a.": 3304, 
  "17.": 3305, 
  "W": 3306, 
  "dans": 3307, 
  "Bereitstellung": 3308, 
  "Einkommen": 3309, 
  "av@@": 3310, 
  "wer@@": 3311, 
  "Vorsitz": 3312, 
  "7.": 3313, 
  "las": 3314, 
  "Eurozone": 3315, 
  "beigetragen": 3316, 
  "betrieben": 3317, 
  "beschrieben": 3318, 
  "interessant": 3319, 
  "Erstellung": 3320, 
  "stolz": 3321, 
  "Bars": 3322, 
  "speichern": 3323, 
  "erzeugt": 3324, 
  "Messe": 3325, 
  "Manager": 3326, 
  "großem": 3327, 
  "Pakete": 3328, 
  "Beschluss": 3329, 
  "gefallen": 3330, 
  "ta": 3331, 
  "sichere": 3332, 
  "tig": 3333, 
  "Ri@@": 3334, 
  "Ungarn": 3335, 
  "Grad": 3336, 
  "Group": 3337, 
  "Konto": 3338, 
  "dienst": 3339, 
  "Schlussfolgerungen": 3340, 
  "bestellen": 3341, 
  "beteiligen": 3342, 
  "Spaß": 3343, 
  "modern": 3344, 
  "Einheit": 3345, 
  "integriert": 3346, 
  "Männern": 3347, 
  "ation@@": 3348, 
  "wunderschönen": 3349, 
  "Grenz@@": 3350, 
  "dern": 3351, 
  "Brasilien": 3352, 
  "lei@@": 3353, 
  "schriftliche": 3354, 
  "my": 3355, 
  "son": 3356, 
  "investieren": 3357, 
  "Katastrophe": 3358, 
  "Kontext": 3359, 
  "Mangel": 3360, 
  "Post": 3361, 
  "Ansichten": 3362, 
  "bestimmter": 3363, 
  "anzu@@": 3364, 
  "langfristig": 3365, 
  "vermitteln": 3366, 
  "individuell": 3367, 
  "regeln": 3368, 
  "Vater": 3369, 
  "PL": 3370, 
  "he": 3371, 
  "Staates": 3372, 
  "Red": 3373, 
  "Einwohner": 3374, 
  "du@@": 3375, 
  "Polizei": 3376, 
  "Mess@@": 3377, 
  "had": 3378, 
  "anwesend": 3379, 
  "Ko@@": 3380, 
  "elektronischen": 3381, 
  "reich": 3382, 
  "Ö@@": 3383, 
  "geboten": 3384, 
  "solches": 3385, 
  "bedeutende": 3386, 
  "ISO": 3387, 
  "einzigartigen": 3388, 
  "16.": 3389, 
  "gerät": 3390, 
  "verbindet": 3391, 
  "optimale": 3392, 
  "fest@@": 3393, 
  "AKP": 3394, 
  "Rechtsgrundlage": 3395, 
  "langsam": 3396, 
  "Schlüssel": 3397, 
  "Lieferung": 3398, 
  "barkeit": 3399, 
  "Sicherung": 3400, 
  "pour": 3401, 
  "hervor": 3402, 
  "Genehmigung": 3403, 
  "ausgezeichnet": 3404, 
  "beobachten": 3405, 
  "Menü": 3406, 
  "tiger": 3407, 
  "angegeben": 3408, 
  "feld": 3409, 
  "Gegen@@": 3410, 
  "heit": 3411, 
  "EZB": 3412, 
  "diesbezüglich": 3413, 
  "hingegen": 3414, 
  "wiederholt": 3415, 
  "Konsequenzen": 3416, 
  "beantworten": 3417, 
  "Provinz": 3418, 
  "Dauer": 3419, 
  "endes": 3420, 
  "Am@@": 3421, 
  "folglich": 3422, 
  "Nummer": 3423, 
  "Morgen": 3424, 
  "dar@@": 3425, 
  "scheinen": 3426, 
  "v": 3427, 
  "eingehalten": 3428, 
  "IP": 3429, 
  "weitgehend": 3430, 
  "Modelle": 3431, 
  "läßt": 3432, 
  "langfristige": 3433, 
  "Gast": 3434, 
  "genügend": 3435, 
  "allzu": 3436, 
  "Gerät": 3437, 
  "gewissen": 3438, 
  "gebiete": 3439, 
  "Test": 3440, 
  "herrscht": 3441, 
  "EADS": 3442, 
  "zuständig": 3443, 
  "Projekt@@": 3444, 
  "Kapital@@": 3445, 
  "Beschlüsse": 3446, 
  "bereitgestellt": 3447, 
  "Positionen": 3448, 
  "ums": 3449, 
  "Kroatien": 3450, 
  "gelingt": 3451, 
  "Gas@@": 3452, 
  "än@@": 3453, 
  "Glaubwürdigkeit": 3454, 
  "8.": 3455, 
  "sozialer": 3456, 
  "Prozesse": 3457, 
  "überprüft": 3458, 
  "PHP": 3459, 
  "EN@@": 3460, 
  "eignet": 3461, 
  "Support": 3462, 
  "mussten": 3463, 
  "erlebt": 3464, 
  "san@@": 3465, 
  "Betrag": 3466, 
  "tet": 3467, 
  "entwicklung": 3468, 
  "Lebensmittel": 3469, 
  "3D": 3470, 
  "lieber": 3471, 
  "mer@@": 3472, 
  "men@@": 3473, 
  "Lehr@@": 3474, 
  "Bulgarien": 3475, 
  "Videos": 3476, 
  "Reduzierung": 3477, 
  "des@@": 3478, 
  "offene": 3479, 
  "mittleren": 3480, 
  "anbelangt": 3481, 
  "ano": 3482, 
  "Überlegungen": 3483, 
  "ec@@": 3484, 
  "Zivilgesellschaft": 3485, 
  "Militär@@": 3486, 
  "Kontakte": 3487, 
  "weg@@": 3488, 
  "reduziert": 3489, 
  "wünsche": 3490, 
  "Le": 3491, 
  "getragen": 3492, 
  "bekommt": 3493, 
  "Korruption": 3494, 
  "Gegenstand": 3495, 
  "rück@@": 3496, 
  "aler": 3497, 
  "Bu@@": 3498, 
  "bereiche": 3499, 
  "einge@@": 3500, 
  "Suiten": 3501, 
  "Feld": 3502, 
  "gruppen": 3503, 
  "Parkplatz": 3504, 
  "Mrd.": 3505, 
  "ic@@": 3506, 
  "Pro": 3507, 
  "wirtschaft": 3508, 
  "gestattet": 3509, 
  "Energien": 3510, 
  "ran@@": 3511, 
  "j": 3512, 
  "Gehminuten": 3513, 
  "ausge@@": 3514, 
  "ersetzen": 3515, 
  "WC": 3516, 
  "Ziel@@": 3517, 
  "pro@@": 3518, 
  "Gefahren": 3519, 
  "Ber@@": 3520, 
  "momentan": 3521, 
  "angesehen": 3522, 
  "verteilt": 3523, 
  "Anlass": 3524, 
  "Beschäftigungs@@": 3525, 
  "Stein@@": 3526, 
  "igen": 3527, 
  "Vorhaben": 3528, 
  "ausgerichtet": 3529, 
  "hochwertige": 3530, 
  "Geschmack": 3531, 
  "Kollegin": 3532, 
  "militärische": 3533, 
  "da@@": 3534, 
  "insofern": 3535, 
  "Stoffe": 3536, 
  "betreiben": 3537, 
  "Film@@": 3538, 
  "grosse": 3539, 
  "auftreten": 3540, 
  "entschlossen": 3541, 
  "hei@@": 3542, 
  "ati@@": 3543, 
  "El": 3544, 
  "Gewährleistung": 3545, 
  "Verlust": 3546, 
  "menschliche": 3547, 
  "tung": 3548, 
  "behaupten": 3549, 
  "ließ": 3550, 
  "Fischerei@@": 3551, 
  "strategie": 3552, 
  "PDF": 3553, 
  "Buch@@": 3554, 
  "Mal@@": 3555, 
  ".....": 3556, 
  "jedenfalls": 3557, 
  "Schiffe": 3558, 
  "sur": 3559, 
  "umfangreiche": 3560, 
  "wirtschaftlich": 3561, 
  "Wirtschaftswachstum": 3562, 
  "beendet": 3563, 
  "Eigentum": 3564, 
  "zukünftigen": 3565, 
  "technik": 3566, 
  "selten": 3567, 
  "konfrontiert": 3568, 
  "ok@@": 3569, 
  "versichern": 3570, 
  "Tra@@": 3571, 
  "see": 3572, 
  "internen": 3573, 
  "verfügbaren": 3574, 
  "Ak@@": 3575, 
  "gebieten": 3576, 
  "klein": 3577, 
  "ft": 3578, 
  "Glück": 3579, 
  "drei@@": 3580, 
  "mer": 3581, 
  "Tier@@": 3582, 
  "Kulturen": 3583, 
  "künftige": 3584, 
  "160": 3585, 
  "unterscheiden": 3586, 
  "entgegen": 3587, 
  "Praktiken": 3588, 
  "Entlastung": 3589, 
  "verteidigen": 3590, 
  "Belgien": 3591, 
  "militärischen": 3592, 
  "dienste": 3593, 
  "De": 3594, 
  "Rei@@": 3595, 
  "größeres": 3596, 
  "plus": 3597, 
  "Familien@@": 3598, 
  "Stimmen": 3599, 
  "Branche": 3600, 
  "einzusetzen": 3601, 
  "Schiff": 3602, 
  "angepasst": 3603, 
  "Gericht": 3604, 
  "Qu@@": 3605, 
  "konzentriert": 3606, 
  "versch@@": 3607, 
  "strategische": 3608, 
  "Erfüllung": 3609, 
  "Gemeinde": 3610, 
  "1994": 3611, 
  "bel@@": 3612, 
  "10.": 3613, 
  "praktische": 3614, 
  "Fahrzeuge": 3615, 
  "cm": 3616, 
  "institutionellen": 3617, 
  "Know": 3618, 
  "Prozesses": 3619, 
  "Haus@@": 3620, 
  "natürliche": 3621, 
  "gerichtet": 3622, 
  "Fernseh@@": 3623, 
  "Anstieg": 3624, 
  "For@@": 3625, 
  "has": 3626, 
  "Ausflüge": 3627, 
  "sprach": 3628, 
  "Gerechtigkeit": 3629, 
  "fen": 3630, 
  "Nicht@@": 3631, 
  "eng@@": 3632, 
  "Marketing": 3633, 
  "begrenzt": 3634, 
  "arten": 3635, 
  "Mikro@@": 3636, 
  "bus": 3637, 
  "zukünftige": 3638, 
  "unabhängigen": 3639, 
  "ée": 3640, 
  "Madrid": 3641, 
  "del@@": 3642, 
  "Verletzung": 3643, 
  "Standort": 3644, 
  "wirksame": 3645, 
  "unterstreichen": 3646, 
  "12.": 3647, 
  "Spezial@@": 3648, 
  "unabhängige": 3649, 
  "Perspektive": 3650, 
  "herunterladen": 3651, 
  "Freitag": 3652, 
  "betreffend": 3653, 
  "Santa": 3654, 
  "Blog": 3655, 
  "Mor@@": 3656, 
  "Nachbarn": 3657, 
  "Übernachtung": 3658, 
  "eins": 3659, 
  "Mut": 3660, 
  "Deutsch": 3661, 
  "unterzeichnet": 3662, 
  "els": 3663, 
  "600": 3664, 
  "which": 3665, 
  "Situationen": 3666, 
  "Verarbeitung": 3667, 
  "bet@@": 3668, 
  "Amt": 3669, 
  "Flüchtlinge": 3670, 
  "Doppel@@": 3671, 
  "Medien@@": 3672, 
  "13.": 3673, 
  "ER": 3674, 
  "Bei@@": 3675, 
  "Organe": 3676, 
  "könnt": 3677, 
  "ig": 3678, 
  "Runde": 3679, 
  "ST@@": 3680, 
  "verdienen": 3681, 
  "einbezogen": 3682, 
  "illegalen": 3683, 
  "Sachen": 3684, 
  "mitteilen": 3685, 
  "2013": 3686, 
  "vorzulegen": 3687, 
  "bisherigen": 3688, 
  "kraft": 3689, 
  "ters": 3690, 
  "IN@@": 3691, 
  "Firmen@@": 3692, 
  "Pläne": 3693, 
  "John": 3694, 
  "ergibt": 3695, 
  "Tätigkeiten": 3696, 
  "fall": 3697, 
  "Betten": 3698, 
  "bekannte": 3699, 
  "empfangen": 3700, 
  "gruppe": 3701, 
  "Märkten": 3702, 
  "abstimmen": 3703, 
  "Lizenz": 3704, 
  "Grünen": 3705, 
  "geprägt": 3706, 
  "lebt": 3707, 
  "behoben": 3708, 
  "Geld@@": 3709, 
  "Weiteren": 3710, 
  "ER@@": 3711, 
  "form@@": 3712, 
  "Finanzkrise": 3713, 
  "vorgeschlagene": 3714, 
  "sicheren": 3715, 
  "Ger@@": 3716, 
  "9.": 3717, 
  "ben@@": 3718, 
  "vorbei": 3719, 
  "Regierungschefs": 3720, 
  "ino": 3721, 
  "Widerspruch": 3722, 
  "Veränderung": 3723, 
  "fertig": 3724, 
  "unterliegen": 3725, 
  "ech@@": 3726, 
  "effizient": 3727, 
  "Frühstücksbuffet": 3728, 
  "Meeres@@": 3729, 
  "besonderer": 3730, 
  "Sammlung": 3731, 
  "Kanada": 3732, 
  "Redner": 3733, 
  "14@@": 3734, 
  "punkt": 3735, 
  "laufenden": 3736, 
  "Abendessen": 3737, 
  "Donnerstag": 3738, 
  "ator": 3739, 
  "Top": 3740, 
  "Deutsche": 3741, 
  "Ausmaß": 3742, 
  "Distribution": 3743, 
  "USB": 3744, 
  "Ankunft": 3745, 
  "onen": 3746, 
  "95": 3747, 
  "Zuständigkeit": 3748, 
  "Su@@": 3749, 
  "anzuzeigen": 3750, 
  "anschließen": 3751, 
  "zimmer": 3752, 
  "29": 3753, 
  "schutz@@": 3754, 
  "Geschäft": 3755, 
  "Öl": 3756, 
  "Gang": 3757, 
  "vorgesehenen": 3758, 
  "Lebensmittel@@": 3759, 
  "Air": 3760, 
  "Z": 3761, 
  "Ablehnung": 3762, 
  "geraten": 3763, 
  "Schweizer": 3764, 
  "präsentieren": 3765, 
  "Armee": 3766, 
  "är@@": 3767, 
  "gebeten": 3768, 
  "Marken": 3769, 
  "Nord@@": 3770, 
  "Teil@@": 3771, 
  "station": 3772, 
  "geplant": 3773, 
  "wachsenden": 3774, 
  "gleichermaßen": 3775, 
  "fähigkeit": 3776, 
  "High": 3777, 
  "ik@@": 3778, 
  "Herz": 3779, 
  "pl@@": 3780, 
  "geniessen": 3781, 
  "Tages": 3782, 
  "Best": 3783, 
  "Fischer": 3784, 
  "kontrollieren": 3785, 
  "tief": 3786, 
  "48": 3787, 
  "lan@@": 3788, 
  "get@@": 3789, 
  "Vorlage": 3790, 
  "gewähren": 3791, 
  "za": 3792, 
  "Shop": 3793, 
  "konkret": 3794, 
  "Ebenen": 3795, 
  "letzter": 3796, 
  "Respekt": 3797, 
  "Bürger@@": 3798, 
  "14.": 3799, 
  "komfortable": 3800, 
  "Apartment": 3801, 
  "Newsletter": 3802, 
  "if": 3803, 
  "Quellen": 3804, 
  "dankbar": 3805, 
  "sogenannten": 3806, 
  "dargestellt": 3807, 
  "Büro": 3808, 
  "tre@@": 3809, 
  "hervorragenden": 3810, 
  "erfreut": 3811, 
  "anlage": 3812, 
  "Leitung": 3813, 
  "Leistungs@@": 3814, 
  "infolge": 3815, 
  "lichem": 3816, 
  "alt@@": 3817, 
  "Gold": 3818, 
  "Freizügigkeit": 3819, 
  "enz@@": 3820, 
  "perfekte": 3821, 
  "AN@@": 3822, 
  "Kommunikations@@": 3823, 
  "politisches": 3824, 
  "derer": 3825, 
  "ou@@": 3826, 
  "komplette": 3827, 
  "Du@@": 3828, 
  "selbst@@": 3829, 
  "schnellen": 3830, 
  "Mittelmeer": 3831, 
  "isten": 3832, 
  "Rückkehr": 3833, 
  "vorliegende": 3834, 
  "qualität": 3835, 
  "normalen": 3836, 
  "Maschine": 3837, 
  "co@@": 3838, 
  "elles": 3839, 
  "gewünschten": 3840, 
  "verboten": 3841, 
  "enthaltenen": 3842, 
  "Bel@@": 3843, 
  "com": 3844, 
  ".de": 3845, 
  "schätzen": 3846, 
  "Heizung": 3847, 
  "Aktionsplan": 3848, 
  "enten": 3849, 
  "aufs": 3850, 
  "ru@@": 3851, 
  "hohem": 3852, 
  "ha": 3853, 
  "ernsthaft": 3854, 
  "Abschaffung": 3855, 
  "Abhängigkeit": 3856, 
  "Planeten": 3857, 
  "überaus": 3858, 
  "Reservierung": 3859, 
  "hervorgehoben": 3860, 
  "vereinbart": 3861, 
  "brachte": 3862, 
  "heißen": 3863, 
  "Revolution": 3864, 
  "einheitliche": 3865, 
  "sauber": 3866, 
  "Sohn": 3867, 
  "Haushaltsplan": 3868, 
  "Jahres@@": 3869, 
  "humanitäre": 3870, 
  "wahren": 3871, 
  "Volkes": 3872, 
  "füllen": 3873, 
  "alisierung": 3874, 
  "effiziente": 3875, 
  "erwähnen": 3876, 
  "Reisen": 3877, 
  "Tor@@": 3878, 
  "Passwort": 3879, 
  "its": 3880, 
  "Steuerung": 3881, 
  "800": 3882, 
  "Zoll@@": 3883, 
  "Führer": 3884, 
  "jetzigen": 3885, 
  "ve": 3886, 
  "Befugnisse": 3887, 
  "begleitet": 3888, 
  "Jahrzehnten": 3889, 
  "Entspannung": 3890, 
  "Geschwindigkeit": 3891, 
  "Vertrags@@": 3892, 
  "Beteiligten": 3893, 
  "fördert": 3894, 
  "Konflikte": 3895, 
  "istischen": 3896, 
  "Erinnerung": 3897, 
  "karte": 3898, 
  "Zahlungen": 3899, 
  "Handels": 3900, 
  "Binnenmarktes": 3901, 
  "Bush": 3902, 
  "nice": 3903, 
  "griechischen": 3904, 
  "Wochenende": 3905, 
  "entdeckt": 3906, 
  "bericht": 3907, 
  "leichter": 3908, 
  "lu@@": 3909, 
  "aktuell": 3910, 
  "zulassen": 3911, 
  "Mutter": 3912, 
  "sucht": 3913, 
  "wirkt": 3914, 
  "werfen": 3915, 
  "gegangen": 3916, 
  "Gleichstellung": 3917, 
  "mi@@": 3918, 
  "aufgebaut": 3919, 
  "Fahrt": 3920, 
  "externen": 3921, 
  "richtet": 3922, 
  "untersucht": 3923, 
  "ständigen": 3924, 
  "fort": 3925, 
  "schweren": 3926, 
  "Resort": 3927, 
  "lin@@": 3928, 
  "erweitern": 3929, 
  "Berichten": 3930, 
  "National": 3931, 
  "heutzutage": 3932, 
  "Computer@@": 3933, 
  "alter": 3934, 
  "beschränken": 3935, 
  "erfordern": 3936, 
  "unterschiedlich": 3937, 
  "straße": 3938, 
  "bedanken": 3939, 
  "Dritten": 3940, 
  "nachdrücklich": 3941, 
  "ds": 3942, 
  "98": 3943, 
  "Förder@@": 3944, 
  "36": 3945, 
  "ser": 3946, 
  "existiert": 3947, 
  "sti@@": 3948, 
  "Vorausschau": 3949, 
  "Innen@@": 3950, 
  "zugrunde": 3951, 
  "Michael": 3952, 
  "spreche": 3953, 
  "Großteil": 3954, 
  "Agrar@@": 3955, 
  "König": 3956, 
  "Orte": 3957, 
  "West@@": 3958, 
  "Barroso": 3959, 
  "Kreditkarte": 3960, 
  "klassischen": 3961, 
  "Schönheit": 3962, 
  "überein": 3963, 
  "PT": 3964, 
  "zurückzuführen": 3965, 
  "gemeinschaftlichen": 3966, 
  "det": 3967, 
  "antworten": 3968, 
  "eingestellt": 3969, 
  "senken": 3970, 
  "ergänzt": 3971, 
  "wagen": 3972, 
  "spiel": 3973, 
  "umsetzen": 3974, 
  "Hamburg": 3975, 
  "wi@@": 3976, 
  "Poker": 3977, 
  "Tausende": 3978, 
  "ah@@": 3979, 
  "Street": 3980, 
  "Darstellung": 3981, 
  "zeichnet": 3982, 
  "Verteilung": 3983, 
  "ist@@": 3984, 
  "umfassend": 3985, 
  "gleich@@": 3986, 
  "maschinen": 3987, 
  "Faktor": 3988, 
  "Ursachen": 3989, 
  "Süd@@": 3990, 
  "besorgt": 3991, 
  "Quelle": 3992, 
  "Investoren": 3993, 
  "eingegangen": 3994, 
  "Papier": 3995, 
  "geeignete": 3996, 
  "mon@@": 3997, 
  "wachsen": 3998, 
  "festzulegen": 3999, 
  "generell": 4000, 
  "Arbeitsplatz": 4001, 
  "korrekt": 4002, 
  "Zeitung": 4003, 
  "Kriminalität": 4004, 
  "wonach": 4005, 
  "äre": 4006, 
  "einzuführen": 4007, 
  "enge": 4008, 
  "bes@@": 4009, 
  "ität": 4010, 
  "Fest@@": 4011, 
  "hast": 4012, 
  "Reise@@": 4013, 
  "Agenturen": 4014, 
  "ed": 4015, 
  "berichten": 4016, 
  "Rechten": 4017, 
  "grossen": 4018, 
  "enorme": 4019, 
  "Generationen": 4020, 
  "schaft": 4021, 
  "freundliche": 4022, 
  "genaue": 4023, 
  "Mission": 4024, 
  "Licht@@": 4025, 
  "steigern": 4026, 
  "Anwender": 4027, 
  "Update": 4028, 
  "Liefer@@": 4029, 
  "verwende": 4030, 
  "para": 4031, 
  "empfohlen": 4032, 
  "beenden": 4033, 
  "time": 4034, 
  "Stiftung": 4035, 
  "Zug": 4036, 
  "Vertrages": 4037, 
  "tu@@": 4038, 
  "•": 4039, 
  "einrichtungen": 4040, 
  "Bereitschaft": 4041, 
  "min": 4042, 
  "anischen": 4043, 
  "schließt": 4044, 
  "aktiven": 4045, 
  "qualitativ": 4046, 
  "reiche": 4047, 
  "ado": 4048, 
  "bares": 4049, 
  "Kopenhagen": 4050, 
  "festgelegten": 4051, 
  "eigener": 4052, 
  "great": 4053, 
  "bereiten": 4054, 
  "Rechtsstaatlichkeit": 4055, 
  "Euch": 4056, 
  "sm@@": 4057, 
  "verkehr": 4058, 
  "Museen": 4059, 
  "rate": 4060, 
  "Haut": 4061, 
  "Es": 4062, 
  "Au@@": 4063, 
  "modified": 4064, 
  "Eingang": 4065, 
  "......": 4066, 
  "gesellschaft": 4067, 
  "fassen": 4068, 
  "gefragt": 4069, 
  "angewendet": 4070, 
  "wirken": 4071, 
  "Energie@@": 4072, 
  "geräte": 4073, 
  "Gu@@": 4074, 
  "Parameter": 4075, 
  "keinem": 4076, 
  "geh@@": 4077, 
  "frühen": 4078, 
  "bar@@": 4079, 
  "digitalen": 4080, 
  "Eisenbahn@@": 4081, 
  "vornehmen": 4082, 
  "bahn": 4083, 
  "House": 4084, 
  "optimal": 4085, 
  "Fernsehen": 4086, 
  "sammeln": 4087, 
  "offenbar": 4088, 
  "verweisen": 4089, 
  "nützlich": 4090, 
  "Öffnung": 4091, 
  "geäußert": 4092, 
  "Speisen": 4093, 
  "England": 4094, 
  "liste": 4095, 
  "Zwischen@@": 4096, 
  "Innenstadt": 4097, 
  "Stärke": 4098, 
  "fähig": 4099, 
  "Kaffee": 4100, 
  "Schloss": 4101, 
  "stattfindet": 4102, 
  "tionen": 4103, 
  "avec": 4104, 
  "Kompetenz": 4105, 
  "festen": 4106, 
  "offizielle": 4107, 
  "gestärkt": 4108, 
  "Tal": 4109, 
  "Parkplätze": 4110, 
  "bu@@": 4111, 
  "Kontinent": 4112, 
  "34": 4113, 
  "Ä@@": 4114, 
  "Volksgesundheit": 4115, 
  "31": 4116, 
  "ck": 4117, 
  "99": 4118, 
  "welt": 4119, 
  "ada": 4120, 
  "30.": 4121, 
  "Bearbeitung": 4122, 
  "voraus": 4123, 
  "Jugend": 4124, 
  "Dokumenten": 4125, 
  "Verlauf": 4126, 
  "gr@@": 4127, 
  "Personal@@": 4128, 
  "Zone": 4129, 
  "verhalten": 4130, 
  "Sk@@": 4131, 
  "bild": 4132, 
  "Frist": 4133, 
  "Strecke": 4134, 
  "Währungsunion": 4135, 
  "Registrierung": 4136, 
  "oftmals": 4137, 
  "türkischen": 4138, 
  "Г": 4139, 
  "angebot": 4140, 
  "Umweltschutz": 4141, 
  "mögen": 4142, 
  "Theater": 4143, 
  "Symbol": 4144, 
  "55": 4145, 
  "leiten": 4146, 
  "Niederlanden": 4147, 
  "OS": 4148, 
  "Amerikaner": 4149, 
  "Bundes@@": 4150, 
  "min@@": 4151, 
  "bewältigen": 4152, 
  "ologie": 4153, 
  "ak": 4154, 
  "dasselbe": 4155, 
  "33": 4156, 
  "Allianz": 4157, 
  "Hardware": 4158, 
  "preis": 4159, 
  "herrlichen": 4160, 
  "Kategorien": 4161, 
  "Berliner": 4162, 
  "ren@@": 4163, 
  "Kapital": 4164, 
  "Teams": 4165, 
  "zerstört": 4166, 
  "selber": 4167, 
  "eu@@": 4168, 
  "überwinden": 4169, 
  "Friedens@@": 4170, 
  "Bibliothek": 4171, 
  "age": 4172, 
  "09": 4173, 
  "Ferienwohnung": 4174, 
  "gelesen": 4175, 
  "sel@@": 4176, 
  "sichergestellt": 4177, 
  "rechtzeitig": 4178, 
  "gegenwärtige": 4179, 
  "ungsp@@": 4180, 
  "su@@": 4181, 
  "aufge@@": 4182, 
  "Überblick": 4183, 
  "stärkere": 4184, 
  "problem": 4185, 
  "sa": 4186, 
  "Pakistan": 4187, 
  "angebracht": 4188, 
  "Wirtschaftskrise": 4189, 
  "selben": 4190, 
  "Fluss": 4191, 
  "Kampagne": 4192, 
  "ansonsten": 4193, 
  "Wandel": 4194, 
  "knapp": 4195, 
  "Gelder": 4196, 
  "bezahlt": 4197, 
  "te@@": 4198, 
  "th": 4199, 
  "eventuell": 4200, 
  "froh": 4201, 
  "Bord": 4202, 
  "Kor@@": 4203, 
  "Kosten@@": 4204, 
  "sichtbar": 4205, 
  "kontrolliert": 4206, 
  "material": 4207, 
  "Opposition": 4208, 
  "Album": 4209, 
  "bo@@": 4210, 
  "Potenzial": 4211, 
  "Straßburg": 4212, 
  "Vereinfachung": 4213, 
  "Länge": 4214, 
  "gesetzlichen": 4215, 
  "denjenigen": 4216, 
  "Presse": 4217, 
  "unmittelbarer": 4218, 
  "Bestimmung": 4219, 
  "tik": 4220, 
  "effektive": 4221, 
  "stammt": 4222, 
  "Suite": 4223, 
  "Debatten": 4224, 
  "integrierten": 4225, 
  "struktur": 4226, 
  "tion@@": 4227, 
  "fl@@": 4228, 
  "Investitions@@": 4229, 
  "Herbst": 4230, 
  "Belarus": 4231, 
  "heraus@@": 4232, 
  "Inn": 4233, 
  "rat": 4234, 
  "besucht": 4235, 
  "Bildungs@@": 4236, 
  "Zahlung": 4237, 
  "Volks@@": 4238, 
  "mar@@": 4239, 
  "tz@@": 4240, 
  "Montag": 4241, 
  "Freund": 4242, 
  "langfristigen": 4243, 
  "Kal@@": 4244, 
  "tiges": 4245, 
  "und@@": 4246, 
  "irischen": 4247, 
  "gedacht": 4248, 
  "ler@@": 4249, 
  "Tonnen": 4250, 
  "Berichterstatters": 4251, 
  "stoffe": 4252, 
  "zurzeit": 4253, 
  "Tür": 4254, 
  "hart": 4255, 
  "Erhaltung": 4256, 
  "außen": 4257, 
  "organisation": 4258, 
  "Programm@@": 4259, 
  "IWF": 4260, 
  "europäisches": 4261, 
  "Eis@@": 4262, 
  "Wesentlichen": 4263, 
  "Beseitigung": 4264, 
  "stehende": 4265, 
  "ß": 4266, 
  "Zwei@@": 4267, 
  "erzeugen": 4268, 
  "produzieren": 4269, 
  "Festival": 4270, 
  "angemessenen": 4271, 
  "preise": 4272, 
  "Fisch@@": 4273, 
  "clean": 4274, 
  "derzeitige": 4275, 
  "anzubieten": 4276, 
  "Voll@@": 4277, 
  "zeit@@": 4278, 
  "Schulden": 4279, 
  "Email": 4280, 
  "genden": 4281, 
  "os@@": 4282, 
  "Autos": 4283, 
  "Maria": 4284, 
  "fi@@": 4285, 
  "negativen": 4286, 
  "Q@@": 4287, 
  "well": 4288, 
  "bedeutenden": 4289, 
  "unentgeltlich": 4290, 
  "Oberfläche": 4291, 
  "Parlamente": 4292, 
  "park": 4293, 
  "Sa@@": 4294, 
  "12@@": 4295, 
  "Kern": 4296, 
  "Mexiko": 4297, 
  "13@@": 4298, 
  "Kandidaten": 4299, 
  "Dritte": 4300, 
  "Mechanismen": 4301, 
  "ad": 4302, 
  "stammen": 4303, 
  "1992": 4304, 
  "Projekts": 4305, 
  "überlassen": 4306, 
  "IS@@": 4307, 
  "Cor@@": 4308, 
  "hinzugefügt": 4309, 
  "Hei@@": 4310, 
  "typischen": 4311, 
  "ländliche": 4312, 
  "cht": 4313, 
  "Saison": 4314, 
  "ms": 4315, 
  "software": 4316, 
  "use": 4317, 
  "PPE": 4318, 
  "German": 4319, 
  "Dingen": 4320, 
  "AL@@": 4321, 
  "str@@": 4322, 
  "Benutzung": 4323, 
  "professionelle": 4324, 
  "errichtet": 4325, 
  "spezialisiert": 4326, 
  "Lo@@": 4327, 
  "tier@@": 4328, 
  "get": 4329, 
  "Transport@@": 4330, 
  "neun": 4331, 
  "untersuchen": 4332, 
  "alität": 4333, 
  "Versorgung": 4334, 
  "chinesische": 4335, 
  "scher": 4336, 
  "entscheidenden": 4337, 
  "müsste": 4338, 
  "just": 4339, 
  "zug": 4340, 
  "Drittel": 4341, 
  "Bedürfnissen": 4342, 
  "kümmern": 4343, 
  "cher": 4344, 
  "sah": 4345, 
  "isierung": 4346, 
  "dauert": 4347, 
  "leistungen": 4348, 
  "Tests": 4349, 
  "Innovationen": 4350, 
  "Zypern": 4351, 
  "friendly": 4352, 
  "Detail": 4353, 
  "Minute": 4354, 
  "vorgestellt": 4355, 
  "realer": 4356, 
  "more": 4357, 
  "gu@@": 4358, 
  "Senkung": 4359, 
  "Ferien@@": 4360, 
  "rechnen": 4361, 
  "free": 4362, 
  "20@@": 4363, 
  "kostenlose": 4364, 
  "Berg": 4365, 
  "soeben": 4366, 
  "finanzieren": 4367, 
  "Boot": 4368, 
  "beinhalten": 4369, 
  "rechts@@": 4370, 
  "berechnet": 4371, 
  "weltweite": 4372, 
  "S.": 4373, 
  "Lu@@": 4374, 
  "afrikanischen": 4375, 
  "Winter@@": 4376, 
  "Augenblick": 4377, 
  "auffordern": 4378, 
  "So@@": 4379, 
  "praktischen": 4380, 
  "om": 4381, 
  "they": 4382, 
  "Berge": 4383, 
  "ausgewählt": 4384, 
  "Menschenrechts@@": 4385, 
  "Regulierung": 4386, 
  "Fläche": 4387, 
  "erklärte": 4388, 
  "Institut": 4389, 
  "iz@@": 4390, 
  "erkannt": 4391, 
  "sitzen": 4392, 
  "gekennzeichnet": 4393, 
  "Martin": 4394, 
  "Gemeinsame": 4395, 
  "Häuser": 4396, 
  "illegale": 4397, 
  "Ägypten": 4398, 
  "grünen": 4399, 
  "dung": 4400, 
  "Ru@@": 4401, 
  "Radio": 4402, 
  "Staats-": 4403, 
  "Zusammenhalt": 4404, 
  "Hinweise": 4405, 
  "Peter": 4406, 
  "Hindernisse": 4407, 
  "Appartements": 4408, 
  "Autobahn": 4409, 
  "chten": 4410, 
  "Se@@": 4411, 
  "3.@@": 4412, 
  "Pflanzen": 4413, 
  "freut": 4414, 
  "erkunden": 4415, 
  "befasst": 4416, 
  "Mechanismus": 4417, 
  "Holz": 4418, 
  "Hauptbahnhof": 4419, 
  "Premierminister": 4420, 
  "Erlebnis": 4421, 
  "wesentlicher": 4422, 
  "JavaScript": 4423, 
  "leistung": 4424, 
  "Sicherheitspolitik": 4425, 
  "Dialogs": 4426, 
  "Todesstrafe": 4427, 
  "Vertretern": 4428, 
  "Vi@@": 4429, 
  "renoviert": 4430, 
  "Beachtung": 4431, 
  "Mandat": 4432, 
  "Nachhaltigkeit": 4433, 
  "müssten": 4434, 
  "Jugendlichen": 4435, 
  "only": 4436, 
  "Ergebnissen": 4437, 
  "täglichen": 4438, 
  "Anmeldung": 4439, 
  "älteren": 4440, 
  "vollständigen": 4441, 
  "ex@@": 4442, 
  "Kurz@@": 4443, 
  "AS@@": 4444, 
  "Ansprüche": 4445, 
  "Sonntag": 4446, 
  "ini": 4447, 
  "Min@@": 4448, 
  "Luxemburg": 4449, 
  "Übertragung": 4450, 
  "ungsan@@": 4451, 
  "schwere": 4452, 
  "va": 4453, 
  "Lei@@": 4454, 
  "wahr": 4455, 
  "festzustellen": 4456, 
  "Spielen": 4457, 
  "Blut@@": 4458, 
  "produkten": 4459, 
  "stein": 4460, 
  "Urteil": 4461, 
  "Truppen": 4462, 
  "Wirksamkeit": 4463, 
  "beeinflussen": 4464, 
  "Wer@@": 4465, 
  "drücken": 4466, 
  "geblieben": 4467, 
  "inen": 4468, 
  "behält": 4469, 
  "gefährdet": 4470, 
  "ruhige": 4471, 
  "Energieeffizienz": 4472, 
  "Käufer": 4473, 
  "Glas@@": 4474, 
  "zer": 4475, 
  "Widerstand": 4476, 
  "entfernen": 4477, 
  "land@@": 4478, 
  "planen": 4479, 
  "verletzt": 4480, 
  "Super@@": 4481, 
  "25.": 4482, 
  "führung": 4483, 
  "cken": 4484, 
  "Spezialitäten": 4485, 
  "UN@@": 4486, 
  "Entfernung": 4487, 
  "linken": 4488, 
  "Paul": 4489, 
  "gewählten": 4490, 
  "Journalisten": 4491, 
  "ys": 4492, 
  "Typ": 4493, 
  "Flash": 4494, 
  "fer": 4495, 
  "Immobilien": 4496, 
  "wider@@": 4497, 
  "neu@@": 4498, 
  "schwierige": 4499, 
  "Versammlung": 4500, 
  "sa@@": 4501, 
  "Finnland": 4502, 
  "Entwickler": 4503, 
  "wirkliche": 4504, 
  "nehme": 4505, 
  "erin": 4506, 
  "oren": 4507, 
  "ante": 4508, 
  "Ton@@": 4509, 
  "GAP": 4510, 
  "fläche": 4511, 
  "Zusammen@@": 4512, 
  "ik": 4513, 
  "kennt": 4514, 
  "angewandt": 4515, 
  "gesellschaften": 4516, 
  "Reform@@": 4517, 
  "ergänzen": 4518, 
  "spät": 4519, 
  "Datum": 4520, 
  "Präsenz": 4521, 
  "liegenden": 4522, 
  "führer": 4523, 
  "digitale": 4524, 
  "Wohnzimmer": 4525, 
  "beabsichtigt": 4526, 
  "Media": 4527, 
  "ai": 4528, 
  "Betreuung": 4529, 
  "hervorragend": 4530, 
  "geregelt": 4531, 
  "Bal@@": 4532, 
  "Airport": 4533, 
  "Kohäsionspolitik": 4534, 
  "besonderes": 4535, 
  "Dokumentation": 4536, 
  "Mädchen": 4537, 
  "verringert": 4538, 
  "langer": 4539, 
  "08": 4540, 
  "Strände": 4541, 
  "Ku@@": 4542, 
  "Gemeinschaften": 4543, 
  "prozesses": 4544, 
  "tions@@": 4545, 
  "Boden@@": 4546, 
  "armen": 4547, 
  "ären": 4548, 
  "Räume": 4549, 
  "ehemalige": 4550, 
  "festlegen": 4551, 
  "ansehen": 4552, 
  "250": 4553, 
  "Gast@@": 4554, 
  "De@@": 4555, 
  "aller@@": 4556, 
  "Ratschlag": 4557, 
  "views": 4558, 
  "Modernisierung": 4559, 
  "bewerten": 4560, 
  "Verzeichnis": 4561, 
  "steuern": 4562, 
  "1000": 4563, 
  "italienische": 4564, 
  "Cookies": 4565, 
  "sparen": 4566, 
  "anzunehmen": 4567, 
  "palästinensischen": 4568, 
  "Verwirklichung": 4569, 
  "spiele": 4570, 
  "eter": 4571, 
  "Aufzug": 4572, 
  "plan": 4573, 
  "ges": 4574, 
  "ata": 4575, 
  "Vorstellungen": 4576, 
  "Sieg": 4577, 
  "1993": 4578, 
  "Spitze": 4579, 
  "1990": 4580, 
  "ett": 4581, 
  "ansprechen": 4582, 
  "Zuge": 4583, 
  "fe": 4584, 
  "hinweg": 4585, 
  "Video@@": 4586, 
  "humanitären": 4587, 
  "ses": 4588, 
  "Wirtschaftspolitik": 4589, 
  "aufzubauen": 4590, 
  "37": 4591, 
  "42": 4592, 
  "mittel@@": 4593, 
  "manchen": 4594, 
  "co": 4595, 
  "aktiviert": 4596, 
  "ie@@": 4597, 
  "ken@@": 4598, 
  "probleme": 4599, 
  "Ost@@": 4600, 
  "kar@@": 4601, 
  "National@@": 4602, 
  "Pal@@": 4603, 
  "Betriebe": 4604, 
  "Übrigen": 4605, 
  "organisationen": 4606, 
  "Bücher": 4607, 
  "mehrfach": 4608, 
  "Doppelzimmer": 4609, 
  "m2": 4610, 
  "zukommen": 4611, 
  "Weiterentwicklung": 4612, 
  "Errichtung": 4613, 
  "bewahren": 4614, 
  "Schüler": 4615, 
  "angenehmen": 4616, 
  "ks": 4617, 
  "ó@@": 4618, 
  "lädt": 4619, 
  "Gen@@": 4620, 
  "bearbeiten": 4621, 
  "gende": 4622, 
  "Gar@@": 4623, 
  "geliefert": 4624, 
  "West": 4625, 
  "Außen-": 4626, 
  "Volkswirtschaften": 4627, 
  "Unterkünfte": 4628, 
  "ari@@": 4629, 
  "San@@": 4630, 
  "Argumente": 4631, 
  "Pan@@": 4632, 
  "Rad@@": 4633, 
  "versteht": 4634, 
  "city": 4635, 
  "gründen": 4636, 
  "enthalt": 4637, 
  "nutzt": 4638, 
  "Bildern": 4639, 
  "Flughäfen": 4640, 
  "97": 4641, 
  "Schengen": 4642, 
  "65": 4643, 
  "Traditionen": 4644, 
  "Wähler": 4645, 
  "Werten": 4646, 
  "bereitet": 4647, 
  "Wellness": 4648, 
  "lau@@": 4649, 
  "gegebenenfalls": 4650, 
  "enger": 4651, 
  "kt": 4652, 
  "Fahrer": 4653, 
  "Wiederaufbau": 4654, 
  "Wohnungen": 4655, 
  "Le@@": 4656, 
  "Sektors": 4657, 
  "Ausarbeitung": 4658, 
  "ess@@": 4659, 
  "Not@@": 4660, 
  "Akteure": 4661, 
  "Umweltfragen": 4662, 
  "Auflösung": 4663, 
  "07": 4664, 
  "Samstag": 4665, 
  "Arbeitnehmern": 4666, 
  "kontextuellen": 4667, 
  "chte": 4668, 
  "ek": 4669, 
  "Saint": 4670, 
  "¼": 4671, 
  "genauer": 4672, 
  "Grundlagen": 4673, 
  "entdeckst": 4674, 
  "aden": 4675, 
  "anische": 4676, 
  "Annehmlichkeiten": 4677, 
  "lösung": 4678, 
  "tan@@": 4679, 
  "Religion": 4680, 
  "rü@@": 4681, 
  "Wissenschaftler": 4682, 
  "Philosophie": 4683, 
  "Listings": 4684, 
  "gemeinsames": 4685, 
  "ta@@": 4686, 
  "solch": 4687, 
  "General": 4688, 
  "Krieges": 4689, 
  "melden": 4690, 
  "tri@@": 4691, 
  "Finde": 4692, 
  "zweiter": 4693, 
  "Ur@@": 4694, 
  "eingebracht": 4695, 
  "best@@": 4696, 
  "Y": 4697, 
  "Obama": 4698, 
  "Sonnen@@": 4699, 
  "Objekte": 4700, 
  "hinzufugen": 4701, 
  "Europe": 4702, 
  "grammatisch": 4703, 
  "kontextuell": 4704, 
  "verwendeten": 4705, 
  "entstand": 4706, 
  "enormen": 4707, 
  "Serbien": 4708, 
  "definieren": 4709, 
  "és": 4710, 
  "Klima@@": 4711, 
  "Effekt": 4712, 
  "ierter": 4713, 
  "Orten": 4714, 
  "96": 4715, 
  "Modul": 4716, 
  "überwachen": 4717, 
  "Verbraucherschutz": 4718, 
  "gemütliche": 4719, 
  "spiel@@": 4720, 
  "Florenz": 4721, 
  "super": 4722, 
  "ven": 4723, 
  "è@@": 4724, 
  "offiziell": 4725, 
  "umso": 4726, 
  "Sub@@": 4727, 
  "Schlusselwort": 4728, 
  "Schlusselphrase": 4729, 
  "Tieren": 4730, 
  "beseitigen": 4731, 
  "aufgezahlt": 4732, 
  "IT@@": 4733, 
  "Th@@": 4734, 
  "erteilt": 4735, 
  "bereichen": 4736, 
  "Straßen@@": 4737, 
  "Filme": 4738, 
  "vorzunehmen": 4739, 
  "ID": 4740, 
  "Com@@": 4741, 
  "anwenden": 4742, 
  "gesellschaftlichen": 4743, 
  "ausüben": 4744, 
  "vorliegen": 4745, 
  "Fern@@": 4746, 
  "RE@@": 4747, 
  "ang@@": 4748, 
  "Ausbau": 4749, 
  "tsp@@": 4750, 
  "Dänemark": 4751, 
  "š@@": 4752, 
  "Card": 4753, 
  "tungen": 4754, 
  "reagiert": 4755, 
  "Anti@@": 4756, 
  "Internetzugang": 4757, 
  "programmen": 4758, 
  "elegante": 4759, 
  "aufbauen": 4760, 
  "Aussage": 4761, 
  "reise": 4762, 
  "USS": 4763, 
  "beantwortet": 4764, 
  "desto": 4765, 
  "vermutlich": 4766, 
  "vorgelegten": 4767, 
  "Nizza": 4768, 
  "gelassen": 4769, 
  "stell@@": 4770, 
  "gew@@": 4771, 
  "Wander@@": 4772, 
  "Satz": 4773, 
  "Himmel": 4774, 
  "ECU": 4775, 
  "Russlands": 4776, 
  "tw@@": 4777, 
  "Katalog": 4778, 
  "Ausweitung": 4779, 
  "erstes": 4780, 
  "eingeleitet": 4781, 
  "freundlichen": 4782, 
  "zentren": 4783, 
  "nächster": 4784, 
  "teilt": 4785, 
  "technisch": 4786, 
  "günstige": 4787, 
  "Deutschlands": 4788, 
  "jährigen": 4789, 
  "ats": 4790, 
  "Übergang": 4791, 
  "umgehen": 4792, 
  "alismus": 4793, 
  "keineswegs": 4794, 
  "ver": 4795, 
  "38": 4796, 
  "Internationale": 4797, 
  "professionellen": 4798, 
  "Java": 4799, 
  "Jean": 4800, 
  "Vordergrund": 4801, 
  "Airbus": 4802, 
  "Br@@": 4803, 
  "elektronische": 4804, 
  "südlichen": 4805, 
  "NICHT": 4806, 
  "go@@": 4807, 
  "integrierte": 4808, 
  "Ein": 4809, 
  "verstehe": 4810, 
  "Mängel": 4811, 
  "31.": 4812, 
  "kleinere": 4813, 
  "gem@@": 4814, 
  "Inflation": 4815, 
  "Berufs@@": 4816, 
  "Universitäten": 4817, 
  "ich@@": 4818, 
  "günstigen": 4819, 
  "lösungen": 4820, 
  "bl@@": 4821, 
  "Ruf": 4822, 
  "Besitz": 4823, 
  "Nord": 4824, 
  "gewidmet": 4825, 
  "Rechner": 4826, 
  "e-": 4827, 
  "Vorsitzenden": 4828, 
  "Souveränität": 4829, 
  "este": 4830, 
  "messen": 4831, 
  "kur@@": 4832, 
  "Macht@@": 4833, 
  "ings": 4834, 
  "wege": 4835, 
  "satz": 4836, 
  "excellent": 4837, 
  "me@@": 4838, 
  "64": 4839, 
  "Bestätigung": 4840, 
  "Erwachsene": 4841, 
  "innovativen": 4842, 
  "con@@": 4843, 
  "Werkzeug": 4844, 
  "hilfreich": 4845, 
  "Gegner": 4846, 
  "interne": 4847, 
  "ständige": 4848, 
  "La@@": 4849, 
  "landwirtschaftlichen": 4850, 
  "Bezeichnung": 4851, 
  "Such@@": 4852, 
  "Erfolge": 4853, 
  "hochwertigen": 4854, 
  "tur@@": 4855, 
  "löschen": 4856, 
  "fin@@": 4857, 
  "24.": 4858, 
  "Soldaten": 4859, 
  "Tools": 4860, 
  "räume": 4861, 
  "seitdem": 4862, 
  "veröffentlichen": 4863, 
  "ica": 4864, 
  "aner": 4865, 
  "netz": 4866, 
  "haften": 4867, 
  "Eigen@@": 4868, 
  "Zweiten": 4869, 
  "erhoben": 4870, 
  "Spaziergang": 4871, 
  "ausgehen": 4872, 
  "Audio": 4873, 
  "davor": 4874, 
  "Pi@@": 4875, 
  "Vereinigte": 4876, 
  "wesen": 4877, 
  "Kauf@@": 4878, 
  "linie": 4879, 
  "Gottes": 4880, 
  "for@@": 4881, 
  "El@@": 4882, 
  "ore": 4883, 
  "ökologischen": 4884, 
  "Niederlande": 4885, 
  "Tool": 4886, 
  "go": 4887, 
  "leg@@": 4888, 
  "Argument": 4889, 
  "höchst": 4890, 
  "etten": 4891, 
  "Win@@": 4892, 
  "herzustellen": 4893, 
  "s-": 4894, 
  "Plan@@": 4895, 
  "Go@@": 4896, 
  "größter": 4897, 
  "steigt": 4898, 
  "nicht@@": 4899, 
  "niveau": 4900, 
  "parlamentarischen": 4901, 
  "vorschriften": 4902, 
  "effizienter": 4903, 
  "vollem": 4904, 
  "üblichen": 4905, 
  "konsequent": 4906, 
  "Prag": 4907, 
  "Existenz": 4908, 
  "ausländischen": 4909, 
  "Ehre": 4910, 
  "verbreitet": 4911, 
  "Plaza": 4912, 
  "--": 4913, 
  "weiten": 4914, 
  "typisch": 4915, 
  "projekte": 4916, 
  "stärksten": 4917, 
  "Anbetracht": 4918, 
  "Fassung": 4919, 
  "negative": 4920, 
  "Zentral@@": 4921, 
  "angenehm": 4922, 
  "Venedig": 4923, 
  "Nichtraucherzimmer": 4924, 
  "Sekunden": 4925, 
  "Prodi": 4926, 
  "4.@@": 4927, 
  "ark@@": 4928, 
  "Mu@@": 4929, 
  "umfassen": 4930, 
  "tischer": 4931, 
  "entgegen@@": 4932, 
  "nahmen": 4933, 
  "Verhandlungs@@": 4934, 
  "kontrolle": 4935, 
  "ard": 4936, 
  "Prozeß": 4937, 
  "weite": 4938, 
  "früh": 4939, 
  "ungeachtet": 4940, 
  "Entschlossenheit": 4941, 
  "bildung": 4942, 
  "Kommentare": 4943, 
  "Konvent": 4944, 
  "vo@@": 4945, 
  "Western": 4946, 
  "modell": 4947, 
  "tor@@": 4948, 
  "wächst": 4949, 
  "fonds": 4950, 
  "Har@@": 4951, 
  "beteiligten": 4952, 
  "Modus": 4953, 
  "erwiesen": 4954, 
  "fach@@": 4955, 
  "Tauch@@": 4956, 
  "Demokraten": 4957, 
  "Ausblick": 4958, 
  "Körper@@": 4959, 
  "schwedischen": 4960, 
  "ausgegeben": 4961, 
  "ton": 4962, 
  "intensiv": 4963, 
  "Lounge": 4964, 
  "auswählen": 4965, 
  "jüngste": 4966, 
  "nummer": 4967, 
  "helpful": 4968, 
  "Kyoto": 4969, 
  "berichtet": 4970, 
  "Anmerkungen": 4971, 
  "erheben": 4972, 
  "MySQL": 4973, 
  "existieren": 4974, 
  "III": 4975, 
  "Ablauf": 4976, 
  "bedroht": 4977, 
  "widmen": 4978, 
  "Motor": 4979, 
  "Ad@@": 4980, 
  "maximal": 4981, 
  "Telefon@@": 4982, 
  "legte": 4983, 
  "hohes": 4984, 
  "AR@@": 4985, 
  "Verbrauchern": 4986, 
  "Kompetenzen": 4987, 
  "komplexe": 4988, 
  "Client": 4989, 
  "kombiniert": 4990, 
  "istische": 4991, 
  "berühmte": 4992, 
  "falsche": 4993, 
  "einst": 4994, 
  "Publikum": 4995, 
  "120": 4996, 
  "Schreiben": 4997, 
  "era": 4998, 
  "Gebühren": 4999, 
  "passt": 5000, 
  "Erreichung": 5001, 
  "enes": 5002, 
  "Aspekten": 5003, 
  "Lehrer": 5004, 
  "derart": 5005, 
  "lenken": 5006, 
  "Drei@@": 5007, 
  "bewegt": 5008, 
  "grenzüberschreitenden": 5009, 
  "Ausrüstung": 5010, 
  "überrascht": 5011, 
  "ya": 5012, 
  "parallel": 5013, 
  "ft@@": 5014, 
  "Ratifizierung": 5015, 
  "Ja": 5016, 
  "ersch@@": 5017, 
  "erwerben": 5018, 
  "tierte": 5019, 
  "öffentlicher": 5020, 
  "mu@@": 5021, 
  "ass@@": 5022, 
  "bewußt": 5023, 
  "fehlen": 5024, 
  "chemische": 5025, 
  "18@@": 5026, 
  "arabischen": 5027, 
  "wunderschöne": 5028, 
  "gh@@": 5029, 
  "Heimat": 5030, 
  "gem": 5031, 
  "Zusatz@@": 5032, 
  "Rotary": 5033, 
  "Ausbildungs@@": 5034, 
  "erkennt": 5035, 
  "Reg@@": 5036, 
  "anten": 5037, 
  "39": 5038, 
  "kostenlosen": 5039, 
  "spanische": 5040, 
  "Beach": 5041, 
  "beibehalten": 5042, 
  "Slowakei": 5043, 
  "Dis@@": 5044, 
  "bad": 5045, 
  "Bio@@": 5046, 
  "ll@@": 5047, 
  "ähnlichen": 5048, 
  "chen@@": 5049, 
  "Mark@@": 5050, 
  "Lateinamerika": 5051, 
  "Behörde": 5052, 
  "fährt": 5053, 
  "Vorrang": 5054, 
  "geschichte": 5055, 
  "karten": 5056, 
  "ang": 5057, 
  "A5": 5058, 
  "Wald@@": 5059, 
  "alisiert": 5060, 
  "Via": 5061, 
  "len@@": 5062, 
  "eres": 5063, 
  "Luxus": 5064, 
  "wechseln": 5065, 
  "ehrlich": 5066, 
  "wachsende": 5067, 
  "unterschiedlicher": 5068, 
  "Office": 5069, 
  "behörden": 5070, 
  "Konvention": 5071, 
  "Autor": 5072, 
  "Durchsetzung": 5073, 
  "GNU": 5074, 
  "umgehend": 5075, 
  "vermittelt": 5076, 
  "ziele": 5077, 
  "Klarheit": 5078, 
  "Steigerung": 5079, 
  "Ursache": 5080, 
  "Gemeinden": 5081, 
  "Rennen": 5082, 
  "1,@@": 5083, 
  "ausländische": 5084, 
  "Statistiken": 5085, 
  "hand@@": 5086, 
  "War@@": 5087, 
  "1989": 5088, 
  "Skype": 5089, 
  "Weine": 5090, 
  "Festplatte": 5091, 
  "Bestellungen": 5092, 
  "Australien": 5093, 
  "Fleisch": 5094, 
  "branche": 5095, 
  "centre": 5096, 
  "Wichtigkeit": 5097, 
  "bewertet": 5098, 
  "ant@@": 5099, 
  "zone": 5100, 
  "22.": 5101, 
  "res@@": 5102, 
  "Küsten@@": 5103, 
  "rä@@": 5104, 
  "mithilfe": 5105, 
  "vertritt": 5106, 
  "aktualisiert": 5107, 
  "az@@": 5108, 
  "standen": 5109, 
  "Haushalts": 5110, 
  "Ausrichtung": 5111, 
  "zentraler": 5112, 
  "verurteilen": 5113, 
  "erteilen": 5114, 
  "Schicksal": 5115, 
  "flexibel": 5116, 
  "700": 5117, 
  "Felder": 5118, 
  "Entwicklungshilfe": 5119, 
  "geleitet": 5120, 
  "behauptet": 5121, 
  "mitteln": 5122, 
  "Häfen": 5123, 
  "zeichnen": 5124, 
  "Garantien": 5125, 
  "restaurant": 5126, 
  "Dynamik": 5127, 
  "Netz@@": 5128, 
  "anzuwenden": 5129, 
  "Innen": 5130, 
  "abend": 5131, 
  "jährlichen": 5132, 
  "Ereignis": 5133, 
  "strukturen": 5134, 
  "beweisen": 5135, 
  "langem": 5136, 
  "Nieder@@": 5137, 
  "lebens@@": 5138, 
  "sterben": 5139, 
  "Volkspartei": 5140, 
  "hal@@": 5141, 
  "Vorgehensweise": 5142, 
  "User": 5143, 
  "Tor": 5144, 
  "Abteilung": 5145, 
  "mail": 5146, 
  "geringen": 5147, 
  "präzise": 5148, 
  "mel@@": 5149, 
  "Brücke": 5150, 
  "Kenntnisse": 5151, 
  "Mehr@@": 5152, 
  "Hände": 5153, 
  "IS": 5154, 
  "Kommissionspräsident": 5155, 
  "lich@@": 5156, 
  "ven@@": 5157, 
  "decken": 5158, 
  "einiges": 5159, 
  "gef@@": 5160, 
  "gestellten": 5161, 
  "medizinische": 5162, 
  "räumen": 5163, 
  "Palette": 5164, 
  "markt@@": 5165, 
  "jährige": 5166, 
  "Plätze": 5167, 
  "iges": 5168, 
  "unver@@": 5169, 
  "setzte": 5170, 
  "institutionelle": 5171, 
  "Neben@@": 5172, 
  "Seele": 5173, 
  "mes": 5174, 
  "gefährlich": 5175, 
  "verursachen": 5176, 
  "regelung": 5177, 
  "befürworten": 5178, 
  "Kriegs@@": 5179, 
  "beinahe": 5180, 
  "russische": 5181, 
  "Fortsetzung": 5182, 
  "Versprechen": 5183, 
  "fahrt": 5184, 
  "Weltkrieg": 5185, 
  "Menschheit": 5186, 
  "Gold@@": 5187, 
  "dieselbe": 5188, 
  "erarbeitet": 5189, 
  "engen": 5190, 
  "Ferienwohnungen": 5191, 
  "č@@": 5192, 
  "Ges@@": 5193, 
  "anzupassen": 5194, 
  "1991": 5195, 
  "Strom": 5196, 
  "Werkzeuge": 5197, 
  "automatische": 5198, 
  "erheblichen": 5199, 
  "umfangreichen": 5200, 
  "ausgestattete": 5201, 
  "gs": 5202, 
  "ebene": 5203, 
  "wirklichen": 5204, 
  "Währungs@@": 5205, 
  "respektieren": 5206, 
  "atoren": 5207, 
  "Zimmerbeschreibung": 5208, 
  "gemütlichen": 5209, 
  "Tages@@": 5210, 
  "punkte": 5211, 
  "ara": 5212, 
  "Zuverlässigkeit": 5213, 
  "gang": 5214, 
  "begegnen": 5215, 
  "leichte": 5216, 
  "op": 5217, 
  "bewegung": 5218, 
  "Aussagen": 5219, 
  "Betreiber": 5220, 
  "Motor@@": 5221, 
  "Bett": 5222, 
  "Lager": 5223, 
  "Alternativen": 5224, 
  "05": 5225, 
  "Kürze": 5226, 
  "Lieferanten": 5227, 
  "könne": 5228, 
  "dieselben": 5229, 
  "deutliche": 5230, 
  "geehrte": 5231, 
  "Offenheit": 5232, 
  "NL": 5233, 
  "Wei@@": 5234, 
  "Zürich": 5235, 
  "innere": 5236, 
  "Burg": 5237, 
  "Por@@": 5238, 
  "sogenannte": 5239, 
  "ssen": 5240, 
  "stattgefunden": 5241, 
  "Reinigung": 5242, 
  "holen": 5243, 
  "niedrigen": 5244, 
  "Einzelheiten": 5245, 
  "einander": 5246, 
  "erleichtert": 5247, 
  "greifen": 5248, 
  "komplexen": 5249, 
  "uneingeschränkt": 5250, 
  "angekündigt": 5251, 
  "03": 5252, 
  "Fans": 5253, 
  "programms": 5254, 
  "maschine": 5255, 
  "Kennzeichnung": 5256, 
  "lo": 5257, 
  "nieder@@": 5258, 
  "raten": 5259, 
  "oc@@": 5260, 
  "43": 5261, 
  "Problematik": 5262, 
  "Show": 5263, 
  "ku@@": 5264, 
  "Inhalten": 5265, 
  "gestartet": 5266, 
  "Mischung": 5267, 
  "23.": 5268, 
  "tierten": 5269, 
  "Lern@@": 5270, 
  "AT@@": 5271, 
  "Revision": 5272, 
  "auswirken": 5273, 
  "fortsetzen": 5274, 
  "Nachdruck": 5275, 
  "Strom@@": 5276, 
  "Gesicht": 5277, 
  "2012": 5278, 
  "wider": 5279, 
  "Verbraucher@@": 5280, 
  "49": 5281, 
  "Im@@": 5282, 
  "able": 5283, 
  "zustande": 5284, 
  "kurzer": 5285, 
  "Betracht": 5286, 
  "eleganten": 5287, 
  "verk@@": 5288, 
  "Bauern": 5289, 
  "gingen": 5290, 
  "Beschränkungen": 5291, 
  "Bewusstsein": 5292, 
  "vier@@": 5293, 
  "Netze": 5294, 
  "fahr@@": 5295, 
  "of@@": 5296, 
  "pp@@": 5297, 
  "getrennt": 5298, 
  "Stahl@@": 5299, 
  "funktion": 5300, 
  "Kredit@@": 5301, 
  "regionaler": 5302, 
  "realisiert": 5303, 
  "02": 5304, 
  "\\": 5305, 
  "David": 5306, 
  "Syrien": 5307, 
  "Zeitplan": 5308, 
  "Georgien": 5309, 
  "derselben": 5310, 
  "about": 5311, 
  "mehr@@": 5312, 
  "empfängt": 5313, 
  "Drogen": 5314, 
  "Kl@@": 5315, 
  "Zielsetzungen": 5316, 
  "endgültige": 5317, 
  "bedauerlich": 5318, 
  "и": 5319, 
  "tungs@@": 5320, 
  "Text@@": 5321, 
  "moderner": 5322, 
  "Hostelsclub": 5323, 
  "Washington": 5324, 
  "Fahrzeug": 5325, 
  "ES@@": 5326, 
  "gemeinsamer": 5327, 
  "Südafrika": 5328, 
  "Jugend@@": 5329, 
  "Ministerpräsident": 5330, 
  "MS": 5331, 
  "Sol@@": 5332, 
  "á": 5333, 
  "zwölf": 5334, 
  "vorliegt": 5335, 
  "Gesetzes@@": 5336, 
  "genießt": 5337, 
  "Glauben": 5338, 
  "Minderheit": 5339, 
  "sam@@": 5340, 
  "verschaffen": 5341, 
  "Lebensmittelsicherheit": 5342, 
  "Sand@@": 5343, 
  "ov@@": 5344, 
  "erweisen": 5345, 
  "österreichischen": 5346, 
  "Bus@@": 5347, 
  "freier": 5348, 
  "schl@@": 5349, 
  "einzig": 5350, 
  "ierende": 5351, 
  "tatsächlichen": 5352, 
  "Produktivität": 5353, 
  "close": 5354, 
  "Würde": 5355, 
  "leistet": 5356, 
  "comfortable": 5357, 
  "verzichten": 5358, 
  "Übernahme": 5359, 
  "Übersicht": 5360, 
  "Protokolls": 5361, 
  "Eröffnung": 5362, 
  "ow@@": 5363, 
  "would": 5364, 
  "staaten": 5365, 
  "Gra@@": 5366, 
  "erforderliche": 5367, 
  "Wahrung": 5368, 
  "Ausnahmen": 5369, 
  "Fisch": 5370, 
  "Ü@@": 5371, 
  "geringer": 5372, 
  "verwiesen": 5373, 
  "44": 5374, 
  "betrieb": 5375, 
  "Fl@@": 5376, 
  "06": 5377, 
  "Gewinn": 5378, 
  "geschickt": 5379, 
  "anerkennen": 5380, 
  "erwähnten": 5381, 
  "Handy": 5382, 
  "Gr@@": 5383, 
  "ES": 5384, 
  "§": 5385, 
  "ic": 5386, 
  "pool": 5387, 
  "Tabak@@": 5388, 
  "view": 5389, 
  "Nachmittag": 5390, 
  "gung": 5391, 
  "Taten": 5392, 
  "Erarbeitung": 5393, 
  "erstreckt": 5394, 
  "net": 5395, 
  "ato": 5396, 
  "CO@@": 5397, 
  "Elektro@@": 5398, 
  "formuliert": 5399, 
  "Anti": 5400, 
  "tliche": 5401, 
  "werten": 5402, 
  "ai@@": 5403, 
  "wahre": 5404, 
  "eröffnen": 5405, 
  "enn@@": 5406, 
  "Händen": 5407, 
  "technischer": 5408, 
  "Chancengleichheit": 5409, 
  "News": 5410, 
  "bezeichnen": 5411, 
  "anpassen": 5412, 
  "USD": 5413, 
  "Val@@": 5414, 
  "Safe": 5415, 
  "ursprüngliche": 5416, 
  "zugestimmt": 5417, 
  "Bürokratie": 5418, 
  "fs": 5419, 
  "trat": 5420, 
  "¶": 5421, 
  "Mac": 5422, 
  "Bitte": 5423, 
  "Events": 5424, 
  "ee": 5425, 
  "verabschieden": 5426, 
  "geeigneten": 5427, 
  "vereint": 5428, 
  "sprachen": 5429, 
  "Zerstörung": 5430, 
  "komfortablen": 5431, 
  "übermitteln": 5432, 
  "vorsieht": 5433, 
  "Hel@@": 5434, 
  "interessanten": 5435, 
  "ko": 5436, 
  "any": 5437, 
  "retten": 5438, 
  "Appartement": 5439, 
  "Objekt": 5440, 
  "Steuer": 5441, 
  "Herkunft": 5442, 
  "ausgehend": 5443, 
  "erarbeiten": 5444, 
  "anzeigen": 5445, 
  "Abbau": 5446, 
  "5.@@": 5447, 
  "Rückgang": 5448, 
  "religiösen": 5449, 
  "Schw@@": 5450, 
  "gering": 5451, 
  "verwaltung": 5452, 
  "Empfang": 5453, 
  "Anwendungs@@": 5454, 
  "Ju@@": 5455, 
  "Hilfs@@": 5456, 
  "Massen@@": 5457, 
  "Wettbewerbs": 5458, 
  "ev@@": 5459, 
  "Nicht": 5460, 
  "Benutzer@@": 5461, 
  "RO": 5462, 
  "located": 5463, 
  "Händler": 5464, 
  "son@@": 5465, 
  "Updates": 5466, 
  "methoden": 5467, 
  "hiermit": 5468, 
  "region": 5469, 
  "richtlinie": 5470, 
  "geringe": 5471, 
  "höchster": 5472, 
  "Ho@@": 5473, 
  "Gas": 5474, 
  "Privatsphäre": 5475, 
  "Verfahrens": 5476, 
  "fu@@": 5477, 
  "gewünschte": 5478, 
  "Robert": 5479, 
  "Aufhebung": 5480, 
  "0,@@": 5481, 
  "maximale": 5482, 
  "zugelassen": 5483, 
  "Nichtraucherzonen": 5484, 
  "uren": 5485, 
  "verarbeitet": 5486, 
  "anz@@": 5487, 
  "Zunahme": 5488, 
  "stoff@@": 5489, 
  "Edition": 5490, 
  "forschung": 5491, 
  "EL": 5492, 
  "Glas": 5493, 
  "Bosnien": 5494, 
  "eindeutige": 5495, 
  "Klimawandels": 5496, 
  "lichsten": 5497, 
  "tro@@": 5498, 
  "Original@@": 5499, 
  "Terroristen": 5500, 
  "Liberalen": 5501, 
  "gelangt": 5502, 
  "sicherheit": 5503, 
  "elten": 5504, 
  "Wiederherstellung": 5505, 
  "einstellen": 5506, 
  "85": 5507, 
  "rau@@": 5508, 
  "fte": 5509, 
  "Tabelle": 5510, 
  "vermieden": 5511, 
  "Verordnungen": 5512, 
  "Cal@@": 5513, 
  "ien@@": 5514, 
  "spätestens": 5515, 
  "Kan@@": 5516, 
  "dahin": 5517, 
  "Multi@@": 5518, 
  "medizinischen": 5519, 
  "Abfall@@": 5520, 
  "Ser@@": 5521, 
  "gehabt": 5522, 
  "angenommenen": 5523, 
  "Großen": 5524, 
  "Mittwoch": 5525, 
  "Mails": 5526, 
  "fanden": 5527, 
  "plötzlich": 5528, 
  "Amerikas": 5529, 
  "war@@": 5530, 
  "tel@@": 5531, 
  "IN": 5532, 
  "version": 5533, 
  "eigentliche": 5534, 
  "integrieren": 5535, 
  "befürwortet": 5536, 
  "Immobilien@@": 5537, 
  "Anreize": 5538, 
  "feste": 5539, 
  "41": 5540, 
  "Express": 5541, 
  "Thomas": 5542, 
  "lieben": 5543, 
  "ren": 5544, 
  "tende": 5545, 
  "Module": 5546, 
  "aufgestellt": 5547, 
  "aufgeführt": 5548, 
  "funktionen": 5549, 
  "schlechte": 5550, 
  "Hohe": 5551, 
  "geschäft": 5552, 
  "Formulierung": 5553, 
  "Clubs": 5554, 
  "Umstände": 5555, 
  "Sound": 5556, 
  "Kapazität": 5557, 
  "Finanzen": 5558, 
  "Mag@@": 5559, 
  "Royal": 5560, 
  "Export@@": 5561, 
  "hielt": 5562, 
  "Global": 5563, 
  "ori@@": 5564, 
  "Hu@@": 5565, 
  "Einnahmen": 5566, 
  "gelegenen": 5567, 
  "blieb": 5568, 
  "diesmal": 5569, 
  "Fehler@@": 5570, 
  "absolute": 5571, 
  "relevanten": 5572, 
  "reg@@": 5573, 
  "Wind": 5574, 
  "typische": 5575, 
  "mor@@": 5576, 
  "like": 5577, 
  "Begründung": 5578, 
  "br@@": 5579, 
  "ure": 5580, 
  "ändert": 5581, 
  "endet": 5582, 
  "CH@@": 5583, 
  "jeglicher": 5584, 
  "kleineren": 5585, 
  "Finanzierungs@@": 5586, 
  "wertvolle": 5587, 
  "problemlos": 5588, 
  "Atom@@": 5589, 
  "aux": 5590, 
  "krise": 5591, 
  "industriellen": 5592, 
  "passen": 5593, 
  "29.": 5594, 
  "ausschuss": 5595, 
  "schreibt": 5596, 
  "Schuld": 5597, 
  "Funktionalität": 5598, 
  "Dublin": 5599, 
  "Stufe": 5600, 
  "Wälder": 5601, 
  "Bas@@": 5602, 
  "günstig": 5603, 
  "Verabschiedung": 5604, 
  "öffnet": 5605, 
  "fort@@": 5606, 
  "gegenseitigen": 5607, 
  "ph@@": 5608, 
  "è": 5609, 
  "stay": 5610, 
  "vertraut": 5611, 
  "Golf@@": 5612, 
  "gültig": 5613, 
  "Theorie": 5614, 
  "26.": 5615, 
  "bezogen": 5616, 
  "Anzeige": 5617, 
  "zen@@": 5618, 
  "Gentoo": 5619, 
  "verb@@": 5620, 
  "Pol@@": 5621, 
  "erlangen": 5622, 
  "Erhalt": 5623, 
  "Marina": 5624, 
  "erst@@": 5625, 
  "schw@@": 5626, 
  "Spitzen@@": 5627, 
  "Landes@@": 5628, 
  "Wünschen": 5629, 
  "gelegene": 5630, 
  "Ausgrenzung": 5631, 
  "University": 5632, 
  "dé@@": 5633, 
  "quellen": 5634, 
  "RO@@": 5635, 
  "tag": 5636, 
  "Menschenrechtsverletzungen": 5637, 
  "design": 5638, 
  "kritischen": 5639, 
  "durchzusetzen": 5640, 
  "informationen": 5641, 
  "Gruppen@@": 5642, 
  "unterwegs": 5643, 
  "Fuß@@": 5644, 
  "spielte": 5645, 
  "Meinungen": 5646, 
  "ré@@": 5647, 
  "kostenfrei": 5648, 
  "Image": 5649, 
  "Versuche": 5650, 
  "passieren": 5651, 
  "abgeben": 5652, 
  "Rechnungshof": 5653, 
  "sonstige": 5654, 
  "Bl@@": 5655, 
  "Handlungen": 5656, 
  "späteren": 5657, 
  "Wetter": 5658, 
  "ins@@": 5659, 
  "Leiter": 5660, 
  "Bürgerbeauftragten": 5661, 
  "Minibar": 5662, 
  "Abgeordneter": 5663, 
  "zahl": 5664, 
  "ches": 5665, 
  "Spezialisten": 5666, 
  "externe": 5667, 
  "Nation": 5668, 
  "Weltwirtschaft": 5669, 
  "Logik": 5670, 
  "Kernel": 5671, 
  "Zahn@@": 5672, 
  "George": 5673, 
  "Anbindung": 5674, 
  "Angabe": 5675, 
  "Wieder@@": 5676, 
  "Hinter@@": 5677, 
  "mittlere": 5678, 
  "wechsel": 5679, 
  "Port": 5680, 
  "Ski@@": 5681, 
  "eck": 5682, 
  "Verfolgung": 5683, 
  "Präsentation": 5684, 
  "SP@@": 5685, 
  "Jugendliche": 5686, 
  "46": 5687, 
  "Source": 5688, 
  "erlassen": 5689, 
  "basieren": 5690, 
  "Fer@@": 5691, 
  "empfiehlt": 5692, 
  "alisieren": 5693, 
  "Summe": 5694, 
  "beruhen": 5695, 
  "Regional@@": 5696, 
  "Bühne": 5697, 
  "Best@@": 5698, 
  "Wettbewerbs@@": 5699, 
  "Kabel": 5700, 
  "Spektrum": 5701, 
  "European": 5702, 
  "Linien": 5703, 
  "To@@": 5704, 
  "Werbe@@": 5705, 
  "dienstleistungen": 5706, 
  "rechtlich": 5707, 
  "Sh@@": 5708, 
  "Zimmer@@": 5709, 
  "bisschen": 5710, 
  "Charme": 5711, 
  "Kuba": 5712, 
  "Getränke": 5713, 
  "modernes": 5714, 
  "detaillierte": 5715, 
  "gerechtfertigt": 5716, 
  "Prüf@@": 5717, 
  "Raums": 5718, 
  "28.": 5719, 
  "gewinnt": 5720, 
  "schwieriger": 5721, 
  "ann@@": 5722, 
  "Anträge": 5723, 
  "Wal@@": 5724, 
  "enz": 5725, 
  "Vertrieb": 5726, 
  "Centre": 5727, 
  "teuer": 5728, 
  "bestimmungen": 5729, 
  "12.00": 5730, 
  "zei@@": 5731, 
  "Fakten": 5732, 
  "polnischen": 5733, 
  "eingeladen": 5734, 
  "Ausbeutung": 5735, 
  "unterscheidet": 5736, 
  "Performance": 5737, 
  "beschreibt": 5738, 
  "ls": 5739, 
  "unk@@": 5740, 
  "inneren": 5741, 
  "No@@": 5742, 
  "BSE": 5743, 
  "beeinflusst": 5744, 
  "schenken": 5745, 
  "Ordner": 5746, 
  "Tur@@": 5747, 
  "Im": 5748, 
  "Zusammensetzung": 5749, 
  "ausreichende": 5750, 
  "überwacht": 5751, 
  "NRO": 5752, 
  "endgültigen": 5753, 
  "steuer@@": 5754, 
  "Wald": 5755, 
  "Netzwerk@@": 5756, 
  "nahme": 5757, 
  "einführen": 5758, 
  "Halb@@": 5759, 
  "Bewohner": 5760, 
  "Power": 5761, 
  "Spannungen": 5762, 
  "dan@@": 5763, 
  "Belastung": 5764, 
  "Alt@@": 5765, 
  "sprache": 5766, 
  "Außenminister": 5767, 
  "organisierte": 5768, 
  "Datei@@": 5769, 
  "Türen": 5770, 
  "passende": 5771, 
  "Star@@": 5772, 
  "är": 5773, 
  "od@@": 5774, 
  "plätze": 5775, 
  "kom@@": 5776, 
  "Fremdenverkehr": 5777, 
  "att@@": 5778, 
  "Schnittstelle": 5779, 
  "Pension": 5780, 
  "Erzeugung": 5781, 
  "Osteuropa": 5782, 
  "ki": 5783, 
  "Filter": 5784, 
  "Marokko": 5785, 
  "angebotenen": 5786, 
  "Gewinne": 5787, 
  "sagten": 5788, 
  "Funktionieren": 5789, 
  "meistens": 5790, 
  "Wesen": 5791, 
  "grenzen": 5792, 
  "dauern": 5793, 
  "Milch@@": 5794, 
  "ella": 5795, 
  "Föderation": 5796, 
  "projekt": 5797, 
  "Basis@@": 5798, 
  "tor": 5799, 
  "ungsh@@": 5800, 
  "gehe": 5801, 
  "verstärkte": 5802, 
  "Stock": 5803, 
  "effizienten": 5804, 
  "og@@": 5805, 
  "organisierten": 5806, 
  "abgegeben": 5807, 
  "Bergen": 5808, 
  "verliehen": 5809, 
  "Training": 5810, 
  "englischen": 5811, 
  "52": 5812, 
  "Putin": 5813, 
  "when": 5814, 
  "dr@@": 5815, 
  "ältere": 5816, 
  "Energiequellen": 5817, 
  "Tro@@": 5818, 
  "ro": 5819, 
  "bedienen": 5820, 
  "Rezession": 5821, 
  "Raum@@": 5822, 
  "Geschäften": 5823, 
  "Adressen": 5824, 
  "alleine": 5825, 
  "beschleunigen": 5826, 
  "pre@@": 5827, 
  "etc": 5828, 
  "investiert": 5829, 
  "Beurteilung": 5830, 
  "vers@@": 5831, 
  "streng": 5832, 
  "ablehnen": 5833, 
  "gebunden": 5834, 
  "hängen": 5835, 
  "Köln": 5836, 
  "Vis@@": 5837, 
  "zt": 5838, 
  "geplanten": 5839, 
  "Fischereipolitik": 5840, 
  "herum": 5841, 
  "Check": 5842, 
  "einstimmig": 5843, 
  "kg": 5844, 
  "Migration": 5845, 
  "prozesse": 5846, 
  "non": 5847, 
  "ett@@": 5848, 
  "mobile": 5849, 
  "Französisch": 5850, 
  "gehandelt": 5851, 
  "Pat@@": 5852, 
  "Last": 5853, 
  "dargelegt": 5854, 
  "Hostel": 5855, 
  "up@@": 5856, 
  "linien": 5857, 
  "Schwer@@": 5858, 
  "gelingen": 5859, 
  "gebraucht": 5860, 
  "Verlängerung": 5861, 
  "angeblich": 5862, 
  "OR@@": 5863, 
  "Haushalte": 5864, 
  "israelischen": 5865, 
  "Beratungen": 5866, 
  "ativen": 5867, 
  "Nutz@@": 5868, 
  "eck@@": 5869, 
  "pol@@": 5870, 
  "Verkaufs@@": 5871, 
  "Ferien": 5872, 
  "ane": 5873, 
  "Balkan": 5874, 
  "kurzfristig": 5875, 
  "gesichert": 5876, 
  "Traum": 5877, 
  "SV": 5878, 
  "tätigen": 5879, 
  "Beamten": 5880, 
  "ris@@": 5881, 
  "gebildet": 5882, 
  "bed": 5883, 
  "tt@@": 5884, 
  "ärmsten": 5885, 
  "Menschenrechten": 5886, 
  "Referendum": 5887, 
  "zw@@": 5888, 
  "Des@@": 5889, 
  "Los": 5890, 
  "hi@@": 5891, 
  "tra@@": 5892, 
  "Ergänzung": 5893, 
  "Seiten@@": 5894, 
  "post@@": 5895, 
  "zugute": 5896, 
  "Börse": 5897, 
  "Saal": 5898, 
  "aussehen": 5899, 
  "einnehmen": 5900, 
  "rahmen": 5901, 
  "hr@@": 5902, 
  "erbaut": 5903, 
  "Original": 5904, 
  "eigenem": 5905, 
  "gebe": 5906, 
  "Million": 5907, 
  "ah": 5908, 
  "Einschränkungen": 5909, 
  "Gärten": 5910, 
  "Erwägung": 5911, 
  "vereinbarten": 5912, 
  "ir": 5913, 
  "Rahmenbedingungen": 5914, 
  "feiern": 5915, 
  "inakzeptabel": 5916, 
  "Beschwerden": 5917, 
  "Gebäuden": 5918, 
  "Wel@@": 5919, 
  "Mengen": 5920, 
  "Dach@@": 5921, 
  "work": 5922, 
  "new": 5923, 
  "nachhaltig": 5924, 
  "Bildschirm": 5925, 
  "versehen": 5926, 
  "weitaus": 5927, 
  "stützen": 5928, 
  "führten": 5929, 
  "0.@@": 5930, 
  "Alpen": 5931, 
  "Produzenten": 5932, 
  "Unternehmer": 5933, 
  "SE@@": 5934, 
  "Arbeitgeber": 5935, 
  "zurückzu@@": 5936, 
  "2.0": 5937, 
  "Schutzes": 5938, 
  "gebühren": 5939, 
  "Steuerzahler": 5940, 
  "immerhin": 5941, 
  "î@@": 5942, 
  "ernsthafte": 5943, 
  "ho@@": 5944, 
  "por@@": 5945, 
  "eure": 5946, 
  "geschafft": 5947, 
  "Prozess@@": 5948, 
  "Trend": 5949, 
  "tim@@": 5950, 
  "Phänomen": 5951, 
  "Konferenzen": 5952, 
  "Portal": 5953, 
  "Medikamente": 5954, 
  "basis": 5955, 
  "area": 5956, 
  "27.": 5957, 
  "een": 5958, 
  "NI": 5959, 
  "ast@@": 5960, 
  "obgleich": 5961, 
  "vergeben": 5962, 
  "amp@@": 5963, 
  "Hof": 5964, 
  "kontinuierlich": 5965, 
  "eigentlichen": 5966, 
  "Anwesenheit": 5967, 
  "Gebühr": 5968, 
  "Einschätzung": 5969, 
  "bestens": 5970, 
  "Termin": 5971, 
  "Einwanderer": 5972, 
  "Verletzungen": 5973, 
  "vorgehen": 5974, 
  "angenehme": 5975, 
  "Verfasser": 5976, 
  "tiven": 5977, 
  "teilzunehmen": 5978, 
  "Leuten": 5979, 
  "gratis": 5980, 
  "ier": 5981, 
  "Feststellung": 5982, 
  "beschließen": 5983, 
  "AD@@": 5984, 
  "Friedens": 5985, 
  "eingeräumt": 5986, 
  "breit": 5987, 
  "lokaler": 5988, 
  "flexible": 5989, 
  "Pflichten": 5990, 
  "sei@@": 5991, 
  "Do@@": 5992, 
  "Rot@@": 5993, 
  "ner@@": 5994, 
  "esten": 5995, 
  "Aufnahmen": 5996, 
  "Datenschutz": 5997, 
  "Unterhaltung": 5998, 
  "etz@@": 5999, 
  "eintreten": 6000, 
  "zeigte": 6001, 
  "erfasst": 6002, 
  "beliebigen": 6003, 
  "Te@@": 6004, 
  "werke": 6005, 
  "kommerziellen": 6006, 
  "Sommer@@": 6007, 
  "wartet": 6008, 
  "dein": 6009, 
  "win@@": 6010, 
  "Arbeitsgruppe": 6011, 
  "hundert": 6012, 
  "Mil@@": 6013, 
  "Operation": 6014, 
  "в@@": 6015, 
  "gut@@": 6016, 
  "Betrug": 6017, 
  "Van": 6018, 
  "Drogen@@": 6019, 
  "Sony": 6020, 
  "Bet@@": 6021, 
  "schaften": 6022, 
  "Island": 6023, 
  "Hafen@@": 6024, 
  "Far@@": 6025, 
  "gesammelt": 6026, 
  "normale": 6027, 
  "eigen@@": 6028, 
  "HTML": 6029, 
  "jemals": 6030, 
  "itäts@@": 6031, 
  "Adobe": 6032, 
  "Profil": 6033, 
  "oberen": 6034, 
  "aktivitäten": 6035, 
  "Gel@@": 6036, 
  "ac": 6037, 
  "ruhiger": 6038, 
  "Richter": 6039, 
  "Polizei@@": 6040, 
  "Mehrwert": 6041, 
  "por": 6042, 
  "id@@": 6043, 
  "Vertretung": 6044, 
  "gan@@": 6045, 
  "erer": 6046, 
  "verwirklichen": 6047, 
  "wohl@@": 6048, 
  "Emissions@@": 6049, 
  "ür@@": 6050, 
  "Bahn@@": 6051, 
  "Krisen": 6052, 
  "gerechte": 6053, 
  "Schl@@": 6054, 
  "registrieren": 6055, 
  "verbesserte": 6056, 
  "ausführlich": 6057, 
  "Lizenz@@": 6058, 
  "geistigen": 6059, 
  "realen": 6060, 
  "derjenigen": 6061, 
  "Drittstaaten": 6062, 
  "Community": 6063, 
  "gestiegen": 6064, 
  "Metall@@": 6065, 
  "prä@@": 6066, 
  "technologische": 6067, 
  "erneuerbaren": 6068, 
  "verpflichten": 6069, 
  "ausgewählten": 6070, 
  "mp@@": 6071, 
  "ni@@": 6072, 
  "stein@@": 6073, 
  "bewirken": 6074, 
  "komfortabel": 6075, 
  "schönes": 6076, 
  "Rußland": 6077, 
  "gleichwohl": 6078, 
  "tiefe": 6079, 
  "angefangen": 6080, 
  "Konfiguration": 6081, 
  "verzeichnen": 6082, 
  "Medi@@": 6083, 
  "wasser@@": 6084, 
  "Handel@@": 6085, 
  "Konzentration": 6086, 
  "Inkrafttreten": 6087, 
  "teil@@": 6088, 
  "MB": 6089, 
  "ften": 6090, 
  "Grundsätzen": 6091, 
  "würdigen": 6092, 
  "stoff": 6093, 
  "Muster": 6094, 
  "bekanntlich": 6095, 
  "dungs@@": 6096, 
  "Lauf@@": 6097, 
  "jahr": 6098, 
  "vernünftige": 6099, 
  "kor@@": 6100, 
  "Büros": 6101, 
  "drängen": 6102, 
  "Geräten": 6103, 
  "beruflichen": 6104, 
  "respektiert": 6105, 
  "menge": 6106, 
  "buch": 6107, 
  "с@@": 6108, 
  "Kongress": 6109, 
  "schen@@": 6110, 
  "nt": 6111, 
  "burg": 6112, 
  "trennen": 6113, 
  "Rubrik": 6114, 
  "demokratischer": 6115, 
  "extra": 6116, 
  "Export": 6117, 
  "tigkeit": 6118, 
  "Ausübung": 6119, 
  "Grünbuch": 6120, 
  "Einsatz@@": 6121, 
  "zunehmende": 6122, 
  "Konstruktion": 6123, 
  "Fax": 6124, 
  "Auto@@": 6125, 
  "Medizin": 6126, 
  "ohnehin": 6127, 
  "erweiterten": 6128, 
  "schule": 6129, 
  "ordnungsgemäß": 6130, 
  "Verluste": 6131, 
  "ba": 6132, 
  "Gesch@@": 6133, 
  "Sitzungen": 6134, 
  "Foundation": 6135, 
  "begründet": 6136, 
  "Pu@@": 6137, 
  "Erbe": 6138, 
  "Tr@@": 6139, 
  "Gerichten": 6140, 
  "Zucker@@": 6141, 
  "ns": 6142, 
  "car@@": 6143, 
  "angelegt": 6144, 
  "lä@@": 6145, 
  "Techniken": 6146, 
  "verwalten": 6147, 
  "Kreativität": 6148, 
  "konzipiert": 6149, 
  "andernfalls": 6150, 
  "Unsicherheit": 6151, 
  "Rassismus": 6152, 
  "nah": 6153, 
  "Wind@@": 6154, 
  "Ausschüsse": 6155, 
  "ET@@": 6156, 
  "Gespräch": 6157, 
  "gefährden": 6158, 
  "gelernt": 6159, 
  "Merkmale": 6160, 
  "ž@@": 6161, 
  "aktualisieren": 6162, 
  "kritische": 6163, 
  "unterbrochen": 6164, 
  "sches": 6165, 
  "Flugzeug": 6166, 
  "losigkeit": 6167, 
  "konstruktive": 6168, 
  "dauer": 6169, 
  "information": 6170, 
  "stand@@": 6171, 
  "spüren": 6172, 
  "spar@@": 6173, 
  "sonstigen": 6174, 
  "fortgesetzt": 6175, 
  "herrliche": 6176, 
  "gro@@": 6177, 
  "Fernseher": 6178, 
  "situation": 6179, 
  "ologischen": 6180, 
  "Palace": 6181, 
  "ski": 6182, 
  "Ben@@": 6183, 
  "fairen": 6184, 
  "Kirchen": 6185, 
  "bewiesen": 6186, 
  "esen": 6187, 
  "Konzepte": 6188, 
  "EL@@": 6189, 
  "Al": 6190, 
  "Me@@": 6191, 
  "zeichen": 6192, 
  "eri@@": 6193, 
  "Karriere": 6194, 
  "Pf@@": 6195, 
  "nung": 6196, 
  "bearbeitet": 6197, 
  "51": 6198, 
  "voneinander": 6199, 
  "vorbehalten": 6200, 
  "erg@@": 6201, 
  "erörtert": 6202, 
  "Herrschaft": 6203, 
  "esch@@": 6204, 
  "bedauere": 6205, 
  "spiegelt": 6206, 
  "arbeitete": 6207, 
  "Kräften": 6208, 
  "wirksamen": 6209, 
  "Beschluß": 6210, 
  "schließe": 6211, 
  "lern": 6212, 
  "Halle": 6213, 
  "stoffen": 6214, 
  "womit": 6215, 
  "Studium": 6216, 
  "At@@": 6217, 
  "beizutragen": 6218, 
  "Umsatz": 6219, 
  "angewiesen": 6220, 
  "eingeschränkt": 6221, 
  "Gal@@": 6222, 
  "LE@@": 6223, 
  "vernünftig": 6224, 
  "transparent": 6225, 
  "Besteuerung": 6226, 
  "treiben": 6227, 
  "Alltag": 6228, 
  "fügen": 6229, 
  "isch@@": 6230, 
  "elte": 6231, 
  "Konkurrenz": 6232, 
  "Äußerungen": 6233, 
  "zielt": 6234, 
  "unterbreiten": 6235, 
  "hof": 6236, 
  "Art.": 6237, 
  "mat@@": 6238, 
  "Industrie@@": 6239, 
  "geräten": 6240, 
  "Bewältigung": 6241, 
  "tete": 6242, 
  "Gipfeltreffen": 6243, 
  "Unterlagen": 6244, 
  "einzugehen": 6245, 
  "Abenteuer": 6246, 
  "Abstimmungen": 6247, 
  "Angriffe": 6248, 
  "Güter": 6249, 
  "Entscheidungs@@": 6250, 
  "getötet": 6251, 
  "ona": 6252, 
  "zunehmenden": 6253, 
  "Beitritts@@": 6254, 
  "Unterzeichnung": 6255, 
  "ub@@": 6256, 
  "digen": 6257, 
  "förderung": 6258, 
  "globaler": 6259, 
  "tig@@": 6260, 
  "Kapazitäten": 6261, 
  "grenzüberschreitende": 6262, 
  "Subventionen": 6263, 
  "schrittweise": 6264, 
  "erreichte": 6265, 
  "ley": 6266, 
  "Puerto": 6267, 
  "bist": 6268, 
  "mal@@": 6269, 
  "Aktivität": 6270, 
  "Schlaf@@": 6271, 
  "gefährliche": 6272, 
  "Anhörung": 6273, 
  "anlässlich": 6274, 
  "schlimmer": 6275, 
  "ani": 6276, 
  "preis@@": 6277, 
  "ierungen": 6278, 
  "Beschäftigten": 6279, 
  "begleiten": 6280, 
  "erwähnte": 6281, 
  "bilateralen": 6282, 
  "Kol@@": 6283, 
  "vergleichen": 6284, 
  "technologischen": 6285, 
  "abends": 6286, 
  "inbegriffen": 6287, 
  "Energiepolitik": 6288, 
  "err@@": 6289, 
  "plan@@": 6290, 
  "nachdenken": 6291, 
  "Beste": 6292, 
  "namens": 6293, 
  "Lohn@@": 6294, 
  "Attraktionen": 6295, 
  "Verteidigungspolitik": 6296, 
  "Branchen": 6297, 
  "Life": 6298, 
  "Motto": 6299, 
  "gesetz": 6300, 
  "Vorfeld": 6301, 
  "home": 6302, 
  "interessieren": 6303, 
  "1,5": 6304, 
  "Bur@@": 6305, 
  "alis@@": 6306, 
  "Vorgaben": 6307, 
  "aufgerufen": 6308, 
  "47": 6309, 
  "voran": 6310, 
  "übermittelt": 6311, 
  "Intervention": 6312, 
  "strenge": 6313, 
  "US@@": 6314, 
  "dig": 6315, 
  "Transfer": 6316, 
  "Kom@@": 6317, 
  "Europol": 6318, 
  "io": 6319, 
  "äl@@": 6320, 
  "zwingen": 6321, 
  "old": 6322, 
  "sub@@": 6323, 
  "Bedienung": 6324, 
  "Moskau": 6325, 
  "Mi@@": 6326, 
  "·": 6327, 
  "zog": 6328, 
  "Nor@@": 6329, 
  "ethnischen": 6330, 
  "Lasten": 6331, 
  "demokratisch": 6332, 
  "ausserdem": 6333, 
  "pi@@": 6334, 
  "endgültig": 6335, 
  "Bezahlung": 6336, 
  "zahlt": 6337, 
  "Prävention": 6338, 
  "marquis": 6339, 
  "keinesfalls": 6340, 
  "ello": 6341, 
  "Designer": 6342, 
  "04": 6343, 
  "angeschlossen": 6344, 
  "ierenden": 6345, 
  "Kat@@": 6346, 
  "Fluggesellschaften": 6347, 
  "Massage": 6348, 
  "Flugzeuge": 6349, 
  "Budapest": 6350, 
  "Ter@@": 6351, 
  "verwöhnen": 6352, 
  "Frühjahr": 6353, 
  "hervor@@": 6354, 
  "ey": 6355, 
  "Lernen": 6356, 
  "Missbrauch": 6357, 
  "Sam@@": 6358, 
  "oh@@": 6359, 
  "registriert": 6360, 
  "Besitzer": 6361, 
  "Plus": 6362, 
  "schlag": 6363, 
  "derartigen": 6364, 
  "örtlichen": 6365, 
  "freundliches": 6366, 
  "Struktur@@": 6367, 
  "beurteilen": 6368, 
  "einhalten": 6369, 
  "eingerichtete": 6370, 
  "fra@@": 6371, 
  "dos": 6372, 
  "lebenden": 6373, 
  "erfolgte": 6374, 
  "DER": 6375, 
  "nbsp": 6376, 
  "tal": 6377, 
  "Mallorca": 6378, 
  "Hügel": 6379, 
  "Optimierung": 6380, 
  "Si@@": 6381, 
  "over": 6382, 
  "alternative": 6383, 
  "gefährlichen": 6384, 
  "übergeben": 6385, 
  "tausend": 6386, 
  "All@@": 6387, 
  "vorhin": 6388, 
  "Hektar": 6389, 
  "ec": 6390, 
  "Lehre": 6391, 
  "erneuerbare": 6392, 
  "enttäuscht": 6393, 
  "fliegen": 6394, 
  "exklusiven": 6395, 
  "line": 6396, 
  "Strasse": 6397, 
  "exklusive": 6398, 
  "Lehren": 6399, 
  "Übereinkommens": 6400, 
  "Transaktionen": 6401, 
  "Höchst@@": 6402, 
  "Regimes": 6403, 
  "Verteidigungs@@": 6404, 
  "Eigenschaft": 6405, 
  "vertrag": 6406, 
  "Katastrophen": 6407, 
  "kritisiert": 6408, 
  "Data": 6409, 
  "mieten": 6410, 
  "Regionalpolitik": 6411, 
  "größerer": 6412, 
  "Gi@@": 6413, 
  "echt": 6414, 
  "realisieren": 6415, 
  "Mat@@": 6416, 
  "inn@@": 6417, 
  "Geb@@": 6418, 
  "haft": 6419, 
  "Ecke": 6420, 
  "fern": 6421, 
  "live": 6422, 
  "ri": 6423, 
  "beiträgt": 6424, 
  "klassische": 6425, 
  "Sach@@": 6426, 
  "irische": 6427, 
  "anstelle": 6428, 
  "Professor": 6429, 
  "Marken@@": 6430, 
  "Dritter": 6431, 
  "Pflege": 6432, 
  "schalten": 6433, 
  "Met@@": 6434, 
  "unerlässlich": 6435, 
  "Dienstleistung": 6436, 
  "gutem": 6437, 
  "Tief@@": 6438, 
  "Besuchern": 6439, 
  "ungsverfahren": 6440, 
  "Tal@@": 6441, 
  "Gewinner": 6442, 
  "unterbreitet": 6443, 
  "loser": 6444, 
  "gn@@": 6445, 
  "negativ": 6446, 
  "gewisser": 6447, 
  "Mel@@": 6448, 
  "bit": 6449, 
  "Gefängnis": 6450, 
  "licht": 6451, 
  "agentur": 6452, 
  "ordnung": 6453, 
  "Bewegungen": 6454, 
  "Subsidiarität": 6455, 
  "ermutigen": 6456, 
  "Touren": 6457, 
  "fiel": 6458, 
  "com@@": 6459, 
  "ausführen": 6460, 
  "beschreiben": 6461, 
  "tar@@": 6462, 
  "erinnere": 6463, 
  "deutscher": 6464, 
  "ement": 6465, 
  "Weltbank": 6466, 
  "band": 6467, 
  "erörtern": 6468, 
  "03@@": 6469, 
  "ierungs@@": 6470, 
  "herstellen": 6471, 
  "entscheidet": 6472, 
  "schn@@": 6473, 
  "solide": 6474, 
  "brechen": 6475, 
  "lohnt": 6476, 
  "fällen": 6477, 
  "Schatten": 6478, 
  "Desktop": 6479, 
  "schrieb": 6480, 
  "Gran": 6481, 
  "Galerie": 6482, 
  "Seen": 6483, 
  "erläutern": 6484, 
  "druck@@": 6485, 
  "falschen": 6486, 
  "Hamas": 6487, 
  "gaben": 6488, 
  "stu@@": 6489, 
  "Urlaubs@@": 6490, 
  "Bade@@": 6491, 
  "schlechten": 6492, 
  "Canon": 6493, 
  "ex": 6494, 
  "vielfältigen": 6495, 
  "Zimmerservice": 6496, 
  "ors": 6497, 
  "Gepäckraum": 6498, 
  "Men@@": 6499, 
  "tin": 6500, 
  "lauf@@": 6501, 
  "Gegenwart": 6502, 
  "Genuss": 6503, 
  "ratifiziert": 6504, 
  "gewünscht": 6505, 
  "He@@": 6506, 
  "internationales": 6507, 
  "gar@@": 6508, 
  "Ufer": 6509, 
  "Betroffenen": 6510, 
  "Anweisungen": 6511, 
  "daneben": 6512, 
  "Zuständigkeiten": 6513, 
  "Wille": 6514, 
  "sor@@": 6515, 
  "Einkommens@@": 6516, 
  "Rand": 6517, 
  "Roh@@": 6518, 
  "Budget": 6519, 
  "ets": 6520, 
  "rechtfertigen": 6521, 
  "leitung": 6522, 
  "A4": 6523, 
  "Gleich@@": 6524, 
  "par": 6525, 
  "Wild@@": 6526, 
  "Mas@@": 6527, 
  "berufliche": 6528, 
  "Waffen@@": 6529, 
  "Aktualisierung": 6530, 
  "grüne": 6531, 
  "v.": 6532, 
  "stes": 6533, 
  "igkeit": 6534, 
  "kritisch": 6535, 
  "Metern": 6536, 
  "Kurse": 6537, 
  "Reaktionen": 6538, 
  "Jo@@": 6539, 
  "ausgelöst": 6540, 
  "Trek": 6541, 
  "Vergnügen": 6542, 
  "ón": 6543, 
  "Mer@@": 6544, 
  "Überarbeitung": 6545, 
  "Stand@@": 6546, 
  "vertrauen": 6547, 
  "staat": 6548, 
  "akzeptabel": 6549, 
  "Tochter": 6550, 
  "ökologische": 6551, 
  "sion@@": 6552, 
  "Patent@@": 6553, 
  "Arbeitsbedingungen": 6554, 
  "arbeits@@": 6555, 
  "Vorsitzender": 6556, 
  "Vermittlung": 6557, 
  "Besch@@": 6558, 
  "Autoren": 6559, 
  "ausschuß": 6560, 
  "gefasst": 6561, 
  "erei": 6562, 
  "erzielten": 6563, 
  "iertes": 6564, 
  "Content": 6565, 
  "Bilanz": 6566, 
  "Schwimmbad": 6567, 
  "Aktien": 6568, 
  "AS": 6569, 
  "sektors": 6570, 
  "Vereinigung": 6571, 
  "Arzneimittel": 6572, 
  "unzureichend": 6573, 
  "klären": 6574, 
  "wenigstens": 6575, 
  "ative": 6576, 
  "Hotelsafe": 6577, 
  "riesige": 6578, 
  "geholfen": 6579, 
  "Bewertungen": 6580, 
  "Sti@@": 6581, 
  "schützt": 6582, 
  "grundlegender": 6583, 
  "Fi@@": 6584, 
  "glaubt": 6585, 
  "vorn": 6586, 
  "erläutert": 6587, 
  "Palästinenser": 6588, 
  "Wachstums@@": 6589, 
  "Tempo": 6590, 
  "Arzt": 6591, 
  "Digital": 6592, 
  "J": 6593, 
  "lehnen": 6594, 
  "Empfänger": 6595, 
  "Tickets": 6596, 
  "japanischen": 6597, 
  "starkes": 6598, 
  "ese": 6599, 
  "ade": 6600, 
  "bevorstehenden": 6601, 
  "teten": 6602, 
  "Ban@@": 6603, 
  "Realisierung": 6604, 
  "umgekehrt": 6605, 
  "größe": 6606, 
  "Feuer@@": 6607, 
  "hab@@": 6608, 
  "Zufriedenheit": 6609, 
  "Israels": 6610, 
  "Betriebssystem": 6611, 
  "Bri@@": 6612, 
  "aren": 6613, 
  "asi@@": 6614, 
  "ignoriert": 6615, 
  "weißen": 6616, 
  "üblich": 6617, 
  "some": 6618, 
  "stre@@": 6619, 
  "Herberge": 6620, 
  "sal@@": 6621, 
  "geln": 6622, 
  "ehe": 6623, 
  "Renn@@": 6624, 
  "Euro@@": 6625, 
  "Pres@@": 6626, 
  "ehr@@": 6627, 
  "irgendwelche": 6628, 
  "gegenseitige": 6629, 
  "verwaltet": 6630, 
  "Strand@@": 6631, 
  "Gipfels": 6632, 
  "Kopf@@": 6633, 
  "Heimatland": 6634, 
  "Event": 6635, 
  "Rund@@": 6636, 
  "Pa@@": 6637, 
  "setzung": 6638, 
  "Bon@@": 6639, 
  "aum": 6640, 
  "mündlichen": 6641, 
  "Garten@@": 6642, 
  "Anregungen": 6643, 
  "Tragödie": 6644, 
  "Verantwortlichen": 6645, 
  "erworben": 6646, 
  "inger": 6647, 
  "Armen": 6648, 
  "Fußball@@": 6649, 
  "wal@@": 6650, 
  "Café": 6651, 
  "eingebunden": 6652, 
  "54": 6653, 
  "verständlich": 6654, 
  "Anreise": 6655, 
  "Reich": 6656, 
  "ach": 6657, 
  "Abstand": 6658, 
  "Verträgen": 6659, 
  "Rande": 6660, 
  "Ministerrat": 6661, 
  "frisch": 6662, 
  "code": 6663, 
  "Resolution": 6664, 
  "handel": 6665, 
  "bedenken": 6666, 
  "gewiss": 6667, 
  "nutzbar": 6668, 
  "My@@": 6669, 
  "Gesprächen": 6670, 
  "teilgenommen": 6671, 
  "hen": 6672, 
  "Las": 6673, 
  "nötigen": 6674, 
  "Gewerkschaften": 6675, 
  "bekräftigt": 6676, 
  "ungst@@": 6677, 
  "ay@@": 6678, 
  "Log@@": 6679, 
  "Anhang": 6680, 
  "James": 6681, 
  "Beruf": 6682, 
  "Miet@@": 6683, 
  "het": 6684, 
  "Abschluß": 6685, 
  "sta@@": 6686, 
  "wür@@": 6687, 
  "Amtszeit": 6688, 
  "back": 6689, 
  "Eine": 6690, 
  "Lebensmitteln": 6691, 
  "Tschechischen": 6692, 
  "stecken": 6693, 
  "Erkenntnisse": 6694, 
  "fahrten": 6695, 
  "einzigartig": 6696, 
  "begeistert": 6697, 
  "basierend": 6698, 
  "reine": 6699, 
  "haltung": 6700, 
  "heim": 6701, 
  "ältesten": 6702, 
  "Foto@@": 6703, 
  "überwiegend": 6704, 
  "idealen": 6705, 
  "Sowjetunion": 6706, 
  "been": 6707, 
  "Lebensqualität": 6708, 
  "teils": 6709, 
  "della": 6710, 
  "Weiterbildung": 6711, 
  "pr@@": 6712, 
  "Übersetzungen": 6713, 
  "dige": 6714, 
  "intensive": 6715, 
  "Libanon": 6716, 
  "märkte": 6717, 
  "idealer": 6718, 
  "small": 6719, 
  "Effekte": 6720, 
  "ite": 6721, 
  "name": 6722, 
  "Wachstums": 6723, 
  "Ti@@": 6724, 
  "Archiv": 6725, 
  "Karten@@": 6726, 
  "ton@@": 6727, 
  "Playa": 6728, 
  "Governance": 6729, 
  "gemeinschaft": 6730, 
  "analysieren": 6731, 
  "angeben": 6732, 
  "bild@@": 6733, 
  "ziel@@": 6734, 
  "vierten": 6735, 
  "Unterdrückung": 6736, 
  "ologische": 6737, 
  "flächen": 6738, 
  "lung": 6739, 
  "kern": 6740, 
  "Diese": 6741, 
  "200@@": 6742, 
  "Studien@@": 6743, 
  "AC@@": 6744, 
  "wozu": 6745, 
  "Free": 6746, 
  "jeweilige": 6747, 
  "berichte": 6748, 
  "beträchtliche": 6749, 
  "Litauen": 6750, 
  "sicherer": 6751, 
  "wirft": 6752, 
  "Speicher@@": 6753, 
  "ließen": 6754, 
  "Ein-": 6755, 
  "BMW": 6756, 
  "geführten": 6757, 
  "ali@@": 6758, 
  "Ost": 6759, 
  "Mittelmeerraum": 6760, 
  "Erzeuger": 6761, 
  "Investition": 6762, 
  "Wartung": 6763, 
  "Chi@@": 6764, 
  "Straf@@": 6765, 
  "sport": 6766, 
  "getreten": 6767, 
  "iten": 6768, 
  "wofür": 6769, 
  "einzelner": 6770, 
  "XP": 6771, 
  "Temperatur": 6772, 
  "72": 6773, 
  "vorkommen": 6774, 
  "Heiligen": 6775, 
  "sten@@": 6776, 
  "Corporate": 6777, 
  "Referenz@@": 6778, 
  "zunehmen": 6779, 
  "einziges": 6780, 
  "Arbeiter": 6781, 
  "Islam": 6782, 
  "gesunden": 6783, 
  "kompatibel": 6784, 
  "gemessen": 6785, 
  "ausschusses": 6786, 
  "Lin@@": 6787, 
  "Gro@@": 6788, 
  "Mini": 6789, 
  "Lobby": 6790, 
  "Finanzmärkte": 6791, 
  "ó": 6792, 
  "Aufforderung": 6793, 
  "su": 6794, 
  "Kathedrale": 6795, 
  "56": 6796, 
  "tenden": 6797, 
  "Dach": 6798, 
  "Einzelnen": 6799, 
  "lichkeiten": 6800, 
  "place": 6801, 
  "Kam@@": 6802, 
  "Party": 6803, 
  "Verk@@": 6804, 
  "zumal": 6805, 
  "eingerichteten": 6806, 
  "längst": 6807, 
  "ena": 6808, 
  "Rahmenprogramm": 6809, 
  "ling": 6810, 
  "orientiert": 6811, 
  "B5": 6812, 
  "tal@@": 6813, 
  "deutsch": 6814, 
  "Ausstellungen": 6815, 
  "mitgeteilt": 6816, 
  "habt": 6817, 
  "ernste": 6818, 
  "gesellschaftliche": 6819, 
  "kn@@": 6820, 
  "kompletten": 6821, 
  "Taste": 6822, 
  "AM@@": 6823, 
  "enorm": 6824, 
  "Pri@@": 6825, 
  "Instrumenten": 6826, 
  "Lang@@": 6827, 
  "Mazedonien": 6828, 
  "ati": 6829, 
  "blicken": 6830, 
  ",00": 6831, 
  "faire": 6832, 
  "zurückkehren": 6833, 
  "ban@@": 6834, 
  "Süd": 6835, 
  "Cam@@": 6836, 
  "übersetzt": 6837, 
  "vol@@": 6838, 
  "Wiener": 6839, 
  "Trends": 6840, 
  "suche": 6841, 
  "Einwohnern": 6842, 
  "einzubeziehen": 6843, 
  "than": 6844, 
  "einheit": 6845, 
  "Rahmen@@": 6846, 
  "Dem@@": 6847, 
  "jährliche": 6848, 
  "EM@@": 6849, 
  "IV": 6850, 
  "konferenz": 6851, 
  "Einschränkung": 6852, 
  "Feld@@": 6853, 
  "SCH@@": 6854, 
  "gefällt": 6855, 
  "zwanzig": 6856, 
  "Finanzmittel": 6857, 
  "Malta": 6858, 
  "deinen": 6859, 
  "other": 6860, 
  "ff": 6861, 
  "Gerichtshofs": 6862, 
  "Cas@@": 6863, 
  "Instruments": 6864, 
  "Flug": 6865, 
  "einzuhalten": 6866, 
  "Tee": 6867, 
  "ol": 6868, 
  "verschiedensten": 6869, 
  "Fehl@@": 6870, 
  "niederländischen": 6871, 
  "vereinfachen": 6872, 
  "Analysen": 6873, 
  "Maastricht": 6874, 
  "zuverlässig": 6875, 
  "Brand@@": 6876, 
  "beider": 6877, 
  "klarer": 6878, 
  "Haushaltsplans": 6879, 
  "gener@@": 6880, 
  "aufweisen": 6881, 
  "Jahrzehnte": 6882, 
  "teren": 6883, 
  "neueste": 6884, 
  "längere": 6885, 
  "kommerzielle": 6886, 
  "verglichen": 6887, 
  "seiten": 6888, 
  "gebühr": 6889, 
  "nen@@": 6890, 
  "Del@@": 6891, 
  "Schulden@@": 6892, 
  "gewöhnlich": 6893, 
  "Fil@@": 6894, 
  "e.@@": 6895, 
  "gegenseitig": 6896, 
  "harte": 6897, 
  "bedauerlicherweise": 6898, 
  "strasse": 6899, 
  "Konsultation": 6900, 
  "Ratsvorsitzes": 6901, 
  "Verkäufer": 6902, 
  "esp@@": 6903, 
  "zukünftig": 6904, 
  "у@@": 6905, 
  "ker@@": 6906, 
  "überlegen": 6907, 
  "Rock": 6908, 
  "theit": 6909, 
  "ci": 6910, 
  "komplex": 6911, 
  "tion": 6912, 
  "cu@@": 6913, 
  "Kr@@": 6914, 
  "Ausfahrt": 6915, 
  "genehmigt": 6916, 
  "nennt": 6917, 
  "vorherige": 6918, 
  "gefangen": 6919, 
  "felder": 6920, 
  "first": 6921, 
  "Dienstleistungs@@": 6922, 
  "letztes": 6923, 
  "unteren": 6924, 
  "Geschenk": 6925, 
  "mündliche": 6926, 
  "denselben": 6927, 
  "Tel": 6928, 
  "fall@@": 6929, 
  "site": 6930, 
  "schnelles": 6931, 
  "Dreh@@": 6932, 
  "Sozialdemokraten": 6933, 
  "vielfältige": 6934, 
  "unterhalten": 6935, 
  "Panorama": 6936, 
  "Anhänger": 6937, 
  "Can@@": 6938, 
  "vorherigen": 6939, 
  "Weiter@@": 6940, 
  "day": 6941, 
  "lt": 6942, 
  "Flotte": 6943, 
  "Scheitern": 6944, 
  "verkauf": 6945, 
  "Master": 6946, 
  "Temperaturen": 6947, 
  "elemente": 6948, 
  "gäbe": 6949, 
  "Verfassungs@@": 6950, 
  "ausgewogenen": 6951, 
  "Inhaber": 6952, 
  "untergraben": 6953, 
  "iPhone": 6954, 
  "ées": 6955, 
  "VER@@": 6956, 
  "Heil@@": 6957, 
  "gekauft": 6958, 
  "reale": 6959, 
  "Halbinsel": 6960, 
  "bekanntesten": 6961, 
  "wasser": 6962, 
  "nde": 6963, 
  "engagiert": 6964, 
  "bil@@": 6965, 
  "Taiwan": 6966, 
  "Absichten": 6967, 
  "niedriger": 6968, 
  "länder": 6969, 
  "Ursprung": 6970, 
  "zielen": 6971, 
  "Back@@": 6972, 
  "ita": 6973, 
  "Swimmingpool": 6974, 
  "Wie": 6975, 
  "Entwicklungszusammenarbeit": 6976, 
  "Sitz@@": 6977, 
  "Partner@@": 6978, 
  "Auslegung": 6979, 
  "qualifizierte": 6980, 
  "Fahrzeug@@": 6981, 
  "ökonomischen": 6982, 
  "Montage": 6983, 
  "Führungs@@": 6984, 
  "Berater": 6985, 
  "effektiver": 6986, 
  "Stahl": 6987, 
  "Virus": 6988, 
  "Ha@@": 6989, 
  "Box": 6990, 
  "Bit": 6991, 
  "analyse": 6992, 
  "Ball@@": 6993, 
  "Ni@@": 6994, 
  "vierte": 6995, 
  "Ernährung": 6996, 
  "Flüge": 6997, 
  "steuer": 6998, 
  "vorsichtig": 6999, 
  "basierte": 7000, 
  "verehrten": 7001, 
  "begangen": 7002, 
  "sämtlichen": 7003, 
  "wert@@": 7004, 
  "Regel@@": 7005, 
  "durchgeführten": 7006, 
  "Palästina": 7007, 
  "©": 7008, 
  "Mobile": 7009, 
  "leidet": 7010, 
  "versetzt": 7011, 
  "Verstärkung": 7012, 
  "Termin@@": 7013, 
  "ez": 7014, 
  "tiv@@": 7015, 
  "kultur": 7016, 
  "auswärtige": 7017, 
  "amtierender": 7018, 
  "IC@@": 7019, 
  "tn@@": 7020, 
  "frischen": 7021, 
  "Verhältnisse": 7022, 
  "verhandeln": 7023, 
  "Befehl": 7024, 
  "Partnerschaften": 7025, 
  "beeinträchtigt": 7026, 
  "Marktwirtschaft": 7027, 
  "UND": 7028, 
  "Vizepräsident": 7029, 
  "Geschäftsbedingungen": 7030, 
  "cht@@": 7031, 
  "Bedingung": 7032, 
  "asse": 7033, 
  "beseitigt": 7034, 
  "Eigentümer": 7035, 
  "luxuriöse": 7036, 
  "gleicher": 7037, 
  "Sand": 7038, 
  "Maschinen@@": 7039, 
  "Leidenschaft": 7040, 
  "durchsetzen": 7041, 
  "schlage": 7042, 
  "Frauen@@": 7043, 
  "Konjunktur@@": 7044, 
  "Berichterstattern": 7045, 
  "les@@": 7046, 
  "bank": 7047, 
  "position": 7048, 
  "ungarischen": 7049, 
  "Entstehung": 7050, 
  "Komplettpreise": 7051, 
  "abkommen": 7052, 
  "Front": 7053, 
  "center": 7054, 
  "rasche": 7055, 
  "ausgelegt": 7056, 
  "Jugoslawien": 7057, 
  "Servic@@": 7058, 
  "aufgehoben": 7059, 
  "gl@@": 7060, 
  "äußerster": 7061, 
  "verbindung": 7062, 
  "Implementierung": 7063, 
  "schaden": 7064, 
  "angehen": 7065, 
  "gesunde": 7066, 
  "Quoten": 7067, 
  "Mehrwertsteuer": 7068, 
  "Nacht@@": 7069, 
  "Diensten": 7070, 
  "ün@@": 7071, 
  "Feuer": 7072, 
  "strengen": 7073, 
  "führender": 7074, 
  "Wikitravel": 7075, 
  "bedingt": 7076, 
  "Fang@@": 7077, 
  "Dienstag": 7078, 
  "amerikanischer": 7079, 
  "zahlreicher": 7080, 
  "Mode": 7081, 
  "ot": 7082, 
  "befürworte": 7083, 
  "Leit@@": 7084, 
  "iens": 7085, 
  "could": 7086, 
  "unterliegt": 7087, 
  "Hans": 7088, 
  "traditionell": 7089, 
  "Piazza": 7090, 
  "friedlichen": 7091, 
  "fähigen": 7092, 
  "schlechter": 7093, 
  "ations": 7094, 
  "Internetseite": 7095, 
  "Kanal": 7096, 
  "Slowenien": 7097, 
  "Versicherungs@@": 7098, 
  "lungen": 7099, 
  "SAP": 7100, 
  "Index": 7101, 
  "südlich": 7102, 
  "Vorsitzende": 7103, 
  "freiheit": 7104, 
  "klasse": 7105, 
  "beg@@": 7106, 
  "Fragestunde": 7107, 
  "Bro@@": 7108, 
  "errichten": 7109, 
  "stärkeren": 7110, 
  "ga": 7111, 
  "Wenn": 7112, 
  "53": 7113, 
  "finanziell": 7114, 
  "aufeinander": 7115, 
  "Gelände": 7116, 
  "American": 7117, 
  "abzielen": 7118, 
  "ve@@": 7119, 
  "tik@@": 7120, 
  "Perspektiven": 7121, 
  "gebilligt": 7122, 
  "behörde": 7123, 
  "niedrig": 7124, 
  "Hal@@": 7125, 
  "nützliche": 7126, 
  "zahlungen": 7127, 
  "herzlichen": 7128, 
  "Industri@@": 7129, 
  "mt": 7130, 
  "д@@": 7131, 
  "Award": 7132, 
  "Kohärenz": 7133, 
  "pe@@": 7134, 
  "Ausgang": 7135, 
  "kosten@@": 7136, 
  "konzept": 7137, 
  "Gewinn@@": 7138, 
  "gewählte": 7139, 
  "verleiht": 7140, 
  "natur@@": 7141, 
  "ßen": 7142, 
  "diensten": 7143, 
  "wenngleich": 7144, 
  "10.@@": 7145, 
  "worauf": 7146, 
  "lichste": 7147, 
  "Brief": 7148, 
  "uss@@": 7149, 
  "Features": 7150, 
  "Design@@": 7151, 
  "schi@@": 7152, 
  "Koordination": 7153, 
  "yn@@": 7154, 
  "Genf": 7155, 
  "Beendigung": 7156, 
  "einmalige": 7157, 
  "Park@@": 7158, 
  "Variante": 7159, 
  "liegende": 7160, 
  "zusammenzuarbeiten": 7161, 
  "Fu@@": 7162, 
  "angebote": 7163, 
  "Gesetzes": 7164, 
  "tel": 7165, 
  "projekten": 7166, 
  "diverse": 7167, 
  "geteilt": 7168, 
  "Fin@@": 7169, 
  "kommende": 7170, 
  "regelmäßigen": 7171, 
  "Apple": 7172, 
  "Textes": 7173, 
  "Aufwand": 7174, 
  "Beobachter": 7175, 
  "Ton": 7176, 
  "toren": 7177, 
  "Einheiten": 7178, 
  "glücklich": 7179, 
  "sc@@": 7180, 
  "s.": 7181, 
  "belegt": 7182, 
  "Whirlpool": 7183, 
  "ju@@": 7184, 
  "Kredite": 7185, 
  "dischen": 7186, 
  "Dir": 7187, 
  "ME@@": 7188, 
  "Papier@@": 7189, 
  "bern": 7190, 
  "möglichkeit": 7191, 
  "einzurichten": 7192, 
  "verschieben": 7193, 
  "erb@@": 7194, 
  "tlichen": 7195, 
  "way": 7196, 
  "malerischen": 7197, 
  "stieg": 7198, 
  "50@@": 7199, 
  "Besonderheiten": 7200, 
  "Gol@@": 7201, 
  "MP3": 7202, 
  "Opfern": 7203, 
  "Rio": 7204, 
  "droht": 7205, 
  "startet": 7206, 
  "schwerer": 7207, 
  "Tourismus@@": 7208, 
  "IA": 7209, 
  "Schiff@@": 7210, 
  "seh@@": 7211, 
  "ni": 7212, 
  "Material@@": 7213, 
  "wünscht": 7214, 
  "chambres": 7215, 
  "Ankündigung": 7216, 
  "portugiesischen": 7217, 
  "Spuren": 7218, 
  "Ereignissen": 7219, 
  "hört": 7220, 
  "zerstören": 7221, 
  "berühmt": 7222, 
  "einzelstaatlichen": 7223, 
  "beliebten": 7224, 
  "aj@@": 7225, 
  "fenster": 7226, 
  "besticht": 7227, 
  "irgendeiner": 7228, 
  "personenbezogenen": 7229, 
  "standards": 7230, 
  "gerufen": 7231, 
  "ländern": 7232, 
  "effektiven": 7233, 
  "paket": 7234, 
  "eingereichten": 7235, 
  "Gegenstände": 7236, 
  "Grafiken": 7237, 
  "Architekten": 7238, 
  "UNESCO": 7239, 
  "tive": 7240, 
  "Aussichten": 7241, 
  "Administration": 7242, 
  "klares": 7243, 
  "größtenteils": 7244, 
  "Stein": 7245, 
  "auszuüben": 7246, 
  "Gelegenheiten": 7247, 
  "daraufhin": 7248, 
  "kre@@": 7249, 
  "PSE": 7250, 
  "morgens": 7251, 
  "Ap@@": 7252, 
  "landwirtschaftliche": 7253, 
  "ignorieren": 7254, 
  "quelle": 7255, 
  "biologischen": 7256, 
  "Speicher": 7257, 
  "besetzt": 7258, 
  "sach@@": 7259, 
  "nördlichen": 7260, 
  "ausführliche": 7261, 
  "Werk@@": 7262, 
  "Mailand": 7263, 
  "Vista": 7264, 
  "fälle": 7265, 
  "benannt": 7266, 
  "halb@@": 7267, 
  "night": 7268, 
  "All": 7269, 
  "musik": 7270, 
  "Augen@@": 7271, 
  "Auseinandersetzung": 7272, 
  "türkische": 7273, 
  "Reihenfolge": 7274, 
  "sions@@": 7275, 
  "los@@": 7276, 
  "ther@@": 7277, 
  "verstoßen": 7278, 
  "Board": 7279, 
  "breites": 7280, 
  "esse": 7281, 
  "verankert": 7282, 
  "Tipps": 7283, 
  "wünschenswert": 7284, 
  "normal": 7285, 
  "eignen": 7286, 
  "Elementen": 7287, 
  "Eintritt": 7288, 
  "Schnell@@": 7289, 
  "Verzögerungen": 7290, 
  "Szene": 7291, 
  "linge": 7292, 
  "Stadtteil": 7293, 
  "unterhalb": 7294, 
  "Wissens@@": 7295, 
  "Kommissare": 7296, 
  "verliert": 7297, 
  "konstruktiven": 7298, 
  "stoßen": 7299, 
  "Tu@@": 7300, 
  "Zinsen": 7301, 
  "Neue": 7302, 
  "Vorbereitungen": 7303, 
  "wendet": 7304, 
  "analysiert": 7305, 
  "aufrechterhalten": 7306, 
  "Entschließungen": 7307, 
  "UNG": 7308, 
  "Main": 7309, 
  "Segel@@": 7310, 
  "itt@@": 7311, 
  "langjährige": 7312, 
  "Dek@@": 7313, 
  "agen": 7314, 
  "Verzögerung": 7315, 
  "unge@@": 7316, 
  "kurse": 7317, 
  "Krisen@@": 7318, 
  "Sorgfalt": 7319, 
  "Mit": 7320, 
  "Datenbanken": 7321, 
  "Kreis": 7322, 
  "gelang": 7323, 
  "fügt": 7324, 
  "pen@@": 7325, 
  "stra@@": 7326, 
  "finanzieller": 7327, 
  "mehrmals": 7328, 
  "gend": 7329, 
  "stabile": 7330, 
  "griechische": 7331, 
  "diger": 7332, 
  "müsse": 7333, 
  "gerechten": 7334, 
  "Max": 7335, 
  "staatlicher": 7336, 
  "ermitteln": 7337, 
  "stücke": 7338, 
  "Legitimität": 7339, 
  "ola": 7340, 
  "anbietet": 7341, 
  "beliebt": 7342, 
  "auseinander": 7343, 
  "fach": 7344, 
  "Juden": 7345, 
  "Ski": 7346, 
  "my@@": 7347, 
  "warmen": 7348, 
  "baut": 7349, 
  "two": 7350, 
  "mü@@": 7351, 
  "verbindungen": 7352, 
  "ari": 7353, 
  "steigenden": 7354, 
  "Beweise": 7355, 
  "bedauern": 7356, 
  "junger": 7357, 
  "most": 7358, 
  "fehlende": 7359, 
  "Organen": 7360, 
  "lat@@": 7361, 
  "Treiber": 7362, 
  "kurs": 7363, 
  "etes": 7364, 
  "Mach@@": 7365, 
  "außergewöhnliche": 7366, 
  "enheit": 7367, 
  "Aktien@@": 7368, 
  "Dor@@": 7369, 
  "gender": 7370, 
  "bereitzustellen": 7371, 
  "iers": 7372, 
  "assen": 7373, 
  "Ren@@": 7374, 
  "Aufruf": 7375, 
  "Green": 7376, 
  "Kommissionsvorschlag": 7377, 
  "Dich": 7378, 
  "Blut": 7379, 
  "Formel": 7380, 
  "Zivil@@": 7381, 
  "ole": 7382, 
  "their": 7383, 
  "Fi": 7384, 
  "Hör@@": 7385, 
  "Tendenz": 7386, 
  "Waren@@": 7387, 
  "begreifen": 7388, 
  "machten": 7389, 
  "verschoben": 7390, 
  "Konflikts": 7391, 
  "Datenschutz@@": 7392, 
  "Start@@": 7393, 
  "steckt": 7394, 
  "Real": 7395, 
  "multi@@": 7396, 
  "streben": 7397, 
  "wenigsten": 7398, 
  "mehrerer": 7399, 
  "tigt": 7400, 
  "EVP": 7401, 
  "Arbeitsweise": 7402, 
  "entworfen": 7403, 
  "Sar@@": 7404, 
  "unmittelbaren": 7405, 
  "Tatsachen": 7406, 
  "gewachsen": 7407, 
  "Fehlen": 7408, 
  "dis@@": 7409, 
  "Integrität": 7410, 
  "Eintrag": 7411, 
  "pu@@": 7412, 
  "dauerhafte": 7413, 
  "listen": 7414, 
  "Reichtum": 7415, 
  "Les@@": 7416, 
  "Golfplatz": 7417, 
  "Kluft": 7418, 
  "umfassendes": 7419, 
  "Randlage": 7420, 
  "Effektivität": 7421, 
  "kr@@": 7422, 
  "7.@@": 7423, 
  "unterstreicht": 7424, 
  "Christen": 7425, 
  "Wahrscheinlichkeit": 7426, 
  "Lager@@": 7427, 
  "belgischen": 7428, 
  "Hau@@": 7429, 
  "angehören": 7430, 
  "genauen": 7431, 
  "vorne": 7432, 
  "Freien": 7433, 
  "Begriffe": 7434, 
  "gesucht": 7435, 
  "zutiefst": 7436, 
  "Ne@@": 7437, 
  "art@@": 7438, 
  "C.": 7439, 
  "getestet": 7440, 
  "tolle": 7441, 
  "Visa": 7442, 
  "Trennung": 7443, 
  "bestellt": 7444, 
  "wunderbare": 7445, 
  "Logo": 7446, 
  "besseres": 7447, 
  "RA@@": 7448, 
  "volles": 7449, 
  "parlamentarische": 7450, 
  "unweit": 7451, 
  "dienst@@": 7452, 
  "ID@@": 7453, 
  "AB@@": 7454, 
  "Haup@@": 7455, 
  "Weißbuch": 7456, 
  "verknüpft": 7457, 
  "Aufträge": 7458, 
  "Km": 7459, 
  "Neues": 7460, 
  "Nahrungsmittel@@": 7461, 
  "friedliche": 7462, 
  "inwieweit": 7463, 
  "süd@@": 7464, 
  "Gastfreundschaft": 7465, 
  "kopieren": 7466, 
  "Kopie": 7467, 
  "asiatischen": 7468, 
  "Bay": 7469, 
  "58": 7470, 
  "Politik@@": 7471, 
  "geschlossenen": 7472, 
  "geschätzt": 7473, 
  "Erst@@": 7474, 
  "schöner": 7475, 
  "Menschen@@": 7476, 
  "Argentinien": 7477, 
  "hän@@": 7478, 
  "umzu@@": 7479, 
  "versorgung": 7480, 
  "Wechsel": 7481, 
  "frühere": 7482, 
  "bedeutendsten": 7483, 
  "Spar@@": 7484, 
  "unvergesslichen": 7485, 
  "Stabilitäts-": 7486, 
  "Energieversorgung": 7487, 
  "wa@@": 7488, 
  "Salzburg": 7489, 
  "Zubehör": 7490, 
  "Gesellschafts@@": 7491, 
  "vorhandene": 7492, 
  "gefolgt": 7493, 
  "Vorbild": 7494, 
  "Defizite": 7495, 
  "denden": 7496, 
  "6.@@": 7497, 
  "ausgestatteten": 7498, 
  "cker": 7499, 
  "gewann": 7500, 
  "bereitstellen": 7501, 
  "Ausgleich": 7502, 
  "57": 7503, 
  "Ersatz": 7504, 
  "zes": 7505, 
  "Erd@@": 7506, 
  "TE": 7507, 
  "erungen": 7508, 
  "Taxi": 7509, 
  "korrigieren": 7510, 
  "Leid": 7511, 
  "TR@@": 7512, 
  "frische": 7513, 
  "Bil@@": 7514, 
  "info": 7515, 
  "Cap@@": 7516, 
  "erschienen": 7517, 
  "eit": 7518, 
  "met@@": 7519, 
  "Stuttgart": 7520, 
  "Menschenhandel": 7521, 
  "id": 7522, 
  "übrig": 7523, 
  "zweimal": 7524, 
  "Inneres": 7525, 
  "Dienst@@": 7526, 
  "üben": 7527, 
  "erh@@": 7528, 
  "Nationalpark": 7529, 
  "viertel": 7530, 
  "müßte": 7531, 
  "Tunesien": 7532, 
  "Vorwand": 7533, 
  "beitreten": 7534, 
  "pa@@": 7535, 
  "Denken": 7536, 
  "verfasst": 7537, 
  "standard": 7538, 
  "erweiterte": 7539, 
  "Jahresbericht": 7540, 
  "92": 7541, 
  "qui": 7542, 
  "Parks": 7543, 
  "Mauer": 7544, 
  "Zwecken": 7545, 
  "optimalen": 7546, 
  "Geschlechter": 7547, 
  "best": 7548, 
  "har@@": 7549, 
  "Zugangs": 7550, 
  "buch@@": 7551, 
  "Ra@@": 7552, 
  "Spielraum": 7553, 
  "ay": 7554, 
  "Innovations@@": 7555, 
  "minutes": 7556, 
  "Bra@@": 7557, 
  "dei": 7558, 
  "Ostsee": 7559, 
  "Voraus": 7560, 
  "Vermeidung": 7561, 
  "zwangsläufig": 7562, 
  "wahl": 7563, 
  "geklärt": 7564, 
  "Thailand": 7565, 
  "Zulassung": 7566, 
  "enti@@": 7567, 
  "religiöse": 7568, 
  "ausgaben": 7569, 
  "runden": 7570, 
  "reservieren": 7571, 
  "korrekte": 7572, 
  "kul@@": 7573, 
  "reich@@": 7574, 
  "gs@@": 7575, 
  "legung": 7576, 
  "regelmäßige": 7577, 
  "gehörte": 7578, 
  "Pack": 7579, 
  "materialien": 7580, 
  "Captain": 7581, 
  "Leistungsfähigkeit": 7582, 
  "Hol@@": 7583, 
  "aktionen": 7584, 
  "Zusammenbruch": 7585, 
  "Grün@@": 7586, 
  "durchgesetzt": 7587, 
  "Bonus": 7588, 
  "tis": 7589, 
  "Sortiment": 7590, 
  "glücklicherweise": 7591, 
  "untereinander": 7592, 
  "Übersetzungs@@": 7593, 
  "Vo@@": 7594, 
  "industrielle": 7595, 
  "methode": 7596, 
  "AIDS": 7597, 
  "11.@@": 7598, 
  "Territorium": 7599, 
  "geltend": 7600, 
  "Bor@@": 7601, 
  "Verein": 7602, 
  "ía": 7603, 
  "ç@@": 7604, 
  "gebäude": 7605, 
  "lauf": 7606, 
  "ausgebaut": 7607, 
  "sion": 7608, 
  "Wand@@": 7609, 
  "Kirk": 7610, 
  "ders": 7611, 
  "Neuigkeiten": 7612, 
  "Fertigung": 7613, 
  "Christdemokraten": 7614, 
  "qualifizierten": 7615, 
  "inner@@": 7616, 
  "fühlt": 7617, 
  "Versand": 7618, 
  "900": 7619, 
  "PS": 7620, 
  "59": 7621, 
  "Kommentar": 7622, 
  "chemischen": 7623, 
  "CS": 7624, 
  "Standpunkte": 7625, 
  "technologie": 7626, 
  "Tel@@": 7627, 
  "Wurzeln": 7628, 
  "automatischen": 7629, 
  "anmelden": 7630, 
  "Libyen": 7631, 
  "islamischen": 7632, 
  "Charles": 7633, 
  "Stimmung": 7634, 
  "auer": 7635, 
  "leichten": 7636, 
  "isiert": 7637, 
  "dauerhaft": 7638, 
  "genügt": 7639, 
  "Fre@@": 7640, 
  "Release": 7641, 
  "HD": 7642, 
  "tägliche": 7643, 
  "cke": 7644, 
  "Kn@@": 7645, 
  "Ganzes": 7646, 
  "gesorgt": 7647, 
  "Swiss": 7648, 
  "Komponente": 7649, 
  "easy": 7650, 
  "Abfälle": 7651, 
  "veröffentlichten": 7652, 
  "werk@@": 7653, 
  "rit@@": 7654, 
  "Netzes": 7655, 
  "anz": 7656, 
  "ausgewogene": 7657, 
  "vorangegangenen": 7658, 
  "mi": 7659, 
  "Frankreichs": 7660, 
  "Reserve": 7661, 
  "Vorredner": 7662, 
  "ron@@": 7663, 
  "leitet": 7664, 
  "Fitness": 7665, 
  "Fußball": 7666, 
  "allmählich": 7667, 
  "sozusagen": 7668, 
  "Wohlbefinden": 7669, 
  "großartige": 7670, 
  "Kaiser": 7671, 
  "sz@@": 7672, 
  "belegen": 7673, 
  "server": 7674, 
  "systematisch": 7675, 
  "Spanisch": 7676, 
  "leiter": 7677, 
  "í": 7678, 
  "Pre@@": 7679, 
  "off": 7680, 
  "Kooperations@@": 7681, 
  "erschien": 7682, 
  "AL": 7683, 
  "greift": 7684, 
  "Level": 7685, 
  "Albanien": 7686, 
  "denkt": 7687, 
  "bezogene": 7688, 
  "finanzierung": 7689, 
  "Präsidium": 7690, 
  "Gaza": 7691, 
  "bemerken": 7692, 
  "GB": 7693, 
  "Statistik": 7694, 
  "Anzeichen": 7695, 
  "mechanismus": 7696, 
  "Simbabwe": 7697, 
  "CDs": 7698, 
  "demnach": 7699, 
  "Zielsetzung": 7700, 
  "Arbeitskräfte": 7701, 
  "kompliziert": 7702, 
  "Konzert": 7703, 
  "schwarzen": 7704, 
  "fein@@": 7705, 
  "welt@@": 7706, 
  "bach": 7707, 
  "Flu@@": 7708, 
  "endem": 7709, 
  "erter": 7710, 
  "Grundfreiheiten": 7711, 
  "vorrangig": 7712, 
  "vi": 7713, 
  "Rahmens": 7714, 
  "Informationsgesellschaft": 7715, 
  "Berechnung": 7716, 
  "Alexander": 7717, 
  "gegebenen": 7718, 
  "hinzuweisen": 7719, 
  "Gemüse": 7720, 
  "assi@@": 7721, 
  "Casa": 7722, 
  "anderswo": 7723, 
  "lag@@": 7724, 
  "Res@@": 7725, 
  "weitergegeben": 7726, 
  "å@@": 7727, 
  "As@@": 7728, 
  "indirekt": 7729, 
  "Hilfen": 7730, 
  "rin@@": 7731, 
  "pos@@": 7732, 
  "schieben": 7733, 
  "weitem": 7734, 
  "Ernennung": 7735, 
  "besichtigen": 7736, 
  "werken": 7737, 
  "CHF": 7738, 
  "entes": 7739, 
  "chs": 7740, 
  "passenden": 7741, 
  "zulässig": 7742, 
  "haftet": 7743, 
  "gültigen": 7744, 
  "Geschichten": 7745, 
  "empf@@": 7746, 
  "ly": 7747, 
  "Festung": 7748, 
  "verbieten": 7749, 
  "Fuss": 7750, 
  "therapie": 7751, 
  "t-": 7752, 
  "einheiten": 7753, 
  "Tre@@": 7754, 
  "Busse": 7755, 
  "wen@@": 7756, 
  "eien": 7757, 
  "überdies": 7758, 
  "vielfach": 7759, 
  "Col@@": 7760, 
  "mach@@": 7761, 
  "herunter": 7762, 
  "stellten": 7763, 
  "fertigen": 7764, 
  "saubere": 7765, 
  "ausgedrückt": 7766, 
  "stück": 7767, 
  "einzustellen": 7768, 
  "garten": 7769, 
  "Ka@@": 7770, 
  "DI@@": 7771, 
  "vorausgesetzt": 7772, 
  "Ticket": 7773, 
  "Literatur": 7774, 
  "ment@@": 7775, 
  "SE": 7776, 
  "östlichen": 7777, 
  "schwedische": 7778, 
  "Binnenmarkts": 7779, 
  "Porto": 7780, 
  "ausgearbeitet": 7781, 
  "Dörfer": 7782, 
  "Kühlschrank": 7783, 
  "Anmerkung": 7784, 
  "Stränden": 7785, 
  "stoppen": 7786, 
  "Bier": 7787, 
  "IC": 7788, 
  "datei": 7789, 
  "Wahrnehmung": 7790, 
  "Kontakt@@": 7791, 
  "Premium": 7792, 
  "rich@@": 7793, 
  "val@@": 7794, 
  "arbeiter": 7795, 
  "offen@@": 7796, 
  "Signale": 7797, 
  "Konflikten": 7798, 
  "Ratspräsidenten": 7799, 
  "93": 7800, 
  "wir@@": 7801, 
  "Informations-": 7802, 
  "Mitwirkung": 7803, 
  "Central": 7804, 
  "züge": 7805, 
  "tere": 7806, 
  "Mühe": 7807, 
  "besagt": 7808, 
  "Landschaften": 7809, 
  "Control": 7810, 
  "Kraft@@": 7811, 
  "Nahrungsmittel": 7812, 
  "häufiger": 7813, 
  "Top@@": 7814, 
  "wahrnehmen": 7815, 
  "ents": 7816, 
  "Dringlichkeit": 7817, 
  "Gleichbehandlung": 7818, 
  "France": 7819, 
  "mas": 7820, 
  "ont": 7821, 
  "dateien": 7822, 
  "bin@@": 7823, 
  "Transpor@@": 7824, 
  "Verkehrsmittel": 7825, 
  "gefühl": 7826, 
  "ase": 7827, 
  "verwirklicht": 7828, 
  "Ärzte": 7829, 
  "Loch": 7830, 
  "weichen": 7831, 
  "Zug@@": 7832, 
  "tatsächliche": 7833, 
  "hinterlassen": 7834, 
  "Domain": 7835, 
  "SA": 7836, 
  "dende": 7837, 
  "mache": 7838, 
  "anstreben": 7839, 
  "gers": 7840, 
  "Mittel-": 7841, 
  "Applikationen": 7842, 
  "arme": 7843, 
  "bilder": 7844, 
  "deutlicher": 7845, 
  "vereinfacht": 7846, 
  "meint": 7847, 
  "verbreiten": 7848, 
  "food": 7849, 
  "EC@@": 7850, 
  "Substanzen": 7851, 
  "Impulse": 7852, 
  "abgehalten": 7853, 
  "späten": 7854, 
  "63": 7855, 
  "bewundern": 7856, 
  "sitz": 7857, 
  "Einladung": 7858, 
  "Wunder": 7859, 
  ".org": 7860, 
  "bewirkt": 7861, 
  "Parlamenten": 7862, 
  "Ac@@": 7863, 
  "Display": 7864, 
  "bur@@": 7865, 
  "gezielt": 7866, 
  "Vermarktung": 7867, 
  "Stellenwert": 7868, 
  "sichert": 7869, 
  "Konzerte": 7870, 
  "bri@@": 7871, 
  "Parlaments@@": 7872, 
  "Direkt@@": 7873, 
  "Doha": 7874, 
  "Zellen": 7875, 
  "Wärme": 7876, 
  "antiken": 7877, 
  "mangelnde": 7878, 
  "Besteller": 7879, 
  "sat@@": 7880, 
  "beh@@": 7881, 
  "kette": 7882, 
  "ación": 7883, 
  "Automobilindustrie": 7884, 
  "EP": 7885, 
  "stellungen": 7886, 
  "kat@@": 7887, 
  "aussch@@": 7888, 
  "Durchschnitt": 7889, 
  "71": 7890, 
  "â@@": 7891, 
  "vorschlägt": 7892, 
  "pass@@": 7893, 
  "Schiffs@@": 7894, 
  "beantragen": 7895, 
  "ance": 7896, 
  "strategien": 7897, 
  "Finanziellen": 7898, 
  "film": 7899, 
  "Erreichen": 7900, 
  "Fokus": 7901, 
  "benötigten": 7902, 
  "rein@@": 7903, 
  "zo@@": 7904, 
  "Jahrzehnt": 7905, 
  "verschwinden": 7906, 
  "marktes": 7907, 
  "Schiffen": 7908, 
  "geladen": 7909, 
  "seln": 7910, 
  "umwelt@@": 7911, 
  "indi@@": 7912, 
  "zuverlässige": 7913, 
  "betreibt": 7914, 
  "gründlich": 7915, 
  "gel": 7916, 
  "uner@@": 7917, 
  "Klick": 7918, 
  "Annäherung": 7919, 
  "Nero": 7920, 
  "Kommissions@@": 7921, 
  "Karl": 7922, 
  "schlag@@": 7923, 
  "box": 7924, 
  "moralische": 7925, 
  "Mur@@": 7926, 
  "ss": 7927, 
  "ville": 7928, 
  "Bes@@": 7929, 
  "Sor@@": 7930, 
  "verstärkten": 7931, 
  "66": 7932, 
  "abzielt": 7933, 
  "Satelliten": 7934, 
  "landes": 7935, 
  "Weihnachts@@": 7936, 
  "irgendwann": 7937, 
  "real": 7938, 
  "tigung": 7939, 
  "hel@@": 7940, 
  "04@@": 7941, 
  "Indonesien": 7942, 
  "wahr@@": 7943, 
  "Tibet": 7944, 
  "Projektes": 7945, 
  "Executive": 7946, 
  "Welthandelsorganisation": 7947, 
  "Forsch@@": 7948, 
  "realistisch": 7949, 
  "Aufrechterhaltung": 7950, 
  "Gefangenen": 7951, 
  "ausgenommen": 7952, 
  "Benutzern": 7953, 
  "aff@@": 7954, 
  "Copyright": 7955, 
  "HIV": 7956, 
  "Zentren": 7957, 
  "fließen": 7958, 
  "GVO": 7959, 
  "det@@": 7960, 
  "einbringen": 7961, 
  "gestellte": 7962, 
  "fair": 7963, 
  "verbot": 7964, 
  "probieren": 7965, 
  "plant": 7966, 
  "Sol": 7967, 
  "Alkohol": 7968, 
  "sexuellen": 7969, 
  "optimieren": 7970, 
  "eingeben": 7971, 
  "persönlicher": 7972, 
  "ion": 7973, 
  "Künstlern": 7974, 
  "verkehrs@@": 7975, 
  "harten": 7976, 
  "Sicherheitsrat": 7977, 
  "ut": 7978, 
  "tei@@": 7979, 
  "Doppelbett": 7980, 
  "Norwegen": 7981, 
  "bekam": 7982, 
  "Einwände": 7983, 
  "erreichten": 7984, 
  "anfangen": 7985, 
  "Umstrukturierung": 7986, 
  "verband": 7987, 
  "cia": 7988, 
  "ass": 7989, 
  "ausgewählte": 7990, 
  "Foren": 7991, 
  "Behinderungen": 7992, 
  "orientierten": 7993, 
  "Säule": 7994, 
  "Konferenz@@": 7995, 
  "oni": 7996, 
  "mung": 7997, 
  "kommunistischen": 7998, 
  "rücken": 7999, 
  "Music": 8000, 
  "Einblick": 8001, 
  "orientierte": 8002, 
  "Buchungs@@": 8003, 
  "dy": 8004, 
  "verteilen": 8005, 
  "veröffentlichte": 8006, 
  "Studios": 8007, 
  "befreien": 8008, 
  "Sicherheits-": 8009, 
  "beliebtesten": 8010, 
  "schwarz": 8011, 
  "tiefen": 8012, 
  "Q": 8013, 
  "IG@@": 8014, 
  "ensystem": 8015, 
  "Metro": 8016, 
  "seg@@": 8017, 
  "dänischen": 8018, 
  "beantragt": 8019, 
  "Ansätze": 8020, 
  "Vorstand": 8021, 
  "agieren": 8022, 
  "Fristen": 8023, 
  "beeinträchtigen": 8024, 
  "Route": 8025, 
  "mb@@": 8026, 
  "who": 8027, 
  "Fol@@": 8028, 
  "Indikatoren": 8029, 
  "Fein@@": 8030, 
  "ör@@": 8031, 
  "Peking": 8032, 
  "Eleganz": 8033, 
  "damaligen": 8034, 
  "gesetzliche": 8035, 
  "lieb@@": 8036, 
  "echter": 8037, 
  "baus": 8038, 
  "Kompromisse": 8039, 
  "eil@@": 8040, 
  "Räumen": 8041, 
  "Square": 8042, 
  "Abwicklung": 8043, 
  "gelöscht": 8044, 
  "zy@@": 8045, 
  "ire": 8046, 
  "vernünftigen": 8047, 
  "Richard": 8048, 
  "euer": 8049, 
  "Nachbarschaftspolitik": 8050, 
  "Renten@@": 8051, 
  "io@@": 8052, 
  "Gesetzen": 8053, 
  "Griff": 8054, 
  "prozeß": 8055, 
  "Rechnungs@@": 8056, 
  "leitungen": 8057, 
  "Demokratien": 8058, 
  "Banken@@": 8059, 
  "IM@@": 8060, 
  "Poly@@": 8061, 
  "62": 8062, 
  "Operationen": 8063, 
  "Unternehmen@@": 8064, 
  "user": 8065, 
  "nachzudenken": 8066, 
  "Hongkong": 8067, 
  "School": 8068, 
  "Ta@@": 8069, 
  "ever@@": 8070, 
  "ppen": 8071, 
  "Nachteil": 8072, 
  "touristischen": 8073, 
  "abteilung": 8074, 
  "Zeitungen": 8075, 
  "nnen": 8076, 
  "anzugehen": 8077, 
  "Infrastrukturen": 8078, 
  "museum": 8079, 
  "s.@@": 8080, 
  "richtung": 8081, 
  "OK": 8082, 
  "6,@@": 8083, 
  "Generalsekretär": 8084, 
  "AC": 8085, 
  "koordinieren": 8086, 
  "Anreiz": 8087, 
  "gesetzlich": 8088, 
  "Blue": 8089, 
  "englische": 8090, 
  "gelegentlich": 8091, 
  "Alpen@@": 8092, 
  "pres@@": 8093, 
  "max": 8094, 
  "Airlines": 8095, 
  "facilities": 8096, 
  "Gleichheit": 8097, 
  "dementsprechend": 8098, 
  "angen": 8099, 
  "2,5": 8100, 
  "port@@": 8101, 
  "dungen": 8102, 
  "Währungen": 8103, 
  "beweist": 8104, 
  "erungs@@": 8105, 
  "angeführt": 8106, 
  "rot": 8107, 
  "Verpackung": 8108, 
  "geführte": 8109, 
  "Hunger": 8110, 
  "berufen": 8111, 
  "forderte": 8112, 
  "Teilnehmern": 8113, 
  "Augenmerk": 8114, 
  "Trans@@": 8115, 
  "dorf": 8116, 
  "Aufsicht": 8117, 
  "Spielern": 8118, 
  "Diktatur": 8119, 
  "Finanz-": 8120, 
  "Heim@@": 8121, 
  "dro@@": 8122, 
  "viel@@": 8123, 
  "glich": 8124, 
  "ow": 8125, 
  "niedrige": 8126, 
  "Kampf@@": 8127, 
  "Erfolgs@@": 8128, 
  "XML": 8129, 
  "Energi@@": 8130, 
  "Herz@@": 8131, 
  "AG@@": 8132, 
  "hinzuzufügen": 8133, 
  "Verbrauch": 8134, 
  "Gri@@": 8135, 
  "Explorer": 8136, 
  "Verfahrens@@": 8137, 
  "Statut": 8138, 
  "Stad@@": 8139, 
  "namen": 8140, 
  "qm": 8141, 
  "Projek@@": 8142, 
  "gens": 8143, 
  "enter": 8144, 
  "Möbel": 8145, 
  "geschlagen": 8146, 
  "Single": 8147, 
  "Sierra": 8148, 
  "Workshops": 8149, 
  "Internetseiten": 8150, 
  "renovierte": 8151, 
  "Kühl@@": 8152, 
  "Orientierung": 8153, 
  "westliche": 8154, 
  "attraktive": 8155, 
  "AU@@": 8156, 
  "car": 8157, 
  "set": 8158, 
  "ön@@": 8159, 
  "vorbereiten": 8160, 
  "67": 8161, 
  "Echtzeit": 8162, 
  "ele": 8163, 
  "geschmackvoll": 8164, 
  "ße": 8165, 
  "12.@@": 8166, 
  "Baden": 8167, 
  "engagieren": 8168, 
  "votre": 8169, 
  "dynamischen": 8170, 
  "Autonomie": 8171, 
  "Kreuz@@": 8172, 
  "bemerkt": 8173, 
  "sozial": 8174, 
  "Jahrhunderte": 8175, 
  "dynamische": 8176, 
  "massive": 8177, 
  "Risiko@@": 8178, 
  "adi@@": 8179, 
  "Ba@@": 8180, 
  "behindert": 8181, 
  "KOM": 8182, 
  "ausgeübt": 8183, 
  "mengen": 8184, 
  "deckt": 8185, 
  "Gesamtheit": 8186, 
  "dauerhaften": 8187, 
  "global": 8188, 
  "ord@@": 8189, 
  "schien": 8190, 
  "elf": 8191, 
  "anscheinend": 8192, 
  "Abend@@": 8193, 
  "identifizieren": 8194, 
  "Vol@@": 8195, 
  "Handlungs@@": 8196, 
  "dor@@": 8197, 
  "Früchte": 8198, 
  "Bruder": 8199, 
  "Joseph": 8200, 
  "emp@@": 8201, 
  "Freizeit": 8202, 
  "int@@": 8203, 
  "firmen": 8204, 
  "Software@@": 8205, 
  "ill@@": 8206, 
  "ernannt": 8207, 
  "fangen": 8208, 
  "Schrift@@": 8209, 
  "Dafürhalten": 8210, 
  "Institute": 8211, 
  "Telekommunikations@@": 8212, 
  "Vietnam": 8213, 
  "Passagiere": 8214, 
  "ies": 8215, 
  "eu": 8216, 
  "Tar@@": 8217, 
  "Stockholm": 8218, 
  "hôtel": 8219, 
  "к@@": 8220, 
  "Security": 8221, 
  "Nichtregierungsorganisationen": 8222, 
  "Entschädigung": 8223, 
  "Dar@@": 8224, 
  "Einfluß": 8225, 
  "Verbindungs@@": 8226, 
  "meister": 8227, 
  "drehen": 8228, 
  "fil@@": 8229, 
  "scht": 8230, 
  "Arena": 8231, 
  "English": 8232, 
  "intelligente": 8233, 
  "General@@": 8234, 
  "61": 8235, 
  "Nokia": 8236, 
  "Vertriebs@@": 8237, 
  "erkennbar": 8238, 
  "into": 8239, 
  "Mac@@": 8240, 
  "platten": 8241, 
  "fünfzehn": 8242, 
  "einsetzt": 8243, 
  "bot": 8244, 
  "AP@@": 8245, 
  "Kleidung": 8246, 
  "8.@@": 8247, 
  "votes": 8248, 
  "grad": 8249, 
  "kraft@@": 8250, 
  "urlaub": 8251, 
  "begab": 8252, 
  "GPS": 8253, 
  "ligen": 8254, 
  "voraus@@": 8255, 
  "kunst": 8256, 
  "Kalender": 8257, 
  "bekräftigen": 8258, 
  "tigem": 8259, 
  "Chr.": 8260, 
  "rufe": 8261, 
  "82": 8262, 
  "LT": 8263, 
  "gesendet": 8264, 
  "erzählt": 8265, 
  "vermögen": 8266, 
  "bt": 8267, 
  "Termine": 8268, 
  "Für": 8269, 
  "amen": 8270, 
  "medi@@": 8271, 
  "Naturkatastrophen": 8272, 
  "Geburt": 8273, 
  "erholen": 8274, 
  "je@@": 8275, 
  "wandern": 8276, 
  "eventuelle": 8277, 
  "format": 8278, 
  "Fot@@": 8279, 
  "mechanismen": 8280, 
  "Erneuerung": 8281, 
  "Mass@@": 8282, 
  "basierten": 8283, 
  "intensiven": 8284, 
  "Schottland": 8285, 
  "nahen": 8286, 
  "direkter": 8287, 
  "reform": 8288, 
  "Völkern": 8289, 
  "Nachbarschaft": 8290, 
  "römischen": 8291, 
  "ov": 8292, 
  "II.": 8293, 
  "Campingplatz": 8294, 
  "erfassen": 8295, 
  "EU@@": 8296, 
  "Konzern": 8297, 
  "ativ": 8298, 
  "Milch": 8299, 
  "hilfe": 8300, 
  "Themen@@": 8301, 
  "bezogenen": 8302, 
  "Rats@@": 8303, 
  "dachte": 8304, 
  "geräumige": 8305, 
  "Anpassungen": 8306, 
  "Rand@@": 8307, 
  "billigen": 8308, 
  "м@@": 8309, 
  "lungs@@": 8310, 
  "Beförderung": 8311, 
  "Einbindung": 8312, 
  "Obst": 8313, 
  "behandlung": 8314, 
  "4,@@": 8315, 
  "Mitglieds@@": 8316, 
  "Infos": 8317, 
  "vorzubereiten": 8318, 
  "Games": 8319, 
  "Sel@@": 8320, 
  "pan@@": 8321, 
  "Maßstab": 8322, 
  "tau@@": 8323, 
  "zugreifen": 8324, 
  "grundlegend": 8325, 
  "Dritt@@": 8326, 
  "elegant": 8327, 
  "suite": 8328, 
  "Dienstes": 8329, 
  "68": 8330, 
  "Songs": 8331, 
  "streichen": 8332, 
  "fortzusetzen": 8333, 
  "Account": 8334, 
  "Zeile": 8335, 
  "partner": 8336, 
  "Musiker": 8337, 
  "gemütlich": 8338, 
  "viertens": 8339, 
  "unden": 8340, 
  "ON": 8341, 
  "m.": 8342, 
  "Op@@": 8343, 
  "ungssystem": 8344, 
  "komm@@": 8345, 
  "tigsten": 8346, 
  "akt": 8347, 
  "Don@@": 8348, 
  "Listen": 8349, 
  "illegal": 8350, 
  "tierung": 8351, 
  "pri@@": 8352, 
  "doppelt": 8353, 
  "nos": 8354, 
  "hinter@@": 8355, 
  "vis@@": 8356, 
  "erfahrenen": 8357, 
  "istischer": 8358, 
  "hervorzuheben": 8359, 
  "350": 8360, 
  "Zoll": 8361, 
  "internet": 8362, 
  "kal@@": 8363, 
  "rat@@": 8364, 
  "Meister": 8365, 
  "demzufolge": 8366, 
  "Rechtssicherheit": 8367, 
  "werks": 8368, 
  "fro@@": 8369, 
  "Lauf": 8370, 
  "genen": 8371, 
  "Stellungnahmen": 8372, 
  "festhalten": 8373, 
  "Kameras": 8374, 
  "tiere": 8375, 
  "what": 8376, 
  "double": 8377, 
  "Haar@@": 8378, 
  "Plugin": 8379, 
  "let@@": 8380, 
  "he@@": 8381, 
  "Prof.": 8382, 
  "abzulehnen": 8383, 
  "Paradies": 8384, 
  "Ker@@": 8385, 
  "beglückwünsche": 8386, 
  "nah@@": 8387, 
  "Gültigkeit": 8388, 
  "amt": 8389, 
  "urs": 8390, 
  "q@@": 8391, 
  "orte": 8392, 
  "Reden": 8393, 
  "Installations@@": 8394, 
  "gemeinschaftliche": 8395, 
  "Resultat": 8396, 
  "Hoffnungen": 8397, 
  "ersuchen": 8398, 
  "steigende": 8399, 
  "öl@@": 8400, 
  "Auftraggeber": 8401, 
  "Interview": 8402, 
  "ausgestellt": 8403, 
  "Wil@@": 8404, 
  "Sevilla": 8405, 
  "Siemens": 8406, 
  "Rat@@": 8407, 
  "wertvollen": 8408, 
  "Sü@@": 8409, 
  "städtischen": 8410, 
  "tag@@": 8411, 
  "kriterien": 8412, 
  "ll": 8413, 
  "Konsumenten": 8414, 
  "orten": 8415, 
  "Netzwerke": 8416, 
  "unzählige": 8417, 
  "Mitgliedsstaaten": 8418, 
  "zivilen": 8419, 
  "Wa@@": 8420, 
  "geachtet": 8421, 
  "Ansprechpartner": 8422, 
  "warm": 8423, 
  "ziel": 8424, 
  "Herstellern": 8425, 
  "dahingehend": 8426, 
  "gesenkt": 8427, 
  "Buffet": 8428, 
  "Sen@@": 8429, 
  "Basel": 8430, 
  "Haushaltsjahr": 8431, 
  "stan@@": 8432, 
  "Lust": 8433, 
  "beobachtet": 8434, 
  "Vorbehalte": 8435, 
  "roten": 8436, 
  "Inanspruchnahme": 8437, 
  "Rücken": 8438, 
  "made": 8439, 
  "unterstrichen": 8440, 
  "Helsinki": 8441, 
  "problematisch": 8442, 
  "Ungleichheit": 8443, 
  "landschaft": 8444, 
  "let": 8445, 
  "Versorgungs@@": 8446, 
  "dorthin": 8447, 
  "Entschließungsanträge": 8448, 
  "Direktor": 8449, 
  "sätze": 8450, 
  "LAN": 8451, 
  "Demokratisierung": 8452, 
  "Zentralbanken": 8453, 
  "koordiniert": 8454, 
  "ALE": 8455, 
  "ungsanlagen": 8456, 
  "Nikon": 8457, 
  "Warcraft": 8458, 
  "Sozialpolitik": 8459, 
  "eingesch@@": 8460, 
  "Erkrankungen": 8461, 
  "verbindliche": 8462, 
  "Interface": 8463, 
  "Gegebenheiten": 8464, 
  "bedürfen": 8465, 
  "ingen": 8466, 
  "lager": 8467, 
  "las@@": 8468, 
  "wen": 8469, 
  "berührt": 8470, 
  "starker": 8471, 
  "schneiden": 8472, 
  "big": 8473, 
  "fragt": 8474, 
  "vereinbaren": 8475, 
  "Büro@@": 8476, 
  "stabilen": 8477, 
  "78": 8478, 
  "datum": 8479, 
  "Begeisterung": 8480, 
  "ela": 8481, 
  "Toleranz": 8482, 
  "Komplexität": 8483, 
  "löst": 8484, 
  "76": 8485, 
  "tigte": 8486, 
  "amtierende": 8487, 
  "spieler": 8488, 
  "historisch": 8489, 
  "RSS": 8490, 
  "kreative": 8491, 
  "Nuklear@@": 8492, 
  "Streitkräfte": 8493, 
  "änderungen": 8494, 
  "außergewöhnlichen": 8495, 
  "Acht": 8496, 
  "modernsten": 8497, 
  "benachrichtigt": 8498, 
  "Ganzen": 8499, 
  "Italiens": 8500, 
  "Landwirtschafts@@": 8501, 
  "can@@": 8502, 
  "Schluß": 8503, 
  "pal@@": 8504, 
  "gra@@": 8505, 
  "AT": 8506, 
  "diversen": 8507, 
  "alternativen": 8508, 
  "dürften": 8509, 
  "Persönlichkeiten": 8510, 
  "anspruchsvolle": 8511, 
  ".-": 8512, 
  "zuzu@@": 8513, 
  "really": 8514, 
  "transatlantischen": 8515, 
  "beachtet": 8516, 
  "Kanäle": 8517, 
  "aufweist": 8518, 
  "AN": 8519, 
  "zung": 8520, 
  "österreichische": 8521, 
  "team": 8522, 
  "и@@": 8523, 
  "Redezeit": 8524, 
  "bekämpft": 8525, 
  "rel@@": 8526, 
  "Fahrzeugen": 8527, 
  "mobilen": 8528, 
  "wiederhole": 8529, 
  "ausmachen": 8530, 
  "nte": 8531, 
  "Schn@@": 8532, 
  "Forscher": 8533, 
  "geschwindigkeit": 8534, 
  "Tschetschenien": 8535, 
  "Network": 8536, 
  "tschechischen": 8537, 
  "Gesundheitswesen": 8538, 
  "Quartal": 8539, 
  "Entwicklungspolitik": 8540, 
  "a.@@": 8541, 
  "Höhepunkt": 8542, 
  "walk": 8543, 
  "sto@@": 8544, 
  "Kloster": 8545, 
  "St": 8546, 
  "geräumigen": 8547, 
  "business": 8548, 
  "politiken": 8549, 
  "Plat@@": 8550, 
  "Mari@@": 8551, 
  "versetzen": 8552, 
  "Monte": 8553, 
  "Zutaten": 8554, 
  "Aufenthalts@@": 8555, 
  "verschärft": 8556, 
  "Chaos": 8557, 
  "Breakfast": 8558, 
  "Flüchtlingen": 8559, 
  "Sat": 8560, 
  "ps": 8561, 
  "ruft": 8562, 
  "möge": 8563, 
  "boden": 8564, 
  "hersteller": 8565, 
  "after": 8566, 
  "Minimum": 8567, 
  "Kernenergie": 8568, 
  "ausgerüstet": 8569, 
  "Linken": 8570, 
  "hu@@": 8571, 
  "kel@@": 8572, 
  "Gay": 8573, 
  "hinein": 8574, 
  "Erwerb": 8575, 
  "Kranken@@": 8576, 
  "Zivilisation": 8577, 
  "Louis": 8578, 
  "ßt": 8579, 
  "lig": 8580, 
  "ware": 8581, 
  "scheinbar": 8582, 
  "vorzuschlagen": 8583, 
  "Außengrenzen": 8584, 
  "verbindlich": 8585, 
  "SQL": 8586, 
  "grenze": 8587, 
  "Buchstaben": 8588, 
  "Mark": 8589, 
  "Störungen": 8590, 
  "Besetzung": 8591, 
  "Vel@@": 8592, 
  "esta": 8593, 
  "Deine": 8594, 
  "verlängert": 8595, 
  "Nachfolger": 8596, 
  "OS@@": 8597, 
  "fluss": 8598, 
  "tauchen": 8599, 
  "schulen": 8600, 
  "Fertigungs@@": 8601, 
  "abschließen": 8602, 
  "Boot@@": 8603, 
  "Einkaufs@@": 8604, 
  "Lesen": 8605, 
  "ea": 8606, 
  "tisches": 8607, 
  "Insel@@": 8608, 
  "Red@@": 8609, 
  "voranzutreiben": 8610, 
  "Tanz@@": 8611, 
  "einf@@": 8612, 
  "abzuschließen": 8613, 
  "lingen": 8614, 
  "personal": 8615, 
  "Engineering": 8616, 
  "Produk@@": 8617, 
  "Beitrittsverhandlungen": 8618, 
  "star": 8619, 
  "Ag@@": 8620, 
  "zögern": 8621, 
  "gänge": 8622, 
  "Entdeckung": 8623, 
  "verweist": 8624, 
  "unglaublich": 8625, 
  "ora": 8626, 
  "Kapitalismus": 8627, 
  "Publikationen": 8628, 
  "volumen": 8629, 
  "begrenzte": 8630, 
  "amtierenden": 8631, 
  "DIE": 8632, 
  "Hunderte": 8633, 
  "One": 8634, 
  "2015": 8635, 
  "services": 8636, 
  "vorzu@@": 8637, 
  "betrug": 8638, 
  "people": 8639, 
  "abgeschafft": 8640, 
  "Rollen": 8641, 
  "Landwirten": 8642, 
  "legislativen": 8643, 
  "nisse": 8644, 
  "beherbergt": 8645, 
  "ars": 8646, 
  "Partei@@": 8647, 
  "Richtigkeit": 8648, 
  "Zinssätze": 8649, 
  "wunderbaren": 8650, 
  "Moldau": 8651, 
  "Laser@@": 8652, 
  "lang@@": 8653, 
  "fahrer": 8654, 
  "dien@@": 8655, 
  "fung": 8656, 
  "A.": 8657, 
  "Kindes": 8658, 
  "ise": 8659, 
  "Auftrags@@": 8660, 
  "gendes": 8661, 
  "Pl@@": 8662, 
  "Autorität": 8663, 
  "irgendeine": 8664, 
  "Residence": 8665, 
  "Erwachsenen": 8666, 
  "Ferienhaus": 8667, 
  "Wert@@": 8668, 
  "quote": 8669, 
  "world": 8670, 
  "egt": 8671, 
  "yl@@": 8672, 
  "I.": 8673, 
  "Button": 8674, 
  "Bundesrepublik": 8675, 
  "Fleisch@@": 8676, 
  "Zucker": 8677, 
  "ère": 8678, 
  "pe": 8679, 
  "Immunität": 8680, 
  "Fel@@": 8681, 
  "Bad@@": 8682, 
  "KDE": 8683, 
  "preisen": 8684, 
  "23@@": 8685, 
  "markiert": 8686, 
  "total": 8687, 
  "fünf@@": 8688, 
  "hafte": 8689, 
  "Mol@@": 8690, 
  "mittel-": 8691, 
  "durchschnittlich": 8692, 
  "ki@@": 8693, 
  "Gepäck": 8694, 
  "kol@@": 8695, 
  "fehler": 8696, 
  "freiwillig": 8697, 
  "bestraft": 8698, 
  "geld": 8699, 
  "vergleichbar": 8700, 
  "Not": 8701, 
  "indischen": 8702, 
  "Technology": 8703, 
  "irgendwie": 8704, 
  "stufen": 8705, 
  "begrenzen": 8706, 
  "Düsseldorf": 8707, 
  "bewahrt": 8708, 
  "ario": 8709, 
  "blockiert": 8710, 
  "based": 8711, 
  "ast": 8712, 
  "massiven": 8713, 
  "trinken": 8714, 
  "Monats": 8715, 
  "Geschäftsführer": 8716, 
  "Logistik": 8717, 
  "ba@@": 8718, 
  "ł@@": 8719, 
  "versprochen": 8720, 
  "Kreatur": 8721, 
  "BR@@": 8722, 
  "On@@": 8723, 
  "а@@": 8724, 
  "180": 8725, 
  "sinn@@": 8726, 
  "verteilung": 8727, 
  "angemessener": 8728, 
  "schwach": 8729, 
  "festgehalten": 8730, 
  "Zustellbetten": 8731, 
  "nis": 8732, 
  "bedient": 8733, 
  "wunder@@": 8734, 
  "On": 8735, 
  "Automobil@@": 8736, 
  "unmittelbare": 8737, 
  "Jazz": 8738, 
  "iranischen": 8739, 
  "beides": 8740, 
  "Artikels": 8741, 
  "einzuleiten": 8742, 
  "Ziels": 8743, 
  "Bestell@@": 8744, 
  "fre@@": 8745, 
  "Wanderungen": 8746, 
  "fen@@": 8747, 
  "forum": 8748, 
  "Gest@@": 8749, 
  "regionen": 8750, 
  "Konvents": 8751, 
  "sämtlicher": 8752, 
  "Zentrums": 8753, 
  "Michel": 8754, 
  "Funk@@": 8755, 
  "zugeben": 8756, 
  "alem": 8757, 
  "25@@": 8758, 
  "optimiert": 8759, 
  "Ära": 8760, 
  "halben": 8761, 
  "gemachten": 8762, 
  "leb@@": 8763, 
  "durchschnittliche": 8764, 
  "nissen": 8765, 
  "Brenn@@": 8766, 
  "verkehrs": 8767, 
  "pflegen": 8768, 
  "status": 8769, 
  "ermittelt": 8770, 
  "sionen": 8771, 
  "Standorten": 8772, 
  "sieren": 8773, 
  "förder@@": 8774, 
  "Königreichs": 8775, 
  "Son@@": 8776, 
  "Saddam": 8777, 
  "Strecken": 8778, 
  "minister": 8779, 
  "verhältnis": 8780, 
  "schau@@": 8781, 
  "aufhören": 8782, 
  "Ausstellungs@@": 8783, 
  "Freizeit@@": 8784, 
  "gratuliere": 8785, 
  "Beträge": 8786, 
  "Anwendungsbereich": 8787, 
  "edi@@": 8788, 
  "т@@": 8789, 
  "lad@@": 8790, 
  "lige": 8791, 
  "bereitgestellten": 8792, 
  "Problem@@": 8793, 
  "tat": 8794, 
  "verz@@": 8795, 
  "Übergangs@@": 8796, 
  "Gewährung": 8797, 
  "Lan@@": 8798, 
  "Akzeptanz": 8799, 
  "Geldpolitik": 8800, 
  "tak@@": 8801, 
  "Artikeln": 8802, 
  "Therapie": 8803, 
  "Firefox": 8804, 
  "Gegenden": 8805, 
  "Job": 8806, 
  "bestanden": 8807, 
  "Wetter@@": 8808, 
  "exzellente": 8809, 
  "stil": 8810, 
  "abhängen": 8811, 
  "schuldig": 8812, 
  "Unterricht": 8813, 
  "kommunizieren": 8814, 
  "veranstaltungen": 8815, 
  "inform@@": 8816, 
  "ausgeben": 8817, 
  "Aufklärung": 8818, 
  "profitiert": 8819, 
  "Maus": 8820, 
  "Regen@@": 8821, 
  "ausreichen": 8822, 
  "iPod": 8823, 
  "setzten": 8824, 
  "Beratungs@@": 8825, 
  "äch@@": 8826, 
  "Wandern": 8827, 
  "Olympischen": 8828, 
  "Afrikas": 8829, 
  "Norm": 8830, 
  "beeindruckende": 8831, 
  "multilateralen": 8832, 
  "schlimmsten": 8833, 
  "hotels": 8834, 
  "bathroom": 8835, 
  "irgendwo": 8836, 
  "Vide@@": 8837, 
  "Gedanke": 8838, 
  "Etage": 8839, 
  "diesbezüglichen": 8840, 
  "Geh@@": 8841, 
  "Lizenzen": 8842, 
  "bek@@": 8843, 
  "wil@@": 8844, 
  "na@@": 8845, 
  "MO@@": 8846, 
  "Versand@@": 8847, 
  "Schi@@": 8848, 
  "ungsmaßnahmen": 8849, 
  "ost@@": 8850, 
  "Hindernis": 8851, 
  "Schließung": 8852, 
  "pas": 8853, 
  "plätzen": 8854, 
  "wirksamer": 8855, 
  "Masse": 8856, 
  "Ausgangs@@": 8857, 
  "demnächst": 8858, 
  "parking": 8859, 
  "verwandeln": 8860, 
  "Defizit": 8861, 
  "Gut@@": 8862, 
  "ates": 8863, 
  "mis@@": 8864, 
  "Syn@@": 8865, 
  "Register": 8866, 
  "zonen": 8867, 
  "Orts@@": 8868, 
  "ст@@": 8869, 
  "Bedrohungen": 8870, 
  "bestehend": 8871, 
  "betreut": 8872, 
  "ausgeliefert": 8873, 
  "Beg@@": 8874, 
  "Hor@@": 8875, 
  "Angeboten": 8876, 
  "Radi@@": 8877, 
  "bewegungen": 8878, 
  "gehenden": 8879, 
  "Vorsicht": 8880, 
  "Zwischenzeit": 8881, 
  "tiv": 8882, 
  "HU": 8883, 
  "Schwerpunkte": 8884, 
  "privater": 8885, 
  "Gesam@@": 8886, 
  "Etagen": 8887, 
  "Marketing@@": 8888, 
  "M.": 8889, 
  "Fülle": 8890, 
  "eiten": 8891, 
  "Flächen": 8892, 
  "Verhinderung": 8893, 
  "gestrichen": 8894, 
  "diplomatischen": 8895, 
  "attraktiven": 8896, 
  "tä@@": 8897, 
  "begeben": 8898, 
  "rates": 8899, 
  "web": 8900, 
  "5,@@": 8901, 
  "biologische": 8902, 
  "straßen": 8903, 
  "wel@@": 8904, 
  "schweigen": 8905, 
  "Nutzern": 8906, 
  "gten": 8907, 
  "Tagungen": 8908, 
  "110": 8909, 
  "erie": 8910, 
  "soviel": 8911, 
  "mark@@": 8912, 
  "Werken": 8913, 
  ".net": 8914, 
  "maßgeblich": 8915, 
  "Phasen": 8916, 
  "81": 8917, 
  "Schätzungen": 8918, 
  "Jahreszeit": 8919, 
  "gemeint": 8920, 
  "his": 8921, 
  "atten": 8922, 
  "Stern": 8923, 
  "aufgaben": 8924, 
  "Endes": 8925, 
  "mittelalterlichen": 8926, 
  "lie": 8927, 
  "Net@@": 8928, 
  "Kriterium": 8929, 
  "Auflagen": 8930, 
  "heiten": 8931, 
  "ú@@": 8932, 
  "Zeitalter": 8933, 
  "Weg@@": 8934, 
  "Wissens": 8935, 
  "Meinungsäußerung": 8936, 
  "Nordkorea": 8937, 
  "Folter": 8938, 
  "port": 8939, 
  "Übermittlung": 8940, 
  "Mail@@": 8941, 
  "Schlag@@": 8942, 
  "zurückkommen": 8943, 
  "anzusehen": 8944, 
  "Гј@@": 8945, 
  "Kongo": 8946, 
  "jemanden": 8947, 
  "69": 8948, 
  "stufe": 8949, 
  "CA@@": 8950, 
  "vermieten": 8951, 
  "Erdbeben": 8952, 
  "Chef": 8953, 
  "ueber": 8954, 
  "virtuellen": 8955, 
  "Bestrebungen": 8956, 
  "Pfad": 8957, 
  "Folgendes": 8958, 
  "Lieblings@@": 8959, 
  "Spiels": 8960, 
  "Sitzungsperiode": 8961, 
  "abzugeben": 8962, 
  "spezi@@": 8963, 
  "produkt": 8964, 
  "verhandelt": 8965, 
  "Sozialisten": 8966, 
  "klein@@": 8967, 
  "schriftlichen": 8968, 
  "TEN": 8969, 
  "sag@@": 8970, 
  "1988": 8971, 
  "zusammengestellt": 8972, 
  "nden": 8973, 
  "Eingabe": 8974, 
  "Schritten": 8975, 
  "Sy@@": 8976, 
  "folgte": 8977, 
  "Point": 8978, 
  "Meilen": 8979, 
  "Behandlungen": 8980, 
  "Korea": 8981, 
  "Commerce": 8982, 
  "Dienststellen": 8983, 
  "dische": 8984, 
  "erstklassige": 8985, 
  "wirst": 8986, 
  "runde": 8987, 
  "geschenkt": 8988, 
  "Lag@@": 8989, 
  "Team@@": 8990, 
  "ktion": 8991, 
  "Europ@@": 8992, 
  "log@@": 8993, 
  "Bü@@": 8994, 
  "bro@@": 8995, 
  "häuser": 8996, 
  "Terror@@": 8997, 
  "Felsen": 8998, 
  "Genauigkeit": 8999, 
  "Chinesen": 9000, 
  "Kunststoff@@": 9001, 
  "veranstaltet": 9002, 
  "japanische": 9003, 
  "Ob@@": 9004, 
  "test": 9005, 
  "Ansprüchen": 9006, 
  "town": 9007, 
  "LA@@": 9008, 
  "versorgen": 9009, 
  "betriebe": 9010, 
  "Bandbreite": 9011, 
  "aufrufen": 9012, 
  "hol@@": 9013, 
  "Wäscheservice": 9014, 
  "same": 9015, 
  "betragen": 9016, 
  "Fahrrad": 9017, 
  "Überleben": 9018, 
  "auen": 9019, 
  "Shops": 9020, 
  "Ungleichheiten": 9021, 
  "Bürgerrechte": 9022, 
  "erhebt": 9023, 
  "Chile": 9024, 
  "tief@@": 9025, 
  "а": 9026, 
  "wuchs": 9027, 
  "sü@@": 9028, 
  "Jan": 9029, 
  "gefertigt": 9030, 
  "Softwar@@": 9031, 
  "е": 9032, 
  "Bedien@@": 9033, 
  "fr@@": 9034, 
  "gte": 9035, 
  "einbeziehen": 9036, 
  "Palast": 9037, 
  "30@@": 9038, 
  "Breite": 9039, 
  "Leipzig": 9040, 
  "tlich": 9041, 
  "verdanken": 9042, 
  "Mobil@@": 9043, 
  "Temperatur@@": 9044, 
  "ka@@": 9045, 
  "Bru@@": 9046, 
  "Hotelzimmer": 9047, 
  "klarstellen": 9048, 
  "Nachteile": 9049, 
  "verbundene": 9050, 
  "Räumlichkeiten": 9051, 
  "lig@@": 9052, 
  "Schlußfolgerungen": 9053, 
  "Tan@@": 9054, 
  "Anzeigen": 9055, 
  "Häusern": 9056, 
  "don": 9057, 
  "endsten": 9058, 
  "oll@@": 9059, 
  "Haltestelle": 9060, 
  "hinzu@@": 9061, 
  "Set": 9062, 
  "Laden": 9063, 
  "Vorgang": 9064, 
  "Erfassung": 9065, 
  "Freie": 9066, 
  "untergebracht": 9067, 
  "VIP": 9068, 
  "erzählen": 9069, 
  "erzielte": 9070, 
  "88": 9071, 
  "Form@@": 9072, 
  "Vermögen": 9073, 
  "Ganze": 9074, 
  "perfekten": 9075, 
  "ehren": 9076, 
  "Elite": 9077, 
  "Formate": 9078, 
  "schlicht": 9079, 
  "ong": 9080, 
  "erhöhte": 9081, 
  "terung": 9082, 
  "Heiz@@": 9083, 
  "Reparatur": 9084, 
  "Hochschulen": 9085, 
  "130": 9086, 
  "Übereinkunft": 9087, 
  "problemen": 9088, 
  "Cu@@": 9089, 
  "app@@": 9090, 
  "Militär": 9091, 
  "gewaltige": 9092, 
  "Aufpreis": 9093, 
  "these": 9094, 
  "kunden@@": 9095, 
  "Stabilisierung": 9096, 
  "lim@@": 9097, 
  "Off@@": 9098, 
  "Tempel": 9099, 
  "äu@@": 9100, 
  "begrenzten": 9101, 
  "künstlerischen": 9102, 
  "höherer": 9103, 
  "ama": 9104, 
  "Schlacht": 9105, 
  "nutz@@": 9106, 
  "CH": 9107, 
  "anzuerkennen": 9108, 
  "wald": 9109, 
  "Is@@": 9110, 
  "Pass@@": 9111, 
  "kultureller": 9112, 
  "sicherheits@@": 9113, 
  "Instabilität": 9114, 
  "sexuelle": 9115, 
  "IP@@": 9116, 
  "cor@@": 9117, 
  "tage": 9118, 
  "vern@@": 9119, 
  "ros": 9120, 
  "bel": 9121, 
  "Terminal": 9122, 
  "Migranten": 9123, 
  "not@@": 9124, 
  "ack@@": 9125, 
  "Zertifizierung": 9126, 
  "Zei@@": 9127, 
  "erwarte": 9128, 
  "EC": 9129, 
  "gek@@": 9130, 
  "fähige": 9131, 
  "Gemeinschaftsrecht": 9132, 
  "Klang@@": 9133, 
  "einrichten": 9134, 
  "air": 9135, 
  "diente": 9136, 
  "ry": 9137, 
  "ellem": 9138, 
  "Erhebung": 9139, 
  "netze": 9140, 
  "fur": 9141, 
  "Erweiterungen": 9142, 
  "stetig": 9143, 
  "zuständige": 9144, 
  "OLAF": 9145, 
  "Personen@@": 9146, 
  "Mitgliedsländer": 9147, 
  "stat@@": 9148, 
  "groß@@": 9149, 
  "Vor": 9150, 
  "77": 9151, 
  "Klassen": 9152, 
  "belastet": 9153, 
  "Fischereiabkommen": 9154, 
  "exakt": 9155, 
  "ats@@": 9156, 
  "Fundament": 9157, 
  "wa": 9158, 
  "Überwachungs@@": 9159, 
  "oberste": 9160, 
  "Space": 9161, 
  "Char@@": 9162, 
  "kritisieren": 9163, 
  "Service@@": 9164, 
  "Umstellung": 9165, 
  "star@@": 9166, 
  "Anleitung": 9167, 
  "Dolomiten": 9168, 
  "ED": 9169, 
  "Plug": 9170, 
  "Aufstieg": 9171, 
  "kontrollen": 9172, 
  "Han@@": 9173, 
  "d.@@": 9174, 
  "Reichweite": 9175, 
  "Miss@@": 9176, 
  "URL": 9177, 
  "Gestalt": 9178, 
  "kenne": 9179, 
  "gebucht": 9180, 
  "israelische": 9181, 
  "Geheim@@": 9182, 
  "gesundheits@@": 9183, 
  "Begrenzung": 9184, 
  "faktor": 9185, 
  "Sports": 9186, 
  "ggf.": 9187, 
  "Deb@@": 9188, 
  "wand@@": 9189, 
  "folge": 9190, 
  "wissenschaftlich": 9191, 
  "nächstes": 9192, 
  "einfaches": 9193, 
  "Entscheidungsträger": 9194, 
  "Kohäsion": 9195, 
  "Funktionsweise": 9196, 
  "bilaterale": 9197, 
  "Bed": 9198, 
  "Tisch@@": 9199, 
  "stützt": 9200, 
  "Viren": 9201, 
  "SS@@": 9202, 
  "7,@@": 9203, 
  "besuchte": 9204, 
  "ökonomische": 9205, 
  "Mak@@": 9206, 
  "94": 9207, 
  "†": 9208, 
  "ag": 9209, 
  "Air@@": 9210, 
  "Modellen": 9211, 
  "Industriepolitik": 9212, 
  "Zusammenfassung": 9213, 
  "rad": 9214, 
  "fel@@": 9215, 
  "behindern": 9216, 
  "Mannschaft": 9217, 
  "Interpretation": 9218, 
  "willst": 9219, 
  "vorgesehene": 9220, 
  "Finanzminister": 9221, 
  "Co.": 9222, 
  "Suites": 9223, 
  "Mittagessen": 9224, 
  "Verbündeten": 9225, 
  "esischen": 9226, 
  "büro": 9227, 
  "set@@": 9228, 
  "verhältnisse": 9229, 
  "Fotografie": 9230, 
  "Zeitschrift": 9231, 
  "OECD": 9232, 
  "jenseits": 9233, 
  "gedenkt": 9234, 
  "definitiv": 9235, 
  "erhielten": 9236, 
  "Sudan": 9237, 
  "entr@@": 9238, 
  "schriften": 9239, 
  "Drucker": 9240, 
  "Hall": 9241, 
  "itäten": 9242, 
  "ala": 9243, 
  "Begleitung": 9244, 
  "flexiblen": 9245, 
  "wach@@": 9246, 
  "nachfolgenden": 9247, 
  "saal": 9248, 
  "planung": 9249, 
  "versprechen": 9250, 
  "auff@@": 9251, 
  "Sim@@": 9252, 
  "kapazität": 9253, 
  "9.@@": 9254, 
  "gehende": 9255, 
  "Valencia": 9256, 
  "Spiegel": 9257, 
  "widerspiegelt": 9258, 
  "Arbeitszeit": 9259, 
  "punkten": 9260, 
  "buffet": 9261, 
  "C5": 9262, 
  "übernahm": 9263, 
  "1986": 9264, 
  "Motoren": 9265, 
  "gefahren": 9266, 
  "LE": 9267, 
  "mischen": 9268, 
  "Schnee": 9269, 
  "ty": 9270, 
  "genetisch": 9271, 
  "Christian": 9272, 
  "versuchte": 9273, 
  "Beibehaltung": 9274, 
  "Konvergenz": 9275, 
  "Recht@@": 9276, 
  "wahrgenommen": 9277, 
  "Seminare": 9278, 
  "befreit": 9279, 
  "beheben": 9280, 
  "Tabellen": 9281, 
  "Zukunfts@@": 9282, 
  "steuerung": 9283, 
  "Erziehung": 9284, 
  "Dresden": 9285, 
  "1980": 9286, 
  "Konsolidierung": 9287, 
  "uss": 9288, 
  "Ausschüssen": 9289, 
  "wohin": 9290, 
  "DC": 9291, 
  "Korrektur": 9292, 
  "anerkannten": 9293, 
  "Griechenlands": 9294, 
  "Palma": 9295, 
  "geeinigt": 9296, 
  "Nachrichten@@": 9297, 
  "Betrieb@@": 9298, 
  "Erkenntnis": 9299, 
  "muster": 9300, 
  "wählt": 9301, 
  "bestände": 9302, 
  "Estland": 9303, 
  "Rep@@": 9304, 
  "bal@@": 9305, 
  "manager": 9306, 
  "Klaren": 9307, 
  "erbringen": 9308, 
  "SO@@": 9309, 
  "Fremd@@": 9310, 
  "iner": 9311, 
  "transparente": 9312, 
  "Home": 9313, 
  "1945": 9314, 
  "Darlehen": 9315, 
  "Den": 9316, 
  "Gerichts@@": 9317, 
  "mus": 9318, 
  "mitglieder": 9319, 
  "pfen": 9320, 
  "spor@@": 9321, 
  "sus": 9322, 
  "aufhalten": 9323, 
  "hebt": 9324, 
  "potenziellen": 9325, 
  "verläuft": 9326, 
  "standes": 9327, 
  "zweites": 9328, 
  "gründete": 9329, 
  "stunden": 9330, 
  "heruntergeladen": 9331, 
  "mes@@": 9332, 
  "Hauptziel": 9333, 
  "dert": 9334, 
  "aufgeführten": 9335, 
  "Turm": 9336, 
  "Gem@@": 9337, 
  "Texten": 9338, 
  "Reisenden": 9339, 
  "Spam": 9340, 
  "demselben": 9341, 
  "aut": 9342, 
  "Autom@@": 9343, 
  "Heimat@@": 9344, 
  "г@@": 9345, 
  "Nordirland": 9346, 
  "korrigiert": 9347, 
  "Anleger": 9348, 
  "verlängern": 9349, 
  "berechtigten": 9350, 
  "Rohstoffe": 9351, 
  "access": 9352, 
  "web@@": 9353, 
  "б@@": 9354, 
  "Auskunft": 9355, 
  "Hannover": 9356, 
  "versorgt": 9357, 
  "Rechtsrahmen": 9358, 
  "kostenfreien": 9359, 
  "Bestände": 9360, 
  "Pr@@": 9361, 
  "Fr@@": 9362, 
  "eingebettet": 9363, 
  "Grab@@": 9364, 
  "halb": 9365, 
  "verursachten": 9366, 
  "vereinbar": 9367, 
  "dieren": 9368, 
  "aufkommen": 9369, 
  "Cafés": 9370, 
  "älteste": 9371, 
  "Prüfungen": 9372, 
  "Wechsel@@": 9373, 
  "Veranstaltungs@@": 9374, 
  "christlichen": 9375, 
  "Sozialpartner": 9376, 
  "restaurants": 9377, 
  "Côte": 9378, 
  "Tauchen": 9379, 
  "entnehmen": 9380, 
  "starb": 9381, 
  "Versicherung": 9382, 
  "jo@@": 9383, 
  "sich@@": 9384, 
  "Fan": 9385, 
  "SMS": 9386, 
  "trans@@": 9387, 
  "eux": 9388, 
  "Birma": 9389, 
  "aufrechtzuerhalten": 9390, 
  "Plattformen": 9391, 
  "Ministerpräsidenten": 9392, 
  "ide@@": 9393, 
  "start": 9394, 
  "gesetzten": 9395, 
  "widmet": 9396, 
  "ecke": 9397, 
  "lehnt": 9398, 
  "bett": 9399, 
  "house": 9400, 
  "Wasch@@": 9401, 
  "Verschlechterung": 9402, 
  "nördlich": 9403, 
  "dens": 9404, 
  "Seg@@": 9405, 
  "Band@@": 9406, 
  "Zauber@@": 9407, 
  "Was": 9408, 
  "Zusagen": 9409, 
  "Tier": 9410, 
  "Line": 9411, 
  "vorzugehen": 9412, 
  "entsprechender": 9413, 
  "Symbole": 9414, 
  "Patten": 9415, 
  "Stamm@@": 9416, 
  "üblicherweise": 9417, 
  "Gebäudes": 9418, 
  "Warnung": 9419, 
  "ke@@": 9420, 
  "anwendungen": 9421, 
  "Terror": 9422, 
  "too": 9423, 
  "aufgeben": 9424, 
  "positives": 9425, 
  "ständiger": 9426, 
  "ando": 9427, 
  "89": 9428, 
  "Franzosen": 9429, 
  "günstiger": 9430, 
  "Kamin": 9431, 
  "Fal@@": 9432, 
  "entschuldigen": 9433, 
  "auftritt": 9434, 
  "Spannung": 9435, 
  "Gremien": 9436, 
  "stei@@": 9437, 
  "zeitlich": 9438, 
  "mm@@": 9439, 
  "amm@@": 9440, 
  "án": 9441, 
  "verwandelt": 9442, 
  "lem": 9443, 
  "beunruhigt": 9444, 
  "Tiefe": 9445, 
  "Prä@@": 9446, 
  "open": 9447, 
  "anschauen": 9448, 
  "weit@@": 9449, 
  "о@@": 9450, 
  "Europäisches": 9451, 
  "Subsidiaritätsprinzip": 9452, 
  "SK": 9453, 
  "bedaure": 9454, 
  "widerspiegeln": 9455, 
  "Tennis": 9456, 
  "Aluminium": 9457, 
  "Einsparungen": 9458, 
  "Akademie": 9459, 
  "Stadium": 9460, 
  "CA": 9461, 
  "verwendete": 9462, 
  "Kurs@@": 9463, 
  "Place": 9464, 
  "Potential": 9465, 
  "Vollständigkeit": 9466, 
  "Blair": 9467, 
  "dreht": 9468, 
  "infolgedessen": 9469, 
  "Hochschul@@": 9470, 
  "Konferenz-": 9471, 
  "mächtigen": 9472, 
  "price": 9473, 
  "Komplex": 9474, 
  "Ly@@": 9475, 
  "Wagen": 9476, 
  "ams": 9477, 
  "Überwindung": 9478, 
  "ED@@": 9479, 
  "ok": 9480, 
  "seinerzeit": 9481, 
  "Pakt": 9482, 
  "Appell": 9483, 
  "beschleunigt": 9484, 
  "zwecken": 9485, 
  "Wand": 9486, 
  "Sicherstellung": 9487, 
  "überdenken": 9488, 
  "Periode": 9489, 
  "91": 9490, 
  "gehalt": 9491, 
  "artikel": 9492, 
  "Downloads": 9493, 
  "facto": 9494, 
  "allgemeiner": 9495, 
  "zig": 9496, 
  "sol@@": 9497, 
  "ear@@": 9498, 
  "laufende": 9499, 
  "part": 9500, 
  "Arbeit@@": 9501, 
  "eingenommen": 9502, 
  "Chat": 9503, 
  "beauftragt": 9504, 
  "entfernten": 9505, 
  "Ph@@": 9506, 
  "lands": 9507, 
  "Sandstrand": 9508, 
  "juristischen": 9509, 
  "auswahl": 9510, 
  "zz@@": 9511, 
  "Presse@@": 9512, 
  "Kompromiß": 9513, 
  "Jerusalem": 9514, 
  "verteidigt": 9515, 
  "Zer@@": 9516, 
  "Kontinents": 9517, 
  "denk@@": 9518, 
  "Gemein@@": 9519, 
  "stärkt": 9520, 
  "Chemikalien": 9521, 
  "aufnahmen": 9522, 
  "untersagt": 9523, 
  "Mul@@": 9524, 
  "LCD": 9525, 
  "Gut": 9526, 
  "Harmonie": 9527, 
  "vari@@": 9528, 
  "Festivals": 9529, 
  "Jahrestag": 9530, 
  "territorialen": 9531, 
  "near": 9532, 
  "Handhabung": 9533, 
  "galt": 9534, 
  "Preises": 9535, 
  "verfahrens": 9536, 
  "einheimischen": 9537, 
  "Ersten": 9538, 
  "weiterentwickelt": 9539, 
  "PRO@@": 9540, 
  "König@@": 9541, 
  "isieren": 9542, 
  "bürger@@": 9543, 
  "met": 9544, 
  "zi": 9545, 
  "Flusses": 9546, 
  "Asyl": 9547, 
  "tigungen": 9548, 
  "Schwächen": 9549, 
  "heim@@": 9550, 
  "definierten": 9551, 
  "SC@@": 9552, 
  "Lat@@": 9553, 
  "strukturellen": 9554, 
  "unterschiedlichsten": 9555, 
  "bauten": 9556, 
  "Fest": 9557, 
  "Inneren": 9558, 
  "Hom@@": 9559, 
  "glichen": 9560, 
  "Geschäftsreisende": 9561, 
  "bedeutender": 9562, 
  "Aussehen": 9563, 
  "ander@@": 9564, 
  "pra@@": 9565, 
  "offenkundig": 9566, 
  "Bibliotheken": 9567, 
  "Designs": 9568, 
  "quiet": 9569, 
  "Integrations@@": 9570, 
  "AV@@": 9571, 
  "Organ@@": 9572, 
  "virtuelle": 9573, 
  "Stoffen": 9574, 
  "getroffenen": 9575, 
  "Pin@@": 9576, 
  "Pfeiler": 9577, 
  "Angehörigen": 9578, 
  "Delegationen": 9579, 
  "geschützten": 9580, 
  "versichert": 9581, 
  "wissenschaftlicher": 9582, 
  "Fra@@": 9583, 
  "Kommissars": 9584, 
  "Singapur": 9585, 
  "iker": 9586, 
  "nes": 9587, 
  "Lande": 9588, 
  "ico": 9589, 
  "Konservativen": 9590, 
  "Allgemeine": 9591, 
  "beihilfen": 9592, 
  "beliebige": 9593, 
  "bester": 9594, 
  "1985": 9595, 
  "Verkehrsmitteln": 9596, 
  "außer@@": 9597, 
  "Quark": 9598, 
  "gewaltigen": 9599, 
  "Nachtleben": 9600, 
  "rischen": 9601, 
  "Eis": 9602, 
  "antes": 9603, 
  "Song": 9604, 
  "ungsin@@": 9605, 
  "Strafe": 9606, 
  "Algerien": 9607, 
  "formulieren": 9608, 
  "OSZE": 9609, 
  "eben@@": 9610, 
  "Angestellten": 9611, 
  "did": 9612, 
  "Blumen": 9613, 
  "gänzlich": 9614, 
  "berg@@": 9615, 
  "even": 9616, 
  "mitt@@": 9617, 
  "Wider@@": 9618, 
  "Meeres": 9619, 
  "hinnehmen": 9620, 
  "ves": 9621, 
  "vereinen": 9622, 
  "CE": 9623, 
  "entziehen": 9624, 
  "herunter@@": 9625, 
  "Association": 9626, 
  "Filmen": 9627, 
  "86": 9628, 
  "Modell@@": 9629, 
  "schutzes": 9630, 
  "uneingeschränkte": 9631, 
  "extremen": 9632, 
  "ausgegangen": 9633, 
  "geschah": 9634, 
  "bes": 9635, 
  "stabil": 9636, 
  "nten": 9637, 
  "Nächte": 9638, 
  "gründet": 9639, 
  "schiff": 9640, 
  "zügig": 9641, 
  "europaweit": 9642, 
  "Block": 9643, 
  "Mitbürger": 9644, 
  "Beschränkung": 9645, 
  "ehrgeizige": 9646, 
  "Momente": 9647, 
  "polnische": 9648, 
  "1987": 9649, 
  "blauen": 9650, 
  "vorwiegend": 9651, 
  "Gewässern": 9652, 
  "Multimedia": 9653, 
  "right": 9654, 
  "Badewanne": 9655, 
  "Kriege": 9656, 
  "S.@@": 9657, 
  "geplante": 9658, 
  "Variablen": 9659, 
  "Gesichtspunkt": 9660, 
  "Solarium": 9661, 
  "Freilassung": 9662, 
  "stag": 9663, 
  "Müller": 9664, 
  "Gewähr": 9665, 
  "Edinburgh": 9666, 
  "aufrecht": 9667, 
  "Veranstaltungsräume": 9668, 
  "Verhaltenskodex": 9669, 
  "Schulz": 9670, 
  "Fax-": 9671, 
  "osteuropäischen": 9672, 
  "Fri@@": 9673, 
  "flug": 9674, 
  "aufgegriffen": 9675, 
  "GUE": 9676, 
  "Aufstellung": 9677, 
  "birgt": 9678, 
  "carte": 9679, 
  "bürgerliche": 9680, 
  "Nigeria": 9681, 
  "unternimmt": 9682, 
  "dete": 9683, 
  "system@@": 9684, 
  "Schulungen": 9685, 
  "umfangreiches": 9686, 
  "entdeckte": 9687, 
  "verlust": 9688, 
  "Typen": 9689, 
  "Kolumbien": 9690, 
  "Sil@@": 9691, 
  "Leser": 9692, 
  "Ansehen": 9693, 
  "person@@": 9694, 
  "Bou@@": 9695, 
  "Marco": 9696, 
  "Bemühen": 9697, 
  "Tech": 9698, 
  "appelliere": 9699, 
  "terin": 9700, 
  "fizierung": 9701, 
  "Pen@@": 9702, 
  "abgedeckt": 9703, 
  "Löhne": 9704, 
  "Jur@@": 9705, 
  "Unregelmäßigkeiten": 9706, 
  "verarbeiten": 9707, 
  "biegen": 9708, 
  "angekommen": 9709, 
  "sam": 9710, 
  "sn@@": 9711, 
  "bearbeitung": 9712, 
  "ologen": 9713, 
  "Einleitung": 9714, 
  "Botschaften": 9715, 
  "Interventionen": 9716, 
  "Gemeinschaftsebene": 9717, 
  "rech@@": 9718, 
  "mitzuteilen": 9719, 
  "Road": 9720, 
  "wan@@": 9721, 
  "wär@@": 9722, 
  "Lieferungen": 9723, 
  "Tom@@": 9724, 
  "handelte": 9725, 
  "Volkswirtschaft": 9726, 
  "Null": 9727, 
  "teure": 9728, 
  "Aktiv@@": 9729, 
  "herkömmlichen": 9730, 
  "bereitschaft": 9731, 
  "Times": 9732, 
  "betreffende": 9733, 
  "Welle": 9734, 
  "wirkung": 9735, 
  "großzügig": 9736, 
  "veranlassen": 9737, 
  "EG@@": 9738, 
  "repräsentiert": 9739, 
  "flug@@": 9740, 
  "Komm@@": 9741, 
  "bus@@": 9742, 
  "Alliance": 9743, 
  "here": 9744, 
  "73": 9745, 
  "vertrieben": 9746, 
  "tur": 9747, 
  "geehrter": 9748, 
  "siv": 9749, 
  "nungen": 9750, 
  "teilnehmenden": 9751, 
  "Bauern@@": 9752, 
  "Toskana": 9753, 
  "bestrebt": 9754, 
  "Oper": 9755, 
  "Portfolio": 9756, 
  "ethnische": 9757, 
  "Sammel@@": 9758, 
  "ı@@": 9759, 
  "Rechtsprechung": 9760, 
  "ade@@": 9761, 
  "Elektronik": 9762, 
  "gewahrt": 9763, 
  "Aufteilung": 9764, 
  "aktiver": 9765, 
  "modus": 9766, 
  "Auswahl@@": 9767, 
  "egel": 9768, 
  "einschlägigen": 9769, 
  "Denk@@": 9770, 
  "Gesetzgeber": 9771, 
  "Mc@@": 9772, 
  "Befürchtungen": 9773, 
  "tert": 9774, 
  "elektrischen": 9775, 
  "gemeldet": 9776, 
  "Klausel": 9777, 
  "herauszufinden": 9778, 
  "els@@": 9779, 
  "vo": 9780, 
  "ück@@": 9781, 
  "beach": 9782, 
  "aufgeteilt": 9783, 
  "appen": 9784, 
  "ium": 9785, 
  "Auszeichnung": 9786, 
  "freundlicher": 9787, 
  "verbesserten": 9788, 
  "wiederherzustellen": 9789, 
  "Riviera": 9790, 
  "unverändert": 9791, 
  "Streben": 9792, 
  "Pflanzen@@": 9793, 
  "Plätzen": 9794, 
  "reinen": 9795, 
  "lia": 9796, 
  "q": 9797, 
  "abl@@": 9798, 
  "zusammengefasst": 9799, 
  "iel@@": 9800, 
  "Bonus@@": 9801, 
  "historischer": 9802, 
  "iti@@": 9803, 
  "Ausbruch": 9804, 
  "Gründer": 9805, 
  "Solar@@": 9806, 
  "holz": 9807, 
  "ativer": 9808, 
  "Politikern": 9809, 
  "Unfall": 9810, 
  "einzeln": 9811, 
  "zweier": 9812, 
  "Mes@@": 9813, 
  "Tei@@": 9814, 
  "trag@@": 9815, 
  "kop@@": 9816, 
  "betrag": 9817, 
  "Planet": 9818, 
  "gei@@": 9819, 
  "many": 9820, 
  "echtes": 9821, 
  "Funktions@@": 9822, 
  "sitzt": 9823, 
  "Wohlergehen": 9824, 
  "ihrerseits": 9825, 
  "Wellnessbereich": 9826, 
  "anforderungen": 9827, 
  "strecken": 9828, 
  "DEN": 9829, 
  "Mutter@@": 9830, 
  "regierung": 9831, 
  "nette": 9832, 
  "Exporte": 9833, 
  "Münzen": 9834, 
  "Holiday": 9835, 
  "ga@@": 9836, 
  "Satelliten@@": 9837, 
  "Erwärmung": 9838, 
  "Dom@@": 9839, 
  "zusätzlicher": 9840, 
  "schwachen": 9841, 
  "Germany": 9842, 
  "obliegt": 9843, 
  "kombinieren": 9844, 
  "Reisende": 9845, 
  "Genfer": 9846, 
  "vers": 9847, 
  "verweigert": 9848, 
  "Größen": 9849, 
  "SDL": 9850, 
  "veränderten": 9851, 
  "Südtirol": 9852, 
  "häufigsten": 9853, 
  "Erdgeschoss": 9854, 
  "Autovermietung": 9855, 
  "verlaufen": 9856, 
  "dem@@": 9857, 
  "freiwillige": 9858, 
  "Label": 9859, 
  "wor@@": 9860, 
  "Zi@@": 9861, 
  "siert": 9862, 
  "Sha@@": 9863, 
  "tens": 9864, 
  "Hy@@": 9865, 
  "ähnlicher": 9866, 
  "Anbau": 9867, 
  "ain": 9868, 
  "high": 9869, 
  "Spaniens": 9870, 
  "finanz@@": 9871, 
  "istisch": 9872, 
  "versuche": 9873, 
  "schlafen": 9874, 
  "ermutigt": 9875, 
  "Kohle": 9876, 
  "aussieht": 9877, 
  "make": 9878, 
  "Fische": 9879, 
  "Wohl@@": 9880, 
  "ñ@@": 9881, 
  "studierte": 9882, 
  "liberalen": 9883, 
  "tigten": 9884, 
  "messe": 9885, 
  "Gefühle": 9886, 
  "Wiederaufnahme": 9887, 
  "unterrichtet": 9888, 
  "Brüder": 9889, 
  "liger": 9890, 
  "behilflich": 9891, 
  "Nahrung": 9892, 
  "grenzt": 9893, 
  "ppe": 9894, 
  "Ashton": 9895, 
  "74": 9896, 
  "Paar": 9897, 
  "Schriften": 9898, 
  "ero": 9899, 
  "Dat@@": 9900, 
  "voraussichtlich": 9901, 
  "Verstöße": 9902, 
  "cher@@": 9903, 
  "Protektionismus": 9904, 
  "under": 9905, 
  "mo": 9906, 
  "mitzu@@": 9907, 
  "Aufstockung": 9908, 
  "halbe": 9909, 
  "orientieren": 9910, 
  "optionen": 9911, 
  "eta": 9912, 
  "deten": 9913, 
  "Herzegowina": 9914, 
  "Super": 9915, 
  "icht": 9916, 
  "befürchten": 9917, 
  "EIB": 9918, 
  "überschritten": 9919, 
  "ehen": 9920, 
  "Varianten": 9921, 
  "beautiful": 9922, 
  "ball": 9923, 
  "reicher": 9924, 
  "faktoren": 9925, 
  "einräumen": 9926, 
  "chter": 9927, 
  "IM": 9928, 
  "exportieren": 9929, 
  "wechsel@@": 9930, 
  "abzustimmen": 9931, 
  "Bestandteile": 9932, 
  "Persönlichkeit": 9933, 
  "modelle": 9934, 
  "sel": 9935, 
  "Ford": 9936, 
  "Trainings@@": 9937, 
  "ili@@": 9938, 
  "itz@@": 9939, 
  "unterstützten": 9940, 
  "prüft": 9941, 
  "unterstützte": 9942, 
  "Hil@@": 9943, 
  "sahen": 9944, 
  "erledigen": 9945, 
  "Applikation": 9946, 
  "tin@@": 9947, 
  "boot": 9948, 
  "nett": 9949, 
  "Professional": 9950, 
  "hinausgehen": 9951, 
  "iss@@": 9952, 
  "ganzes": 9953, 
  "Flair": 9954, 
  "Evaluierung": 9955, 
  "drucken": 9956, 
  "Fo@@": 9957, 
  "konkreter": 9958, 
  "egen@@": 9959, 
  "Lebensbedingungen": 9960, 
  "verzeichnis": 9961, 
  "Krieg@@": 9962, 
  "ausgewogen": 9963, 
  "Em@@": 9964, 
  "ados": 9965, 
  "Nu@@": 9966, 
  "IL@@": 9967, 
  "Besatzung": 9968, 
  "Editor": 9969, 
  "sensiblen": 9970, 
  "kontinuierliche": 9971, 
  "persönliches": 9972, 
  "5.000": 9973, 
  "änge": 9974, 
  "ALDE": 9975, 
  "Erzeugnissen": 9976, 
  "stätte": 9977, 
  "Samsung": 9978, 
  "brachten": 9979, 
  "Da@@": 9980, 
  "Lettland": 9981, 
  "Erste": 9982, 
  "Belastungen": 9983, 
  "gängigen": 9984, 
  "becken": 9985, 
[...]
