{
  "eos": 41883, 
  "UNK": 1, 
  "the": 2, 
  ",": 3, 
  ".": 4, 
  "of": 5, 
  "and": 6, 
  "to": 7, 
  "in": 8, 
  "a": 9, 
  "is": 10, 
  "that": 11, 
  "for": 12, 
  "on": 13, 
  "@-@": 14, 
  "this": 15, 
  "with": 16, 
  "we": 17, 
  "it": 18, 
  "are": 19, 
  "be": 20, 
  "as": 21, 
  "I": 22, 
  "you": 23, 
  "by": 24, 
  "have": 25, 
  "not": 26, 
  "&quot;": 27, 
  "will": 28, 
  "which": 29, 
  "from": 30, 
  "at": 31, 
  "or": 32, 
  "an": 33, 
  "(": 34, 
  "&apos;s": 35, 
  "has": 36, 
  ")": 37, 
  "-": 38, 
  "our": 39, 
  "all": 40, 
  "can": 41, 
  "was": 42, 
  "European": 43, 
  "also": 44, 
  ":": 45, 
  "but": 46, 
  "your": 47, 
  "its": 48, 
  "there": 49, 
  "more": 50, 
  "one": 51, 
  "would": 52, 
  "their": 53, 
  "if": 54, 
  "been": 55, 
  "they": 56, 
  "should": 57, 
  "Mr": 58, 
  "Commission": 59, 
  "must": 60, 
  "these": 61, 
  "&apos;": 62, 
  "very": 63, 
  "new": 64, 
  "only": 65, 
  "do": 66, 
  "other": 67, 
  "so": 68, 
  "like": 69, 
  "time": 70, 
  "President": 71, 
  "about": 72, 
  "/": 73, 
  "what": 74, 
  "?": 75, 
  "up": 76, 
  "when": 77, 
  "no": 78, 
  "who": 79, 
  "us": 80, 
  "any": 81, 
  "Union": 82, 
  "people": 83, 
  "Europe": 84, 
  "out": 85, 
  "into": 86, 
  "such": 87, 
  "Parliament": 88, 
  "well": 89, 
  "my": 90, 
  "some": 91, 
  "were": 92, 
  "now": 93, 
  "first": 94, 
  "States": 95, 
  "his": 96, 
  "most": 97, 
  "report": 98, 
  "countries": 99, 
  "many": 100, 
  "use": 101, 
  "than": 102, 
  "Member": 103, 
  "!": 104, 
  "need": 105, 
  "he": 106, 
  "make": 107, 
  ";": 108, 
  "because": 109, 
  "EU": 110, 
  "important": 111, 
  "Council": 112, 
  "them": 113, 
  "work": 114, 
  "between": 115, 
  "take": 116, 
  "hotel": 117, 
  "two": 118, 
  "just": 119, 
  "...": 120, 
  "information": 121, 
  "after": 122, 
  "made": 123, 
  "those": 124, 
  "years": 125, 
  "way": 126, 
  "support": 127, 
  "over": 128, 
  "even": 129, 
  "world": 130, 
  "where": 131, 
  "had": 132, 
  "however": 133, 
  "here": 134, 
  "being": 135, 
  "policy": 136, 
  "may": 137, 
  "how": 138, 
  "am": 139, 
  "system": 140, 
  "year": 141, 
  "right": 142, 
  "therefore": 143, 
  "good": 144, 
  "area": 145, 
  "then": 146, 
  "order": 147, 
  "part": 148, 
  "through": 149, 
  "see": 150, 
  "market": 151, 
  "place": 152, 
  "possible": 153, 
  "both": 154, 
  "same": 155, 
  "within": 156, 
  "political": 157, 
  "economic": 158, 
  "own": 159, 
  "could": 160, 
  "%": 161, 
  "want": 162, 
  "de": 163, 
  "development": 164, 
  "under": 165, 
  "find": 166, 
  "against": 167, 
  "much": 168, 
  "does": 169, 
  "today": 170, 
  "able": 171, 
  "used": 172, 
  "country": 173, 
  "rights": 174, 
  "without": 175, 
  "high": 176, 
  "public": 177, 
  "since": 178, 
  "free": 179, 
  "international": 180, 
  "point": 181, 
  "number": 182, 
  "during": 183, 
  "great": 184, 
  "services": 185, 
  "long": 186, 
  "still": 187, 
  "before": 188, 
  "last": 189, 
  "available": 190, 
  "social": 191, 
  "different": 192, 
  "fact": 193, 
  "s": 194, 
  "know": 195, 
  "already": 196, 
  "say": 197, 
  "room": 198, 
  "view": 199, 
  "2": 200, 
  "future": 201, 
  "me": 202, 
  "believe": 203, 
  "get": 204, 
  "course": 205, 
  "too": 206, 
  "products": 207, 
  "each": 208, 
  "every": 209, 
  "quality": 210, 
  "data": 211, 
  "service": 212, 
  "1": 213, 
  "set": 214, 
  "cannot": 215, 
  "process": 216, 
  "think": 217, 
  "level": 218, 
  "case": 219, 
  "day": 220, 
  "end": 221, 
  "human": 222, 
  "offers": 223, 
  "financial": 224, 
  "Commissioner": 225, 
  "question": 226, 
  "best": 227, 
  "while": 228, 
  "national": 229, 
  "city": 230, 
  "based": 231, 
  "small": 232, 
  "example": 233, 
  "debate": 234, 
  "issue": 235, 
  "Hotel": 236, 
  "means": 237, 
  "said": 238, 
  "why": 239, 
  "proposal": 240, 
  "including": 241, 
  "help": 242, 
  "business": 243, 
  "rooms": 244, 
  "situation": 245, 
  "three": 246, 
  "access": 247, 
  "clear": 248, 
  "next": 249, 
  "3": 250, 
  "offer": 251, 
  "particular": 252, 
  "energy": 253, 
  "&#91;": 254, 
  "large": 255, 
  "measures": 256, 
  "further": 257, 
  "areas": 258, 
  "&#93;": 259, 
  "few": 260, 
  "give": 261, 
  "given": 262, 
  "common": 263, 
  "citizens": 264, 
  "located": 265, 
  "provide": 266, 
  "far": 267, 
  "agreement": 268, 
  "taken": 269, 
  "again": 270, 
  "Committee": 271, 
  "problem": 272, 
  "put": 273, 
  "come": 274, 
  "ensure": 275, 
  "company": 276, 
  "another": 277, 
  "problems": 278, 
  "change": 279, 
  "security": 280, 
  "back": 281, 
  "her": 282, 
  "The": 283, 
  "necessary": 284, 
  "go": 285, 
  "using": 286, 
  "cooperation": 287, 
  "whether": 288, 
  "shall": 289, 
  "please": 290, 
  "real": 291, 
  "vote": 292, 
  "life": 293, 
  "group": 294, 
  "always": 295, 
  "needs": 296, 
  "stay": 297, 
  "position": 298, 
  "&apos;t": 299, 
  "hope": 300, 
  "better": 301, 
  "law": 302, 
  "form": 303, 
  "4": 304, 
  "action": 305, 
  "together": 306, 
  "special": 307, 
  "full": 308, 
  "&amp;": 309, 
  "around": 310, 
  "United": 311, 
  "working": 312, 
  "open": 313, 
  "10": 314, 
  "current": 315, 
  "protection": 316, 
  "main": 317, 
  "production": 318, 
  "state": 319, 
  "did": 320, 
  "making": 321, 
  "trade": 322, 
  "5": 323, 
  "power": 324, 
  "become": 325, 
  "thank": 326, 
  "particularly": 327, 
  "present": 328, 
  "let": 329, 
  "children": 330, 
  "second": 331, 
  "once": 332, 
  "terms": 333, 
  "down": 334, 
  "legal": 335, 
  "result": 336, 
  "experience": 337, 
  "House": 338, 
  "Mrs": 339, 
  "Community": 340, 
  "Group": 341, 
  "issues": 342, 
  "women": 343, 
  "systems": 344, 
  "especially": 345, 
  "companies": 346, 
  "various": 347, 
  "less": 348, 
  "centre": 349, 
  "conditions": 350, 
  "certain": 351, 
  "industry": 352, 
  "health": 353, 
  "role": 354, 
  "per": 355, 
  "old": 356, 
  "government": 357, 
  "sector": 358, 
  "control": 359, 
  "whole": 360, 
  "several": 361, 
  "site": 362, 
  "basis": 363, 
  "e": 364, 
  "welcome": 365, 
  "local": 366, 
  "matter": 367, 
  "following": 368, 
  "create": 369, 
  "called": 370, 
  "third": 371, 
  "close": 372, 
  "yet": 373, 
  "research": 374, 
  "look": 375, 
  "done": 376, 
  "account": 377, 
  "specific": 378, 
  "respect": 379, 
  "really": 380, 
  "budget": 381, 
  "water": 382, 
  "region": 383, 
  "German": 384, 
  "non": 385, 
  "global": 386, 
  "major": 387, 
  "subject": 388, 
  "term": 389, 
  "something": 390, 
  "million": 391, 
  "page": 392, 
  "modern": 393, 
  "often": 394, 
  "project": 395, 
  "decision": 396, 
  "un@@": 397, 
  "line": 398, 
  "continue": 399, 
  "Germany": 400, 
  "single": 401, 
  "crisis": 402, 
  "US": 403, 
  "rapporteur": 404, 
  "itself": 405, 
  "resolution": 406, 
  "she": 407, 
  "due": 408, 
  "until": 409, 
  "start": 410, 
  "going": 411, 
  "management": 412, 
  "programme": 413, 
  "general": 414, 
  "enjoy": 415, 
  "gentlemen": 416, 
  "hand": 417, 
  "wish": 418, 
  "location": 419, 
  "away": 420, 
  "ladies": 421, 
  "family": 422, 
  "growth": 423, 
  "excellent": 424, 
  "least": 425, 
  "rules": 426, 
  "range": 427, 
  "name": 428, 
  "ask": 429, 
  "private": 430, 
  "directive": 431, 
  "having": 432, 
  "regard": 433, 
  "price": 434, 
  "software": 435, 
  "off": 436, 
  "environment": 437, 
  "customers": 438, 
  "among": 439, 
  "rather": 440, 
  "money": 441, 
  "towards": 442, 
  "food": 443, 
  "re@@": 444, 
  "transport": 445, 
  "product": 446, 
  "o": 447, 
  "things": 448, 
  "little": 449, 
  "institutions": 450, 
  "days": 451, 
  "individual": 452, 
  "fully": 453, 
  "found": 454, 
  "staff": 455, 
  "Madam": 456, 
  "increase": 457, 
  "known": 458, 
  "home": 459, 
  "20": 460, 
  "although": 461, 
  "quite": 462, 
  "personal": 463, 
  "opportunity": 464, 
  "short": 465, 
  "2009": 466, 
  "air": 467, 
  "Treaty": 468, 
  "forward": 469, 
  "call": 470, 
  "activities": 471, 
  "interest": 472, 
  "him": 473, 
  "approach": 474, 
  "aid": 475, 
  "members": 476, 
  "resources": 477, 
  "list": 478, 
  "technology": 479, 
  "China": 480, 
  "above": 481, 
  "provided": 482, 
  "es": 483, 
  "taking": 484, 
  "value": 485, 
  "economy": 486, 
  "allow": 487, 
  "field": 488, 
  "finally": 489, 
  "amendments": 490, 
  "according": 491, 
  "period": 492, 
  "agree": 493, 
  "might": 494, 
  "i": 495, 
  "solution": 496, 
  "include": 497, 
  "safety": 498, 
  "proposals": 499, 
  "costs": 500, 
  "la": 501, 
  "simply": 502, 
  "left": 503, 
  "building": 504, 
  "y": 505, 
  "play": 506, 
  "thus": 507, 
  "30": 508, 
  "progress": 509, 
  "framework": 510, 
  "design": 511, 
  "others": 512, 
  "easy": 513, 
  "town": 514, 
  "key": 515, 
  "times": 516, 
  "Members": 517, 
  "reason": 518, 
  "en": 519, 
  "contact": 520, 
  "effective": 521, 
  "points": 522, 
  "adopted": 523, 
  "makes": 524, 
  "ed": 525, 
  "indeed": 526, 
  "legislation": 527, 
  "content": 528, 
  "State": 529, 
  "projects": 530, 
  "application": 531, 
  "difficult": 532, 
  "provides": 533, 
  "results": 534, 
  "attention": 535, 
  "opinion": 536, 
  "favour": 537, 
  "website": 538, 
  "questions": 539, 
  "policies": 540, 
  "show": 541, 
  "responsibility": 542, 
  "minutes": 543, 
  "clearly": 544, 
  "groups": 545, 
  "concerned": 546, 
  "addition": 547, 
  "along": 548, 
  "15": 549, 
  "beautiful": 550, 
  "greater": 551, 
  "text": 552, 
  "complete": 553, 
  "6": 554, 
  "importance": 555, 
  "behalf": 556, 
  "environmental": 557, 
  "version": 558, 
  "society": 559, 
  "recent": 560, 
  "strategy": 561, 
  "currently": 562, 
  "side": 563, 
  "guests": 564, 
  "natural": 565, 
  "standards": 566, 
  "four": 567, 
  "training": 568, 
  "principle": 569, 
  "situated": 570, 
  "step": 571, 
  "wide": 572, 
  "words": 573, 
  "sea": 574, 
  "required": 575, 
  "meeting": 576, 
  "technical": 577, 
  "visit": 578, 
  "Internet": 579, 
  "user": 580, 
  "light": 581, 
  "authorities": 582, 
  "risk": 583, 
  "century": 584, 
  "address": 585, 
  "deal": 586, 
  "ing": 587, 
  "World": 588, 
  "pages": 589, 
  "heart": 590, 
  "achieve": 591, 
  "kind": 592, 
  "directly": 593, 
  "feel": 594, 
  "solutions": 595, 
  "longer": 596, 
  "Russia": 597, 
  "past": 598, 
  "essential": 599, 
  "serious": 600, 
  "history": 601, 
  "S@@": 602, 
  "employment": 603, 
  "bring": 604, 
  "cultural": 605, 
  "cost": 606, 
  "2008": 607, 
  "house": 608, 
  "2010": 609, 
  "months": 610, 
  "responsible": 611, 
  "12": 612, 
  "needed": 613, 
  "upon": 614, 
  "online": 615, 
  "proposed": 616, 
  "enough": 617, 
  "nature": 618, 
  "developed": 619, 
  "central": 620, 
  "breakfast": 621, 
  "near": 622, 
  "democracy": 623, 
  "internal": 624, 
  "young": 625, 
  "though": 626, 
  "requirements": 627, 
  "never": 628, 
  "events": 629, 
  "interests": 630, 
  "&apos;@@": 631, 
  "rate": 632, 
  "sure": 633, 
  "in@@": 634, 
  "ago": 635, 
  "related": 636, 
  "efforts": 637, 
  "&#124;": 638, 
  "competition": 639, 
  "parties": 640, 
  "changes": 641, 
  "keep": 642, 
  "freedom": 643, 
  "themselves": 644, 
  "voted": 645, 
  "regions": 646, 
  "implementation": 647, 
  "involved": 648, 
  "via": 649, 
  "everything": 650, 
  "facilities": 651, 
  "regulation": 652, 
  "restaurant": 653, 
  "peace": 654, 
  "prices": 655, 
  "m": 656, 
  "top": 657, 
  "7": 658, 
  "date": 659, 
  "markets": 660, 
  "language": 661, 
  "art": 662, 
  "almost": 663, 
  "8": 664, 
  "extremely": 665, 
  "either": 666, 
  "person": 667, 
  "network": 668, 
  "positive": 669, 
  "car": 670, 
  "views": 671, 
  "additional": 672, 
  "cases": 673, 
  "developing": 674, 
  "negotiations": 675, 
  "EUR": 676, 
  "looking": 677, 
  "force": 678, 
  "strong": 679, 
  "T@@": 680, 
  "later": 681, 
  "foreign": 682, 
  "education": 683, 
  "event": 684, 
  "climate": 685, 
  "comes": 686, 
  "true": 687, 
  "created": 688, 
  "total": 689, 
  "share": 690, 
  "run": 691, 
  "thanks": 692, 
  "democratic": 693, 
  "consider": 694, 
  "click": 695, 
  "standard": 696, 
  "low": 697, 
  "P@@": 698, 
  "soon": 699, 
  "success": 700, 
  "war": 701, 
  "live": 702, 
  "request": 703, 
  "team": 704, 
  "regional": 705, 
  "check": 706, 
  "unique": 707, 
  "pay": 708, 
  "music": 709, 
  "improve": 710, 
  "states": 711, 
  "actually": 712, 
  "five": 713, 
  "meet": 714, 
  "2007": 715, 
  "fundamental": 716, 
  "note": 717, 
  "type": 718, 
  "lot": 719, 
  "B@@": 720, 
  "designed": 721, 
  "seen": 722, 
  "living": 723, 
  "file": 724, 
  "effect": 725, 
  "Presidency": 726, 
  "50": 727, 
  "certainly": 728, 
  "receive": 729, 
  "throughout": 730, 
  "thing": 731, 
  "capital": 732, 
  "included": 733, 
  "add": 734, 
  "book": 735, 
  "French": 736, 
  "funds": 737, 
  "A@@": 738, 
  "held": 739, 
  "investment": 740, 
  "users": 741, 
  "understand": 742, 
  "idea": 743, 
  "perhaps": 744, 
  "workers": 745, 
  "accept": 746, 
  "care": 747, 
  "appropriate": 748, 
  "comfortable": 749, 
  "lead": 750, 
  "famous": 751, 
  "beach": 752, 
  "direct": 753, 
  "road": 754, 
  "ever": 755, 
  "France": 756, 
  "built": 757, 
  "outside": 758, 
  "try": 759, 
  "d": 760, 
  "al": 761, 
  "turn": 762, 
  "knowledge": 763, 
  "program": 764, 
  "early": 765, 
  "ideal": 766, 
  "customer": 767, 
  "International": 768, 
  "reach": 769, 
  "bar": 770, 
  "doing": 771, 
  "procedure": 772, 
  "friendly": 773, 
  "c@@": 774, 
  "space": 775, 
  "features": 776, 
  "majority": 777, 
  "parts": 778, 
  "traditional": 779, 
  "communication": 780, 
  "across": 781, 
  "C@@": 782, 
  "nothing": 783, 
  "works": 784, 
  "A": 785, 
  "week": 786, 
  "km": 787, 
  "tax": 788, 
  "existing": 789, 
  "night": 790, 
  "D@@": 791, 
  "takes": 792, 
  "big": 793, 
  "guarantee": 794, 
  "etc": 795, 
  "reform": 796, 
  "plan": 797, 
  "instead": 798, 
  "hours": 799, 
  "el": 800, 
  "age": 801, 
  "2000": 802, 
  "relations": 803, 
  "er": 804, 
  "station": 805, 
  "final": 806, 
  "man": 807, 
  "concerning": 808, 
  "*": 809, 
  "100": 810, 
  "leading": 811, 
  "American": 812, 
  "military": 813, 
  "context": 814, 
  "concerns": 815, 
  "s@@": 816, 
  "mentioned": 817, 
  "performance": 818, 
  "Turkey": 819, 
  "significant": 820, 
  "regarding": 821, 
  "writing": 822, 
  "read": 823, 
  "M@@": 824, 
  "hard": 825, 
  "professional": 826, 
  "member": 827, 
  "impact": 828, 
  "party": 829, 
  "24": 830, 
  "established": 831, 
  "decisions": 832, 
  "completely": 833, 
  "apply": 834, 
  "took": 835, 
  "G@@": 836, 
  "K@@": 837, 
  "connection": 838, 
  "perfect": 839, 
  "der": 840, 
  "programmes": 841, 
  "land": 842, 
  "population": 843, 
  "below": 844, 
  "reasons": 845, 
  "everyone": 846, 
  "aware": 847, 
  "send": 848, 
  "community": 849, 
  "allows": 850, 
  "holiday": 851, 
  "America": 852, 
  "remain": 853, 
  "N@@": 854, 
  "recently": 855, 
  "web": 856, 
  "media": 857, 
  "includes": 858, 
  "basic": 859, 
  "equipped": 860, 
  "game": 861, 
  "committee": 862, 
  "choose": 863, 
  "practice": 864, 
  "culture": 865, 
  "original": 866, 
  "amount": 867, 
  "moment": 868, 
  "+": 869, 
  "11": 870, 
  "demand": 871, 
  "half": 872, 
  "pool": 873, 
  "walk": 874, 
  "agreements": 875, 
  "jobs": 876, 
  "model": 877, 
  "partners": 878, 
  "values": 879, 
  "Government": 880, 
  "applications": 881, 
  "body": 882, 
  "benefit": 883, 
  "L@@": 884, 
  "initiative": 885, 
  "develop": 886, 
  "ate": 887, 
  "follow": 888, 
  "choice": 889, 
  "TV": 890, 
  "received": 891, 
  "25": 892, 
  "objectives": 893, 
  "move": 894, 
  "equipment": 895, 
  "2006": 896, 
  "V@@": 897, 
  "package": 898, 
  "Office": 899, 
  "entire": 900, 
  "euro": 901, 
  "stop": 902, 
  "simple": 903, 
  "amendment": 904, 
  ".@@": 905, 
  "agricultural": 906, 
  "governments": 907, 
  "image": 908, 
  "quickly": 909, 
  "South": 910, 
  "Lisbon": 911, 
  "focus": 912, 
  "concern": 913, 
  "card": 914, 
  "reports": 915, 
  "aim": 916, 
  "fight": 917, 
  "style": 918, 
  "face": 919, 
  "objective": 920, 
  "New": 921, 
  "despite": 922, 
  "goods": 923, 
  "treatment": 924, 
  "files": 925, 
  "y@@": 926, 
  "don": 927, 
  "9": 928, 
  "English": 929, 
  "return": 930, 
  "rates": 931, 
  "sense": 932, 
  "material": 933, 
  "active": 934, 
  "seems": 935, 
  "contains": 936, 
  "consumers": 937, 
  "l": 938, 
  "highly": 939, 
  "Court": 940, 
  "self": 941, 
  "potential": 942, 
  "act": 943, 
  "E@@": 944, 
  "increased": 945, 
  "beginning": 946, 
  "achieved": 947, 
  "successful": 948, 
  "_": 949, 
  "function": 950, 
  "guest": 951, 
  "R@@": 952, 
  "added": 953, 
  "F@@": 954, 
  "higher": 955, 
  "men": 956, 
  "hotels": 957, 
  "prevent": 958, 
  "job": 959, 
  "nuclear": 960, 
  "answer": 961, 
  "keyword": 962, 
  "mind": 963, 
  "levels": 964, 
  "huge": 965, 
  "t@@": 966, 
  "di": 967, 
  "stage": 968, 
  "H@@": 969, 
  "center": 970, 
  "dialogue": 971, 
  "travel": 972, 
  "internet": 973, 
  "integration": 974, 
  "lack": 975, 
  "double": 976, 
  "O@@": 977, 
  "computer": 978, 
  "series": 979, 
  "mean": 980, 
  "unfortunately": 981, 
  "June": 982, 
  "No": 983, 
  "ers": 984, 
  "agreed": 985, 
  "presented": 986, 
  "East": 987, 
  "border": 988, 
  "reviews": 989, 
  "led": 990, 
  "mail": 991, 
  "und": 992, 
  "carried": 993, 
  "i@@": 994, 
  "p@@": 995, 
  "shows": 996, 
  "office": 997, 
  "behind": 998, 
  "commitment": 999, 
  "complex": 1000, 
  "Affairs": 1001, 
  "d@@": 1002, 
  "search": 1003, 
  "oil": 1004, 
  "submitted": 1005, 
  "principles": 1006, 
  "whose": 1007, 
  "setting": 1008, 
  "e@@": 1009, 
  "effects": 1010, 
  "increasing": 1011, 
  "star": 1012, 
  "shown": 1013, 
  "exchange": 1014, 
  "direction": 1015, 
  "table": 1016, 
  "enable": 1017, 
  "asked": 1018, 
  "matters": 1019, 
  "latest": 1020, 
  "�": 1021, 
  "size": 1022, 
  "coming": 1023, 
  "pressure": 1024, 
  "Berlin": 1025, 
  "$": 1026, 
  "sustainable": 1027, 
  "considered": 1028, 
  "ways": 1029, 
  "joint": 1030, 
  "previous": 1031, 
  "nor": 1032, 
  "v@@": 1033, 
  "opportunities": 1034, 
  "providing": 1035, 
  "easily": 1036, 
  "capacity": 1037, 
  "written": 1038, 
  "nice": 1039, 
  "promote": 1040, 
  "floor": 1041, 
  "reduce": 1042, 
  "balance": 1043, 
  "die": 1044, 
  "accommodation": 1045, 
  "possibility": 1046, 
  "bed": 1047, 
  "response": 1048, 
  "external": 1049, 
  "materials": 1050, 
  "aspects": 1051, 
  "reached": 1052, 
  "re": 1053, 
  "creation": 1054, 
  "remains": 1055, 
  "industrial": 1056, 
  "Spain": 1057, 
  "®": 1058, 
  "summer": 1059, 
  "prepared": 1060, 
  "came": 1061, 
  "enlargement": 1062, 
  "Article": 1063, 
  "speak": 1064, 
  "2005": 1065, 
  "en@@": 1066, 
  "billion": 1067, 
  "details": 1068, 
  "supply": 1069, 
  "front": 1070, 
  "popular": 1071, 
  "commercial": 1072, 
  "sound": 1073, 
  "former": 1074, 
  "fair": 1075, 
  "funding": 1076, 
  "priority": 1077, 
  "leave": 1078, 
  "protect": 1079, 
  "civil": 1080, 
  "similar": 1081, 
  "consumer": 1082, 
  "Africa": 1083, 
  "k@@": 1084, 
  "supported": 1085, 
  "actions": 1086, 
  "places": 1087, 
  "atmosphere": 1088, 
  "gives": 1089, 
  "closed": 1090, 
  "n@@": 1091, 
  "independent": 1092, 
  "decided": 1093, 
  "video": 1094, 
  "bus": 1095, 
  "W@@": 1096, 
  "ability": 1097, 
  "cause": 1098, 
  "September": 1099, 
  "limited": 1100, 
  "ar": 1101, 
  "creating": 1102, 
  "test": 1103, 
  "Italy": 1104, 
  "sites": 1105, 
  "le": 1106, 
  "rest": 1107, 
  "et": 1108, 
  "board": 1109, 
  "property": 1110, 
  "operation": 1111, 
  "December": 1112, 
  "al@@": 1113, 
  "six": 1114, 
  "18": 1115, 
  "ar@@": 1116, 
  "island": 1117, 
  "C": 1118, 
  "press": 1119, 
  "rule": 1120, 
  "assistance": 1121, 
  "largest": 1122, 
  "furthermore": 1123, 
  "forms": 1124, 
  "construction": 1125, 
  "movement": 1126, 
  "May": 1127, 
  "moreover": 1128, 
  "categories": 1129, 
  "2004": 1130, 
  "regulations": 1131, 
  "Bank": 1132, 
  "produced": 1133, 
  "download": 1134, 
  "apartment": 1135, 
  "purpose": 1136, 
  "clean": 1137, 
  "enter": 1138, 
  "stability": 1139, 
  "source": 1140, 
  "credit": 1141, 
  "efficient": 1142, 
  "pleased": 1143, 
  "charge": 1144, 
  "relevant": 1145, 
  "brought": 1146, 
  "ated": 1147, 
  "ation": 1148, 
  "speed": 1149, 
  "safe": 1150, 
  "40": 1151, 
  "conference": 1152, 
  "Convention": 1153, 
  "message": 1154, 
  "January": 1155, 
  "discussion": 1156, 
  "variety": 1157, 
  "activity": 1158, 
  "cross": 1159, 
  "ten": 1160, 
  "sometimes": 1161, 
  "March": 1162, 
  "became": 1163, 
  "class": 1164, 
  "b@@": 1165, 
  "British": 1166, 
  "interesting": 1167, 
  "j@@": 1168, 
  "steps": 1169, 
  "October": 1170, 
  "o@@": 1171, 
  "fishing": 1172, 
  "started": 1173, 
  "Central": 1174, 
  "14": 1175, 
  "violence": 1176, 
  "giving": 1177, 
  "document": 1178, 
  "link": 1179, 
  "study": 1180, 
  "tell": 1181, 
  "produce": 1182, 
  "allowed": 1183, 
  "Mediterranean": 1184, 
  "16": 1185, 
  "compromise": 1186, 
  "secondly": 1187, 
  "statement": 1188, 
  "documents": 1189, 
  "damage": 1190, 
  "regards": 1191, 
  "benefits": 1192, 
  "numerous": 1193, 
  "partner": 1194, 
  "z@@": 1195, 
  "procedures": 1196, 
  "status": 1197, 
  "restaurants": 1198, 
  "concept": 1199, 
  "code": 1200, 
  "section": 1201, 
  "effort": 1202, 
  "contribution": 1203, 
  "growing": 1204, 
  "option": 1205, 
  "de@@": 1206, 
  "2003": 1207, 
  "Republic": 1208, 
  "Minister": 1209, 
  "agenda": 1210, 
  "m@@": 1211, 
  "structure": 1212, 
  "distance": 1213, 
  "beyond": 1214, 
  "drive": 1215, 
  "instruments": 1216, 
  "Italian": 1217, 
  "school": 1218, 
  "historical": 1219, 
  "payment": 1220, 
  "integrated": 1221, 
  "airport": 1222, 
  "tool": 1223, 
  "require": 1224, 
  "provisions": 1225, 
  "&apos;ll": 1226, 
  "f@@": 1227, 
  "starting": 1228, 
  "immediately": 1229, 
  "transparency": 1230, 
  "firstly": 1231, 
  "task": 1232, 
  "an@@": 1233, 
  "July": 1234, 
  "criteria": 1235, 
  "poverty": 1236, 
  "ourselves": 1237, 
  "item": 1238, 
  "des": 1239, 
  "g@@": 1240, 
  "medium": 1241, 
  "draft": 1242, 
  "UN": 1243, 
  "express": 1244, 
  "highest": 1245, 
  "relation": 1246, 
  "employees": 1247, 
  "labour": 1248, 
  "avoid": 1249, 
  "Spanish": 1250, 
  "challenges": 1251, 
  "North": 1252, 
  "base": 1253, 
  "types": 1254, 
  "offering": 1255, 
  "sub": 1256, 
  "distribution": 1257, 
  "13": 1258, 
  "apartments": 1259, 
  "daily": 1260, 
  "wine": 1261, 
  "€": 1262, 
  "k": 1263, 
  "village": 1264, 
  "gas": 1265, 
  "elements": 1266, 
  "I@@": 1267, 
  "t": 1268, 
  "b": 1269, 
  "stand": 1270, 
  "ground": 1271, 
  "learn": 1272, 
  "tools": 1273, 
  "solidarity": 1274, 
  "paid": 1275, 
  "review": 1276, 
  "elections": 1277, 
  "lines": 1278, 
  "post": 1279, 
  "digital": 1280, 
  "00": 1281, 
  "colleagues": 1282, 
  "analysis": 1283, 
  "conflict": 1284, 
  "di@@": 1285, 
  "official": 1286, 
  "word": 1287, 
  "reality": 1288, 
  "processes": 1289, 
  "tomorrow": 1290, 
  "applied": 1291, 
  "B": 1292, 
  "November": 1293, 
  "consequences": 1294, 
  "Service": 1295, 
  "goes": 1296, 
  "reading": 1297, 
  "park": 1298, 
  "legislative": 1299, 
  "friends": 1300, 
  "talk": 1301, 
  "requires": 1302, 
  "links": 1303, 
  "Windows": 1304, 
  "J@@": 1305, 
  "quiet": 1306, 
  "mobile": 1307, 
  "death": 1308, 
  "co": 1309, 
  "forces": 1310, 
  "D": 1311, 
  "saying": 1312, 
  "practical": 1313, 
  "terrorism": 1314, 
  "ch@@": 1315, 
  "parking": 1316, 
  "persons": 1317, 
  "equal": 1318, 
  "round": 1319, 
  "expect": 1320, 
  "2001": 1321, 
  "del": 1322, 
  "train": 1323, 
  "Rights": 1324, 
  "players": 1325, 
  "draw": 1326, 
  "happy": 1327, 
  "implemented": 1328, 
  "ideas": 1329, 
  "u@@": 1330, 
  "server": 1331, 
  "minimum": 1332, 
  "efficiency": 1333, 
  "late": 1334, 
  "sales": 1335, 
  "build": 1336, 
  "operating": 1337, 
  "carry": 1338, 
  "offered": 1339, 
  "4@@": 1340, 
  "comprehensive": 1341, 
  "useful": 1342, 
  "establish": 1343, 
  "crucial": 1344, 
  "poor": 1345, 
  "dis@@": 1346, 
  "otherwise": 1347, 
  "extra": 1348, 
  "congratulate": 1349, 
  "ready": 1350, 
  "rich": 1351, 
  "clients": 1352, 
  "probably": 1353, 
  "bit": 1354, 
  "April": 1355, 
  "maximum": 1356, 
  "monitoring": 1357, 
  "published": 1358, 
  "anti": 1359, 
  "news": 1360, 
  "organisations": 1361, 
  "reference": 1362, 
  "historic": 1363, 
  "voting": 1364, 
  "weeks": 1365, 
  "machine": 1366, 
  "a@@": 1367, 
  "General": 1368, 
  "reduction": 1369, 
  "visitors": 1370, 
  "lower": 1371, 
  "lives": 1372, 
  "worldwide": 1373, 
  "National": 1374, 
  "Western": 1375, 
  "farmers": 1376, 
  "mountain": 1377, 
  "leaders": 1378, 
  "anything": 1379, 
  "transfer": 1380, 
  "film": 1381, 
  "que": 1382, 
  "child": 1383, 
  "waste": 1384, 
  "overall": 1385, 
  "interested": 1386, 
  "begin": 1387, 
  "join": 1388, 
  "options": 1389, 
  "ones": 1390, 
  "Israel": 1391, 
  "instrument": 1392, 
  "x": 1393, 
  "Party": 1394, 
  "challenge": 1395, 
  "T": 1396, 
  "caused": 1397, 
  "technologies": 1398, 
  "innovative": 1399, 
  "cut": 1400, 
  "thought": 1401, 
  "banks": 1402, 
  "month": 1403, 
  "scientific": 1404, 
  "got": 1405, 
  "2002": 1406, 
  "nevertheless": 1407, 
  "businesses": 1408, 
  "Chinese": 1409, 
  "secure": 1410, 
  "sent": 1411, 
  "annual": 1412, 
  "accession": 1413, 
  "release": 1414, 
  "shopping": 1415, 
  "innovation": 1416, 
  "relating": 1417, 
  "green": 1418, 
  "da": 1419, 
  "methods": 1420, 
  "extent": 1421, 
  "mention": 1422, 
  "fast": 1423, 
  "languages": 1424, 
  "sectors": 1425, 
  "Development": 1426, 
  "accordance": 1427, 
  "powers": 1428, 
  "bathroom": 1429, 
  "method": 1430, 
  "advantage": 1431, 
  "sports": 1432, 
  "Paris": 1433, 
  "chance": 1434, 
  "os": 1435, 
  "scale": 1436, 
  "fine": 1437, 
  "fields": 1438, 
  "hold": 1439, 
  "selection": 1440, 
  "morning": 1441, 
  "Russian": 1442, 
  "images": 1443, 
  "lost": 1444, 
  "se": 1445, 
  "influence": 1446, 
  "strategic": 1447, 
  "Austria": 1448, 
  "target": 1449, 
  "Z@@": 1450, 
  "raised": 1451, 
  "swimming": 1452, 
  "garden": 1453, 
  "absolutely": 1454, 
  "opening": 1455, 
  "trying": 1456, 
  "alone": 1457, 
  "000": 1458, 
  "accepted": 1459, 
  "implement": 1460, 
  "doubt": 1461, 
  "processing": 1462, 
  "head": 1463, 
  "demands": 1464, 
  "wanted": 1465, 
  "U@@": 1466, 
  "usually": 1467, 
  "games": 1468, 
  "Ireland": 1469, 
  "Directive": 1470, 
  "street": 1471, 
  "borders": 1472, 
  "alternative": 1473, 
  "player": 1474, 
  "comfort": 1475, 
  "uses": 1476, 
  "contract": 1477, 
  "walking": 1478, 
  "email": 1479, 
  "changed": 1480, 
  "c": 1481, 
  "currency": 1482, 
  "select": 1483, 
  "reforms": 1484, 
  "Fund": 1485, 
  "running": 1486, 
  "worked": 1487, 
  "cities": 1488, 
  "rise": 1489, 
  "ro@@": 1490, 
  "increasingly": 1491, 
  "calls": 1492, 
  "er@@": 1493, 
  "pass": 1494, 
  "representatives": 1495, 
  "minute": 1496, 
  "Park": 1497, 
  "improved": 1498, 
  "mainly": 1499, 
  "el@@": 1500, 
  "adopt": 1501, 
  "London": 1502, 
  "lies": 1503, 
  "initiatives": 1504, 
  "students": 1505, 
  "ic": 1506, 
  "yourself": 1507, 
  "namely": 1508, 
  "17": 1509, 
  "confidence": 1510, 
  "h@@": 1511, 
  "illegal": 1512, 
  "placed": 1513, 
  "ating": 1514, 
  "committed": 1515, 
  "unemployment": 1516, 
  "plans": 1517, 
  "relationship": 1518, 
  "maintain": 1519, 
  "talking": 1520, 
  "comments": 1521, 
  "traffic": 1522, 
  "intended": 1523, 
  "delivery": 1524, 
  "3@@": 1525, 
  "ist": 1526, 
  "proper": 1527, 
  "met": 1528, 
  "planning": 1529, 
  "phone": 1530, 
  "expressed": 1531, 
  "ski": 1532, 
  "hour": 1533, 
  "menu": 1534, 
  "structural": 1535, 
  "60": 1536, 
  "fish": 1537, 
  "vital": 1538, 
  "n": 1539, 
  "goal": 1540, 
  "families": 1541, 
  "heard": 1542, 
  "white": 1543, 
  "or@@": 1544, 
  "l@@": 1545, 
  "San": 1546, 
  "suitable": 1547, 
  "cover": 1548, 
  "&apos;re": 1549, 
  "cohesion": 1550, 
  "affected": 1551, 
  "Conference": 1552, 
  "West": 1553, 
  "automatically": 1554, 
  "Japan": 1555, 
  "li@@": 1556, 
  "founded": 1557, 
  "u": 1558, 
  "approved": 1559, 
  "reduced": 1560, 
  "University": 1561, 
  "fall": 1562, 
  "infrastructure": 1563, 
  "regime": 1564, 
  "powerful": 1565, 
  "terrace": 1566, 
  "stress": 1567, 
  "tourist": 1568, 
  "1999": 1569, 
  "evening": 1570, 
  "correct": 1571, 
  "scope": 1572, 
  "II": 1573, 
  "speaking": 1574, 
  "decide": 1575, 
  "born": 1576, 
  "ates": 1577, 
  "Iraq": 1578, 
  "GmbH": 1579, 
  "emissions": 1580, 
  "feature": 1581, 
  "bank": 1582, 
  "love": 1583, 
  "specifically": 1584, 
  "administration": 1585, 
  "extensive": 1586, 
  "ti@@": 1587, 
  "City": 1588, 
  "p": 1589, 
  "debt": 1590, 
  "r@@": 1591, 
  "justice": 1592, 
  "supports": 1593, 
  "conclusion": 1594, 
  "critical": 1595, 
  "detailed": 1596, 
  "competitive": 1597, 
  "es@@": 1598, 
  "circumstances": 1599, 
  "ensuring": 1600, 
  "red": 1601, 
  "Amendment": 1602, 
  "Centre": 1603, 
  "electronic": 1604, 
  "priorities": 1605, 
  "installation": 1606, 
  "larger": 1607, 
  "separate": 1608, 
  "agriculture": 1609, 
  "contribute": 1610, 
  "con@@": 1611, 
  "began": 1612, 
  "introduced": 1613, 
  "collection": 1614, 
  "sources": 1615, 
  "remember": 1616, 
  "effectively": 1617, 
  "protected": 1618, 
  "India": 1619, 
  "getting": 1620, 
  "participation": 1621, 
  "am@@": 1622, 
  "functions": 1623, 
  "likely": 1624, 
  "crime": 1625, 
  "encourage": 1626, 
  "E": 1627, 
  "thousands": 1628, 
  "risks": 1629, 
  "victims": 1630, 
  "UK": 1631, 
  "-@@": 1632, 
  ".com": 1633, 
  "5@@": 1634, 
  "Y@@": 1635, 
  "21": 1636, 
  "Greece": 1637, 
  "inside": 1638, 
  "Nations": 1639, 
  "whom": 1640, 
  "laws": 1641, 
  "says": 1642, 
  "helpful": 1643, 
  "fellow": 1644, 
  "listed": 1645, 
  "precisely": 1646, 
  "photo": 1647, 
  "animals": 1648, 
  "tabled": 1649, 
  "motion": 1650, 
  "managed": 1651, 
  "exactly": 1652, 
  "sitting": 1653, 
  "income": 1654, 
  "rural": 1655, 
  "earlier": 1656, 
  "200": 1657, 
  "www.@@": 1658, 
  "spend": 1659, 
  "entry": 1660, 
  "else": 1661, 
  "played": 1662, 
  "wrong": 1663, 
  "appear": 1664, 
  "partnership": 1665, 
  "discuss": 1666, 
  "generally": 1667, 
  "bad": 1668, 
  "south": 1669, 
  "0": 1670, 
  "save": 1671, 
  "over@@": 1672, 
  "covered": 1673, 
  "selected": 1674, 
  "serve": 1675, 
  "developments": 1676, 
  "becoming": 1677, 
  "programs": 1678, 
  "at@@": 1679, 
  "aimed": 1680, 
  "co@@": 1681, 
  "served": 1682, 
  "S": 1683, 
  "discussions": 1684, 
  "medical": 1685, 
  "stated": 1686, 
  "opened": 1687, 
  "record": 1688, 
  "AG": 1689, 
  "{": 1690, 
  "manner": 1691, 
  "referred": 1692, 
  "ts": 1693, 
  "19": 1694, 
  "anyone": 1695, 
  "worth": 1696, 
  "exist": 1697, 
  "measure": 1698, 
  "ac@@": 1699, 
  "sign": 1700, 
  "represents": 1701, 
  "purposes": 1702, 
  "IT": 1703, 
  "discussed": 1704, 
  "assessment": 1705, 
  "introduction": 1706, 
  "police": 1707, 
  "port": 1708, 
  "Asia": 1709, 
  "wants": 1710, 
  "buy": 1711, 
  "won": 1712, 
  "un": 1713, 
  "Web": 1714, 
  "6@@": 1715, 
  "prior": 1716, 
  "camera": 1717, 
  "session": 1718, 
  "broad": 1719, 
  "on@@": 1720, 
  "wonderful": 1721, 
  "th": 1722, 
  "warm": 1723, 
  "exclusive": 1724, 
  "limit": 1725, 
  "budgetary": 1726, 
  "enterprises": 1727, 
  "client": 1728, 
  "Iran": 1729, 
  "ant": 1730, 
  "February": 1731, 
  "obviously": 1732, 
  "O": 1733, 
  "=": 1734, 
  "sufficient": 1735, 
  "closely": 1736, 
  "facing": 1737, 
  "plant": 1738, 
  "linked": 1739, 
  "considerable": 1740, 
  "fresh": 1741, 
  "ations": 1742, 
  "expected": 1743, 
  "La": 1744, 
  "followed": 1745, 
  "operations": 1746, 
  "improving": 1747, 
  "supporting": 1748, 
  "unless": 1749, 
  "tourism": 1750, 
  "administrative": 1751, 
  "experts": 1752, 
  "22": 1753, 
  "loss": 1754, 
  "strengthen": 1755, 
  "represent": 1756, 
  "typical": 1757, 
  "playing": 1758, 
  "Middle": 1759, 
  "immigration": 1760, 
  "fixed": 1761, 
  "discrimination": 1762, 
  "metres": 1763, 
  "regular": 1764, 
  "}": 1765, 
  "buildings": 1766, 
  "purchase": 1767, 
  "happen": 1768, 
  "screen": 1769, 
  "Security": 1770, 
  "guidelines": 1771, 
  "understanding": 1772, 
  "tour": 1773, 
  "winter": 1774, 
  "degree": 1775, 
  "27": 1776, 
  "kitchen": 1777, 
  "track": 1778, 
  "path": 1779, 
  "map": 1780, 
  "defined": 1781, 
  "yes": 1782, 
  "August": 1783, 
  "components": 1784, 
  "speech": 1785, 
  "marketing": 1786, 
  "ad@@": 1787, 
  "g": 1788, 
  "sub@@": 1789, 
  "networks": 1790, 
  "thinking": 1791, 
  "average": 1792, 
  "season": 1793, 
  "Switzerland": 1794, 
  "relax": 1795, 
  "advanced": 1796, 
  "financing": 1797, 
  "500": 1798, 
  "telephone": 1799, 
  "X": 1800, 
  "spacious": 1801, 
  "competitiveness": 1802, 
  "box": 1803, 
  "discover": 1804, 
  "entirely": 1805, 
  "fun": 1806, 
  "plants": 1807, 
  "animal": 1808, 
  "duty": 1809, 
  "e.g.": 1810, 
  "trust": 1811, 
  "provision": 1812, 
  "suggest": 1813, 
  "refer": 1814, 
  "properly": 1815, 
  "items": 1816, 
  "relate": 1817, 
  "paper": 1818, 
  "domestic": 1819, 
  "coordination": 1820, 
  "st@@": 1821, 
  "presence": 1822, 
  "positions": 1823, 
  "sized": 1824, 
  "politics": 1825, 
  "is@@": 1826, 
  "hear": 1827, 
  "spirit": 1828, 
  "den": 1829, 
  "seem": 1830, 
  "Barcelona": 1831, 
  "Agreement": 1832, 
  "80": 1833, 
  "presidency": 1834, 
  "neither": 1835, 
  "23": 1836, 
  "pleasant": 1837, 
  "Brussels": 1838, 
  "dealing": 1839, 
  "Czech": 1840, 
  "modified": 1841, 
  "institutional": 1842, 
  "monetary": 1843, 
  "summit": 1844, 
  "machines": 1845, 
  "actual": 1846, 
  "went": 1847, 
  "Poland": 1848, 
  "beds": 1849, 
  "fisheries": 1850, 
  "authority": 1851, 
  "sport": 1852, 
  "hot": 1853, 
  "failure": 1854, 
  "flexibility": 1855, 
  "gave": 1856, 
  "les": 1857, 
  "difficulties": 1858, 
  "houses": 1859, 
  "vehicles": 1860, 
  "si@@": 1861, 
  "informed": 1862, 
  "ly": 1863, 
  "display": 1864, 
  "consideration": 1865, 
  "Sea": 1866, 
  "flexible": 1867, 
  "shops": 1868, 
  "as@@": 1869, 
  "signed": 1870, 
  "applies": 1871, 
  "ab@@": 1872, 
  "meetings": 1873, 
  "organisation": 1874, 
  "ri@@": 1875, 
  "..": 1876, 
  "character": 1877, 
  "numbers": 1878, 
  "generation": 1879, 
  "War": 1880, 
  "becomes": 1881, 
  "pre": 1882, 
  "experienced": 1883, 
  "picture": 1884, 
  "district": 1885, 
  "th@@": 1886, 
  "hands": 1887, 
  "connected": 1888, 
  "forget": 1889, 
  "parliamentary": 1890, 
  "reducing": 1891, 
  "estate": 1892, 
  "economies": 1893, 
  "establishment": 1894, 
  "z": 1895, 
  "peaceful": 1896, 
  "promoting": 1897, 
  "easier": 1898, 
  "bodies": 1899, 
  "origin": 1900, 
  "threat": 1901, 
  "combat": 1902, 
  "normal": 1903, 
  "tradition": 1904, 
  "it@@": 1905, 
  "aims": 1906, 
  "aspect": 1907, 
  "studies": 1908, 
  "reception": 1909, 
  "structures": 1910, 
  "database": 1911, 
  "translation": 1912, 
  "God": 1913, 
  "format": 1914, 
  "attempt": 1915, 
  "seriously": 1916, 
  "differences": 1917, 
  "practices": 1918, 
  "USA": 1919, 
  "models": 1920, 
  "black": 1921, 
  "Swiss": 1922, 
  "Policy": 1923, 
  "7@@": 1924, 
  "als": 1925, 
  "shower": 1926, 
  "implementing": 1927, 
  "em@@": 1928, 
  "ancient": 1929, 
  "Ukraine": 1930, 
  "brand": 1931, 
  "membership": 1932, 
  "carefully": 1933, 
  "description": 1934, 
  "humanitarian": 1935, 
  "myself": 1936, 
  "Al@@": 1937, 
  "associated": 1938, 
  "Amsterdam": 1939, 
  "attractive": 1940, 
  "combination": 1941, 
  "leader": 1942, 
  "appears": 1943, 
  "consumption": 1944, 
  "courses": 1945, 
  "told": 1946, 
  "ahead": 1947, 
  "evidence": 1948, 
  "exhibition": 1949, 
  "cuisine": 1950, 
  "X@@": 1951, 
  "coffee": 1952, 
  "defence": 1953, 
  "deep": 1954, 
  "yesterday": 1955, 
  "spent": 1956, 
  "nearby": 1957, 
  "producers": 1958, 
  "detail": 1959, 
  "8@@": 1960, 
  "opposition": 1961, 
  "himself": 1962, 
  "ting": 1963, 
  "concrete": 1964, 
  "difference": 1965, 
  "Debian": 1966, 
  "Airport": 1967, 
  "Kingdom": 1968, 
  "availability": 1969, 
  "w@@": 1970, 
  "In": 1971, 
  "statements": 1972, 
  "compared": 1973, 
  "im@@": 1974, 
  "ship": 1975, 
  "stable": 1976, 
  "middle": 1977, 
  "north": 1978, 
  "fund": 1979, 
  "dangerous": 1980, 
  "resort": 1981, 
  "sun": 1982, 
  "immediate": 1983, 
  "criminal": 1984, 
  "impossible": 1985, 
  "trading": 1986, 
  "et@@": 1987, 
  "negative": 1988, 
  "combined": 1989, 
  "agencies": 1990, 
  "voice": 1991, 
  "pictures": 1992, 
  "announced": 1993, 
  "happened": 1994, 
  "reservation": 1995, 
  "learning": 1996, 
  "son": 1997, 
  "released": 1998, 
  "shared": 1999, 
  "beaches": 2000, 
  "cards": 2001, 
  "shop": 2002, 
  "cars": 2003, 
  "inform": 2004, 
  "spending": 2005, 
  "truly": 2006, 
  "continued": 2007, 
  "recognition": 2008, 
  "respond": 2009, 
  "advance": 2010, 
  "genuine": 2011, 
  "elegant": 2012, 
  "Linux": 2013, 
  "stock": 2014, 
  "raise": 2015, 
  "calling": 2016, 
  "votes": 2017, 
  "instance": 2018, 
  "architecture": 2019, 
  "registered": 2020, 
  "improvement": 2021, 
  "fiscal": 2022, 
  "guarantees": 2023, 
  "naturally": 2024, 
  "Europeans": 2025, 
  "finance": 2026, 
  "religious": 2027, 
  "described": 2028, 
  "adoption": 2029, 
  "2@@": 2030, 
  "election": 2031, 
  "contrary": 2032, 
  "po@@": 2033, 
  "Public": 2034, 
  "propose": 2035, 
  "x@@": 2036, 
  "CD": 2037, 
  "possibilities": 2038, 
  "allowing": 2039, 
  "300": 2040, 
  "names": 2041, 
  "York": 2042, 
  "ra@@": 2043, 
  "Christian": 2044, 
  "continues": 2045, 
  "per@@": 2046, 
  "figures": 2047, 
  "insurance": 2048, 
  "charged": 2049, 
  "unacceptable": 2050, 
  "booking": 2051, 
  "element": 2052, 
  "moving": 2053, 
  "wishes": 2054, 
  "fear": 2055, 
  "trip": 2056, 
  "reasonable": 2057, 
  "devices": 2058, 
  "campaign": 2059, 
  "enables": 2060, 
  "ted": 2061, 
  "button": 2062, 
  "packages": 2063, 
  "PC": 2064, 
  "article": 2065, 
  "corporate": 2066, 
  "participate": 2067, 
  "closer": 2068, 
  "skills": 2069, 
  "core": 2070, 
  "installed": 2071, 
  "color": 2072, 
  "introduce": 2073, 
  "television": 2074, 
  "seek": 2075, 
  "strongly": 2076, 
  "Social": 2077, 
  "arrival": 2078, 
  "territory": 2079, 
  "completed": 2080, 
  "&gt;": 2081, 
  "African": 2082, 
  "elected": 2083, 
  "tasks": 2084, 
  "obtain": 2085, 
  "sides": 2086, 
  "greatest": 2087, 
  "balanced": 2088, 
  "manage": 2089, 
  "firm": 2090, 
  "claims": 2091, 
  "export": 2092, 
  "net": 2093, 
  "surrounding": 2094, 
  "est": 2095, 
  "surrounded": 2096, 
  "surface": 2097, 
  "door": 2098, 
  "reliable": 2099, 
  "inter@@": 2100, 
  "Irish": 2101, 
  "bear": 2102, 
  "platform": 2103, 
  "fire": 2104, 
  "contain": 2105, 
  "desire": 2106, 
  "dedicated": 2107, 
  "permanent": 2108, 
  "stands": 2109, 
  "gain": 2110, 
  "kept": 2111, 
  "meters": 2112, 
  "sale": 2113, 
  "ban": 2114, 
  "apart": 2115, 
  "Turkish": 2116, 
  "enormous": 2117, 
  "individuals": 2118, 
  "asylum": 2119, 
  "comment": 2120, 
  "beauty": 2121, 
  "um": 2122, 
  "relaxing": 2123, 
  "forced": 2124, 
  "urgent": 2125, 
  "paragraph": 2126, 
  "wood": 2127, 
  "le@@": 2128, 
  "changing": 2129, 
  "ous": 2130, 
  "mission": 2131, 
  "science": 2132, 
  "union": 2133, 
  "advertising": 2134, 
  "sort": 2135, 
  "failed": 2136, 
  "holidays": 2137, 
  "coast": 2138, 
  "payments": 2139, 
  "sensitive": 2140, 
  "totally": 2141, 
  "Greek": 2142, 
  "extended": 2143, 
  "recommend": 2144, 
  "à": 2145, 
  "entitled": 2146, 
  "storage": 2147, 
  "Prime": 2148, 
  "drawn": 2149, 
  "convinced": 2150, 
  "pre@@": 2151, 
  "sets": 2152, 
  "G": 2153, 
  "perspective": 2154, 
  "court": 2155, 
  "exercise": 2156, 
  "Board": 2157, 
  "approximately": 2158, 
  "Euro": 2159, 
  "initial": 2160, 
  "condition": 2161, 
  "biggest": 2162, 
  "break": 2163, 
  "WTO": 2164, 
  "Economic": 2165, 
  "luxury": 2166, 
  "Justice": 2167, 
  "transparent": 2168, 
  "establishing": 2169, 
  "nearly": 2170, 
  "device": 2171, 
  "Democrats": 2172, 
  "9@@": 2173, 
  "ol@@": 2174, 
  "mo@@": 2175, 
  "weapons": 2176, 
  "St.": 2177, 
  "seven": 2178, 
  "memory": 2179, 
  "controls": 2180, 
  "Museum": 2181, 
  "90": 2182, 
  "honourable": 2183, 
  "1998": 2184, 
  "ia": 2185, 
  "op@@": 2186, 
  "unable": 2187, 
  "Kosovo": 2188, 
  "factors": 2189, 
  "organised": 2190, 
  "granted": 2191, 
  "whatever": 2192, 
  "river": 2193, 
  "disease": 2194, 
  "railway": 2195, 
  "window": 2196, 
  "square": 2197, 
  "update": 2198, 
  "era": 2199, 
  "And": 2200, 
  "R": 2201, 
  "te": 2202, 
  "achieving": 2203, 
  "acts": 2204, 
  "70": 2205, 
  "definition": 2206, 
  "outcome": 2207, 
  "perfectly": 2208, 
  "advice": 2209, 
  "passed": 2210, 
  "ine": 2211, 
  "continuing": 2212, 
  "Eastern": 2213, 
  "attractions": 2214, 
  "whilst": 2215, 
  "conclusions": 2216, 
  "valid": 2217, 
  "rightly": 2218, 
  "maintenance": 2219, 
  "zone": 2220, 
  "In@@": 2221, 
  "L": 2222, 
  "ambitious": 2223, 
  "foot": 2224, 
  "vehicle": 2225, 
  "h": 2226, 
  "participants": 2227, 
  "flight": 2228, 
  "interface": 2229, 
  "tried": 2230, 
  "chosen": 2231, 
  "commitments": 2232, 
  "sp@@": 2233, 
  "attack": 2234, 
  "engine": 2235, 
  "examples": 2236, 
  "Netherlands": 2237, 
  "institution": 2238, 
  "28": 2239, 
  "mass": 2240, 
  "weight": 2241, 
  "ec@@": 2242, 
  "artists": 2243, 
  "guide": 2244, 
  "booking.com": 2245, 
  "story": 2246, 
  "Palestinian": 2247, 
  "background": 2248, 
  "successfully": 2249, 
  "Vienna": 2250, 
  "buffet": 2251, 
  "26": 2252, 
  "limits": 2253, 
  "candidate": 2254, 
  "vision": 2255, 
  "mountains": 2256, 
  "church": 2257, 
  "constantly": 2258, 
  "install": 2259, 
  "someone": 2260, 
  "remind": 2261, 
  "laid": 2262, 
  "om@@": 2263, 
  "independence": 2264, 
  "agency": 2265, 
  "claim": 2266, 
  "targets": 2267, 
  "write": 2268, 
  "von": 2269, 
  "0@@": 2270, 
  "equality": 2271, 
  "Human": 2272, 
  "contents": 2273, 
  "photos": 2274, 
  "ings": 2275, 
  "deliver": 2276, 
  "saw": 2277, 
  "registration": 2278, 
  "outstanding": 2279, 
  "DE": 2280, 
  "decades": 2281, 
  "organization": 2282, 
  "unit": 2283, 
  "Guest": 2284, 
  "physical": 2285, 
  "Portugal": 2286, 
  "Green": 2287, 
  "bringing": 2288, 
  "signal": 2289, 
  "Ar@@": 2290, 
  "expression": 2291, 
  "colleague": 2292, 
  "unto": 2293, 
  "plus": 2294, 
  "asking": 2295, 
  "lake": 2296, 
  "putting": 2297, 
  "Services": 2298, 
  "goals": 2299, 
  "prevention": 2300, 
  "previously": 2301, 
  "Constitution": 2302, 
  "multi": 2303, 
  "&apos;ve": 2304, 
  "accessible": 2305, 
  "race": 2306, 
  "aircraft": 2307, 
  "M": 2308, 
  "promotion": 2309, 
  "category": 2310, 
  "obligations": 2311, 
  "rapid": 2312, 
  "bars": 2313, 
  "dynamic": 2314, 
  "35": 2315, 
  "bath": 2316, 
  "operate": 2317, 
  "furnished": 2318, 
  "binding": 2319, 
  "planned": 2320, 
  "é": 2321, 
  "expenditure": 2322, 
  "smaller": 2323, 
  "glass": 2324, 
  "route": 2325, 
  "manufacturing": 2326, 
  "intervention": 2327, 
  "recommendations": 2328, 
  "obvious": 2329, 
  "driving": 2330, 
  "merely": 2331, 
  "monitor": 2332, 
  "contained": 2333, 
  "capable": 2334, 
  "patients": 2335, 
  "Austrian": 2336, 
  "situations": 2337, 
  "substantial": 2338, 
  "title": 2339, 
  "species": 2340, 
  "orders": 2341, 
  "win": 2342, 
  "piece": 2343, 
  "waiting": 2344, 
  "depending": 2345, 
  "recovery": 2346, 
  "seeking": 2347, 
  "Management": 2348, 
  "Center": 2349, 
  "multiple": 2350, 
  "ad": 2351, 
  "landscape": 2352, 
  "amongst": 2353, 
  "grounds": 2354, 
  "communities": 2355, 
  "consists": 2356, 
  "factor": 2357, 
  "personally": 2358, 
  "object": 2359, 
  "keeping": 2360, 
  "Association": 2361, 
  "Rooms": 2362, 
  "contemporary": 2363, 
  "Club": 2364, 
  "mechanism": 2365, 
  "leads": 2366, 
  "books": 2367, 
  "governance": 2368, 
  "disposal": 2369, 
  "strengthening": 2370, 
  "All": 2371, 
  "pointed": 2372, 
  "touch": 2373, 
  "approval": 2374, 
  "guaranteed": 2375, 
  "compliance": 2376, 
  "i.e.": 2377, 
  "qualified": 2378, 
  "sh@@": 2379, 
  "mm": 2380, 
  "liability": 2381, 
  "named": 2382, 
  "extend": 2383, 
  "phase": 2384, 
  "par@@": 2385, 
  "thereby": 2386, 
  "ent": 2387, 
  "spread": 2388, 
  "causes": 2389, 
  "se@@": 2390, 
  "Federal": 2391, 
  "Mar@@": 2392, 
  "primary": 2393, 
  "register": 2394, 
  "remove": 2395, 
  "smoking": 2396, 
  "resulting": 2397, 
  "golf": 2398, 
  "acceptable": 2399, 
  "notice": 2400, 
  "brings": 2401, 
  "steel": 2402, 
  "satellite": 2403, 
  "Latin": 2404, 
  "ur@@": 2405, 
  "testing": 2406, 
  "conclude": 2407, 
  "attacks": 2408, 
  "45": 2409, 
  "1997": 2410, 
  "ans": 2411, 
  "meaning": 2412, 
  "r": 2413, 
  "responsibilities": 2414, 
  "ons": 2415, 
  "consensus": 2416, 
  "explain": 2417, 
  "club": 2418, 
  "addressed": 2419, 
  "store": 2420, 
  "31": 2421, 
  "faced": 2422, 
  "primarily": 2423, 
  "nations": 2424, 
  "Sweden": 2425, 
  "industries": 2426, 
  "pleasure": 2427, 
  "investments": 2428, 
  "Summit": 2429, 
  "fuel": 2430, 
  "copy": 2431, 
  "identity": 2432, 
  "Trade": 2433, 
  "versions": 2434, 
  "adequate": 2435, 
  "car@@": 2436, 
  "talks": 2437, 
  "except": 2438, 
  "Agency": 2439, 
  "Research": 2440, 
  "System": 2441, 
  "evaluation": 2442, 
  "schools": 2443, 
  "diversity": 2444, 
  "Regulation": 2445, 
  "host": 2446, 
  "stone": 2447, 
  "spaces": 2448, 
  "GDP": 2449, 
  "technological": 2450, 
  "Business": 2451, 
  "skin": 2452, 
  "radio": 2453, 
  "Health": 2454, 
  "turned": 2455, 
  "discussing": 2456, 
  "P": 2457, 
  "bi@@": 2458, 
  "manufacturers": 2459, 
  "ice": 2460, 
  "association": 2461, 
  "determined": 2462, 
  "delay": 2463, 
  "to@@": 2464, 
  "Foreign": 2465, 
  "sanctions": 2466, 
  "dimension": 2467, 
  "southern": 2468, 
  "suite": 2469, 
  "prepare": 2470, 
  "kinds": 2471, 
  "EC": 2472, 
  "rail": 2473, 
  "treated": 2474, 
  "leadership": 2475, 
  "eight": 2476, 
  "Romania": 2477, 
  "Rules": 2478, 
  "Con@@": 2479, 
  "equally": 2480, 
  "representative": 2481, 
  "convenient": 2482, 
  "opposite": 2483, 
  "delivered": 2484, 
  "vi@@": 2485, 
  "accounts": 2486, 
  "Grand": 2487, 
  "profit": 2488, 
  "Rome": 2489, 
  "significantly": 2490, 
  "mark": 2491, 
  "29": 2492, 
  "requested": 2493, 
  "older": 2494, 
  "H": 2495, 
  "spa": 2496, 
  "ag@@": 2497, 
  "improvements": 2498, 
  "Microsoft": 2499, 
  "F": 2500, 
  "DVD": 2501, 
  "speakers": 2502, 
  "ci@@": 2503, 
  "politicians": 2504, 
  "mutual": 2505, 
  "letter": 2506, 
  "author": 2507, 
  "dealt": 2508, 
  "affect": 2509, 
  "ma@@": 2510, 
  "du": 2511, 
  "represented": 2512, 
  "ana": 2513, 
  "finding": 2514, 
  "onto": 2515, 
  "High": 2516, 
  "urge": 2517, 
  "qu@@": 2518, 
  "launched": 2519, 
  "audio": 2520, 
  "@": 2521, 
  "Minutes": 2522, 
  "default": 2523, 
  "feeling": 2524, 
  "runs": 2525, 
  "Dutch": 2526, 
  "besides": 2527, 
  "mode": 2528, 
  "mechanisms": 2529, 
  "strength": 2530, 
  "existence": 2531, 
  "shape": 2532, 
  "helping": 2533, 
  "consultation": 2534, 
  "presentation": 2535, 
  "urban": 2536, 
  "recommended": 2537, 
  "watch": 2538, 
  "refugees": 2539, 
  "highlight": 2540, 
  "People": 2541, 
  "moved": 2542, 
  "ot@@": 2543, 
  "length": 2544, 
  "van": 2545, 
  "heavy": 2546, 
  "fruit": 2547, 
  "An@@": 2548, 
  "quick": 2549, 
  "relatively": 2550, 
  "V": 2551, 
  "sold": 2552, 
  "print": 2553, 
  "reply": 2554, 
  "competence": 2555, 
  "expertise": 2556, 
  "knows": 2557, 
  "consistent": 2558, 
  "expectations": 2559, 
  "experiences": 2560, 
  "Lake": 2561, 
  "engineering": 2562, 
  "charming": 2563, 
  "requests": 2564, 
  "taxes": 2565, 
  "forest": 2566, 
  "ap@@": 2567, 
  "ina": 2568, 
  "expensive": 2569, 
  "drugs": 2570, 
  "Environment": 2571, 
  "privacy": 2572, 
  "17@@": 2573, 
  "conduct": 2574, 
  "Red": 2575, 
  "trees": 2576, 
  "websites": 2577, 
  "articles": 2578, 
  "compensation": 2579, 
  "millions": 2580, 
  "units": 2581, 
  "taste": 2582, 
  "us@@": 2583, 
  "constant": 2584, 
  "temperature": 2585, 
  "marked": 2586, 
  "browser": 2587, 
  "helps": 2588, 
  "attitude": 2589, 
  "il": 2590, 
  "fighting": 2591, 
  "eye": 2592, 
  "boat": 2593, 
  "dishes": 2594, 
  "arms": 2595, 
  "bedroom": 2596, 
  "tests": 2597, 
  "destination": 2598, 
  "automatic": 2599, 
  "regret": 2600, 
  "emphasis": 2601, 
  "das": 2602, 
  "lose": 2603, 
  "obligation": 2604, 
  "res@@": 2605, 
  "Free": 2606, 
  "fill": 2607, 
  "ultimately": 2608, 
  "rejected": 2609, 
  "soft": 2610, 
  "blue": 2611, 
  "truth": 2612, 
  "appeal": 2613, 
  "noise": 2614, 
  "recognise": 2615, 
  "cheap": 2616, 
  "im": 2617, 
  "emphasise": 2618, 
  "ka": 2619, 
  "p.m.": 2620, 
  "nation": 2621, 
  "burden": 2622, 
  "advantages": 2623, 
  "1.@@": 2624, 
  "error": 2625, 
  "renewable": 2626, 
  "appreciate": 2627, 
  "furniture": 2628, 
  "texts": 2629, 
  "ism": 2630, 
  "consequently": 2631, 
  "operators": 2632, 
  "extension": 2633, 
  "mobility": 2634, 
  "lo@@": 2635, 
  "sell": 2636, 
  "suffering": 2637, 
  "resolve": 2638, 
  "streets": 2639, 
  "exists": 2640, 
  "entered": 2641, 
  "fraud": 2642, 
  "flow": 2643, 
  "creative": 2644, 
  "ce": 2645, 
  "reflect": 2646, 
  "ha@@": 2647, 
  "rent": 2648, 
  "passengers": 2649, 
  "latter": 2650, 
  "substances": 2651, 
  "objects": 2652, 
  "intention": 2653, 
  "output": 2654, 
  "disaster": 2655, 
  "Villa": 2656, 
  "1996": 2657, 
  "comply": 2658, 
  "valuable": 2659, 
  "conditioning": 2660, 
  "stations": 2661, 
  "dinner": 2662, 
  "1@@": 2663, 
  "bedrooms": 2664, 
  "hostels": 2665, 
  "reaching": 2666, 
  "discovered": 2667, 
  "Chamber": 2668, 
  "leaving": 2669, 
  "handling": 2670, 
  "danger": 2671, 
  "diseases": 2672, 
  "protecting": 2673, 
  "largely": 2674, 
  "combating": 2675, 
  "affairs": 2676, 
  "tours": 2677, 
  "president": 2678, 
  "officials": 2679, 
  "ships": 2680, 
  "ic@@": 2681, 
  "Munich": 2682, 
  "arrangements": 2683, 
  "covers": 2684, 
  "recognised": 2685, 
  "exclusively": 2686, 
  "wait": 2687, 
  "Britain": 2688, 
  "applicable": 2689, 
  "ti": 2690, 
  "king": 2691, 
  "respective": 2692, 
  "felt": 2693, 
  "confirmed": 2694, 
  "helped": 2695, 
  "Car@@": 2696, 
  "wind": 2697, 
  "happens": 2698, 
  "delegation": 2699, 
  "museum": 2700, 
  "opposed": 2701, 
  "serves": 2702, 
  "dining": 2703, 
  "command": 2704, 
  "flat": 2705, 
  "increases": 2706, 
  "volume": 2707, 
  "fail": 2708, 
  "ter@@": 2709, 
  "constructive": 2710, 
  "™": 2711, 
  "determine": 2712, 
  "centres": 2713, 
  "solve": 2714, 
  "fantastic": 2715, 
  "looks": 2716, 
  "no@@": 2717, 
  "reserve": 2718, 
  "ors": 2719, 
  "cold": 2720, 
  "temporary": 2721, 
  "involving": 2722, 
  "Google": 2723, 
  "criticism": 2724, 
  "Japanese": 2725, 
  "impressive": 2726, 
  "producing": 2727, 
  "entertainment": 2728, 
  "waters": 2729, 
  "Afghanistan": 2730, 
  "applause": 2731, 
  "f": 2732, 
  "figure": 2733, 
  "outdoor": 2734, 
  "worse": 2735, 
  "healthy": 2736, 
  "exceptional": 2737, 
  "fit": 2738, 
  "standing": 2739, 
  "meat": 2740, 
  "carbon": 2741, 
  "controlled": 2742, 
  "hundreds": 2743, 
  "massive": 2744, 
  "newly": 2745, 
  "ally": 2746, 
  "leisure": 2747, 
  "journey": 2748, 
  "chain": 2749, 
  "gets": 2750, 
  "Programme": 2751, 
  "weather": 2752, 
  "Software": 2753, 
  "offices": 2754, 
  "amounts": 2755, 
  "directives": 2756, 
  "You": 2757, 
  "Swedish": 2758, 
  "ator": 2759, 
  "wealth": 2760, 
  "é@@": 2761, 
  "band": 2762, 
  "involvement": 2763, 
  "Bar": 2764, 
  "under@@": 2765, 
  "east": 2766, 
  "perform": 2767, 
  "FR": 2768, 
  "residence": 2769, 
  "treaty": 2770, 
  "cutting": 2771, 
  "obtained": 2772, 
  "Enterprise": 2773, 
  "so@@": 2774, 
  "debates": 2775, 
  "peoples": 2776, 
  "removed": 2777, 
  "spring": 2778, 
  "strategies": 2779, 
  "32": 2780, 
  "launch": 2781, 
  "contributions": 2782, 
  "ed@@": 2783, 
  "investors": 2784, 
  "preparation": 2785, 
  "tic": 2786, 
  "hit": 2787, 
  "organizations": 2788, 
  "ne": 2789, 
  "awareness": 2790, 
  "#": 2791, 
  "Institute": 2792, 
  "happening": 2793, 
  "colour": 2794, 
  "discharge": 2795, 
  "00@@": 2796, 
  "Company": 2797, 
  "password": 2798, 
  "creates": 2799, 
  "repeat": 2800, 
  "depends": 2801, 
  "mandate": 2802, 
  "remaining": 2803, 
  "collective": 2804, 
  "out@@": 2805, 
  "gender": 2806, 
  "dates": 2807, 
  "°": 2808, 
  "prove": 2809, 
  "oc@@": 2810, 
  "Star": 2811, 
  "restrictions": 2812, 
  "16@@": 2813, 
  "los": 2814, 
  "charges": 2815, 
  "gone": 2816, 
  "Foundation": 2817, 
  "communications": 2818, 
  "opinions": 2819, 
  "ber@@": 2820, 
  "NATO": 2821, 
  "assist": 2822, 
  "Ministers": 2823, 
  "Paper": 2824, 
  "pro@@": 2825, 
  "rapporteurs": 2826, 
  "ve": 2827, 
  "proof": 2828, 
  "Rule": 2829, 
  "organized": 2830, 
  "Frankfurt": 2831, 
  "willing": 2832, 
  "liberalisation": 2833, 
  "classic": 2834, 
  "Market": 2835, 
  "renovated": 2836, 
  "abroad": 2837, 
  "wall": 2838, 
  "reserves": 2839, 
  "parents": 2840, 
  "Strategy": 2841, 
  "issued": 2842, 
  "tri@@": 2843, 
  "block": 2844, 
  "--": 2845, 
  "explore": 2846, 
  "eyes": 2847, 
  "holding": 2848, 
  "na": 2849, 
  "contracts": 2850, 
  "maintained": 2851, 
  "drawing": 2852, 
  "be@@": 2853, 
  "ie": 2854, 
  "precise": 2855, 
  "couple": 2856, 
  "regulatory": 2857, 
  "regularly": 2858, 
  "requirement": 2859, 
  "frequently": 2860, 
  "sauna": 2861, 
  "identify": 2862, 
  "occasion": 2863, 
  "copyright": 2864, 
  "vast": 2865, 
  "ought": 2866, 
  "oral": 2867, 
  "Croatia": 2868, 
  "resolutions": 2869, 
  "west": 2870, 
  "ma": 2871, 
  "extreme": 2872, 
  "messages": 2873, 
  "mid": 2874, 
  "conflicts": 2875, 
  "ge@@": 2876, 
  "defend": 2877, 
  "doesn": 2878, 
  "blood": 2879, 
  "Charter": 2880, 
  "ment": 2881, 
  "ds": 2882, 
  "si": 2883, 
  "characteristics": 2884, 
  "mostly": 2885, 
  "hardware": 2886, 
  "owners": 2887, 
  "thirdly": 2888, 
  "focused": 2889, 
  "ethnic": 2890, 
  "Costa": 2891, 
  "faster": 2892, 
  "returned": 2893, 
  "Polish": 2894, 
  "K": 2895, 
  "visa": 2896, 
  "au": 2897, 
  "counter": 2898, 
  "continent": 2899, 
  "ding": 2900, 
  "owner": 2901, 
  "intend": 2902, 
  "operational": 2903, 
  "Art": 2904, 
  "electricity": 2905, 
  "MEPs": 2906, 
  "joined": 2907, 
  "inflation": 2908, 
  "customs": 2909, 
  "John": 2910, 
  "lovely": 2911, 
  "involve": 2912, 
  "drink": 2913, 
  "decorated": 2914, 
  "divided": 2915, 
  "ticket": 2916, 
  "emerging": 2917, 
  "surroundings": 2918, 
  "seeing": 2919, 
  "glad": 2920, 
  "Bulgaria": 2921, 
  "printing": 2922, 
  "seat": 2923, 
  "confirm": 2924, 
  "facilitate": 2925, 
  "transportation": 2926, 
  "tickets": 2927, 
  "migration": 2928, 
  "hence": 2929, 
  "effectiveness": 2930, 
  "topic": 2931, 
  "10@@": 2932, 
  "proud": 2933, 
  "grow": 2934, 
  "conducted": 2935, 
  "connections": 2936, 
  "emergency": 2937, 
  "walls": 2938, 
  "demanding": 2939, 
  "driver": 2940, 
  "answers": 2941, 
  "universal": 2942, 
  "statistics": 2943, 
  "properties": 2944, 
  "displayed": 2945, 
  "award": 2946, 
  "Korea": 2947, 
  "absolute": 2948, 
  "father": 2949, 
  "updated": 2950, 
  "chemical": 2951, 
  "define": 2952, 
  "performed": 2953, 
  "license": 2954, 
  "minority": 2955, 
  "northern": 2956, 
  "tip": 2957, 
  "Control": 2958, 
  "submit": 2959, 
  "impression": 2960, 
  "deals": 2961, 
  "This": 2962, 
  "edge": 2963, 
  "Procedure": 2964, 
  "ch": 2965, 
  "settings": 2966, 
  "metal": 2967, 
  "corruption": 2968, 
  "Co@@": 2969, 
  "con": 2970, 
  "fee": 2971, 
  "av@@": 2972, 
  "surely": 2973, 
  "finished": 2974, 
  "400": 2975, 
  "Lord": 2976, 
  "il@@": 2977, 
  "welfare": 2978, 
  "somewhat": 2979, 
  "do@@": 2980, 
  "We": 2981, 
  "noted": 2982, 
  "widely": 2983, 
  "visible": 2984, 
  "2020": 2985, 
  "compatible": 2986, 
  "cycle": 2987, 
  "parliaments": 2988, 
  "....": 2989, 
  "ke": 2990, 
  "balcony": 2991, 
  "Ro@@": 2992, 
  "ra": 2993, 
  "maintaining": 2994, 
  "drivers": 2995, 
  "tourists": 2996, 
  "album": 2997, 
  "subsidies": 2998, 
  "w": 2999, 
  "career": 3000, 
  "formed": 3001, 
  "SMEs": 3002, 
  "pollution": 3003, 
  "Alliance": 3004, 
  "Y": 3005, 
  "Canada": 3006, 
  "ing@@": 3007, 
  "Roma": 3008, 
  "En@@": 3009, 
  "heat": 3010, 
  "ye": 3011, 
  "bottom": 3012, 
  "Safety": 3013, 
  "contrast": 3014, 
  "grateful": 3015, 
  "15@@": 3016, 
  "Brazil": 3017, 
  "Energy": 3018, 
  "none": 3019, 
  "contacts": 3020, 
  "starts": 3021, 
  "islands": 3022, 
  "relaxation": 3023, 
  "wines": 3024, 
  "sexual": 3025, 
  "hair": 3026, 
  "terrorist": 3027, 
  "recommendation": 3028, 
  "castle": 3029, 
  "library": 3030, 
  "profile": 3031, 
  "careful": 3032, 
  "techniques": 3033, 
  "hall": 3034, 
  "meant": 3035, 
  "listen": 3036, 
  "heating": 3037, 
  "delighted": 3038, 
  "ary": 3039, 
  "follows": 3040, 
  "proved": 3041, 
  "gold": 3042, 
  "interior": 3043, 
  "THE": 3044, 
  "Soviet": 3045, 
  "invite": 3046, 
  "flights": 3047, 
  "pension": 3048, 
  "prefer": 3049, 
  "cable": 3050, 
  "Roman": 3051, 
  "visiting": 3052, 
  "Luxembourg": 3053, 
  "Arab": 3054, 
  "Cyprus": 3055, 
  "valley": 3056, 
  "locations": 3057, 
  "expert": 3058, 
  "Great": 3059, 
  "Israeli": 3060, 
  "wireless": 3061, 
  "eastern": 3062, 
  "functioning": 3063, 
  "firms": 3064, 
  "appointed": 3065, 
  "150": 3066, 
  "U": 3067, 
  "signs": 3068, 
  "indicated": 3069, 
  "ob@@": 3070, 
  "exit": 3071, 
  "suites": 3072, 
  "showing": 3073, 
  "eg@@": 3074, 
  "intellectual": 3075, 
  "friend": 3076, 
  "configuration": 3077, 
  "inhabitants": 3078, 
  "entrance": 3079, 
  "eventually": 3080, 
  "vacation": 3081, 
  "Street": 3082, 
  "strict": 3083, 
  "arrive": 3084, 
  "ins": 3085, 
  "earth": 3086, 
  "imposed": 3087, 
  "exciting": 3088, 
  "stored": 3089, 
  "trafficking": 3090, 
  "hostel": 3091, 
  "percent": 3092, 
  "ex@@": 3093, 
  "farm": 3094, 
  "ance": 3095, 
  "ongoing": 3096, 
  "turning": 3097, 
  "declaration": 3098, 
  "presents": 3099, 
  "involves": 3100, 
  "passenger": 3101, 
  "Square": 3102, 
  "ca": 3103, 
  "woman": 3104, 
  "provider": 3105, 
  "feed": 3106, 
  "afternoon": 3107, 
  "collaboration": 3108, 
  "accompanied": 3109, 
  "rock": 3110, 
  "demonstrated": 3111, 
  "ology": 3112, 
  "considering": 3113, 
  "1995": 3114, 
  "resistance": 3115, 
  "heritage": 3116, 
  "Saint": 3117, 
  "Monetary": 3118, 
  "possibly": 3119, 
  "bilateral": 3120, 
  "ver@@": 3121, 
  "assets": 3122, 
  "fashion": 3123, 
  "transition": 3124, 
  "settlement": 3125, 
  "visited": 3126, 
  "reject": 3127, 
  "documentation": 3128, 
  "remote": 3129, 
  "occur": 3130, 
  "match": 3131, 
  "demonstrate": 3132, 
  "cash": 3133, 
  "raw": 3134, 
  "Copenhagen": 3135, 
  "rapidly": 3136, 
  "ties": 3137, 
  "mis@@": 3138, 
  "com@@": 3139, 
  "personnel": 3140, 
  "River": 3141, 
  "cosy": 3142, 
  "li": 3143, 
  "channels": 3144, 
  "corner": 3145, 
  "reservations": 3146, 
  "understood": 3147, 
  "expansion": 3148, 
  "ou@@": 3149, 
  "partly": 3150, 
  "su@@": 3151, 
  "educational": 3152, 
  "Dr.": 3153, 
  "committees": 3154, 
  "oriented": 3155, 
  "spot": 3156, 
  "plenty": 3157, 
  "pieces": 3158, 
  "awarded": 3159, 
  "saving": 3160, 
  "theme": 3161, 
  "recorded": 3162, 
  "ten@@": 3163, 
  "reported": 3164, 
  "Palace": 3165, 
  "Ch@@": 3166, 
  "pl@@": 3167, 
  "fitness": 3168, 
  "channel": 3169, 
  "U.S.": 3170, 
  "ne@@": 3171, 
  "judicial": 3172, 
  "actively": 3173, 
  "drug": 3174, 
  "concluded": 3175, 
  "²": 3176, 
  "N": 3177, 
  "familiar": 3178, 
  "acting": 3179, 
  "forum": 3180, 
  "Portuguese": 3181, 
  "artist": 3182, 
  "blog": 3183, 
  "department": 3184, 
  "youth": 3185, 
  "Mo@@": 3186, 
  "lots": 3187, 
  "ent@@": 3188, 
  "containing": 3189, 
  "quarter": 3190, 
  "Friday": 3191, 
  "Prague": 3192, 
  "solid": 3193, 
  "minorities": 3194, 
  "roads": 3195, 
  "sugar": 3196, 
  "mon@@": 3197, 
  "overcome": 3198, 
  "generated": 3199, 
  "immigrants": 3200, 
  "gardens": 3201, 
  "sharing": 3202, 
  "spoken": 3203, 
  "stronger": 3204, 
  "credibility": 3205, 
  "determination": 3206, 
  "lounge": 3207, 
  "assume": 3208, 
  "foundation": 3209, 
  "phrase": 3210, 
  "speaker": 3211, 
  "ja": 3212, 
  "depth": 3213, 
  "tackle": 3214, 
  "der@@": 3215, 
  "desired": 3216, 
  "towns": 3217, 
  "Schengen": 3218, 
  "rising": 3219, 
  "professionals": 3220, 
  "respected": 3221, 
  "Baltic": 3222, 
  "globalisation": 3223, 
  "crimes": 3224, 
  "replaced": 3225, 
  "subsidiarity": 3226, 
  "manufacturer": 3227, 
  "transactions": 3228, 
  "Station": 3229, 
  "stylish": 3230, 
  "planet": 3231, 
  "competent": 3232, 
  "ended": 3233, 
  "replace": 3234, 
  "sending": 3235, 
  "died": 3236, 
  "ite": 3237, 
  "whereas": 3238, 
  "originally": 3239, 
  "Vice": 3240, 
  "facts": 3241, 
  "Financial": 3242, 
  "brief": 3243, 
  "facility": 3244, 
  "bound": 3245, 
  "routes": 3246, 
  "Pact": 3247, 
  "elsewhere": 3248, 
  "http": 3249, 
  "ages": 3250, 
  "definitely": 3251, 
  "windows": 3252, 
  "western": 3253, 
  "ies": 3254, 
  "constitutional": 3255, 
  "spectacular": 3256, 
  "correctly": 3257, 
  "declared": 3258, 
  "nonetheless": 3259, 
  "Pakistan": 3260, 
  "scheme": 3261, 
  "Hungary": 3262, 
  "lift": 3263, 
  "Fi": 3264, 
  "owned": 3265, 
  "mini": 3266, 
  "occasions": 3267, 
  "twenty": 3268, 
  "straight": 3269, 
  "una": 3270, 
  "taxation": 3271, 
  "citizen": 3272, 
  "component": 3273, 
  "corresponding": 3274, 
  "sc@@": 3275, 
  "suppliers": 3276, 
  "Belarus": 3277, 
  "rental": 3278, 
  "PL": 3279, 
  "centuries": 3280, 
  "ta": 3281, 
  "ets": 3282, 
  "Belgium": 3283, 
  "bridge": 3284, 
  "satisfied": 3285, 
  "lists": 3286, 
  "shares": 3287, 
  "usual": 3288, 
  "75": 3289, 
  "imagine": 3290, 
  "Bar@@": 3291, 
  "milk": 3292, 
  "constitution": 3293, 
  "slightly": 3294, 
  "encouraging": 3295, 
  "mit": 3296, 
  "magnificent": 3297, 
  "destruction": 3298, 
  "mother": 3299, 
  "distributed": 3300, 
  "banking": 3301, 
  "intensive": 3302, 
  "2011": 3303, 
  "master": 3304, 
  "ano": 3305, 
  "plays": 3306, 
  "ah": 3307, 
  "ian": 3308, 
  "addresses": 3309, 
  "für": 3310, 
  "battle": 3311, 
  "slow": 3312, 
  "Room": 3313, 
  "Madrid": 3314, 
  "ter": 3315, 
  "grant": 3316, 
  "exports": 3317, 
  "ports": 3318, 
  "regardless": 3319, 
  "identified": 3320, 
  "deficit": 3321, 
  "preparing": 3322, 
  "providers": 3323, 
  "Mexico": 3324, 
  "adults": 3325, 
  "ze": 3326, 
  "everybody": 3327, 
  "shipping": 3328, 
  "ry": 3329, 
  "Hungarian": 3330, 
  "decisive": 3331, 
  "films": 3332, 
  "Bo@@": 3333, 
  "ity": 3334, 
  "extraordinary": 3335, 
  "for@@": 3336, 
  "ensures": 3337, 
  "resolved": 3338, 
  "argument": 3339, 
  "behaviour": 3340, 
  "treat": 3341, 
  "log": 3342, 
  "miles": 3343, 
  "updates": 3344, 
  "ists": 3345, 
  "packaging": 3346, 
  "ul@@": 3347, 
  "secret": 3348, 
  "patent": 3349, 
  "tobacco": 3350, 
  "division": 3351, 
  "IP": 3352, 
  "Information": 3353, 
  "man@@": 3354, 
  "dependent": 3355, 
  "virtual": 3356, 
  "excessive": 3357, 
  "exception": 3358, 
  "vulnerable": 3359, 
  "Day": 3360, 
  "Funds": 3361, 
  "enhance": 3362, 
  "army": 3363, 
  "White": 3364, 
  "lessons": 3365, 
  "proposes": 3366, 
  "applying": 3367, 
  "Spa": 3368, 
  "est@@": 3369, 
  "VAT": 3370, 
  "Best": 3371, 
  "renowned": 3372, 
  "electric": 3373, 
  "Pro@@": 3374, 
  "adopting": 3375, 
  "everyday": 3376, 
  "filled": 3377, 
  "fourth": 3378, 
  "inclusion": 3379, 
  "Old": 3380, 
  "plenary": 3381, 
  "weekend": 3382, 
  "interpretation": 3383, 
  "winning": 3384, 
  "diverse": 3385, 
  "examine": 3386, 
  "housing": 3387, 
  "ISO": 3388, 
  "forests": 3389, 
  "proven": 3390, 
  "domain": 3391, 
  "courts": 3392, 
  "proceed": 3393, 
  "&apos;m": 3394, 
  "01": 3395, 
  "hundred": 3396, 
  "voluntary": 3397, 
  "wrote": 3398, 
  "St@@": 3399, 
  "mix": 3400, 
  "supplies": 3401, 
  "savings": 3402, 
  "employed": 3403, 
  "deposit": 3404, 
  "0.@@": 3405, 
  "carrying": 3406, 
  "topics": 3407, 
  "university": 3408, 
  "departure": 3409, 
  "Church": 3410, 
  "sum": 3411, 
  "zu": 3412, 
  "bo@@": 3413, 
  "assure": 3414, 
  "politically": 3415, 
  "thousand": 3416, 
  "formal": 3417, 
  "suffer": 3418, 
  "rec@@": 3419, 
  "ut@@": 3420, 
  "substance": 3421, 
  "invest": 3422, 
  "impose": 3423, 
  "England": 3424, 
  "concepts": 3425, 
  "skiing": 3426, 
  "drop": 3427, 
  "lie": 3428, 
  "attempts": 3429, 
  "á@@": 3430, 
  "maritime": 3431, 
  "trend": 3432, 
  "enabled": 3433, 
  "teams": 3434, 
  "absence": 3435, 
  "proposing": 3436, 
  "maybe": 3437, 
  "moral": 3438, 
  "ality": 3439, 
  "Bush": 3440, 
  "greatly": 3441, 
  "theory": 3442, 
  "Cor@@": 3443, 
  "trial": 3444, 
  "solely": 3445, 
  "specified": 3446, 
  "bar@@": 3447, 
  "abuse": 3448, 
  "traditions": 3449, 
  "artistic": 3450, 
  "subjects": 3451, 
  "finish": 3452, 
  "gained": 3453, 
  "supplier": 3454, 
  "ling": 3455, 
  "paying": 3456, 
  "suggestions": 3457, 
  "wonder": 3458, 
  "drinks": 3459, 
  "duties": 3460, 
  "realistic": 3461, 
  "regarded": 3462, 
  "luxurious": 3463, 
  "bike": 3464, 
  "colours": 3465, 
  "directory": 3466, 
  "legitimate": 3467, 
  "input": 3468, 
  "representation": 3469, 
  "productivity": 3470, 
  "tennis": 3471, 
  "tea": 3472, 
  "Thursday": 3473, 
  "arrived": 3474, 
  "tables": 3475, 
  "module": 3476, 
  "ring": 3477, 
  "pursue": 3478, 
  "count": 3479, 
  "je": 3480, 
  "EADS": 3481, 
  "up@@": 3482, 
  "receiving": 3483, 
  "continuous": 3484, 
  "villages": 3485, 
  "comparison": 3486, 
  "consent": 3487, 
  "Northern": 3488, 
  "bu@@": 3489, 
  "doors": 3490, 
  "Assembly": 3491, 
  "den@@": 3492, 
  "ino": 3493, 
  "ale": 3494, 
  "philosophy": 3495, 
  "satisfaction": 3496, 
  "disk": 3497, 
  "invited": 3498, 
  "prosperity": 3499, 
  "3D": 3500, 
  "label": 3501, 
  "berg": 3502, 
  "upper": 3503, 
  "difficulty": 3504, 
  "Congress": 3505, 
  "normally": 3506, 
  "disabled": 3507, 
  "Structural": 3508, 
  "cuts": 3509, 
  "patient": 3510, 
  "countryside": 3511, 
  "Islamic": 3512, 
  "farming": 3513, 
  "appeared": 3514, 
  "spoke": 3515, 
  "ep@@": 3516, 
  "import": 3517, 
  "Nos": 3518, 
  "weak": 3519, 
  "overview": 3520, 
  "frame": 3521, 
  "eb@@": 3522, 
  "men@@": 3523, 
  "imports": 3524, 
  "arguments": 3525, 
  "Santa": 3526, 
  "suggested": 3527, 
  "depend": 3528, 
  "Sunday": 3529, 
  "1990": 3530, 
  "ical": 3531, 
  "religion": 3532, 
  "com": 3533, 
  "CO2": 3534, 
  "lunch": 3535, 
  "enabling": 3536, 
  "ler": 3537, 
  "confirmation": 3538, 
  "hardly": 3539, 
  "motor": 3540, 
  "Egypt": 3541, 
  "introducing": 3542, 
  "tu@@": 3543, 
  "trips": 3544, 
  "organic": 3545, 
  "scene": 3546, 
  "Framework": 3547, 
  "enjoyed": 3548, 
  "ACP": 3549, 
  "dream": 3550, 
  "periods": 3551, 
  "King": 3552, 
  "cleaning": 3553, 
  "generate": 3554, 
  "aside": 3555, 
  "nights": 3556, 
  "ters": 3557, 
  "Protection": 3558, 
  "delicious": 3559, 
  "connect": 3560, 
  "societies": 3561, 
  "leaves": 3562, 
  "specialist": 3563, 
  "permitted": 3564, 
  "ak": 3565, 
  "ya": 3566, 
  "harmonisation": 3567, 
  "accordingly": 3568, 
  "tree": 3569, 
  "selling": 3570, 
  "Restaurant": 3571, 
  "unlike": 3572, 
  "legally": 3573, 
  "publication": 3574, 
  "tested": 3575, 
  "pure": 3576, 
  "ness": 3577, 
  "resource": 3578, 
  "Americans": 3579, 
  "referendum": 3580, 
  "functional": 3581, 
  "instructions": 3582, 
  "ini": 3583, 
  "succeed": 3584, 
  "Atlantic": 3585, 
  "lasting": 3586, 
  "nine": 3587, 
  "constitute": 3588, 
  "cooperate": 3589, 
  "recognized": 3590, 
  "significance": 3591, 
  "Le": 3592, 
  "ordinary": 3593, 
  "allocated": 3594, 
  "programming": 3595, 
  "preventing": 3596, 
  "Technology": 3597, 
  "Home": 3598, 
  "studio": 3599, 
  "sought": 3600, 
  "complicated": 3601, 
  "ak@@": 3602, 
  "Hamburg": 3603, 
  "Desk": 3604, 
  "lay": 3605, 
  "Air": 3606, 
  "du@@": 3607, 
  "obliged": 3608, 
  "directed": 3609, 
  "wellness": 3610, 
  "killed": 3611, 
  "ence": 3612, 
  "justified": 3613, 
  "wing": 3614, 
  "unforgettable": 3615, 
  "toward": 3616, 
  "handle": 3617, 
  "Re@@": 3618, 
  "combine": 3619, 
  "destroyed": 3620, 
  "ex": 3621, 
  "Monday": 3622, 
  "Island": 3623, 
  "rare": 3624, 
  "missing": 3625, 
  "functionality": 3626, 
  "micro@@": 3627, 
  "negotiating": 3628, 
  "festival": 3629, 
  "football": 3630, 
  "welcomed": 3631, 
  "1994": 3632, 
  "sustainability": 3633, 
  "undoubtedly": 3634, 
  "refers": 3635, 
  "za": 3636, 
  "eat": 3637, 
  "Per@@": 3638, 
  "It": 3639, 
  "labelling": 3640, 
  "supervision": 3641, 
  "ECB": 3642, 
  "manager": 3643, 
  "homes": 3644, 
  "travelling": 3645, 
  "contributed": 3646, 
  "ends": 3647, 
  "sky": 3648, 
  "Royal": 3649, 
  "Earth": 3650, 
  "fulfil": 3651, 
  "remained": 3652, 
  "min@@": 3653, 
  "clubs": 3654, 
  "Town": 3655, 
  "enhanced": 3656, 
  "snow": 3657, 
  "covering": 3658, 
  "modules": 3659, 
  "gallery": 3660, 
  "supposed": 3661, 
  "ded": 3662, 
  "í@@": 3663, 
  "sections": 3664, 
  "fans": 3665, 
  "ru@@": 3666, 
  "sounds": 3667, 
  "Asian": 3668, 
  "layer": 3669, 
  "lived": 3670, 
  "PHP": 3671, 
  "48": 3672, 
  "suffered": 3673, 
  "characters": 3674, 
  "welcomes": 3675, 
  "Secretary": 3676, 
  "Di@@": 3677, 
  "musical": 3678, 
  "•": 3679, 
  "internationally": 3680, 
  "gi@@": 3681, 
  "barriers": 3682, 
  "appearance": 3683, 
  "classes": 3684, 
  "freedoms": 3685, 
  "forthcoming": 3686, 
  "accurate": 3687, 
  "Time": 3688, 
  "Page": 3689, 
  "Finland": 3690, 
  "enterprise": 3691, 
  "Barroso": 3692, 
  "driven": 3693, 
  "Strasbourg": 3694, 
  "director": 3695, 
  "lastly": 3696, 
  "1st": 3697, 
  "indicate": 3698, 
  "2013": 3699, 
  "ised": 3700, 
  "ranging": 3701, 
  "managing": 3702, 
  "cells": 3703, 
  "OS": 3704, 
  "wider": 3705, 
  "ard": 3706, 
  "notes": 3707, 
  "Year": 3708, 
  "parameters": 3709, 
  "firmly": 3710, 
  "Obama": 3711, 
  "proceedings": 3712, 
  "load": 3713, 
  "cancer": 3714, 
  "USB": 3715, 
  "acceptance": 3716, 
  "Festival": 3717, 
  "sheet": 3718, 
  "prime": 3719, 
  "transmission": 3720, 
  "cor@@": 3721, 
  "ks": 3722, 
  "IN@@": 3723, 
  "hospitality": 3724, 
  "ators": 3725, 
  "fees": 3726, 
  "Auditors": 3727, 
  "gap": 3728, 
  "desk": 3729, 
  "remarks": 3730, 
  "Q@@": 3731, 
  "explained": 3732, 
  "revision": 3733, 
  "saved": 3734, 
  "W": 3735, 
  "95": 3736, 
  "welcoming": 3737, 
  "School": 3738, 
  "ou": 3739, 
  "alongside": 3740, 
  "universities": 3741, 
  "movements": 3742, 
  "reflected": 3743, 
  "realise": 3744, 
  "hearing": 3745, 
  "pe@@": 3746, 
  "faith": 3747, 
  "stocks": 3748, 
  "coordinated": 3749, 
  "des@@": 3750, 
  "600": 3751, 
  "OF": 3752, 
  "ID": 3753, 
  "Serbia": 3754, 
  "warning": 3755, 
  "adapted": 3756, 
  "El": 3757, 
  "errors": 3758, 
  "2.@@": 3759, 
  "decade": 3760, 
  "ride": 3761, 
  "PDF": 3762, 
  "female": 3763, 
  "Po@@": 3764, 
  "obstacles": 3765, 
  "ir@@": 3766, 
  "looked": 3767, 
  "didn": 3768, 
  "dry": 3769, 
  "ously": 3770, 
  "beings": 3771, 
  "considerably": 3772, 
  "Wi": 3773, 
  "compact": 3774, 
  "reflects": 3775, 
  "Socialist": 3776, 
  "Act": 3777, 
  "raising": 3778, 
  "safeguard": 3779, 
  "computers": 3780, 
  "collected": 3781, 
  "Inn": 3782, 
  "dark": 3783, 
  "stars": 3784, 
  "romantic": 3785, 
  "subsequent": 3786, 
  "che": 3787, 
  "Nice": 3788, 
  "anti@@": 3789, 
  "pick": 3790, 
  "parliament": 3791, 
  "consulting": 3792, 
  "showed": 3793, 
  "endorse": 3794, 
  "whenever": 3795, 
  "adapt": 3796, 
  "800": 3797, 
  "para": 3798, 
  "cast": 3799, 
  "mann": 3800, 
  "Private": 3801, 
  "va": 3802, 
  "generations": 3803, 
  "ado": 3804, 
  "liked": 3805, 
  "Data": 3806, 
  "v": 3807, 
  "Action": 3808, 
  "disasters": 3809, 
  "investigation": 3810, 
  "museums": 3811, 
  "vessels": 3812, 
  "Federation": 3813, 
  "ge": 3814, 
  "Code": 3815, 
  "ministers": 3816, 
  "exploitation": 3817, 
  "reliability": 3818, 
  "pro": 3819, 
  "hiking": 3820, 
  "losses": 3821, 
  "thermal": 3822, 
  "PT": 3823, 
  "massage": 3824, 
  "movie": 3825, 
  "united": 3826, 
  "initially": 3827, 
  "Site": 3828, 
  "De": 3829, 
  "restructuring": 3830, 
  "videos": 3831, 
  "14@@": 3832, 
  "printed": 3833, 
  "ev@@": 3834, 
  "overlooking": 3835, 
  "parallel": 3836, 
  "Agriculture": 3837, 
  "severe": 3838, 
  "fleet": 3839, 
  "Geneva": 3840, 
  "everywhere": 3841, 
  "armed": 3842, 
  "excluded": 3843, 
  "violations": 3844, 
  "exclusion": 3845, 
  "protocol": 3846, 
  "Beach": 3847, 
  "decline": 3848, 
  "ish": 3849, 
  "ders": 3850, 
  "reaction": 3851, 
  "ber": 3852, 
  "worst": 3853, 
  "ai": 3854, 
  "amenities": 3855, 
  "st": 3856, 
  "arise": 3857, 
  "Commissioners": 3858, 
  "songs": 3859, 
  "Media": 3860, 
  "Saturday": 3861, 
  "36": 3862, 
  "trends": 3863, 
  "Law": 3864, 
  "Australia": 3865, 
  "shift": 3866, 
  "song": 3867, 
  "believes": 3868, 
  "nobody": 3869, 
  "dead": 3870, 
  "shortly": 3871, 
  "sight": 3872, 
  "Stability": 3873, 
  "transferred": 3874, 
  "ative": 3875, 
  "ur": 3876, 
  "concentrate": 3877, 
  "restored": 3878, 
  "ordered": 3879, 
  "symbol": 3880, 
  "sovereignty": 3881, 
  "19th": 3882, 
  "checks": 3883, 
  "deeply": 3884, 
  "targeted": 3885, 
  "adding": 3886, 
  "supplied": 3887, 
  "ms": 3888, 
  "liberal": 3889, 
  "dignity": 3890, 
  "scientists": 3891, 
  "las": 3892, 
  "pm": 3893, 
  "stages": 3894, 
  "satisfy": 3895, 
  "restore": 3896, 
  "fishermen": 3897, 
  "essentially": 3898, 
  "tive": 3899, 
  "equivalent": 3900, 
  "PPE": 3901, 
  "plastic": 3902, 
  "executive": 3903, 
  "pretty": 3904, 
  "penalty": 3905, 
  "processed": 3906, 
  "accident": 3907, 
  "12@@": 3908, 
  "courage": 3909, 
  "learned": 3910, 
  "labor": 3911, 
  "Peter": 3912, 
  "Balkans": 3913, 
  "underground": 3914, 
  "la@@": 3915, 
  "Valley": 3916, 
  "designs": 3917, 
  "Christmas": 3918, 
  "Mon@@": 3919, 
  "Amendments": 3920, 
  "ECU": 3921, 
  "factory": 3922, 
  "therapy": 3923, 
  "sphere": 3924, 
  "Venice": 3925, 
  "strengthened": 3926, 
  "briefly": 3927, 
  "assess": 3928, 
  "clause": 3929, 
  "cultures": 3930, 
  "assembly": 3931, 
  "99": 3932, 
  "tracks": 3933, 
  "amazing": 3934, 
  "reconstruction": 3935, 
  "collect": 3936, 
  "Non": 3937, 
  "Michael": 3938, 
  "freely": 3939, 
  "ideally": 3940, 
  "edition": 3941, 
  "approve": 3942, 
  "anywhere": 3943, 
  "euros": 3944, 
  "undertaken": 3945, 
  "switch": 3946, 
  "holds": 3947, 
  "ty": 3948, 
  "flows": 3949, 
  "produces": 3950, 
  "Black": 3951, 
  "entering": 3952, 
  "33": 3953, 
  "ecological": 3954, 
  "listings": 3955, 
  "Express": 3956, 
  "tions": 3957, 
  "birth": 3958, 
  "treatments": 3959, 
  "Bay": 3960, 
  "dollar": 3961, 
  "push": 3962, 
  "98": 3963, 
  "Indian": 3964, 
  "portfolio": 3965, 
  "individually": 3966, 
  "panoramic": 3967, 
  "sand": 3968, 
  "lu@@": 3969, 
  "inspired": 3970, 
  "root": 3971, 
  "sights": 3972, 
  "Legal": 3973, 
  "sensible": 3974, 
  "solar": 3975, 
  "mar@@": 3976, 
  "cell": 3977, 
  "threats": 3978, 
  "55": 3979, 
  "explanation": 3980, 
  "manufacture": 3981, 
  "adds": 3982, 
  "highlights": 3983, 
  "bearing": 3984, 
  "em": 3985, 
  "reserved": 3986, 
  "fi@@": 3987, 
  "superior": 3988, 
  "ens": 3989, 
  "ada": 3990, 
  "profits": 3991, 
  "prospects": 3992, 
  "alization": 3993, 
  "till": 3994, 
  "province": 3995, 
  "a.m.": 3996, 
  "da@@": 3997, 
  "sk@@": 3998, 
  "wear": 3999, 
  "grown": 4000, 
  "conventional": 4001, 
  "presenting": 4002, 
  "ek": 4003, 
  "usage": 4004, 
  "cu@@": 4005, 
  "neighbouring": 4006, 
  "Georgia": 4007, 
  "floors": 4008, 
  "promise": 4009, 
  "necessarily": 4010, 
  "student": 4011, 
  "picturesque": 4012, 
  "alcohol": 4013, 
  "hi@@": 4014, 
  "attached": 4015, 
  "Paul": 4016, 
  "sit": 4017, 
  "teaching": 4018, 
  "eurozone": 4019, 
  "ingly": 4020, 
  "Ma@@": 4021, 
  "virtually": 4022, 
  "wild": 4023, 
  "IMF": 4024, 
  "anniversary": 4025, 
  "minister": 4026, 
  "Systems": 4027, 
  "relative": 4028, 
  "engaged": 4029, 
  "Th@@": 4030, 
  "Transport": 4031, 
  "twice": 4032, 
  "narrow": 4033, 
  "meal": 4034, 
  "shadow": 4035, 
  "reputation": 4036, 
  "ho@@": 4037, 
  "sole": 4038, 
  "belong": 4039, 
  "acknowledge": 4040, 
  "Design": 4041, 
  "sorry": 4042, 
  "Hall": 4043, 
  "gradually": 4044, 
  "IS": 4045, 
  "promised": 4046, 
  "34": 4047, 
  "custom": 4048, 
  "belief": 4049, 
  "engines": 4050, 
  "varied": 4051, 
  "Denmark": 4052, 
  "guided": 4053, 
  "budgets": 4054, 
  "struggle": 4055, 
  "heading": 4056, 
  "efficiently": 4057, 
  "formats": 4058, 
  "ants": 4059, 
  "fairly": 4060, 
  "CAP": 4061, 
  "horse": 4062, 
  "visual": 4063, 
  "casino": 4064, 
  "begins": 4065, 
  "proportion": 4066, 
  "suit": 4067, 
  "serving": 4068, 
  "NGOs": 4069, 
  "One": 4070, 
  "Organisation": 4071, 
  "recording": 4072, 
  "candidates": 4073, 
  "Sch@@": 4074, 
  "diplomatic": 4075, 
  "1992": 4076, 
  "clicking": 4077, 
  "sophisticated": 4078, 
  "servers": 4079, 
  "urgently": 4080, 
  "panel": 4081, 
  "specialists": 4082, 
  "surprise": 4083, 
  "estimated": 4084, 
  "olive": 4085, 
  "go@@": 4086, 
  "marks": 4087, 
  "referring": 4088, 
  "falls": 4089, 
  "gu@@": 4090, 
  "Man@@": 4091, 
  "lobby": 4092, 
  "strictly": 4093, 
  "catch": 4094, 
  "min": 4095, 
  "lets": 4096, 
  "composition": 4097, 
  "hidden": 4098, 
  "relates": 4099, 
  "passing": 4100, 
  "pillar": 4101, 
  "mistake": 4102, 
  "Mr.": 4103, 
  "Belgian": 4104, 
  "phenomenon": 4105, 
  "similarly": 4106, 
  "cm": 4107, 
  "seats": 4108, 
  "geographical": 4109, 
  "Facilities": 4110, 
  "territorial": 4111, 
  "occurred": 4112, 
  "meets": 4113, 
  "concert": 4114, 
  "medicine": 4115, 
  "cre@@": 4116, 
  "appropriations": 4117, 
  "engage": 4118, 
  "acquired": 4119, 
  "execution": 4120, 
  "kernel": 4121, 
  "Islands": 4122, 
  "revenue": 4123, 
  "magazine": 4124, 
  "combines": 4125, 
  "stunning": 4126, 
  "kilometres": 4127, 
  "bright": 4128, 
  "Find": 4129, 
  "Tour": 4130, 
  "aviation": 4131, 
  "Breakfast": 4132, 
  "damages": 4133, 
  "producer": 4134, 
  "arising": 4135, 
  "manual": 4136, 
  "heads": 4137, 
  "causing": 4138, 
  "boost": 4139, 
  "um@@": 4140, 
  "recognize": 4141, 
  "intends": 4142, 
  "teachers": 4143, 
  "honour": 4144, 
  "bathrooms": 4145, 
  "widespread": 4146, 
  "highlighted": 4147, 
  "Ombudsman": 4148, 
  "rely": 4149, 
  "Castle": 4150, 
  "Rotary": 4151, 
  "metro": 4152, 
  "coherent": 4153, 
  "blocks": 4154, 
  "JavaScript": 4155, 
  "Un@@": 4156, 
  "succeeded": 4157, 
  "script": 4158, 
  "III": 4159, 
  "resulted": 4160, 
  "mouse": 4161, 
  "ise": 4162, 
  "sex": 4163, 
  "environmentally": 4164, 
  "Card": 4165, 
  "ata": 4166, 
  "09": 4167, 
  "consequence": 4168, 
  "basically": 4169, 
  "AL@@": 4170, 
  "conditioned": 4171, 
  "wi@@": 4172, 
  "ig@@": 4173, 
  "participating": 4174, 
  "reporting": 4175, 
  "oldest": 4176, 
  "soil": 4177, 
  "Putin": 4178, 
  "gh@@": 4179, 
  "uniform": 4180, 
  "operator": 4181, 
  "liable": 4182, 
  "ses": 4183, 
  "incorporated": 4184, 
  "meals": 4185, 
  "repair": 4186, 
  "troops": 4187, 
  "RE@@": 4188, 
  "exact": 4189, 
  "filter": 4190, 
  "Resort": 4191, 
  "ball": 4192, 
  "specialized": 4193, 
  "id": 4194, 
  "airports": 4195, 
  "opens": 4196, 
  "boats": 4197, 
  "affects": 4198, 
  "ner": 4199, 
  "colors": 4200, 
  "AND": 4201, 
  "choices": 4202, 
  "integrate": 4203, 
  "camp": 4204, 
  "inc@@": 4205, 
  "13@@": 4206, 
  "ES": 4207, 
  "Li@@": 4208, 
  "op": 4209, 
  "cool": 4210, 
  "records": 4211, 
  "upgrade": 4212, 
  "agents": 4213, 
  "Executive": 4214, 
  "20@@": 4215, 
  "encouraged": 4216, 
  "restricted": 4217, 
  "Hotels": 4218, 
  "considers": 4219, 
  "j": 4220, 
  "and@@": 4221, 
  "subsequently": 4222, 
  "pi@@": 4223, 
  "puts": 4224, 
  "developers": 4225, 
  "Sp@@": 4226, 
  "achievement": 4227, 
  "victory": 4228, 
  "Mor@@": 4229, 
  "info": 4230, 
  "Deutsche": 4231, 
  "ay": 4232, 
  "native": 4233, 
  "graphics": 4234, 
  "feet": 4235, 
  "wooden": 4236, 
  "Budgets": 4237, 
  "EN@@": 4238, 
  "prisoners": 4239, 
  "Open": 4240, 
  "productive": 4241, 
  "prize": 4242, 
  "contextual": 4243, 
  "accidents": 4244, 
  "roof": 4245, 
  "mor@@": 4246, 
  "Martin": 4247, 
  "observed": 4248, 
  "Director": 4249, 
  "stores": 4250, 
  "additionally": 4251, 
  "crises": 4252, 
  "tor@@": 4253, 
  "dance": 4254, 
  "conferences": 4255, 
  "nowadays": 4256, 
  "First": 4257, 
  "quotas": 4258, 
  "Manager": 4259, 
  "Server": 4260, 
  "seeks": 4261, 
  "preserve": 4262, 
  "ac": 4263, 
  "sleep": 4264, 
  "utmost": 4265, 
  "promises": 4266, 
  "ess": 4267, 
  "Gu@@": 4268, 
  "beer": 4269, 
  "ica": 4270, 
  "compulsory": 4271, 
  "Inter@@": 4272, 
  "percentage": 4273, 
  "capabilities": 4274, 
  "insist": 4275, 
  "attend": 4276, 
  "classical": 4277, 
  "hopes": 4278, 
  "super@@": 4279, 
  "airlines": 4280, 
  "intelligent": 4281, 
  "stories": 4282, 
  "ents": 4283, 
  "clarify": 4284, 
  "AS@@": 4285, 
  "convergence": 4286, 
  "asset": 4287, 
  "surprised": 4288, 
  "Global": 4289, 
  "associations": 4290, 
  "ser@@": 4291, 
  "staying": 4292, 
  "purely": 4293, 
  "actors": 4294, 
  "IS@@": 4295, 
  "dispute": 4296, 
  "37": 4297, 
  "radical": 4298, 
  "ster": 4299, 
  "Danish": 4300, 
  "cookies": 4301, 
  "Front": 4302, 
  "Golf": 4303, 
  "logical": 4304, 
  "addressing": 4305, 
  "indoor": 4306, 
  "bonus": 4307, 
  "featuring": 4308, 
  "ha": 4309, 
  "harmful": 4310, 
  "42": 4311, 
  "enjoying": 4312, 
  "Casino": 4313, 
  "Notes": 4314, 
  "smooth": 4315, 
  "1,@@": 4316, 
  "mixed": 4317, 
  "Constitutional": 4318, 
  "TO": 4319, 
  "operates": 4320, 
  "quote": 4321, 
  "scheduled": 4322, 
  "index": 4323, 
  "permission": 4324, 
  "expand": 4325, 
  "ps": 4326, 
  "ov@@": 4327, 
  "extending": 4328, 
  "prison": 4329, 
  "sing": 4330, 
  "Protocol": 4331, 
  "20th": 4332, 
  "discount": 4333, 
  "edited": 4334, 
  "ver": 4335, 
  "seconds": 4336, 
  "joining": 4337, 
  "1993": 4338, 
  "Dublin": 4339, 
  "governing": 4340, 
  "hills": 4341, 
  "mere": 4342, 
  "spite": 4343, 
  "ein": 4344, 
  "buses": 4345, 
  "ves": 4346, 
  "Plan": 4347, 
  "convention": 4348, 
  "stake": 4349, 
  "ger": 4350, 
  "om": 4351, 
  "implications": 4352, 
  "chairman": 4353, 
  "back@@": 4354, 
  "communicate": 4355, 
  "ton": 4356, 
  "unity": 4357, 
  "Su@@": 4358, 
  "zero": 4359, 
  "ultimate": 4360, 
  "250": 4361, 
  "studied": 4362, 
  "girls": 4363, 
  "taxi": 4364, 
  "chapter": 4365, 
  "organise": 4366, 
  "ck@@": 4367, 
  "Ex@@": 4368, 
  "medieval": 4369, 
  "Treaties": 4370, 
  "relationships": 4371, 
  "fax": 4372, 
  "AR@@": 4373, 
  "meaningfully": 4374, 
  "Agenda": 4375, 
  "tur@@": 4376, 
  "adventure": 4377, 
  "broken": 4378, 
  "CO@@": 4379, 
  "08": 4380, 
  "65": 4381, 
  "villa": 4382, 
  "Box": 4383, 
  "remarkable": 4384, 
  "miss": 4385, 
  "sufficiently": 4386, 
  "expense": 4387, 
  "\\": 4388, 
  "ee": 4389, 
  "ore": 4390, 
  "alism": 4391, 
  "permit": 4392, 
  "unfair": 4393, 
  "faces": 4394, 
  "Java": 4395, 
  "ble": 4396, 
  "federal": 4397, 
  "roll": 4398, 
  "Music": 4399, 
  "Regional": 4400, 
  "evident": 4401, 
  "ease": 4402, 
  "enforcement": 4403, 
  "approaches": 4404, 
  "minor": 4405, 
  "believed": 4406, 
  "m2": 4407, 
  "IN": 4408, 
  "eliminate": 4409, 
  "accounting": 4410, 
  "incentives": 4411, 
  "Syria": 4412, 
  "For@@": 4413, 
  "retain": 4414, 
  "sa": 4415, 
  "describe": 4416, 
  "crew": 4417, 
  "repeated": 4418, 
  "chair": 4419, 
  "stuff": 4420, 
  "Com@@": 4421, 
  "ill": 4422, 
  "49": 4423, 
  "concentration": 4424, 
  "Culture": 4425, 
  "mouth": 4426, 
  "boot": 4427, 
  "Exchange": 4428, 
  "ren@@": 4429, 
  "references": 4430, 
  "certified": 4431, 
  "calm": 4432, 
  "medicines": 4433, 
  "contextually": 4434, 
  "journalists": 4435, 
  "audience": 4436, 
  "grammatically": 4437, 
  "Muslim": 4438, 
  "Pro": 4439, 
  "charm": 4440, 
  "negotiation": 4441, 
  "ingredients": 4442, 
  "Prodi": 4443, 
  "multilateral": 4444, 
  "poorest": 4445, 
  "shuttle": 4446, 
  "fewer": 4447, 
  "Par@@": 4448, 
  "ley": 4449, 
  "pen@@": 4450, 
  "pilot": 4451, 
  "cur@@": 4452, 
  "can@@": 4453, 
  "schemes": 4454, 
  "amended": 4455, 
  "operated": 4456, 
  "superb": 4457, 
  "cancellation": 4458, 
  "constitutes": 4459, 
  "Tourism": 4460, 
  "campaigns": 4461, 
  "enjoys": 4462, 
  "OR": 4463, 
  "ta@@": 4464, 
  "exposed": 4465, 
  "kan": 4466, 
  "Report": 4467, 
  "3.@@": 4468, 
  "ey": 4469, 
  "appointment": 4470, 
  "ably": 4471, 
  "Food": 4472, 
  "bought": 4473, 
  "navigation": 4474, 
  "frequency": 4475, 
  "07": 4476, 
  "translated": 4477, 
  "legitimacy": 4478, 
  "Online": 4479, 
  "38": 4480, 
  "diving": 4481, 
  "Award": 4482, 
  "empty": 4483, 
  "Am@@": 4484, 
  "Forum": 4485, 
  "row": 4486, 
  "ownership": 4487, 
  "Jewish": 4488, 
  "ratification": 4489, 
  "riding": 4490, 
  "trained": 4491, 
  "mental": 4492, 
  "Kyoto": 4493, 
  "financed": 4494, 
  "Mal@@": 4495, 
  "listening": 4496, 
  "assigned": 4497, 
  "pools": 4498, 
  "height": 4499, 
  "economically": 4500, 
  "ys": 4501, 
  "satisfactory": 4502, 
  "Cup": 4503, 
  "ying": 4504, 
  "dy": 4505, 
  "User": 4506, 
  "ER": 4507, 
  "escape": 4508, 
  "electrical": 4509, 
  "inadequate": 4510, 
  "completion": 4511, 
  "sur@@": 4512, 
  "theatre": 4513, 
  "une": 4514, 
  "64": 4515, 
  "urgency": 4516, 
  "neighbours": 4517, 
  "Education": 4518, 
  "lo": 4519, 
  "underlying": 4520, 
  "97": 4521, 
  "newsletter": 4522, 
  "ines": 4523, 
  "Check": 4524, 
  "Moscow": 4525, 
  "pressing": 4526, 
  "revolution": 4527, 
  "mine": 4528, 
  "portal": 4529, 
  "technique": 4530, 
  "vo@@": 4531, 
  "secondary": 4532, 
  "ending": 4533, 
  "Or@@": 4534, 
  "meanwhile": 4535, 
  "sample": 4536, 
  "arranged": 4537, 
  "foundations": 4538, 
  "whereby": 4539, 
  "Ver@@": 4540, 
  "multi@@": 4541, 
  "Washington": 4542, 
  "suggests": 4543, 
  "simultaneously": 4544, 
  "openness": 4545, 
  "optimal": 4546, 
  "thumbnail": 4547, 
  "col@@": 4548, 
  "ars": 4549, 
  "fascinating": 4550, 
  "collapse": 4551, 
  "Terms": 4552, 
  "mu@@": 4553, 
  "Cuba": 4554, 
  "folder": 4555, 
  "Du@@": 4556, 
  "excursions": 4557, 
  "sizes": 4558, 
  "conciliation": 4559, 
  "preferred": 4560, 
  "examination": 4561, 
  "residential": 4562, 
  "mer@@": 4563, 
  "wife": 4564, 
  "roots": 4565, 
  "Vi@@": 4566, 
  "typically": 4567, 
  "begun": 4568, 
  "ara": 4569, 
  "Hong": 4570, 
  "deserves": 4571, 
  "seemed": 4572, 
  "non@@": 4573, 
  "repeatedly": 4574, 
  "compete": 4575, 
  "checked": 4576, 
  "managers": 4577, 
  "bl@@": 4578, 
  "transfers": 4579, 
  "gen@@": 4580, 
  "unnecessary": 4581, 
  "travellers": 4582, 
  "representing": 4583, 
  "dramatic": 4584, 
  "ches": 4585, 
  "ure": 4586, 
  "Smoking": 4587, 
  "splendid": 4588, 
  "mi@@": 4589, 
  "inner": 4590, 
  "Sal@@": 4591, 
  "96": 4592, 
  "observe": 4593, 
  "Bi@@": 4594, 
  "For": 4595, 
  "considerations": 4596, 
  "trans@@": 4597, 
  "Authority": 4598, 
  "violation": 4599, 
  "returns": 4600, 
  "Slovakia": 4601, 
  "gra@@": 4602, 
  "occupation": 4603, 
  "Kong": 4604, 
  "specially": 4605, 
  "instantly": 4606, 
  "fifth": 4607, 
  "Garden": 4608, 
  "characteristic": 4609, 
  "expanded": 4610, 
  "layout": 4611, 
  "auf": 4612, 
  "AN@@": 4613, 
  "David": 4614, 
  "Plaza": 4615, 
  "autumn": 4616, 
  "thorough": 4617, 
  "boasts": 4618, 
  "Lu@@": 4619, 
  "USD": 4620, 
  "boards": 4621, 
  "wave": 4622, 
  "Intergovernmental": 4623, 
  "Florence": 4624, 
  "George": 4625, 
  "dialog": 4626, 
  "timetable": 4627, 
  "MS": 4628, 
  "Jean": 4629, 
  "NL": 4630, 
  "120": 4631, 
  "coastal": 4632, 
  "marine": 4633, 
  "EN": 4634, 
  "Player": 4635, 
  "sovereign": 4636, 
  "debating": 4637, 
  "ni@@": 4638, 
  "del@@": 4639, 
  "foremost": 4640, 
  "destroy": 4641, 
  "withdraw": 4642, 
  "AT@@": 4643, 
  "favourable": 4644, 
  "iron": 4645, 
  "air@@": 4646, 
  "willingness": 4647, 
  "St": 4648, 
  "plug": 4649, 
  "array": 4650, 
  "codecision": 4651, 
  "adult": 4652, 
  "MySQL": 4653, 
  "informal": 4654, 
  "falling": 4655, 
  "sunny": 4656, 
  "af@@": 4657, 
  "suited": 4658, 
  "speeches": 4659, 
  "complaints": 4660, 
  "genuinely": 4661, 
  "examined": 4662, 
  "Wednesday": 4663, 
  "Fundamental": 4664, 
  "ethical": 4665, 
  "39": 4666, 
  "bigger": 4667, 
  "moments": 4668, 
  "Maria": 4669, 
  "Consumer": 4670, 
  "Skype": 4671, 
  "funded": 4672, 
  "ING": 4673, 
  "lively": 4674, 
  "Customer": 4675, 
  "03": 4676, 
  "soul": 4677, 
  "commit": 4678, 
  "Industry": 4679, 
  "Trek": 4680, 
  "string": 4681, 
  "ell@@": 4682, 
  "Her@@": 4683, 
  "Bu@@": 4684, 
  "mechanical": 4685, 
  "ck": 4686, 
  "Network": 4687, 
  "hill": 4688, 
  "vary": 4689, 
  "intentions": 4690, 
  "measurement": 4691, 
  "guaranteeing": 4692, 
  "Ri@@": 4693, 
  "buying": 4694, 
  "manufactured": 4695, 
  "apparent": 4696, 
  "ST@@": 4697, 
  "motorway": 4698, 
  "booked": 4699, 
  "cent": 4700, 
  "busy": 4701, 
  "accessories": 4702, 
  "wherever": 4703, 
  "baby": 4704, 
  "clarity": 4705, 
  "Cal@@": 4706, 
  "branch": 4707, 
  "textile": 4708, 
  "spectrum": 4709, 
  "18@@": 4710, 
  "forth": 4711, 
  "importantly": 4712, 
  "strike": 4713, 
  "Women": 4714, 
  "fly": 4715, 
  "ang": 4716, 
  "Games": 4717, 
  "pensions": 4718, 
  "slopes": 4719, 
  "Be@@": 4720, 
  "purchased": 4721, 
  "fl@@": 4722, 
  "apparently": 4723, 
  "calendar": 4724, 
  "expenses": 4725, 
  "isation": 4726, 
  "keys": 4727, 
  "jointly": 4728, 
  "Civil": 4729, 
  "focusing": 4730, 
  "composed": 4731, 
  "hand@@": 4732, 
  "accuracy": 4733, 
  "respects": 4734, 
  "continuously": 4735, 
  "Alps": 4736, 
  "rating": 4737, 
  "principal": 4738, 
  "turns": 4739, 
  "1991": 4740, 
  "certification": 4741, 
  "NI": 4742, 
  "Ministry": 4743, 
  "researchers": 4744, 
  "inspection": 4745, 
  "loans": 4746, 
  "Val@@": 4747, 
  "Sh@@": 4748, 
  "kg": 4749, 
  "ati@@": 4750, 
  "Fisheries": 4751, 
  "violent": 4752, 
  "transaction": 4753, 
  "ads": 4754, 
  "convenience": 4755, 
  "afford": 4756, 
  "me@@": 4757, 
  "residents": 4758, 
  "logic": 4759, 
  "losing": 4760, 
  "ant@@": 4761, 
  "publish": 4762, 
  "sessions": 4763, 
  "Airbus": 4764, 
  "condemn": 4765, 
  "formation": 4766, 
  "destinations": 4767, 
  "doubts": 4768, 
  "ov": 4769, 
  "virus": 4770, 
  "Academy": 4771, 
  "authors": 4772, 
  "phones": 4773, 
  "vocational": 4774, 
  "Morocco": 4775, 
  "Palestinians": 4776, 
  "tragedy": 4777, 
  "he@@": 4778, 
  "bay": 4779, 
  "revised": 4780, 
  "Ab@@": 4781, 
  "ion": 4782, 
  "broader": 4783, 
  "devoted": 4784, 
  "tics": 4785, 
  "tragic": 4786, 
  "regulated": 4787, 
  "700": 4788, 
  "IC@@": 4789, 
  "makers": 4790, 
  "desktop": 4791, 
  "parks": 4792, 
  "pace": 4793, 
  "preserved": 4794, 
  "deadline": 4795, 
  "officially": 4796, 
  "Bosnia": 4797, 
  "1989": 4798, 
  "On": 4799, 
  "tion": 4800, 
  "affordable": 4801, 
  "war@@": 4802, 
  "forgotten": 4803, 
  "letters": 4804, 
  "paths": 4805, 
  "terrible": 4806, 
  "ek@@": 4807, 
  "trains": 4808, 
  "oppose": 4809, 
  "survey": 4810, 
  "constructed": 4811, 
  "wheel": 4812, 
  "au@@": 4813, 
  "arrangement": 4814, 
  "Family": 4815, 
  "GNU": 4816, 
  "trouble": 4817, 
  "all@@": 4818, 
  "afraid": 4819, 
  "44": 4820, 
  "Project": 4821, 
  "closing": 4822, 
  "wage": 4823, 
  "jurisdiction": 4824, 
  "IT@@": 4825, 
  "graphic": 4826, 
  "Ber@@": 4827, 
  "refused": 4828, 
  "winner": 4829, 
  "recall": 4830, 
  "behavior": 4831, 
  "ro": 4832, 
  "02": 4833, 
  "electoral": 4834, 
  "promoted": 4835, 
  "te@@": 4836, 
  "finds": 4837, 
  "posts": 4838, 
  "removal": 4839, 
  "orientation": 4840, 
  "Chairman": 4841, 
  "Pacific": 4842, 
  "gift": 4843, 
  "Department": 4844, 
  "sake": 4845, 
  "Mac": 4846, 
  "variable": 4847, 
  "fan": 4848, 
  "poker": 4849, 
  "stopped": 4850, 
  "sailing": 4851, 
  "adjustment": 4852, 
  "renewed": 4853, 
  "employers": 4854, 
  "pain": 4855, 
  "tend": 4856, 
  "ics": 4857, 
  "á": 4858, 
  "affecting": 4859, 
  "43": 4860, 
  "alized": 4861, 
  "conversion": 4862, 
  "judge": 4863, 
  "Z": 4864, 
  "Finnish": 4865, 
  "4.@@": 4866, 
  "Gaza": 4867, 
  "transitional": 4868, 
  "relief": 4869, 
  "dimensions": 4870, 
  "delays": 4871, 
  "Life": 4872, 
  "2012": 4873, 
  "organize": 4874, 
  "har@@": 4875, 
  "healthcare": 4876, 
  "modify": 4877, 
  "quantity": 4878, 
  "arrange": 4879, 
  "fell": 4880, 
  "ceiling": 4881, 
  "1000": 4882, 
  "preparations": 4883, 
  "presidential": 4884, 
  "exhibitions": 4885, 
  "focuses": 4886, 
  "honest": 4887, 
  "duration": 4888, 
  "visits": 4889, 
  "publishing": 4890, 
  "ments": 4891, 
  "ella": 4892, 
  "brands": 4893, 
  "vis": 4894, 
  "integrity": 4895, 
  "belongs": 4896, 
  "Greens": 4897, 
  "uncertainty": 4898, 
  "alternatives": 4899, 
  "precision": 4900, 
  "ven@@": 4901, 
  "pers": 4902, 
  "Go@@": 4903, 
  "refuse": 4904, 
  "automotive": 4905, 
  "premium": 4906, 
  "Team": 4907, 
  "stressed": 4908, 
  "Flash": 4909, 
  "certificate": 4910, 
  "installations": 4911, 
  "05": 4912, 
  "ir": 4913, 
  "Van": 4914, 
  "A5": 4915, 
  "prospect": 4916, 
  "cameras": 4917, 
  "tower": 4918, 
  "false": 4919, 
  "Robert": 4920, 
  "&apos;d": 4921, 
  "ger@@": 4922, 
  "expressly": 4923, 
  "declare": 4924, 
  "fer@@": 4925, 
  "attended": 4926, 
  "governmental": 4927, 
  "privileged": 4928, 
  "catalogue": 4929, 
  "noon": 4930, 
  "Poker": 4931, 
  "tr@@": 4932, 
  "ED": 4933, 
  "granting": 4934, 
  "painting": 4935, 
  "end@@": 4936, 
  "Gentoo": 4937, 
  "greenhouse": 4938, 
  "COM": 4939, 
  "smart": 4940, 
  "advise": 4941, 
  "soldiers": 4942, 
  "ph@@": 4943, 
  "frequent": 4944, 
  "whatsoever": 4945, 
  "ological": 4946, 
  "flying": 4947, 
  "deserve": 4948, 
  "freight": 4949, 
  "precious": 4950, 
  "Employment": 4951, 
  "bet": 4952, 
  "Heads": 4953, 
  "likewise": 4954, 
  "RO": 4955, 
  "ef@@": 4956, 
  "06": 4957, 
  "ignore": 4958, 
  "dec@@": 4959, 
  "schedule": 4960, 
  "argue": 4961, 
  "observation": 4962, 
  "relaxed": 4963, 
  "pattern": 4964, 
  "stick": 4965, 
  "Suite": 4966, 
  "worthy": 4967, 
  "populations": 4968, 
  "Meeting": 4969, 
  "beef": 4970, 
  "RO@@": 4971, 
  "purchasing": 4972, 
  "steam": 4973, 
  "beneficial": 4974, 
  "logo": 4975, 
  "dog": 4976, 
  "retail": 4977, 
  "knew": 4978, 
  "bug": 4979, 
  "Budapest": 4980, 
  "bur@@": 4981, 
  "surveillance": 4982, 
  "shot": 4983, 
  "achievements": 4984, 
  "identification": 4985, 
  "dating": 4986, 
  "delete": 4987, 
  "machinery": 4988, 
  "centers": 4989, 
  "postal": 4990, 
  "pursuant": 4991, 
  "arts": 4992, 
  "pour": 4993, 
  "signals": 4994, 
  "taxpayers": 4995, 
  "vers": 4996, 
  "85": 4997, 
  ".de": 4998, 
  "logistics": 4999, 
  "OR@@": 5000, 
  "monuments": 5001, 
  "comp@@": 5002, 
  "zi@@": 5003, 
  "newspaper": 5004, 
  "deficits": 5005, 
  "neighbourhood": 5006, 
  "earn": 5007, 
  "suspended": 5008, 
  "owing": 5009, 
  "fitted": 5010, 
  "explicitly": 5011, 
  "emerged": 5012, 
  "ay@@": 5013, 
  "od@@": 5014, 
  "coal": 5015, 
  "unusual": 5016, 
  "civilian": 5017, 
  "els": 5018, 
  "sandy": 5019, 
  "stops": 5020, 
  "academic": 5021, 
  "chemicals": 5022, 
  "distinction": 5023, 
  "insufficient": 5024, 
  "AS": 5025, 
  "innovations": 5026, 
  "concerts": 5027, 
  "interactive": 5028, 
  "commerce": 5029, 
  "Pi@@": 5030, 
  "41": 5031, 
  "reflection": 5032, 
  "drives": 5033, 
  "passion": 5034, 
  "18th": 5035, 
  "atic": 5036, 
  "ani": 5037, 
  "magic": 5038, 
  "gar@@": 5039, 
  "consistently": 5040, 
  "UN@@": 5041, 
  "undertake": 5042, 
  "ju@@": 5043, 
  "2nd": 5044, 
  "indicators": 5045, 
  "releases": 5046, 
  "prestigious": 5047, 
  "stayed": 5048, 
  "ER@@": 5049, 
  "debated": 5050, 
  "lovers": 5051, 
  "feedback": 5052, 
  "ruling": 5053, 
  "Charles": 5054, 
  "credible": 5055, 
  "mistakes": 5056, 
  "AD@@": 5057, 
  "measuring": 5058, 
  "Marina": 5059, 
  "fix": 5060, 
  "recession": 5061, 
  "signing": 5062, 
  "centrally": 5063, 
  "Pal@@": 5064, 
  "negotiated": 5065, 
  "prevented": 5066, 
  "generous": 5067, 
  "bri@@": 5068, 
  "Presidents": 5069, 
  "e.@@": 5070, 
  "slowly": 5071, 
  "photographs": 5072, 
  "Hostelsclub": 5073, 
  "Representative": 5074, 
  "ich": 5075, 
  "imported": 5076, 
  "replacement": 5077, 
  "sal@@": 5078, 
  "publications": 5079, 
  "cancelled": 5080, 
  "deaths": 5081, 
  "ese": 5082, 
  "territories": 5083, 
  "sees": 5084, 
  "Storage": 5085, 
  "silver": 5086, 
  "voters": 5087, 
  "alike": 5088, 
  "threatened": 5089, 
  "super": 5090, 
  "ang@@": 5091, 
  "lights": 5092, 
  "Cologne": 5093, 
  "El@@": 5094, 
  "split": 5095, 
  "realize": 5096, 
  "specify": 5097, 
  "gross": 5098, 
  "necessity": 5099, 
  "moves": 5100, 
  "displays": 5101, 
  "stance": 5102, 
  "admit": 5103, 
  "thanking": 5104, 
  "2.0": 5105, 
  "fo@@": 5106, 
  "telecommunications": 5107, 
  "notably": 5108, 
  "acquisition": 5109, 
  "mandatory": 5110, 
  "ically": 5111, 
  "patents": 5112, 
  "spare": 5113, 
  "gs": 5114, 
  "Area": 5115, 
  "chose": 5116, 
  "revealed": 5117, 
  "proximity": 5118, 
  "Zurich": 5119, 
  "alisation": 5120, 
  "mal@@": 5121, 
  "supplementary": 5122, 
  "chat": 5123, 
  "ki": 5124, 
  "5.@@": 5125, 
  "unknown": 5126, 
  "Maastricht": 5127, 
  "ato": 5128, 
  "Internal": 5129, 
  "ó@@": 5130, 
  "bureaucracy": 5131, 
  "heated": 5132, 
  "indicates": 5133, 
  "Kar@@": 5134, 
  "viewed": 5135, 
  "senior": 5136, 
  "negotiate": 5137, 
  "James": 5138, 
  "--@@": 5139, 
  "twin": 5140, 
  "hole": 5141, 
  "hesitate": 5142, 
  "conveniently": 5143, 
  "ratio": 5144, 
  "favourite": 5145, 
  "chairs": 5146, 
  "architectural": 5147, 
  "certainty": 5148, 
  "Salzburg": 5149, 
  "afterwards": 5150, 
  "intelligence": 5151, 
  "AC@@": 5152, 
  "humanity": 5153, 
  "ratified": 5154, 
  "ell": 5155, 
  "comprises": 5156, 
  "ette": 5157, 
  "congratulations": 5158, 
  "heavily": 5159, 
  "airline": 5160, 
  "sts": 5161, 
  "­": 5162, 
  "placing": 5163, 
  "De@@": 5164, 
  "sed": 5165, 
  "icon": 5166, 
  "timely": 5167, 
  "patterns": 5168, 
  "evaluate": 5169, 
  "justify": 5170, 
  "46": 5171, 
  "occurs": 5172, 
  "lin@@": 5173, 
  "ai@@": 5174, 
  "protest": 5175, 
  "tim@@": 5176, 
  "fails": 5177, 
  "performing": 5178, 
  "Studio": 5179, 
  "Q": 5180, 
  "announce": 5181, 
  "leg@@": 5182, 
  "sen@@": 5183, 
  "comm@@": 5184, 
  "Milan": 5185, 
  "citizenship": 5186, 
  "viable": 5187, 
  "archive": 5188, 
  "worrying": 5189, 
  "ba": 5190, 
  "Prize": 5191, 
  "zones": 5192, 
  "ga": 5193, 
  "Olympic": 5194, 
  "wars": 5195, 
  "choosing": 5196, 
  "defining": 5197, 
  "expanding": 5198, 
  "farms": 5199, 
  "Le@@": 5200, 
  "movies": 5201, 
  "demonstrates": 5202, 
  "1.5": 5203, 
  "creativity": 5204, 
  "ES@@": 5205, 
  "tone": 5206, 
  "transit": 5207, 
  "ona": 5208, 
  "initiated": 5209, 
  "chief": 5210, 
  "tra@@": 5211, 
  "allocation": 5212, 
  "nationals": 5213, 
  "AL": 5214, 
  "catering": 5215, 
  "lands": 5216, 
  "ente": 5217, 
  "edit": 5218, 
  "drinking": 5219, 
  "creature": 5220, 
  "adjust": 5221, 
  "solved": 5222, 
  "claimed": 5223, 
  "conservation": 5224, 
  "Sony": 5225, 
  "ats": 5226, 
  "notified": 5227, 
  "terrorists": 5228, 
  "withdrawal": 5229, 
  "imposing": 5230, 
  "her@@": 5231, 
  "Opera": 5232, 
  "boxes": 5233, 
  "lighting": 5234, 
  "cooking": 5235, 
  "So@@": 5236, 
  "Your": 5237, 
  "Via": 5238, 
  "Hour": 5239, 
  "Partnership": 5240, 
  "Thomas": 5241, 
  "Bel@@": 5242, 
  "assurance": 5243, 
  "External": 5244, 
  "AIDS": 5245, 
  "ful": 5246, 
  "pol@@": 5247, 
  "clock": 5248, 
  "downloaded": 5249, 
  "clothing": 5250, 
  "dual": 5251, 
  "eine": 5252, 
  "agrees": 5253, 
  "consult": 5254, 
  "Taiwan": 5255, 
  "Adobe": 5256, 
  "contractual": 5257, 
  "potentially": 5258, 
  "Lo@@": 5259, 
  "intense": 5260, 
  "su": 5261, 
  "Cooperation": 5262, 
  "literature": 5263, 
  "premises": 5264, 
  "harm": 5265, 
  "Society": 5266, 
  "contributing": 5267, 
  "Co": 5268, 
  "Common": 5269, 
  "ement": 5270, 
  "sen": 5271, 
  "favorite": 5272, 
  "inclusive": 5273, 
  "dan": 5274, 
  "convert": 5275, 
  "posted": 5276, 
  "summary": 5277, 
  "converted": 5278, 
  "equity": 5279, 
  "intervene": 5280, 
  "experiencing": 5281, 
  "Product": 5282, 
  "tech": 5283, 
  "temperatures": 5284, 
  "tough": 5285, 
  "caught": 5286, 
  "occupied": 5287, 
  "qualifications": 5288, 
  "ours": 5289, 
  "inter": 5290, 
  "systematic": 5291, 
  "52": 5292, 
  "tropical": 5293, 
  "structured": 5294, 
  "Europol": 5295, 
  "dollars": 5296, 
  "conventions": 5297, 
  "react": 5298, 
  "ot": 5299, 
  "istic": 5300, 
  "coordinate": 5301, 
  "tips": 5302, 
  "Series": 5303, 
  "Iranian": 5304, 
  "exposure": 5305, 
  "BSE": 5306, 
  "applicant": 5307, 
  "unanimously": 5308, 
  "harbour": 5309, 
  "laser": 5310, 
  "rubber": 5311, 
  "unions": 5312, 
  "az@@": 5313, 
  "maps": 5314, 
  "procurement": 5315, 
  "cancel": 5316, 
  "copies": 5317, 
  "biological": 5318, 
  "yang": 5319, 
  "designer": 5320, 
  "Argentina": 5321, 
  "Scotland": 5322, 
  "Burma": 5323, 
  "tor": 5324, 
  "disputes": 5325, 
  "authentic": 5326, 
  "papers": 5327, 
  "churches": 5328, 
  "arbitrary": 5329, 
  "wh@@": 5330, 
  "ec": 5331, 
  "tonnes": 5332, 
  "wake": 5333, 
  "ri": 5334, 
  "biodiversity": 5335, 
  "sheets": 5336, 
  "findings": 5337, 
  "judgment": 5338, 
  "blame": 5339, 
  "Growth": 5340, 
  "silence": 5341, 
  "elderly": 5342, 
  "s.@@": 5343, 
  "compare": 5344, 
  "ces": 5345, 
  "workshops": 5346, 
  "ging": 5347, 
  "pri@@": 5348, 
  "convince": 5349, 
  "Min@@": 5350, 
  "und@@": 5351, 
  "platforms": 5352, 
  "entries": 5353, 
  "ker": 5354, 
  "breach": 5355, 
  "ran@@": 5356, 
  "practically": 5357, 
  "headquarters": 5358, 
  "approx": 5359, 
  "visitor": 5360, 
  "ve@@": 5361, 
  "Southern": 5362, 
  "competences": 5363, 
  "combining": 5364, 
  "3rd": 5365, 
  "answered": 5366, 
  "CH@@": 5367, 
  "coverage": 5368, 
  "ass@@": 5369, 
  "worry": 5370, 
  "Bureau": 5371, 
  "ei@@": 5372, 
  "ear@@": 5373, 
  "Lithuania": 5374, 
  "workshop": 5375, 
  "sm@@": 5376, 
  "47": 5377, 
  "doctor": 5378, 
  "arrest": 5379, 
  "keeps": 5380, 
  "editor": 5381, 
  "ff": 5382, 
  "Special": 5383, 
  "warmly": 5384, 
  "pursued": 5385, 
  "progressive": 5386, 
  "warming": 5387, 
  "undermine": 5388, 
  "Second": 5389, 
  "directions": 5390, 
  "accommodate": 5391, 
  "ges": 5392, 
  "ambition": 5393, 
  "leather": 5394, 
  "segment": 5395, 
  "bill": 5396, 
  "degrees": 5397, 
  "imp@@": 5398, 
  "fin@@": 5399, 
  "partial": 5400, 
  "decent": 5401, 
  "respectively": 5402, 
  "wages": 5403, 
  "specialities": 5404, 
  "iz@@": 5405, 
  "Slovenia": 5406, 
  "terminal": 5407, 
  "isn": 5408, 
  "Communist": 5409, 
  "mel@@": 5410, 
  "por": 5411, 
  "Yugoslavia": 5412, 
  "hospital": 5413, 
  "handed": 5414, 
  "controversial": 5415, 
  "fulfilled": 5416, 
  "tes": 5417, 
  "lowest": 5418, 
  "dem": 5419, 
  "fortunately": 5420, 
  "As": 5421, 
  "essence": 5422, 
  "cal@@": 5423, 
  "perspectives": 5424, 
  "aries": 5425, 
  "Tri@@": 5426, 
  "assured": 5427, 
  "comparable": 5428, 
  "Canon": 5429, 
  "toilet": 5430, 
  "artificial": 5431, 
  "transformation": 5432, 
  "Shop": 5433, 
  "51": 5434, 
  "handled": 5435, 
  "integral": 5436, 
  "capture": 5437, 
  "specifications": 5438, 
  "Lebanon": 5439, 
  "stays": 5440, 
  "blind": 5441, 
  "paradise": 5442, 
  "threshold": 5443, 
  "signature": 5444, 
  "pays": 5445, 
  "Bal@@": 5446, 
  "Youth": 5447, 
  "ged": 5448, 
  "alist": 5449, 
  "If": 5450, 
  "controlling": 5451, 
  "confident": 5452, 
  "hopefully": 5453, 
  "birds": 5454, 
  "desirable": 5455, 
  "crops": 5456, 
  "Video": 5457, 
  "beside": 5458, 
  "Malta": 5459, 
  "sentence": 5460, 
  "suggestion": 5461, 
  "receives": 5462, 
  "describes": 5463, 
  "emission": 5464, 
  "celebrate": 5465, 
  "stream": 5466, 
  "S.": 5467, 
  "ON": 5468, 
  "explains": 5469, 
  "Space": 5470, 
  "Main": 5471, 
  "unemployed": 5472, 
  "Stockholm": 5473, 
  "lock": 5474, 
  "meantime": 5475, 
  "measured": 5476, 
  ",000": 5477, 
  "shaped": 5478, 
  "battery": 5479, 
  "Section": 5480, 
  "io": 5481, 
  "subscribe": 5482, 
  "automation": 5483, 
  "Website": 5484, 
  "bra@@": 5485, 
  "bureaucratic": 5486, 
  "Beijing": 5487, 
  "preliminary": 5488, 
  "eh@@": 5489, 
  "partnerships": 5490, 
  "harmony": 5491, 
  "avoided": 5492, 
  "column": 5493, 
  "kids": 5494, 
  "appreciated": 5495, 
  "emphasised": 5496, 
  "ong": 5497, 
  "downtown": 5498, 
  "Empire": 5499, 
  "substantially": 5500, 
  "golden": 5501, 
  "par": 5502, 
  "returning": 5503, 
  "genetic": 5504, 
  "photography": 5505, 
  "trans": 5506, 
  "flag": 5507, 
  "performances": 5508, 
  "College": 5509, 
  "continental": 5510, 
  "drafting": 5511, 
  "Port": 5512, 
  "watching": 5513, 
  "demographic": 5514, 
  "statistical": 5515, 
  "ste@@": 5516, 
  "Har@@": 5517, 
  "treaties": 5518, 
  "downloading": 5519, 
  "No@@": 5520, 
  "ello": 5521, 
  "Ger@@": 5522, 
  "searching": 5523, 
  "fuels": 5524, 
  "lakes": 5525, 
  "21st": 5526, 
  "Mu@@": 5527, 
  "raises": 5528, 
  "Mobile": 5529, 
  "Can@@": 5530, 
  "opt": 5531, 
  "suddenly": 5532, 
  "og@@": 5533, 
  "het": 5534, 
  "crystal": 5535, 
  "isolated": 5536, 
  "challenging": 5537, 
  "Power": 5538, 
  "Real": 5539, 
  "pharmaceutical": 5540, 
  "hor@@": 5541, 
  "gains": 5542, 
  "talked": 5543, 
  "ach@@": 5544, 
  "teacher": 5545, 
  "settled": 5546, 
  "Puerto": 5547, 
  "lesson": 5548, 
  "connecting": 5549, 
  "sions": 5550, 
  "enlarged": 5551, 
  "04": 5552, 
  "tailored": 5553, 
  "ely": 5554, 
  "develops": 5555, 
  "EC@@": 5556, 
  "thoroughly": 5557, 
  "ID@@": 5558, 
  "marquis": 5559, 
  "male": 5560, 
  "š@@": 5561, 
  "fate": 5562, 
  "missions": 5563, 
  "sustained": 5564, 
  "engineers": 5565, 
  "throw": 5566, 
  "founding": 5567, 
  "paintings": 5568, 
  "agent": 5569, 
  "Conditions": 5570, 
  "differ": 5571, 
  "Islam": 5572, 
  "vice": 5573, 
  "IC": 5574, 
  "tribute": 5575, 
  "Democratic": 5576, 
  "gr@@": 5577, 
  "Single": 5578, 
  "HTML": 5579, 
  "disappointed": 5580, 
  "hire": 5581, 
  "optional": 5582, 
  "160": 5583, 
  "scenery": 5584, 
  "plain": 5585, 
  "damaged": 5586, 
  "ah@@": 5587, 
  "breathtaking": 5588, 
  "characterized": 5589, 
  "fallen": 5590, 
  "strange": 5591, 
  "USS": 5592, 
  "Nordic": 5593, 
  "water@@": 5594, 
  "Deposit": 5595, 
  "incentive": 5596, 
  "Tuesday": 5597, 
  "declarations": 5598, 
  "semi": 5599, 
  "Left": 5600, 
  "estimates": 5601, 
  "regulate": 5602, 
  "Elevator": 5603, 
  "C.": 5604, 
  "micro": 5605, 
  "exchanges": 5606, 
  "wise": 5607, 
  "adjusted": 5608, 
  "ari@@": 5609, 
  "cheese": 5610, 
  "fears": 5611, 
  "os@@": 5612, 
  "finances": 5613, 
  "codes": 5614, 
  "economics": 5615, 
  "acknowledged": 5616, 
  "flowers": 5617, 
  "executed": 5618, 
  "Tra@@": 5619, 
  "Liberal": 5620, 
  "incredible": 5621, 
  "sporting": 5622, 
  "derived": 5623, 
  "Iraqi": 5624, 
  "optical": 5625, 
  "licence": 5626, 
  "Qu@@": 5627, 
  "victim": 5628, 
  "robust": 5629, 
  "Luggage": 5630, 
  "ales": 5631, 
  "Palestine": 5632, 
  "my@@": 5633, 
  "Hamas": 5634, 
  "interinstitutional": 5635, 
  "Cathedral": 5636, 
  "acquire": 5637, 
  "tro@@": 5638, 
  "hoped": 5639, 
  "ann@@": 5640, 
  "bro@@": 5641, 
  "Cas@@": 5642, 
  "ignored": 5643, 
  "Car": 5644, 
  "automated": 5645, 
  "dumping": 5646, 
  "alarm": 5647, 
  "SP@@": 5648, 
  "Master": 5649, 
  "checking": 5650, 
  "tolerance": 5651, 
  "discipline": 5652, 
  "amending": 5653, 
  "Gulf": 5654, 
  "fought": 5655, 
  "ft": 5656, 
  "confusion": 5657, 
  "dominated": 5658, 
  "BMW": 5659, 
  "Rural": 5660, 
  "failing": 5661, 
  "finest": 5662, 
  "prohibited": 5663, 
  "knowing": 5664, 
  "themes": 5665, 
  "bread": 5666, 
  "expressing": 5667, 
  "restrict": 5668, 
  "peak": 5669, 
  "circle": 5670, 
  "gen": 5671, 
  "roughly": 5672, 
  "prominent": 5673, 
  "transatlantic": 5674, 
  "Joint": 5675, 
  "MB": 5676, 
  "exceptions": 5677, 
  "ali@@": 5678, 
  "keen": 5679, 
  "Ac@@": 5680, 
  "regrettable": 5681, 
  "tre@@": 5682, 
  "racism": 5683, 
  "loading": 5684, 
  "publicly": 5685, 
  "garage": 5686, 
  "jo@@": 5687, 
  "we@@": 5688, 
  "Ad@@": 5689, 
  "ture": 5690, 
  "migrants": 5691, 
  "novel": 5692, 
  "login": 5693, 
  "monitored": 5694, 
  "realized": 5695, 
  "rose": 5696, 
  "wording": 5697, 
  "environments": 5698, 
  "complexity": 5699, 
  "passes": 5700, 
  "loved": 5701, 
  "guidance": 5702, 
  "reduces": 5703, 
  "reverse": 5704, 
  "piano": 5705, 
  "surprising": 5706, 
  "Socialists": 5707, 
  "IV": 5708, 
  "Investment": 5709, 
  "camps": 5710, 
  "ée": 5711, 
  "200@@": 5712, 
  "Edition": 5713, 
  "grand": 5714, 
  "A4": 5715, 
  "Apple": 5716, 
  "undertakings": 5717, 
  "sl@@": 5718, 
  "Las": 5719, 
  "editing": 5720, 
  "globalization": 5721, 
  "autonomy": 5722, 
  "shortcomings": 5723, 
  "crossing": 5724, 
  "56": 5725, 
  "doctors": 5726, 
  "regimes": 5727, 
  "defense": 5728, 
  "accepting": 5729, 
  "interview": 5730, 
  "ni": 5731, 
  "·": 5732, 
  "salt": 5733, 
  "multimedia": 5734, 
  "translations": 5735, 
  "Tor@@": 5736, 
  "torture": 5737, 
  "Gran": 5738, 
  "forming": 5739, 
  "branches": 5740, 
  "Science": 5741, 
  "indication": 5742, 
  "bonds": 5743, 
  "shareholders": 5744, 
  "sa@@": 5745, 
  "condemned": 5746, 
  "spiritual": 5747, 
  "California": 5748, 
  "ational": 5749, 
  "separately": 5750, 
  "Vietnam": 5751, 
  "emerge": 5752, 
  "telling": 5753, 
  "Apartments": 5754, 
  "è": 5755, 
  "lacking": 5756, 
  "brain": 5757, 
  "evolution": 5758, 
  "explanations": 5759, 
  "parameter": 5760, 
  "tells": 5761, 
  "mer": 5762, 
  "sur": 5763, 
  "mirror": 5764, 
  "gate": 5765, 
  "belonging": 5766, 
  "Parliamentary": 5767, 
  "spots": 5768, 
  "delicate": 5769, 
  "2.5": 5770, 
  "survive": 5771, 
  "zed": 5772, 
  "mining": 5773, 
  "ths": 5774, 
  "stood": 5775, 
  "survival": 5776, 
  "foods": 5777, 
  "accepts": 5778, 
  "sensor": 5779, 
  "seminars": 5780, 
  "ched": 5781, 
  "notion": 5782, 
  "simplification": 5783, 
  "det@@": 5784, 
  "subsidiary": 5785, 
  "unfortunate": 5786, 
  "Road": 5787, 
  "thoughts": 5788, 
  "Macedonia": 5789, 
  "rain": 5790, 
  "Heating": 5791, 
  "walks": 5792, 
  "Sa@@": 5793, 
  "Indonesia": 5794, 
  "married": 5795, 
  "Quality": 5796, 
  "AM@@": 5797, 
  "League": 5798, 
  "simplify": 5799, 
  "amend": 5800, 
  "IA": 5801, 
  "por@@": 5802, 
  "governed": 5803, 
  "1980": 5804, 
  "ensured": 5805, 
  "Mer@@": 5806, 
  "id@@": 5807, 
  "recycling": 5808, 
  "La@@": 5809, 
  "upcoming": 5810, 
  "outset": 5811, 
  "backed": 5812, 
  "land@@": 5813, 
  "Ko@@": 5814, 
  "ures": 5815, 
  "ab": 5816, 
  "incorporate": 5817, 
  "AD": 5818, 
  "exceed": 5819, 
  "responses": 5820, 
  "breaking": 5821, 
  "alize": 5822, 
  "Gar@@": 5823, 
  "Los": 5824, 
  "Digital": 5825, 
  "rejection": 5826, 
  "yellow": 5827, 
  "abandoned": 5828, 
  "monthly": 5829, 
  "drafted": 5830, 
  "humans": 5831, 
  "thin": 5832, 
  "guides": 5833, 
  "penalties": 5834, 
  "ites": 5835, 
  "invitation": 5836, 
  "unlikely": 5837, 
  "grants": 5838, 
  "US@@": 5839, 
  "OK": 5840, 
  "Win@@": 5841, 
  "unlimited": 5842, 
  "54": 5843, 
  "horizontal": 5844, 
  "taught": 5845, 
  "dial": 5846, 
  "inquiry": 5847, 
  "announcement": 5848, 
  "vegetables": 5849, 
  "Defence": 5850, 
  "sol@@": 5851, 
  "filling": 5852, 
  "ist@@": 5853, 
  "een": 5854, 
  "ins@@": 5855, 
  "badly": 5856, 
  "és": 5857, 
  "pack": 5858, 
  "tension": 5859, 
  "stem": 5860, 
  "ast@@": 5861, 
  "Thailand": 5862, 
  "characterised": 5863, 
  "reductions": 5864, 
  "Norway": 5865, 
  "setup": 5866, 
  "calculated": 5867, 
  "defending": 5868, 
  "defects": 5869, 
  "Se@@": 5870, 
  "infringement": 5871, 
  "Zimbabwe": 5872, 
  "departments": 5873, 
  "pursuing": 5874, 
  "ko": 5875, 
  "allies": 5876, 
  "trails": 5877, 
  "indirect": 5878, 
  "camping": 5879, 
  "ultra": 5880, 
  "interim": 5881, 
  "feels": 5882, 
  "Col@@": 5883, 
  "AC": 5884, 
  "quota": 5885, 
  "ati": 5886, 
  "ade": 5887, 
  "ea": 5888, 
  "newspapers": 5889, 
  "ena": 5890, 
  "weekly": 5891, 
  "ized": 5892, 
  "acted": 5893, 
  "iPhone": 5894, 
  "circulation": 5895, 
  "ls": 5896, 
  "Libya": 5897, 
  "culinary": 5898, 
  "EL": 5899, 
  "celebrated": 5900, 
  "fied": 5901, 
  "twelve": 5902, 
  "motions": 5903, 
  "Labour": 5904, 
  "anyway": 5905, 
  "chocolate": 5906, 
  "observers": 5907, 
  "rep@@": 5908, 
  "preferences": 5909, 
  "discovery": 5910, 
  "aged": 5911, 
  "Ltd": 5912, 
  "cheaper": 5913, 
  "B5": 5914, 
  "respecting": 5915, 
  "attract": 5916, 
  "exploring": 5917, 
  "ran": 5918, 
  "continually": 5919, 
  "ire": 5920, 
  "72": 5921, 
  "Sudan": 5922, 
  "optimum": 5923, 
  "landscapes": 5924, 
  "ci": 5925, 
  "grew": 5926, 
  "ser": 5927, 
  "enemy": 5928, 
  "ther@@": 5929, 
  "requiring": 5930, 
  "plane": 5931, 
  "closure": 5932, 
  "consistency": 5933, 
  "fault": 5934, 
  "separated": 5935, 
  "winners": 5936, 
  "reinforce": 5937, 
  "conjunction": 5938, 
  "post@@": 5939, 
  "Br@@": 5940, 
  "bas@@": 5941, 
  "Blue": 5942, 
  "tackling": 5943, 
  "revenues": 5944, 
  "identical": 5945, 
  "ita": 5946, 
  "pos@@": 5947, 
  "concentrated": 5948, 
  "solving": 5949, 
  "tape": 5950, 
  "poly@@": 5951, 
  "hosts": 5952, 
  "radiation": 5953, 
  "implies": 5954, 
  "Albania": 5955, 
  "receipt": 5956, 
  "ko@@": 5957, 
  "evil": 5958, 
  "assumed": 5959, 
  "Dis@@": 5960, 
  "fifteen": 5961, 
  "SV": 5962, 
  "ca@@": 5963, 
  "ane": 5964, 
  "alliance": 5965, 
  "cycling": 5966, 
  "्": 5967, 
  "03@@": 5968, 
  "dé@@": 5969, 
  "fu@@": 5970, 
  "interaction": 5971, 
  "bs": 5972, 
  "unstable": 5973, 
  "daughter": 5974, 
  "sel@@": 5975, 
  "Tyrol": 5976, 
  "fires": 5977, 
  "commonly": 5978, 
  "quantities": 5979, 
  "LE@@": 5980, 
  "unprecedented": 5981, 
  "modes": 5982, 
  "analyses": 5983, 
  "sis": 5984, 
  "medi@@": 5985, 
  "Organization": 5986, 
  "Cam@@": 5987, 
  "J": 5988, 
  "gym": 5989, 
  "influenced": 5990, 
  "profound": 5991, 
  "undertaking": 5992, 
  "AT": 5993, 
  "bases": 5994, 
  "ari": 5995, 
  "dive": 5996, 
  "minds": 5997, 
  "specialised": 5998, 
  "transformed": 5999, 
  "consolidation": 6000, 
  "Gold": 6001, 
  "lan@@": 6002, 
  "Standard": 6003, 
  "deleted": 6004, 
  "ke@@": 6005, 
  "pur@@": 6006, 
  "reiterate": 6007, 
  "styles": 6008, 
  "Declaration": 6009, 
  "5th": 6010, 
  "Mil@@": 6011, 
  "securities": 6012, 
  "ori@@": 6013, 
  "ching": 6014, 
  "refined": 6015, 
  "adaptation": 6016, 
  "investing": 6017, 
  "AM": 6018, 
  "ole": 6019, 
  "To": 6020, 
  "removing": 6021, 
  "consisting": 6022, 
  "continuation": 6023, 
  "underline": 6024, 
  "striking": 6025, 
  "vol@@": 6026, 
  "pop": 6027, 
  "enthusiasm": 6028, 
  "denied": 6029, 
  "embedded": 6030, 
  "participated": 6031, 
  "cas@@": 6032, 
  "listened": 6033, 
  "ET@@": 6034, 
  "permanently": 6035, 
  "53": 6036, 
  "XP": 6037, 
  "SE": 6038, 
  "excess": 6039, 
  "ach": 6040, 
  "eating": 6041, 
  "resorts": 6042, 
  "cr@@": 6043, 
  "sin@@": 6044, 
  "founder": 6045, 
  "girl": 6046, 
  "Tibet": 6047, 
  "ash": 6048, 
  "actor": 6049, 
  "presentations": 6050, 
  "skilled": 6051, 
  "murder": 6052, 
  "districts": 6053, 
  "work@@": 6054, 
  "investigate": 6055, 
  "Holiday": 6056, 
  "My": 6057, 
  "ei": 6058, 
  "Budgetary": 6059, 
  "clothes": 6060, 
  "Al": 6061, 
  "sweet": 6062, 
  "web@@": 6063, 
  "pal@@": 6064, 
  "backing": 6065, 
  "Alpine": 6066, 
  "rivers": 6067, 
  "labels": 6068, 
  "Ju@@": 6069, 
  "banned": 6070, 
  "sharp": 6071, 
  "homepage": 6072, 
  "HD": 6073, 
  "16th": 6074, 
  "shore": 6075, 
  "borne": 6076, 
  "ol": 6077, 
  "officer": 6078, 
  "a.@@": 6079, 
  "restoration": 6080, 
  "alised": 6081, 
  "ón": 6082, 
  "accused": 6083, 
  "Sie": 6084, 
  "rel@@": 6085, 
  "countless": 6086, 
  "aus": 6087, 
  "cl@@": 6088, 
  "haven": 6089, 
  "plate": 6090, 
  "linguistic": 6091, 
  "Ru@@": 6092, 
  "©": 6093, 
  "invested": 6094, 
  "Question": 6095, 
  "competitors": 6096, 
  "tangible": 6097, 
  "Anonymous": 6098, 
  "della": 6099, 
  "SAP": 6100, 
  "partially": 6101, 
  "employee": 6102, 
  "obtaining": 6103, 
  "flash": 6104, 
  "fre@@": 6105, 
  "trademarks": 6106, 
  "ass": 6107, 
  "partition": 6108, 
  "Book": 6109, 
  "arrested": 6110, 
  "venture": 6111, 
  "circuit": 6112, 
  "arriving": 6113, 
  "demonstration": 6114, 
  "installing": 6115, 
  "dogs": 6116, 
  "Program": 6117, 
  "EMU": 6118, 
  "ered": 6119, 
  "brother": 6120, 
  "ok@@": 6121, 
  "independently": 6122, 
  "vicinity": 6123, 
  "Mat@@": 6124, 
  "earned": 6125, 
  "Danube": 6126, 
  "fication": 6127, 
  "witness": 6128, 
  "alive": 6129, 
  "motivated": 6130, 
  "inequality": 6131, 
  "Wall": 6132, 
  "demanded": 6133, 
  "differently": 6134, 
  "contributes": 6135, 
  "7.@@": 6136, 
  "bag": 6137, 
  "ering": 6138, 
  "SA": 6139, 
  "mat@@": 6140, 
  "Tunisia": 6141, 
  "Golden": 6142, 
  "strive": 6143, 
  "notification": 6144, 
  "rescue": 6145, 
  "clearer": 6146, 
  "ambitions": 6147, 
  "tight": 6148, 
  "laboratory": 6149, 
  "railways": 6150, 
  "warranty": 6151, 
  "carrier": 6152, 
  "News": 6153, 
  "Hostel": 6154, 
  "moderate": 6155, 
  "officers": 6156, 
  "char@@": 6157, 
  "EM@@": 6158, 
  "What": 6159, 
  "auch": 6160, 
  "To@@": 6161, 
  "Web@@": 6162, 
  "č@@": 6163, 
  "Stuttgart": 6164, 
  "authorisation": 6165, 
  "ky": 6166, 
  "distinguished": 6167, 
  "preventive": 6168, 
  "sofa": 6169, 
  "ory": 6170, 
  "kill": 6171, 
  "controller": 6172, 
  "fits": 6173, 
  "ware": 6174, 
  "SE@@": 6175, 
  "formula": 6176, 
  "sightseeing": 6177, 
  "Playa": 6178, 
  "lens": 6179, 
  "thirty": 6180, 
  "liquid": 6181, 
  "profiles": 6182, 
  "IM@@": 6183, 
  "MP3": 6184, 
  "authorised": 6185, 
  "colonial": 6186, 
  "configure": 6187, 
  "activated": 6188, 
  "minimal": 6189, 
  "holders": 6190, 
  "EL@@": 6191, 
  "reg@@": 6192, 
  "bears": 6193, 
  "Millennium": 6194, 
  "pact": 6195, 
  "investigations": 6196, 
  "и": 6197, 
  "sion": 6198, 
  "tically": 6199, 
  "modest": 6200, 
  "waves": 6201, 
  "Budget": 6202, 
  "lifestyle": 6203, 
  "eligible": 6204, 
  "mas@@": 6205, 
  "zing": 6206, 
  "venue": 6207, 
  "win@@": 6208, 
  "17th": 6209, 
  "abilities": 6210, 
  "ns": 6211, 
  "sch@@": 6212, 
  "household": 6213, 
  "counter@@": 6214, 
  "explicit": 6215, 
  "CE": 6216, 
  "CHF": 6217, 
  "A.": 6218, 
  "Val": 6219, 
  "capability": 6220, 
  "translate": 6221, 
  "cope": 6222, 
  "oder": 6223, 
  "permits": 6224, 
  "angle": 6225, 
  "encounter": 6226, 
  "cher": 6227, 
  "WC": 6228, 
  "climbing": 6229, 
  "cal": 6230, 
  "Me@@": 6231, 
  "currencies": 6232, 
  "assessments": 6233, 
  "ff@@": 6234, 
  "dangers": 6235, 
  "UNESCO": 6236, 
  "designers": 6237, 
  "deemed": 6238, 
  "excellence": 6239, 
  "nicht": 6240, 
  "Support": 6241, 
  "exploit": 6242, 
  "appreciation": 6243, 
  "accountability": 6244, 
  "ola": 6245, 
  "Captain": 6246, 
  "tens": 6247, 
  "reproduction": 6248, 
  "commission": 6249, 
  "recover": 6250, 
  "dominant": 6251, 
  "gear": 6252, 
  "ambience": 6253, 
  "Region": 6254, 
  "noticed": 6255, 
  "deny": 6256, 
  "inf@@": 6257, 
  "roles": 6258, 
  "missed": 6259, 
  "pu@@": 6260, 
  "guard": 6261, 
  "star@@": 6262, 
  "isolation": 6263, 
  "washing": 6264, 
  "opponents": 6265, 
  "viewing": 6266, 
  "capacities": 6267, 
  "stakeholders": 6268, 
  "transmitted": 6269, 
  "databases": 6270, 
  "CS": 6271, 
  "cooling": 6272, 
  "stroll": 6273, 
  "mailing": 6274, 
  "scenario": 6275, 
  "hide": 6276, 
  "inspiration": 6277, 
  "dear": 6278, 
  "complimentary": 6279, 
  "cia": 6280, 
  "posed": 6281, 
  "struck": 6282, 
  "grade": 6283, 
  "Show": 6284, 
  "gathered": 6285, 
  "younger": 6286, 
  "observations": 6287, 
  "fying": 6288, 
  "safely": 6289, 
  "supervisory": 6290, 
  "width": 6291, 
  "inevitably": 6292, 
  "boundaries": 6293, 
  "charter": 6294, 
  "trademark": 6295, 
  "socio": 6296, 
  "ocean": 6297, 
  "Hu@@": 6298, 
  "cat@@": 6299, 
  "mounted": 6300, 
  "extends": 6301, 
  "Mag@@": 6302, 
  "awards": 6303, 
  "4th": 6304, 
  "finishing": 6305, 
  "MO@@": 6306, 
  "promotes": 6307, 
  "seekers": 6308, 
  "elle": 6309, 
  "atory": 6310, 
  "Vista": 6311, 
  "radi@@": 6312, 
  "ow@@": 6313, 
  "score": 6314, 
  "engagement": 6315, 
  "15th": 6316, 
  "surplus": 6317, 
  "cinema": 6318, 
  "stones": 6319, 
  "neutral": 6320, 
  "globally": 6321, 
  "forums": 6322, 
  "Moldova": 6323, 
  "DC": 6324, 
  "beat": 6325, 
  "aging": 6326, 
  "Rio": 6327, 
  "coherence": 6328, 
  "pose": 6329, 
  "killing": 6330, 
  "elite": 6331, 
  "Arts": 6332, 
  "utility": 6333, 
  "int@@": 6334, 
  "acquis": 6335, 
  "TR@@": 6336, 
  "loaded": 6337, 
  "damaging": 6338, 
  "coalition": 6339, 
  "constraints": 6340, 
  "kilometers": 6341, 
  "indigenous": 6342, 
  "admission": 6343, 
  "CEO": 6344, 
  "Pri@@": 6345, 
  "stimulate": 6346, 
  "tiny": 6347, 
  "abolition": 6348, 
  "weapon": 6349, 
  "divide": 6350, 
  "br@@": 6351, 
  "ts@@": 6352, 
  "avoiding": 6353, 
  "delivering": 6354, 
  "11.@@": 6355, 
  "ama": 6356, 
  "59": 6357, 
  "rank": 6358, 
  "consulted": 6359, 
  "shoes": 6360, 
  "str@@": 6361, 
  "Do@@": 6362, 
  "stringent": 6363, 
  "reconciliation": 6364, 
  "scenes": 6365, 
  "vineyards": 6366, 
  "musicians": 6367, 
  "bags": 6368, 
  "ern@@": 6369, 
  "unanimous": 6370, 
  "dreams": 6371, 
  "fundamentally": 6372, 
  "behold": 6373, 
  "comforts": 6374, 
  "selecting": 6375, 
  "58": 6376, 
  "grave": 6377, 
  "featured": 6378, 
  "delayed": 6379, 
  "ante": 6380, 
  "interpreted": 6381, 
  "57": 6382, 
  "Gra@@": 6383, 
  "Au@@": 6384, 
  "sincerely": 6385, 
  "secured": 6386, 
  "TH@@": 6387, 
  "pride": 6388, 
  "inevitable": 6389, 
  "900": 6390, 
  "Casa": 6391, 
  "writer": 6392, 
  "feelings": 6393, 
  "ban@@": 6394, 
  "collections": 6395, 
  "argued": 6396, 
  "Client": 6397, 
  "tube": 6398, 
  "powered": 6399, 
  "clarification": 6400, 
  "Tower": 6401, 
  "": 6402, 
  "sad": 6403, 
  "calculation": 6404, 
  "albeit": 6405, 
  "plugin": 6406, 
  "tournament": 6407, 
  "alise": 6408, 
  "racing": 6409, 
  "Er@@": 6410, 
  "promising": 6411, 
  "separation": 6412, 
  "panels": 6413, 
  "Sol": 6414, 
  "dictatorship": 6415, 
  "Live": 6416, 
  "electronics": 6417, 
  "Kirk": 6418, 
  "dans": 6419, 
  "reaches": 6420, 
  "che@@": 6421, 
  "Jews": 6422, 
  "Caribbean": 6423, 
  "woods": 6424, 
  "genetically": 6425, 
  "Our": 6426, 
  "wire": 6427, 
  "traditionally": 6428, 
  "pres@@": 6429, 
  "conviction": 6430, 
  "terror": 6431, 
  "speaks": 6432, 
  "justification": 6433, 
  "endless": 6434, 
  "val@@": 6435, 
  "hectares": 6436, 
  "Bur@@": 6437, 
  "hosting": 6438, 
  "suspension": 6439, 
  "bio@@": 6440, 
  "Ne@@": 6441, 
  "Hans": 6442, 
  "amp@@": 6443, 
  "beautifully": 6444, 
  "ा@@": 6445, 
  "gaming": 6446, 
  "technically": 6447, 
  "seminar": 6448, 
  "wedding": 6449, 
  "palace": 6450, 
  "Joseph": 6451, 
  "Muslims": 6452, 
  "Professor": 6453, 
  "Alexander": 6454, 
  "qualities": 6455, 
  "blocked": 6456, 
  "deeper": 6457, 
  "fruits": 6458, 
  "urs": 6459, 
  "Nero": 6460, 
  "compatibility": 6461, 
  "sch": 6462, 
  "50@@": 6463, 
  "rarely": 6464, 
  "refurbished": 6465, 
  "dos": 6466, 
  "menus": 6467, 
  "HIV": 6468, 
  "Adriatic": 6469, 
  "capitalism": 6470, 
  "hu@@": 6471, 
  "lawyers": 6472, 
  "indispensable": 6473, 
  "complement": 6474, 
  "joy": 6475, 
  "bid": 6476, 
  "resistant": 6477, 
  "ruled": 6478, 
  "ving": 6479, 
  "realised": 6480, 
  "dri@@": 6481, 
  "gro@@": 6482, 
  "Si@@": 6483, 
  "designated": 6484, 
  "talent": 6485, 
  "Christ": 6486, 
  "eco": 6487, 
  "sadly": 6488, 
  "dies": 6489, 
  "elegance": 6490, 
  "reinforced": 6491, 
  "consist": 6492, 
  "ere": 6493, 
  "cargo": 6494, 
  "alists": 6495, 
  "ises": 6496, 
  "seaside": 6497, 
  "Library": 6498, 
  "graphical": 6499, 
  "filters": 6500, 
  "grass": 6501, 
  "Ms": 6502, 
  "ens@@": 6503, 
  "marriage": 6504, 
  "somewhere": 6505, 
  "ub@@": 6506, 
  "simplified": 6507, 
  "stra@@": 6508, 
  "ó": 6509, 
  "subscription": 6510, 
  "socially": 6511, 
  "villas": 6512, 
  "hat": 6513, 
  "Peace": 6514, 
  "eu@@": 6515, 
  "hunger": 6516, 
  "existed": 6517, 
  "BC": 6518, 
  "advances": 6519, 
  "attempted": 6520, 
  "symbolic": 6521, 
  "Cap@@": 6522, 
  "bel@@": 6523, 
  "Chief": 6524, 
  "limitations": 6525, 
  "packed": 6526, 
  "Heritage": 6527, 
  "Fi@@": 6528, 
  "PRO@@": 6529, 
  "instability": 6530, 
  "q@@": 6531, 
  "burg": 6532, 
  "interfaces": 6533, 
  "Warcraft": 6534, 
  "entities": 6535, 
  "libraries": 6536, 
  "dust": 6537, 
  "await": 6538, 
  "invites": 6539, 
  "hazardous": 6540, 
  "Estonia": 6541, 
  "Guests": 6542, 
  "att@@": 6543, 
  "Plus": 6544, 
  "cam@@": 6545, 
  "don@@": 6546, 
  "trail": 6547, 
  "counts": 6548, 
  "Tur@@": 6549, 
  "Jerusalem": 6550, 
  "hom@@": 6551, 
  "EX@@": 6552, 
  "Out": 6553, 
  "legendary": 6554, 
  "irrespective": 6555, 
  "overnight": 6556, 
  "donors": 6557, 
  "audit": 6558, 
  "sam@@": 6559, 
  "Holy": 6560, 
  "activate": 6561, 
  "retirement": 6562, 
  "Supervisory": 6563, 
  "fabric": 6564, 
  "tar@@": 6565, 
  "impetus": 6566, 
  "teach": 6567, 
  "ap": 6568, 
  "aluminium": 6569, 
  "acc@@": 6570, 
  "Piazza": 6571, 
  "Suites": 6572, 
  "shock": 6573, 
  "highway": 6574, 
  "plates": 6575, 
  "outlined": 6576, 
  "luggage": 6577, 
  "tremendous": 6578, 
  "9.@@": 6579, 
  "advocate": 6580, 
  "pull": 6581, 
  "openly": 6582, 
  "horses": 6583, 
  "reviewed": 6584, 
  "Gal@@": 6585, 
  "Singapore": 6586, 
  "spell": 6587, 
  "Jesus": 6588, 
  "ideological": 6589, 
  "incident": 6590, 
  "rolling": 6591, 
  "vessel": 6592, 
  "Christians": 6593, 
  "printer": 6594, 
  ".org": 6595, 
  "refugee": 6596, 
  "mineral": 6597, 
  "66": 6598, 
  "71": 6599, 
  "PSE": 6600, 
  "ising": 6601, 
  "intergovernmental": 6602, 
  "insert": 6603, 
  "delivers": 6604, 
  "detection": 6605, 
  "District": 6606, 
  "authorized": 6607, 
  "workforce": 6608, 
  "customized": 6609, 
  "tonight": 6610, 
  "supplement": 6611, 
  "Gallery": 6612, 
  "gases": 6613, 
  "fare": 6614, 
  "LE": 6615, 
  "dependence": 6616, 
  "belt": 6617, 
  "luck": 6618, 
  "locally": 6619, 
  "maintains": 6620, 
  "vacuum": 6621, 
  "distant": 6622, 
  "abuses": 6623, 
  "Korean": 6624, 
  "Bridge": 6625, 
  "carries": 6626, 
  "contest": 6627, 
  "Jo@@": 6628, 
  "sensitivity": 6629, 
  "entrepreneurs": 6630, 
  "tab": 6631, 
  "linking": 6632, 
  "ME@@": 6633, 
  "systematically": 6634, 
  "92": 6635, 
  "profitable": 6636, 
  "tensions": 6637, 
  "met@@": 6638, 
  "aj@@": 6639, 
  "cer@@": 6640, 
  "ly@@": 6641, 
  "Ku@@": 6642, 
  "exceptionally": 6643, 
  "adjustments": 6644, 
  "laying": 6645, 
  "prevents": 6646, 
  "tries": 6647, 
  "93": 6648, 
  "integrating": 6649, 
  "holder": 6650, 
  "pine": 6651, 
  "formerly": 6652, 
  "annually": 6653, 
  "Richard": 6654, 
  "Ocean": 6655, 
  "tram": 6656, 
  "Saddam": 6657, 
  "upload": 6658, 
  "breeding": 6659, 
  "62": 6660, 
  "Process": 6661, 
  "judges": 6662, 
  "worker": 6663, 
  "63": 6664, 
  "reveal": 6665, 
  "ranges": 6666, 
  "How": 6667, 
  "sw@@": 6668, 
  "shooting": 6669, 
  "cap@@": 6670, 
  "gradual": 6671, 
  "arm": 6672, 
  "Louis": 6673, 
  "universe": 6674, 
  "chances": 6675, 
  "resumed": 6676, 
  "nu@@": 6677, 
  "criminals": 6678, 
  "04@@": 6679, 
  "giant": 6680, 
  "sec@@": 6681, 
  "booth": 6682, 
  "infrastructures": 6683, 
  "protests": 6684, 
  "incorrect": 6685, 
  "excuse": 6686, 
  "clinical": 6687, 
  "threatening": 6688, 
  "wishing": 6689, 
  "mixture": 6690, 
  "symbols": 6691, 
  "supporters": 6692, 
  "ok": 6693, 
  "decoration": 6694, 
  "interference": 6695, 
  "Fax": 6696, 
  "skill": 6697, 
  "ene": 6698, 
  "disagree": 6699, 
  "bands": 6700, 
  "rid": 6701, 
  "Ser@@": 6702, 
  "decrease": 6703, 
  "offset": 6704, 
  "Ho@@": 6705, 
  "silent": 6706, 
  "auto": 6707, 
  "insight": 6708, 
  "vi": 6709, 
  "Euro@@": 6710, 
  "defeat": 6711, 
  "healing": 6712, 
  "entity": 6713, 
  "Saudi": 6714, 
  "layers": 6715, 
  "Doha": 6716, 
  "attempting": 6717, 
  "Dresden": 6718, 
  "resolving": 6719, 
  "1990s": 6720, 
  "Coast": 6721, 
  "app@@": 6722, 
  "query": 6723, 
  "bicycle": 6724, 
  "subjected": 6725, 
  "ty@@": 6726, 
  "Bad": 6727, 
  "aux": 6728, 
  "tional": 6729, 
  "Fair": 6730, 
  "matches": 6731, 
  "attach": 6732, 
  "bor@@": 6733, 
  "AP@@": 6734, 
  "aggressive": 6735, 
  "elling": 6736, 
  "securing": 6737, 
  "GPS": 6738, 
  "CA@@": 6739, 
  "proliferation": 6740, 
  "attraction": 6741, 
  "Bor@@": 6742, 
  "Place": 6743, 
  "quarters": 6744, 
  "guitar": 6745, 
  "ik@@": 6746, 
  "newest": 6747, 
  "towels": 6748, 
  "Sk@@": 6749, 
  "DI@@": 6750, 
  "6.@@": 6751, 
  "Finance": 6752, 
  "herself": 6753, 
  "Mark": 6754, 
  "Rental": 6755, 
  "admire": 6756, 
  "Gi@@": 6757, 
  "reasonably": 6758, 
  "Sol@@": 6759, 
  "2,@@": 6760, 
  "abstained": 6761, 
  "Chechnya": 6762, 
  "Max": 6763, 
  "incomes": 6764, 
  "pointing": 6765, 
  "democracies": 6766, 
  "pa@@": 6767, 
  "gather": 6768, 
  ".The": 6769, 
  "imperative": 6770, 
  "stating": 6771, 
  "oni": 6772, 
  "с@@": 6773, 
  "ast": 6774, 
  "ron": 6775, 
  "ess@@": 6776, 
  "Riviera": 6777, 
  "distributors": 6778, 
  "samples": 6779, 
  "adverse": 6780, 
  "harmonised": 6781, 
  "tracking": 6782, 
  "terraces": 6783, 
  "Nikon": 6784, 
  "arises": 6785, 
  "Helsinki": 6786, 
  "log@@": 6787, 
  "repression": 6788, 
  "pan": 6789, 
  "ently": 6790, 
  "determining": 6791, 
  "23@@": 6792, 
  "criterion": 6793, 
  "tic@@": 6794, 
  "Army": 6795, 
  "Allah": 6796, 
  "ía": 6797, 
  "rigorous": 6798, 
  "carriers": 6799, 
  "examining": 6800, 
  "gri@@": 6801, 
  "Basel": 6802, 
  "holes": 6803, 
  "Samsung": 6804, 
  "Spring": 6805, 
  "episode": 6806, 
  "Romanian": 6807, 
  "med": 6808, 
  "civilians": 6809, 
  "RA@@": 6810, 
  "cotton": 6811, 
  "sincere": 6812, 
  "More": 6813, 
  "Sun": 6814, 
  "Ti@@": 6815, 
  "instant": 6816, 
  "solo": 6817, 
  "fat": 6818, 
  "carte": 6819, 
  "coins": 6820, 
  "of@@": 6821, 
  "vel@@": 6822, 
  "adequately": 6823, 
  "Partner": 6824, 
  "voices": 6825, 
  "enhancing": 6826, 
  "origins": 6827, 
  "protective": 6828, 
  "neo": 6829, 
  "enjoyable": 6830, 
  "communist": 6831, 
  "exclude": 6832, 
  "advised": 6833, 
  "hearts": 6834, 
  "licensed": 6835, 
  "ham": 6836, 
  "revolutionary": 6837, 
  "conscious": 6838, 
  "Ter@@": 6839, 
  "82": 6840, 
  "bach": 6841, 
  "30@@": 6842, 
  "KDE": 6843, 
  "deck": 6844, 
  "Edinburgh": 6845, 
  "autonomous": 6846, 
  "accommodations": 6847, 
  "visas": 6848, 
  "ł@@": 6849, 
  "tons": 6850, 
  "discretion": 6851, 
  "Line": 6852, 
  "chamber": 6853, 
  "Chi@@": 6854, 
  "procedural": 6855, 
  "Explorer": 6856, 
  "Nigeria": 6857, 
  "XML": 6858, 
  "Statute": 6859, 
  "globe": 6860, 
  "margin": 6861, 
  "8.@@": 6862, 
  "Bre@@": 6863, 
  "indirectly": 6864, 
  "equ@@": 6865, 
  "corporations": 6866, 
  "ageing": 6867, 
  "restrictive": 6868, 
  "78": 6869, 
  "tical": 6870, 
  "sha@@": 6871, 
  "tru@@": 6872, 
  "literally": 6873, 
  "reactions": 6874, 
  "Training": 6875, 
  "perception": 6876, 
  "ning": 6877, 
  "asks": 6878, 
  "verify": 6879, 
  "67": 6880, 
  "comfortably": 6881, 
  "Pack": 6882, 
  "theoretical": 6883, 
  "surgery": 6884, 
  "formally": 6885, 
  "San@@": 6886, 
  "ferry": 6887, 
  "Pan@@": 6888, 
  "reader": 6889, 
  "Chile": 6890, 
  "convincing": 6891, 
  "hunting": 6892, 
  "compromises": 6893, 
  "foster": 6894, 
  "strikes": 6895, 
  "Radio": 6896, 
  "sive": 6897, 
  "pillars": 6898, 
  "breaks": 6899, 
  "yield": 6900, 
  "Rhine": 6901, 
  "ž@@": 6902, 
  "certificates": 6903, 
  "mi": 6904, 
  "LO@@": 6905, 
  "ath@@": 6906, 
  "head@@": 6907, 
  "View": 6908, 
  "distinct": 6909, 
  "divisions": 6910, 
  "complaint": 6911, 
  "personality": 6912, 
  "scrutiny": 6913, 
  "Industrial": 6914, 
  "61": 6915, 
  "AG@@": 6916, 
  "analyse": 6917, 
  "unanimity": 6918, 
  "envisaged": 6919, 
  "validity": 6920, 
  "interventions": 6921, 
  "LCD": 6922, 
  "austerity": 6923, 
  "clo@@": 6924, 
  "alpine": 6925, 
  "consolidated": 6926, 
  "opera": 6927, 
  "68": 6928, 
  "£": 6929, 
  "Cold": 6930, 
  "Press": 6931, 
  "Kal@@": 6932, 
  "van@@": 6933, 
  "ceremony": 6934, 
  "congratulating": 6935, 
  "sums": 6936, 
  "workplace": 6937, 
  "ech@@": 6938, 
  "disastrous": 6939, 
  "sich": 6940, 
  "immense": 6941, 
  "kit": 6942, 
  "quest": 6943, 
  "safeguarding": 6944, 
  "Pen@@": 6945, 
  "buyer": 6946, 
  "painted": 6947, 
  "dei": 6948, 
  "dan@@": 6949, 
  "mem@@": 6950, 
  "IGC": 6951, 
  "History": 6952, 
  "monopoly": 6953, 
  "ups": 6954, 
  "Corporation": 6955, 
  "emotional": 6956, 
  "nearest": 6957, 
  "invoice": 6958, 
  "innocent": 6959, 
  "credits": 6960, 
  "distribute": 6961, 
  "accompanying": 6962, 
  "cri@@": 6963, 
  "License": 6964, 
  "burning": 6965, 
  "yn@@": 6966, 
  "ris@@": 6967, 
  "preservation": 6968, 
  "hairdryer": 6969, 
  "concludes": 6970, 
  "tis": 6971, 
  "vertical": 6972, 
  "CA": 6973, 
  "Mc@@": 6974, 
  "consultations": 6975, 
  "tel@@": 6976, 
  "hof": 6977, 
  "son@@": 6978, 
  "fi": 6979, 
  "bird": 6980, 
  "Mallorca": 6981, 
  "refusal": 6982, 
  "Residence": 6983, 
  "rear": 6984, 
  "statute": 6985, 
  "Petitions": 6986, 
  "aiming": 6987, 
  "ample": 6988, 
  "couples": 6989, 
  "keyboard": 6990, 
  "Country": 6991, 
  "stimulus": 6992, 
  "abandon": 6993, 
  "admitted": 6994, 
  "ray": 6995, 
  "bul@@": 6996, 
  "patch": 6997, 
  "Don@@": 6998, 
  "dramatically": 6999, 
  "deciding": 7000, 
  "IP@@": 7001, 
  "SO@@": 7002, 
  "rational": 7003, 
  "ala": 7004, 
  "Nokia": 7005, 
  "unified": 7006, 
  "limiting": 7007, 
  "overwhelming": 7008, 
  "preference": 7009, 
  "pedestrian": 7010, 
  "Guide": 7011, 
  "meter": 7012, 
  "pricing": 7013, 
  "dar@@": 7014, 
  "ization": 7015, 
  "readers": 7016, 
  "HU": 7017, 
  "Inc": 7018, 
  "Administration": 7019, 
  "assessed": 7020, 
  "perceived": 7021, 
  "deployment": 7022, 
  "maker": 7023, 
  "sympathy": 7024, 
  "furnishings": 7025, 
  "gaining": 7026, 
  "lia": 7027, 
  "Mountains": 7028, 
  "1970": 7029, 
  "macro": 7030, 
  "Chancellor": 7031, 
  "prompt": 7032, 
  "processor": 7033, 
  "transported": 7034, 
  "Village": 7035, 
  "off@@": 7036, 
  "Ben@@": 7037, 
  "safer": 7038, 
  "completing": 7039, 
  "worried": 7040, 
  "Latvia": 7041, 
  "altitude": 7042, 
  "generating": 7043, 
  "Firefox": 7044, 
  "pushed": 7045, 
  "exquisite": 7046, 
  "paint": 7047, 
  "hydro@@": 7048, 
  "SQL": 7049, 
  "ación": 7050, 
  "wanting": 7051, 
  "Mi@@": 7052, 
  "Siemens": 7053, 
  "CDs": 7054, 
  "aire": 7055, 
  "execute": 7056, 
  "static": 7057, 
  "ga@@": 7058, 
  "alter": 7059, 
  "bit@@": 7060, 
  "loan": 7061, 
  "wisdom": 7062, 
  "lic@@": 7063, 
  "galleries": 7064, 
  "classification": 7065, 
  "Fin@@": 7066, 
  "ora": 7067, 
  "absurd": 7068, 
  "studying": 7069, 
  "inviting": 7070, 
  "350": 7071, 
  "exploited": 7072, 
  "form@@": 7073, 
  "gre@@": 7074, 
  "Sierra": 7075, 
  "energies": 7076, 
  "res": 7077, 
  "oo@@": 7078, 
  "adjacent": 7079, 
  "broadly": 7080, 
  "thy": 7081, 
  "serial": 7082, 
  "memories": 7083, 
  "paragraphs": 7084, 
  "ables": 7085, 
  "Privacy": 7086, 
  "coach": 7087, 
  "gan@@": 7088, 
  "thinks": 7089, 
  "stor@@": 7090, 
  "Leipzig": 7091, 
  "classified": 7092, 
  "headed": 7093, 
  "Ukrainian": 7094, 
  "í": 7095, 
  "profession": 7096, 
  "configured": 7097, 
  "demonstrations": 7098, 
  "Bulgarian": 7099, 
  "def@@": 7100, 
  "vibrant": 7101, 
  "sun@@": 7102, 
  "endorsed": 7103, 
  "endeavour": 7104, 
  "critique": 7105, 
  "fac@@": 7106, 
  "AB@@": 7107, 
  "lifting": 7108, 
  "zo@@": 7109, 
  "ron@@": 7110, 
  "variables": 7111, 
  "Personal": 7112, 
  "praise": 7113, 
  "zer": 7114, 
  "complementary": 7115, 
  "avec": 7116, 
  "dr@@": 7117, 
  "My@@": 7118, 
  "Nobel": 7119, 
  "costly": 7120, 
  "र@@": 7121, 
  "Catholic": 7122, 
  "ean": 7123, 
  "broadcast": 7124, 
  "tariff": 7125, 
  "wished": 7126, 
  "ordering": 7127, 
  "surfaces": 7128, 
  "intimate": 7129, 
  "VIP": 7130, 
  "Annual": 7131, 
  "ping": 7132, 
  "pan@@": 7133, 
  "deadlines": 7134, 
  "lays": 7135, 
  "Water": 7136, 
  "25@@": 7137, 
  "buttons": 7138, 
  "cease": 7139, 
  "fastest": 7140, 
  "downloads": 7141, 
  "estimate": 7142, 
  "improves": 7143, 
  "rated": 7144, 
  "smoke": 7145, 
  "portion": 7146, 
  "cattle": 7147, 
  "ery": 7148, 
  "indications": 7149, 
  "Mac@@": 7150, 
  "developer": 7151, 
  "pe": 7152, 
  "confirms": 7153, 
  "identifying": 7154, 
  "unilateral": 7155, 
  "cathedral": 7156, 
  "council": 7157, 
  "mo": 7158, 
  "bin": 7159, 
  "popularity": 7160, 
  "proves": 7161, 
  "cra@@": 7162, 
  "Galileo": 7163, 
  "lifts": 7164, 
  "RSS": 7165, 
  "cache": 7166, 
  "marking": 7167, 
  "detention": 7168, 
  "smallest": 7169, 
  "punishment": 7170, 
  "visibility": 7171, 
  "inland": 7172, 
  "responding": 7173, 
  "modernisation": 7174, 
  "ved": 7175, 
  "Citizens": 7176, 
  "OS@@": 7177, 
  "trials": 7178, 
  "76": 7179, 
  "thereof": 7180, 
  "immunity": 7181, 
  "auto@@": 7182, 
  "bathing": 7183, 
  "landing": 7184, 
  "Congo": 7185, 
  "ss@@": 7186, 
  "modification": 7187, 
  "boy": 7188, 
  "delegations": 7189, 
  "psychological": 7190, 
  "Criminal": 7191, 
  "Starfleet": 7192, 
  "lat@@": 7193, 
  "baths": 7194, 
  "2015": 7195, 
  "Gay": 7196, 
  "commands": 7197, 
  "Valencia": 7198, 
  "edi@@": 7199, 
  "modifications": 7200, 
  "sends": 7201, 
  "legacy": 7202, 
  "dated": 7203, 
  "baggage": 7204, 
  "barrier": 7205, 
  "aff@@": 7206, 
  "nightlife": 7207, 
  "obstacle": 7208, 
  "introduces": 7209, 
  "book@@": 7210, 
  "ela": 7211, 
  "protects": 7212, 
  "1980s": 7213, 
  "medicinal": 7214, 
  "War@@": 7215, 
  "Montenegro": 7216, 
  "Wikitravel": 7217, 
  "meaningful": 7218, 
  "loud": 7219, 
  "container": 7220, 
  "Blair": 7221, 
  "painful": 7222, 
  "10.@@": 7223, 
  "emphasize": 7224, 
  "Ra@@": 7225, 
  "snacks": 7226, 
  "guilty": 7227, 
  "TS": 7228, 
  "å@@": 7229, 
  "witnessed": 7230, 
  "Disabled": 7231, 
  "dic@@": 7232, 
  "spam": 7233, 
  "William": 7234, 
  "sequence": 7235, 
  "panorama": 7236, 
  "prerequisite": 7237, 
  "ink": 7238, 
  "1988": 7239, 
  "definitions": 7240, 
  "pushing": 7241, 
  "tion@@": 7242, 
  "diet": 7243, 
  "mount": 7244, 
  "limitation": 7245, 
  "zi": 7246, 
  "Mail": 7247, 
  "dairy": 7248, 
  "tal": 7249, 
  "fic@@": 7250, 
  "Language": 7251, 
  "distinguish": 7252, 
  "advisory": 7253, 
  "dra@@": 7254, 
  "accessed": 7255, 
  "cou@@": 7256, 
  "distinctive": 7257, 
  "lending": 7258, 
  "remedy": 7259, 
  "chip": 7260, 
  "ruins": 7261, 
  "exotic": 7262, 
  "passport": 7263, 
  "FOR": 7264, 
  "illness": 7265, 
  "textiles": 7266, 
  "audiovisual": 7267, 
  "gambling": 7268, 
  "aboard": 7269, 
  "settle": 7270, 
  "Newspapers": 7271, 
  "aria": 7272, 
  "spreading": 7273, 
  "economical": 7274, 
  "brilliant": 7275, 
  "Pre@@": 7276, 
  "OECD": 7277, 
  "iPod": 7278, 
  "rows": 7279, 
  "noble": 7280, 
  "ced": 7281, 
  "stein": 7282, 
  "cream": 7283, 
  "mild": 7284, 
  "q": 7285, 
  "eries": 7286, 
  "vo": 7287, 
  "intent": 7288, 
  "tendency": 7289, 
  "economists": 7290, 
  "esta": 7291, 
  "pipeline": 7292, 
  "diplomacy": 7293, 
  "broadcasting": 7294, 
  "Palma": 7295, 
  "listing": 7296, 
  "Por@@": 7297, 
  "dryer": 7298, 
  "Tu@@": 7299, 
  "shorter": 7300, 
  "festivals": 7301, 
  "NOT": 7302, 
  "24@@": 7303, 
  "conservative": 7304, 
  "problematic": 7305, 
  "donor": 7306, 
  "§": 7307, 
  "fusion": 7308, 
  "ideology": 7309, 
  "optimized": 7310, 
  "cabin": 7311, 
  "eri@@": 7312, 
  "blocking": 7313, 
  "81": 7314, 
  "topical": 7315, 
  "continuity": 7316, 
  ".net": 7317, 
  "Communication": 7318, 
  "Bra@@": 7319, 
  "sorts": 7320, 
  "wasn": 7321, 
  "clauses": 7322, 
  "AN": 7323, 
  "Warsaw": 7324, 
  "Technical": 7325, 
  "pp@@": 7326, 
  "mood": 7327, 
  "scripts": 7328, 
  "ming": 7329, 
  "dioxide": 7330, 
  "inger": 7331, 
  "Order": 7332, 
  "correction": 7333, 
  "в@@": 7334, 
  "werden": 7335, 
  "Content": 7336, 
  "renewal": 7337, 
  "LA@@": 7338, 
  "tors": 7339, 
  "grey": 7340, 
  "consolidate": 7341, 
  "organ": 7342, 
  "assessing": 7343, 
  "evaluated": 7344, 
  "forestry": 7345, 
  "Michel": 7346, 
  "Theatre": 7347, 
  "Thai": 7348, 
  "earthquake": 7349, 
  "thick": 7350, 
  "disabilities": 7351, 
  "tailor": 7352, 
  "disappear": 7353, 
  "oasis": 7354, 
  "Mountain": 7355, 
  "routine": 7356, 
  "worlds": 7357, 
  "defines": 7358, 
  "tied": 7359, 
  "eness": 7360, 
  "households": 7361, 
  "altogether": 7362, 
  "invasion": 7363, 
  "bugs": 7364, 
  "ished": 7365, 
  "conducting": 7366, 
  "Engineering": 7367, 
  "temporarily": 7368, 
  "tasty": 7369, 
  "fossil": 7370, 
  "Algeria": 7371, 
  "fragile": 7372, 
  "outs": 7373, 
  "grid": 7374, 
  "OLAF": 7375, 
  "volumes": 7376, 
  "Germans": 7377, 
  "fulfilling": 7378, 
  "lic": 7379, 
  "Lin@@": 7380, 
  "incidents": 7381, 
  "draws": 7382, 
  "preserving": 7383, 
  "ven": 7384, 
  "jazz": 7385, 
  "HP": 7386, 
  "multinational": 7387, 
  "bookings": 7388, 
  "wa@@": 7389, 
  "enforce": 7390, 
  "feasible": 7391, 
  "plot": 7392, 
  "Sha@@": 7393, 
  "EP": 7394, 
  "ska": 7395, 
  "detect": 7396, 
  "organising": 7397, 
  "diesel": 7398, 
  "compiled": 7399, 
  "marble": 7400, 
  "architect": 7401, 
  "cooperative": 7402, 
  "suits": 7403, 
  "safeguards": 7404, 
  "Search": 7405, 
  "gl@@": 7406, 
  "77": 7407, 
  "Star@@": 7408, 
  "88": 7409, 
  "13th": 7410, 
  "Corporate": 7411, 
  "timing": 7412, 
  "fy": 7413, 
  "coastline": 7414, 
  "ades": 7415, 
  "7th": 7416, 
  "retained": 7417, 
  "encourages": 7418, 
  "courtyard": 7419, 
  "singer": 7420, 
  "confidentiality": 7421, 
  "titles": 7422, 
  "sleeping": 7423, 
  "alternatively": 7424, 
  "180": 7425, 
  "Third": 7426, 
  "Men@@": 7427, 
  "bottle": 7428, 
  "AV@@": 7429, 
  "Zealand": 7430, 
  "writers": 7431, 
  "slide": 7432, 
  "Porto": 7433, 
  "Colombia": 7434, 
  "etc.": 7435, 
  "confidential": 7436, 
  "onic": 7437, 
  "Im@@": 7438, 
  "cul@@": 7439, 
  "gathering": 7440, 
  "settlements": 7441, 
  "races": 7442, 
  "person@@": 7443, 
  "86": 7444, 
  "CON@@": 7445, 
  "commodity": 7446, 
  "6th": 7447, 
  "batteries": 7448, 
  "Mas@@": 7449, 
  "quoted": 7450, 
  "Vo@@": 7451, 
  "metals": 7452, 
  "san@@": 7453, 
  "macroeconomic": 7454, 
  "stri@@": 7455, 
  "sti@@": 7456, 
  "fitting": 7457, 
  "democratically": 7458, 
  "drag": 7459, 
  "Mount": 7460, 
  "organs": 7461, 
  "attacked": 7462, 
  "Revolution": 7463, 
  "floods": 7464, 
  "imbalances": 7465, 
  "purchases": 7466, 
  "Full": 7467, 
  "SC@@": 7468, 
  "municipality": 7469, 
  "alle": 7470, 
  "ular": 7471, 
  "LT": 7472, 
  "sn@@": 7473, 
  "boom": 7474, 
  "adi@@": 7475, 
  "inch": 7476, 
  "fed": 7477, 
  "experiments": 7478, 
  "Croatian": 7479, 
  "Arena": 7480, 
  "12.@@": 7481, 
  "PR@@": 7482, 
  "è@@": 7483, 
  "Bri@@": 7484, 
  "pped": 7485, 
  "antique": 7486, 
  "aya": 7487, 
  "Haiti": 7488, 
  "hot@@": 7489, 
  "launching": 7490, 
  "URL": 7491, 
  "stainless": 7492, 
  "modular": 7493, 
  "boutique": 7494, 
  "measurements": 7495, 
  "responded": 7496, 
  "activists": 7497, 
  "birthday": 7498, 
  "fabulous": 7499, 
  "ando": 7500, 
  "Tokyo": 7501, 
  "Wellness": 7502, 
  "pat@@": 7503, 
  "earnings": 7504, 
  "Quark": 7505, 
  "recognises": 7506, 
  "varying": 7507, 
  "mines": 7508, 
  "debts": 7509, 
  "captured": 7510, 
  "conc@@": 7511, 
  "ratify": 7512, 
  "attitudes": 7513, 
  "He@@": 7514, 
  "critics": 7515, 
  "110": 7516, 
  "Marco": 7517, 
  "automobile": 7518, 
  "transform": 7519, 
  "occasionally": 7520, 
  "evenings": 7521, 
  "vis@@": 7522, 
  "harder": 7523, 
  "ries": 7524, 
  "qualification": 7525, 
  "Bon@@": 7526, 
  "voltage": 7527, 
  "At@@": 7528, 
  "employ": 7529, 
  "Times": 7530, 
  "69": 7531, 
  "Is": 7532, 
  "Game": 7533, 
  "ik": 7534, 
  "ears": 7535, 
  "understandable": 7536, 
  "Force": 7537, 
  "PM": 7538, 
  "Athens": 7539, 
  "91": 7540, 
  "inspections": 7541, 
  "liquidity": 7542, 
  "studios": 7543, 
  "diagnosis": 7544, 
  "chi": 7545, 
  "Reserve": 7546, 
  "Head": 7547, 
  "eliminating": 7548, 
  "ME": 7549, 
  "tranquil": 7550, 
  "Dolomites": 7551, 
  "toxic": 7552, 
  "10th": 7553, 
  "SK": 7554, 
  "bei": 7555, 
  "wheels": 7556, 
  "Natural": 7557, 
  "template": 7558, 
  "ide@@": 7559, 
  "Mol@@": 7560, 
  "Film": 7561, 
  "accessibility": 7562, 
  "у@@": 7563, 
  "viruses": 7564, 
  "refreshing": 7565, 
  "Nor@@": 7566, 
  "boys": 7567, 
  "sehr": 7568, 
  "Slovak": 7569, 
  "by@@": 7570, 
  "enemies": 7571, 
  "locked": 7572, 
  "collecting": 7573, 
  "bes": 7574, 
  "Canadian": 7575, 
  "dish": 7576, 
  "anticipated": 7577, 
  "Ak@@": 7578, 
  "initiate": 7579, 
  "privileges": 7580, 
  "protectionism": 7581, 
  "chart": 7582, 
  "mile": 7583, 
  "soci@@": 7584, 
  "rac@@": 7585, 
  "seed": 7586, 
  "tank": 7587, 
  "Francisco": 7588, 
  "designing": 7589, 
  "ranks": 7590, 
  "14th": 7591, 
  "ame": 7592, 
  "grain": 7593, 
  "sem@@": 7594, 
  "BR@@": 7595, 
  "hosted": 7596, 
  "statutory": 7597, 
  "craft": 7598, 
  "loads": 7599, 
  "pressures": 7600, 
  "ben@@": 7601, 
  "ain": 7602, 
  "tv": 7603, 
  "ented": 7604, 
  "random": 7605, 
  "brutal": 7606, 
  "weakness": 7607, 
  "deliveries": 7608, 
  "tender": 7609, 
  "tunnel": 7610, 
  "warrant": 7611, 
  "organisms": 7612, 
  "backup": 7613, 
  "vegetable": 7614, 
  "Canary": 7615, 
  "Nature": 7616, 
  "accompany": 7617, 
  "manually": 7618, 
  "Del@@": 7619, 
  "bone": 7620, 
  "74": 7621, 
  "the@@": 7622, 
  "lim@@": 7623, 
  "genocide": 7624, 
  "ase": 7625, 
  "folk": 7626, 
  "stretch": 7627, 
  "down@@": 7628, 
  "minibar": 7629, 
  "coating": 7630, 
  "pping": 7631, 
  "documented": 7632, 
  "M.": 7633, 
  "moon": 7634, 
  "our@@": 7635, 
  "lifelong": 7636, 
  "magazines": 7637, 
  "DS": 7638, 
  "Annex": 7639, 
  "Ashton": 7640, 
  "closest": 7641, 
  "sheep": 7642, 
  "shame": 7643, 
  "flower": 7644, 
  "inappropriate": 7645, 
  "mas": 7646, 
  "Tar@@": 7647, 
  "rap@@": 7648, 
  "flo@@": 7649, 
  "Tuscany": 7650, 
  "ville": 7651, 
  "eta": 7652, 
  "institute": 7653, 
  "favor": 7654, 
  "Nazi": 7655, 
  "educated": 7656, 
  "encountered": 7657, 
  "imagination": 7658, 
  "disc": 7659, 
  "ited": 7660, 
  "Professional": 7661, 
  "foodstuffs": 7662, 
  "iers": 7663, 
  "94": 7664, 
  "experiment": 7665, 
  "enters": 7666, 
  "retention": 7667, 
  "Herzegovina": 7668, 
  "1986": 7669, 
  "Terrace": 7670, 
  "gentle": 7671, 
  "Forest": 7672, 
  "positioned": 7673, 
  "ken": 7674, 
  "transnational": 7675, 
  "Railway": 7676, 
  "prec@@": 7677, 
  "sta": 7678, 
  "congress": 7679, 
  "dropped": 7680, 
  "zes": 7681, 
  "MA": 7682, 
  "attending": 7683, 
  "eve": 7684, 
  "successes": 7685, 
  "mounting": 7686, 
  "coordinating": 7687, 
  "parent": 7688, 
  "directors": 7689, 
  "toys": 7690, 
  "desert": 7691, 
  "german": 7692, 
  "hoping": 7693, 
  "Cu@@": 7694, 
  "Airlines": 7695, 
  "sons": 7696, 
  "alizing": 7697, 
  "Sar@@": 7698, 
  "pot": 7699, 
  "cop@@": 7700, 
  "List": 7701, 
  "thou": 7702, 
  "syn@@": 7703, 
  "wearing": 7704, 
  "89": 7705, 
  "ung@@": 7706, 
  "Laundry": 7707, 
  "1945": 7708, 
  "Hague": 7709, 
  "Solana": 7710, 
  "speculation": 7711, 
  "withdrawn": 7712, 
  "queries": 7713, 
  "convey": 7714, 
  "ques": 7715, 
  "boarding": 7716, 
  "municipal": 7717, 
  "weaknesses": 7718, 
  "ranking": 7719, 
  "competitions": 7720, 
  "concessions": 7721, 
  "relevance": 7722, 
  "persecution": 7723, 
  "mid@@": 7724, 
  "BO@@": 7725, 
  "stresses": 7726, 
  "precautionary": 7727, 
  "Climate": 7728, 
  "Point": 7729, 
  "130": 7730, 
  "rhetoric": 7731, 
  "replacing": 7732, 
  "pursuit": 7733, 
  "turnover": 7734, 
  "deliberately": 7735, 
  "Char@@": 7736, 
  "slight": 7737, 
  "Capital": 7738, 
  "loc@@": 7739, 
  "pin": 7740, 
  "networking": 7741, 
  "Hor@@": 7742, 
  "objections": 7743, 
  "etta": 7744, 
  "organizing": 7745, 
  "peripheral": 7746, 
  "outer": 7747, 
  "rocks": 7748, 
  "broadband": 7749, 
  "persuade": 7750, 
  "recreation": 7751, 
  "quantitative": 7752, 
  "injection": 7753, 
  "Cha@@": 7754, 
  "shell": 7755, 
  "crash": 7756, 
  "izing": 7757, 
  "poses": 7758, 
  "iting": 7759, 
  "IBM": 7760, 
  "Child": 7761, 
  "vous": 7762, 
  "sooner": 7763, 
  "Monte": 7764, 
  "disappeared": 7765, 
  "sind": 7766, 
  "LA": 7767, 
  "emp@@": 7768, 
  "positively": 7769, 
  "trendy": 7770, 
  "dealer": 7771, 
  "pretext": 7772, 
  "ED@@": 7773, 
  "frames": 7774, 
  "outermost": 7775, 
  "Kurdish": 7776, 
  "affair": 7777, 
  "OSCE": 7778, 
  "billions": 7779, 
  "magnetic": 7780, 
  "barely": 7781, 
  "cure": 7782, 
  "treating": 7783, 
  "var": 7784, 
  "impressed": 7785, 
  "Queen": 7786, 
  "Land": 7787, 
  "hal@@": 7788, 
  "Ge@@": 7789, 
  "ium": 7790, 
  "segments": 7791, 
  "ALE": 7792, 
  "conscience": 7793, 
  "overseas": 7794, 
  "auction": 7795, 
  "forever": 7796, 
  "poorer": 7797, 
  "SDL": 7798, 
  "instances": 7799, 
  "solarium": 7800, 
  "cup": 7801, 
  "fridge": 7802, 
  "bold": 7803, 
  "eng@@": 7804, 
  "irregularities": 7805, 
  "confronted": 7806, 
  "ians": 7807, 
  "Test": 7808, 
  "ll@@": 7809, 
  "nbsp": 7810, 
  "socialist": 7811, 
  "ther": 7812, 
  "linen": 7813, 
  "sor@@": 7814, 
  "verification": 7815, 
  "thrown": 7816, 
  "asi@@": 7817, 
  "tin@@": 7818, 
  "Post": 7819, 
  "facilitating": 7820, 
  "ace": 7821, 
  "3.5": 7822, 
  "bi": 7823, 
  "wholly": 7824, 
  "EIB": 7825, 
  "orange": 7826, 
  "steep": 7827, 
  "chef": 7828, 
  "ham@@": 7829, 
  "celebration": 7830, 
  "Ford": 7831, 
  "ton@@": 7832, 
  "shoulder": 7833, 
  "hi": 7834, 
  "shut": 7835, 
  "With": 7836, 
  "mill": 7837, 
  "tin": 7838, 
  "IF@@": 7839, 
  "injury": 7840, 
  "discounts": 7841, 
  "aw@@": 7842, 
  "Round": 7843, 
  "establishments": 7844, 
  "descriptions": 7845, 
  "arian": 7846, 
  "Mel@@": 7847, 
  "crop": 7848, 
  "arena": 7849, 
  "1,000": 7850, 
  "1985": 7851, 
  "sy@@": 7852, 
  "bond": 7853, 
  "tanks": 7854, 
  "detected": 7855, 
  "shortage": 7856, 
  "inequalities": 7857, 
  "Division": 7858, 
  "ign@@": 7859, 
  "shipment": 7860, 
  "1987": 7861, 
  "liberty": 7862, 
  "hospitals": 7863, 
  "excluding": 7864, 
  "cy": 7865, 
  "fri@@": 7866, 
  "accomplished": 7867, 
  "Pres@@": 7868, 
  "contradiction": 7869, 
  "propaganda": 7870, 
  "aling": 7871, 
  "Bed": 7872, 
  "productions": 7873, 
  "amp": 7874, 
  "preparatory": 7875, 
  "reminded": 7876, 
  "Hitler": 7877, 
  "variations": 7878, 
  "correspond": 7879, 
  "couldn": 7880, 
  "Sport": 7881, 
  "73": 7882, 
  "attracted": 7883, 
  "springs": 7884, 
  "updating": 7885, 
  "theater": 7886, 
  "matching": 7887, 
  "ero": 7888, 
  "noisy": 7889, 
  "Age": 7890, 
  "deployed": 7891, 
  "trace": 7892, 
  "Patten": 7893, 
  "rice": 7894, 
  "fortress": 7895, 
  "rises": 7896, 
  "historically": 7897, 
  "incredibly": 7898, 
  "anymore": 7899, 
  "inn@@": 7900, 
  "jet": 7901, 
  "zoom": 7902, 
  "cultivation": 7903, 
  "density": 7904, 
  "acid": 7905, 
  "mothers": 7906, 
  "Account": 7907, 
  "reward": 7908, 
  "Man": 7909, 
  "terrain": 7910, 
  "ali": 7911, 
  "Schulz": 7912, 
  "cro@@": 7913, 
  "sta@@": 7914, 
  "ain@@": 7915, 
  "je@@": 7916, 
  "Solidarity": 7917, 
  "seller": 7918, 
  "tissue": 7919, 
  "banana": 7920, 
  "emergence": 7921, 
  "burn": 7922, 
  "ao": 7923, 
  "pa": 7924, 
  "commissioned": 7925, 
  "dossier": 7926, 
  "varieties": 7927, 
  "eliminated": 7928, 
  "fies": 7929, 
  "screening": 7930, 
  "cy@@": 7931, 
  "mp@@": 7932, 
  "tie": 7933, 
  "alleged": 7934, 
  "ré@@": 7935, 
  "personalized": 7936, 
  "exemption": 7937, 
  "Travel": 7938, 
  "eggs": 7939, 
  "Dr": 7940, 
  "possession": 7941, 
  "wet": 7942, 
  "minded": 7943, 
  "journalist": 7944, 
  "ico": 7945, 
  "husband": 7946, 
  "Sam@@": 7947, 
  "ids": 7948, 
  "A.@@": 7949, 
  "Solutions": 7950, 
  "decor": 7951, 
  "momentum": 7952, 
  "sixth": 7953, 
  "Change": 7954, 
  "cks": 7955, 
  "outline": 7956, 
  "diameter": 7957, 
  "reveals": 7958, 
  "distances": 7959, 
  "Big": 7960, 
  "influences": 7961, 
  "Cross": 7962, 
  "disadvantaged": 7963, 
  "ich@@": 7964, 
  "bal@@": 7965, 
  "Objective": 7966, 
  "halls": 7967, 
  "Wal@@": 7968, 
  "thirds": 7969, 
  "installer": 7970, 
  "resist": 7971, 
  "protein": 7972, 
  "elimination": 7973, 
  "intensity": 7974, 
  "ete": 7975, 
  "bio": 7976, 
  "GMOs": 7977, 
  "speeds": 7978, 
  "Egyptian": 7979, 
  "commend": 7980, 
  "posting": 7981, 
  "hy@@": 7982, 
  "Kr@@": 7983, 
  "bridges": 7984, 
  "87": 7985, 
  "Friendly": 7986, 
  "Marketing": 7987, 
  "generates": 7988, 
  "Istanbul": 7989, 
  "successor": 7990, 
  "ier": 7991, 
  "recipient": 7992, 
  "guiding": 7993, 
  "architects": 7994, 
  "biotechnology": 7995, 
  "S.@@": 7996, 
  "multitude": 7997, 
  "wir": 7998, 
  "3,@@": 7999, 
  "Bro@@": 8000, 
  "yed": 8001, 
  "Ticket": 8002, 
  "frankly": 8003, 
  "strongest": 8004, 
  "Renaissance": 8005, 
  "Metro": 8006, 
  "factories": 8007, 
  "consultants": 8008, 
  "Class": 8009, 
  "symptoms": 8010, 
  "breast": 8011, 
  "gaps": 8012, 
  "pragmatic": 8013, 
  "livestock": 8014, 
  "exc@@": 8015, 
  "signatures": 8016, 
  "generic": 8017, 
  "He": 8018, 
  "sia": 8019, 
  "Tarifa": 8020, 
  "donation": 8021, 
  "archives": 8022, 
  "somehow": 8023, 
  "ez": 8024, 
  "threaten": 8025, 
  "tag": 8026, 
  "disadvantage": 8027, 
  "Image": 8028, 
  "vegetation": 8029, 
  "flora": 8030, 
  "chains": 8031, 
  "Tro@@": 8032, 
  "Vel@@": 8033, 
  "attentive": 8034, 
  "tackled": 8035, 
  "Res@@": 8036, 
  "gi": 8037, 
  "seasonal": 8038, 
  "Exhibition": 8039, 
  "gn@@": 8040, 
  "sensors": 8041, 
  "ple@@": 8042, 
  "accountable": 8043, 
  "experimental": 8044, 
  "Intel": 8045, 
  "ation@@": 8046, 
  "Cultural": 8047, 
  "Russians": 8048, 
  "teeth": 8049, 
  "notify": 8050, 
  "PS": 8051, 
  "bikes": 8052, 
  "Afghan": 8053, 
  "Mur@@": 8054, 
  "Bavaria": 8055, 
  "Vis@@": 8056, 
  "zz@@": 8057, 
  "Dry": 8058, 
  "Technologies": 8059, 
  "Top": 8060, 
  "Hussein": 8061, 
  "lar@@": 8062, 
  "sus": 8063, 
  "enchanting": 8064, 
  "ung": 8065, 
  "portable": 8066, 
  "ON@@": 8067, 
  "competing": 8068, 
  "ws": 8069, 
  "Children": 8070, 
  "vulnerability": 8071, 
  "midst": 8072, 
  "drawings": 8073, 
  "ura": 8074, 
  "fabrics": 8075, 
  "conceived": 8076, 
  "Tel@@": 8077, 
  "negligence": 8078, 
  "recreational": 8079, 
  "Shanghai": 8080, 
  "displaced": 8081, 
  "tile": 8082, 
  "placement": 8083, 
  "emotions": 8084, 
  "C5": 8085, 
  "bulk": 8086, 
  "aesthetic": 8087, 
  "IL@@": 8088, 
  "dam@@": 8089, 
  "Düsseldorf": 8090, 
  "varies": 8091, 
  "anybody": 8092, 
  "nach": 8093, 
  "Te@@": 8094, 
  "Gr@@": 8095, 
  "Fed": 8096, 
  "Gothic": 8097, 
  "hygiene": 8098, 
  "MP@@": 8099, 
  "Pol@@": 8100, 
  "corresponds": 8101, 
  "honor": 8102, 
  "Nord": 8103, 
  "lend": 8104, 
  "9001": 8105, 
  "animation": 8106, 
  "Gor@@": 8107, 
  "promotional": 8108, 
  "temple": 8109, 
  "wn": 8110, 
  "incurred": 8111, 
  "versatile": 8112, 
  "jump": 8113, 
  "cat": 8114, 
  "rehabilitation": 8115, 
  "chips": 8116, 
  "Liberals": 8117, 
  "ut": 8118, 
  "Wikicars": 8119, 
  "Rec@@": 8120, 
  "ados": 8121, 
  "pra@@": 8122, 
  "RI": 8123, 
  "ALDE": 8124, 
  "bre@@": 8125, 
  "forbidden": 8126, 
  "Bonn": 8127, 
  "cocktail": 8128, 
  "ba@@": 8129, 
  "Sur@@": 8130, 
  "pump": 8131, 
  "motivation": 8132, 
  "dat@@": 8133, 
  "gourmet": 8134, 
  "regulating": 8135, 
  "scan": 8136, 
  "refund": 8137, 
  "Dor@@": 8138, 
  "There": 8139, 
  "As@@": 8140, 
  "ography": 8141, 
  "Ta@@": 8142, 
  "aspirations": 8143, 
  "Garda": 8144, 
  "bits": 8145, 
  "compensate": 8146, 
  "Scottish": 8147, 
  "Bl@@": 8148, 
  "tariffs": 8149, 
  "Sri": 8150, 
  "repercussions": 8151, 
  "axis": 8152, 
  "Ref": 8153, 
  "sister": 8154, 
  "complied": 8155, 
  "catalog": 8156, 
  "Arabia": 8157, 
  "Photocopying": 8158, 
  "Anti": 8159, 
  "screens": 8160, 
  "decides": 8161, 
  "chaos": 8162, 
  "liberalization": 8163, 
  "frozen": 8164, 
  "ment@@": 8165, 
  "monastery": 8166, 
  "financially": 8167, 
  "Tampere": 8168, 
  "Far@@": 8169, 
  "enshrined": 8170, 
  "delightful": 8171, 
  "triple": 8172, 
  "brown": 8173, 
  "prevail": 8174, 
  "pet": 8175, 
  "ster@@": 8176, 
  "simulation": 8177, 
  "fil@@": 8178, 
  "lifetime": 8179, 
  "wins": 8180, 
  "zur": 8181, 
  "fourthly": 8182, 
  "Tel": 8183, 
  "avi@@": 8184, 
  "SS@@": 8185, 
  "ards": 8186, 
  "halt": 8187, 
  "motto": 8188, 
  "shores": 8189, 
  "40@@": 8190, 
  "pity": 8191, 
  "Pa@@": 8192, 
  "AR": 8193, 
  "ue": 8194, 
  "exercises": 8195, 
  "Verheugen": 8196, 
  "Prince": 8197, 
  "Karl": 8198, 
  "lying": 8199, 
  "gue": 8200, 
  "picked": 8201, 
  "vor@@": 8202, 
  "fireplace": 8203, 
  "ET": 8204, 
  "ony": 8205, 
  "blow": 8206, 
  "pr@@": 8207, 
  "Jan": 8208, 
  "Serbian": 8209, 
  "tired": 8210, 
  "Reform": 8211, 
  "laundry": 8212, 
  "dimensional": 8213, 
  "substitute": 8214, 
  "incidentally": 8215, 
  "occurring": 8216, 
  "browse": 8217, 
  "promptly": 8218, 
  "appropriately": 8219, 
  "accurately": 8220, 
  "assumption": 8221, 
  "licences": 8222, 
  "photographer": 8223, 
  "definitive": 8224, 
  "Nov@@": 8225, 
  "360": 8226, 
  "Börse": 8227, 
  "83": 8228, 
  "UR@@": 8229, 
  "promenade": 8230, 
  "Century": 8231, 
  "nowhere": 8232, 
  "EEC": 8233, 
  "specification": 8234, 
  "administrator": 8235, 
  "fe@@": 8236, 
  "containers": 8237, 
  "Taliban": 8238, 
  "Super@@": 8239, 
  "ances": 8240, 
  "encryption": 8241, 
  "SS": 8242, 
  "stricter": 8243, 
  "advocates": 8244, 
  "pair": 8245, 
  "geared": 8246, 
  "Instruments": 8247, 
  "feeding": 8248, 
  "Fo@@": 8249, 
  "policymakers": 8250, 
  "flood": 8251, 
  "ñ@@": 8252, 
  "uns@@": 8253, 
  "longest": 8254, 
  "max": 8255, 
  "shapes": 8256, 
  "Mar": 8257, 
  "na@@": 8258, 
  "issuing": 8259, 
  "reflecting": 8260, 
  "storm": 8261, 
  "resident": 8262, 
  "prints": 8263, 
  "yacht": 8264, 
  "linear": 8265, 
  "Net": 8266, 
  "dying": 8267, 
  "mature": 8268, 
  "PL@@": 8269, 
  "tongue": 8270, 
  "realities": 8271, 
  "alarming": 8272, 
  "Holland": 8273, 
  "chronic": 8274, 
  "lush": 8275, 
  "Cohesion": 8276, 
  "copper": 8277, 
  "Fischler": 8278, 
  "slave": 8279, 
  "ral": 8280, 
  "Dec@@": 8281, 
  "Malaysia": 8282, 
  "colourful": 8283, 
  "seas": 8284, 
  "pending": 8285, 
  "capitalist": 8286, 
  "contamination": 8287, 
  "strip": 8288, 
  "fifty": 8289, 
  "cave": 8290, 
  "incoming": 8291, 
  "acute": 8292, 
  "ú@@": 8293, 
  "ç@@": 8294, 
  "ert": 8295, 
  "Hel@@": 8296, 
  "D.": 8297, 
  "API": 8298, 
  "seating": 8299, 
  "forecasts": 8300, 
  "Sel@@": 8301, 
  "corrected": 8302, 
  "ker@@": 8303, 
  "connects": 8304, 
  "Now": 8305, 
  "án": 8306, 
  "Products": 8307, 
  "chi@@": 8308, 
  "Tre@@": 8309, 
  "Guinea": 8310, 
  "Europa": 8311, 
  "mails": 8312, 
  "Les": 8313, 
  "valued": 8314, 
  "therapeutic": 8315, 
  "OM@@": 8316, 
  "qui@@": 8317, 
  "nationalism": 8318, 
  "GB": 8319, 
  "counting": 8320, 
  "simpler": 8321, 
  "broke": 8322, 
  "deposits": 8323, 
  "qui": 8324, 
  "optimization": 8325, 
  "Rock": 8326, 
  "devastating": 8327, 
  "Fer@@": 8328, 
  "ère": 8329, 
  "constituency": 8330, 
  "Ba@@": 8331, 
  "Hol@@": 8332, 
  "tuna": 8333, 
  "incomplete": 8334, 
  "Bas@@": 8335, 
  "स@@": 8336, 
  "sustain": 8337, 
  "snow@@": 8338, 
  "Mary": 8339, 
  "eu": 8340, 
  "rounds": 8341, 
  "injured": 8342, 
  "notable": 8343, 
  "Cleaning": 8344, 
  "instruction": 8345, 
  "Ol@@": 8346, 
  "ford": 8347, 
  "1979": 8348, 
  "foreigners": 8349, 
  "tan@@": 8350, 
  "privilege": 8351, 
  "secular": 8352, 
  "ros": 8353, 
  "passage": 8354, 
  "ash@@": 8355, 
  "mankind": 8356, 
  "Iceland": 8357, 
  "heim": 8358, 
  "passive": 8359, 
  "MEP": 8360, 
  "dealers": 8361, 
  "spec@@": 8362, 
  "Venezuela": 8363, 
  "sudden": 8364, 
  "formulated": 8365, 
  "79": 8366, 
  "rentals": 8367, 
  "surfing": 8368, 
  "dia": 8369, 
  "Is@@": 8370, 
  "tends": 8371, 
  "Sant": 8372, 
  "Sim@@": 8373, 
  "buffer": 8374, 
  "swim": 8375, 
  "Lounge": 8376, 
  "Ap@@": 8377, 
  "Use": 8378, 
  "lio": 8379, 
  "worthwhile": 8380, 
  "applicants": 8381, 
  "Sy@@": 8382, 
  "uncertain": 8383, 
  "Wil@@": 8384, 
  "purchaser": 8385, 
  "clarified": 8386, 
  "tune": 8387, 
  "english": 8388, 
  "beginners": 8389, 
  "mil@@": 8390, 
  "possess": 8391, 
  "persistent": 8392, 
  "abolished": 8393, 
  "ethics": 8394, 
  "licenses": 8395, 
  "earliest": 8396, 
  "fulfill": 8397, 
  "tiles": 8398, 
  "IB@@": 8399, 
  "Jan@@": 8400, 
  "Fre@@": 8401, 
  "college": 8402, 
  "severely": 8403, 
  "internally": 8404, 
  "timber": 8405, 
  "Gro@@": 8406, 
  "conception": 8407, 
  "ny": 8408, 
  "Pu@@": 8409, 
  "defended": 8410, 
  "prizes": 8411, 
  "IG@@": 8412, 
  "magical": 8413, 
  "remark": 8414, 
  "mixing": 8415, 
  "renovation": 8416, 
  "Seville": 8417, 
  "Côte": 8418, 
  "demonstrating": 8419, 
  "finger": 8420, 
  "licensing": 8421, 
  "phenomena": 8422, 
  "bon@@": 8423, 
  "documentary": 8424, 
  "restriction": 8425, 
  "scenic": 8426, 
  "pesticides": 8427, 
  "beneficiaries": 8428, 
  "Kor@@": 8429, 
  "uns": 8430, 
  "anger": 8431, 
  "vic@@": 8432, 
  "destroying": 8433, 
  "verified": 8434, 
  "CE@@": 8435, 
  "cozy": 8436, 
  "failures": 8437, 
  "peaks": 8438, 
  "Madeira": 8439, 
  "awaiting": 8440, 
  "realization": 8441, 
  "Championship": 8442, 
  "anda": 8443, 
  "Mari@@": 8444, 
  "horny": 8445, 
  "assuming": 8446, 
  "Dra@@": 8447, 
  "140": 8448, 
  "red@@": 8449, 
  "uni@@": 8450, 
  "lian": 8451, 
  "Ka@@": 8452, 
  "trigger": 8453, 
  "Tr@@": 8454, 
  "exceeded": 8455, 
  "subsidiaries": 8456, 
  "junior": 8457, 
  "Timor": 8458, 
  "criticisms": 8459, 
  "establishes": 8460, 
  "intuitive": 8461, 
  "zo": 8462, 
  "len@@": 8463, 
  "coll@@": 8464, 
  "translators": 8465, 
  "ack": 8466, 
  "capita": 8467, 
  "W.": 8468, 
  "biofuels": 8469, 
  "judged": 8470, 
  "fairs": 8471, 
  "ori": 8472, 
  "iness": 8473, 
  "Access": 8474, 
  "deb@@": 8475, 
  "laptop": 8476, 
  "84": 8477, 
  "expects": 8478, 
  "populated": 8479, 
  "Olympus": 8480, 
  "foot@@": 8481, 
  "recordings": 8482, 
  "embargo": 8483, 
  "valleys": 8484, 
  "Arctic": 8485, 
  "blend": 8486, 
  "playground": 8487, 
  "defect": 8488, 
  "enforced": 8489, 
  "charging": 8490, 
  "gladly": 8491, 
  "ening": 8492, 
  "misleading": 8493, 
  "likes": 8494, 
  "einer": 8495, 
  "rin@@": 8496, 
  "exported": 8497, 
  "demo": 8498, 
  "alia": 8499, 
  "PA": 8500, 
  "Tibetan": 8501, 
  "Santer": 8502, 
  "restoring": 8503, 
  "additives": 8504, 
  "Ober@@": 8505, 
  "donations": 8506, 
  "detriment": 8507, 
  "extract": 8508, 
  "radioactive": 8509, 
  "Ibiza": 8510, 
  "multilingual": 8511, 
  "backdrop": 8512, 
  "devote": 8513, 
  "sted": 8514, 
  "yst@@": 8515, 
  "Innovation": 8516, 
  "dly": 8517, 
  "binary": 8518, 
  "lit": 8519, 
  "oven": 8520, 
  "inherent": 8521, 
  "postponed": 8522, 
  "expecting": 8523, 
  "Cre@@": 8524, 
  "nationality": 8525, 
  "appearing": 8526, 
  "phases": 8527, 
  "mut@@": 8528, 
  "lawyer": 8529, 
  "recruitment": 8530, 
  "submission": 8531, 
  "Summer": 8532, 
  "low@@": 8533, 
  "scandal": 8534, 
  "olo": 8535, 
  "suspect": 8536, 
  "ario": 8537, 
  "enthusiasts": 8538, 
  "Sub@@": 8539, 
  "Smith": 8540, 
  "composer": 8541, 
  "break@@": 8542, 
  "delight": 8543, 
  "participant": 8544, 
  "Relations": 8545, 
  "assumes": 8546, 
  "ax@@": 8547, 
  "criticised": 8548, 
  "rigid": 8549, 
  "End": 8550, 
  "robots": 8551, 
  "precedent": 8552, 
  "On@@": 8553, 
  "Reg@@": 8554, 
  "unite": 8555, 
  "construct": 8556, 
  "lacks": 8557, 
  "memorable": 8558, 
  "conversation": 8559, 
  "exhibitors": 8560, 
  ".com.": 8561, 
  "File": 8562, 
  "burdens": 8563, 
  "seeds": 8564, 
  "ken@@": 8565, 
  "OT@@": 8566, 
  "Balkan": 8567, 
  "Sarkozy": 8568, 
  "tica": 8569, 
  "Initiative": 8570, 
  "Source": 8571, 
  "vague": 8572, 
  "Light": 8573, 
  "sz@@": 8574, 
  "gifts": 8575, 
  "elli": 8576, 
  "understands": 8577, 
  "confused": 8578, 
  "Cur@@": 8579, 
  "harsh": 8580, 
  "truck": 8581, 
  "12th": 8582, 
  "submitting": 8583, 
  "traces": 8584, 
  "gratitude": 8585, 
  "but@@": 8586, 
  "Brazilian": 8587, 
  "PO@@": 8588, 
  "ROM": 8589, 
  "juice": 8590, 
  "Caucasus": 8591, 
  "Buyer": 8592, 
  "calculations": 8593, 
  "thread": 8594, 
  "sacrifice": 8595, 
  "Monti": 8596, 
  "FREE": 8597, 
  "yours": 8598, 
  "mutually": 8599, 
  "forecast": 8600, 
  "peninsula": 8601, 
  "fashionable": 8602, 
  "stimulating": 8603, 
  "indicating": 8604, 
  "casting": 8605, 
  "icons": 8606, 
  "optimize": 8607, 
  "Mont@@": 8608, 
  "Open@@": 8609, 
  "From": 8610, 
  "café": 8611, 
  "Picard": 8612, 
  "dirty": 8613, 
  "coloured": 8614, 
  "hang": 8615, 
  "illegally": 8616, 
  "Ci@@": 8617, 
  "idyllic": 8618, 
  "lucky": 8619, 
  "echo": 8620, 
  "Naples": 8621, 
  "bles": 8622, 
  "insofar": 8623, 
  "somebody": 8624, 
  "childhood": 8625, 
  "shaping": 8626, 
  "approaching": 8627, 
  "io@@": 8628, 
  "Panasonic": 8629, 
  "Articles": 8630, 
  "como": 8631, 
  "rou@@": 8632, 
  "steady": 8633, 
  "filed": 8634, 
  "inserted": 8635, 
  "recommends": 8636, 
  "Euros": 8637, 
  "caution": 8638, 
  "entails": 8639, 
  "snack": 8640, 
  "definite": 8641, 
  "Daniel": 8642, 
  "adapting": 8643, 
  "democratisation": 8644, 
  "Darfur": 8645, 
  "ulation": 8646, 
  "appalling": 8647, 
  "pen": 8648, 
  "wa": 8649, 
  "slot": 8650, 
  "tastes": 8651, 
  "Of": 8652, 
  "zum": 8653, 
  "royal": 8654, 
  "ward": 8655, 
  "enthusiastic": 8656, 
  "altered": 8657, 
  "consciousness": 8658, 
  "irresponsible": 8659, 
  "breath": 8660, 
  "columns": 8661, 
  "Ur@@": 8662, 
  "discriminatory": 8663, 
  "tastefully": 8664, 
  "urged": 8665, 
  "Santiago": 8666, 
  "LED": 8667, 
  "aren": 8668, 
  "deterioration": 8669, 
  "accessing": 8670, 
  "Bus": 8671, 
  "travelers": 8672, 
  "ams": 8673, 
  "ö@@": 8674, 
  "Banquet": 8675, 
  "illa": 8676, 
  "pumps": 8677, 
  "10,000": 8678, 
  "contracting": 8679, 
  "hard@@": 8680, 
  "graphy": 8681, 
  "eleven": 8682, 
  "bil@@": 8683, 
  "kl@@": 8684, 
  "climb": 8685, 
  "и@@": 8686, 
  "infection": 8687, 
  "ecommerce": 8688, 
  "harmonise": 8689, 
  "Hill": 8690, 
  "onia": 8691, 
  "locals": 8692, 
  "11@@": 8693, 
  "Jordan": 8694, 
  "proprietary": 8695, 
  "ENT": 8696, 
  "positioning": 8697, 
  "packing": 8698, 
  "confront": 8699, 
  "hydraulic": 8700, 
  "professionalism": 8701, 
  "unexpected": 8702, 
  "sho@@": 8703, 
  "forcing": 8704, 
  "Han@@": 8705, 
  "Provence": 8706, 
  "biking": 8707, 
  "disappointment": 8708, 
  "intermediate": 8709, 
  "Prof.": 8710, 
  "Gift": 8711, 
  "Ni@@": 8712, 
  "toll": 8713, 
  "ned": 8714, 
  "Land@@": 8715, 
  "Des@@": 8716, 
  "Word": 8717, 
  "comprising": 8718, 
  "manages": 8719, 
  "reformed": 8720, 
  "Directors": 8721, 
  "traveling": 8722, 
  "dress": 8723, 
  "informations": 8724, 
  "coupled": 8725, 
  "violated": 8726, 
  "pas": 8727, 
  "Spirit": 8728, 
  "disp@@": 8729, 
  "Medical": 8730, 
  "transposition": 8731, 
  "Net@@": 8732, 
  "optimistic": 8733, 
  "sick": 8734, 
  "oils": 8735, 
  "creatures": 8736, 
  "archaeological": 8737, 
  "switching": 8738, 
  "infected": 8739, 
  "Ban@@": 8740, 
  "opposing": 8741, 
  "coin": 8742, 
  "judiciary": 8743, 
  "Voyager": 8744, 
  "tom@@": 8745, 
  "thesis": 8746, 
  "Airconditioning": 8747, 
  "ier@@": 8748, 
  "CO": 8749, 
  "distortion": 8750, 
  "Ha@@": 8751, 
  "J.": 8752, 
  "ín": 8753, 
  "chapters": 8754, 
  "Gate": 8755, 
  "ll": 8756, 
  "tly": 8757, 
  "1970s": 8758, 
  "synthetic": 8759, 
  "civilisation": 8760, 
  "Vol@@": 8761, 
  "cellar": 8762, 
  "ked": 8763, 
  "eds": 8764, 
  "merit": 8765, 
  "este": 8766, 
  "ción": 8767, 
  "monument": 8768, 
  "assisted": 8769, 
  "wholeheartedly": 8770, 
  "console": 8771, 
  "1.2": 8772, 
  "ill@@": 8773, 
  "friendship": 8774, 
  "ki@@": 8775, 
  "Pet@@": 8776, 
  "dynamics": 8777, 
  "upgraded": 8778, 
  "sciences": 8779, 
  "las@@": 8780, 
  "1984": 8781, 
  "Jacques": 8782, 
  "ect": 8783, 
  "powder": 8784, 
  "Ren@@": 8785, 
  "Rem@@": 8786, 
  "sin": 8787, 
  "ey@@": 8788, 
  "dro@@": 8789, 
  "dozens": 8790, 
  "trucks": 8791, 
  "showers": 8792, 
  "kan@@": 8793, 
  "Version": 8794, 
  "ake": 8795, 
  "EA": 8796, 
  "Level": 8797, 
  "vin@@": 8798, 
  "Read": 8799, 
  "scenarios": 8800, 
  "3.0": 8801, 
  "Antonio": 8802, 
  "drew": 8803, 
  "alising": 8804, 
  "Universal": 8805, 
  "seal": 8806, 
  "suicide": 8807, 
  "zu@@": 8808, 
  "bets": 8809, 
  "Cer@@": 8810, 
  "ineffective": 8811, 
  "Goals": 8812, 
  "itt@@": 8813, 
  "influential": 8814, 
  "expresses": 8815, 
  "FC": 8816, 
  "unclear": 8817, 
  "tones": 8818, 
  "GUE": 8819, 
  "Brok": 8820, 
  "tering": 8821, 
  "priced": 8822, 
  "tw@@": 8823, 
  "celebrations": 8824, 
  "encouragement": 8825, 
  "HR": 8826, 
  "disability": 8827, 
  "Israelis": 8828, 
  "pupils": 8829, 
  "liber@@": 8830, 
  "Clinton": 8831, 
  "sat": 8832, 
  "confined": 8833, 
  "Ven@@": 8834, 
  "letting": 8835, 
  "concluding": 8836, 
  "discovering": 8837, 
  "adhere": 8838, 
  "cycles": 8839, 
  "Ski": 8840, 
  "nominated": 8841, 
  "jury": 8842, 
  "9th": 8843, 
  "winds": 8844, 
  "ologists": 8845, 
  "smoothly": 8846, 
  "shoe": 8847, 
  "awaits": 8848, 
  "vel": 8849, 
  "fauna": 8850, 
  "kin": 8851, 
  "alert": 8852, 
  "Milosevic": 8853, 
  "disappointing": 8854, 
  "LAN": 8855, 
  "weaker": 8856, 
  "bis": 8857, 
  "nets": 8858, 
  "ong@@": 8859, 
  "tournaments": 8860, 
  "sentences": 8861, 
  "footing": 8862, 
  "dare": 8863, 
  "cosmetic": 8864, 
  "emphasises": 8865, 
  "yard": 8866, 
  "Apache": 8867, 
  "supplying": 8868, 
  "Sir": 8869, 
  "tran@@": 8870, 
  "cli@@": 8871, 
  "abortion": 8872, 
  "plastics": 8873, 
  "mes": 8874, 
  "SL": 8875, 
  "supposedly": 8876, 
  "ae": 8877, 
  "Resolution": 8878, 
  "т@@": 8879, 
  "ett@@": 8880, 
  "nec@@": 8881, 
  "determines": 8882, 
  "onwards": 8883, 
  "ial": 8884, 
  "investor": 8885, 
  "fold": 8886, 
  "straightforward": 8887, 
  "interpret": 8888, 
  "27@@": 8889, 
  "kitchenette": 8890, 
  "engineer": 8891, 
  "brochure": 8892, 
  "circles": 8893, 
  "singing": 8894, 
  "ction": 8895, 
  "massages": 8896, 
  "ental": 8897, 
  "hyper@@": 8898, 
  "exert": 8899, 
  "coup": 8900, 
  "pressed": 8901, 
  "disparities": 8902, 
  "bomb": 8903, 
  "empire": 8904, 
  "dal": 8905, 
  "Supreme": 8906, 
  "ading": 8907, 
  "manipulation": 8908, 
  "retreat": 8909, 
  "Pl@@": 8910, 
  "See": 8911, 
  "alistic": 8912, 
  "sit@@": 8913, 
  "monopolies": 8914, 
  "undermining": 8915, 
  "Trans@@": 8916, 
  "flags": 8917, 
  "Jacuzzi": 8918, 
  "emails": 8919, 
  "commodities": 8920, 
  "SI@@": 8921, 
  "cafes": 8922, 
  "usable": 8923, 
  "squ@@": 8924, 
  "Ram@@": 8925, 
  "ail@@": 8926, 
  "Prix": 8927, 
  "differing": 8928, 
  "But": 8929, 
  "surveys": 8930, 
  "UT@@": 8931, 
  "uring": 8932, 
  "Cala": 8933, 
  "norms": 8934, 
  "jo": 8935, 
  "edges": 8936, 
  "sil@@": 8937, 
  "rooted": 8938, 
  "claiming": 8939, 
  "regulators": 8940, 
  "eck": 8941, 
  "kingdom": 8942, 
  "condemnation": 8943, 
  "cian": 8944, 
  "les@@": 8945, 
  "cs": 8946, 
  "Wales": 8947, 
  "Bill": 8948, 
  "resume": 8949, 
  "cap": 8950, 
  "drama": 8951, 
  "cont@@": 8952, 
  "wie": 8953, 
  "Air@@": 8954, 
  "yp@@": 8955, 
  "patented": 8956, 
  "Update": 8957, 
  "methodology": 8958, 
  "seasons": 8959, 
  "swift": 8960, 
  "pipe": 8961, 
  "indicator": 8962, 
  "shoot": 8963, 
  "cocktails": 8964, 
  "strasse": 8965, 
  "motor@@": 8966, 
  "parish": 8967, 
  "е": 8968, 
  "ish@@": 8969, 
  "inventory": 8970, 
  "reproductive": 8971, 
  "castles": 8972, 
  "sectoral": 8973, 
  "Met@@": 8974, 
  "ishes": 8975, 
  "Cape": 8976, 
  "invented": 8977, 
  "kar@@": 8978, 
  "predecessor": 8979, 
  "consultancy": 8980, 
  "arch@@": 8981, 
  "Gre@@": 8982, 
  "DA": 8983, 
  "gates": 8984, 
  "handy": 8985, 
  "explanatory": 8986, 
  "depression": 8987, 
  "8th": 8988, 
  "copying": 8989, 
  "Cubase": 8990, 
  "ceilings": 8991, 
  "Cuban": 8992, 
  "exemplary": 8993, 
  "GBP": 8994, 
  "pocket": 8995, 
  "dependency": 8996, 
  "Tuscan": 8997, 
  "Cambridge": 8998, 
  "Chicago": 8999, 
  "authoritarian": 9000, 
  "top@@": 9001, 
  "pets": 9002, 
  "Harbour": 9003, 
  "literary": 9004, 
  "suspend": 9005, 
  "AKVIS": 9006, 
  "TA": 9007, 
  "OL@@": 9008, 
  "deprived": 9009, 
  "render": 9010, 
  "towers": 9011, 
  "lengthy": 9012, 
  "inability": 9013, 
  "servants": 9014, 
  "appealing": 9015, 
  "comitology": 9016, 
  "1967": 9017, 
  "Lanzarote": 9018, 
  "brothers": 9019, 
  "hereby": 9020, 
  "YOU": 9021, 
  "ENT@@": 9022, 
  "capit@@": 9023, 
  "1978": 9024, 
  "Australian": 9025, 
  "preview": 9026, 
  "investigated": 9027, 
  "minors": 9028, 
  "transferring": 9029, 
  "IM": 9030, 
  "facto": 9031, 
  "anonymous": 9032, 
  "beverages": 9033, 
  "uphold": 9034, 
  "learnt": 9035, 
  "deregulation": 9036, 
  "attributes": 9037, 
  "EX": 9038, 
  "Multi@@": 9039, 
  "tel": 9040, 
  "б@@": 9041, 
  "Victoria": 9042, 
  "Mexican": 9043, 
  "loyalty": 9044, 
  "egg": 9045, 
  "petrol": 9046, 
  "destructive": 9047, 
  "requesting": 9048, 
  "loose": 9049, 
  "ste": 9050, 
  "ss": 9051, 
  "templates": 9052, 
  "gel@@": 9053, 
  "Pat@@": 9054, 
  "fs": 9055, 
  "Angeles": 9056, 
  "Fl@@": 9057, 
  "TO@@": 9058, 
  "Palacio": 9059, 
  "mentioning": 9060, 
  "Orchestra": 9061, 
  "legend": 9062, 
  "hub": 9063, 
  "accelerate": 9064, 
  "forty": 9065, 
  "Contact": 9066, 
  "salaries": 9067, 
  "Work": 9068, 
  "ratings": 9069, 
  "fiction": 9070, 
  "palm": 9071, 
  "EV@@": 9072, 
  "weaken": 9073, 
  "refuge": 9074, 
  "ev": 9075, 
  "interfere": 9076, 
  "alo@@": 9077, 
  "а": 9078, 
  "murdered": 9079, 
  "eo": 9080, 
  "spo@@": 9081, 
  "ys@@": 9082, 
  "02@@": 9083, 
  "GM": 9084, 
  "volunteers": 9085, 
  "draftsman": 9086, 
  "dell": 9087, 
  "slope": 9088, 
  "FAQ": 9089, 
  "qualitative": 9090, 
  "grows": 9091, 
  "warmth": 9092, 
  "xenophobia": 9093, 
  "petition": 9094, 
  "remembered": 9095, 
  "obligatory": 9096, 
  "Fri@@": 9097, 
  "e-": 9098, 
  "pic@@": 9099, 
  "favoured": 9100, 
  "qualify": 9101, 
  "Commerce": 9102, 
  "28@@": 9103, 
  "strengths": 9104, 
  "Sec@@": 9105, 
  "aan": 9106, 
  "RAM": 9107, 
  "prostitution": 9108, 
  "м@@": 9109, 
  "desires": 9110, 
  "Wi@@": 9111, 
  "tra": 9112, 
  "bass": 9113, 
  "writes": 9114, 
  "traders": 9115, 
  "AF@@": 9116, 
  "touched": 9117, 
  "neck": 9118, 
  "CAD": 9119, 
  "hitherto": 9120, 
  "continents": 9121, 
  "Alpha": 9122, 
  "Jackson": 9123, 
  "happiness": 9124, 
  "ji": 9125, 
  "port@@": 9126, 
  "domains": 9127, 
  "pubs": 9128, 
  "enjoyment": 9129, 
  "11th": 9130, 
  "enti@@": 9131, 
  "weekends": 9132, 
  "Anna": 9133, 
  "hybrid": 9134, 
  "outlook": 9135, 
  "brush": 9136, 
  "threatens": 9137, 
  "gra": 9138, 
  "protocols": 9139, 
  "1960": 9140, 
  "far@@": 9141, 
  "ania": 9142, 
  "combinations": 9143, 
  "leverage": 9144, 
  "wal@@": 9145, 
  "coat": 9146, 
  "undermined": 9147, 
  "dancing": 9148, 
  "When": 9149, 
  "subway": 9150, 
  "Sales": 9151, 
  "Slovenian": 9152, 
  "tot@@": 9153, 
  "zation": 9154, 
  "Computer": 9155, 
  "tap": 9156, 
  "Ö@@": 9157, 
  "county": 9158, 
  "offensive": 9159, 
  "ul": 9160, 
  "stopping": 9161, 
  "subsidy": 9162, 
  "centr@@": 9163, 
  "encrypted": 9164, 
  "ici@@": 9165, 
  "net@@": 9166, 
  "shipped": 9167, 
  "offences": 9168, 
  "sting": 9169, 
  "SM@@": 9170, 
  "SMS": 9171, 
  "Oslo": 9172, 
  "merits": 9173, 
  "administrations": 9174, 
  "г@@": 9175, 
  "Sports": 9176, 
  "compression": 9177, 
  "Ly@@": 9178, 
  "bling": 9179, 
  "recital": 9180, 
  "450": 9181, 
  "Juan": 9182, 
  "Download": 9183, 
  "harmonious": 9184, 
  "balconies": 9185, 
  "1975": 9186, 
  "multiannual": 9187, 
  "absent": 9188, 
  "60@@": 9189, 
  "odds": 9190, 
  "DNA": 9191, 
  "cooperating": 9192, 
  "VI": 9193, 
  "ALL": 9194, 
  "pixels": 9195, 
  "corrupt": 9196, 
  "к@@": 9197, 
  "Sky": 9198, 
  "highlighting": 9199, 
  "virtue": 9200, 
  "grapes": 9201, 
  "muy": 9202, 
  "frontier": 9203, 
  "д@@": 9204, 
  "poorly": 9205, 
  "expressions": 9206, 
  "dor@@": 9207, 
  "Avenue": 9208, 
  "Bavarian": 9209, 
  "José": 9210, 
  "WiFi": 9211, 
  "champion": 9212, 
  "pul@@": 9213, 
  "tig@@": 9214, 
  "refusing": 9215, 
  "moratorium": 9216, 
  "honey": 9217, 
  "SH@@": 9218, 
  "Tools": 9219, 
  "TE": 9220, 
  "Andreas": 9221, 
  "copied": 9222, 
  "HI": 9223, 
  "buyers": 9224, 
  "vac@@": 9225, 
  "Baden": 9226, 
  "crowd": 9227, 
  "trillion": 9228, 
  "ecting": 9229, 
  "Fran@@": 9230, 
  "Don": 9231, 
  "swiftly": 9232, 
  "flu@@": 9233, 
  "conditional": 9234, 
  "logos": 9235, 
  "Power@@": 9236, 
  "contradictory": 9237, 
  "Liberties": 9238, 
  "prosperous": 9239, 
  "cked": 9240, 
  "readily": 9241, 
  "sy": 9242, 
  "lem@@": 9243, 
  "ceramic": 9244, 
  "Klingon": 9245, 
  "cookie": 9246, 
  "owe": 9247, 
  "seg@@": 9248, 
  "vil@@": 9249, 
  "Ironing": 9250, 
  "simplifying": 9251, 
  "curious": 9252, 
  "Baroness": 9253, 
  "hab@@": 9254, 
  "employer": 9255, 
  "realisation": 9256, 
  "Em@@": 9257, 
  "calculate": 9258, 
  "nutrition": 9259, 
  "Good": 9260, 
  "Basque": 9261, 
  "hum@@": 9262, 
  "abolish": 9263, 
  "relatives": 9264, 
  "ark@@": 9265, 
  "rejecting": 9266, 
  "patience": 9267, 
  "incorporating": 9268, 
  "Lido": 9269, 
  "betting": 9270, 
  "realm": 9271, 
  "durable": 9272, 
  "carriage": 9273, 
  "sail": 9274, 
  "smell": 9275, 
  "performs": 9276, 
  "breakthrough": 9277, 
  "simplicity": 9278, 
  "lectures": 9279, 
  "attributed": 9280, 
  "reads": 9281, 
  "eth": 9282, 
  "sunshine": 9283, 
  "font": 9284, 
  "Buenos": 9285, 
  "arity": 9286, 
  "wor@@": 9287, 
  "remit": 9288, 
  "ear": 9289, 
  "fairness": 9290, 
  "Mercedes": 9291, 
  "extensions": 9292, 
  "successive": 9293, 
  "IL": 9294, 
  "Km": 9295, 
  "associate": 9296, 
  "lamps": 9297, 
  "tively": 9298, 
  "nos": 9299, 
  "masters": 9300, 
  "volcanic": 9301, 
  "warned": 9302, 
  "guys": 9303, 
  "sible": 9304, 
  "assembled": 9305, 
  "politician": 9306, 
  "lifted": 9307, 
  "welding": 9308, 
  "patio": 9309, 
  "Bio@@": 9310, 
  "ize": 9311, 
  "marvellous": 9312, 
  "interviews": 9313, 
  "esp@@": 9314, 
  "exceeds": 9315, 
  "tasting": 9316, 
  "Plan@@": 9317, 
  "mercury": 9318, 
  "institutes": 9319, 
  "Op@@": 9320, 
  "Peru": 9321, 
  "insecurity": 9322, 
  "Fu@@": 9323, 
  "fleets": 9324, 
  "Cl@@": 9325, 
  "5,000": 9326, 
  "risen": 9327, 
  "1960s": 9328, 
  "1982": 9329, 
  "Decision": 9330, 
  "housed": 9331, 
  "149": 9332, 
  "kindly": 9333, 
  "electorate": 9334, 
  "publicity": 9335, 
  "cruise": 9336, 
  "cake": 9337, 
  "ots": 9338, 
  "exhaust": 9339, 
  "aqu@@": 9340, 
  "Father": 9341, 
  "Currency": 9342, 
  "Mad@@": 9343, 
  "unwind": 9344, 
  "Emperor": 9345, 
  "invention": 9346, 
  "explaining": 9347, 
  "Democrat": 9348, 
  "ili@@": 9349, 
  "prevailing": 9350, 
  "IR@@": 9351, 
  "Henry": 9352, 
  "Super": 9353, 
  "exp@@": 9354, 
  "dedication": 9355, 
  "neighborhood": 9356, 
  "ATION": 9357, 
  "cloning": 9358, 
  "admittedly": 9359, 
  "Gen@@": 9360, 
  "veto": 9361, 
  "specialties": 9362, 
  "redundant": 9363, 
  "stipulated": 9364, 
  "DIN": 9365, 
  "fa@@": 9366, 
  "Sc@@": 9367, 
  "Majorca": 9368, 
  "sie": 9369, 
  "wealthy": 9370, 
  "lady": 9371, 
  "ome": 9372, 
  "Kol@@": 9373, 
  "abstract": 9374, 
  "arisen": 9375, 
  "power@@": 9376, 
  "incompatible": 9377, 
  "beta": 9378, 
  "recognising": 9379, 
  "Abu": 9380, 
  "Leonardo": 9381, 
  "Granada": 9382, 
  "а@@": 9383, 
  "hol@@": 9384, 
  "sacred": 9385, 
  "salary": 9386, 
  "Sen@@": 9387, 
  "Ag@@": 9388, 
  "opponent": 9389, 
  "collectively": 9390, 
  "prejudice": 9391, 
  "3000": 9392, 
  "80@@": 9393, 
  "Eur@@": 9394, 
  "eda": 9395, 
  "banning": 9396, 
  "Frank": 9397, 
  "underway": 9398, 
  "senses": 9399, 
  "aci@@": 9400, 
  "Aires": 9401, 
  "bananas": 9402, 
  "benefited": 9403, 
  "run@@": 9404, 
  "CFSP": 9405, 
  "backs": 9406, 
  "completeness": 9407, 
  "lin": 9408, 
  "reforming": 9409, 
  "adjustable": 9410, 
  "steadily": 9411, 
  "Upper": 9412, 
  "pipes": 9413, 
  "mortality": 9414, 
  "hike": 9415, 
  "corrections": 9416, 
  "athletes": 9417, 
  "insisted": 9418, 
  "imm@@": 9419, 
  "floating": 9420, 
  "pas@@": 9421, 
  "EF@@": 9422, 
  "hel@@": 9423, 
  "unchanged": 9424, 
  "corners": 9425, 
  "lon@@": 9426, 
  "art@@": 9427, 
  "mediation": 9428, 
  "yea": 9429, 
  "cluster": 9430, 
  "fathers": 9431, 
  "Marbella": 9432, 
  "ka@@": 9433, 
  "phot@@": 9434, 
  "consuming": 9435, 
  "BE": 9436, 
  "Premier": 9437, 
  "fal@@": 9438, 
  "cho@@": 9439, 
  "BA": 9440, 
  "black@@": 9441, 
  "set@@": 9442, 
  "shed": 9443, 
  "Cambodia": 9444, 
  "compressed": 9445, 
  "entirety": 9446, 
  "PE": 9447, 
  "Pierre": 9448, 
  "iss@@": 9449, 
  "ih@@": 9450, 
  "vari@@": 9451, 
  "interiors": 9452, 
  "Excel": 9453, 
  "receiver": 9454, 
  "sponsored": 9455, 
  "Pic@@": 9456, 
  "traceability": 9457, 
  "recipes": 9458, 
  "professor": 9459, 
  "cking": 9460, 
  "catastrophe": 9461, 
  "Albanian": 9462, 
  "mask": 9463, 
  "Advanced": 9464, 
  "Province": 9465, 
  "SU@@": 9466, 
  "pled": 9467, 
  "terminals": 9468, 
  "5,@@": 9469, 
  "govern": 9470, 
  "exercised": 9471, 
  "immune": 9472, 
  "Manhattan": 9473, 
  "kon@@": 9474, 
  "dle": 9475, 
  "mes@@": 9476, 
  "premature": 9477, 
  "accomodation": 9478, 
  "sharply": 9479, 
  "brake": 9480, 
  "beliefs": 9481, 
  "venues": 9482, 
  "Kenya": 9483, 
  "harmonization": 9484, 
  "G20": 9485, 
  "His": 9486, 
  "Temple": 9487, 
  "metre": 9488, 
  "Sciences": 9489, 
  "ght": 9490, 
  "malaria": 9491, 
  "ologist": 9492, 
  "wind@@": 9493, 
  "CR@@": 9494, 
  "hatred": 9495, 
  "Shi@@": 9496, 
  "rough": 9497, 
  "Apartment": 9498, 
  "ining": 9499, 
  "Premium": 9500, 
  "2014": 9501, 
  "ula": 9502, 
  "Lat@@": 9503, 
  "Easter": 9504, 
  "imply": 9505, 
  "disorders": 9506, 
  "Tom@@": 9507, 
  "fixes": 9508, 
  "initi@@": 9509, 
  "NGL": 9510, 
  "ences": 9511, 
  "ova": 9512, 
  "dine": 9513, 
  "LateRooms.com": 9514, 
  "ego": 9515, 
  "suspicion": 9516, 
  "Eurostat": 9517, 
  "Future": 9518, 
  "basin": 9519, 
  "imprisoned": 9520, 
  "weakened": 9521, 
  "evaluating": 9522, 
  "dental": 9523, 
  "warn": 9524, 
  "oring": 9525, 
  "legs": 9526, 
  "debut": 9527, 
  "adidas": 9528, 
  "agreeing": 9529, 
  "earmarked": 9530, 
  "PP@@": 9531, 
  "celebrating": 9532, 
  "Av@@": 9533, 
  "han": 9534, 
  "suspected": 9535, 
  "glance": 9536, 
  "cen@@": 9537, 
  "Environmental": 9538, 
  "outcomes": 9539, 
  "sign@@": 9540, 
  "extraction": 9541, 
  "asi": 9542, 
  "0.00": 9543, 
  "s.com": 9544, 
  "Next": 9545, 
  "holy": 9546, 
  "browsing": 9547, 
  "Rom@@": 9548, 
  "predict": 9549, 
  "Verts": 9550, 
  "triggered": 9551, 
  "ie@@": 9552, 
  "Ki@@": 9553, 
  "pitch": 9554, 
  "1968": 9555, 
  "vor": 9556, 
  "beam": 9557, 
  "rever@@": 9558, 
  "B.": 9559, 
  "Pope": 9560, 
  "amente": 9561, 
  "Venetian": 9562, 
  "physics": 9563, 
  "natur@@": 9564, 
  "attendance": 9565, 
  "parliamentarians": 9566, 
  "Chair": 9567, 
  "excessively": 9568, 
  "lesser": 9569, 
  "locate": 9570, 
  "Algarve": 9571, 
  "exporting": 9572, 
  "SSL": 9573, 
  "lam@@": 9574, 
  "religions": 9575, 
  "Small": 9576, 
  "ately": 9577, 
  "CC": 9578, 
  "ligh@@": 9579, 
  "4,@@": 9580, 
  "theatres": 9581, 
  "embrace": 9582, 
  "eting": 9583, 
  "deliberate": 9584, 
  "AU@@": 9585, 
  "Reader": 9586, 
  "Customs": 9587, 
  "mentions": 9588, 
  "twentieth": 9589, 
  "Kinnock": 9590, 
  "upgrading": 9591, 
  "GE": 9592, 
  "bers": 9593, 
  "yl@@": 9594, 
  "Tal@@": 9595, 
  "1976": 9596, 
  "sentenced": 9597, 
  "fruitful": 9598, 
  "24th": 9599, 
  "CD@@": 9600, 
  "touches": 9601, 
  "Days": 9602, 
  "Siena": 9603, 
  "ores": 9604, 
  "behave": 9605, 
  "mol@@": 9606, 
  "Classic": 9607, 
  "employs": 9608, 
  "100@@": 9609, 
  "Mugabe": 9610, 
  "engaging": 9611, 
  "advocated": 9612, 
  "ols": 9613, 
  "ute": 9614, 
  "Barack": 9615, 
  "heaven": 9616, 
  "ettes": 9617, 
  "proactive": 9618, 
  "recourse": 9619, 
  "wards": 9620, 
  "Ages": 9621, 
  "wellbeing": 9622, 
  "courageous": 9623, 
  "Bou@@": 9624, 
  "analyze": 9625, 
  "ions": 9626, 
  "ст@@": 9627, 
  "EP@@": 9628, 
  "assign": 9629, 
  "thematic": 9630, 
  "illustrate": 9631, 
  "som@@": 9632, 
  "ow": 9633, 
  "neighbour": 9634, 
  "desperate": 9635, 
  "verse": 9636, 
  "marina": 9637, 
  "Sun@@": 9638, 
  "multinationals": 9639, 
  "retro@@": 9640, 
  "hits": 9641, 
  "reunification": 9642, 
  "displaying": 9643, 
  "Kur@@": 9644, 
  "tolerate": 9645, 
  "tal@@": 9646, 
  "refrain": 9647, 
  "criticise": 9648, 
  "pluralism": 9649, 
  "Night": 9650, 
  "aded": 9651, 
  "fer": 9652, 
  "ø@@": 9653, 
  "cally": 9654, 
  "disturbing": 9655, 
  "caves": 9656, 
  "Awards": 9657, 
  "ava": 9658, 
  "advisable": 9659, 
  "Stock": 9660, 
  "eter": 9661, 
  "At": 9662, 
  "smile": 9663, 
  "ह@@": 9664, 
  "Police": 9665, 
  "Oxford": 9666, 
  "distortions": 9667, 
  "strengthens": 9668, 
  "assortment": 9669, 
  "habits": 9670, 
  "Pas@@": 9671, 
  "Machine": 9672, 
  "surprisingly": 9673, 
  "tier": 9674, 
  "surf": 9675, 
  "excursion": 9676, 
  "postpone": 9677, 
  "After": 9678, 
  "oper@@": 9679, 
  "adventures": 9680, 
  "Cro@@": 9681, 
  "swe@@": 9682, 
  "explosion": 9683, 
  "Collection": 9684, 
  "ote": 9685, 
  "Journal": 9686, 
  "helicopter": 9687, 
  "informing": 9688, 
  "pun@@": 9689, 
  "lac@@": 9690, 
  "aga": 9691, 
  "electro@@": 9692, 
  "evolved": 9693, 
  "interoperability": 9694, 
  "Kon@@": 9695, 
  "neglected": 9696, 
  "injuries": 9697, 
  "ush@@": 9698, 
  "focal": 9699, 
  "publisher": 9700, 
  "Anti@@": 9701, 
  "monitors": 9702, 
  "â@@": 9703, 
  "photographers": 9704, 
  "SD": 9705, 
  "Love": 9706, 
  "dent": 9707, 
  "Sound": 9708, 
  "margins": 9709, 
  "akan": 9710, 
  "organisational": 9711, 
  "riders": 9712, 
  "professions": 9713, 
  "ax": 9714, 
  "privatisation": 9715, 
  "tubes": 9716, 
  "struggling": 9717, 
  "quo": 9718, 
  "stock@@": 9719, 
  "rebuild": 9720, 
  "mar": 9721, 
  "Hi@@": 9722, 
  "loop": 9723, 
  "geographic": 9724, 
  "hanging": 9725, 
  "oll@@": 9726, 
  "oh@@": 9727, 
  "privately": 9728, 
  "din@@": 9729, 
  "editorial": 9730, 
  "IV@@": 9731, 
  "Medi@@": 9732, 
  "assistant": 9733, 
  "outbreak": 9734, 
  "substantive": 9735, 
  "constituents": 9736, 
  "promotions": 9737, 
  "midnight": 9738, 
  "correctness": 9739, 
  "forefront": 9740, 
  "ze@@": 9741, 
  "blo@@": 9742, 
  "simultaneous": 9743, 
  "particles": 9744, 
  "informative": 9745, 
  "reminds": 9746, 
  "elect": 9747, 
  "haus": 9748, 
  "objection": 9749, 
  "inv@@": 9750, 
  "neur@@": 9751, 
  "stuck": 9752, 
  "aus@@": 9753, 
  "alla": 9754, 
  "steering": 9755, 
  "overlook": 9756, 
  "Pin@@": 9757, 
  "milestone": 9758, 
  "clearing": 9759, 
  "An": 9760, 
  "DJ": 9761, 
  "tu": 9762, 
  "unification": 9763, 
  "Tor": 9764, 
  "Kim": 9765, 
  "ingen": 9766, 
  "challenged": 9767, 
  "reinforcing": 9768, 
  "passwords": 9769, 
  "sion@@": 9770, 
  "saves": 9771, 
  "Credit": 9772, 
  "occupying": 9773, 
  "Pr@@": 9774, 
  "photographic": 9775, 
  "CL@@": 9776, 
  "ine@@": 9777, 
  "dose": 9778, 
  "ARE": 9779, 
  "suggesting": 9780, 
  "derivatives": 9781, 
  "exterior": 9782, 
  "prof@@": 9783, 
  "millennium": 9784, 
  "tos": 9785, 
  "Neighbourhood": 9786, 
  "rit@@": 9787, 
  "breaches": 9788, 
  "0.5": 9789, 
  "Cairo": 9790, 
  "1950": 9791, 
  "Consulting": 9792, 
  "Micro@@": 9793, 
  "Working": 9794, 
  "Ay@@": 9795, 
  "prosecution": 9796, 
  "Kremlin": 9797, 
  "kes": 9798, 
  "advertisements": 9799, 
  "Eurex": 9800, 
  "horizon": 9801, 
  "cleaned": 9802, 
  "acoustic": 9803, 
  "cautious": 9804, 
  "grip": 9805, 
  "inhabited": 9806, 
  "compile": 9807, 
  "mobilisation": 9808, 
  "underlined": 9809, 
  "elled": 9810, 
  "warnings": 9811, 
  "petitions": 9812, 
  "nicely": 9813, 
  "DA@@": 9814, 
  "scanner": 9815, 
  "Hollywood": 9816, 
  "inquiries": 9817, 
  "thickness": 9818, 
  "Canal": 9819, 
  "Part": 9820, 
  "dorf": 9821, 
  "sou@@": 9822, 
  "aids": 9823, 
  "thrust": 9824, 
  "contaminated": 9825, 
  "entail": 9826, 
  "appliances": 9827, 
  "let@@": 9828, 
  "aka": 9829, 
  "Globalisation": 9830, 
  "viewer": 9831, 
  "bing": 9832, 
  "über": 9833, 
  "new@@": 9834, 
  "rests": 9835, 
  "spatial": 9836, 
  "communicated": 9837, 
  "T.": 9838, 
  "ities": 9839, 
  "UV": 9840, 
  "zen": 9841, 
  "inspectors": 9842, 
  "authorization": 9843, 
  "mainland": 9844, 
  "occupational": 9845, 
  "mad": 9846, 
  "Channel": 9847, 
  "Hal@@": 9848, 
  "Hei@@": 9849, 
  "EG@@": 9850, 
  "iti@@": 9851, 
  "Cy@@": 9852, 
  "plasma": 9853, 
  "partitions": 9854, 
  "transmit": 9855, 
  "Syrian": 9856, 
  "ILO": 9857, 
  "strain": 9858, 
  "shots": 9859, 
  "targeting": 9860, 
  "radically": 9861, 
  "complain": 9862, 
  "assignment": 9863, 
  "atten@@": 9864, 
  "cereals": 9865, 
  "Please": 9866, 
  "Audio": 9867, 
  "newer": 9868, 
  "judgement": 9869, 
  "slaughter": 9870, 
  "retailers": 9871, 
  "ry@@": 9872, 
  "not@@": 9873, 
  "DR@@": 9874, 
  "charts": 9875, 
  "detrimental": 9876, 
  "Kam@@": 9877, 
  "ath": 9878, 
  "sqm": 9879, 
  "folders": 9880, 
  "в": 9881, 
  "pel@@": 9882, 
  "Tyrolean": 9883, 
  "photograph": 9884, 
  "sided": 9885, 
  "optimism": 9886, 
  "insulation": 9887, 
  "meg@@": 9888, 
  "seventh": 9889, 
  "geopolitical": 9890, 
  "drastic": 9891, 
  "Adam": 9892, 
  "logy": 9893, 
  "bottles": 9894, 
  "Go": 9895, 
  "confrontation": 9896, 
  "boutiques": 9897, 
  "о@@": 9898, 
  "counterparts": 9899, 
  "profitability": 9900, 
  "wo@@": 9901, 
  "AP": 9902, 
  "Building": 9903, 
  "accesses": 9904, 
  "colony": 9905, 
  "defeated": 9906, 
  "conformity": 9907, 
  "wer": 9908, 
  "sten": 9909, 
  "Store": 9910, 
  "fixing": 9911, 
  "reconcile": 9912, 
  "Bahn": 9913, 
  "Frontex": 9914, 
  "Comp@@": 9915, 
  "anticipate": 9916, 
  "lion": 9917, 
  "gener@@": 9918, 
  "Dem@@": 9919, 
  "tz": 9920, 
  "breakdown": 9921, 
  "mag@@": 9922, 
  "harvest": 9923, 
  "West@@": 9924, 
  "frontiers": 9925, 
  "ail": 9926, 
  "illustrated": 9927, 
  "neighbors": 9928, 
  "brochures": 9929, 
  "provinces": 9930, 
  "Bali": 9931, 
  "counted": 9932, 
  "recipe": 9933, 
  "más": 9934, 
  "hath": 9935, 
  "strings": 9936, 
  "cel@@": 9937, 
  "Other": 9938, 
  "proving": 9939, 
  "alcoholic": 9940, 
  "presses": 9941, 
  "slogan": 9942, 
  "beneath": 9943, 
  "impressions": 9944, 
  "diversification": 9945, 
  "Benjamin": 9946, 
  "1.1": 9947, 
  "î@@": 9948, 
  "Tom": 9949, 
  "SD@@": 9950, 
  "lined": 9951, 
  "Franz": 9952, 
  "gun": 9953, 
  "benefiting": 9954, 
  "play@@": 9955, 
  "ion@@": 9956, 
  "Mis@@": 9957, 
  "MA@@": 9958, 
  "Lodge": 9959, 
  "gay": 9960, 
  "nationalist": 9961, 
  "Terminal": 9962, 
  "nor@@": 9963, 
  "activation": 9964, 
  "cook": 9965, 
  "Lan@@": 9966, 
  "mot@@": 9967, 
  "describing": 9968, 
  "clinic": 9969, 
  "ram@@": 9970, 
  "spirits": 9971, 
  "restricting": 9972, 
  "hip": 9973, 
  "rape": 9974, 
  "fr@@": 9975, 
  "Gardens": 9976, 
  "CH": 9977, 
  "fro@@": 9978, 
  "Pe@@": 9979, 
  "vaccination": 9980, 
  "streams": 9981, 
  "Ob@@": 9982, 
  "disadvantages": 9983, 
  "regrettably": 9984, 
  "lab@@": 9985, 
  "G8": 9986, 
  "machining": 9987, 
  "Pra@@": 9988, 
  "farmer": 9989, 
  "wouldn": 9990, 
  "laundering": 9991, 
  "hoc": 9992, 
  "consumed": 9993, 
  "DG": 9994, 
  "wash": 9995, 
  "laboratories": 9996, 
  "elaborate": 9997, 
  "cing": 9998, 
  "Die": 9999, 
  "minim@@": 10000, 
  "printers": 10001, 
  "appointments": 10002, 
  "alities": 10003, 
  "rides": 10004, 
  "feeds": 10005, 
  "Georgian": 10006, 
  "remuneration": 10007, 
  "observer": 10008, 
  "6,@@": 10009, 
  "ont": 10010, 
  "disarmament": 10011, 
  "assisting": 10012, 
  "swing": 10013, 
  "abide": 10014, 
  "Na@@": 10015, 
  "1981": 10016, 
  "Sab@@": 10017, 
  "GA": 10018, 
  "allocate": 10019, 
  "intact": 10020, 
  "ho": 10021, 
  "intervals": 10022, 
  "workflow": 10023, 
  "1973": 10024, 
  "beg@@": 10025, 
  "tags": 10026, 
  "judgments": 10027, 
  "prisons": 10028, 
  "stabilisation": 10029, 
  "declining": 10030, 
  "REACH": 10031, 
  "tram@@": 10032, 
  "е@@": 10033, 
  "recovered": 10034, 
  "odd": 10035, 
  "acy": 10036, 
  "sten@@": 10037, 
  "ordin@@": 10038, 
  "Chernobyl": 10039, 
  "Karel": 10040, 
  "striving": 10041, 
  "2.2": 10042, 
  "aforementioned": 10043, 
  "cooked": 10044, 
  "worries": 10045, 
  "Up": 10046, 
  "username": 10047, 
  "Klaus": 10048, 
  "analog": 10049, 
  "Cube": 10050, 
  "bol@@": 10051, 
  "physically": 10052, 
  "Bremen": 10053, 
  "journeys": 10054, 
  "punished": 10055, 
  "Ps": 10056, 
  "assi@@": 10057, 
  "cle@@": 10058, 
  "neg@@": 10059, 
  "eg": 10060, 
  "variant": 10061, 
  "hur@@": 10062, 
  "impacts": 10063, 
  "mainstream": 10064, 
  "traded": 10065, 
  "deepening": 10066, 
  "Dan@@": 10067, 
  "ured": 10068, 
  "exercising": 10069, 
  "jacuzzi": 10070, 
  "spheres": 10071, 
  "Merkel": 10072, 
  "flats": 10073, 
  "ř@@": 10074, 
  "Panel": 10075, 
  "controversy": 10076, 
  "dismantling": 10077, 
  ".....": 10078, 
  "Delta": 10079, 
  "reign": 10080, 
  "passionate": 10081, 
  "gers": 10082, 
  "Course": 10083, 
  "196": 10084, 
  "Senate": 10085, 
  ".ch": 10086, 
  "sup@@": 10087, 
  "ele": 10088, 
  "gesture": 10089, 
  "trusted": 10090, 
  "Verona": 10091, 
  "Fr@@": 10092, 
  "anna": 10093, 
  "baroque": 10094, 
  "wird": 10095, 
  "basket": 10096, 
  "dom@@": 10097, 
  "oak": 10098, 
  "mortgage": 10099, 
  "nose": 10100, 
  "materi@@": 10101, 
  "analysed": 10102, 
  "cables": 10103, 
  "skiers": 10104, 
  "arch": 10105, 
  "duplication": 10106, 
  "fur@@": 10107, 
  "unsatisfactory": 10108, 
  "rot@@": 10109, 
  "motors": 10110, 
  "precarious": 10111, 
  "tures": 10112, 
  "shirt": 10113, 
  "ils": 10114, 
  "Š@@": 10115, 
  "owed": 10116, 
  "Outlook": 10117, 
  "TNG": 10118, 
  "County": 10119, 
  "robot": 10120, 
  "cultivated": 10121, 
  "terminology": 10122, 
  "seize": 10123, 
  "Beauty": 10124, 
  "organizational": 10125, 
  "sk": 10126, 
  "Ethiopia": 10127, 
  "rings": 10128, 
  "html": 10129, 
  "crossed": 10130, 
  "ल@@": 10131, 
  "abstain": 10132, 
  "rendered": 10133, 
  "peer": 10134, 
  "ASEAN": 10135, 
  "animated": 10136, 
  "precondition": 10137, 
  "arose": 10138, 
  "Ben": 10139, 
  "Before": 10140, 
  "pockets": 10141, 
  "Scientific": 10142, 
  "ishing": 10143, 
  "DO@@": 10144, 
  "leg": 10145, 
  "hypocrisy": 10146, 
  "seriousness": 10147, 
  "publishers": 10148, 
  "seemingly": 10149, 
  "revise": 10150, 
  "Pool": 10151, 
  "reminder": 10152, 
  "rewards": 10153, 
  "EU@@": 10154, 
  "rush": 10155, 
  "overlooks": 10156, 
  "gam@@": 10157, 
  "og": 10158, 
  "etto": 10159, 
  "ministerial": 10160, 
  "ais": 10161, 
  "Wolfgang": 10162, 
  "canal": 10163, 
  "crimin@@": 10164, 
  "Petersburg": 10165, 
  "â": 10166, 
  "cleaner": 10167, 
  "selective": 10168, 
  "balls": 10169, 
  "slip": 10170, 
  "pil@@": 10171, 
  "Bluetooth": 10172, 
  "treasures": 10173, 
  "disciplines": 10174, 
  "spac@@": 10175, 
  "albums": 10176, 
  "Bangkok": 10177, 
  "infringements": 10178, 
  "relocation": 10179, 
  "worn": 10180, 
  "disorder": 10181, 
  "cosmetics": 10182, 
  "shifting": 10183, 
  "wasted": 10184, 
  "radar": 10185, 
  "cum@@": 10186, 
  "SIS": 10187, 
  "ges@@": 10188, 
  "approving": 10189, 
  "Rimini": 10190, 
  "indi@@": 10191, 
  "fra@@": 10192, 
  "offence": 10193, 
  "Hy@@": 10194, 
  "Texas": 10195, 
  "Officer": 10196, 
  "cos": 10197, 
  "practise": 10198, 
  "fired": 10199, 
  "zy@@": 10200, 
  "stadium": 10201, 
  "lasts": 10202, 
  "cafe": 10203, 
  "bombs": 10204, 
  "forwarded": 10205, 
  "advertisement": 10206, 
  "": 10207, 
  "repairs": 10208, 
  "racist": 10209, 
  "prot@@": 10210, 
  "disproportionate": 10211, 
  "mins": 10212, 
  "cited": 10213, 
  "violate": 10214, 
  "buried": 10215, 
  "discourse": 10216, 
  "incapable": 10217, 
  "rendering": 10218, 
  "pronounced": 10219, 
  "intolerable": 10220, 
  "Dar@@": 10221, 
  "ums": 10222, 
  "Editor": 10223, 
  "logging": 10224, 
  "ras": 10225, 
  "cio": 10226, 
  "Sahara": 10227, 
  "supermarket": 10228, 
  "any@@": 10229, 
  "Tourist": 10230, 
  "trap": 10231, 
  "bubble": 10232, 
  "ined": 10233, 
  "1983": 10234, 
  "Palazzo": 10235, 
  "Deutschland": 10236, 
  "AK@@": 10237, 
  "amateur": 10238, 
  "swi@@": 10239, 
  "oria": 10240, 
  "proc@@": 10241, 
  "ANY": 10242, 
  "boosting": 10243, 
  "excitement": 10244, 
  "Frattini": 10245, 
  "Do": 10246, 
  "1974": 10247, 
  "misuse": 10248, 
  "bills": 10249, 
  "uranium": 10250, 
  "crazy": 10251, 
  "plac@@": 10252, 
  "derogation": 10253, 
  "Je@@": 10254, 
  "travels": 10255, 
  "controllers": 10256, 
  "yourselves": 10257, 
  "corporation": 10258, 
  "notwithstanding": 10259, 
  "oning": 10260, 
  "vendors": 10261, 
  "emphasized": 10262, 
  "Ham@@": 10263, 
  "ão": 10264, 
  "Facebook": 10265, 
  "orchestra": 10266, 
  "NO@@": 10267, 
  "lamp": 10268, 
  "entrusted": 10269, 
  "disclosure": 10270, 
  "civilization": 10271, 
  "polite": 10272, 
  "extensively": 10273, 
  "til@@": 10274, 
  "illnesses": 10275, 
  "Limited": 10276, 
  "talented": 10277, 
  "ICT": 10278, 
  "consecutive": 10279, 
  "anim@@": 10280, 
  "PC@@": 10281, 
  "ION": 10282, 
  "plan@@": 10283, 
  "Estate": 10284, 
  "utterly": 10285, 
  "shelter": 10286, 
  "grasp": 10287, 
  "त@@": 10288, 
  "proceeding": 10289, 
  "ş@@": 10290, 
  "FR@@": 10291, 
  "Imperial": 10292, 
  "painter": 10293, 
  "forgetting": 10294, 
  "2,000": 10295, 
  "ret@@": 10296, 
  "Lam@@": 10297, 
  "reassure": 10298, 
  "d.@@": 10299, 
  "Nu@@": 10300, 
  "approached": 10301, 
  "pot@@": 10302, 
  "belts": 10303, 
  "funny": 10304, 
  "RES@@": 10305, 
  "bled": 10306, 
  "pole": 10307, 
  "panic": 10308, 
  "banner": 10309, 
  "128": 10310, 
  "pensioners": 10311, 
  "differs": 10312, 
  "UL@@": 10313, 
  "Staff": 10314, 
  "Speed": 10315, 
  "glacier": 10316, 
  "Democracy": 10317, 
  "Young": 10318, 
  "Yugoslav": 10319, 
  "anc@@": 10320, 
  "ner@@": 10321, 
  "disclose": 10322, 
  "Essen": 10323, 
  "Ecofin": 10324, 
  "delights": 10325, 
  "squares": 10326, 
  "anxiety": 10327, 
  "fishery": 10328, 
  "holdings": 10329, 
  "stamp": 10330, 
  "umbrella": 10331, 
  "CPU": 10332, 
  "SC": 10333, 
  "operative": 10334, 
  "Da@@": 10335, 
  "credited": 10336, 
  "sponsors": 10337, 
  "Adjustment": 10338, 
  "municipalities": 10339, 
  "Ltd.": 10340, 
  "spiral": 10341, 
  "Steel": 10342, 
  "Berlusconi": 10343, 
  "summits": 10344, 
  "graduated": 10345, 
  "ref@@": 10346, 
  "tabling": 10347, 
  "processors": 10348, 
  "faithful": 10349, 
  "tico": 10350, 
  "nominal": 10351, 
  "ix": 10352, 
  "न@@": 10353, 
  "ous@@": 10354, 
  "episodes": 10355, 
  "amidst": 10356, 
  "dru@@": 10357, 
  "Florida": 10358, 
[...]
